Weights from input to hidden layer.
0.0070634373;0.28508443;0.09842821;-0.0626607;0.2672806;-0.004744882;-0.3127186;0.2827721;-0.12928273;-0.08336266;0.017458055;-0.18576096;-0.3219217;0.0619097;-0.087396406;0.19326626;0.16760536;-0.06859259;0.32566524;-0.039611936;-0.1574537;0.024690988;0.058686398;-0.19614361;-0.16939259;-0.2891722;0.07329944;-0.06583644;0.118647486;0.16581246;0.33456913;0.27226368;0.086284675;-0.20226654;-0.03763163;0.0320587;-0.21850275;0.19486114;-0.26605392;-0.03310257;0.028788598;-0.036383837;0.37910223;0.03367153;-0.07136876;-0.008569034;-0.06013989;0.19719702;0.07291277;-0.25054854;-0.3105705;0.30777216;0.07362911;-0.111406416;-0.00987381;-0.066921234;-0.19411886;-0.0445231;-0.25510207;0.24044216;0.12250388;-0.18402259;0.19005355;0.08375049;-0.0060963305;0.0015774501;-0.007849363;-0.15539172;-0.34017286;-0.14224803;-0.2961009;0.037201315;-0.038225085;0.049662057;-0.15313601;-0.10340504;-0.0596208;0.2716322;-0.070310086;-0.1513952;-0.045230962;-0.040100317;0.00028365027;0.0010508248;0.22275333;-0.22111891;-0.25490308;-0.13020112;-0.38355824;0.030257918;-0.09378221;-0.0022910014;0.044573605;0.055240393;0.18316618;-0.25583664;-0.3670512;-0.24019882;0.1124011;0.11983919;0.023103813;0.0074937544;-0.101054184;-0.09024897;-0.23495498;-0.1586927;-0.097045794;0.16894464;0.22178294;-0.16549152;0.20209825;0.017852377;-0.035531882;0.5780128;0.20281695;0.3073127;-0.09237939;-0.041113228;-0.25286424;0.18950276;-0.1549821;0.1264859;0.13982955;-0.12439931;0.08343851;-0.05428672;0.011974516;0.19372222;-0.08452978;-0.17727534;0.03112328;0.22692935;0.14554179;0.017194062;0.20072632;0.3674881;-0.07086423;0.012321768;0.11698984;0.1792615;-0.17637995;0.15773344;-0.2194774;0.042040173;0.18006347;0.28671587;0.26626906;0.25838998;0.27775016;0.1005718;0.09921015;-0.062307507;0.10133828;-0.009573905;-0.17962362;0.12569499;0.008521668;-0.019437669;0.008547373;0.2817791;-0.040066805;0.004626209;-0.012711802;0.0013477742;0.06766814;0.036490783;-0.21475194;0.29490614;0.30060035;-0.19600837;-0.026575515;0.08001519;0.112321526;0.22011283;-0.06356388;0.06225063;0.082233466;0.06971784;-0.16751942;0.06582288;0.027400717;0.15687467;-0.11848023;0.17374009;0.32577515;0.08209307;0.2366265;0.26023808;-0.004563912;0.03758748;0.1556589;-0.031058878;0.24475303;0.020965185;-0.17001487;0.075213864;-0.05747131;-0.20954771;0.19707344;0.26666042;0.121872276;0.012022789;-0.0025339455;0.25033772;-0.060015686;-0.20696309;-0.039823987;0.20710045;-0.175884;-0.09346174;0.12540393;0.32632118;0.18629564;0.22620276;0.26687017;0.020671207;0.06900036;0.05838026;0.09582588;0.4519798;0.012036323;0.15217851;0.14686486;-0.015780846;-0.070816465;0.06437561;-0.19357072;-0.41250637;0.07428033;0.078247;-0.16867551;0.12066179;-0.22478846;-0.00086345105;-0.20830524;-0.059857745;0.12750745;-0.2715164;-0.10375131;0.15997006;-0.10047792;0.38753924;0.010180581;0.18400823;-0.21816926;0.048640076;-0.031256475;-0.19709174;0.07606666;0.2528869;0.10045853;0.16797023;-0.25171638;-0.022719817;-0.026498975;0.11148674;0.02535551;-0.04688761;0.04310846;-0.2683149;-0.10746813;0.20470841;-0.055535074;0.12116556;-0.09809511;-0.17348278;0.11674084;-0.024803327;0.10995263;-0.14387667;0.30789292;-0.11604265;-0.19614682;-0.2103024;-0.5097704;-0.11265497;-0.12442171;-0.035547137;0.08858318;0.036283527;0.3320264;-0.07979068;0.14135085;0.07200357;0.014160158;-0.03175978;0.13620786;0.05641019;0.18536043;-0.037882507;0.12261982;0.20693082;0.17736344;-0.089940324;0.1713594;-0.053052656;-0.1167379;0.1299846;-0.35643432;0.30898914;-0.027777102;-0.1097774;-0.102255665;-0.10457796;0.0687823;-0.057401244;-0.11045033;0.090052016;-0.44952473;0.12274185;-0.14003032;0.0022997756;-0.35563305;0.028372496;0.12957084;0.05189979;-0.042813264;0.20328072;0.27795556;-0.22419839;-0.004177865;0.0362238;0.11922351;0.12891155;-0.029056212;-0.047562387;-0.15714546;0.18249895;-0.21485113;-0.22628959;0.08276732;-0.25896677;0.016615678;0.14949988;-0.33803856;-0.0071303714;-0.15613885;-0.016058592;-0.08547533;-0.23423946;-0.1016774;0.05458189;0.16631414;0.07223596;-0.1073764;0.21608551;0.18835765;0.14540718;-0.054647215;0.057094574;0.35091934;0.22452019;0.14775193;-0.22100724;-0.24384305;0.008115973;-0.22817989;-0.19885682;-0.007980098;0.018696794;0.07841078;-0.26177895;0.05337233;-0.12559974;0.073186316;-0.015013455;0.16283804;0.06747695;0.033818074;-0.20711365;-0.088501655;0.21480308;-0.19910367;0.07010556;-0.062045284;-0.018418336;0.26306212;0.3366944;-0.23103976;-0.08641478;0.010503287;0.33476213;0.121609025;0.05367451;-0.5608494;0.013296313;0.031683456;-0.18676853;0.045737572;0.028391501;-0.056884326;-0.08721407;0.2989534;0.3367477;-0.10467955;0.08561942;0.13953173;0.121432915;-0.014801279;0.060620405;0.17401092;-0.15486793;0.25134417;-0.046739113;-0.07031308;0.072613284;-0.006903719;0.20739926;0.3028436;-0.22039934;-0.08921848;0.15034334;0.073815875;0.05414319;0.013433445;0.0881653;-0.010018679;0.07529909;0.2593218;-0.16517167;-0.12748861;-0.048895065;0.03382103;-0.09516606;0.05607115;0.18111631;0.073995136;0.18128109;-0.17654243;-0.24883643;0.13108914;-0.04822655;-0.3740981;0.1756781;-0.03920458;-0.2300799;0.026558502;0.21410505;-0.15984991;-0.10712162;-0.010686897;0.050509386;-0.06478629;-0.11213387;0.09473332;-0.21901754;0.14330785;0.05974546;-0.29316232;-0.18672113;0.2650922;0.1217623;-0.17251892;-0.17127354;-0.026234834;-0.3139013;-0.09209764;-0.26018214;0.016326066;-0.055252817;0.11315487;-0.21923372;-0.097588815;0.038436662;0.16752182;-0.3040992;0.094358854;0.26494202;-0.1418585;0.08129215;0.008393554;-0.072053835;0.09124585;0.119041696;0.058162075;-0.13776673;0.19434406;0.09547872;-0.16014221;0.030431116;-0.17793907;0.0836363;-0.21058385;0.21461105;0.059884746;-0.011135034;-0.012393893;-0.28737083;0.092037916;-0.0067516663;0.09057195;0.020225758;-0.14344534;-0.16426708;-0.16682646;-0.0130802775;0.040979635;-0.10202217;0.059943024;0.062345676;0.14572836;0.0817442;-0.36395144;-0.121025026;0.23814912;-0.16818932;-0.082826346;0.074242756;0.017274784;0.13341074;-0.02070795;0.11078681;-0.044431776;0.09758828;0.17827006;0.19202365;-0.04561648;0.09360572;-0.087381825;0.09697129;-0.24009247;-0.04499025;0.057906818;-0.23527578;-0.06416779;-0.029657815;0.01945642;-0.43835947;-0.026214385;0.24156481;-0.03443684;-0.5312764;0.091446094;0.24224477;0.11777518;0.0105744675;-0.13338758;-0.13726941;0.046156555;0.09034965;-0.34083694;-0.020744465;-0.13184014;-0.010586514;0.27786168;-0.05547892;-0.2550094;0.45621088;-0.16740412;0.003280227;-0.031815205;-0.19918881;0.0593117;0.18630122;0.25832447;-0.0231368;0.27934465;0.036638115;-0.15770257;0.16191567;0.06981228;-0.34593716;0.14145757;0.22186853;0.24912006;-0.057274163;-0.045302667;0.1483964;-0.08249873;0.1009466;-0.110205226;-0.090002686;-0.3701721;0.14128003;-0.09954654;0.19518936
-0.0018557229;0.2187811;0.11689718;-0.15031768;0.13709815;0.090519466;-0.06911256;0.21248363;-0.09056801;0.08693633;0.04724845;-0.09019324;-0.20929869;0.050601102;-0.143174;0.31384537;0.14991534;-0.14515233;0.3256101;-0.01061342;-0.07502306;-0.0073606097;-0.101945736;-0.30930734;-0.14055254;-0.23872483;-0.014416116;0.01142663;0.08895617;0.14136891;0.2459789;0.18514666;-0.0403791;-0.06075997;-0.06031494;-0.02929743;-0.16275048;0.03584122;-0.32016575;0.061343815;-0.011421685;0.029919377;0.33040062;0.049926385;0.0115029635;-0.05162178;0.010508497;0.08754047;0.14078602;-0.24526235;-0.1058456;0.2520951;0.057579104;-0.18096118;0.0125725595;-0.047321968;-0.13923617;0.023502162;-0.21802272;0.30310464;0.026640862;-0.17362566;0.08076713;-0.04204882;0.022473946;-0.08958343;-0.01988783;-0.084563464;-0.21427315;-0.21424529;-0.37762293;-0.04385842;0.056042194;0.02895671;-0.035020605;0.021793861;0.121650755;0.22734493;-0.097726054;-0.16624933;-0.13467467;-0.00727153;-0.045375198;-0.022849597;0.21592732;-0.08843286;-0.06396082;-0.042751722;-0.29107612;0.013671648;-0.15634681;-0.06509292;0.04885677;-0.017627371;0.105316244;-0.26192263;-0.44011822;-0.22448495;0.18492281;0.13943443;0.0092653325;0.09758547;-0.15540032;-0.020844424;-0.08532454;-0.074315675;-0.1887329;0.039003972;0.10084282;-0.18788777;0.1566066;-0.10456022;0.005438822;0.5033362;0.1541498;0.16970044;-0.06489878;-0.1708191;-0.2171742;0.023941394;-0.017346835;0.076276734;0.23528062;-0.09596539;-0.13003099;0.06259544;0.05906894;0.09654842;0.00444078;-0.099970676;0.12550108;0.17734444;0.17813575;0.08347539;-0.032399517;0.40698892;-0.043841176;0.011325906;0.05385675;0.10194772;-0.07656639;0.2538743;-0.083654776;-0.02239653;0.19218555;0.18828866;0.33925906;0.17667046;0.26821113;0.008537268;0.11637882;-0.034187008;0.061986633;-0.08756679;-0.15176487;0.083897784;0.15960382;0.061446514;0.11006194;0.15888207;-0.0125755025;-0.011627492;-0.016729657;-0.10270132;-0.006477134;0.06968224;-0.12639442;0.17708491;0.32044646;-0.3956594;-0.065901175;0.18908468;0.060699318;0.19446288;-0.012640509;0.13771299;0.19787976;0.041109595;-0.2742647;0.07549965;0.16182025;0.071473666;-0.06552613;0.04997631;0.28161982;0.083018325;0.1890897;0.23390244;-0.0068418756;-0.08571332;-0.0061420496;-0.16132198;0.22334366;0.10648282;-0.13453554;0.09616077;-0.18224317;-0.20456319;0.15808022;0.16369139;0.28737605;-0.015215892;-0.112554714;0.23848645;-0.079329714;-0.0703596;-0.07769294;0.07628674;-0.13271947;-0.11324668;0.01459225;0.20817672;0.30485564;0.15614024;0.41709873;-0.053044274;0.07393529;-0.02149151;0.09569986;0.40912995;-0.04297615;0.11200644;0.09172683;-0.006090751;-0.01747106;-0.0050761043;-0.13951962;-0.33309457;0.06797183;0.14154646;-0.13497871;0.15859665;-0.1330397;0.09750748;-0.15317005;-0.00408661;0.07946472;-0.25397637;-0.08899766;0.12139191;-0.048420362;0.2546159;0.082721345;0.12620492;-0.21407226;0.02985493;0.024898514;-0.1409938;0.17223331;0.15889496;0.05874868;0.2193847;-0.2185606;-0.1532105;-0.016835455;0.016541138;0.0062460713;0.13100542;-0.07254856;-0.32277903;-0.19755578;0.14726572;-0.022498883;0.19719324;0.051291894;-0.023549907;-0.013757336;-0.009500513;0.1401282;-0.021672107;0.19466035;-0.18434769;-0.28144094;-0.18029217;-0.42911026;-0.08207508;-0.08493278;0.069801405;0.10497658;-0.030814627;0.3741806;0.014652582;0.05217125;0.099382065;-0.016199924;-0.07207964;0.1625766;0.10032328;0.14240076;-0.007496875;0.13101692;0.07383556;0.026531668;-0.13861245;0.17854215;0.022716789;-0.12379091;0.20400402;-0.31017044;0.21220532;-0.06279308;-0.029666234;-0.073436365;-0.11941485;-0.08259412;0.07658079;-0.103388056;-0.027861388;-0.2660183;-0.07844288;-0.1616131;-0.04386423;-0.38786638;-0.18224783;0.13981798;-0.019730384;-0.19607428;-0.0057302467;0.07523762;-0.1908101;-0.05166835;-0.09057806;0.018911688;0.083477296;-0.040679976;0.048728693;0.05042037;0.10719935;-0.23753823;-0.20054916;-0.027881468;-0.21789283;-0.12645543;0.17682947;-0.25361407;-0.07801085;0.017790455;0.0016984292;-0.0021283543;-0.1485454;-0.01329893;0.07385649;0.13219683;0.029033467;-0.23812139;0.13258937;0.21019202;0.037181947;-0.052188665;0.030362679;0.18240258;0.180542;0.119727015;-0.20436777;-0.39025852;0.06458874;-0.22441202;-0.062086523;-0.032253813;-0.07715748;-0.055906452;-0.19796953;0.087278016;-0.16684781;0.08938066;-0.051421087;0.14766584;0.15158273;0.093296;-0.16670874;-0.05480439;0.29589736;-0.2274493;-0.014871639;0.058642708;-0.0536186;0.1726119;0.22751927;-0.2501464;-0.08610417;0.06959961;0.22790319;0.083184;-0.14397714;-0.54555696;0.009654727;-0.063663326;-0.15787397;0.017773783;0.14944482;0.13737966;-0.05282473;0.24356018;0.18617857;-0.28769058;0.09477258;0.27240086;0.0435581;0.049630694;0.08787314;0.26392898;-0.24614632;0.09745594;0.08400583;-0.12018835;0.03391131;0.0061810627;0.19202013;0.29512224;-0.18729487;0.016954958;0.05436633;0.14976174;0.009114947;0.16346401;0.045402687;-0.007115461;-0.004788986;0.2192079;-0.13019724;-0.17076978;-0.005944449;-0.020165833;-0.13358073;0.06325192;0.1123829;0.062671944;0.13201517;-0.23143736;-0.10041605;0.05368486;0.0726252;-0.290463;0.18185574;0.0077408296;-0.07282433;0.17150429;0.23686911;-0.262526;-0.10058349;0.0043242867;0.12839794;-0.041907143;-0.25785074;0.11785445;-0.081900276;0.026690736;0.005402136;-0.28146547;-0.1786701;0.3198977;0.10240079;-0.11859402;-0.06330406;-0.046630535;-0.1809812;-0.15217602;-0.24870609;-0.05164078;-0.062489532;0.06326843;-0.19609797;-0.0057691447;0.09975705;0.26462775;-0.24224648;0.13471298;0.1916017;-0.21572372;-0.07488256;0.08651803;0.02852397;0.11473318;-0.05993989;0.1508212;-0.16226415;0.18506794;0.07154635;-0.19348788;-0.011135772;-0.25062272;0.10205118;-0.029638812;0.08335576;0.12422103;0.010320173;0.060379602;-0.12849613;0.12542097;0.0050624697;-0.00097464485;0.16162685;-0.0702238;-0.023851957;-0.20795137;0.045547705;0.0022424054;-0.157274;0.0805686;-0.013774256;0.06421966;0.120617956;-0.24858677;-0.04011791;0.22850008;-0.17512414;0.07207506;0.083847046;-0.07134846;0.13715617;-0.003979541;0.15174717;-0.11595799;0.23037153;0.14706199;0.30319464;0.02661434;0.08858495;-0.14023018;0.12159423;-0.32932016;0.020934679;-0.067629;-0.21563509;-0.055121735;0.077094704;-0.01326132;-0.3987342;0.07145644;0.2791259;0.045137875;-0.31083995;0.07149151;0.20048426;0.118901595;0.04676177;-0.0431612;-0.14002027;0.07004812;0.13252151;-0.16156578;-0.20468;-0.29971576;0.0054845233;0.06157368;-0.02724253;-0.19161962;0.46527892;-0.109003365;0.09657538;-0.163168;-0.23384498;-0.038381785;0.061034635;0.29548237;0.0060539846;0.15324758;0.13598534;-0.17000642;0.08921723;-0.011443779;-0.21476363;0.10528995;0.13013454;0.2411561;-0.16502325;-0.046576552;0.1765031;0.02866266;-0.0018544771;0.02191989;-0.19287331;-0.23376913;0.1743056;-0.13729334;0.19015463
0.12590307;0.23519069;0.22576644;-0.15256104;0.1723128;0.06353323;-0.053785864;0.106434874;-0.06405175;0.055734802;-0.09261473;-0.05734108;-0.18150769;0.08649614;-0.16546936;0.32555246;0.25343433;-0.1165058;0.2327276;-0.18389004;-0.19437638;0.008011796;-0.10699282;-0.2941455;-0.10974775;-0.21617258;0.06456788;0.06947714;0.090222485;0.17326774;0.12070017;0.108928;0.013715254;-0.033184156;0.027922234;-0.08048735;-0.19583933;0.11875141;-0.21615452;0.117764845;-0.044140052;0.092693076;0.19005376;-0.057533544;-0.16322033;-0.011372517;0.00514747;0.030069908;0.09637591;-0.28196663;-0.30950183;0.28607634;-0.09622785;-0.18322906;0.026261207;0.0406344;-0.14382227;-0.07628164;-0.12939459;0.41403252;0.028797166;-0.08870555;0.10460937;-0.058326874;0.08333323;-0.08477876;-0.15201062;-0.03136765;-0.20264152;-0.13581607;-0.083419144;0.020680532;0.21788847;-0.010533937;-0.09657764;-0.02126018;0.11858141;0.30277422;-0.062820755;-0.2696695;-0.04962226;-0.07679426;0.0561639;0.044040207;0.20413233;-0.020971233;-0.05650099;-0.002593758;-0.21790302;0.025458714;-0.18322352;-0.21907611;0.08987149;-0.033236474;-0.011227499;-0.19929582;-0.3549487;-0.21025519;0.20434101;0.13163543;0.14083648;-0.15741302;-0.06438665;0.1567604;-0.28165978;-0.04627262;-0.13891825;-0.033132315;-0.06969586;0.028473172;0.13904321;-0.020422183;0.077026635;0.3771035;0.015568866;0.10370248;-0.13032316;-0.23293993;-0.029776024;0.008032429;0.020193314;0.025282895;0.18756038;0.042669866;-0.11269998;-0.045811225;-0.039577063;0.1215246;0.16150236;-0.10770211;0.10440093;0.19189894;0.11689831;0.08740578;-0.030212712;0.38752222;-0.013046801;-0.06814591;0.12589248;0.066462144;-0.070466205;0.27026376;-0.20644565;-0.05522865;0.19751051;0.10980938;0.31500876;0.13010146;0.2431441;0.096461065;0.06718998;-0.1423255;0.097242944;-0.07222674;-0.18416117;0.09128325;0.1170433;0.102435574;0.036980744;0.088333815;-0.11383799;-0.15604737;-0.11256843;0.004605742;-0.07947868;0.16654357;-0.13887702;0.13449608;0.28754136;-0.34506306;0.14513993;0.25073513;0.11815051;0.29154527;0.0071472786;0.111447655;0.23954673;-0.1038391;-0.2642202;0.010142207;0.05657562;0.114547856;0.10319165;0.2048633;0.14063863;0.15440151;0.007190725;0.16272408;0.048175275;0.08314851;-0.06556521;-0.027472232;0.097070925;0.10802349;-0.17182323;0.12431206;-0.1220809;-0.27719176;0.20925103;0.11513316;0.20885755;-0.112853356;-0.22020605;0.26153326;-0.033899907;-0.084734805;0.0056068804;0.09243145;-0.0595106;-0.047122553;0.10424199;0.28772742;0.23555182;0.033099853;0.36157072;0.023773434;0.15280345;0.009991366;0.056512833;0.21421844;-0.08121495;0.079324745;0.060457963;-0.050392468;-0.093711525;0.030822922;-0.08499884;-0.2160178;0.054499004;0.2397472;-0.15322563;0.15703854;-0.069508314;-0.008231102;-0.07471699;-0.0185598;0.15183377;-0.13233666;-0.25101364;0.118432984;0.07134327;0.26001266;0.10420628;0.10079226;-0.10434577;0.12649292;0.044234186;0.030106641;0.32984287;0.16948828;0.20726591;0.13572085;-0.2040484;-0.0009057403;0.050327957;0.054423437;-0.039703544;0.06554317;-0.043313183;-0.35824686;-0.11299191;0.1783896;0.059018172;0.20204069;0.075047776;-0.017199168;0.075442754;0.108133696;0.0033767;0.06844725;0.09033028;-0.115902476;-0.045303483;-0.08116014;-0.5468449;-0.13561781;-0.115738764;0.09395788;0.12997663;-0.03325144;0.31399828;-0.01759926;-0.10822279;0.038428858;0.20661412;-0.08402794;0.100475036;0.043945324;0.13425237;-0.051578615;0.06256329;0.15326852;0.046212014;-0.008889537;0.20088817;-0.10179064;-0.19850837;0.20812379;-0.23275219;0.33073366;0.060322974;-0.062714115;-0.026486952;-0.06340751;-0.047387376;0.05658737;-0.10806167;0.10962027;-0.39172822;-0.06131475;-0.106537074;-0.10538697;-0.290595;-0.16936095;0.009148292;0.16127862;-0.16802195;0.087880716;-0.03693028;-0.17084087;-0.009839544;-0.09000228;0.005680633;0.059004348;0.013207447;-0.07207976;-0.018435229;0.06730586;-0.07067547;-0.19286267;0.061064612;-0.0762653;-0.10645796;0.1006744;-0.25566298;0.03885594;0.10286346;-0.013717677;0.0020295768;-0.2576704;0.012583063;-0.06056148;0.11380229;0.023603782;-0.13685817;0.12763178;0.23879799;0.09154887;0.011932654;0.06910051;0.25486648;0.20236473;-0.016735137;-0.10106662;-0.36770597;-0.078406334;-0.14697783;-0.054953173;0.14016016;-0.01611391;-0.09416248;-0.2374375;0.12804008;-0.042959034;0.04164891;-0.14080371;0.15510428;0.080281325;-0.10824426;-0.04509261;0.09791256;0.25749215;-0.40947357;-0.043115973;0.08172056;0.07039149;0.17022054;0.112284675;-0.04852899;-0.12240827;0.19893362;0.19757852;-0.07063689;-0.10781002;-0.50782305;-0.09608892;0.0403734;-0.15469019;-0.014247522;0.07821829;0.0046127406;-0.018474104;0.30126116;0.15068251;-0.08550823;0.17817655;0.056583855;0.069079384;-0.018182851;0.06282973;0.32220572;-0.14767109;0.08136256;0.09712713;-0.13368097;-0.056375965;0.012294056;0.10640997;0.2722541;-0.11713402;0.022136878;0.15928473;0.060593825;-0.13948669;0.12351192;0.10165418;-0.02126777;0.06274047;0.18385288;0.00831793;-0.10658937;0.10574589;-0.01552774;-0.030340752;0.037296906;0.1443113;0.18586142;0.11888733;-0.13992232;-0.16590308;0.1178373;-0.011715901;-0.35348696;0.32259437;-0.04922634;-0.05359241;0.14624098;0.2548065;-0.20335719;-0.05966511;0.13802494;0.17067713;-0.17458986;-0.24190499;0.06998855;-0.031562366;-0.069577046;0.112904325;-0.11120788;-0.04935499;0.1843847;-0.044177845;0.08626262;-0.2055138;0.04070509;-0.2541058;-0.041088182;-0.23690087;-0.050401963;-0.0069064866;0.23591147;-0.19369824;0.010784018;-0.051139772;0.13840714;-0.40511996;0.23652685;0.058909535;-0.10198819;0.012920785;0.08126008;-0.018890101;0.045179818;-0.027294679;0.08659419;-0.01709102;0.11564696;0.06056945;-0.30398;0.08032887;-0.24103563;0.013082522;-0.107115574;0.13720423;0.07942827;0.01892729;0.11134017;-0.123363905;0.08233341;-0.0771301;0.021644834;0.2766603;-0.07234747;-0.037308075;-0.36848775;0.11617817;-0.018553695;-0.15731458;0.22483839;-0.06018659;-0.05570921;0.12062955;-0.3428517;-0.061163582;0.20516515;-0.012155418;0.044987433;0.07352647;0.059392642;0.04689346;-0.07474439;0.07947113;-0.18119015;0.13915403;0.20377485;0.16597652;0.18953526;0.18194453;-0.026115742;0.06737497;-0.21217075;-0.046087887;-0.022809742;-0.12555163;-0.16895165;0.05023998;-0.19685367;-0.4146118;0.097486466;0.14977267;-0.043516435;-0.29735982;0.06908215;0.07261542;0.21665956;0.060283743;-0.08207485;-0.32213482;-0.1052536;0.09872366;-0.08422626;-0.12441229;-0.121843845;-0.023434738;0.102170296;-0.040956102;-0.10273459;0.34519258;-0.15467258;0.09986291;-0.14238495;-0.22214383;-0.093006924;0.010316849;0.1551285;0.08053809;-0.062620945;0.22335263;-0.20285152;0.08150475;-0.015487793;-0.26568916;0.13753767;0.02287015;0.23502314;-0.11268748;-0.08355313;0.15887243;0.019010248;0.0015566029;0.102246396;-0.23755507;-0.19195758;0.07474621;-0.04000093;0.14419201
0.09450918;0.13382892;0.13033915;-0.10784438;0.2594916;0.103003204;-0.1155156;-0.014140279;-0.10876053;0.13557303;0.019920364;-0.03611123;-0.19620027;0.051104955;-0.1613103;0.30387822;0.17953052;-0.24612625;0.2721872;-0.081164174;-0.2118796;-0.054547723;-0.24769655;-0.29032972;-0.19523813;-0.05850407;-0.0774099;-0.0333243;0.117586195;0.14413315;0.22509077;0.19972178;0.008406562;0.062313505;-0.17402637;-0.07548213;-0.16657348;0.000111950416;-0.26988533;0.010681046;0.07117924;-0.09253525;0.25925216;0.07270668;0.018433701;-0.03574938;-0.07873043;0.14486966;0.23366225;-0.19879551;-0.25616476;0.18865734;-0.0065777088;-0.06656842;-0.018423034;0.030067042;-0.1640473;0.044991747;-0.15929851;0.26185083;0.19085787;-0.16116323;0.18155982;-0.19734819;0.10943468;-0.06395383;-0.1284841;0.016101988;-0.22485448;-0.05820408;-0.17137836;-0.012855363;0.16596927;-0.014173029;-0.09622344;-0.06297096;-0.049330518;0.16071124;0.053753674;-0.15006474;0.055617627;0.14477895;-0.119848534;-0.034396425;0.19248205;-0.12552817;0.048042227;-0.04772894;-0.15557963;0.07972349;-0.1419593;-0.2816598;0.06428313;0.03523387;0.10805443;-0.19168863;-0.3618627;-0.090745986;0.17633404;0.093634635;0.07474819;-0.12268489;-0.15476064;-0.06858685;-0.13144153;-0.060894553;-0.04877734;-0.008471108;0.070231296;-0.060920987;0.20736738;-0.050854348;-0.080539465;0.4949202;0.055573225;0.17585467;0.038945034;-0.19702698;0.0014058689;0.040423803;0.11968761;-0.032685265;0.22848846;0.059607565;-0.15624288;-0.066875435;0.06475116;0.182688;0.12532395;-0.12347791;0.17683934;0.09179473;0.035362124;0.07191058;0.025413966;0.38396946;0.031595323;0.009421222;0.09254522;-0.09299068;-1.0447456e-05;0.08290541;-0.1672343;0.05629322;0.19438353;0.1562756;0.28692597;0.1592374;0.1817145;0.12576005;0.06649539;-0.025659684;0.15264304;-0.06663965;-0.13228582;0.17665248;0.1794733;0.116093405;0.07960752;0.19670247;-0.08233784;0.074550465;0.018938528;-0.035974406;-0.028042393;0.10277513;-0.040859617;0.120154604;0.10278341;-0.30830896;0.027475901;0.11433208;0.07069798;0.116480924;-0.0059315814;0.0029632081;0.16636805;-0.06318939;-0.20360468;-0.08587979;0.19780686;0.10254778;0.055660315;0.112939075;0.11409064;0.06250342;0.04400343;0.14532042;-0.07208501;-0.1120815;0.026599914;-0.024634127;0.1699489;0.033961803;-0.04502114;0.09681623;-0.09210914;-0.27946758;0.13163187;0.17450316;0.1729858;-0.0491;-0.27155265;0.13517225;-0.15841874;-0.0411516;-0.1725651;0.08849977;-0.040979423;0.03010915;0.19429919;0.21158884;0.143588;-0.009519984;0.3550581;0.038926374;0.012355628;0.03432347;0.09996975;0.2873567;0.038123097;0.08321418;0.14229082;-0.020215884;-0.029463762;0.041956943;-0.141162;-0.24652793;0.049818855;0.17885402;-0.296575;0.039031103;-0.07003664;0.093945555;-0.2682218;0.0038336874;0.04178509;-0.15228413;-0.20807688;0.20258561;-0.113274544;0.27953178;-0.020846093;0.069819555;-0.25427794;0.09924419;0.0467649;0.0064377827;0.33569664;0.13107014;0.23573124;0.19780244;-0.24743828;-0.033998303;0.09889519;-0.06014612;0.08412607;0.061937537;-0.02408666;-0.20116806;-0.08044614;0.11359663;0.042265587;0.062693186;0.024787312;-0.051546678;0.19852194;0.021039775;0.12744288;-0.067849316;0.21135488;-0.04048425;-0.11071804;-0.1352598;-0.4782528;-0.20248467;-0.056087058;0.122567825;0.09038317;-0.07652494;0.3577438;-0.13027237;-0.05305452;0.07684636;0.027405975;-0.17488329;-0.0118416445;0.0068028555;0.04677442;-0.07904574;0.18338388;0.018870858;0.05472808;-0.08163582;0.085891426;0.10771624;-0.049860388;0.22233567;-0.17716403;0.2751597;-0.04531484;-0.017561404;-0.16213258;-0.0488982;0.017741743;-0.0591778;-0.24076931;0.0033203117;-0.16003971;-0.10569902;-0.19954418;-0.044401262;-0.27483714;-0.1795968;0.097176135;0.022808738;-0.1467054;0.14602326;0.114799276;-0.1122522;-0.08935058;-0.007775055;0.14259855;0.023681983;0.045866657;-0.054653686;0.0858317;0.090938166;-0.23789638;-0.12689455;0.011871958;-0.023540199;-0.10991424;0.14540023;-0.15868534;0.03940964;0.02106716;-0.0059982473;-0.092051245;-0.105324835;0.027154295;-0.026447786;0.15010563;-0.027220506;-0.10262842;0.306859;0.11360134;0.027010273;-0.005040851;-0.013869769;0.13092057;0.0334777;-0.016064249;-0.0169063;-0.34264162;-0.07759513;-0.22589697;-0.10125029;-0.0056610988;-0.017345097;0.017869793;-0.25114715;0.121565916;-0.1486437;0.042191874;-0.20300691;0.18952927;0.21750355;-0.04594744;-0.11993389;0.005034046;0.18470152;-0.20617184;-0.06680239;-0.0121848425;0.070783645;0.09995183;0.028601399;-0.10729474;-0.22464223;0.20454079;0.17181343;-0.035719894;-0.0143461665;-0.36206004;0.06660829;0.04490575;-0.1836149;-0.01538826;0.13446832;0.07525252;0.09563553;0.26347926;0.23612593;-0.2606896;0.17102872;0.0959438;0.12563391;-0.07839839;0.00113918;0.24732721;-0.23720331;0.09972197;0.05145318;-0.084430546;-0.020183908;0.009686884;0.17244929;0.23933631;-0.108392365;0.044114374;-0.07417138;0.12409382;-0.13201135;0.031641606;-0.0700303;0.050664727;0.008940942;0.21698979;-0.16655786;-0.050328054;0.030067667;-0.021308921;-0.11317106;0.071944945;0.048041508;0.09231901;0.07439429;-0.2345254;-0.15882571;-0.004885402;0.06174046;-0.34702003;0.24440497;-0.14226483;-0.02826013;0.21150161;0.10363806;-0.09216824;-0.14966862;0.07358702;0.028651267;-0.12459895;-0.3204393;-0.03150757;-0.073120154;-0.062102366;0.04198345;-0.073469475;-0.15536527;0.15708962;-0.040251423;0.06474083;-0.22616284;0.10549524;-0.16076188;-0.051034663;-0.09243139;-0.06658378;-0.04317373;0.13346446;-0.27011245;-0.039094415;0.08499112;0.2700954;-0.27908665;0.21690117;0.16205674;-0.13774398;-0.060060635;0.11524391;-0.05941106;0.13093482;-0.018067457;0.13701393;-0.0850026;0.14513496;-0.046323456;-0.09095416;-0.1082898;-0.16197188;0.041527074;-0.013424734;0.11188279;0.07319641;0.06278856;-0.08468666;-0.22174475;0.17368208;-0.110943586;0.04906848;0.18181829;-0.15467954;-0.124634005;-0.35539252;0.027701726;-0.033823032;-0.06694364;0.1861716;0.10247761;0.04343559;0.22934628;-0.31151384;-0.04247479;0.14954217;-0.09988176;-0.13288544;0.13364421;-0.053980708;0.041995604;-0.04582479;0.14069743;-0.09875138;0.05087351;0.09608702;0.17856604;0.1687753;0.035022616;-0.047433715;0.054701984;-0.2802114;0.006266684;-0.11595979;-0.134233;-0.06741336;0.06933828;-0.035725217;-0.33179837;0.03685526;0.23983072;-0.10406186;-0.15225498;0.07033996;0.121772885;0.17763956;0.05242905;-0.035369158;-0.19158201;0.036431268;0.16880733;-0.22505452;-0.07661348;-0.1700527;-0.0629351;0.13295381;-0.13024588;-0.26180845;0.28024474;-0.08297491;0.04738023;-0.13248937;-0.21339303;-0.049697224;0.0721559;0.28873533;0.024096915;0.096644364;0.16451725;-0.31554398;0.071456835;-0.12713453;-0.12968875;0.15965152;0.079907015;0.26355532;-0.061298225;0.083258696;0.24642783;0.023746047;-0.023845386;-0.06337484;-0.0644047;-0.27807638;0.0002937197;-0.06398528;0.088094726
0.013446285;0.09021409;0.15374574;-0.09228836;0.15453827;0.04232472;0.029449234;-0.068847135;-0.01944155;0.14137046;-0.050820686;0.052315954;-0.20653114;-0.07536321;-0.1720006;0.2922058;0.091448784;-0.138645;0.33498624;-0.1500764;-0.07155553;0.13770662;-0.15494639;-0.14444356;-0.14619145;-0.22031888;0.054897718;-0.07842229;-0.05734394;0.12961312;0.12586282;0.05110629;0.056244954;0.123552814;-0.08506679;-0.029225418;-0.1135089;0.08702899;-0.17169085;-0.01732532;-0.014400717;0.050241303;0.33745;0.05273951;-0.1649882;-0.15673588;0.045950066;0.10671079;0.11606601;-0.091242015;-0.1616205;0.2295048;0.026633756;-0.080307685;-0.020439949;0.042032912;-0.15347545;0.04567782;-0.15178403;0.26476923;0.19020805;-0.17876402;0.03557283;-0.062567286;0.13907447;-0.05856058;-0.034269642;0.054569993;-0.24232729;-0.10267627;-0.12548335;0.11339286;0.07608132;0.1015188;-0.11162234;0.06638285;0.09023393;0.212919;0.113653824;-0.11074714;0.02294812;0.009831726;-0.08460897;0.115643196;0.28054705;-0.036482774;0.06784011;-0.019296356;-0.0009880991;-0.034749158;-0.103231885;-0.3780874;-0.06445884;-0.0048064627;0.0032556227;-0.20853455;-0.31329235;-0.20271753;0.11405615;0.12722565;0.07140409;-0.17803892;-0.20985217;0.08053205;-0.14243333;0.046829313;-0.17349096;-0.13149875;-0.013626462;-0.09696697;0.10561582;0.030231645;-0.12282496;0.4846537;-0.036675513;0.033245526;0.0060684383;-0.27066538;-0.09470108;0.037049267;0.08153056;0.015632994;0.25591058;0.024518868;-0.10434597;-0.11002135;-0.03485071;0.0924836;0.119490005;-0.1056869;0.088163875;0.1604304;0.14628617;0.11795239;-0.113346174;0.28780508;-0.02760216;0.017903717;0.11802602;-0.0054767868;-0.09012558;0.13201506;-0.21516691;0.13520269;0.25640103;0.15989862;0.30019376;0.047487285;0.19183856;0.046991616;-0.055469215;-0.0121675925;0.0831024;0.039932042;-0.12366422;0.093832836;0.23126882;0.16456899;0.20416887;0.014785399;-0.14327772;-0.07666934;-0.15627272;-0.024815029;-0.0937013;0.055092994;0.024389617;0.23201874;0.124899484;-0.33096072;0.038237054;0.13922858;-0.050669104;0.08532424;0.06265731;-0.079498954;0.0076294574;-0.01747999;-0.27354655;0.025258651;0.056132853;0.11308957;0.04497804;0.11535839;0.11423174;0.15484005;0.115428686;0.05418898;0.021690411;-0.07753124;0.025172248;-0.07762308;0.20993358;0.0271174;-0.046935417;0.039961606;-0.15003924;-0.18751414;0.12299756;0.0011061975;0.10017432;-0.0742248;-0.17643382;0.18192697;-0.12566878;-0.014218178;-0.14306223;-0.0056000226;-0.1182951;0.082345024;0.13806121;0.23707376;0.27684367;0.03446299;0.23888364;0.07444691;0.08670771;-0.07152228;0.09744146;0.33788252;-0.051355638;0.029923618;0.12293307;0.032997034;0.03292636;-0.012745903;-0.16890717;-0.25349224;0.106443524;0.16581863;-0.13872278;0.06805709;-0.15802898;0.10683657;-0.14043175;-0.09733663;0.015426596;-0.12266187;-0.2754801;0.08638767;0.057324085;0.2573432;0.061726965;0.19915052;-0.22525106;0.08062824;-0.09095607;0.04574028;0.39436963;0.25011098;0.18027194;0.14377803;-0.34852633;0.012621728;0.08985163;0.033439007;0.13129367;0.03723423;-0.022351936;-0.3097222;-0.10212406;0.19322178;0.04240633;0.18941231;-0.06982395;-0.16363457;0.114124484;0.08343608;0.06014955;0.05698479;0.19018641;-0.118663535;-0.11926559;-0.09051005;-0.5505622;-0.19719549;-0.079057105;0.051156066;-0.025979277;0.010748459;0.2595476;-0.06138267;-0.14083949;0.07117335;0.16051902;-0.073684;-0.038700387;0.056858372;-0.029784422;0.08361485;0.10825198;0.017529145;0.058890507;-0.040981397;0.17513794;0.07292655;-0.17496891;0.29794958;-0.046609648;0.15566383;0.0038890971;-0.027205138;0.0032287948;-0.083648816;-0.12520595;-0.16220847;-0.18862186;-0.07183965;-0.22286148;-0.15412205;-0.0555923;0.00649539;-0.20775189;-0.35834792;0.14377318;0.15540458;-0.09102983;0.14875787;0.06153487;-0.11932948;-0.08672171;0.018945457;0.11799906;0.08028118;-0.03740716;-0.13132033;0.09776926;0.052510675;-0.22276221;-0.15168579;-0.060991816;0.076258995;0.020441404;0.14193697;-0.17114647;-0.015645629;0.025799036;0.02302647;-0.11505635;-0.14278647;-0.081371464;0.03965141;0.058389;-0.073397085;-0.08985239;0.13283977;0.12772538;0.10401949;-0.045744296;0.124166325;0.07774387;0.0071929116;0.0522984;0.043313727;-0.28271446;-0.095788404;-0.1386303;-0.10268432;0.0780135;-0.109324574;-0.057536922;-0.22886899;0.15412441;-0.09406529;-0.09190198;-0.16423522;0.24994819;0.23600063;0.061244443;0.016281452;0.01769928;0.24107774;-0.2949219;-0.15707226;0.11335568;0.03683149;0.09226935;0.0064113215;-0.16056213;-0.103759006;0.10708519;0.16568601;-0.113350116;-0.1063713;-0.371597;-0.03294263;-0.07279211;-0.12039931;-0.008793011;0.13886045;0.08679467;-0.08858759;0.29438737;0.2324557;-0.3227154;0.06556176;-0.05459229;0.13765934;0.0051765805;0.069302954;0.19038297;-0.22817716;0.03291585;0.09768547;-0.19060074;-0.0846215;0.13615201;0.009416264;0.1936202;-0.035485238;-0.04643101;0.036515076;0.050768152;-0.1702635;0.06605515;0.0029754925;-0.028620934;-0.017544683;0.17907164;-0.058556672;-0.08690306;-0.011132073;-0.049435623;-0.030221416;0.06991421;0.031536866;0.14683624;-0.057860512;-0.12353553;-0.24144658;-0.06499886;0.09914386;-0.39341742;0.10035323;-0.13242267;-0.1357827;0.11934275;0.14704527;-0.21121465;0.018368255;0.06335969;0.23781347;-0.1372332;-0.3853661;0.034238275;0.030987544;-0.13998453;0.069860294;-0.17456976;-0.1570218;0.22903097;-0.013787314;0.00866988;-0.13851792;0.18866707;-0.097989544;-0.058885064;-0.13041453;-0.16118966;0.12648118;0.2042793;-0.2470303;0.04735241;0.028283022;0.20901385;-0.21094544;0.21198569;0.065060034;-0.14687924;-0.01849998;0.16076204;0.032732878;0.11419459;0.010851216;0.18781218;0.0005722517;0.11574731;0.086481884;-0.04895685;-0.10615255;-0.31292373;0.17303844;0.004176192;0.00078078697;0.02372488;0.0034585032;-0.042737786;-0.15714107;0.15412185;-0.11668782;-0.028152393;0.07755251;-0.094854005;-0.16365276;-0.28791663;0.06770864;0.006950862;-0.030950679;0.15653662;0.13131875;0.103430584;0.085153624;-0.3176048;0.076735795;0.07370892;-0.044113886;0.051540524;0.1982971;-0.069785684;0.044661958;-0.116858035;0.13572201;-0.1635793;0.0788913;0.13871382;0.21945785;0.2298382;-0.0008699721;-0.1549974;0.0098323785;-0.3211515;-0.0037978452;-0.029631414;0.02380919;-0.0023998667;0.013201909;-0.190816;-0.2334898;0.05667941;0.17070341;-0.12877384;-0.10271148;-0.022134883;0.08877298;0.20987888;0.06479608;-0.08867935;-0.1341071;0.06864265;0.16648853;-0.068708025;-0.020025752;-0.15852796;-0.0025800024;0.1554685;-0.07327002;-0.12371619;0.27059913;-0.038388904;0.001285109;-0.13616128;-0.21007916;-0.13713814;0.02522993;0.21550415;0.028699988;0.07119588;0.13141684;-0.28522572;0.14538309;0.011887479;-0.19704106;0.10892506;0.072496526;0.24763288;-0.065667555;0.09885866;0.09938657;0.07788145;0.09910555;0.045018595;-0.09568468;-0.081341304;-0.05588441;-0.08285239;0.16164324
0.0464143;0.19379337;0.13782035;0.052440695;0.13520572;0.15337417;0.0984756;-0.02383736;-0.06654753;0.13142873;-0.043555927;-0.009534651;-0.28745425;0.03998387;-0.06982425;0.18427886;0.05319822;-0.1896461;0.17584209;-0.10046283;-0.16388823;-0.04103635;-0.26735055;-0.25024238;-0.09673307;-0.11645801;0.058053236;-0.055473123;0.027665528;0.1321973;0.12883493;0.04756421;-0.00029479046;0.09681926;-0.15479583;-0.11392799;-0.06378405;0.016060065;-0.19908729;0.117331915;-0.014559289;0.059309226;0.16788357;-0.03144772;-0.13034944;0.033878844;-0.054406647;0.0463384;0.22799654;-0.12433647;-0.34633914;0.13819131;0.024360886;-0.14353646;0.07276409;-0.05258246;-0.12083855;0.10731363;-0.10798299;0.2609806;0.08656185;-0.20058332;0.14998713;-0.12621416;-0.042933438;-0.06068991;-0.033641025;0.02013584;-0.37040782;-0.24866985;-0.189647;0.1196089;0.12843731;0.0032404237;-0.024934333;-0.04686653;0.047042612;0.26505646;-0.037640616;-0.19021729;0.042455457;-0.024785677;-0.15186156;0.020563083;0.20773664;0.09931156;0.08854286;0.10152714;-0.07560479;-0.12142847;-0.17087716;-0.42670155;0.035291847;-0.08548702;-0.028913118;-0.24505363;-0.30681598;-0.07312758;0.14280537;0.13342029;0.103235945;-0.07562394;-0.06368992;0.014013803;-0.038723167;-0.010219336;-0.03889662;-0.07419103;-0.050009504;-0.18008803;0.10427437;-0.08618706;0.019582137;0.2432217;0.101322755;0.074611664;0.010626002;-0.2372691;-0.008182703;0.029001527;0.077076264;0.020539429;0.15652187;0.04769096;-0.13319398;-0.10473941;-0.12081879;0.13724619;-0.005972066;-0.045149796;0.14631826;0.07335086;0.038697682;0.13000146;-0.11311139;0.31396568;0.001557326;-0.042604268;-0.0060220645;-0.03396974;0.0017399851;0.1443334;-0.22980073;0.20951997;0.17837292;0.20633847;0.33228013;0.10542918;0.17651981;0.008922184;-0.08190621;0.12827292;0.0699763;0.057930384;-0.08789738;0.11386953;0.029641362;0.09189775;0.13188694;0.009394827;-0.22809939;0.014548661;-0.15809119;-0.0061964653;0.021534681;0.14488618;0.07870702;0.1220837;0.14503995;-0.38294005;0.12805298;0.058607712;-0.09308503;0.125881;-0.026040835;-0.123015694;0.06735343;-0.0025249557;-0.23298727;0.031369496;0.07858549;0.020556748;-0.011495409;0.05670501;-0.029031785;0.17252676;0.08478784;0.07594411;-0.061960574;-0.022006933;0.06472353;-0.08453852;0.21255977;0.06342068;-0.12770642;0.1020084;-0.1159595;-0.19513395;0.06913329;-0.010450827;0.06777566;-0.0028605894;-0.17656794;0.06499577;-0.15098174;0.026706908;-0.24340932;0.116561264;0.046618395;0.060015935;0.2204026;0.22035;0.14705424;0.10676084;0.21271144;-0.006868379;0.034591228;-0.035145614;0.01619137;0.3002517;0.010474541;0.19155565;0.19167504;-0.052960087;0.033419844;-0.15618192;-0.17832991;-0.08189314;0.0981745;0.078797005;-0.11158781;0.012344411;-0.027802723;0.07799651;-0.21664461;-0.019876903;0.026393944;-0.12403865;-0.31762934;0.08550398;-0.09740492;0.2714003;0.074175164;0.1202424;-0.0011822605;0.10457063;0.020304736;0.08501698;0.24290612;0.17202117;0.20076425;0.18200418;-0.20361343;-0.054814164;0.019065918;0.05721399;0.13049284;0.109252565;-0.17067204;-0.14982823;-0.02959704;0.10760297;-0.011890208;0.19870749;0.0045602713;-0.17195863;0.07253988;0.015829906;0.064986706;0.0059916843;0.17900407;-0.08895345;-0.12022021;-0.07212665;-0.49937433;-0.10904167;-0.12767975;0.06735968;-0.12002508;0.11649582;0.17671089;-0.0757246;-0.103992656;-0.04436357;0.12998055;-0.0903293;-0.015717436;0.04208925;0.036307264;0.07424356;0.15726255;-0.027001513;0.12246637;-0.09005544;0.08351611;-0.02734796;-0.085578226;0.3005046;-0.2256718;0.10586931;-0.083583266;0.047183804;-0.0678813;-0.009832727;0.016839398;-0.063514836;-0.22083788;0.0073828325;-0.28483704;-0.028160602;-0.26736808;-0.049478102;-0.1205019;-0.32041132;0.07009642;0.1639287;-0.15889086;0.01540682;0.022218937;-0.15697871;-0.14607055;-0.038419638;0.025741104;0.028439041;-0.0583021;-0.091865376;0.12139889;-0.09617254;-0.18463372;-0.06736408;-0.09542955;0.097188435;-6.0762002e-05;0.07226237;-0.17533085;-0.046416145;0.10805467;-0.07685663;-0.13999975;-0.18696831;-0.013993017;0.0015065807;0.025019418;-0.0321624;-0.16055132;0.14570728;0.03327484;0.030496389;-0.014712812;-0.041192982;0.089795955;0.06401852;0.03764059;-0.05497967;-0.20548077;-0.015002811;-0.18510531;-0.09336543;0.030797154;-0.09025972;0.019346835;-0.099221036;0.021685507;-0.11801124;-0.036724098;-0.21725282;0.16159853;0.10769881;-0.059782345;0.019114655;-0.058811575;0.12328649;-0.21372905;-0.20745037;-0.056483928;0.09495515;0.042785704;-0.0895109;-0.12442353;-0.16689976;0.2424947;0.15270843;-0.10949177;-0.15956657;-0.3730587;0.017209264;0.023919266;-0.15325435;-0.041022647;0.057708926;0.08370076;0.0012942774;0.16163641;0.15221417;-0.23086154;0.14596313;0.06470959;0.07940155;-0.15950641;0.06731545;0.26043046;-0.17268653;0.06353862;0.07545717;-0.12683752;-0.14366683;0.08592157;-0.05503773;0.25777727;-0.05883668;-0.0128153935;0.025716282;0.010276885;-0.09306198;0.041282915;-0.03192381;-0.07756919;0.12608264;0.1221638;-0.023616878;-0.11618409;0.028436506;0.02629074;0.06078362;0.11200809;0.011531527;0.05010012;0.059255667;-0.20955485;-0.16004242;0.0749505;0.13143303;-0.3591575;0.23510574;-0.17186461;-0.062013667;0.118026786;0.20945685;-0.08629838;-0.0037214474;-0.018698296;0.083176166;-0.18481979;-0.34538373;0.011232626;-0.08390998;0.06652458;0.041771088;-0.190338;-0.18134563;0.24022439;-0.093484566;-0.031818703;-0.11784225;0.118779704;-0.18845172;0.00869264;-0.057033736;-0.18823048;0.016636921;0.1864782;-0.29101354;0.16405587;0.07811062;0.25307664;-0.2558007;0.11792843;0.08878615;-0.06258505;-0.18437363;0.07062204;0.0829867;0.08281498;0.03303817;0.10826531;0.08180364;0.121922426;0.12023931;-0.16398028;-0.08707421;-0.14751488;0.087823085;-0.09929775;-0.04023721;0.09006984;-0.006691068;0.04526269;-0.2201799;0.15068781;-0.00077688025;-0.05313011;0.24848875;0.008334724;-0.1230323;-0.1972276;0.06145417;0.10127449;-0.03247096;0.22123785;0.0022992673;0.0006540885;0.1072522;-0.28738233;-0.0125645185;0.15739243;-0.0047851186;-0.019976601;0.20158146;-0.026657548;0.028447792;-0.07917168;0.14523216;-0.061262008;0.18385911;0.14019747;0.31499937;0.19702427;-0.039954606;-0.17813027;-0.018092375;-0.19094177;0.12274377;0.025052689;-0.03437214;-0.06586974;0.07186679;-0.20076504;-0.24981797;0.10823901;0.10494168;-0.039354593;-0.10456537;0.115912996;0.029407268;0.0002452301;-0.057878867;-0.046523806;-0.20799346;0.03754343;0.11887587;-0.06901088;-0.14709583;-0.15011689;0.01764367;0.050691843;-0.071197286;-0.16094324;0.26685256;-0.09948271;0.0064918837;-0.08950003;-0.16607307;-0.009841515;0.10206919;0.16075212;0.11680774;-0.023640621;0.20340742;-0.22412567;0.04951672;-0.033297803;-0.1436521;0.06448028;0.13892604;0.13293609;0.00047415786;0.0074315285;0.16379441;-0.033885356;-0.011542248;-0.015737701;-0.16157426;-0.20140299;-0.001109411;-0.027475357;0.07080979
0.0082670245;0.08143999;0.2429867;0.09395212;0.14704965;0.12900554;0.13009813;-0.1012007;0.03982931;0.12548068;0.0563014;-0.05426977;-0.26981816;0.007952516;-0.09566346;0.09086244;0.11840448;-0.20399961;0.20707357;-0.09133097;-0.09036792;0.02636007;-0.14265692;-0.13078612;0.01820894;-0.19472124;0.04695197;-0.08903153;-0.08708473;0.18799523;0.16411665;0.15806404;-0.030992033;0.116949916;-0.24699332;0.027511274;-0.074474394;0.013520616;-0.20289838;0.13769495;-0.041992363;0.014949195;0.13434803;0.1109993;-0.031180827;0.062244397;-0.06536577;0.032627966;0.13134933;-0.24391243;-0.29273453;0.28045428;-0.18819569;-0.111213446;0.10073814;0.05870558;-0.12963153;0.04962995;-0.005290836;0.13188392;0.2044158;-0.19189326;0.07132178;-0.05762372;-0.08586052;-0.025421824;0.033108175;0.0487017;-0.30707833;-0.19683126;-0.108877905;0.13336614;0.13243107;0.016075347;-0.14777814;-0.09859922;0.07571214;0.20597234;-0.13077232;-0.05014136;0.12517558;0.045762062;-0.18020286;0.10953073;0.32746413;0.09216402;0.014026341;0.1086753;-0.14255041;-0.14413154;-0.053235475;-0.4112732;-0.042884268;-0.007467538;-0.13250408;-0.19546509;-0.1717324;-0.1010887;0.06911951;0.1939659;0.10237952;-0.26815048;-0.12042826;-0.034472648;-0.103014424;0.13536228;-0.036886904;-0.087908566;0.007837186;-0.1016315;-0.05674875;0.020844467;-0.0023366245;0.21646039;0.16680849;-0.052484293;0.049099736;-0.11539506;0.045866694;0.005825072;0.051762775;0.03498485;0.29095304;0.0033060852;-0.07553787;-0.054305363;-0.07416458;0.18670358;-0.008863379;-0.012383706;-0.004258592;0.10523708;-0.03582901;0.096035466;-0.057280492;0.33512956;-0.13433911;0.052665237;0.03496277;-0.17826934;-0.12640622;0.11301182;-0.07575508;0.06931058;0.24845718;0.18311177;0.35963282;-0.025031962;0.17724505;-0.07438168;-0.047167562;0.1644223;0.1121034;-0.01825196;-0.13330698;0.05663934;-0.010459096;0.08514947;0.16002838;0.018744085;-0.05721776;0.03500523;-0.13451615;-0.0044312538;0.05310388;0.112527214;-0.0061038174;0.14078009;0.21954015;-0.39806148;0.032249592;0.121354096;0.031014796;0.06316176;-0.14638807;-0.1570092;0.15513244;-0.052614007;-0.21591605;0.010471428;-0.006414333;0.07514807;0.027188117;0.042716164;0.064333454;0.1839387;-0.053528182;0.09327781;0.0692892;0.029219737;0.12603615;-0.03257656;0.12675773;0.061585296;-0.17154369;0.080190144;-0.15345009;-0.09431716;0.032525655;0.052459106;0.20154482;-0.07206284;-0.21899152;0.1306029;-0.12323241;-0.0042100837;-0.1306065;0.055245496;-0.052645944;0.12685038;0.11612105;0.31951168;0.2401322;0.081367776;0.13724189;-0.030325836;-0.05492875;-0.02489717;0.013573365;0.2946762;-0.039872006;0.12548;0.04896665;-0.0063523743;0.0048398105;-0.22589529;-0.1139825;-0.1698722;0.101740725;0.13224848;-0.09929848;-0.06719056;-0.041578673;-0.029769443;-0.07768739;-0.09985417;0.10518265;0.008137621;-0.29417616;0.114255466;-0.06791719;0.28014275;0.026120026;0.12489771;-0.09668036;0.0045879846;-0.04164202;0.07036961;0.32655597;0.13926628;0.2304814;0.1636208;-0.28086805;-0.13875902;-0.1007887;0.052739307;0.06241138;-0.002203241;-0.14602594;-0.049889643;-0.07047019;0.084717155;-0.060460906;0.26920533;0.05661787;-0.17295118;0.14097255;-0.04550071;0.078485355;0.023693357;0.18865453;-0.15742792;-0.07530867;-0.06420942;-0.5010267;-0.19916229;-0.00072666514;0.09104651;-0.013191544;0.08267802;0.23316954;-0.032114964;-0.17270496;-0.0064033465;0.07494337;-0.145286;0.034011092;0.027654214;-0.03400925;-0.08488091;0.2972664;0.06388095;0.112961784;0.005934947;0.13257156;0.079471014;-0.013142808;0.23244722;-0.22687684;0.0797565;-0.04202084;-0.02535508;-0.15911697;-0.083760954;-0.03380423;-0.1280945;-0.32459185;-0.024781387;-0.32391906;-0.054856047;-0.26444063;-0.047301564;-0.15319091;-0.2811033;0.019002248;0.12816992;0.062228452;0.018798992;-0.051783875;-0.14852273;-0.0038519765;0.06945691;0.0862499;0.10799903;-0.087078415;-0.094069116;0.18953447;-0.038580354;-0.12635688;-0.17862421;0.05071346;0.10590536;-0.059346825;0.09841593;-0.14041767;-0.08424751;0.036175195;0.023967464;-0.035599977;-0.08534502;0.017971193;0.07054335;0.012179299;-0.09634721;-0.17581002;0.17560063;0.037462752;0.089314975;-0.077358335;0.030446593;-0.03443529;-0.014454637;0.014031894;-0.122491896;-0.2367905;-0.084693104;-0.055917013;-0.09103176;-0.028251985;-0.031560965;-0.09877359;-0.13316768;0.22459517;0.029001597;-0.0363083;-0.25155246;0.010699229;0.21848504;-0.0428215;-0.016923107;0.06798365;0.20964625;-0.3032722;-0.1080958;0.07128359;0.016242813;0.08595656;-0.016409513;-0.13375336;-0.16015871;0.18581724;0.14968412;-0.11652418;-0.13729964;-0.2505141;-0.009326139;0.051724676;-0.22486953;-0.08830567;-0.022354009;0.045165315;0.09081758;0.085914776;0.22253178;-0.22171703;0.0440335;0.013399783;-0.0024331673;-0.09210802;0.036823574;0.2175607;-0.24261664;-0.059972297;0.012153819;-0.15969066;-0.04605973;0.0770396;-0.07235211;0.28336206;0.025483662;-0.062487967;0.09090075;-0.030370504;-0.09792766;-0.08218539;-0.055191714;-0.20939364;0.1286096;0.16091986;-0.113646135;-0.103261195;0.069016285;-0.08883853;0.04080032;0.04440586;0.00070731755;0.1045498;0.007279405;-0.16051972;-0.12755087;0.013147239;0.039066944;-0.329204;0.3439657;-0.25375253;-0.049636904;0.12595618;0.17710371;-0.11607695;-0.013703462;-0.07599582;0.12543644;-0.05331036;-0.1279318;0.0020948965;0.066248454;0.11002181;0.019517759;-0.10453128;-0.21905988;0.105454;-0.009708529;-0.04588974;-0.09957387;0.07961804;-0.11759071;-0.15607339;-0.06333709;-0.10309775;0.10707946;0.19625758;-0.28984386;0.07732228;0.014726201;0.13070323;-0.23668624;0.10467987;0.12424863;0.02088374;-0.09652097;0.19998406;-0.075200595;0.10685249;-0.054228567;0.07052646;0.07834313;0.22736861;0.16118436;-0.099826194;0.030021137;-0.20048957;-0.009558218;-0.1415129;-0.034203943;0.06479704;0.10459161;-0.08597609;-0.19368787;0.1335643;-0.03702233;-0.12613778;0.22517239;-0.0868511;-0.0106913475;-0.2085064;0.1828441;-0.029513163;-0.13716286;0.17494999;0.075889036;0.09686391;0.044821415;-0.17562476;-0.038654372;0.26827067;-0.023043042;-0.1842919;0.13661127;-0.08712193;0.06558996;-0.103590116;0.16237217;-0.032608677;-0.02496814;0.05680034;0.2374393;0.14088124;-0.022333773;-0.08763406;-0.009683662;-0.22349702;0.09463005;-0.048918255;0.03648515;-0.041311584;0.07779466;-0.1657977;-0.3150995;0.09342774;0.13514417;-0.07808062;-0.115593545;0.06838082;0.10022043;0.061354183;-0.06358476;-0.021795284;-0.306384;-0.14112385;0.08890054;-0.16442354;-0.08091007;-0.17090766;0.009012524;0.0069857985;-0.09105609;-0.1439691;0.12598296;-0.11790982;0.08897754;-0.118595496;-0.16028053;0.023501625;0.05261247;0.1714573;0.06972554;0.10906836;0.21899302;-0.33751532;0.11821263;-0.09693781;-0.04440066;0.00025968175;0.07080977;0.10597339;0.051653344;0.08498182;0.12940703;0.061599772;0.00012706507;-0.03592289;-0.10456642;-0.12943307;-0.02289454;-0.07143569;0.1104796
-0.08317692;0.019353503;0.13829437;0.19396232;0.25952524;0.15589486;-0.017054016;-0.005524726;-0.11759988;0.11210933;0.021996226;-0.0040448206;-0.20605096;0.0708287;-0.18547003;0.17272156;0.033484973;-0.26300892;0.15767255;-0.03497296;-0.12913339;-0.07227308;-0.26131293;-0.27055994;0.005815478;-0.102726795;0.029240118;-0.07269279;-0.051905416;0.18722284;0.20413285;0.06317133;0.0077698804;0.010863395;-0.23299389;0.087669946;-0.038530897;0.17079031;-0.18993732;-0.05598822;0.057640105;-0.1046574;0.27654204;0.07699396;-0.036808107;-0.041896727;-0.08463796;-0.022169156;0.21860069;-0.13625336;-0.20126145;0.23166223;-0.15771365;-0.069244415;-0.0307764;0.036032505;-0.2373861;-0.012705156;0.08261982;0.072718255;0.20876579;-0.00016976462;0.10362143;-0.10231073;-0.0486421;0.040216394;-0.08344886;-0.07691583;-0.19387242;-0.09238735;-0.10534136;0.060289565;0.17499939;0.1268184;-0.041632988;-0.19030261;0.08263459;0.25105754;-0.10002047;-0.06831188;0.10129285;-0.054728568;-0.22564135;0.14666843;0.22784086;0.01881866;-0.0059660287;0.021288583;0.04430728;-0.16913344;0.045751818;-0.44193664;-0.044055097;0.004830811;-0.11173049;-0.30608076;-0.05140463;-0.084873185;0.033355966;0.16257168;0.069204696;-0.2247269;-0.11439528;-0.110174544;0.04374965;0.12016278;0.036106367;0.03588755;0.11477885;-0.083665505;-0.13853383;-0.026522309;-0.12396196;0.22105907;0.14625001;-0.06365683;-0.00050097227;-0.10182158;0.01333836;0.07744008;-0.12025371;-0.050395526;0.26370218;0.016643498;-0.06768182;-0.048136197;0.071832985;0.07089797;-0.009379014;-0.05457323;0.060610026;0.03970225;-0.010902992;0.19176295;-0.15308489;0.29001355;-0.12685217;0.037909165;-0.02733032;-0.06621921;-0.11660778;0.12780619;-0.11648214;0.16395953;0.3419548;0.19671643;0.28327006;0.03229321;0.14697737;-0.08125461;-0.04247322;0.25506634;0.06873831;0.017217372;-0.13564557;0.0022056177;-0.07448438;0.16398527;-0.0048477296;0.034767985;-0.11645894;0.18536332;-0.17376438;-0.09241645;0.047513597;0.13760515;0.06062581;0.1344824;0.18193267;-0.3042162;0.1186135;0.036802195;-0.12475486;-0.058492955;-0.033896957;-0.16723233;0.14673159;-0.11652442;-0.1880873;-0.022288065;-0.052347768;-0.07239442;0.04363658;-0.08900474;0.10363548;0.060193613;0.0026935604;0.30838126;-0.0034670925;-0.082118854;0.11452078;0.037316084;0.23473358;-0.02534579;-0.11469178;0.05033246;-0.03241361;-0.10027617;0.0946018;-0.05564379;0.043296415;-0.03200475;-0.15095498;0.07927914;-0.1404155;-0.086710796;-0.17782354;0.008857478;-0.017089771;0.11097728;0.06795192;0.35325083;0.16161229;0.11020382;0.1262281;-0.23536895;-0.018538127;-0.047008637;0.14179981;0.33233613;0.032531805;0.079365484;0.042364106;0.06241936;-0.08749075;-0.2492463;-0.28792793;-0.063423425;-0.08338522;-0.097991884;-0.20320193;-0.064525165;-0.07822414;0.06669032;-0.10551585;-0.007899676;0.060653165;0.005568916;-0.16289924;0.20152642;-0.021853346;0.2721711;-0.11743657;0.02634763;-0.12807511;0.007434774;-0.1139606;0.11339952;0.1935331;0.28972146;0.13581885;0.10886833;-0.10003808;-0.18120381;-0.17707711;-0.031905916;0.11285421;-0.054533854;-0.25891095;0.049169283;-0.1605437;-0.008979994;0.04783459;0.19435982;0.07731637;-0.16169041;0.10058115;0.016560106;0.14689307;-0.1610185;0.14417596;-0.14066102;-0.06502789;0.0156030515;-0.4964461;-0.1252453;0.007655554;0.11055494;-0.17372075;0.18024088;0.17704096;-0.12325529;-0.07353964;-0.023460645;-0.09924394;-0.1323178;-0.17120413;-0.058703635;-0.050591134;-0.02961091;0.294274;0.0029095807;0.13155794;-0.08908644;-0.07166945;0.17977789;-0.09237136;0.15116832;-0.22563604;-0.031894486;-0.0067535797;0.19988024;-0.016415363;-0.05011608;0.05166762;-0.18185665;-0.1572318;-0.048509404;-0.19432823;-0.053309742;-0.33281142;-0.22949779;-0.2664766;-0.3481362;0.13597047;0.16644588;-0.061219487;0.049491834;0.06397159;-0.09366613;-0.07034067;-0.016025092;0.11351501;0.13252637;-0.04624268;-0.033908308;0.15146598;-0.04678448;-0.099323615;-0.1496515;-0.08137612;0.09975287;0.08825256;0.09204359;-0.20297135;0.07191854;-0.01899354;-0.08876069;-0.06230847;-0.08140997;0.1436304;-0.055800118;0.06642762;-0.0786221;-0.14395265;0.16278696;0.06336955;-0.08795148;-0.06805739;0.07834177;0.055908453;-0.09158819;0.012194248;-0.02953942;-0.14997928;0.033158798;-0.08700519;-0.20143272;-0.045645807;-0.05592753;0.07217276;-0.11909514;0.2591891;-0.07684035;0.004131904;-0.12191161;-0.0014259436;0.13150054;0.00701286;-0.11600563;-0.017949816;0.09765719;-0.21270135;-0.05831599;-0.06439433;-0.039497614;0.14556324;-0.091294125;-0.085394755;-0.10805064;0.2663708;0.13439986;-0.22320017;0.031134231;-0.20262921;0.10577314;0.020739866;-0.029639034;-0.049717754;-0.084122844;-0.022448394;0.22883531;0.049902637;0.18171968;-0.2413741;0.08488097;-0.007874287;-0.024999248;-0.17391214;0.081273414;0.20463845;-0.16643544;0.021114567;0.010575926;-0.10258674;0.07619104;0.10739221;0.02099056;0.21362245;0.08186382;-0.17564449;0.11242937;0.041376658;-0.064746805;-0.09158077;-0.18889321;-0.24571078;0.02171043;0.04046385;-0.107101135;-0.18820661;0.09028809;0.02006433;-0.041314073;0.15717605;-0.009496669;0.12978315;-0.032446112;-0.20798767;-0.23272742;0.018480502;0.15670092;-0.18365079;0.118723914;-0.22594556;-0.10569089;0.03260764;0.00016982091;0.019358711;-0.09944653;0.031763088;0.1258311;0.026405798;-0.23680398;-0.0029292004;-0.07767956;0.12957977;-0.001755158;-0.1187408;-0.22232568;0.24896872;0.034900498;0.002082592;0.045809586;0.13908896;-0.042782508;-0.1546773;-0.02445921;-0.12687811;0.13727967;0.25746015;-0.11990791;0.061828967;0.01034223;0.13714042;-0.08334499;0.0047823363;0.055792887;-0.008971373;-0.27636227;0.07746128;-0.10498542;0.11474388;0.15987413;0.118578665;0.11127674;0.04157392;-0.010515914;-0.0626842;-0.13039874;-0.21056892;0.10850123;-0.06685852;-0.01916253;0.119978465;0.046142526;-0.0045712474;-0.18288806;0.09724055;0.09689339;-0.12608619;0.0497684;-0.0035472482;-0.0897178;-0.25736615;0.18404742;-0.029127596;-0.11892535;0.10104956;0.022793299;0.1810669;0.073494;-0.23894095;0.023093652;0.314847;-0.048288163;-0.2937398;0.09516512;-0.027470464;0.08675478;-0.061800096;0.16189264;0.12996568;-0.073168196;0.10601292;0.26902178;0.23564208;-0.0005600233;-0.12745604;0.18319124;-0.117934704;0.014297786;-0.02443656;0.07718229;-0.026000325;0.11180172;-0.048083022;-0.38494408;0.037201338;0.09373186;-0.051683616;-0.11325541;0.07313036;-0.0895835;-0.0097136265;0.048373293;-0.105313234;-0.15621279;-0.06634639;0.12170673;-0.105702825;-0.04387106;-0.1853808;0.04105713;0.11085192;-0.11294677;-0.29498497;0.1990474;-0.0665467;0.059751082;-0.07155215;-0.1840882;-0.010854705;-0.03795292;0.14853051;0.045788407;0.06662681;0.28727236;-0.37777832;0.0069669248;-0.087668106;-0.004379162;-0.020643543;0.16559489;0.0482596;-0.07854445;0.08943293;-0.01665391;0.02238323;-0.038255174;-0.08166411;-0.06515528;-0.004728404;0.058301046;-0.19181173;-0.039363116
-0.20733811;0.086606465;0.23442395;0.15994292;0.16772266;0.23603764;0.0070822323;-0.18129559;-0.08994238;0.062071096;-0.0060202717;0.10448707;-0.24782996;0.0758346;-0.21493857;0.19512415;0.1321564;-0.17623205;0.28364035;-0.14157367;-0.09678408;-0.03208659;-0.23263834;-0.21679729;-0.04369799;-0.092984796;-0.009037014;-0.020548623;0.03634798;0.18866181;0.12832418;-0.006382681;-0.0714168;0.01309093;-0.28511694;-0.0030887742;-0.15340428;0.082612984;-0.042332888;0.0071635195;-0.10630771;-0.084904976;0.28528208;0.046104096;-0.1740018;-0.0006619316;-0.01776556;-0.015699973;0.17140074;-0.2474624;-0.1924975;0.23228925;-0.20867871;-0.11428653;0.012181867;0.08432936;-0.24516234;0.054586537;0.0017988461;0.22985542;0.074926384;-0.08869468;0.032757733;-0.10510846;-0.10073134;0.022154795;-0.17400768;0.0039917803;-0.2341856;-0.21220289;-0.051606905;0.0424255;0.104754664;0.07763745;-0.04264453;-0.28771153;0.07266891;0.25024435;-0.13074405;-0.0690335;0.05085813;-0.019909533;-0.0627391;0.13757682;0.28327075;0.11771869;0.042944368;0.13802023;0.07987096;-0.12676693;-0.08465463;-0.4256113;0.016676368;-0.107919596;-0.11987645;-0.12339244;-0.21026208;-0.06956712;0.050017472;0.1019336;-0.0255125;-0.11873453;0.01446335;0.064612314;-0.017523216;0.043838374;-0.12078222;-0.039906338;0.051354937;-0.19306253;-0.06437279;0.12436375;-0.09390392;0.13898873;0.085915126;-0.13617504;-0.004036895;-0.27463233;0.13085972;0.14443853;-0.08896445;-0.05082404;0.38685602;-0.019944167;-0.035907805;-0.04694678;-0.023565851;0.19760413;0.029585848;0.037577193;-0.06773479;0.115690425;-0.05847604;0.13770096;-0.19906001;0.3195086;-0.18325281;0.11476348;-0.057402585;-0.11401997;-0.08159537;0.1047743;-0.07524629;0.18239652;0.303705;0.14976467;0.28336352;-0.041844632;0.20304638;-0.013648052;-0.03164231;0.08106731;0.046304747;0.100682884;-0.085153595;0.05528057;0.09069933;0.21705203;0.119211555;-0.017777022;-0.06741449;-0.031992774;-0.17275126;0.049160223;0.043219082;0.093598366;0.009165278;0.01923064;0.18346874;-0.31355768;0.15668118;0.18227068;-0.08658691;-0.022162028;-0.08591818;-0.031131133;0.036006507;0.019144386;-0.16891085;-0.028630693;-0.06314998;0.019312456;0.034149837;0.02513473;0.09656604;0.19015364;-0.104504965;0.19358344;0.03649006;-0.01637121;0.113642946;0.11467353;0.17866191;0.0020028166;-0.16587453;0.15613385;-0.1094122;-0.24739648;0.019329496;-0.016317401;0.13800332;-0.014725819;-0.08507626;0.085962765;-0.25626165;-0.072763085;-0.19421558;0.020462066;-0.028395362;0.14194413;0.09568702;0.24989812;0.20305146;0.093216464;0.07749359;-0.08308364;0.07437234;0.08303095;0.11981955;0.30934444;0.12537554;0.21976684;0.112710595;0.07719218;-0.012858769;-0.12962933;-0.29044336;-0.056608077;0.034578934;0.0063973027;-0.17406124;0.049767043;-0.04686338;0.036184482;-0.038218275;-0.03940337;-0.0022271262;0.07680645;-0.3034896;0.11670198;-0.09448283;0.1543448;-0.09713478;0.08177979;-0.13009253;-0.008551474;0.002357809;0.081525795;0.28938973;0.10891519;0.18875234;0.13267465;-0.21518138;-0.23545592;-0.089882776;0.07638266;0.12345003;0.013607532;-0.22562778;-0.058525868;-0.03809005;0.07199908;0.04656632;0.19573265;0.06656464;-0.05529706;0.0222367;-0.010620695;0.10745354;-0.09343867;0.14014424;-0.05100754;0.061921027;0.035389982;-0.43562335;-0.15507369;-0.035841763;0.018101588;-0.051902212;0.045179814;0.2580566;0.009393804;-0.15208705;0.0048281318;0.08142589;-0.23922355;-0.023381323;-0.008417808;0.06274802;0.053248663;0.23104618;-0.044277795;0.05416427;-0.037664857;0.027764283;0.053338256;0.035395116;0.20666288;-0.08711032;0.11795917;0.0019663014;0.01820153;-0.024607679;-0.102304466;-0.016923398;-0.17621846;-0.22048117;-0.042792704;-0.225248;-0.06519654;-0.3626779;-0.03709168;-0.208439;-0.22481212;0.13756943;0.1461469;0.016007887;0.09381631;-0.09741168;-0.021412805;-0.061808158;0.085342504;0.18675844;0.02503038;-0.10018811;-0.027721643;0.07736072;-0.109158285;-0.118735045;-0.13026679;0.013997555;0.10087859;0.04808545;0.1599773;-0.21447143;0.16817226;0.06337917;-0.07321366;-0.11691313;-0.07242636;0.09651806;-0.08191222;-0.022054022;0.08576968;-0.038513757;0.15359998;0.070792176;-0.088836715;0.005439543;0.060960487;0.03725156;-0.06852768;-0.036554895;0.006486992;-0.23638394;-0.011780822;-0.05217234;-0.08539432;-0.020330334;0.033793025;0.09128969;-0.14998472;0.2111654;0.029415734;-0.020727307;-0.10226308;-0.09556821;0.16552211;-0.047471892;0.022909654;-0.039910253;0.1696647;-0.33354363;-0.08247545;0.01174419;0.12839139;0.055184446;-0.0006897981;-0.07839557;-0.25484064;0.19130951;0.103749;-0.24442801;-0.06591507;-0.30617997;0.13887797;0.025707258;-0.052411545;-0.037171375;-0.116589054;0.007937862;0.19057386;-0.0094492445;0.12706959;-0.15209967;0.029547038;-0.001015764;0.0074484465;-0.24106131;0.07986197;0.13855022;-0.07849188;-0.031687457;0.05776036;-0.12844263;-0.10304028;0.07119969;0.04021281;0.24178311;-0.04748425;-0.04534496;0.08023118;-0.050357413;0.011593687;0.02587892;-0.11470807;-0.19658354;0.15470229;0.1520534;-0.11816365;-0.19983542;-0.05909402;0.08179338;-0.0690403;0.102248445;0.033813324;0.052470338;0.06250084;-0.09650934;-0.17670345;-0.043201968;0.11921388;-0.24468;0.28968257;-0.12674582;0.026419304;0.21141574;0.11666222;-0.025234215;-0.029119339;-0.051120352;0.10146874;-0.06165869;-0.24687435;-0.004051667;0.032131046;0.12451203;0.028522113;-0.041573647;-0.12829207;0.08583291;-0.10934945;-0.0042978837;-0.038028598;0.2340407;-0.13014771;-0.01928156;-0.066009104;-0.12144615;0.026182482;0.24534291;-0.21216586;0.19498827;0.047144014;0.15212794;-0.10005874;-0.03228958;0.033374205;0.08209225;-0.19383095;0.10144808;-0.16398457;0.17698841;0.06305778;0.0954589;0.20058006;0.13770719;0.06247344;-0.11637248;-0.004678443;-0.29115373;0.055140384;0.040357746;0.012123849;0.050268862;0.07339692;0.038497515;-0.07114723;0.18771002;0.026057513;0.023179619;0.118999474;0.00061038084;-0.13453068;-0.23191011;0.13297656;0.11212632;-0.18444766;0.041052446;0.034744095;0.06332338;0.10200207;-0.17118253;0.061425224;0.2374166;0.0020659254;-0.15668355;0.1378105;-0.028696332;-0.062761;-0.04432321;0.17892314;0.061215203;-0.06464747;0.14691085;0.2912765;0.10507631;0.07611548;-0.14351769;0.13960023;-0.13309033;-0.038090467;-0.08169976;0.043330148;0.07435529;-0.056463663;-0.17401278;-0.24692388;0.03254525;0.04276681;-0.05997039;-0.0688157;-0.06644422;0.06323669;-0.0630829;0.10174626;0.02274081;-0.14014187;-0.07240132;0.17998156;0.02562034;-0.056006446;0.031063372;-0.1344915;0.10494929;-0.1434095;-0.19327103;0.2251507;-0.06666944;-0.05073358;-0.08823644;-0.16349834;-0.084374145;0.05558274;0.014525382;0.16587923;0.12499083;0.25318685;-0.20806523;0.07455;-0.18298513;-0.0876935;-0.08246601;0.029328473;0.11252242;-0.09509589;0.0015847769;0.118891925;0.049257487;0.0013432964;0.047062606;-0.24273515;-0.1347842;0.004084456;-0.17678353;0.058269266
-0.13349622;-0.07983277;0.08962191;0.11161785;0.09421543;0.11010479;0.13625458;-0.031268008;-0.07533488;0.046506453;-0.019161435;-0.037132505;-0.27844375;0.07571062;-0.04556294;0.18534069;0.101537265;-0.20935063;0.1437585;0.035111573;-0.0045097615;-0.013322516;-0.20118013;-0.20070225;0.014788605;-0.19365117;-0.052682422;-0.14599693;-0.027129302;0.25029346;0.056082673;0.008897031;-0.07547132;0.0795849;-0.29602203;-0.070075266;-0.04757905;0.08537483;-0.1424414;-0.0049669016;-0.027293805;-0.14738433;0.1824001;0.0919072;-0.02519734;-0.019941572;-0.11578971;0.09070346;0.1985753;-0.21897379;-0.1730909;0.19194886;-0.1749673;-0.14600825;-0.04433789;0.008107262;-0.29371178;0.14316617;0.017090643;0.066702746;0.12537712;-0.04735598;0.06990868;-0.068429865;-0.062208507;-0.030132364;-0.15922691;0.1331994;-0.12768002;-0.04885623;-0.12537551;0.013827263;-0.04424519;-0.03720487;-0.08938428;-0.30157107;0.034086592;0.1644463;-0.05100355;-0.092277564;0.0828291;-0.038818043;-0.08985499;0.08665945;0.29681876;0.06242971;-0.0562417;-0.02438888;0.048640262;-0.21597524;0.08771548;-0.36151314;-0.11028136;0.04483502;-0.076003574;-0.1704364;-0.14322445;0.017537087;0.024980543;0.17675057;-0.01918656;-0.20634608;-0.038446233;0.007565777;-0.087472394;-0.037972115;-0.014283862;0.06688457;0.057640016;-0.15642095;-0.07378817;-0.03770283;-0.16299355;0.20206735;0.17961226;-0.07804672;0.06139721;-0.104401484;0.13656518;0.15416057;-0.13732757;0.045986038;0.29820308;0.024731563;-0.06703675;-0.03429241;0.0117687415;0.14684129;0.015975375;-0.0030063384;0.12365737;0.014083355;-0.056844063;0.11209408;-0.17019002;0.30244824;-0.2270672;0.13734376;-0.025918448;0.049981877;-0.020282526;0.085946634;-0.043813586;0.11653924;0.28486416;0.26102915;0.31046098;0.056177296;0.10127049;-0.11620141;0.019518344;0.24842222;0.040230673;0.058596175;-0.13582154;-0.036058754;-0.11275135;0.019810647;-0.017156856;0.041002993;-0.08943798;0.18123221;-0.025495274;-0.084816456;0.0602557;0.075400494;0.02122734;0.018817112;0.033917718;-0.33870938;0.18758601;0.15767564;-0.078684404;0.052056238;-0.12287857;-0.13465908;0.0046574306;0.0041077174;-0.102075145;-0.049504932;-0.105281405;-0.048172202;-0.12946416;-0.009617874;-0.0049574478;0.061912253;-0.11786489;0.11882116;-0.017845862;-0.08603352;0.14878345;0.059717886;0.06611786;0.053378973;-0.12523158;0.10451913;-0.11419297;-0.15608579;0.09287818;-0.092835814;0.12797962;0.017205369;-0.16888335;0.11288662;-0.3129615;-0.1668144;-0.13289908;-0.05707179;0.040022906;0.09573492;0.094670236;0.22003198;0.065359645;-0.07967039;0.09814293;-0.28200796;-0.0030681721;-0.01900263;0.14463696;0.30785984;0.11667299;0.25349396;-0.036754392;0.0052830554;-0.20999098;-0.12598787;-0.20848194;-0.055232953;-0.16980805;0.031017335;-0.26884255;0.0444729;0.0039413963;0.047154445;-0.12610243;0.014575011;-0.001985281;-0.03130616;-0.18046279;0.11144936;-0.17732865;0.2654707;-0.09882631;0.14988868;-0.056534555;-0.07833326;0.009841887;0.079704046;0.11696574;0.22070687;0.18323667;0.16443346;-0.08170548;-0.16306934;-0.10845393;0.08629724;0.10820163;-0.048212413;-0.31751892;0.103916585;-0.07975488;0.032788154;0.055445988;0.06537524;0.099525265;-0.098418236;0.04909205;0.08393221;0.09143761;-0.077135675;0.25807753;-0.016325086;-0.04123654;0.05982733;-0.4126079;-0.13227943;0.06723865;0.07845274;-0.044037458;0.13425468;0.2189261;-0.10875434;0.015028113;-0.018958787;-0.06264189;-0.11424596;-0.013425203;-0.004589397;0.02578114;-0.0014714383;0.25296822;0.078727;0.24551246;-0.07143179;-0.001733096;0.08453818;0.028206646;0.08692397;-0.11102179;0.035372164;-0.007396074;0.15635148;-0.115668416;-0.110278755;0.019152917;-0.19477642;-0.17831704;-0.04726027;-0.3189813;0.08875344;-0.29314008;-0.08155101;-0.319123;-0.3840125;0.1918426;0.11474026;0.0075829434;-0.041345313;-0.0021656326;-0.11351896;-0.13968378;0.008025429;0.24468848;0.113695994;-0.07690458;-0.08962571;0.09883975;-0.11337978;-0.21406537;0.013556791;0.023076965;0.09875934;0.15485018;0.24134102;-0.1349545;0.1298294;0.03444795;0.012987119;-0.067580305;-0.07207841;0.05292891;-0.08975608;0.04396665;0.11103066;-0.06540087;0.055487923;-0.078404374;-0.19136368;-0.12433299;0.13128738;-0.07321484;-0.11649406;0.012177869;-0.029810537;-0.22079368;0.16606991;0.10587067;-0.26161268;-0.0046067853;0.0043344544;0.16169134;-0.12582852;0.13415015;-0.09206861;-0.11994053;-0.049794935;-0.13561028;-0.0056944345;0.03166251;0.0025715318;0.047509547;0.06125921;-0.2527068;-0.08777131;-0.047228582;0.098802716;-0.07555395;0.026100703;0.0002998387;-0.27010438;0.22502348;0.15875167;-0.17100775;0.05305957;-0.27429685;0.16805275;0.1674716;0.017978588;0.015239729;-0.14232525;0.029030425;0.26185763;-0.033158604;0.21192038;-0.34408247;0.12088157;-0.0770918;-0.024862714;-0.14910023;0.13891429;0.19704762;-0.12633218;0.049109798;-0.023103926;-0.06472279;0.019110123;0.005097205;0.068225384;0.082511045;0.0051755826;-0.1652139;0.0075318255;-0.01910633;0.10587602;-0.042686686;-0.26775342;-0.27172628;0.062928356;0.13710593;-0.023836518;-0.018366838;-0.04788906;0.22144954;0.0042240983;0.17363076;-0.054891337;0.039890237;-0.09165622;0.0029031038;-0.20178086;-0.012955146;0.112692624;-0.2722624;0.24862269;-0.19808057;-0.036251687;0.15798308;0.06276867;-0.0561649;-0.17502624;0.0025360172;0.11098875;0.116392694;-0.054448668;-0.017057365;-0.03526883;0.19375573;-0.017647002;-0.054693483;-0.2279584;0.22829926;-0.03570961;-0.021683518;-0.07226073;0.22528592;-0.13230403;-0.1293412;0.14061037;-0.022895174;0.04365283;0.22370303;-0.089487776;0.13532914;-0.03861609;0.081899844;-0.053941865;-0.053559426;-0.031369746;0.02124186;-0.184875;0.092235535;-0.18183894;0.20466176;0.089737095;0.013721391;0.031672716;0.037987337;0.032178666;-0.13399597;-0.16620342;-0.33648396;0.0796233;0.07404557;0.019985702;0.10373649;0.08783329;-0.05071895;-0.25465953;0.14680363;0.13155255;-0.00021315963;0.13385388;-0.01753186;-0.16713841;-0.22209734;0.16200015;0.10475316;-0.095331185;0.057413835;0.1657315;0.11770262;0.13449158;-0.2513575;-0.027699258;0.30658403;0.010954487;-0.26386508;-0.009771348;-0.04567424;0.047988012;-0.12188701;0.17720854;0.10999803;-0.07691877;0.14436069;0.26927182;0.17183033;-0.013751319;-0.042138454;0.102597006;-0.079838246;-0.03408304;0.067509755;0.04218596;-0.007566544;0.007303667;-0.057944193;-0.20082329;0.05540792;0.03496694;-0.08070223;-0.14694186;0.008129183;0.0670709;-0.044370655;0.0656234;-0.04134837;-0.24354343;-0.0363381;0.108728595;-0.029246975;-0.0045327717;0.0076373313;-0.10217325;0.110427305;-0.1650515;-0.15113162;0.22330672;-0.019594142;0.059245043;-0.08367642;-0.12738378;0.01954994;0.018880913;0.11520151;0.055264395;0.094199404;0.2209141;-0.30949104;0.143159;-0.24058472;0.017753871;-0.060250036;0.15974855;0.0597761;-0.14149034;0.112960264;0.13659717;0.011505889;0.010016096;-0.058198575;-0.23365743;-0.072171316;0.07614808;-0.10876243;-0.01740791
-0.11497132;0.004443378;0.11558881;0.04926701;0.04725267;0.09371164;0.118501246;-0.10459253;0.058473106;0.06628448;-0.07652639;-0.003819417;-0.2678022;0.014649884;-0.11471305;0.16364263;-0.00023937003;-0.27574325;0.1957492;0.028774673;-0.073372215;0.05883237;-0.27908424;-0.07141532;0.068314545;-0.077112816;0.022963086;-0.14835876;0.020989694;0.25509036;0.039013945;-0.04486965;0.06922415;0.11752604;-0.22528711;-0.1312958;-0.08879692;-0.0217165;-0.029571258;0.0043871333;-0.09876942;-0.094364755;0.13761267;0.031613972;-0.053766564;-0.059781544;-0.059629012;0.13103092;0.075941555;-0.27982685;-0.10257418;0.21521923;-0.14300734;-0.14738487;0.01484218;0.082313195;-0.2739571;0.15365702;0.054384965;0.1420623;0.15831052;-0.16486108;0.04463214;-0.04671585;0.047925785;0.009992573;-0.017379038;0.24541962;-0.103569165;-0.073616184;0.010191616;0.12702988;0.06111583;-0.09028263;-0.22135602;-0.26704964;-0.019494843;0.10490053;-0.12409823;-0.08205075;0.08386679;-0.055350162;-0.12596549;0.0970389;0.18279974;-0.053144075;-0.026964258;-0.042396773;0.016331548;-0.06490419;0.04673749;-0.30910906;-0.010966638;-0.15578036;-0.056657344;-0.1891625;-0.05227875;-0.03153062;0.010505148;0.17176485;0.030802716;-0.26791108;0.12873273;-0.12534848;-0.05331275;-0.058789276;-0.037577614;0.074434884;-0.030423248;-0.12772764;-0.02339181;-0.062134933;-0.12819447;0.10788209;0.056774303;0.015807157;0.033903986;-0.33636293;0.1463213;0.05894219;-0.016147755;-0.020212557;0.332003;0.015057693;-0.04916476;-0.09860128;-0.09087496;0.06386527;0.19826816;0.1150801;0.06259982;0.06999262;0.018783385;0.07157493;-0.051462956;0.30316228;-0.21343674;0.1363298;0.039638143;0.00071490643;0.0022060887;0.16568471;-0.064931445;0.10315754;0.25658777;0.0854592;0.25132006;-0.005725555;0.053282846;-0.00826899;0.07589326;0.08612734;0.05381626;0.0033906335;-0.07405344;-0.074177496;-0.04990669;0.052300833;0.08085711;-0.024113819;-0.13472149;0.11537628;-0.15242088;0.032731663;-0.056430317;-0.05725873;0.090016104;-0.048790995;0.048136998;-0.25807646;0.09943049;0.1906738;-0.07980013;0.112505555;-0.20097394;-0.12516434;0.07002139;-0.026114715;-0.1495499;0.053679183;-0.061084077;-0.0030493815;-0.03477958;0.12928331;0.034475632;0.19967422;-0.2466098;0.06610277;0.08751549;-0.077806495;0.09514857;0.14796004;-0.028997457;-0.059647534;-0.06745887;0.09436108;-0.10714287;-0.20537528;0.055401932;-0.016499959;0.0576555;0.041713733;-0.22977911;0.17845492;-0.28294435;-0.10436622;-0.23520312;-0.06854113;-0.05816697;0.044821326;-0.035205763;0.111666895;0.023294795;-0.0070659206;0.16122194;-0.081517704;0.052339535;0.12957142;0.10775909;0.27546155;0.08484563;0.12573275;-0.039864123;-0.066085376;-0.13346142;-0.13598672;-0.22887066;0.0013212037;0.0040826234;0.08551796;-0.07511778;-0.0023255416;-0.08229385;-0.012759229;-0.1669314;-0.0066829775;-0.106052466;-0.04593929;-0.21583854;0.039639223;0.009862898;0.22499862;-0.12174653;0.059286702;-0.13395482;0.07016391;0.04590697;-0.06693223;0.23565194;0.1513733;0.15295136;0.15229715;-0.16486076;-0.12975919;-0.18002342;0.113058604;0.09662912;0.02160901;-0.29681355;-0.07333423;0.030798161;-0.04934399;0.13641268;0.09385554;0.09127002;-0.12901694;0.11320108;0.13438645;0.033658184;-0.057096027;0.112545446;-0.003930103;0.120681204;0.045835868;-0.20673214;-0.050006278;-0.06352453;0.12275475;-0.09741228;0.16146831;0.23992518;-0.078176856;-0.04573049;-0.19573209;-0.007292673;-0.22451995;-0.052652176;-0.11483937;0.113641635;0.08626211;0.26133692;0.043515053;0.07526614;-0.00066303427;0.021696072;0.12313448;0.0012045373;0.14249575;-0.12609763;0.07022016;0.0019197499;0.13001063;-0.02566705;-0.014787858;-0.012337837;-0.10041661;-0.16454817;-0.051481374;-0.3300363;0.094812416;-0.2304615;-0.024095371;-0.25849304;-0.29836807;0.10304695;0.17905919;0.10573757;0.0017568131;-0.08049333;-0.06405988;0.008348468;0.071630254;0.051432602;0.09546263;-0.00050421467;-0.07004051;0.198782;-0.11678234;-0.15098704;-0.09589507;0.13646929;0.13282025;-0.020253574;0.22631659;-0.1928459;0.07986298;0.10403236;-0.031245075;0.0034553243;-0.019395616;-0.009575859;-0.029149845;-0.06541236;0.022850024;0.045166105;0.09345584;0.0031055242;-0.045028407;-0.03651024;-0.014747244;-0.058178633;-0.15181506;0.10386145;-0.016219264;-0.10241243;0.15594554;-0.006239263;-0.07133973;0.08750496;0.15225829;0.13936204;-0.04353866;0.097229324;-0.0027224256;-0.055018622;-0.073968746;-0.17331631;0.030394949;-0.07987649;-0.04052786;0.0974088;0.0446181;-0.28899667;-0.009741345;-0.120933086;0.10965514;-0.040538583;-0.021627314;0.05907306;-0.22439452;0.32813278;0.11240282;-0.16090062;-0.07164113;-0.13665943;0.0882727;0.14612654;-0.12092019;-0.013583688;-0.094314046;0.07351573;0.11452667;-0.01736712;0.12556402;-0.22331737;0.12932481;0.05732008;-0.061486073;-0.1367122;0.1584057;0.17772755;-0.15378918;-0.009639735;0.008803363;-0.16340503;-0.07009818;-0.019887911;0.14303273;0.017045595;0.085422195;-0.10294517;-0.07580483;-0.018067738;0.052616287;-0.036374662;-0.25492868;-0.22117612;0.013355514;0.07878855;-0.0018233131;-0.13995825;0.10521783;0.18477976;-0.11405538;0.11450014;0.11036287;0.13338137;-0.0016296249;0.020382876;-0.21964715;-0.025846498;0.19297169;-0.2932116;0.24411947;-0.20414644;0.035666756;0.21312375;0.08563037;0.0037882752;-0.009696059;-0.123495355;0.10039668;0.08806504;-0.08942821;0.0020444696;0.09098799;0.044993572;-0.024615219;-0.011502696;-0.16609861;0.1450768;-0.10695298;-0.00602108;-0.09475793;0.107935734;-0.1269728;-0.031967763;-0.0027128842;-0.113834016;0.036780722;0.2954056;-0.08400398;0.14514658;-0.15026289;0.0554487;-0.09633626;-0.0075133583;-0.0061271465;0.06745908;-0.123780526;0.030920446;-0.07264727;0.14452855;0.044947356;0.1192283;0.13049819;0.048036326;0.016668769;-0.19284192;0.02947493;-0.23705734;0.011678838;-0.08213167;0.03903622;0.07115667;-0.049920984;-0.047843706;-0.10897397;0.18616551;0.019028177;-0.0029847575;0.024291659;-0.059410743;0.03298486;-0.24163209;0.16255154;0.12165661;-0.061448567;0.10496564;0.07764592;0.054695852;-0.011842507;-0.18206185;-0.062328715;0.25769567;-0.038923085;-0.10227584;0.08056822;-0.08212205;-0.042134706;-0.0865401;0.16193788;-0.08215688;-0.10665126;0.14150886;0.2130456;0.20099182;0.10312966;-0.050567035;0.13904762;-0.0060621556;-0.07199489;0.05763459;0.1557355;-0.019119935;0.15672415;-0.0011576252;-0.25751474;0.09370449;-0.025495216;-0.20833753;0.04379874;-0.017512467;0.104074486;-0.10159907;0.08311997;0.03892498;-0.2990165;-0.13040975;0.15273952;-0.06420152;-0.14537512;-0.0801692;-0.08924385;0.063582025;-0.15191093;-0.13871029;0.10233719;-0.009789046;0.11742464;0.021534864;-0.07023261;-0.12342305;0.10852358;0.02286447;0.038820136;0.09939665;0.31443945;-0.31413698;0.10706081;-0.22006658;-0.14599662;0.077367865;0.045147248;0.15565991;-0.019818379;-0.03382039;0.026450971;0.014863856;-0.114787824;-0.07819558;-0.28011164;-0.111585625;0.06546503;-0.21765754;0.12404599
-0.13765025;0.0015858139;0.015194859;0.057099417;0.09773113;0.19547935;0.082118444;-0.13505091;0.03754777;0.08919728;-0.016049739;0.010045118;-0.2870539;0.016678497;-0.17794955;0.20526342;0.04779994;-0.15483607;0.18116742;0.0957967;-0.09460452;0.04361555;-0.21196277;-0.03178908;0.02872352;-0.1197227;0.0757856;-0.05965221;0.14004959;0.19976994;0.15077706;-0.011416747;-0.00087270694;0.08842105;-0.15700793;-0.09612814;-0.13147303;-0.019807493;-0.05488126;0.059947062;-0.039307;-0.055655587;0.22718094;0.004586115;-0.055498984;0.033262216;-0.043130938;0.22915515;0.10419066;-0.2800806;-0.15481181;0.025507735;-0.1674527;-0.07709185;-0.080617495;0.030121554;-0.14767699;0.09900908;-0.04196105;0.1486848;0.020871317;-0.084355555;0.039483707;-0.016307227;0.11601245;0.04682922;-0.09532997;0.17063043;-0.047866352;-0.07083172;-0.043562736;0.018527834;0.10145921;-0.08469074;-0.14732946;-0.2624105;0.07865006;-0.0023681868;-0.117277764;0.03012693;0.08020665;-0.057130586;-0.045814846;-0.04958113;0.22318591;0.039905425;-0.1974348;0.036131516;0.02937563;-0.14377144;0.08457849;-0.20147716;0.052762344;-0.0016375481;0.04353113;-0.17310698;-0.044611968;0.06602599;-0.029928926;0.09395494;0.025806818;-0.23159057;0.055117603;-0.18714157;-0.105632946;-0.03442359;-0.06332893;0.01802589;-0.050085083;-0.098710895;0.048542403;-0.12160313;-0.10291245;0.19558327;0.039126623;-0.039399415;0.02151852;-0.20938328;0.09369616;-0.006309348;-0.044629004;-0.057121843;0.21351671;0.04714152;0.032306228;-0.0948522;-0.06682482;0.16234306;0.13283238;-0.023430122;-0.04104874;0.16956241;-0.094791025;0.14290552;-0.028873278;0.1581496;-0.17140795;0.10553947;-0.053719994;0.051219005;-0.102053754;0.016984072;-0.09372978;-0.025973981;0.2503444;0.13690147;0.24885063;0.08436467;0.19156249;0.09867213;0.018941717;0.027002113;0.0167998;-0.08062735;-0.07703253;-0.058190312;0.09519231;0.049747206;0.008332096;-0.012888425;-0.110483505;-0.0269598;-0.0906112;0.07887232;-0.02810448;-0.058004983;-0.10183762;-0.020552142;0.006262827;-0.18379927;0.19165006;0.19954866;-0.034531444;0.07241579;-0.09001067;-0.046283472;-0.008399489;-0.046088193;-0.21738578;-0.009615258;-0.050024424;0.07158302;-0.14151955;0.016164813;-0.03569291;0.19921325;-0.27323198;-0.011755689;-0.02581211;-0.118151516;-0.007557441;0.18565899;0.0449025;0.067608096;-0.13950148;0.079885036;-0.12743984;-0.18453315;0.049523428;0.059049334;0.14415798;0.0007805242;-0.20615432;0.14359002;-0.27930915;-0.2244093;-0.034429643;0.034942474;-0.027798647;-0.055647515;-0.03179202;0.13812171;0.091196604;0.021956263;0.06769547;-0.051839642;0.037795156;-0.009145869;0.15112609;0.17505437;0.018636975;0.17245924;0.046303675;0.03295077;-0.11645636;-0.14602633;-0.21322498;-0.025595922;-0.15373;0.05484513;-0.13673234;0.10698241;-0.089707665;-0.1233202;-0.27885318;-0.12678503;0.011563808;-0.022837987;-0.05865663;0.12257005;-0.0701245;0.14445795;-0.03349019;0.033615943;-0.13623399;-0.014699972;-0.060806796;-0.046321455;0.22945417;0.14788823;0.035346355;0.045945074;-0.059027996;-0.0826879;-0.041697543;0.09137218;-0.071277484;0.044255033;-0.23572434;0.0080450745;-0.08184181;-0.09246984;0.050682817;0.060533784;0.066160984;-0.08086385;0.008967477;-0.0010278512;0.12009665;0.016706835;0.13758701;-0.08402801;0.018328615;-0.01756175;-0.2518421;-0.1082946;0.014289515;0.15954497;-0.105892494;0.11190132;0.09034793;-0.24369408;-0.086777255;-0.101090424;-0.010436916;-0.12016266;-0.09279035;-0.019518467;0.12229179;0.07797446;0.14335033;0.1308311;0.09222674;-0.070128486;0.12460258;0.106351644;0.18816607;0.23805994;-0.09847893;-0.08355539;-0.02699336;-0.052812498;-0.09870009;-0.024925325;0.09607614;-0.06435651;-0.20943968;-0.11789777;-0.2550693;0.0005288706;-0.39657405;-0.021464868;-0.37118727;-0.1898581;0.092792176;0.16444255;0.051754218;-0.13841249;-0.02111731;-0.01198464;0.011433647;-0.0404726;0.15407568;0.0010028466;-0.12136773;-0.120576926;0.1421607;-0.048985533;-0.18024985;0.08338954;0.04363026;0.065139316;-0.03830602;0.1508954;-0.089563325;0.14355908;0.037547518;-0.14531766;0.016200012;-0.060792424;-0.049402386;0.12403266;-0.15239617;0.057922177;0.053318985;-0.0048646843;0.1221049;0.0030022133;0.01951745;-0.029769044;0.023591336;-0.0951237;0.04938473;-0.15147555;-0.08718309;0.17924687;0.12636136;-0.06515298;0.023637868;0.1354267;0.018301304;-0.105563305;0.151827;-0.019913303;-0.10608374;-0.022067871;-0.034560747;0.13133605;-0.03950924;0.05721315;0.0047544786;0.11923102;-0.14847761;-0.0066658636;-0.059914373;0.059723005;-0.035927873;0.037868507;-0.12009469;-0.16901962;0.1317985;-0.012657263;-0.097071156;-0.040512566;-0.20367551;0.06997844;0.13206625;-0.13357674;-0.0004504786;-0.12341865;0.14305466;0.01903332;-0.05459093;0.093164615;-0.14810276;0.04293323;0.08009605;0.1553373;-0.13290349;0.10818967;0.18647926;-0.18174234;-0.0047264057;0.14273398;-0.022912655;-0.070648484;-0.13973173;0.019490164;0.13721323;0.061245754;-0.09000601;0.009341498;-0.0036218388;0.08109264;0.02584686;-0.09492717;-0.3037792;0.05588164;0.1566747;0.078338414;-0.21365717;0.1090079;0.27335572;0.018891444;0.12485768;0.10247221;0.017230928;0.03840532;0.005757359;-0.17793094;0.05156505;0.17099349;-0.25004947;0.2636702;-0.081743956;-0.12335041;0.17496648;0.14501359;-0.08544796;-0.15522754;-0.10134255;0.21154678;0.14425306;-0.07807827;-0.0419811;0.006161265;0.018021371;0.045427877;-0.14594178;-0.14712515;0.1768988;-0.014002295;-0.037433308;-0.007809984;0.16997007;-0.029671883;-0.010138173;-0.055973116;-0.19703643;0.05257328;0.16275151;0.008306504;0.1230397;-0.15804033;0.15106715;-0.07062523;0.014877694;0.08877113;0.09839515;-0.11368128;0.015226007;-0.020053456;0.1357937;0.11783316;0.103097424;0.20776807;0.03564301;0.09268384;-0.14729588;0.014132531;-0.1550245;0.12199938;-0.10801974;-0.03844557;-0.029124295;-0.06303816;0.07945936;-0.1402784;0.09394453;0.028714962;-0.043288898;0.016217286;0.027883427;-0.06697193;-0.23724362;0.17321642;0.07645004;-0.048548877;0.18708204;0.16782299;0.05118147;-0.10429768;-0.15142432;-0.043605838;0.20269802;0.021280669;-0.07569017;0.08530205;-0.07371133;0.009218841;-0.13942394;0.1520888;-0.014526266;-0.12148045;0.14715147;0.16102566;0.15135849;-0.00513594;-0.026526993;0.053265415;-0.055526435;0.072463006;0.028729241;0.052577388;0.124161124;0.17206654;0.1089349;-0.19870889;0.13625121;0.07485649;-0.116845384;0.015016315;0.13543023;0.09192125;-0.008352575;0.08570921;-0.058378607;-0.16520709;-0.13175483;0.13723706;-0.07230601;-0.023191428;0.025709052;0.0074467617;-0.056723863;-0.07988217;-0.03251095;0.13748172;0.015050765;0.05172439;-0.08459621;-0.04453702;-0.14083251;0.17907332;0.1440778;0.031875044;0.08412508;0.31107128;-0.2566197;-0.020402383;-0.27792346;-0.0999772;0.09524033;0.032889944;0.120059505;-0.08669567;0.00825748;0.08216744;0.06843255;-0.072205625;-0.006833351;-0.14056587;-0.0048739007;0.0068338104;-0.12822326;0.14225669
-0.13652842;-0.13322824;0.066853665;0.1480878;0.11252605;0.13424204;0.08198279;-0.106505014;0.022496412;0.14174509;-0.00022848503;0.087031245;-0.21425878;-0.0331562;-0.2539517;0.1443215;0.030679664;-0.19429703;0.24103945;0.087930925;-0.018455917;0.11017951;-0.2545454;-0.04506456;-0.07404;-0.15513569;0.16325225;-0.17043646;0.14890097;0.12162243;0.1266954;-0.10010079;-0.0022625257;0.21339469;-0.15100257;-0.0743858;-0.020996924;-0.0040295916;-0.17667945;0.11536965;0.09266181;-0.06557559;0.27347568;0.022691498;-0.080544844;0.030023519;-0.061730325;0.22365582;0.14703433;-0.2918339;-0.14801452;0.11976454;-0.11100008;-0.1608734;-0.10107142;0.08133314;-0.12019621;0.029555982;-0.08189573;0.06784527;-0.030310648;-0.25914717;0.01814009;-0.051441595;0.09879439;-0.052467193;-0.012380659;0.13467005;-0.12789644;0.010125623;-0.078704104;0.08985754;-0.029771246;-0.08126506;-0.023729917;-0.16624731;-0.055541698;-0.060184922;-0.13270625;0.02622128;0.089243196;-0.21907769;-0.16548133;0.050919026;0.18866959;0.017151162;-0.1315778;-0.12645715;0.08209276;-0.062200736;0.05136894;-0.27674088;0.031833123;-0.11415464;0.047743212;-0.004194055;-0.036769416;0.062142745;0.040253505;0.19844623;-0.04992651;-0.10010456;-0.030497115;-0.25142854;-0.07340696;-0.15102106;-0.016751237;0.04469447;-0.046968523;-0.1423997;-0.02054479;-0.044045918;-0.11105841;0.17115597;0.04692573;-0.020694101;-0.025726967;-0.17379436;0.0035636788;0.08656482;-0.1020796;-0.06098831;0.2521719;-0.027453981;-0.08783346;-0.034736857;-0.13351814;0.20404957;0.057477705;0.047057323;0.031112993;0.1428932;0.1074254;0.09836588;0.03815556;0.1493641;-0.1563093;-0.021632008;-0.038564187;0.03977343;-0.019770462;0.0066385525;-0.019719651;0.11144117;0.13222477;0.24625549;0.35190874;0.063540906;0.034064412;0.055959474;0.046516385;0.030629221;-0.061060455;-0.15754;-0.10506579;-0.12127814;0.05673032;0.06311163;0.06420671;0.059919763;-0.047143254;0.023278054;-0.010437665;-0.034404937;-0.082427464;-0.025176536;0.027827378;0.10076076;-0.054762393;-0.18252997;0.088951014;0.14125966;-0.1428858;0.036518387;-0.15655644;-0.04078148;-0.04779326;-0.046059646;-0.19689299;-0.12086851;0.039181076;0.07509023;-0.15025443;-0.012787571;0.07279575;0.13659905;-0.16091295;0.07164712;-0.020493507;-0.06718597;0.012101846;0.29621467;0.015421298;0.07461983;-0.129106;0.04136327;-0.0007462551;-0.16637869;0.044049453;0.06845347;0.14086442;-0.008137894;-0.21722083;0.034226697;-0.34135976;-0.24883032;-0.09052173;0.060885187;-0.026548706;0.035978727;-0.040658545;0.11720917;-0.027690096;-0.074765384;0.06847882;-0.049032055;0.017369032;0.13026576;0.061712652;0.22357118;0.07689154;0.088725016;-0.08789507;0.121747985;-0.022886423;-0.07472907;-0.16267827;-0.040078092;-0.0010188293;0.05534326;-0.05042178;0.025490236;-0.058270566;-0.034626372;-0.4220942;-0.041296832;-0.01898265;-0.10631605;-0.13929053;0.011010334;-0.0075091585;0.08267832;-0.033710398;0.03742933;-0.16437091;0.17142957;-0.07209159;0.07268537;0.13058099;0.13136367;0.093542315;0.106309354;-0.17422251;-0.17241924;0.0029380936;0.0910611;-0.04885355;0.15931143;-0.16641043;0.032032575;-0.040148493;0.009403736;0.058100443;0.08030676;0.09462082;-0.19292024;0.15772115;0.062221136;-0.02249318;0.022947902;0.23968402;-0.043650515;0.08939327;-0.061737064;-0.24948603;-0.23729736;-0.07507841;0.1592181;-0.17768762;0.11749804;0.11188417;-0.20768128;-0.11288466;-0.1552936;-0.043780968;-0.12358494;0.0009630744;-0.13865587;0.06894087;0.022907492;0.12663364;0.04294931;0.08751816;-0.104267634;0.04377461;0.09083057;0.16393098;0.14200051;0.016277403;-0.042720955;0.024416942;0.046889607;-0.1061441;-0.12613568;0.13531126;-0.10596962;-0.14957136;-0.07887689;-0.1989469;0.044759333;-0.38434806;-0.09387684;-0.28380382;-0.20949918;-0.0005387552;0.18440281;0.01559309;-0.06404789;0.02008711;-0.0016752668;-0.06901217;0.030694405;0.03592019;0.10655981;-0.071166314;0.050715942;0.09700611;-0.18431829;-0.026537146;0.017388904;0.06325068;0.12694013;-0.03534059;0.10881615;0.022421816;0.04887017;-0.0030477203;-0.041280735;0.015181072;-0.03389412;-0.05322698;0.026871739;-0.12305422;0.096194856;0.08722246;0.13791907;0.23078889;-0.09475215;0.0013871281;0.065527074;-0.08406973;-0.12160849;0.061027523;-0.14444317;-0.23387945;0.26141974;-0.00094223284;-0.15888749;-0.002456542;0.09758616;0.053017627;-0.037010863;0.023812952;0.032185454;-0.05822812;-0.09375639;-0.088553414;0.1296015;-0.11175903;-0.048711956;0.0361381;0.05021342;-0.19725661;0.012408345;-0.022304446;0.11755661;-0.08659575;-0.036059488;0.0064735436;-0.23536353;0.13865922;-0.06391444;0.023306139;-0.11457008;-0.2716803;0.04082315;0.08138542;-0.03616563;0.048025373;-0.037034094;0.028644472;0.048179008;0.063319124;0.10913235;-0.21641563;0.14759007;-0.08012659;0.014969959;-0.06802514;0.19076096;0.10705959;-0.16299298;-0.0027124486;0.061822087;0.015205699;0.028437454;-0.114994586;0.010672996;0.12379254;0.07777721;-0.04371607;-0.012983556;-0.03347184;0.047709055;0.043176193;-0.14922373;-0.11273535;0.07039234;0.108246505;0.02704507;-0.205157;-0.052355643;0.2488064;0.0065244315;0.10884505;0.0035562369;-0.037031773;-0.031664327;0.028987812;-0.2353093;-0.07967808;0.16209982;-0.23991978;0.079167396;-0.042342804;-0.22310026;0.2530793;0.24291378;-0.05878889;-0.21026713;-0.077155955;0.19008844;0.18236706;-0.10533442;-0.05233934;-0.065216504;-0.07796335;-0.03373723;-0.08751195;-0.21633664;0.0101412395;-0.00030251508;0.007065869;-0.06266028;0.11100774;-0.010498307;-0.042474862;-0.020323541;-0.18091726;0.09991273;0.12399827;0.045886286;-0.020208864;-0.16881862;0.2201349;-0.018211134;-0.029642686;0.09806725;0.07472356;-0.07444993;0.031869654;-0.06068081;0.26706257;0.08943377;0.15785211;0.18871644;-0.039380338;0.064385206;-0.11200852;-0.041205626;-0.21215585;0.10136986;-0.12878236;-0.064266495;-0.056396488;-0.1425405;-0.06557666;-0.2103669;0.18194671;0.07119166;-0.10583282;0.0967759;-0.08566329;-0.14226983;-0.24488558;0.17123169;-0.037247997;-0.098245226;0.086043656;0.11464409;-0.029333023;-0.10840256;-0.19066736;-0.050054252;0.06942812;-0.11008591;0.021438496;0.08470396;-0.041288167;0.03124389;-0.15656611;0.06363712;-0.03591246;-0.24219795;0.030145379;0.1993415;0.120172314;0.0013999427;0.0027955754;0.058556985;-0.047392566;0.053123146;0.03290163;0.09637633;0.12914912;0.1561283;0.10563425;-0.11399202;0.116387464;-0.014419771;-0.13773464;0.03095399;0.1409686;0.033372223;-0.014343805;0.14648344;0.057764877;-0.14829013;0.00047957222;0.2522425;0.036557727;0.029539341;-0.09497298;-0.0014720341;0.025868092;0.06388435;-0.11547284;0.27832016;0.037790112;0.16239211;-0.13137066;-0.014555281;-0.08436701;0.09486396;0.077588834;0.06530776;0.060534526;0.20000702;-0.15827052;0.08182634;-0.20776905;-0.06718496;0.13825734;0.07497869;0.109980024;0.03425164;0.04089341;0.020651478;0.12077863;-0.08747472;-0.11861408;-0.15060888;-0.050677083;-0.14762953;-0.21440634;0.08712678
-0.16470388;-0.053599104;0.01959622;0.16786774;0.02498018;0.13889919;0.11337732;-0.045353774;0.070300356;0.17533578;0.10181934;0.1025142;-0.25539774;0.041903317;-0.25697002;0.2699175;0.034050785;-0.18156491;0.19637783;0.21672314;-0.06039613;0.08543811;-0.21047284;0.04592744;0.034274478;-0.13218838;0.047329713;-0.09191819;0.16782835;0.10549768;0.16433033;-0.099146165;-0.04929791;0.13538688;-0.11382484;-0.041483704;-0.09466283;0.02195007;-0.13460712;-0.0041866456;-0.046926856;-0.088575184;0.2046878;-0.09534404;-0.08412583;0.034224473;-0.013853972;0.23920646;0.12133525;-0.23840907;-0.18136117;0.06813054;-0.23186162;0.006995095;-0.014562912;0.105586804;-0.09570797;0.054254875;-0.011802131;0.06424554;0.030616732;-0.24898578;0.12368416;-0.122726254;0.06937111;0.05410443;0.004682811;0.07494499;-0.06993521;-0.04325488;-0.093051486;0.1253661;0.043064713;-0.022969514;-0.028840307;-0.24287969;0.04852979;-0.0015035551;-0.22073306;-0.048724405;-0.06567557;-0.14949462;-0.11993334;-0.020310573;0.17593606;0.04028842;-0.2519569;0.045539677;-0.008120051;-0.120540135;-0.021409657;-0.27356163;-0.091128126;-0.063185275;0.15392536;-0.0054446333;0.022761535;-0.028222125;-0.07729542;0.18906294;0.12189509;-0.09010268;-0.00543452;-0.17433843;-0.07403123;-0.07152989;-0.080644704;-0.024640929;0.06099879;-0.011117512;-0.0052566356;-0.110937126;-0.17264311;0.10164959;0.030176759;-0.014464685;-0.036130913;-0.27996007;0.13456666;0.04211891;-0.11972196;-0.03333408;0.18308865;0.06931223;-0.15407237;-0.042308606;0.023243152;0.20002587;0.018990336;0.032420862;-0.053224836;0.08999605;0.02025969;0.17232321;0.020594057;0.21690817;-0.24006695;-0.071867354;0.043125868;0.109111026;-0.04260334;0.03997217;-0.035910096;0.09752296;0.108856186;0.18729939;0.33520284;0.03048401;0.15711416;-0.09867038;-0.08467786;-0.015994785;-0.04084094;-0.054911006;-0.12569673;-0.043927565;-0.029296178;0.0845368;-0.00025596356;-0.022851456;-0.041178063;0.110826;-0.051819544;0.014983365;0.042613886;0.028758734;-0.04187671;0.023119394;0.08874759;-0.2290278;0.193037;0.05687533;-0.01344478;0.018526725;-0.22564268;-0.096169144;-0.042139664;-0.0023019589;-0.20478685;-0.05274089;0.043195486;0.09864661;-0.10945539;0.081947386;-0.03463941;0.13764018;-0.1565753;-0.06353635;-0.05983238;-0.06527634;-0.004337793;0.16662236;0.120035596;0.15027818;-0.058852255;0.074693784;0.04227445;-0.11811694;0.12726887;0.076381;0.07577399;-0.13352685;-0.1854038;0.11586014;-0.32555106;-0.23554595;-0.15615726;0.056484554;0.07816684;0.044410035;-0.051505;0.13081567;-0.05708118;-0.090659864;0.03297416;-0.13278957;0.122766584;0.05724274;0.071977854;0.23395683;-0.015340326;0.18092068;-0.026631502;0.020884223;-0.1802657;-0.15014875;-0.10232906;-0.04451038;-0.002140235;0.12909521;-0.10567248;0.14359802;0.044326734;-0.0955976;-0.32374114;0.035667527;0.006934858;-0.091508545;-0.24013281;0.13159078;-0.1470804;0.022323763;-0.03861402;0.043167677;-0.1073023;0.11858964;0.013807911;-0.0068209195;0.09384807;0.16052283;0.017280424;0.1870732;-0.036268663;-0.032920733;-0.16398345;0.19495933;0.030070381;0.037588064;-0.1412411;0.026108628;-0.06795312;0.025877949;0.14112991;-0.010253848;0.20181334;-0.16018671;0.002741521;-0.06746322;0.046529453;-0.00057338184;0.17688495;-0.041543357;0.008985417;0.0008566613;-0.3076029;-0.11810492;-0.011070509;0.16870356;-0.09634582;0.18078859;0.14879543;-0.12486307;-0.11114464;-0.07796522;-0.035202052;-0.08214064;-0.05068019;-0.06242919;0.06430488;-0.079812855;-0.0007314192;0.18221053;0.10964936;0.014398234;0.18102744;0.09391058;0.19650789;0.078585364;-0.032252308;-0.15216553;0.053691454;0.030176865;0.040208817;-0.15041369;0.22139615;-0.029679548;-0.15190944;-0.15633123;-0.15808636;0.04709228;-0.4417153;-0.051924966;-0.20388652;-0.17838751;0.13368304;0.17720334;0.010585957;0.041862566;-0.047865096;-0.10803205;0.067514814;0.01866213;0.09912064;0.13175793;-0.031057334;0.0033868542;0.100262456;-0.13669063;-0.06400024;0.16200864;0.065796554;0.15598123;0.06405266;0.0508513;-0.022509016;0.065295614;0.06518426;-0.101889886;0.15782692;-0.025210928;-0.17271623;0.09758949;-0.031525332;-0.02281876;-0.058285676;0.15445599;0.124864526;0.043822844;-0.03923097;-0.057845578;0.010217041;-0.11598667;0.11398093;-0.12753439;-0.059331227;0.13662584;-0.039459087;-0.091330886;-0.040342804;0.081612535;0.10676961;-0.05244108;0.05746029;-0.02613759;-0.10485588;-0.07598084;-0.13823442;0.14633228;-0.004105183;-0.00463708;-0.02052893;0.12187705;-0.15517619;0.03274752;0.02079289;0.04302916;-0.054566666;0.034761634;-0.006338098;-0.29017934;0.21866843;-0.15039141;-0.056920465;-0.112532765;-0.26029846;0.03259829;0.0398124;-0.0617744;-0.13981025;-0.2122252;0.015987547;0.08073569;-0.02241784;0.2131898;-0.20972714;0.058930214;0.051831387;-0.0019250908;-0.18957135;0.09437938;0.09106244;-0.07042404;-0.0222011;0.10444824;0.0004966437;0.03319034;-0.12663493;-0.057133976;0.05751976;0.05162742;-0.025781631;0.017950421;-0.034465432;0.13766809;0.054067597;-0.2328692;-0.2834573;0.09513666;0.1809917;0.018169077;-0.058307804;0.10867363;0.32971722;0.042726725;0.16865276;0.10337379;-0.01089091;-0.113939054;-0.03784318;-0.14532489;-0.067612104;0.1342272;-0.15818182;0.26954433;-0.18568738;-0.09646992;0.15192245;0.19545819;-0.0807098;-0.22317302;-0.12975003;0.25657496;0.09504883;-0.0011619508;-0.02448164;-0.04031011;-0.016364139;-0.02579527;-0.11463267;-0.2547084;0.12527443;-0.053267483;-0.037962742;-0.039024252;0.14083141;-0.02535262;-0.11133762;-0.13252352;-0.20852727;0.04448674;0.31515208;-0.0009750331;-0.0068095415;-0.14520909;0.13941889;-0.06057434;-0.04812528;0.021924293;0.22186406;-0.08790723;0.05060779;-0.015524074;0.29287067;0.11438042;0.12994863;0.22639455;-0.087546974;-0.018807564;-0.060651653;-0.13185535;-0.18951482;-0.021900693;-0.078455746;0.041674808;-0.055235848;0.017827677;-0.0022577748;-0.13934189;0.10466216;0.14212462;-0.10267193;0.12917838;-0.03836766;-0.069765754;-0.18385793;0.07298811;-0.039366797;-0.19103487;0.14364177;0.10783705;0.07542985;-0.068808615;-0.0910696;0.014976165;0.099338315;-0.17684239;-0.10498591;0.10508514;-0.053212453;0.030713499;-0.22756046;0.15161692;0.075403914;-0.27788433;0.14617291;0.17982493;0.16882342;0.040972013;-0.006424822;0.06419636;0.15846941;-0.027935604;0.0003467893;0.09017629;0.004745431;0.15264301;0.01990632;-0.13007307;-0.0038392073;-0.00362044;-0.113046795;0.049966045;0.17079091;0.033159535;0.0922066;0.07003625;-0.06684053;-0.11717145;-0.10830815;0.16217764;0.116038375;-0.110077515;-0.09875023;-0.028892057;-0.0036271615;0.035641763;-0.073511876;0.22525544;0.035002116;0.12755914;-0.15065786;-0.10013031;-0.1768766;0.088538766;0.07575225;-0.0066459505;0.14439662;0.1569404;-0.15509637;0.03012054;-0.026200281;-0.059420496;0.13790621;0.11767815;0.12398771;-0.0582755;0.10933303;0.12678266;0.13190073;-0.11404944;-0.12908468;-0.07546146;-0.03991684;-0.042745695;-0.08345894;0.023962399
-0.0557919;-0.009160667;0.06625587;-0.042964566;0.008319022;0.08001775;0.06313938;-0.11593923;0.089222096;0.14767665;-0.057722986;0.09041974;-0.12012122;-0.08493018;-0.19373289;0.13569677;0.06269069;-0.19638732;0.27722654;0.10483051;0.11838932;0.24085866;-0.20698623;0.054766703;0.052323803;-0.03986356;0.12059932;-0.13900374;0.15271223;0.13315931;0.03352936;-0.05337113;0.0031748216;0.14929222;-0.111906394;-0.20437272;0.0061991774;0.084976085;-0.11303013;0.052039526;0.03174951;0.027321631;0.08024203;-0.03604093;-0.00493137;0.021987807;-0.09190093;0.20266826;-0.026135152;-0.19845296;-0.16992287;0.09380795;-0.14800271;-0.09843008;-0.04566924;0.17194813;-0.065864556;0.094540805;0.007715613;0.18251508;0.054291245;-0.28782168;-0.06732958;-0.030094206;0.1340285;0.036951534;-0.06843844;-0.0028854248;-0.09732352;-0.0627111;-0.042976208;0.15793604;0.023085186;-0.1224403;0.014718304;-0.08055651;0.066543244;-0.031204367;-0.24750116;-0.12226297;0.09971125;-0.30162543;-0.0991325;0.044621978;0.2309987;-0.089271896;-0.24868476;-0.027557475;0.041701533;-0.07173297;0.03734992;-0.18950029;0.073996976;-0.13753714;-0.003937465;0.0356133;0.06517547;0.068983726;-0.108289614;0.10344543;0.13025752;-0.16361687;0.04699538;-0.12346767;-0.037204113;-0.10279848;-0.08730503;-0.083130926;-0.0024905866;0.023662992;0.06555363;0.02282865;-0.07294684;0.040519394;0.08806029;-0.08632741;0.0018114437;-0.28332925;0.061135173;-0.015905302;-0.08143638;-0.15582399;0.050509244;-0.038719885;-0.028713182;-0.05986041;-0.14986278;0.28607464;0.051610235;-0.018848475;-0.038711894;0.101729974;-0.08000722;0.11384945;0.0044910666;0.10504382;-0.08701279;-0.020879064;-0.032084502;0.07780765;-0.10138712;0.052056238;-0.08116918;-0.116012886;0.1103409;0.0025668405;0.322868;-0.072352104;0.13253132;0.015328322;-0.052507468;0.06597409;-0.128094;-0.0901064;-0.11104012;-0.05074245;0.08461247;-0.044207808;0.11919229;-0.02533468;0.06545487;-0.026816325;-0.12567835;0.04860389;-0.012918653;-0.09453166;-0.12425424;-0.011637453;0.058538284;-0.15309924;0.06911268;0.13732919;-0.0982446;0.18822809;-0.19286042;-0.08956639;0.059684023;0.10410714;-0.2483348;-0.025561946;-0.032869916;-0.0002139095;-0.15907039;0.0665473;0.02040293;0.15482582;-0.22992398;-0.10788556;-0.027190294;-0.05122469;0.016641125;0.19898126;0.07159415;0.08788811;-0.17429386;0.029064436;-0.1332233;-0.15172629;0.043227907;0.046922762;0.13978957;-0.033299733;-0.14312167;0.018460412;-0.331899;-0.08834222;-0.1161662;-0.056310482;0.13045387;0.0662932;-0.087517895;0.10217425;-0.04079477;-0.19770323;0.03528423;-0.016818684;0.16048074;0.0033045236;0.047607873;0.029553005;-0.03432906;0.17725961;-0.03215448;0.007479341;-0.108461514;-0.18627693;-0.1885804;0.029990882;-0.105781965;0.12359622;-0.061632995;0.082450464;0.11161315;-0.07303303;-0.32510537;0.047578286;0.0050785304;0.09208608;-0.103625104;-0.0117883915;-0.004302121;-0.034573417;0.024321023;-0.010361767;-0.056518927;0.03370253;-0.13961652;0.0011464339;0.07469199;0.2021492;0.088982426;0.15991136;-0.172945;-0.015850544;0.022588924;0.12530923;-0.03700728;0.11362772;-0.19894908;0.060569245;0.006040507;0.046332415;0.016327057;0.1225711;0.17986;-0.13363166;-0.043585673;-0.03644602;0.038598828;0.01928262;0.12312511;-0.011043441;0.042560674;0.03685244;-0.26483703;-0.026826726;0.019587463;0.09650209;-0.1436956;0.27581045;0.011010181;-0.21027707;-0.121864505;-0.11786358;0.089189954;-0.11956774;0.020200672;-0.05682071;0.09453086;-0.06319376;-0.07239853;0.1974134;0.105987094;0.044240072;0.09954514;-0.06500295;0.21794584;0.11266496;-0.027506888;-0.040463917;0.07539287;-0.03497036;0.02752596;-0.04825084;0.17113343;-0.03840452;-0.013616034;-0.03148717;-0.22879894;-0.0031840235;-0.24198276;-0.11275877;-0.11525738;-0.09274433;-0.010516026;0.13826492;0.10405384;-0.12057073;-0.06034596;-0.08338863;-0.012964071;0.08521335;0.058551904;0.080285296;-0.07926529;-0.11493773;0.04641534;-0.18169042;0.024037048;0.08029011;0.016060421;0.0971746;-0.11114886;0.10960404;-0.016572777;0.09157074;0.17270967;-0.028644063;0.022150405;-0.06618064;-0.21296956;0.08841322;-0.2011323;0.053206198;-0.022004182;0.09271112;0.22957523;0.06108351;0.044397958;-0.13063875;-0.048260506;-0.022439752;0.110624656;-0.114505425;-0.025956213;0.13485843;0.018292649;-0.11655653;0.0113723;-0.004231715;0.08878735;-0.14485048;-0.0009786027;-0.010618553;-0.14589632;-0.13188978;-0.1307155;0.19518125;-0.19923438;0.07817925;-0.05115522;-0.06171029;-0.18068857;0.036910348;-0.04527625;0.2018393;-0.049269196;0.044437576;-0.1358375;-0.25723892;0.18242405;-0.16920896;-0.06662193;-0.16353653;-0.20569904;-0.00199835;0.02025487;-0.12082398;-0.17851825;-0.08004168;-0.07941167;-0.03548432;-0.011852162;0.11547372;-0.13389939;0.12089051;0.0026464278;0.07157587;-0.071894735;0.1683519;0.15529755;-0.13152795;-0.045555342;0.14029047;-0.06767769;0.020258874;-0.16172463;-0.008067304;0.008915947;0.12886201;0.107884884;0.05603314;-0.10274121;0.10077033;-0.017873181;-0.14804497;-0.22974616;0.07106067;0.071927816;0.18862575;-0.19701284;-0.053489655;0.2186798;0.03489473;0.18866207;-0.0010788921;-0.04600075;0.06352527;-0.040020917;-0.16686949;0.12888491;0.15003778;-0.17528175;0.15148945;-0.04406806;-0.14769031;0.24823779;0.14639843;-0.0018751477;-0.15636769;-0.1380075;0.17647934;-0.002008444;0.041038696;0.068554156;0.12089836;-0.0629978;-0.062485665;-0.07650201;-0.09796623;0.06613125;-0.03473477;-0.07546457;0.042183034;0.0719144;-0.1002507;-0.08065617;-0.07859057;-0.27085218;-0.052018695;0.25323257;0.08656023;0.09784712;-0.034486756;0.26631495;0.01103046;-0.039179433;0.020982668;0.089379184;-0.032824557;0.088007405;0.05321096;0.2533721;0.022641562;0.10472458;0.18530725;-0.047988776;-0.00860951;-0.104155295;-0.10186723;-0.25128365;0.013317077;0.028551074;0.007398697;-0.019315852;-0.179333;0.13219664;-0.038459104;0.037690636;0.06622568;-0.09189448;0.096627966;-0.008533435;-0.051032025;-0.1446663;0.03728063;0.119769186;-0.11216844;0.094178535;0.0651979;0.004744199;-0.12557285;0.035047486;-0.033861604;0.058007635;0.012834089;0.06457638;0.10611429;0.006115263;-0.01288932;-0.23738913;0.17177856;0.025636647;-0.16019814;0.048965897;0.10508274;0.23694675;0.07929069;-0.057593103;0.062266223;0.018635087;0.011863509;-0.010039438;0.108906895;0.0046870373;0.066796266;0.02998391;-0.10491602;-0.011231649;-0.058361724;-0.061967835;-0.039588362;0.046247866;0.09416581;0.02175572;0.021235466;-0.15402295;-0.24122064;-0.014224569;0.16429022;0.10863052;0.034670006;-0.12659474;-0.07364685;-0.115203045;0.07770792;-0.008250818;0.20461161;-0.052752815;0.064543545;-0.063316785;-0.12599769;-0.09783483;0.21543404;0.13671216;-0.048537776;0.08899996;0.21918051;-0.06682712;-0.026726551;-0.15928471;-0.15843114;-0.0077654906;-0.009197121;0.14483881;0.09136077;-0.002901233;0.07403509;0.077177376;-0.14895192;-0.09630167;-0.050820623;0.076312326;-0.03987508;-0.09048014;-0.0006072129
-0.15953901;-0.033400435;0.107445724;0.05298329;0.11867367;0.0770576;0.1256776;-0.11391531;-0.04713737;0.09346601;0.026880106;0.10588418;-0.11185331;-0.028420227;-0.25077754;0.16844614;-0.014796563;-0.2049509;0.24414454;0.18998672;-0.002527796;0.13009049;-0.28638852;-0.031641234;0.028410459;-0.14212959;0.1670161;-0.13391466;0.0510458;0.011842243;0.13846776;-0.07651632;-0.036790952;0.019146126;-0.13558486;-0.09692545;-0.010587003;0.022498045;-0.07318312;0.056773763;-0.019626586;-0.11009547;0.14181937;-0.058190685;-0.038308367;-0.016963517;-0.07941674;0.18785426;-0.0730401;-0.2737411;-0.09110514;0.084762506;-0.09940154;-0.16021468;-0.036319807;0.1475189;-0.07985697;0.08237261;-0.044063173;0.18312967;0.11788098;-0.25860018;0.027583463;-0.1106475;0.11572418;0.022342516;-0.02577987;-0.03275285;0.026247988;-0.20680332;-0.05747947;0.02475865;0.06197823;0.010017921;-0.12598604;-0.2053304;0.02162263;-0.10302041;-0.2739847;-0.21935119;-0.043002065;-0.16756372;-0.0834425;0.1445632;0.20242885;-0.052947804;-0.104910046;-0.088228464;0.042292144;-0.13147353;-0.0073986375;-0.23247205;-0.031300325;-0.13075;0.07157932;0.0733541;0.04673285;0.052286025;-0.13625523;0.22449565;-0.044918574;-0.094236545;-0.030801984;-0.042567;-0.12572144;-0.09485445;-0.08550501;-0.09357905;-0.056431536;-0.047935806;-0.06374398;-0.059058256;-0.1423135;0.081940986;0.06239644;-0.142079;0.07974874;-0.22005375;0.043181963;0.0876523;-0.15673913;-0.13564844;0.16050915;0.07766688;-0.12873599;0.028985541;-0.027127434;0.20383874;0.010181316;0.045166932;0.014208716;0.008590653;-0.032860044;0.043499473;0.1439805;0.1356661;-0.18965362;0.029000074;-0.14556073;0.022167806;-0.023861447;-0.02009557;-0.044626124;-0.040330473;0.17174903;0.09309362;0.19387518;0.12461075;0.22836296;-0.00034579381;0.060074132;0.04936377;-0.11215985;-0.06557175;-0.015842484;-0.07364117;0.05593863;0.03382567;0.0072186515;-0.0808654;-0.06196918;0.10969943;-0.09099771;-0.07339614;0.035658535;-0.024854785;0.005923171;-0.081246205;0.030626617;-0.21547641;0.07183427;0.12678601;-0.18331146;-0.034606047;-0.1327425;-0.13644044;0.11368977;0.08730374;-0.27849266;-0.11682234;0.062977605;-0.03982434;-0.11192407;0.07523395;0.03009481;0.10231068;-0.10533226;-0.03280469;-0.00489205;-0.036166366;0.16816041;0.14728467;0.12027018;0.00015324455;-0.012469948;-0.00503148;0.022337254;-0.14720751;-0.026221998;-0.0062092366;0.046270706;-0.09417934;-0.059590463;-0.039735306;-0.23514909;-0.11652684;-0.20508988;-0.07414743;0.05439249;0.103563786;-0.10079192;0.12335419;0.09788963;-0.19660038;0.15809423;-0.063967586;0.17176677;-0.05030359;0.039264604;0.100868516;0.043492492;0.06732676;0.03889157;-0.012934289;-0.20629306;-0.2698938;-0.13038445;0.041918706;-0.030929063;0.013617684;-0.14647953;0.02063586;0.010287825;-0.054092225;-0.32936516;-0.015876641;0.04142875;0.022843778;-0.11627028;0.16748795;-0.13826764;0.09781943;-0.013147849;0.007640923;-0.10219571;0.053171977;-0.062005624;0.11267068;0.0917315;0.21631001;-0.07675785;-0.011372628;-0.026111742;-0.045889523;-0.039341982;0.21217234;-0.15719275;0.10333506;-0.2449931;0.088706404;-0.07411037;-0.120025225;0.118117206;0.11661174;0.060051344;-0.0075587253;0.04287147;0.018316796;-0.055091348;-0.08722361;0.2274755;-0.06019247;-0.057986967;-0.07392109;-0.26460642;-0.15060113;-0.10423806;0.21127969;-0.27309892;0.16015284;0.07427239;-0.23069029;-0.124640316;-0.038652882;-0.1202995;-0.09644594;-0.09013496;-0.06758437;0.0019027435;-0.05081132;-0.014382471;0.18655723;0.09032911;-0.112684414;0.18460928;0.008884385;0.16079478;0.075157166;-0.031502128;-0.12721568;0.02143036;-0.026970359;-0.009492422;-0.17723961;0.12688603;-0.12007053;-0.1104735;-0.036149643;-0.029532999;-0.0315681;-0.25914305;-0.045810483;-0.1121983;-0.27659315;0.014952569;0.011646487;0.0460354;-0.12614104;-0.020709403;-0.024294332;-0.0040484546;0.0820193;0.15196577;0.16173653;-0.18867265;0.028850026;0.011846728;-0.24980351;0.011095187;0.11015437;0.06255207;0.09892784;0.043214913;0.02938;0.041300025;0.0029670622;0.21927086;-0.027040226;0.090895556;-0.04907806;-0.12219809;-0.042699315;-0.1441382;-0.0030043134;-0.07429782;0.122419424;0.11006577;0.001517063;-0.019170335;-0.12690441;-0.11957678;-0.09620331;0.08416209;-0.08667794;-0.10325497;0.24374895;0.017596474;-0.1801883;-0.023936862;0.079520434;-0.007662467;-0.03230068;0.20483464;-0.01863139;-0.09356199;-0.02538288;-0.015012707;0.017918326;-0.10754685;-0.074113116;-0.04280814;0.069146015;-0.12658495;-0.07735566;0.14577825;0.12052752;-0.11768346;0.050060857;-0.052052602;-0.15731116;0.14412436;-0.24434598;-0.12461209;-0.11916359;-0.07107668;-0.05753785;-0.0066410745;-0.041093063;-0.13271545;-0.15231559;-0.07584415;0.07997648;0.059899054;0.18601198;-0.06614512;0.050105568;-0.0350312;0.075025454;-0.18446381;0.074152544;0.09242312;-0.13979955;-0.12949732;-0.0068490077;-0.11768266;0.08458296;-0.016670281;-0.052704904;0.11150699;0.11841577;-0.058581453;0.07245386;0.0663797;0.14282678;0.03145213;-0.14572404;-0.20315272;0.08011817;0.0006523326;0.18543485;-0.069478706;-0.07001345;0.19486892;0.061558746;0.09311704;-0.043547235;-0.10894519;-0.08710375;-0.05174911;-0.11772717;0.05011846;0.010576097;-0.16137995;0.24561267;-0.052187793;-0.008703718;0.20637862;0.11116353;0.045804948;-0.0221583;-0.12072562;0.22307529;-0.012683232;-0.12529574;0.030458588;0.15461057;0.04904526;-0.03005432;-0.016521031;-0.17709824;0.15394989;0.114845105;-0.13564153;0.1151398;-0.01939069;-0.07019388;-0.01574976;-0.04600773;-0.16918097;0.082688905;0.25446874;-0.037246455;0.06271741;-0.08365709;0.21957733;0.003949309;-0.11657516;0.06283004;0.16043025;0.026166879;0.12385121;0.05341356;0.15829797;0.14192748;0.042352363;0.11428081;-0.10756423;0.08047863;-0.032023847;-0.05804205;-0.28226212;-0.04819954;-0.0032522986;-0.07881464;0.021718932;-0.16999337;-0.050387874;-0.21448307;-0.041702412;0.19826432;-0.023808155;0.066503;-0.06437389;-0.023995616;-0.116550565;0.063775785;0.12159402;-0.1583109;0.17464708;0.042135075;0.12365155;-0.059352815;-0.078712866;0.033503544;0.14579782;-0.13328254;-0.05616227;0.07593397;-0.065940104;-0.07089749;-0.23110555;0.24134737;0.07811083;-0.26862398;0.15137023;0.1266624;0.16047111;0.0025601513;-0.006275527;0.14573659;0.08020182;-0.03859515;-0.06552912;0.035790913;0.09201793;0.12841485;0.03686813;-0.12749596;0.043108135;-0.056322295;-0.058977105;-0.033351403;-0.01733389;-0.0561873;0.055690113;0.13948141;-0.14263809;-0.1009525;0.06850188;0.21558738;0.18760754;-0.1129645;-0.1378416;0.0329722;-0.023073735;0.07601564;-0.088887304;0.17047621;0.021134727;0.08049417;-0.21815294;0.047115523;-0.16308576;0.23842101;0.04300145;0.03990707;0.06781165;0.277549;-0.12733422;0.07468061;-0.028994001;-0.05350444;-0.025070265;-0.07081281;0.09630937;-0.07424598;0.09989988;0.020086579;0.20093088;-0.035331834;0.0021841065;0.015669758;0.05432056;-0.15261342;-0.13250951;0.10502262
-0.19363597;-0.10765033;0.029463623;0.07010638;0.1405074;0.037398256;0.08189802;0.01656126;-0.08555988;0.07878551;0.0724956;0.10038848;-0.19009419;-0.08067636;-0.2571204;0.14566958;0.14141482;-0.14427023;0.1741238;0.1658904;0.060466766;0.0995873;-0.20667185;-0.16717204;-0.010073174;-0.08751394;0.17168191;-0.068108685;0.20935781;0.13216987;0.11392097;-0.09803013;-0.05274716;-0.023630785;-0.12342015;-0.082261786;0.039930575;0.11248448;-0.19002707;0.04877874;0.08146536;0.0056722295;0.20446497;0.023490058;0.06044048;0.07028472;-0.11762751;0.15090364;-0.010954831;-0.3602947;-0.20471175;0.12676793;-0.20640436;-0.10142524;-0.09712638;0.090992205;-0.0722962;0.14834206;-0.011614795;0.14752199;0.09346963;-0.1464928;-0.050479524;-0.11697721;0.07257111;0.0967767;0.0779455;-0.05851832;-0.036506213;-0.2021292;-0.03923944;0.20227018;0.021081677;-0.074427515;0.054198377;-0.14196101;-0.0652195;-0.046575297;-0.15063508;-0.12347676;0.070103064;-0.1866574;-0.22949587;0.0045769173;0.11792686;-0.08130356;-0.2803163;-0.061335765;-0.028082319;-0.095448986;0.003287781;-0.10974522;-0.018380446;-0.026692571;0.11012368;0.10149569;-0.051267575;0.030477813;-0.11108562;0.047804378;0.017126229;-0.0068477727;-0.053300727;-0.15559842;-0.09650504;-0.09651275;-0.08726539;-0.012802891;0.038876496;-0.017267168;-0.037344377;0.07366373;-0.11785246;0.08762346;0.1538522;0.04275938;0.01963984;-0.114565;0.099200174;0.10839921;-0.19127932;-0.10169368;0.0049146856;-0.07221755;-0.014539522;2.4415436e-05;-0.11549781;0.29518348;0.057167243;0.08956566;-0.012489478;-0.011128988;0.10405351;0.058841813;0.07686946;0.08897114;-0.059766684;0.001847508;-0.12782201;-0.059306357;0.060095828;-0.023977175;0.10533118;0.04763813;0.14413379;0.098757826;0.1596007;-0.01672112;0.18760064;0.006754563;0.09626098;0.039815273;-0.09700258;-0.11187501;-0.06884439;-0.15167493;-0.027945254;-0.062122617;0.0615447;0.06324817;-0.011140629;0.057243988;0.062195756;-0.07109389;0.048125032;-0.074769676;-0.1634838;-0.0026604324;-0.057871394;-0.10116599;0.114293225;0.112035654;-0.18725444;0.10335837;-0.10718541;-0.023604123;0.034334652;0.06527734;-0.09413282;-0.084273726;0.03994417;-0.0150922155;-0.13914584;-0.03702341;0.045988545;-0.028591895;-0.15607986;-0.019346101;-0.08435881;-0.14163835;0.1709178;0.16006614;0.0020203989;0.15866536;0.021730617;-0.0031112025;0.0023481613;-0.21291032;0.07977712;0.106315404;0.0947425;0.018053956;-0.16112196;-0.14977801;-0.40000784;-0.2635524;-0.17005892;0.017730115;-0.074847244;0.04234577;-0.017706478;-0.07136434;-0.021130625;-0.08612874;0.058529098;-0.074503615;0.06484038;-0.09216478;0.10464812;0.043616027;0.009004702;0.060910195;0.039361086;0.14164132;-0.1499242;-0.15221542;-0.29524615;0.004252115;-0.040846605;-0.03714652;-0.16982627;0.10551034;-0.029478975;0.02232264;-0.31118476;-0.05677718;0.0018374437;0.019014439;-0.16945493;0.0065676733;-0.027373508;0.09825744;0.0958363;0.1032265;-0.07941825;-0.022979071;-0.12719847;0.06684404;0.04764775;0.08288255;-0.033625826;0.0017743708;-0.09336582;-0.042575177;-0.12234239;0.23821764;-0.117888734;0.067853086;-0.18837377;0.04925439;-0.08615701;-0.13787676;0.14519314;-0.06337872;0.15966032;0.047478672;0.07130494;0.0577573;0.020513669;-0.016768362;0.21101288;0.033232786;-0.05368971;-0.17045638;-0.061840203;-0.07974207;-0.018856933;0.11595652;-0.16330749;0.28660962;0.1178035;-0.22704476;-0.090487376;-0.097642474;0.033551767;0.011283355;0.029635498;0.031925872;0.0925109;-0.026615327;0.07411996;0.18407889;0.103365205;-0.19816843;0.19852176;-0.044231944;0.15541379;-0.042878263;-0.057522714;0.022135496;0.025673565;0.022163477;-0.01984924;-0.09219798;0.12337534;-0.06234002;-0.11244619;-0.11021449;-0.040971752;-0.06369767;-0.23397857;0.10772253;-0.23506543;-0.09271943;0.05403107;-0.03953793;0.050221372;-0.07401502;0.023690285;-0.15408622;0.059810605;0.022104109;0.18102373;0.07283956;-0.15389103;0.044502724;0.0370645;-0.22552647;-0.1442983;0.15855522;-0.011096234;0.20718707;0.0073760008;0.009843859;0.09522687;-0.13131596;0.05146065;-0.11092595;0.10841129;-0.087150894;-0.17521;0.062997594;-0.009022305;-0.02498313;0.16126658;-0.01777869;0.20132649;0.070135735;0.002447578;-0.10303537;-0.096170396;0.050009675;-0.0015560406;-0.06331149;-0.009951114;0.15677793;0.037641283;-0.20587206;-0.093494914;0.08751014;0.08330093;-0.03591777;0.05184292;-0.044656616;0.0019552072;0.05743855;-0.1387887;0.14493588;-0.17352296;0.070164464;0.050769888;-0.08005939;-0.09213752;-0.022409044;0.048691582;0.13281532;0.027124988;0.013542923;-0.096843876;-0.2531117;0.13107972;-0.23170839;-0.12219345;-0.051568534;-0.13653767;0.015854716;0.08257456;0.07073688;-0.08100386;-0.13811593;-0.083112985;-0.07171818;0.081235714;0.17732301;-0.10564054;0.011184526;-0.10190036;0.079166524;-0.21180646;0.060073014;0.058144275;-0.16034053;0.014430997;0.09678046;0.013947882;0.09694754;-0.046465084;-0.11366862;0.09127648;0.19385079;-0.078798614;-0.056072794;-0.014562505;0.14287935;-0.061536398;-0.15154153;-0.049820922;0.07831149;0.18680416;0.106611125;-0.039505817;-0.020680958;0.24725562;-0.04838919;0.04490973;0.008234869;-0.02437999;-0.1340224;0.052095924;-0.0116460975;-0.047880743;0.02565725;-0.2528352;0.23216607;-0.1073235;-0.16611198;0.066973455;0.116737284;0.122602575;-0.07682703;-0.09377237;0.17434095;0.08866252;-0.010328409;-0.03941758;0.081838466;0.00074449886;-0.052897487;-0.09733214;-0.23635113;0.08477088;0.10564835;-0.053199068;0.12362101;-0.037072066;-0.13336185;0.058518574;-0.17801586;-0.03723565;0.011109143;0.15691866;0.014908424;-0.060158767;-0.029864581;0.27857003;-0.09131173;-0.119781524;0.03512695;0.095128775;-0.015634133;0.10578972;-0.0036838676;0.18542522;0.15341206;0.06891937;0.07559233;-0.0035192652;-0.043548293;0.064097345;-0.02425405;-0.288264;0.066149846;-0.12583987;-0.0040934193;-0.07350915;-0.20401306;-0.034093197;-0.06126936;0.07039903;0.15881482;-0.035733216;-0.019008072;0.040689968;-0.08268189;-0.10437508;-0.026231475;0.041486856;-0.15033022;0.082165316;-0.010269076;0.09075629;-0.03714262;-0.060129873;-0.07972726;0.1436223;-0.1231679;0.077957;-0.049719457;-0.09794952;0.016793523;-0.24934132;0.19754155;0.15911241;-0.21586628;0.21542202;0.20757793;0.18787159;0.030125396;0.07885779;0.057476807;0.16341953;-0.0076739886;0.050589632;0.08490257;0.034855437;0.27211803;0.13811363;-0.03633484;-0.01760082;0.0043368526;-0.052618705;-0.0068050707;0.098070525;0.051960185;0.015045533;0.02258747;-0.02132373;-0.0613766;0.0076263184;0.24897811;0.05730184;-0.046064164;-0.15349177;0.04388093;-0.08204726;0.13287316;0.027020728;0.11829271;0.062182687;0.051648088;-0.13441804;-0.105766736;-0.08186223;0.0950986;0.1198128;0.042089734;0.07817471;0.18826024;-0.22378218;0.08374895;-0.14455782;-0.101440184;0.032659493;-0.021034453;0.017091397;-0.123186626;0.040046837;-0.07488657;0.06524771;-0.037131682;-0.0028401916;0.004095289;0.080036186;-0.06688541;-0.06666817;0.06428655
-0.13759047;-0.19033974;0.07687509;0.030521406;0.12739694;0.16059221;0.07755062;-0.15405591;0.05998003;0.15303177;0.03515122;0.100407615;-0.10002884;-0.093059205;-0.20098628;0.051449757;0.027242847;-0.05766095;0.23416448;0.14437634;0.20738415;0.18689331;-0.32011378;-0.049495444;0.091973856;0.007392134;0.20658992;-0.12437041;0.13475503;0.054147173;0.07039173;-0.15695004;0.029446859;0.11241279;-0.060141575;-0.092600256;0.008751875;0.07772619;-0.11051738;0.057923038;0.057495687;-0.048547935;0.07121873;-0.121689565;0.03984453;0.097789064;-0.09865469;0.13593428;-0.01716221;-0.2489476;-0.28507087;0.064589284;-0.18033515;-0.08007498;-0.066194564;0.002007408;-0.10987286;0.0709152;-0.05929173;0.06948976;0.003590473;-0.23396185;0.045824684;-0.07288978;0.13303354;0.0063649863;-0.0037104029;-0.059418704;-0.012796891;-0.123538956;-0.012760983;0.1141846;0.07536778;-0.0025758694;-0.09585722;-0.09969097;-0.07063106;0.0057977657;-0.18515614;-0.10894351;0.12989101;-0.28355902;-0.07090031;0.12164681;0.15448302;0.0059348647;-0.15566222;-0.027730808;0.06255865;-0.059242666;0.008729533;-0.12795387;0.07742368;-0.19083995;-0.04058278;0.055133022;0.07891917;0.0072876746;-0.16379787;0.23387274;-0.010092451;-0.043141842;-0.09552482;-0.05597979;-0.11247523;0.029130582;-0.07385094;0.01671267;-0.076300785;0.056584314;-0.020810481;0.040082615;-0.1297868;0.19148113;0.034743592;-0.08653369;0.014416726;-0.11474394;0.075230956;0.12357035;-0.15033902;-0.097591065;0.11611624;-0.029651688;-0.01817152;-0.023327388;-0.1778942;0.13002875;0.048126716;-0.047747433;-0.04647104;-0.008964482;0.08149969;-0.059655283;0.026027238;0.094796106;-0.037701074;-0.07997637;-0.021502584;0.012469093;-0.009721967;0.0013923324;0.05572671;0.013450592;0.14479357;0.091095306;0.27712086;-0.024387661;0.16345991;0.0958235;0.030404193;0.022541542;-0.16014743;-0.10365912;0.02121744;0.026927287;0.07728477;0.031109579;0.06190567;0.02884431;-0.11493428;0.11901774;-0.061933868;0.046224903;0.037417118;-0.16275607;-0.0009658859;-0.12528321;-0.007366851;-0.21529245;0.012911066;0.062444653;-0.060076226;0.09272905;-0.19625896;-0.062093064;0.15528372;-0.09832607;-0.21656618;-0.13284445;0.016043227;0.10294406;-0.1760722;0.115927026;0.06634535;-0.015284503;-0.271811;-0.089665025;-0.077199146;-0.07017297;0.0354662;0.15928994;0.16615623;0.060401786;-0.079716235;0.08347832;-0.011223043;-0.1869923;-0.0024621408;-0.019943777;0.09098115;0.031610463;-0.09064192;-0.062318638;-0.35976186;-0.11487911;-0.1690757;-0.08166645;-0.028111486;0.031490847;-0.012307853;0.08398651;-0.069835834;-0.15511085;0.16504803;-8.549837e-05;0.13245009;-0.030434249;-0.010895716;0.17263849;0.002423669;0.11077403;0.011963344;0.082694255;-0.10758227;-0.13811299;-0.20134357;0.042329613;-0.090574674;0.06974148;-0.16727763;0.16201799;0.16379595;0.041107062;-0.42114598;-0.002222707;0.009575466;-0.0050084763;-0.16484393;-0.038274635;-0.054652326;0.16122957;-0.0017825913;0.0625333;0.020326557;0.042842492;-0.10372109;0.097753264;0.0095375525;0.2257643;-0.07860855;-0.022209175;-0.14193015;-0.013877961;-0.10809641;0.2481296;-0.038899146;0.14399788;-0.10264008;0.058020324;-0.058193088;-0.16760935;0.09328081;0.035247993;0.012425516;0.07144458;-0.01860817;-0.028487429;-0.00822072;0.020427145;0.11416014;-0.07570313;0.11255708;-0.13382696;-0.10938355;-0.17150466;0.025619604;0.07743397;-0.11901446;0.26453876;0.13054359;-0.20318289;-0.1245761;-0.09543064;-0.0626689;-0.026763204;0.0657357;0.0368372;0.0030099384;-0.0603607;-0.024014302;0.07149968;0.05905675;-0.13190338;0.11222109;0.03420945;0.2276868;0.05280011;-0.0032995092;-0.085600115;0.021480873;-0.0440448;-0.025889063;-0.14970678;0.051100466;-0.045234352;0.0072229495;-0.053288102;-0.13551524;-0.05829787;-0.23834592;0.1213197;-0.15604149;-0.14511918;-0.0011786119;0.1162231;0.052188937;-0.060074072;-0.08437078;-0.12333324;0.0778996;0.029950649;0.05122105;-0.062199797;-0.13743672;-0.01213659;-0.055949315;-0.121139556;-0.04572945;0.17259914;0.06394781;0.12709714;0.07742329;0.035194788;-0.051374163;-0.06501384;0.17015079;-0.10928204;-0.06678297;-0.07903758;-0.14989138;0.034121446;-0.06358719;-0.04494216;0.17061427;0.02516188;0.1795589;0.04922389;0.0002730955;-0.054776523;-0.011346477;0.00017736926;0.095677264;0.01719848;0.037393417;0.19930612;0.05428129;-0.15885785;-0.059521772;0.017668521;0.05708275;-0.024241257;0.04648522;0.06450866;0.011895719;0.0063359356;-0.14679411;0.0946349;-0.07395123;0.014592758;0.041936073;-0.16388029;-0.16905123;0.07376728;0.018011559;0.053499646;-0.054553512;-0.053755052;-0.033446178;-0.33093625;0.18828265;-0.17756963;-0.11961323;-0.16748554;-0.21701795;-0.10555958;0.12164358;-0.0029947255;-0.065746084;-0.08625763;-0.045711596;-0.09455827;0.060579352;0.21726543;-0.1452427;0.031134551;-0.084341265;0.010373317;-0.09357181;0.06645009;0.03621324;-0.11501904;0.010408694;0.042169634;-0.054663714;0.07102641;-0.116136774;-0.0018176619;0.037139047;0.09760936;0.0033102313;-0.027581977;-0.021533199;0.13212049;-0.0350364;-0.16738825;-0.0329286;0.10477683;0.042287797;0.13493915;-0.19774242;-0.07356538;0.108613916;0.10859449;0.20517415;0.030154219;-0.015765334;-0.11431512;-0.040145256;-0.0062936465;0.029737545;0.10848836;-0.33278218;0.08591863;-0.13243656;0.06382758;0.127465;0.10298049;0.117548056;-0.010261989;-0.13855305;0.14928655;0.07647446;-0.01387518;-0.02781926;0.099517316;0.049985394;-0.045904834;0.007841582;-0.24559951;0.11823475;-0.023390157;-0.033423923;0.11994048;-0.038953595;-0.12869743;0.029966187;-0.17182247;-0.16785678;0.0020208228;0.17385569;0.09617272;0.13507004;-0.1691658;0.2127679;-0.118278466;-0.046152268;-0.10086666;0.16758703;0.036473133;0.11880596;0.11284089;0.17284954;0.06760066;0.14294232;0.19550332;-0.06740085;0.1416728;-0.12646922;-0.043732423;-0.2924345;-0.06122301;-0.13284458;-0.014566791;-0.11701207;-0.16671532;-0.05263833;0.00031474885;-0.019323172;0.07383229;-0.033140182;-0.00615738;0.022278318;-0.015735203;0.0037366764;0.011878166;0.07702285;-0.032934193;0.050790988;0.09836725;-0.009430645;-0.09739935;-0.076531604;0.08885026;-0.003564351;-0.18742128;0.06302484;-0.0006913741;-0.037719328;-0.014008702;-0.1585697;0.19031131;0.16314171;-0.21380411;0.1333837;0.12658232;0.20598193;-0.05118142;-0.012544122;-0.08162763;0.15848958;-0.16180065;-0.00793287;0.09066078;-0.061494753;0.23744902;0.0080478;0.058844607;0.0071351184;-0.052407283;0.009276763;-0.025997238;0.04510023;0.003506019;0.013299402;0.007626411;-0.11620683;-0.18115844;-0.08973499;0.11844099;0.093839645;0.020551378;-0.13957146;0.0565938;-0.055116873;0.02986616;-0.10022963;0.010830467;0.09903468;0.00020027663;-0.13014807;-0.019119807;-0.16549517;0.10521195;-0.021030998;0.07405348;0.16291249;0.10195617;-0.09832675;0.18046743;-0.12880448;-0.10561464;0.032899182;-0.039845917;0.03849484;0.040198006;0.026336154;-0.02485441;0.044179875;-0.049962856;0.011425289;-0.03278165;0.052921623;-0.043212913;-0.030146549;-0.05024824
-0.17715794;-0.1973913;0.056286026;0.068947695;0.1758196;0.13298237;0.23213665;-0.15545541;-0.010301875;0.06219593;0.10253802;0.1250342;-0.030156743;-0.1579454;-0.18537621;0.08275924;-0.017684545;-0.19817725;0.11260626;0.18931523;0.19133058;0.084632;-0.21409428;-0.09840072;0.06135487;0.0034852442;0.12366692;-0.0030786886;0.051435817;0.16909263;0.04997823;-0.15054418;0.09624221;0.045257002;-0.009400468;-0.16789155;0.046773717;-0.021491926;-0.09856627;0.047107033;0.11555226;0.027448265;0.07246794;-0.07858472;0.015918698;-0.044182256;-0.12374118;-0.032618277;-0.015624646;-0.24006014;-0.2524991;0.039355326;-0.20843731;-0.054231886;-0.063734956;0.12633738;-0.08215303;0.039101936;0.037673853;0.1684661;0.10609264;-0.1424608;-0.06750164;-0.0722482;0.20544349;-0.01920647;0.08579971;-0.021255175;0.004997117;-0.08563294;0.021070788;0.13382426;0.007895484;-0.031586047;-0.015267836;-0.055297565;-0.04786783;0.023029733;-0.19949643;-0.014043757;0.14560585;-0.3299617;-0.21752381;0.06479787;0.15207456;-0.088891275;-0.16019656;-0.025498183;0.093743406;-0.15811878;-0.059845697;-0.23926516;0.027907541;-0.15758638;-0.022912186;0.13632385;0.11058263;0.06838077;-0.23536883;0.14360492;-0.01790621;-0.0042027663;-0.13597555;-0.0061786827;-0.21139996;0.04118271;-0.046159532;-0.0825347;-0.029136328;-0.07246234;-0.07328984;0.13854623;-0.007620124;0.080851175;0.1926068;-0.09599654;-0.07559791;-0.120305255;0.14782917;0.15553062;-0.15459459;-0.072744116;0.06490207;0.038642365;0.075397775;-0.055339687;-0.23216663;0.08701869;0.0027159178;-0.118689716;-0.19108205;-0.005139107;0.07163352;-0.055884637;0.10565894;0.15860319;-0.051748812;-0.010638887;-0.044870093;-0.110769786;-0.07094665;0.03991715;-0.014508699;0.022427136;0.15217197;0.08057391;0.257501;-0.038320262;0.18691853;-0.039515276;0.045705482;-0.00565996;-0.063089155;-0.101590924;0.0051897103;-0.113968775;0.026449278;0.010990084;-0.0392723;-0.03086613;0.033734355;0.082665764;0.06450386;-0.027526285;-0.09770573;-0.10927511;-0.037144832;-0.063561484;0.036052156;-0.22139579;-0.01108154;0.11820438;-0.021883115;0.058710203;-0.098443404;-0.10172225;0.13273214;-0.106473394;-0.22692943;-0.11638258;-0.050837006;0.05301266;-0.18143038;0.06719189;0.07802707;0.0044465703;-0.1891676;-0.16137429;-0.06444272;-0.10828384;0.05421134;0.16869989;0.15850422;0.062652506;-0.043155525;0.10139976;0.023552552;-0.13408501;-0.0034568894;0.019290082;-0.063039795;0.11066682;-0.11071074;-0.042400762;-0.30886927;-0.1520659;-0.22890827;-0.0054946598;-0.0067139864;0.120338745;-0.0565819;0.00287629;-0.029523507;-0.01594363;0.012743207;0.042361706;0.0947202;-0.018433057;-0.027128063;0.19834293;-0.021267254;0.14124823;-0.09775319;0.043955423;-0.14525057;-0.18290071;-0.20288882;0.01660891;-0.027019467;0.026295764;-0.13645709;0.12925331;0.19164622;0.07843669;-0.3670171;-0.03214939;-0.0014801971;-0.002028385;-0.2951854;0.023622353;-0.0015917441;0.085489795;0.09521202;0.057373066;0.05856944;0.0043272576;-0.09933825;0.15607071;0.06476872;0.10061213;-0.07262046;-0.015015178;-0.21891065;0.08289645;-0.0439134;0.11399481;-0.116367236;0.16762614;-0.1925091;0.046781186;-0.052099362;-0.1442042;0.13252093;0.08101035;-0.03723592;-0.053442173;0.008407448;-0.0005745193;-0.07283025;0.043166764;0.0805545;-0.040498406;0.063370526;-0.021329198;-0.18090935;-0.0926414;-0.025191966;0.2400368;-0.12162433;0.2228749;0.12063664;-0.027300538;-0.058932375;-0.07568893;0.011820059;0.0225268;-0.09856316;0.00017778808;0.12807624;0.02667048;-0.079452425;0.03427263;0.013751933;-0.06612154;0.19471227;0.06610502;0.10977171;-0.080452554;0.07022939;0.008684382;-0.016042842;0.023714766;0.0643385;-0.13509765;0.07827324;-0.12202394;-0.024039362;-0.03235319;-0.07380516;0.029203482;-0.20534116;0.026837565;-0.21820806;-0.16887237;-0.04384154;0.1064909;0.07615252;0.010462432;-0.00765261;-0.08673293;-0.022357007;0.03897286;0.10226504;0.09018942;-0.12553479;-0.017788026;-0.013649842;-0.095948726;-0.1220827;0.20533124;0.08630934;0.09802794;0.0866676;0.09579725;-0.048414372;-0.05999648;0.2741347;-0.14004892;-0.08672966;-0.20162648;-0.30590758;0.016820056;-0.091197066;0.013509788;0.040218033;0.12561601;0.18370345;0.062584944;-0.036096968;-0.04993742;-0.046119563;-0.043611877;-0.028556056;0.0011208449;-0.10745798;0.19599018;0.009039226;-0.2170342;0.026431361;-0.1307059;0.0809391;0.028651321;-0.021334218;0.008769186;-0.037586395;-0.024985777;-0.021224946;0.18725744;0.019566536;0.050988097;-0.023524765;-0.072785154;-0.16410483;0.08022295;-0.010399962;0.028061142;-0.08326955;-0.0012487929;0.011944123;-0.27410078;0.16764578;-0.23556793;-0.16713797;-0.10869775;0.009065949;-0.07557346;0.007313984;0.1291576;0.0123502;-0.18303336;0.009901043;-0.00082090724;0.07013982;0.25139228;0.0044939015;0.13312063;-0.13739572;-0.012357929;-0.026204303;-0.0394727;0.086285375;-0.08262477;-0.11045988;0.061334055;-0.04562246;0.09058455;-0.052671716;-0.036355156;-0.11608068;0.1429733;0.06806687;0.06729448;-0.023300122;0.060203902;-0.017246865;-0.13884437;-0.05263053;-0.003353403;0.08097515;0.04978591;-0.17185873;-0.17813891;0.10287406;0.16220552;0.06278138;0.052231133;-0.046904538;-0.1835416;-0.10623467;-0.100230046;0.028140068;0.17306498;-0.1603901;0.15893336;-0.13930254;0.013181126;0.23159938;0.083285846;0.10550167;-0.018642843;-0.12283322;0.22697975;-0.015660781;-0.008972794;0.076201245;0.11825683;-0.09722716;0.0711448;-0.08301685;-0.2289651;-0.01579208;0.012304824;-0.041359283;0.11402948;0.043323234;-0.26791865;0.07211558;-0.15525775;-0.06976502;0.1393331;0.1538734;-0.0046170047;0.026705982;-0.1074039;0.096730456;-0.076374695;-0.035888586;-0.09147583;0.036477186;0.1198367;0.10244112;0.05206328;0.09839204;0.13710241;-0.00016340257;0.13138397;-0.07970675;0.06852613;-0.029803472;-0.106218584;-0.26663986;-0.019623242;-0.124733925;0.04101579;-0.16797316;-0.17148966;-0.044050217;-0.12442081;-0.022217197;0.121370144;-0.028689709;0.02328776;-0.08437168;-0.11872946;-0.09797699;-0.005054522;0.121441424;-0.10428322;0.0039189304;-0.066336855;-0.01897617;0.023436023;-0.0038557444;0.07123471;-0.06193242;-0.030926224;0.10031829;-0.050405182;-0.14446628;-0.00941549;-0.21681085;0.039095405;0.11252201;-0.3150321;0.102685966;0.22953574;0.32767949;-0.0062226425;0.03721725;-0.0055537075;0.056120846;-0.11124554;-0.05231443;0.103035934;0.066404335;0.11654839;-0.043032423;0.012358271;0.059958298;0.10404608;-0.023911737;-0.018086566;0.0050555607;0.12672955;-0.04821326;0.15507068;-0.03925539;-0.13689247;-0.11928416;0.2349049;0.24015416;-0.113082886;-0.061650623;-0.051010363;-0.070661485;-0.0243775;-0.06479355;0.026124142;0.18270148;0.051750313;-0.042358927;-0.036293432;-0.11767763;0.102379404;0.091496825;0.12085833;0.21742712;0.18243529;-0.15688525;0.12523723;-0.0018628208;0.02139258;-0.037101258;-0.08389482;0.14155868;-0.096475825;0.08687789;-0.06910383;0.11546013;-0.009901311;0.0024170168;0.05296587;0.18324797;-0.14547195;0.029941497;0.14052635
-0.13815127;-0.10384063;-0.06545384;0.038122542;0.11374184;0.17446673;0.17268997;-0.13033363;0.014644285;-0.0107963765;0.20926078;0.05859242;0.04582394;-0.12744738;-0.16016378;0.089492224;0.07637857;-0.04481166;0.17814723;0.12151841;0.16896018;0.211125;-0.23331708;-0.05111382;0.09915472;-0.056004096;0.07804304;-0.03741878;0.000681307;0.18990952;0.0703585;-0.20961711;-0.00995943;0.115282565;-0.0351295;-0.16726978;0.052251745;0.0055999444;0.011036153;-0.05527682;-0.015707646;-0.0018701268;0.03753716;-0.087031275;-0.015811283;-0.036583044;-0.019697841;-0.06781787;-0.077392675;-0.20539355;-0.26348773;0.05203342;-0.089345284;-0.1235387;-0.046812102;0.18285504;-0.098953664;0.044860266;-0.01626976;-0.033992678;0.13165897;-0.17513938;0.064291105;-0.16734144;0.18251051;-0.06305893;0.11023939;-0.049229182;0.03269573;-0.10595968;-0.09656137;0.041087836;-0.017554121;-0.023860492;-0.124268904;-0.019450847;-0.14603736;0.0041999724;-0.04278662;-0.008143547;-0.077566095;-0.2933707;-0.16265255;-0.0018285009;0.18567245;-0.059210207;-0.050054256;0.12692834;0.06520853;-0.18097295;0.038388465;-0.21230231;0.010066637;-0.20659673;-0.09268757;0.07267364;0.030253338;0.021898355;-0.16429618;0.13633353;-0.1724256;0.13660559;-0.07443388;-0.029960493;-0.07591061;-0.06496666;-0.017318016;-0.078183845;-0.10046712;-0.029133461;0.028237594;0.11689563;-0.041726537;0.11003886;0.17271619;-0.11538522;0.049517;-0.07070679;0.11736159;0.122498594;-0.12620683;0.027051324;0.09733853;0.019349886;0.064914726;0.04232781;-0.21200901;0.14560434;-0.052203476;-0.048642367;-0.15842147;-0.05091576;-0.0077036433;-0.02455295;0.064110205;0.13512284;-0.03186539;0.03925949;-0.0998366;-0.12922211;-0.038811192;0.12060923;-0.1440525;-0.07653086;0.09872447;0.023247726;0.12668481;0.028456738;0.15532142;-0.025788646;-0.019477447;0.02338628;-0.05877827;-0.19511755;0.063417375;-0.057210017;0.092094265;0.12822486;0.11169381;0.084736414;-0.12704557;0.08552926;0.13105205;-0.06703394;0.02841996;-0.2567155;-0.052478153;-0.13474323;-0.1643525;-0.23798622;0.05134229;0.1781;-0.04769477;0.117699824;-0.00600647;-0.15026371;0.06860675;-0.13280192;-0.10402695;-0.15864894;0.007559414;0.029036;-0.19322781;0.07351463;0.005369918;-0.06884972;-0.17266312;-0.17965342;-0.092636354;0.03534356;0.17469893;0.14841086;0.13459149;0.11945626;-0.042789016;0.04775722;-0.07056619;-0.06729345;0.04998796;-0.05681119;0.0936106;0.13173933;-0.06561802;-0.15995415;-0.28189296;-0.16872479;-0.26094535;0.04146443;-0.06932396;-0.02783613;-0.039289698;-0.02643223;-0.060565006;-0.024407756;0.063128814;0.19302206;-0.023907859;-0.04386129;-0.14951822;0.20784718;-0.031208962;0.08454647;-0.06523521;-0.028076723;0.00810254;-0.17248428;-0.20609017;0.119924;0.09513231;0.08776007;-0.11524593;0.048873696;0.3218692;0.0043587433;-0.3163126;-0.0668321;-0.106764875;-0.05886272;-0.29905084;-0.02154843;0.10818466;-0.073167644;0.10285899;0.0010003109;0.10087662;0.092244364;-0.013819723;0.062842235;0.063863724;0.065131746;-0.11181521;-0.0020235747;-0.19349958;0.04514464;-0.005539804;0.10450191;-0.07380396;0.14402913;-0.20658776;0.020680936;-0.0073416997;-0.16969517;0.158874;0.17549282;-0.03625129;-0.014600669;0.07230521;0.0300474;-0.14527695;0.0029480988;0.23903519;-0.061053142;0.079220206;0.05165409;-0.07080599;-0.27556744;-0.1579637;0.1957498;-0.13945578;0.26072186;-0.00067667814;-0.051968437;-0.033368632;-0.11615763;0.09226838;0.038886167;-0.015332247;0.14219067;0.09194307;-0.08432331;-0.07042129;0.15738355;-0.02597297;0.0032575312;0.17380826;0.045125317;0.17010897;-0.07393545;0.0038698595;-0.12688124;-0.076764904;0.033747777;-0.004584598;-0.24486223;0.13462353;-0.19743843;0.11639787;-0.03757848;0.009826451;0.024788197;-0.12644598;0.21541087;-0.1348947;-0.1589496;-0.050398104;0.09885831;-0.09491977;0.02631058;-0.0983202;-0.074825995;-0.0017173281;0.04056816;0.072129056;0.087977335;-0.1319982;0.027484542;0.043251883;-0.043615304;-0.10267034;0.3113356;0.043429226;0.13504162;0.029566567;0.083609276;0.02952577;-0.06793655;0.13167065;-0.005295875;0.011408736;-0.19848396;-0.13882683;0.010859047;-0.120037794;0.024417989;0.035574023;0.10667237;0.09801985;0.049391627;0.08127591;0.04963281;-0.06389948;-0.02372784;0.034548163;0.011048271;-0.14290941;0.09343832;-0.072551705;-0.20638855;0.06253971;-0.20533735;0.04288761;0.08204139;0.04204987;-0.010196221;-0.112308644;-0.20059344;-0.117650844;0.1310794;0.008232265;0.0077763307;0.063526824;-0.1745861;-0.022227619;-0.026263248;-0.041135557;-0.09313908;-0.079384476;0.15893772;0.06416942;-0.256691;0.23857751;-0.15879557;-0.10710716;-0.28112784;-0.026718168;-0.026877576;0.09914199;0.07257074;0.012947457;0.00450963;-0.06768973;-0.053615805;0.059355877;0.12383145;0.01879772;0.20620616;-0.08514997;-0.01780893;-0.11611539;-0.00077227515;-0.07720977;-0.13966917;-0.05413163;0.075750746;-0.049421947;-0.0088549685;-0.0966454;-0.08654104;-0.03427437;0.070594884;0.20906185;-0.011930068;-0.06762477;0.12275717;0.12058718;0.013473045;-0.027841564;-0.076180056;0.07139695;0.14502208;-0.010327453;-0.09402902;0.1176993;0.12175328;0.11159751;0.06866814;-0.037346717;-0.21274883;-0.045972664;0.029926978;-0.0049923365;0.17822315;-0.14655674;0.08858091;-0.0013289615;-0.074556634;0.1225434;0.008163726;-0.09595979;-0.018478056;-0.015381824;0.19314541;0.04080099;-0.09766519;0.02568352;0.038916346;-0.15900266;0.003047134;0.019053508;-0.32600802;0.06615024;-0.0032262169;-0.01722978;0.0886004;0.024476094;-0.22172393;0.052557506;-0.18205509;-0.03536475;0.24445932;0.18125689;0.02589597;0.17208451;-0.046328504;0.13778922;-0.020446373;0.030095266;-0.06145359;0.16235067;-0.0002899669;0.013066424;0.1127152;-0.006364116;0.051164232;0.05663176;0.08101505;-0.14816242;0.06459422;-0.034816187;-0.11639213;-0.30904993;0.00054561504;-0.11274261;0.028560694;-0.096347414;-0.11757016;-0.05512792;-0.091454834;-0.09502266;0.21120521;-0.04741359;-0.08503343;0.034357984;-0.17780414;-0.006083192;-0.09865345;0.06292887;-0.04790881;-0.08140052;0.08097251;0.090808466;-0.033674426;0.023096086;-0.069171995;0.046403516;-0.21953481;0.0052499836;0.02011837;-0.095678784;-0.15541549;-0.22311777;0.106178716;0.018687626;-0.20118716;0.115836434;0.23211983;0.33728233;-0.02865591;-0.038663186;-0.17527561;0.05236426;-0.2027331;-0.069697924;0.09083843;-0.103807524;0.21356629;-0.07516767;0.1189718;-0.045507345;0.10097572;0.08523278;-0.0022891068;-0.11725144;-0.027279448;0.04495227;0.03222822;-0.054114904;-0.07646987;0.001395716;0.15101135;0.18370393;-0.18066342;-0.078282826;0.024563024;0.06994803;-0.04127091;-0.18531512;0.09933824;0.083305344;0.09744325;-0.16429715;-0.12462941;-0.18180329;0.12720586;0.096244246;0.039496694;0.26131585;0.03715446;-0.088259906;0.20157559;-0.051979017;-0.065396585;-0.051525973;-0.028915077;0.042232018;-0.056466598;-0.061855767;-0.006658682;0.022201346;0.07476248;-0.048728615;0.12375034;0.049452502;-0.20400922;-0.00036315876;0.13727906
-0.090758935;-0.17540357;0.02150362;-0.11513311;0.15163046;0.13381365;0.13549197;-0.017086329;-0.03751018;0.10902592;0.0740514;0.21462712;0.032376457;-0.122144714;-0.04746213;-0.018057898;0.11063087;-0.09823873;0.16589527;0.110775396;0.27147424;0.10836762;-0.27929923;-0.15379578;-0.006940489;-0.05735658;0.20961459;-0.11670058;0.0666055;0.13040783;0.10186794;-0.08453282;-0.00955906;-0.025895264;-0.06906795;-0.060173333;-0.044324547;0.029845743;-0.083596036;-0.07580645;0.12668207;0.052899323;0.08442546;-0.19795859;-0.008142393;0.04669027;0.02863594;-0.06309057;-0.042566486;-0.15213618;-0.2048843;0.034704793;-0.16870838;-0.15626599;-0.010971313;0.20587537;-0.07502784;0.06451611;-0.0732641;0.053369686;0.08697344;-0.116686344;0.025300195;-0.15784293;0.14333998;-0.053449277;0.09953247;0.044032477;0.09013523;-0.030111512;0.025676006;0.14445049;0.055605877;-0.10751819;-0.10165597;-0.118577674;-0.066718966;-0.054433122;-0.07624086;-0.052610323;0.030641561;-0.2976849;-0.097537756;0.04509423;0.18000281;-0.049029224;-0.12804107;0.06896204;0.054343943;-0.05935379;-0.10121464;-0.19071065;0.07952921;-0.26301262;-0.04634664;0.07325006;0.038791742;0.014565158;-0.14731441;0.10095895;-0.17726088;0.016873034;-0.18230064;-0.0633682;-0.07152821;-0.12447363;-0.0954335;-0.0039760075;0.0536847;-0.049962264;-0.07977005;0.10380343;-0.11172321;0.1480887;0.102865174;-0.080446005;-0.021131093;0.02715426;0.009098093;0.051492315;-0.29769006;0.05423497;0.038422473;0.060522188;-0.048332606;0.017747426;-0.25069648;0.14433518;-0.13265398;-0.07633779;-0.046923734;-0.070445865;0.0028964106;-0.10353099;0.0574427;0.18840554;-0.07760895;-0.033090625;-0.01875295;0.011706695;0.0022776406;0.10091057;-0.007153633;0.0054499037;0.04533499;0.08196281;0.1063855;-0.04421309;0.0640567;-0.058910392;-0.06604803;0.10731528;-0.08828603;-0.11560327;-0.040583745;-0.061397083;0.11840963;-0.027870815;-0.04588855;-0.025015283;-0.06880081;-0.004425847;0.01665937;0.032484286;-0.05317849;-0.14883225;0.052014537;-0.070374236;-0.18364199;-0.2417217;0.08736928;0.13282815;-0.20890386;0.10420852;-0.13939492;-0.08146495;0.21904437;-0.11679925;-0.15810844;-0.20151782;-0.013979842;-0.06284371;-0.091212206;0.064354;0.07267769;-0.0080230255;-0.1815107;-0.24642354;-0.077442534;0.10171393;0.13340786;0.082381375;-0.009888063;0.16623294;-0.025090657;-0.048097376;0.067565635;-0.07574286;-0.04058927;0.03298215;-0.015588447;0.05925741;-0.09537384;-0.1277172;-0.18555316;-0.09760918;-0.2547015;-0.027592273;-0.084341615;0.12491132;-0.14804411;0.027386835;-0.07714484;-0.03349204;0.03947751;0.13539486;0.041616753;0.0071552466;-0.042106338;0.224469;0.058481023;0.0834397;-0.1444668;-0.12185505;0.08185976;-0.1675075;-0.33269858;0.02032659;0.021731576;0.1076423;-0.26034635;0.14977112;0.22238953;-0.02827728;-0.25878978;0.05776579;-0.15655708;-0.025837481;-0.21531904;-0.041529477;0.0776969;0.008442174;-0.040802952;0.08241386;-0.08464758;0.012023777;-0.004292459;0.1064829;0.022357037;0.13418253;-0.12469091;-0.0022900815;-0.19677636;0.079079516;-0.032200202;0.13651778;0.06331893;0.1394612;-0.052173875;-0.08299495;-0.0756497;-0.24932934;0.021789894;0.051436815;0.058994565;0.114785455;-0.036711134;0.0720595;-0.20637299;0.07973876;0.19120428;-0.061052058;0.054680202;-0.092272274;-0.03737523;-0.14841649;-0.04106267;0.17470919;-0.17931564;0.26544037;0.017263403;0.0062383157;-0.12539768;-0.09803052;0.08118228;0.10062801;0.010048278;0.019923262;0.07128061;-0.17112276;-0.032072864;0.06426103;-0.018262422;-0.05322355;0.22470045;-0.07225755;0.099159285;0.0986211;0.08808704;0.02157966;0.00693247;-0.08163221;-0.03325021;-0.25251466;0.16062047;-0.19070825;0.046219163;-0.0812015;-0.0818488;0.05194293;-0.2169638;0.20390351;-0.20641439;-0.07271422;0.05012719;9.968257e-05;0.005790331;0.012830626;0.054573607;0.0049123154;0.1186511;0.031834554;-0.03147624;-0.04752346;-0.021289933;-0.065330386;-0.013407024;0.022699902;-0.15258066;0.18483017;0.1189973;0.1258991;0.07401632;0.10599507;0.027749898;-0.2674138;0.17605878;-0.088767;0.060770243;-0.18768266;-0.2636388;-0.028824788;-0.1724163;-0.035418604;0.12218832;0.17717443;0.19756362;0.15447536;-0.03993159;0.04445788;-0.10452786;-0.15593903;-0.021263678;-0.060286377;-0.14068168;0.19449145;-0.13950048;-0.17869075;0.081466176;-0.1192294;-0.07338369;0.07074557;0.034994684;-0.0034023193;-0.027309155;-0.05666151;-0.046414156;0.05826797;0.0643018;0.0038893495;-0.09849569;-0.0766475;-0.012273587;-0.020084113;0.06902276;-0.04540211;-0.032638732;0.14953417;0.0584617;-0.30662513;0.23529512;-0.23154187;0.041924663;-0.27845964;-0.07430559;-0.15429458;0.0043211114;0.10516943;-0.044033177;-0.13724251;-0.0365807;-0.08539013;0.058488667;0.22671193;-0.06457125;0.11119898;-0.062741;0.082852766;-0.03882201;0.02244491;-0.007390205;-0.12559357;-0.119015634;0.067126095;0.048620753;0.0095635215;-0.106289625;-0.031609986;-0.14686286;0.04926955;0.023813846;0.07074368;-0.11904977;0.038408123;-0.03422288;-0.0989439;-0.039411202;-0.042333923;0.058447327;0.14017853;-0.101693965;-0.19356956;0.08701912;0.084189765;0.18718326;-0.053665675;0.106084146;-0.16771416;-0.009862693;-0.03527632;-0.011454986;0.15439497;-0.074351534;0.14866453;-0.050281517;-0.034282986;0.0977416;0.078625664;0.08178796;-0.12750037;-0.14900286;0.09259634;-0.045464743;-0.018375346;0.09243986;0.10005363;-0.042098735;0.07306115;0.021167401;-0.20185274;0.11466532;0.105852;-0.042004533;0.08279776;-0.030692212;-0.13937595;0.13973913;-0.17212531;-0.035412654;0.14687632;0.14204654;-0.03857439;0.046756618;-0.15327777;0.08937977;0.017273752;-0.08472782;-0.057038784;0.22470878;-0.01466082;0.06529565;0.1544194;0.0321476;0.13929491;0.030541457;0.108073555;-0.20726113;0.17752558;-0.054768667;-0.10138198;-0.16210794;-0.11528127;-0.13579576;0.20960675;-0.12788542;-0.24735396;-0.104145825;-0.08262847;-0.08826025;0.18946306;0.0892489;0.02347506;-0.01755622;-0.12452603;0.0054853456;-0.08899433;0.019272;-0.13525878;-0.11306395;-0.0097752735;0.07314196;-0.08127509;0.009531907;-0.05706544;0.057712823;-0.110417545;0.07894443;-0.026959691;-0.110599294;-0.039851263;-0.18429486;0.16357137;0.096167736;-0.24372779;0.16617405;0.10696247;0.20332143;-0.02971305;-0.008766519;-0.027892644;0.09907553;-0.15833785;-0.106461726;0.014528027;-0.11208225;0.24623029;-0.15676844;0.018659208;-0.00475841;0.075002685;-0.032719187;-0.0058459933;0.015392488;0.13705134;-0.09164069;0.067935996;0.052872818;0.03095789;-0.06983137;0.112043865;0.15829134;-0.050723493;-0.07121726;-0.0017373982;0.05374964;0.033454977;-0.16426891;0.08544721;0.16213743;0.004234155;-0.15489894;0.02448625;0.013714935;0.026033461;-0.06356702;0.05578267;0.23457012;0.1257573;-0.09366755;0.24043997;0.04020874;-0.066889234;-0.06913522;0.008046449;0.13522826;-0.13885467;-0.07865199;0.01807911;0.16362387;0.15212786;-0.08339537;0.1872765;0.115258224;-0.10774223;0.042306878;0.04466098
-0.15044819;-0.18056953;-0.07129995;-0.17317726;0.07506612;0.11253249;0.21422991;-0.023847587;0.07722063;-0.03979824;0.04268863;0.23565166;-0.09440085;-0.13118346;-0.15446068;-0.05143485;0.19454215;-0.05811434;0.21135351;0.14866988;0.107214116;0.15763175;-0.1799214;-0.16994336;0.07865223;0.07900978;0.19816497;-0.092531264;0.08554797;0.11581884;0.031792734;-0.1314176;0.036290765;0.030369112;0.08469598;-0.17531286;-0.048655167;-0.061276384;-0.12949897;0.019297391;-0.03823938;0.15829018;0.002641113;-0.1612602;-0.028104085;0.029996086;0.058091536;0.011864907;-0.120011225;-0.047691833;-0.2009791;0.053485055;-0.107599534;-0.14047088;-0.11190428;0.19341074;-0.1864281;0.0824209;0.014526105;0.099097624;-0.03774025;-0.17939387;-0.12591131;-0.17254545;0.10503855;0.005171132;0.061782736;-0.050610468;0.08735649;-0.16607182;-0.06663876;0.07629764;0.104982905;-0.059202194;-0.10491655;-0.016661223;-0.05278996;-0.09358063;-0.14049459;-0.107185304;0.14032157;-0.31951147;-0.061742213;0.1268056;0.19831435;0.015299616;-0.1192461;-0.02862046;0.007942786;-0.18559256;-0.054281138;0.008090185;-0.008533979;-0.18882665;-0.07778167;0.088673934;0.056470472;0.05920327;-0.24701223;0.14858821;-0.077772334;0.012216861;-0.1298032;-0.120503634;-0.2872173;-0.03471663;-0.060948562;-0.105569184;-0.07523695;-0.09257412;0.034571487;0.09013532;0.040032517;0.21363646;0.0005726129;-0.0070022256;-0.08655159;0.066346936;0.12145366;0.06402895;-0.17583528;-0.040904254;0.0531608;-0.0833272;0.10935663;-0.07056852;-0.17594385;0.12830791;0.011315423;-0.05190374;-0.18717614;0.020833991;-0.05535894;-0.13720013;0.16610977;0.19504699;-0.030471787;0.048138797;-0.05764436;-0.01570002;0.08661094;0.09275074;-0.053076092;-0.11065026;-0.021711973;-0.08704167;0.31834584;0.04915722;0.030678606;0.05262869;-0.08906595;0.035286356;-0.0063132234;-0.13329865;0.09105936;0.028880384;0.01793583;-0.12818865;0.07076259;0.026521578;-0.0636771;-0.094059296;0.061770365;0.051908106;-0.09640127;-0.11947583;-0.033819858;-0.022609549;0.024045957;-0.084328994;0.06878887;0.20294398;-0.08192778;0.16237846;-0.19003125;0.05157905;0.23727763;-0.12037378;-0.22348553;0.01287897;0.02618645;-0.06819443;-0.073455736;0.12015947;0.12371164;-0.01579933;-0.1684039;-0.30182263;0.03735929;0.03788279;0.1054959;0.10534086;0.02865075;0.18360949;-0.15523656;-0.010046654;-0.09767148;-0.022302784;-0.002470681;0.025875295;0.00043503588;-0.048312742;-0.049229175;-0.047261927;-0.22241627;-0.21365157;-0.2078186;-0.047282033;0.10726999;0.016161812;-0.13518716;0.008846787;-0.11736557;-0.01357226;0.060369007;0.14070635;0.102066524;-0.03576001;-0.13700946;0.26493782;0.12277078;0.05213387;-0.045575876;-0.08191071;0.069308504;-0.1703154;-0.11412611;0.024188308;0.0057581654;0.16697787;-0.2076136;0.065957;0.20920436;0.0727045;-0.30029353;0.040576182;-0.15790138;0.08984901;-0.1583114;0.060013045;0.04809407;-0.054200623;0.09270741;0.015204859;0.07430424;-0.09734327;-0.079358295;-0.020684721;0.09346703;-0.06931297;-0.11213587;-0.027837167;-0.15513358;0.13608809;0.09538292;0.19428286;-0.06670395;0.037441693;-0.027147822;0.029057054;0.0046474333;-0.22469221;0.13852544;0.04877356;-0.023758417;0.114475146;-0.09823023;0.14093906;-0.21658464;0.11776251;0.11004683;-0.008153562;0.061222732;-0.09498883;-0.097044416;-0.0030414704;-0.11876435;0.132897;-0.025801377;0.27774602;0.0202275;-0.044070393;-0.070285544;-0.20867305;0.15002358;0.09330005;-0.032432426;-0.06776274;0.09097285;-0.14314146;-0.09042299;0.19896975;-0.077431224;-0.09028623;0.13532978;-0.05177915;0.21972112;0.08651419;0.113499135;-0.11509511;-0.002728448;-0.06385629;-0.036703207;-0.14503552;0.120010704;-0.018908167;0.110102415;0.1057109;-0.1392357;0.018521857;-0.027657961;0.18344843;-0.22865902;-0.059487317;-0.12445929;0.045624834;-0.08708637;-0.1269424;-0.14146022;0.0989586;0.06599723;0.042042714;0.12015298;-0.021848079;-0.035092384;-0.12687102;-0.029962353;-0.04793533;-0.0030463736;0.17161863;0.08899722;0.20566033;-0.035139065;0.17608134;0.06838697;-0.17045578;0.1985614;-0.054431904;-0.007555253;-0.16994466;-0.23894021;0.06921937;-0.30423978;-0.0858231;0.10442201;0.10949749;0.2399291;0.16000652;0.0061429376;-0.10658469;0.0129152555;-0.09102142;0.075184405;-0.0072835125;-0.16338156;0.09733918;-0.12703106;-0.22619174;-0.03717886;-0.08217946;-0.082395375;0.020074245;0.019003345;0.04499711;0.035745945;0.037578855;0.024497023;0.044727106;-0.0073986915;0.0525226;0.03840434;-0.15467753;-0.08926582;0.070483394;0.079571046;0.07559419;-0.012832704;0.10733997;-0.03751537;-0.27552125;0.32043952;-0.25104076;-0.085200556;-0.23683427;0.0025509426;-0.084544435;-0.0044875746;0.15015195;-0.09561241;-0.05552794;0.05565881;-0.16293752;-0.024645995;0.1019618;0.085638784;0.07155846;-0.09019747;-0.055306822;0.05345277;-0.13323937;-0.01963835;-0.13765045;-0.0004385579;0.033591535;-0.02748618;0.10973951;-0.026380472;-0.057427067;-0.09583094;0.06928062;0.0773752;-0.0054643825;-0.16859873;0.116871096;0.113211;-0.09670502;0.050829306;-0.027927795;0.0744743;0.1315919;0.022438912;-0.123505004;0.14569944;0.1713333;0.06629567;0.17907475;-0.02654986;-0.14731696;-0.054739486;-0.0050272117;-0.00010387776;0.078859165;-0.1759948;0.1836149;-0.07690135;0.075201325;0.11347841;0.050911877;-0.045856256;0.04333722;-0.14413199;0.20060337;-0.060710944;-0.08529965;0.0996379;0.11143542;-0.12998487;0.011329773;0.09659351;-0.31289908;-0.02186957;0.1445616;-0.0483069;0.058803808;-0.11980428;-0.18212703;0.12208778;-0.19437632;-0.1658167;0.09306716;0.27995345;-0.009885426;0.1008385;-0.18130212;0.11012922;-0.15314099;-0.03706299;-0.06660435;0.09279784;-0.008842791;0.05839361;0.16172019;-0.1084103;-0.036872666;0.018722488;0.22960532;-0.23096009;0.1080051;-0.0896772;0.04635357;-0.2040472;-0.13675168;-0.18629558;0.12921153;-0.0720503;-0.19067748;0.12049624;0.07209188;0.016141733;0.055356737;-0.09154813;0.041119833;-0.04753257;-0.023611913;-0.05987295;0.052944474;0.2168583;-0.09462552;0.06566598;-0.120287664;0.08502184;-0.16049987;-0.010588037;-0.095810466;-0.037019398;-0.08459351;0.1559616;-0.08107729;-0.07209688;-0.05549666;-0.17423132;0.12107056;0.12428844;-0.22266306;0.19904758;0.0422945;0.2661753;0.07831585;0.05016484;-0.19757113;0.044505537;-0.21765073;-0.17995955;0.072014764;-0.10949367;0.1875027;-0.031875085;0.07776172;0.07658173;-0.036671948;-0.04661511;-0.13196261;-0.13798848;0.080696866;-0.038727876;-0.020248273;-0.010636441;-0.08718762;-0.09316577;0.049288195;0.13753878;-0.049393356;-0.063994706;0.008291205;-0.04236976;-0.007942274;-0.12291093;-0.058259737;0.025276966;-0.032209437;-0.06084174;-0.06774585;0.021507101;0.09910321;-0.07221974;0.15944993;0.1388319;0.21154286;0.11396119;0.109235056;-0.012782492;-0.036180016;-0.07073835;-0.1257006;0.022579435;-0.08025862;-0.045213718;0.006900419;0.13120165;-0.03778942;0.059351824;0.05898591;0.08195678;-0.054311734;0.004802684;0.05005571
-0.071731105;-0.057035636;0.028817547;-0.039678507;0.036781814;-0.026783584;0.15826602;-0.032209724;0.025404876;0.06245248;0.04128488;0.25488624;-0.14701213;-0.0386287;-0.14962517;-0.087953776;0.083439045;0.048584867;0.15301786;0.1493851;0.1359423;0.09556674;-0.0562692;-0.032031707;9.660356e-05;0.0384634;0.040436827;-0.11827361;0.11080436;0.054386325;0.035908647;0.026012626;-0.006501192;0.018219782;-0.06789992;-0.04150893;0.0022715055;0.052759662;-0.06936621;0.040285897;0.034814022;0.07096094;-0.015329331;-0.12013089;-0.057275202;0.08813499;-0.061377127;-0.014754085;-0.10589735;-0.113976076;-0.23926185;0.14443699;-0.19131042;-0.10909831;-0.08775807;0.113679916;-0.09929116;-0.019295307;0.16557594;0.15315689;0.041919097;-0.031084498;-0.02371616;-0.043996226;0.0025261792;0.09105165;-0.020631367;-0.11410723;0.044978373;-0.0916478;-0.08005152;0.17636117;0.08953133;-0.017483108;-0.046382856;-0.22631548;-0.042583406;-0.11013564;-0.13812758;-0.1731411;0.0728734;-0.25357106;-0.20142175;-0.005470952;0.105218224;0.045198433;-0.0539071;0.006511352;-0.044626307;-0.0778906;-0.046678018;-0.0747812;0.006149314;-0.14219746;-0.06670277;0.09111174;0.029440768;-0.016900782;-0.12127944;0.08418917;-0.018319938;-0.05387212;-0.13338603;-0.18836276;-0.23138335;-0.01848253;0.049867913;-0.029754965;-0.08140531;-0.056693222;0.050175726;0.19270363;0.029443938;0.22431333;0.090649396;0.019048743;-0.050347034;0.13570128;0.06996912;0.12617429;-0.13161407;-0.045180462;0.23418382;-0.024164414;0.10374413;0.053190723;-0.20730221;0.019303065;-0.009016367;-0.060085148;-0.1442822;-0.008332192;-0.008595275;-0.124008976;0.1987906;0.1710235;-0.054365817;0.10190219;-0.06920639;0.029333882;0.026318705;0.17182888;-0.12591544;-0.12523669;0.062376972;-0.14044589;0.30889344;0.04370107;0.13380761;0.055760458;0.048478935;0.01963754;-0.0005958104;-0.20872594;0.021581903;-0.12225689;0.050652556;-0.055783886;-0.042999182;0.006457648;-0.07883192;0.035112884;-0.048935544;0.086634696;0.01207505;-0.13963374;0.04774662;-0.04513554;-0.09322585;-0.19520354;0.061955247;0.0867193;-0.13279825;-0.02662321;-0.1384304;0.12469846;0.14529988;0.01802729;-0.22510429;-0.10143274;-0.032559868;-0.16267045;-0.047073174;-0.016087702;0.121227965;-0.07043422;-0.28528515;-0.09231149;-0.016625974;0.11359238;0.081526995;0.24095574;0.012751205;0.0482416;-0.051572252;0.075030334;-0.020318639;-0.060832072;-0.018790977;-0.022119738;-0.011557437;-0.05820516;0.024806034;-0.099588156;-0.12366521;-0.18322794;-0.15031765;0.020782916;0.095534794;-0.006351255;-0.117033914;-0.023042109;-0.08064199;-0.03692654;0.103842914;0.12913707;0.16409406;0.055682685;-0.036561627;0.17851345;0.11754544;0.12933215;-0.10551854;-0.0030798772;0.16508253;-0.16725115;-0.20310628;0.037900377;-0.04304406;0.018993257;-0.06251133;0.0056597115;0.18592313;-0.10224306;-0.28760687;0.06781606;-0.07308222;0.019781983;-0.1845611;0.055975482;0.05494784;-0.16978972;-0.049968608;-0.010455233;0.087289296;-0.12797372;-0.07384025;0.10532961;0.06362557;-0.05115728;-0.105225876;0.022839755;-0.031147359;0.021103723;-0.05554769;0.12841113;-0.043803595;-0.013121512;-0.040596485;-0.13503323;0.05441999;-0.11686459;0.121526495;0.051363286;0.06184579;0.02835788;0.01807851;0.036656685;-0.18514019;0.029000452;0.08569091;-0.025747009;0.15851757;-0.083389156;-0.08816253;-0.035150826;-0.07321746;0.106074154;-0.08360354;0.3048019;-0.06890298;-0.083388835;-0.13764045;-0.106163986;0.0579141;0.15062442;0.016601263;-0.06746074;0.17159526;-0.18450817;-0.060051467;0.20150514;-0.017405786;0.026403172;0.09284253;0.09043304;0.21475217;0.02400091;0.01282349;-0.07717695;0.12999745;0.051047273;-0.10097895;-0.18465284;0.16952299;-0.13254662;0.1070752;0.15196095;-0.12630983;0.119465895;-0.0058802115;0.1717518;-0.18216935;0.034207013;-0.055976048;0.08184275;-0.04357675;-0.028801003;-0.012168169;0.0033349686;0.12785032;0.014204687;0.075399175;-0.023114787;0.012631982;0.058095258;0.009863245;-0.15585116;-0.061877754;0.27125412;0.10418011;0.22007975;-0.06283672;0.17247163;0.10843954;-0.20473678;0.25973603;-0.07982599;0.05507276;-0.24101077;-0.18467325;0.013295966;-0.20121127;-0.0068952027;-0.005990632;0.07934701;0.22662401;-0.011488258;0.09571287;-0.100235686;0.058180068;-0.22091097;0.088106185;-0.05936427;-0.10963518;0.03327851;-0.10909371;-0.16778009;0.008339898;-0.18076783;-0.13700916;0.018481782;0.14332779;0.06064432;0.06411896;0.08125231;-0.13468353;-0.04460653;-0.10751437;-0.033129163;0.11509778;-0.16271554;-0.03046789;-0.11612346;0.027593847;0.14549886;-0.14748088;0.1114583;0.007582933;-0.29512244;0.12837474;-0.27241194;-0.018743146;-0.24715346;-0.06631512;-0.033554617;0.04173594;0.09163155;-0.18329695;-0.004154902;0.17455998;-0.11390348;0.021553617;0.114635006;0.08620528;0.07049039;-0.0148999505;-0.015289335;0.05690476;-0.023275152;-0.01956582;-0.056916505;-0.07246393;-0.012945172;0.09033093;0.12016574;-0.015590332;-0.23604769;-0.07591632;0.09329401;0.07408457;-0.0710567;-0.09116491;0.061706703;0.035451006;-0.20514496;0.026503948;0.012464434;0.103131264;0.18873087;-0.11225011;-0.08143331;0.16536376;0.045058463;0.20362984;0.04325155;0.080620006;-0.22966696;-0.13099252;-0.053315315;-0.049094476;0.14488885;-0.1116843;0.08344541;-0.019780407;0.056500386;0.15742886;0.041306682;-0.07632065;0.059871238;-0.16473806;0.1513377;0.04482878;0.011489236;0.10233013;0.09737003;-0.12741646;-0.0036501558;0.020340048;-0.27700108;0.09572826;0.13164304;0.08618894;0.18467082;-0.08957431;-0.21022883;0.093002126;-0.14094548;-0.1547137;0.08380671;0.24057001;0.07208709;0.13915846;-0.109710746;-0.011499532;-0.008045476;0.017196877;-0.13608138;0.07447036;0.034122493;-0.046678983;-0.04494224;-0.004318903;-0.010986393;-0.054933295;0.21058357;-0.25735837;0.054550104;-0.10049847;-0.1558681;-0.19848318;-0.051143914;-0.19366723;0.19441879;-0.01657354;-0.20488995;0.08983815;-0.030573597;-0.14229988;0.099720806;-0.024924098;-0.02330332;0.0785333;-0.05294098;-0.07172196;-0.09950327;0.17337438;-0.087775886;-0.010953582;0.00039003897;0.09915817;-0.096532054;-0.061297547;-0.046685703;0.049820807;-0.10426377;0.074841656;-0.014566946;-0.14026502;-0.1861132;-0.22598279;0.20968543;0.037761383;-0.15914896;0.14128092;0.110300444;0.29080895;-0.028274933;-0.009420152;-0.01983615;0.14177431;-0.29447064;-0.09525276;0.09813682;-0.14753902;0.16846913;-0.068980135;0.024435038;-0.007594751;0.054577835;-0.029139636;-0.117543176;-0.014715145;0.018461214;-0.0197329;-0.09652909;0.04094051;-0.04592198;-0.11054949;-0.009685408;0.19616894;-0.08576134;-0.024639824;0.03029822;0.044181697;0.049185924;-0.1014863;0.0073671043;0.02563748;0.021765165;-0.11219396;-0.07682988;0.017992733;0.10075657;0.014468213;0.15803501;0.13027841;0.1735775;0.020874932;0.13579555;-0.12178407;-0.057494614;-0.030833373;0.044728525;0.028839285;-0.07414315;-0.14784941;-0.06359782;0.12439026;-0.031637184;-0.05993255;0.047190882;0.13440186;-0.113685705;0.063905254;-0.058476813
-0.1022163;0.031813245;0.011315012;-0.14016591;0.08997107;-0.024520045;0.20502989;-0.11540866;0.06320622;0.053541824;0.07243166;0.20015344;-0.19823433;-0.04368211;-0.20239592;-0.028487151;0.18314347;0.03358043;0.24804401;0.15918714;0.08382711;0.052845463;-0.12573622;0.014523988;0.047370657;0.027927654;0.15370917;-0.14932671;0.085205615;0.060954005;-0.037799295;-0.07067413;0.06489097;0.047407202;-0.063079104;-0.13202342;-0.111627124;0.068349615;-0.12312923;0.055535547;0.08420021;0.06294313;0.06046536;-0.02556918;0.043583095;0.1475002;-0.043233648;0.010608502;-0.11067537;-0.12613675;-0.16324416;0.09144841;-0.11959838;-0.24693082;0.014616777;0.11482133;0.016254023;-0.0139563745;0.073914535;0.15008213;-0.03344286;-0.050002377;-0.054829057;-0.032210067;0.020722223;-0.002653147;0.10514133;-0.10263848;0.14916532;-0.13833801;-0.013356044;0.05913688;0.07689052;-0.14369018;-0.095869765;-0.19231336;-0.02694432;0.0039753597;-0.13547675;-0.13518484;0.013193041;-0.36219403;-0.25328994;0.059238482;0.16420984;0.07694032;-0.19700955;-0.0022649795;0.045815907;-0.032643843;-0.017705189;-0.027690902;-0.026570791;-0.18569694;-0.0020323119;0.08312917;0.02734539;0.1530613;-0.058306336;0.13851814;-0.13632086;-0.088057615;-0.09316708;-0.113895215;-0.19375637;-0.1083242;-0.089683644;0.02427092;-0.0416468;-0.1195318;-0.053446908;0.22935994;0.012244047;0.113281466;0.090375386;-0.033041466;0.061102062;0.08554069;-0.028065769;0.1471269;-0.15787268;-0.021536527;0.15551168;-0.093191385;0.12740134;0.061657276;-0.17908514;0.03242972;0.012819492;-0.037842605;-0.002368971;0.06692311;0.0069135614;-0.0873825;0.1790853;0.16684917;0.0043266495;0.02164398;-0.07559357;-0.046408437;0.09519697;0.11785629;-0.11429024;-0.090775594;0.012271561;-0.05106755;0.21021679;0.056893714;0.15966983;0.019463459;-0.0020310613;-0.011743651;-0.12800358;-0.08928389;0.04149331;-0.13721964;0.08206423;-0.035298888;-0.06738072;0.009757309;-0.10545921;-0.03730327;-0.058252573;0.10556927;-0.032166142;-0.07177268;-0.06044405;0.0017137962;-0.061405603;-0.12645675;-0.011535273;0.13089848;-0.21540168;0.032579526;-0.21037489;0.14163038;0.15459967;0.022983143;-0.11763555;-0.14521216;-0.094029546;-0.09469333;0.026679056;-0.007074435;-0.0027498875;0.046958454;-0.19216976;-0.20895004;-0.07838378;0.042118534;0.14952685;0.27985892;-0.11149736;0.15180527;-0.08865473;0.04550834;0.019631004;-0.12061735;0.019709336;0.082624815;0.07218426;-0.022002297;0.014987466;-0.013955816;-0.15109484;-0.22706518;-0.007874304;-0.014203403;-0.008279751;-0.042566355;-0.10639448;-0.14185658;-0.0894324;-0.036723543;0.10874469;0.16796272;0.09207932;0.036778044;-0.19772555;0.12710953;0.03874554;0.10223014;-0.12501173;-0.087130144;0.07971531;-0.19272831;-0.106751606;-0.14593425;0.080809005;0.06440431;-0.027592067;0.029944792;0.1548609;0.039731897;-0.22494903;-0.004250761;-0.036902443;0.024088034;-0.18025862;0.044628445;-0.012718972;-0.1052963;0.107494764;-0.03108291;0.06789142;0.049323954;-0.09179016;0.07050403;0.08321196;0.0355496;-0.12705286;0.04961196;-0.109646;-0.017200386;-0.015872281;0.16101691;0.013280125;0.13077983;-0.09952919;-0.028708726;0.027888443;-0.14957684;0.13287368;0.04507667;-0.0624236;0.122891024;-0.10791366;0.116668634;-0.21166167;-0.027815575;0.067833595;0.026607653;0.06201322;-0.16961011;-0.026436847;-0.048504688;0.038088333;0.07094686;0.0026042904;0.27546433;0.03883748;-0.10660872;-0.13290699;-0.1954876;0.08890576;0.028737182;0.04673991;-0.074696116;0.108260915;-0.21129344;0.0252391;0.21365549;0.006422706;-0.16023119;0.065963;0.049772356;0.23739646;0.03633593;0.035323665;-0.04999366;0.06288793;-0.058554683;0.009384416;-0.100940436;0.11324591;0.057722617;0.11567699;0.03145786;-0.19775046;0.040987477;-0.118383095;0.13200162;-0.20384505;-0.004128727;-0.09429844;0.060680974;-0.014797228;-0.1650981;-0.027909681;0.11281216;0.1998349;-0.037894677;-0.022052877;0.07467045;0.033732347;0.09068314;0.044983093;-0.2081072;0.008459516;0.10388743;0.1384928;0.18212776;-0.11622195;0.14522067;0.0391162;-0.08612002;0.21224162;-0.15826507;0.13313708;-0.11221217;-0.17491265;0.10353921;-0.24540421;-0.17549004;0.044079613;0.113900244;0.28886467;0.061816193;0.098812476;-0.007518401;0.10286102;-0.091894224;0.092773266;0.056005806;-0.12049743;0.15353116;0.04129046;-0.17847465;-0.039195586;-0.14787401;0.019954734;0.016680494;0.03186676;-0.091441125;0.14506295;0.08769;-0.093201734;-0.019232547;-0.21107185;0.0234306;-0.004135226;-0.14360023;-0.027660284;-0.05865036;0.13438497;0.06255723;-0.060158804;0.08927186;-0.056075078;-0.21198426;0.250609;-0.17750137;0.083062276;-0.1573305;-0.024342883;-0.0025633692;0.010710193;0.112834774;-0.11202844;0.08170837;0.1445494;-0.026154272;0.049175676;0.031388838;0.11971417;0.084802896;0.039317578;0.046667606;0.07652358;-0.12151054;-0.09262221;-0.06690187;-0.056187663;0.062112752;0.14828819;0.016699398;-0.07813214;-0.11503363;-0.014301755;0.010456377;0.14988124;-0.07512472;-0.23546055;0.13497898;-0.036106862;-0.12895638;-0.024289548;0.11026875;-0.012206415;0.25907376;0.01763863;-0.1808849;0.113618806;0.049289547;0.16592935;0.072712526;-0.0046583554;-0.22442104;-0.09763216;0.069170035;-0.02426001;0.008770727;-0.1667245;0.0028934611;-0.024266884;0.10019242;0.1759651;0.0063131507;0.015590307;-0.07907055;-0.016225949;0.1545301;0.052520975;-0.05454915;0.109818034;0.22406393;-0.07558664;0.112713374;0.1060174;-0.2705297;0.099140964;0.096470766;0.034267258;0.116165094;-0.23186849;-0.12544008;0.041244455;-0.14863446;-0.0640728;0.0479106;0.14259179;0.08284569;0.021135706;-0.19043532;0.05422349;-0.054716494;-0.027100783;-0.14726117;0.16784026;0.16518167;-0.022268068;0.0059174644;0.07005443;0.051750984;-0.0065011904;0.21103625;-0.30121586;0.112242095;-0.15598993;-0.1431864;-0.13482605;-0.087591365;-0.2320362;0.062820934;-0.09651192;-0.10405851;-0.00954196;0.056191318;-0.15846437;-0.005489222;-0.03424252;0.022672039;0.13784033;0.029255413;0.03403529;0.04078229;0.09561905;-0.17439002;0.11803168;0.025727853;0.05830529;-0.11896277;0.057788335;-0.003313527;-0.06629083;-0.16676411;0.11835368;-0.099089265;-0.08162359;-0.08805402;-0.11577651;0.13407776;0.16062374;-0.27489248;0.1669386;-0.031413738;0.33868712;0.017505405;0.0661425;-0.07124563;0.043781944;-0.26065117;-0.027414972;0.041911818;-0.06087277;0.15271682;0.020112107;0.06878179;0.04859909;-0.007366984;-0.07808496;-0.09456338;-0.065496005;-0.04445975;-0.09169074;-0.1414029;-0.013136502;-0.10411741;-0.18683869;0.03361481;0.20589872;-0.12284326;-0.014079252;0.08851375;-0.004551575;0.046927284;-0.05137596;-0.0014305027;-0.023578232;0.025400983;0.006359893;-0.051916435;0.06892185;0.056775913;0.052641045;0.08138618;0.100240916;0.06256463;-0.033888668;0.07961999;-0.12193826;-0.19973947;0.0122195035;-0.06459431;-0.0029194423;-0.19020174;-0.08949588;-0.14157422;0.12991424;-0.0160832;0.0073636523;0.043585874;0.17812368;-0.19859947;0.19010566;0.09536546
-0.17977041;0.013452976;-0.025713006;-0.07954627;0.18174663;-0.004588609;0.14652751;-0.17246397;0.08176451;0.03928868;0.1295628;0.19859232;-0.14871226;-0.11798405;-0.23351325;0.07324446;0.09109406;0.02114081;0.17451398;0.08664726;0.080202326;-0.09261309;-0.045824386;-0.052197777;0.06676671;0.037865743;-0.013917676;-0.15427762;-0.0061511705;0.13173212;0.16660011;-0.14109729;0.003937022;0.016772272;-0.036331482;-0.035235133;-0.001324513;0.006915038;-0.11133083;0.099253856;0.05956657;-0.09335271;-0.030971956;-0.10130912;0.019549347;-0.020940829;-0.067046925;-0.036789678;0.066515855;-0.10443961;-0.111505546;0.055424288;-0.14657727;-0.08883288;-0.07790598;0.025842184;-0.06874611;0.05560937;0.011905457;0.08314567;0.00033832068;-0.07254616;-0.1140742;-0.091982104;0.01987904;-0.04652581;0.09516076;0.03258149;0.07989988;-0.23117994;-0.12305158;0.101367265;0.010755504;0.009203005;-0.05923405;-0.15852515;-0.05900397;-0.14834392;-0.018447474;-0.03867792;0.060783193;-0.28502217;-0.14044167;0.0638502;0.09377669;0.018746294;-0.099401206;-0.1268921;0.14660594;-0.15626971;0.02115655;-0.06950349;-0.011414155;-0.22916336;0.04015507;0.14403357;0.040886242;0.05484516;-0.045743175;0.13502671;-0.18812162;-0.09382065;-0.069859155;-0.16442415;-0.054489348;0.05131368;-0.0452646;-0.1362427;0.016270267;-0.208121;-0.022115555;0.2738834;0.011154562;0.18775983;0.1716041;-0.044762302;0.036765244;-0.005939637;0.05739714;0.04068623;-0.22748883;-0.05072046;0.12635371;0.037309416;0.008433454;-0.01045311;-0.15132979;-0.02144719;0.021752646;0.1006848;-0.03350413;-0.1369436;-0.09486326;-0.14085808;0.22502035;0.050841782;0.00974002;0.08213581;-0.15349421;-0.15205967;0.031997826;0.08330143;-0.06406222;-0.105928406;0.14972076;-0.08414055;0.17126556;0.02064701;0.016176872;-0.12204496;-0.07717451;0.049968712;0.0025503978;-0.165013;0.07761971;-0.051788673;0.067257464;-0.036719352;-0.016347438;-0.041289754;-0.043735333;0.057394914;0.011903191;-0.03407846;0.040172305;-0.18812777;0.11780548;-0.06647941;-0.07908349;-0.11506973;0.0308461;0.12135632;-0.17956634;-0.043255676;-0.16074558;0.069814324;0.28793767;0.055083647;-0.16343662;-0.13529776;-0.121618636;-0.082504615;-0.014791346;0.088157035;-0.020699367;0.051705927;-0.12622868;-0.16927615;0.0054674135;-0.011084737;0.053676903;0.17435424;-0.074796945;0.23074025;0.013295253;-0.017739495;-0.018535806;-0.029198786;-0.12083445;0.09066142;-0.08600645;0.04862062;-0.12430827;-0.061752643;-0.19355161;-0.2131727;-0.03883115;0.038200922;-0.07658541;0.04178716;-0.10634159;-0.16356978;-0.121064626;-0.14394136;0.23138507;0.14617181;0.079949185;0.03227406;-0.23844105;0.27105635;0.051064365;0.07354907;-0.017309124;-0.17151375;0.10120163;-0.200221;-0.1875384;-0.14152375;0.08551572;0.07218507;-0.15593047;0.02196446;0.21938129;-0.076031335;-0.2584705;-0.05452634;-0.053696148;0.07993261;-0.18615623;-0.065001085;0.14548846;-0.11981364;0.11625559;-0.06306228;-0.070408165;-0.018839119;-0.021889905;0.05545307;0.095221646;0.028608747;-0.016651686;0.08927455;-0.096034184;-0.041065745;0.021193434;0.09445616;0.031545054;0.10316381;-0.025924461;-0.042963333;0.025139753;-0.09786866;0.083287;0.048844002;0.009091394;0.06575986;0.04576876;0.12274862;-0.19618647;0.06898098;0.10018585;-0.02414086;-0.038529832;-0.092281535;0.13982633;-0.17604326;-0.015440687;0.20215651;-0.11916361;0.33709025;0.017001562;-0.023573713;-0.107991725;-0.19347931;-0.036182094;0.22684577;0.016864605;-0.06526015;0.06070303;-0.22950692;-0.05100009;0.04213879;-0.1173494;-0.18000361;0.077357575;0.12361514;0.15628418;0.11413474;0.045141786;-0.034075677;-0.0048058336;0.075675115;-0.15354623;-0.2316003;0.11280854;-0.06481757;0.12968802;-0.040302128;-0.18471897;0.04307014;-0.14942636;0.21884017;-0.072706304;0.06728176;-0.08431378;0.051678628;-0.14430296;-0.04640744;0.083467744;0.06508407;0.128325;-0.0033576721;-0.05368867;0.09603378;-0.10602595;0.1021771;0.045256738;-0.16539703;0.0008572404;0.21292967;0.01277973;0.16927919;-0.10658437;0.16514544;0.14784977;-0.12246816;0.24930927;-0.038420938;0.089964636;-0.15898904;-0.111107126;0.08480511;-0.1658539;-0.2545807;0.066137396;0.026012802;0.2615449;0.012012847;0.053163707;0.04603277;-0.12975083;-0.20266569;0.11035286;0.040614307;-0.10873507;0.124310985;0.012307018;-0.22156589;-0.009347669;-0.18119377;-0.064923175;0.10505796;0.007368907;-0.16151786;0.11713439;0.0631242;0.072248735;0.07852167;-0.096139744;-0.09575401;0.03457806;-0.05588408;-0.06958332;-0.16809328;0.103028655;-0.03351231;-0.11697743;0.05173015;0.0036720627;-0.21799701;0.099183686;-0.2752995;0.027594514;-0.1928327;-0.0028182648;0.03584703;-0.018924663;0.14539568;-0.14064352;-0.009668281;-0.017574552;0.016913967;-0.022689985;0.11548783;0.1109851;0.08448598;0.06558369;0.0780779;0.092311814;0.00626599;-0.14959227;-0.085076556;-0.066616766;-0.040976148;0.13160646;0.08915422;-0.10778501;-0.13728109;-0.080038875;0.09186305;0.13487001;-0.14229919;-0.18987785;0.078528196;-0.083906166;-0.16096056;-0.0030882175;-0.017405499;-0.114211656;0.15665962;-0.104762316;-0.10392892;0.02413624;0.18676981;0.06393712;0.0024158983;0.005634629;-0.32110554;-0.0021203582;0.05074473;0.030227907;0.10004405;-0.10888387;0.0715818;-0.020426486;0.06329797;0.07156419;0.09924732;0.08109102;-0.002408681;-0.1117512;0.11821158;0.05801798;-0.07974349;0.035276026;0.20815767;-0.052110344;0.09075316;0.10039042;-0.20128609;-0.009906188;-0.039723348;0.07702967;0.08424501;-0.12930198;-0.12251809;0.11026706;-0.17444643;-0.1458108;0.18683802;0.07458912;-0.00036174108;0.16569276;-0.28842327;-0.03773824;-0.080196396;0.04298279;-0.2067117;0.09008211;0.104269795;-0.12407439;0.09097475;-0.020642962;0.07078924;0.09010125;0.22927423;-0.14439633;0.115516275;-0.10749357;-0.20190963;-0.049223036;-0.0019160055;-0.008311363;0.10298922;-0.088370994;-0.23247913;-0.075021416;-0.046985675;-0.0761369;0.1345378;-0.008698385;-0.053294044;0.024606777;-0.024038184;-0.080674626;-0.09027562;0.11565242;-0.07293927;0.028675122;-0.0471318;0.11141902;4.0296385e-05;0.05960248;0.014110473;0.017446542;-0.1864518;0.105048746;-0.015553274;-0.15989512;-0.16962856;-0.22522733;0.045884233;0.03474309;-0.20915367;0.059484888;0.11052024;0.25455305;-0.015849434;0.02541709;-0.036125675;-0.057126664;-0.07682469;-0.012718538;0.12110314;-0.14961636;0.20259412;-0.043586478;0.16762207;-0.045123853;0.054514416;0.031313777;-0.021306194;-0.09520715;-0.055809073;-0.05556087;-0.053611934;0.14340724;0.018511923;-0.060426965;-0.010302234;0.121927276;-0.1518822;-0.03473472;0.15501301;0.085375324;-0.013968552;0.01218651;0.0077548474;0.013880329;0.066391416;-0.07474;0.035504133;0.1474422;0.025010688;0.009172742;0.060204238;0.042630263;0.063101284;0.08175568;0.2413179;-0.02796096;-0.013359364;0.023412101;-0.006808425;0.03350522;-0.15091108;0.0056333616;-0.11578115;0.09579259;0.06650951;0.049303196;0.08739581;0.1692031;-0.2768517;0.025429629;0.06407844
-0.104603104;-0.087755255;0.043030765;-0.10106591;0.20218186;0.17502962;0.15434432;-0.048480947;-0.04837435;-0.059043057;0.16969244;0.0720866;-0.06955785;-0.07904114;-0.093757704;0.050300494;0.13599563;0.05327375;0.18293008;0.1116635;0.18075274;-0.054498184;-0.053849943;-0.09991388;-0.06096355;-0.07325836;0.08756196;-0.21528089;-0.08092141;0.17186977;0.20184444;-0.093913116;-0.07377014;-0.019584062;-0.026694113;-0.09104714;0.13733096;-0.10413803;-0.17090072;0.008245608;0.12026416;-0.056739148;0.1364277;-0.17540048;0.024255052;-0.01720133;-0.01688914;0.10071654;-0.03346512;-0.048500743;-0.096455045;-0.046264853;-0.10920903;-0.19353905;-0.074721016;-0.07111183;-0.0382016;-0.004338796;0.045026194;0.0011419484;0.001687352;-0.11312363;-0.069776006;-0.04485165;-0.10983568;-0.037217706;0.009528058;-0.057852373;0.13427287;-0.109171495;-0.1288772;-0.03474064;0.008633251;-0.070812546;-0.03343612;-0.18721732;-0.009376231;-0.10437924;0.009677088;-0.14099392;-0.027111208;-0.20227128;-0.11876147;0.13315104;0.10937701;-0.027858883;-0.027648292;-0.16656473;0.14338394;-0.1105588;-0.026500568;-0.065890424;-0.008425096;-0.19715291;0.09334795;0.079240344;0.025798451;0.074023075;-0.17750572;0.033252448;-0.08250234;-0.08980414;-0.070735894;-0.030642726;-0.080250375;0.011957611;0.016814338;-0.13885017;-0.033354647;-0.13197194;-0.14791551;0.22304016;0.05255831;0.2560159;0.08489993;-0.17505524;-0.05088697;0.03735428;-0.051828634;0.15009336;-0.19490568;-0.025715016;0.11140542;0.015008063;0.0067679365;0.06280876;-0.116976075;-0.010252857;0.020174166;0.092092164;-0.036164746;-0.11307409;-0.06854496;-0.14278436;0.1345849;0.14583012;-0.10633533;-0.055680547;-0.30117008;-0.005198243;0.022002319;-0.072019786;-0.07112198;-0.03074932;0.108908996;-0.071169406;0.14678864;0.06738791;0.13813728;0.016590806;-0.0038059119;0.096332;-0.09775148;-0.08837903;0.10446909;-0.062252924;0.12375897;-0.0053307055;-0.036861416;-0.062097546;-0.12588917;0.094718315;0.021585165;-0.074260235;0.071657576;-0.05778402;0.1431822;-0.06136708;-0.06472271;-0.058314994;-0.022708071;0.025924152;-0.22600156;-0.018609082;-0.16346113;0.051912412;0.24763347;-0.054640405;0.003871088;-0.20920557;-0.17849842;-0.24604712;0.03213778;-0.062275395;0.045167137;0.06128744;-0.056501243;-0.08536728;-0.098856606;-0.08240263;0.10162884;0.12644033;-0.014152533;0.082292;0.057719134;0.118008316;0.013431634;-0.054370467;-0.1591789;0.043293253;-0.011258485;-0.010351315;-0.055759266;-0.19746353;-0.15982872;-0.14281453;-0.22203287;-0.06339433;0.007153709;-0.0038540259;-0.047124933;-0.16798326;-0.1414205;-0.031111654;0.18099493;0.11335704;0.06962552;0.10437272;-0.30754268;0.26115313;-0.01853586;0.0601152;-0.013155855;-0.087283075;0.12084089;-0.09025389;-0.16006312;-0.14159289;-0.06480235;0.031132258;-0.063996844;0.02005841;0.25106624;0.06517058;-0.24165487;-0.066828616;-0.107936226;0.1430366;-0.29848853;0.00033911772;0.12709102;-0.14339249;0.12998042;0.06560403;0.02884837;0.029094206;-0.18060547;0.09323079;-0.026433473;0.088332765;-0.022621732;-0.08164428;-0.049940903;0.013950516;-0.08767632;-0.0049744984;0.056071855;0.112870894;-0.089814;-0.15246443;-0.07831651;-0.07010955;0.057286106;0.13043746;0.018391285;0.0013276247;0.011360445;0.11173543;-0.1578639;-0.0784636;0.08208728;-0.057839062;0.0024838308;-0.17629647;0.04480677;-0.07597606;-0.117834374;0.12397813;-0.035102278;0.33581445;0.06237538;-0.014779285;-0.030034691;-0.15348244;-0.06400735;0.23592685;-0.124738336;0.015231907;0.030161232;-0.22958255;0.029254645;0.059008043;-0.117772125;-0.12506914;0.109623194;0.101160824;0.14709392;0.0153845325;-0.007491829;-0.039147526;0.0148783;0.14685477;-0.043267332;-0.14626004;0.21971855;-0.14090799;0.076454446;-0.009107171;-0.10587689;-0.044603497;-0.081062935;0.082170784;-0.05965558;-0.065466054;0.016116597;-0.00645886;-0.02755785;-0.12785918;-0.0051451903;-0.019470835;0.106018536;0.09048485;0.077271596;0.035554543;-0.017292697;0.06912029;0.015225586;-0.10103363;0.037868045;0.11851463;-0.016069757;0.08827042;-0.042132974;0.035610612;0.0437594;-0.15073936;0.23368882;0.012220031;-0.06638592;-0.050226226;0.048291456;0.040112916;-0.2064906;-0.09113802;0.047735605;0.07695173;0.2558346;-0.048079908;0.0009983543;-0.021613784;-0.13074346;-0.13535579;0.032394685;0.075630784;-0.1540472;0.21962379;-0.08302981;-0.22811872;-0.052935157;-0.14031178;-0.117236;0.10097761;-0.011132783;-0.079403125;0.056906246;0.19505368;0.13882704;0.033175636;-0.13594888;-0.052165333;0.07339567;-0.14998673;-0.03951715;-0.12099375;0.10963148;-0.10977924;-0.124147326;0.16163665;0.006448442;-0.1926309;0.064077646;-0.2613679;0.05621835;-0.22681499;0.07124907;0.052560028;0.05800979;0.074791044;-0.064088486;-0.0749438;-0.048011005;-0.0040846616;0.04124996;0.19545999;-0.07316126;0.11185137;0.07849474;0.05720684;0.15707672;-0.09136391;-0.089169115;-0.124916255;-0.18838455;-0.10243132;0.15677884;0.12220162;-0.07941006;-0.20062329;-0.16060783;0.067314714;0.13932012;-0.22674006;-0.20820887;0.08534772;-0.052382227;-0.106392086;-0.10020912;-0.15071858;-0.14434005;0.111167215;-0.04700367;-0.14999643;0.0007936762;0.18246363;0.17743634;0.027390987;0.0042293244;-0.24215715;-0.09883745;0.00037089016;0.042084955;0.21629812;-0.16417082;-0.057448816;-0.022021146;-0.03522208;0.19147685;0.058311414;0.037460938;-0.072957836;0.0030877101;0.026665399;0.027283855;-0.20463564;0.021021914;0.13887936;0.05553183;-0.03707027;0.08360766;-0.20033912;0.076160006;0.053640086;0.00039681775;0.067595795;-0.16336797;-0.057670668;0.040051173;-0.11402374;-0.15903185;0.27020395;0.102619305;0.035074346;0.1094205;-0.27143112;0.07028108;-0.06746424;0.019965254;-0.14520618;0.09661214;0.05122272;-0.02231969;0.0040395856;0.07093092;0.1315958;-0.030872582;0.18174921;-0.22257517;-0.038604867;0.07679612;-0.15944268;-0.09793177;0.09679404;-0.062388025;0.009310825;-0.15288703;-0.2641995;-0.012503117;0.046695765;-0.17091742;0.07553413;-0.058730427;-0.05737626;0.10249611;-0.07787857;-0.0009052417;-0.09856558;0.14203075;-0.04717481;0.07808978;-0.118714295;0.105795234;-0.07481747;-0.005452441;-0.08050422;-0.02138153;-0.2047553;0.011105889;-0.053454306;-0.11894883;-0.18963821;-0.15959658;0.036267094;0.060843885;-0.22838955;0.10782629;0.019484375;0.31422108;-0.15942918;0.016339578;-0.00910029;-0.0882731;-0.11018957;-0.03300478;0.10291567;-0.050100494;0.2586429;-0.033774592;0.10558784;-0.0718282;0.022911448;0.06911714;-0.012156979;-0.04704651;0.03427038;-0.1130935;-0.086159974;0.04241045;0.007247118;-0.11408926;-0.07250828;0.19436805;-0.17127267;-0.072654426;0.016780257;-0.00769572;0.07917786;-0.07036938;0.19098431;0.062046766;-0.12207944;-0.20517313;-0.049913686;0.18395141;0.103728265;-0.005579512;0.08296157;0.10786056;0.09813512;-0.063304774;0.1502048;-0.06552407;-0.03854311;-0.06755183;0.0789372;0.011922599;-0.1856651;0.015930474;0.04187335;0.04364776;0.074785516;-0.096339665;0.022968808;0.08700541;-0.1622607;0.15660228;0.07592921
-0.0923057;-0.041552015;0.052401904;-0.01896083;0.11454783;0.083634056;0.12603536;-0.120463096;-0.0069322623;-0.09221823;0.09843322;0.11334526;-0.120403945;-0.16735476;-0.11158459;0.14833526;-0.019296188;-0.01229877;0.3069556;0.13966726;0.12420163;-0.13252226;-0.00893868;-0.0953416;0.09394584;-0.0044655213;0.0052867085;-0.15593576;0.10267753;0.21093646;0.14542912;-0.14585039;0.036457032;0.06917395;-0.08667044;-0.06222864;0.1074301;0.02763776;-0.13653237;-0.09923827;0.17871033;-0.015887149;-0.0011074137;-0.0022274433;-0.15561026;0.08504692;-0.15809368;0.081076615;-0.0317291;-0.04602333;0.009215647;-0.025605448;-0.101699784;-0.15311648;0.01568891;-0.07603082;0.0028410915;-0.12631585;0.036210846;0.035356235;-0.012291075;0.042859588;-0.100749575;-0.16659012;-0.13621663;0.0072128186;0.16893788;-0.061913498;0.14731392;-0.13773935;-0.13573165;0.09295031;0.040364884;0.011255309;0.09845186;-0.27272263;-0.07840077;-0.053457826;-0.05993664;-0.17838602;0.052358307;-0.13983674;-0.13679515;0.072162226;0.07956501;-0.016606633;-0.13664332;-0.18865253;0.19190022;-0.104067355;-0.085872754;-0.11495495;-0.11332605;-0.16620524;0.0006121213;-0.0076665822;0.11326409;0.0015824806;-0.13762574;-0.03997992;-0.22370978;-0.0043542488;-0.06852783;-0.05882216;-0.010011296;0.124256805;0.026258662;-0.06558953;0.031888217;-0.19054335;-0.23227756;0.21213594;-0.022655848;0.2114997;0.17814477;-0.04064378;0.1202312;0.23533073;-0.052006707;0.15987802;-0.23487887;0.08982884;0.13140088;0.090697005;0.1116436;0.13132721;-0.076591805;0.08668736;-0.073727414;0.015651425;-0.0011641447;-0.088739;0.028275639;-0.2640801;0.131266;0.094188325;-0.09337772;-0.04439843;-0.3127773;-0.05112063;-0.18794632;-0.08377034;-0.06351343;-0.0028853032;0.09067478;-0.04254869;0.152778;0.19669878;0.14660186;-0.0033881767;0.12075302;0.12988487;0.10618526;-0.08762828;-0.007949111;-0.13825127;0.068469256;0.015515198;0.06676149;-0.023595294;-0.14360927;0.13717617;0.023593588;-0.03922177;-0.026292328;-0.014414818;0.17753078;-0.070079714;0.019996399;-0.06838568;-0.01858009;0.0666917;-0.18610613;-0.06738167;-0.15764026;0.0040977406;0.3062214;0.10321308;-0.072660424;-0.031067045;-0.12914796;-0.2688527;-0.15467697;-0.062883556;0.13564213;0.05339997;-0.09161257;-0.03575348;-0.15371911;-0.13054425;0.009897405;0.16665399;0.0034695754;0.08759825;0.1584268;0.02170045;0.0789604;-0.065123454;-0.11578145;0.08145514;-0.06830363;0.06938167;-0.12898818;-0.17930605;-0.13696903;-0.16720821;-0.09692451;-0.0514722;-0.07793539;-0.037593782;-0.1275095;-0.12676956;-0.015324389;-0.10070817;0.20332637;0.03173494;0.06584979;-0.06764619;-0.18587273;0.18453807;-0.03972337;-0.076869205;-0.002215946;-0.07307337;0.035651002;-0.15142116;-0.22315432;-0.15794812;-0.07094613;-0.058548383;-0.19751075;-0.044963617;0.2580603;-0.10127954;-0.29790118;-0.0368063;-0.040757045;0.20304626;-0.21767153;0.072522014;-0.0052989745;-0.11463447;-0.054696094;0.054790422;0.050525036;-0.106537566;-0.16968772;0.1469646;-0.00658806;-0.058390137;-0.10177579;0.06653127;-0.11478034;-0.12827565;-0.15602851;0.12315115;-0.019092185;0.037817564;-0.17322277;-0.14456408;-0.2019052;0.0005941216;0.090808794;-0.002086928;-0.08693303;0.02546943;-0.013361102;0.071910575;-0.16891098;-0.018316682;0.056286223;-0.12242179;0.010377589;-0.082946666;0.09577201;-0.18869592;0.044376146;0.12918627;-0.076605104;0.25975478;-0.011731284;0.068412535;-0.17546695;-0.15896985;-0.12676999;0.265225;-0.05553947;-0.12381466;0.13377902;-0.2020134;0.019962309;-0.015142274;0.0060816105;-0.20559049;0.043609023;0.15820818;0.21672979;0.09685262;0.052789293;-0.013411386;-0.007902472;0.273619;-0.16088544;-0.11307858;0.08451013;-0.13634244;0.12534408;-0.057186052;-0.11128648;-0.11409833;-0.006302611;0.14006515;0.061666366;-0.07493225;-0.009011029;0.09907539;-0.16020307;-0.031089004;0.087491706;-0.044056956;0.021134268;0.07882492;0.11560329;0.20516333;-0.09978686;0.102935106;0.07822906;-0.04705274;0.051212087;0.13686194;0.013350467;0.2665534;-0.007252285;-0.051066503;0.0020523935;-0.104349636;0.20919198;-0.036843397;-0.11651029;-0.053890694;0.053369787;-0.06646485;-0.281501;-0.15624097;-0.051767632;0.088496156;0.2227404;-0.10371226;0.072090484;0.026866553;-0.059832714;-0.31709066;0.1597392;-0.08374813;-0.12150127;0.20020781;-0.03236226;-0.13974936;-0.07408515;-0.31143272;-0.0027300578;-0.007983814;0.037900116;-0.00866155;0.11954921;0.13199082;0.06803648;-0.103629544;-0.12393378;0.038671788;-0.044274073;-0.041412238;0.07401531;-0.25484928;0.029056963;0.009443587;0.055842508;0.019160725;0.043453768;-0.16977404;0.08203197;-0.11902931;0.06681913;-0.21531267;-0.08091757;0.068132445;-0.01074275;0.11811428;-0.013053482;-0.09064686;0.0022876537;0.08880348;-0.007109705;0.13841249;-0.042817276;0.04608199;0.033864606;-0.036163278;0.13345487;0.031388927;-0.029844405;-0.056570623;-0.15327126;-0.113513544;0.16538066;0.05614848;0.058900755;-0.16755421;-0.07997439;0.027063953;0.10550305;-0.13229124;-0.10026163;0.014180023;-0.056799132;-0.2691889;-0.124283195;-0.048266288;-0.112145364;0.21885984;0.075545885;-0.13277358;0.08471351;0.22529666;0.0835996;-0.02982931;0.019986635;-0.2829874;-0.05560479;0.13705379;-0.04928013;0.13007377;-0.10065165;-0.0013334174;-0.111208655;0.011215789;0.118082106;-0.026674407;-0.09186438;0.09635025;-0.06596769;0.16964722;0.07704815;-0.139032;-0.013533554;0.08995484;0.04723783;0.0032498825;0.13231467;-0.32478052;0.040031005;0.084181115;0.017666621;0.1519945;-0.15508553;-0.07817603;0.11935482;-0.13209417;0.039380077;0.17397997;-0.059102617;-0.10106418;0.07589246;-0.21361072;-0.036287725;-0.031664703;-0.027724396;-0.1981895;-0.00021870728;0.018982943;-0.02430592;0.04201523;-0.016142631;0.08690769;0.03964738;0.15270445;-0.22966208;0.064633615;0.062067732;-0.19258302;-0.08928929;0.02234525;0.025030456;0.08515285;-0.07142037;-0.16959974;-0.11216783;0.04810355;-0.1129104;0.10680711;-0.08133986;0.041862857;0.14842607;-0.026637435;0.082399495;-0.1170371;0.11477861;-0.1158092;-0.059945825;-0.05739899;0.06693006;-0.040635023;0.052582607;-0.009952103;-0.006768021;-0.12928079;-0.045855653;-0.09855719;-0.01892462;-0.14637479;-0.21845177;0.21555932;0.17768486;-0.26827237;0.11370428;0.053922936;0.23683341;-0.1237997;0.036372136;-0.008120209;0.034198496;-0.09176969;-0.052475322;0.14438699;0.0028332663;0.090569064;0.03167342;0.10913708;0.061565228;-0.009491312;0.084593415;-0.009048654;-0.027784482;-0.06073847;-0.11012954;-0.017689493;0.08244153;-0.008378221;-0.017889183;-0.12059469;0.090136744;-0.19320452;-0.13489468;-0.013050813;0.098252684;0.01394544;0.05522314;0.038856592;0.09436151;-0.058425598;-0.15006945;0.009818841;0.31372806;0.10181619;-0.05320147;0.11432528;0.037528325;0.02094723;0.00059942546;0.0681631;-0.017151892;0.08999523;-0.07973191;0.049645778;-0.0073290854;-0.30091244;-0.08212363;-0.03779817;0.090464264;-0.025603885;0.034963172;0.048624575;0.12379492;-0.22286935;0.11798238;0.047102228
-0.08714694;-0.0680062;0.041172527;-0.0281352;0.11520339;0.031418435;0.051407233;-0.048355862;0.044894226;-0.061814982;0.03573424;0.12895705;-0.19029169;-0.10266417;-0.27355194;0.01981967;0.014745336;-0.034554135;0.25191817;0.20965968;0.12652859;-0.1119768;-0.112591095;-0.12382447;0.039857585;0.050230943;-0.011765096;-0.21587253;0.010023438;0.09121656;0.072494194;0.026354443;-0.014422859;0.07176555;-0.029263891;-0.085310884;0.025375696;-0.08303625;-0.030367713;-0.005348667;0.121999286;0.031737268;0.08369288;-0.1758006;-0.04129721;0.11047286;-0.16919744;0.18050808;0.056205615;-0.08031267;-0.030517524;-0.019693447;-0.086031266;-0.15210778;0.032005746;-0.0939904;-0.03362419;0.007140759;0.076682955;0.048186745;0.013275588;-0.015571691;-0.015754312;0.022774622;-0.051781956;-0.04631746;0.11408267;-0.06808921;0.17619546;-0.15732008;-0.0023731205;0.104663126;0.094917394;-0.091440275;-0.04895695;-0.20230208;0.059758894;-0.12576334;-0.08689722;-0.1262576;0.12823233;-0.15356873;-0.09018272;0.08145104;-0.021355348;0.08981062;-0.16640058;-0.116621226;0.07759878;-0.029197365;0.017356994;-0.09577156;0.038884923;-0.11161601;0.034269553;0.036134914;0.0060819793;0.024244882;-0.16959535;0.029288253;-0.2107169;0.011577607;-0.059297755;-0.106938854;-0.07977959;0.029354353;-0.003411274;-0.025394976;-0.053010955;-0.07619305;-0.100002095;0.23619086;0.14407516;0.21033958;0.20332676;-0.06634449;0.054879714;0.0992376;0.009965833;0.14247021;-0.18544805;-0.044614114;0.14966339;-0.04211718;0.16054457;0.018411705;-0.21664597;0.060456127;0.024014266;0.1271805;-0.06945922;-0.14542983;0.0034291276;-0.14714159;0.17610435;0.15017098;-0.055941775;0.071994565;-0.104480885;0.017183213;-0.17120624;-0.06435328;-0.06831738;-0.10569011;-0.08400354;-0.09750726;0.08276462;0.01119531;-0.035583038;-0.090502255;0.023875095;0.10436165;-0.038304593;-0.13786927;0.077079214;-0.008308855;0.05744307;-0.13701658;0.0017827265;0.0535268;-0.13837214;0.116497174;0.0051584686;-0.013612965;-0.07213857;-0.0066155354;0.09862216;-0.1088491;-0.005414939;-0.0152395675;-0.07702356;0.04856713;-0.17320281;-0.13622247;-0.0008568903;0.06498238;0.23177102;0.08021262;-0.07661991;-0.1188764;-0.05855738;-0.18936184;-0.07218959;0.049272656;0.07911278;0.11258593;-0.08082753;-0.08441382;-0.08145894;-0.038288347;-0.07502657;0.09462933;-0.04423175;0.031412903;0.06909833;0.08157706;0.109703004;-0.07864989;-0.23789267;0.019831419;-0.04025392;0.019261876;-0.21645235;-0.09636109;-0.079776585;-0.037646648;-0.1266607;0.004565713;0.005399754;-0.054098517;-0.037236296;-0.30985662;-0.1685519;-0.046577435;0.2655268;0.045339365;0.14086147;0.08753682;-0.24491614;0.10257523;0.04832482;-0.06563456;0.0050763907;-0.10672912;0.054157685;-0.062066182;-0.24545157;-0.09715065;-0.03459823;-0.05940075;-0.12134483;0.039229654;0.21064447;-0.007608209;-0.24711397;-0.11462601;-0.13316657;0.22090721;-0.066565916;-0.10389611;0.041296978;-0.18659858;0.15919173;0.05354466;0.014115763;-0.0158416;-0.08868778;0.1767743;0.08456017;-0.004639374;-0.0716896;-0.03233652;0.049099423;-0.050159287;-0.117266834;0.07504103;-0.047207654;-0.0005360692;-0.1001604;-0.07072047;-0.14545476;0.12817217;0.10325127;0.054366123;-0.20396538;0.061082155;-0.09266343;-0.0046911016;-0.14515112;-0.041896127;0.085147;-0.05606487;-0.0639485;-0.07659555;0.1898918;-0.18580455;-0.12904564;-0.013414491;-0.0034303819;0.22325483;-0.07195405;-0.045268226;-0.20118625;-0.1461276;0.06309423;0.2222921;-0.06662179;-0.08989523;0.08036966;-0.21295217;0.04739246;0.1024796;-0.14795774;-0.17389925;0.01869751;0.09188269;0.17259333;0.12881814;0.09259975;-0.1400234;-0.11852502;0.20984238;-0.1024058;-0.11778871;0.09905524;-0.08287301;0.22721073;0.055591557;-0.30194536;-0.14054698;-0.13246523;0.2001204;-0.010276493;-0.07877988;-0.0018684012;0.08000663;0.008089692;-0.101887174;-0.010838288;0.14836441;0.18409497;-0.012241378;0.033759475;0.08166214;-0.07884175;-0.0295864;0.055141173;-0.14897637;-0.040366728;0.15952279;-0.0829282;0.120827906;-0.068955354;0.0682807;0.045013186;-0.23022923;0.26957306;-0.05482931;-0.09782039;-0.024035875;-0.021806108;-0.056416478;-0.21354556;-0.18424645;0.06767555;-0.015047616;0.23045209;-0.0867349;-0.0072907326;-0.05725968;-0.07701264;-0.17621928;0.1436643;0.062482264;-0.052643187;0.030736748;-0.040152524;-0.15916426;0.042971935;-0.19682284;-0.054313555;0.123511456;0.038292777;-0.060715146;0.22617456;0.19985543;0.09729961;0.030715225;-0.14301522;0.029192016;0.09010942;-0.24807565;0.0147468615;-0.21421947;0.11288299;-0.046425786;-0.07172895;0.054634977;0.062457386;-0.0921145;0.17840172;-0.04619662;0.009822019;-0.077729724;-0.092405856;0.031363554;-0.024579117;0.07827695;0.056863874;0.0351885;-0.04455697;-0.07036753;0.121412;0.068674274;-0.02699792;0.08685591;0.006117322;0.010483972;0.16522223;0.037462197;-0.011869565;-0.038056735;-0.14491628;-0.002241926;0.12615702;0.15408547;-0.008860083;-0.09672516;-0.15462117;0.12669623;0.14996871;-0.08666025;-0.19462591;-0.107636616;-0.028902208;-0.1617525;-0.0383002;-0.18392904;-0.09927766;0.23577774;0.0010240251;-0.17391674;0.014027508;0.11736053;0.25672323;-0.10191183;-0.017524341;-0.31587923;-0.013844679;0.037856016;0.09657803;0.027835127;-0.16036129;0.069397524;0.054360177;0.05940017;0.14744328;0.046133745;0.043873005;0.08678367;-0.2087772;0.11581714;0.10797253;-0.20454465;0.12811047;0.16223395;0.0033203196;0.040338874;0.1884703;-0.18912435;0.07181525;0.017376512;0.01763645;0.14818017;-0.30918437;-0.022691913;0.18119921;-0.07645693;-0.10171651;0.2144777;-0.07292188;0.0044299797;0.043623764;-0.24159707;-0.014211279;-0.16200401;0.10660662;-0.22392817;0.13021517;0.0331187;-0.17424631;0.029220706;0.027043242;0.08774285;0.12551624;0.105195045;-0.15758155;0.1161922;0.09078227;-0.21280788;0.043777842;-0.038297795;-0.08423279;0.14304307;-0.18049504;-0.25684172;0.09415804;0.008779909;-0.06685625;0.1500159;0.031763773;-0.0035876276;0.04325928;-0.07856593;-0.023636388;-0.07380219;0.11292496;-0.02051594;0.043167908;-0.0650638;-0.001079843;0.012719534;-0.015544382;-0.06199622;-0.01588291;-0.04336001;0.039909054;-0.16404316;0.016623465;-0.1233582;-0.14792295;-0.042170048;0.16799676;-0.16528681;-0.040713523;0.03282472;0.29230574;-0.01803276;0.1250003;0.023419198;-0.04449701;-0.095505804;-0.12492668;0.1175345;0.075167835;0.15281269;0.11609941;0.12336928;-0.032088686;0.065559044;0.016378209;-0.070229635;-0.00035392275;-0.0686861;-0.023050833;-0.1125948;0.09682706;-0.0012837894;-0.1700982;-0.073633045;0.061561465;-0.091397144;-0.019476812;0.006167631;0.049302977;0.009883161;-0.07414651;0.18159208;-0.06378061;-0.08859908;-0.0035443972;0.044597477;0.24684362;0.09339065;0.06672928;0.061624087;0.13274589;0.013130592;-0.059930332;0.15372911;-0.06463349;0.0725304;-0.08639683;-0.003957394;-0.11068639;-0.113931455;-0.03622921;-0.09593969;-0.026380474;0.03656563;-0.009669518;0.024324732;0.15690604;-0.15116483;0.1121698;0.13985817
-0.16318667;0.040894143;-0.07755227;-0.053076785;0.09964482;0.038543317;0.10315238;-0.059054367;0.030341474;-0.09609695;-0.067127295;0.17803076;-0.18795575;-0.030051265;-0.24041283;0.08661058;-0.05738437;0.08466645;0.22847708;0.052491993;0.14814314;-0.15716092;-0.05092332;-0.033962447;0.025329383;0.0055008954;-0.026596067;-0.10099608;0.061466884;0.10305773;0.022181207;0.022339959;0.042600743;0.04065377;-0.11149564;0.02271005;0.08712898;-0.065375105;-0.123674326;-0.035925806;0.11483508;-0.10087976;0.16257651;-0.13163911;-0.12894331;-0.052217633;-0.09844352;0.2021424;0.10666602;0.07818294;-0.015813505;-0.02663525;-0.14789443;-0.048023976;-0.017725067;0.016820895;-0.008821718;-0.10639979;0.04239254;0.025753342;-0.05690704;-0.060947545;-0.09687346;-0.045010842;-0.12860207;0.034411;0.14830084;-0.028887257;0.13274507;-0.14755644;0.06830182;-0.007993531;-0.013316932;-0.028363038;-0.023196157;-0.07167977;0.08322979;-0.023426678;-0.08042933;0.0044699907;0.116042055;-0.18791929;-0.13122162;-0.0090773655;0.108090326;0.008843412;-0.18455702;-0.14359376;0.17242193;-0.1485254;-0.056066398;0.0043217367;0.067090064;-0.16659574;0.0102499705;0.06628875;0.0030121512;0.052414056;-0.1514466;-0.03382893;-0.16012973;0.012135652;-0.16320498;-0.06557208;-0.055443697;0.13044102;0.049386475;-0.09299451;0.05353548;-0.01144506;-0.26419127;0.24412012;0.17957646;0.16346979;0.15669619;-0.13860445;-0.05594239;0.11743443;0.06906257;0.17632757;-0.094928935;0.04675618;0.13739614;-0.025613962;0.042129893;0.005941097;-0.2560688;-0.025187388;-0.0011713789;0.0892755;0.048016407;-0.07282484;-0.106836684;-0.08032812;0.14338909;0.15852763;0.015820524;0.0053043;-0.19015883;-0.08789681;-0.1685058;-0.005096545;0.00091616233;0.01247895;0.02083512;-0.1216231;0.13533422;0.1149896;0.11499424;-0.1290091;-0.059651226;0.16231683;0.062805794;-0.2524826;0.12364471;0.00026727753;0.18290219;-0.0768033;0.10127835;0.025013926;-0.1763936;0.10326429;0.07844404;0.08591554;0.0020458093;-0.024472369;0.06727487;-0.13990024;0.036009528;-0.11986775;-0.03323786;-0.06378705;-0.22141246;-0.10811502;-0.027771981;0.11576573;0.10416317;0.048243288;-0.037563954;-0.16322918;-0.18170764;-0.17052494;-0.030293586;-0.057719454;0.18049574;0.20296995;-0.109413475;-0.10731524;-0.0049841194;-0.14854766;-0.07929978;0.21053119;-0.012937076;-0.030228551;0.10473084;0.06783239;0.031551063;-0.16037427;-0.14699374;0.088481225;-0.18030943;-0.021749914;-0.06747579;-0.016803605;-0.16177565;-0.16436973;-0.06980827;-0.16808869;-0.06861394;-0.07061911;-0.049413662;-0.19079494;-0.16359095;-0.052710567;0.16885445;0.035857603;-0.019831039;0.039382026;-0.2372302;0.061275885;0.01987734;-0.11261148;0.008361242;-0.061794113;0.106542535;-0.18091235;-0.09112281;-0.11236028;0.016949164;-0.040424865;0.016624179;0.009365427;0.16467763;-0.04580868;-0.17008066;-0.08568908;-0.1393349;0.102679394;-0.10860867;-0.08776782;0.12730382;-0.26186883;0.039038096;0.1286226;-0.03288445;0.04498318;-0.059600994;0.26872525;0.11181699;0.04500786;0.083825;-0.019142188;-0.099692136;-0.10603914;-0.08392936;0.042516455;-0.012299096;0.048217412;-0.09158759;-0.09363767;-0.1497659;0.16322303;0.10848014;-0.031002594;-0.14260702;0.11875668;-0.039710183;0.14434294;-0.043245513;-0.00032820585;0.15836959;0.0065177456;-0.05145979;-0.16183901;0.16602053;-0.07822363;0.0062990496;0.09286601;-0.0118625555;0.2499659;-0.12028595;-0.027979707;-0.23175032;-0.02034855;-0.046337474;0.19439957;0.012024544;0.0029940654;0.14523906;-0.17000881;0.051979046;0.089238584;-0.060938105;-0.14914419;0.027000314;0.14689623;0.2797373;0.11264061;-0.056539044;-0.1914724;-0.016357288;0.15805574;-0.19034988;-0.077245675;0.06385932;-0.1335951;0.21906802;0.04044159;-0.34092176;-0.058400217;0.00872581;0.093556605;-0.036077358;0.012979866;0.0075868596;0.064871095;-0.0978392;-0.049811162;0.0402349;0.061876755;0.078255884;-0.035469517;0.05505394;0.04636402;-0.08471226;0.002677144;-0.0032889016;-0.10901825;0.12474249;0.25485665;0.04289255;0.08195141;-0.057665948;0.115420125;0.021451533;-0.21005923;0.24464557;-0.14691822;-0.04721905;-0.08890015;0.0022734255;-0.039002106;-0.25289097;-0.17595601;0.059531797;0.10425449;0.13612932;-0.019302847;0.08879305;-0.030856881;-0.14739412;-0.20827208;0.15031236;0.13672179;-0.06149662;0.029732011;0.0071294564;-0.106983446;-0.010046954;-0.22752422;-0.07852916;0.15119989;0.1440017;-0.04088656;0.13075325;0.13694446;0.18163346;0.021621607;-0.19396345;0.0851593;-0.0071079545;-0.11917282;0.024436451;-0.18283042;0.10546201;-0.04158151;-0.045235753;0.09215035;0.038459767;-0.20848922;0.14717303;-0.14101224;0.054129973;-0.21981291;-0.05339758;0.13179815;0.057294827;0.13731363;-0.065374196;0.023784857;0.033374272;-0.026575478;0.14305088;0.11470972;0.00068334857;-0.014077343;0.012704594;0.0579202;0.108605586;-0.058230817;0.025501858;-0.029873352;-0.18312629;-0.07162977;0.14628246;0.116667956;0.029426476;-0.10643106;-0.07773325;0.038152047;0.086373195;-0.14810494;-0.30277073;-0.02865352;-0.09717391;-0.12225666;-0.040114794;-0.21066216;-0.07848328;0.22872475;0.033524208;-0.20742363;0.03737045;0.18140908;0.17229383;-0.05648584;0.018147595;-0.1876912;0.022887412;0.0023171934;0.10015667;0.110415675;-0.19798017;-0.05063518;-0.068923905;0.1503962;0.083784595;-0.031429987;-0.09772789;0.05460523;-0.17720123;0.13741164;0.06727779;-0.24105355;0.025632754;0.19353788;-0.053008087;0.033551943;0.06818574;-0.2791265;0.055709276;-0.10404216;0.000491713;0.105162814;-0.20395067;0.0758799;0.078869924;-0.17745958;-0.031938188;0.18212582;-0.074071236;-0.064681664;0.13539387;-0.33099642;-0.09577505;-0.13653898;0.09964843;-0.22671671;0.12373505;0.07292701;-0.0708618;0.007490488;0.059685707;0.06911985;0.037723966;0.047861103;0.018602315;0.08463744;0.030287955;-0.073108;-0.07798472;0.12871827;-0.049127486;-0.008149042;-0.20812291;-0.19680361;0.09062928;0.020353746;-0.13720296;0.17657357;0.08848015;0.052710686;0.08690345;-0.08264487;-0.09533353;-0.0813201;0.12821996;-0.09953146;0.081706695;-0.09849831;0.10102878;-0.056622066;-0.062590666;0.053764064;-0.05173287;-0.015894396;-0.068286195;-0.018102417;-0.058998648;-0.093483366;-0.055095647;-0.0042605763;0.10242703;-0.20358278;0.043041285;0.04455426;0.2694162;-0.14740849;0.10466346;-0.0034832302;-0.0468355;-0.10459617;-0.029967483;0.12219139;-0.048568223;0.074588984;0.0843613;0.0935021;-0.13683935;0.06372308;-0.21755563;-0.0016863015;-0.06994767;0.052684054;0.019359212;-0.05246267;0.013379924;0.030381322;-0.14055024;-0.009181751;0.07802198;-0.07234992;0.0929513;0.00535586;-0.042667985;-0.0021220169;-0.020211928;0.097366355;0.09024422;-0.12247517;-0.005731167;-0.051369973;0.25836688;0.19193493;-0.029283425;0.09054485;0.09047218;-0.04481552;-0.044699106;0.15320902;-0.07629122;0.006686215;-0.21006565;-0.02441346;0.02657551;-0.20464966;-0.09699148;-0.12877588;-0.028510591;-0.05440324;-0.0977597;0.09306283;0.075508356;-0.22657071;0.022333894;0.06947448
-0.12746225;0.05177573;-0.050097488;-0.06546812;0.06002541;0.052647855;0.10720438;-0.11919973;0.03997343;0.011796983;-0.02165942;0.20376925;-0.24341366;-0.154856;-0.30591956;0.047428623;-0.0019740653;0.046328;0.16958584;0.04626861;0.13463257;-0.21921255;0.04987415;-0.02547597;0.15873788;-0.0396785;0.026821466;-0.08228175;0.15430862;0.10607764;0.03537365;0.008397703;0.04259846;0.064434595;-0.17276736;-0.097156934;0.0063650873;-0.04132896;-0.081670605;-0.027885683;0.17291099;0.018610172;-0.0065049767;-0.032816973;-0.11158056;0.06061165;-0.012705973;0.122370966;-0.050898608;0.06031772;-0.02771303;0.021125264;-0.26285547;-0.086222716;0.13158368;0.08565028;0.009880028;-0.13711941;0.012741257;0.051097486;-0.044702403;-0.026907923;-0.15494451;-0.10483389;-0.18544751;-0.01373709;0.17099188;-0.12661341;0.12855934;-0.17486367;0.14135315;0.096084386;0.0004181267;-0.09841907;-0.11298433;-0.1025382;0.06450546;-0.0380985;0.050198987;-0.11783527;0.2283527;-0.3222536;-0.028881924;-0.0152556775;0.027415024;0.042757023;-0.15508425;-0.09127687;0.049378406;-0.11353806;-0.010106743;-0.10168108;-0.015076121;-0.2535476;0.107011676;0.1349883;-0.045975477;0.12524252;-0.09902796;-0.059041385;-0.14190108;-0.0045802253;-0.17052895;0.05877153;-0.05506632;0.14996564;0.086788565;-0.038757563;-0.031285565;0.058834024;-0.17063491;0.25742182;0.16274457;0.08354115;0.17694594;-0.094901636;-0.02844389;0.08055878;-0.0057434714;0.14354977;-0.053932846;-0.005145912;0.17503229;-0.00042744022;0.12129485;-0.09861802;-0.28227562;0.080194086;0.17689586;0.043522224;-0.08796946;-0.003144271;-0.15725969;-0.050347056;0.117856845;0.19738503;0.038248006;-0.019296195;-0.10543853;-0.04424249;-0.21210146;0.016633388;-0.113760345;-0.15369986;-0.040802035;-0.05916492;0.19749068;0.028393367;0.0525603;-0.08071453;-0.10615118;0.25390086;-0.0020254275;-0.19420424;0.10925294;0.05402503;0.14285427;-0.000566235;0.08929912;-0.033558227;-0.16806951;0.09005709;0.061654814;0.09330306;0.03217758;-0.008841231;0.09165949;-0.02139472;0.048528515;-0.039907347;0.010348452;0.05354117;-0.1352519;-0.018250478;-0.04633235;0.066885725;0.12701955;0.19780959;-0.0142181;-0.09887188;-0.20514852;-0.23692226;-0.0012602662;-0.0384734;0.13001582;0.19219996;-0.17390323;-0.10440445;-0.03360666;-0.09933414;-0.15599416;0.07144608;-0.16918555;-0.080850564;0.071393214;0.021848032;0.007988973;-0.07932859;-0.14810388;0.04029712;-0.120019026;-0.029184764;-0.18408443;0.047797438;-0.07665239;-0.07807246;-0.1384428;-0.25915483;-0.00046606865;0.022532556;-0.13975817;-0.2508724;-0.059223842;0.08015015;0.27400243;0.052696798;-0.03484458;-0.067774154;-0.17381003;0.052824166;0.023253562;-0.08490854;0.049654543;-0.22522083;0.1658484;-0.095700294;-0.087706245;-0.04284645;-0.03615914;-0.059492745;0.06277327;0.033471003;0.18764931;0.05752758;-0.13119829;-0.25428995;0.000544638;0.15695852;-0.14699706;-0.053900678;0.07845568;-0.16954197;0.024140557;0.025290074;0.0009865215;-0.04179021;-0.07615396;0.12242355;0.14495802;-0.030221947;-0.0684398;0.040105775;-0.04653179;-0.0075723478;-0.112121485;0.070025444;0.031146826;0.042071685;-0.0779061;-0.048381604;0.0058378717;0.12636423;0.092834465;-0.04909673;-0.13434833;0.19950964;-0.20690688;0.17444952;-0.10574193;-0.09219329;0.10462198;0.015031383;0.031227738;-0.066658236;0.23976067;-0.071580775;-0.057505853;-0.044708498;-0.096129574;0.17928478;-0.043826673;-0.051950987;-0.26002043;-0.019797267;0.011409251;0.13425758;0.007346656;-0.1102147;0.1628787;-0.13751544;0.051887073;-0.028609207;-0.05828804;-0.2216807;0.0066353553;0.098252475;0.20789698;0.14727083;-0.033143036;-0.112999305;0.09334955;0.24915521;-0.19885105;-0.024101282;0.09904271;-0.09137011;0.07421265;0.100820124;-0.4149472;-0.09962769;-0.03501585;0.10498919;0.010991514;0.008915442;-0.100165814;-4.6623405e-05;-0.0255297;-0.17456806;0.03967903;0.11371085;0.23702514;0.10407353;0.07181659;0.11917275;-0.125534;-0.038622286;-0.021286715;-0.2200529;0.12489619;0.14397869;-0.035967194;0.19600138;-0.1294123;-0.045763787;-0.035313327;-0.030412624;0.15624283;-0.14248997;-0.08455368;-0.11080761;0.03351568;-0.08927595;-0.2807885;-0.20667233;0.111571394;0.09279181;0.08107125;-0.1871174;-0.046001133;-0.06301874;-0.15761957;-0.06803802;0.2056408;0.121539906;0.0083926;0.11004069;0.09901956;0.007911889;0.030183854;-0.19525497;-0.055916116;0.10509866;0.114090495;-0.031986322;0.20848444;0.13658516;0.11609725;-0.07633373;-0.17285189;0.030169066;0.053469826;-0.15063962;-0.02052993;-0.17731977;0.09464434;0.061285105;0.03313755;-0.0062397853;-0.009348142;-0.15499443;0.12129638;-0.19552003;0.123096704;-0.19819398;-0.123403355;0.049235493;-0.06927431;0.064653434;-0.009027594;0.03284719;0.11457202;0.07078755;0.03446335;0.04934428;-0.029632004;0.1628733;-0.009401897;-0.038331237;0.056237362;-0.08328572;0.024993971;-0.010683271;-0.16021883;0.046866294;0.15497586;0.0110837035;-0.0031020888;-0.1155108;0.005225599;0.035162706;0.03596745;-0.13336185;-0.34629062;-0.09154944;-0.1345552;-0.108380735;-0.17588624;-0.056829985;-0.10363443;0.22715943;-0.16443178;-0.23537934;-0.09325865;0.11346813;0.2125306;-0.097212434;0.012361532;-0.2545228;-0.0009358278;0.16313168;0.086888425;0.095137395;-0.11060421;0.051232863;0.012406331;0.21473959;0.13974667;0.028278977;-0.21972685;0.17773783;-0.21679582;0.109013155;0.045497756;-0.1684086;-0.056469854;0.1697284;0.13316756;-0.050137408;0.13807869;-0.19790375;0.14560334;-0.08583816;0.05018652;0.16881697;-0.1348711;0.0063679717;0.16601245;-0.060984414;-0.17423879;0.18450071;0.002099665;-0.08540798;0.0842611;-0.37001663;-0.06752676;-0.13573661;0.026986534;-0.14511952;0.07849631;0.087807;-0.08931915;0.05213821;-0.026053498;-0.038501613;0.104823396;-0.039385784;-0.04812295;0.19223842;0.03177997;-0.16849391;0.013567157;-0.02944924;-0.06676459;0.046534736;-0.15864645;-0.03254641;0.018343326;0.04677394;-0.120509036;0.044100184;-0.013393237;0.072704345;0.12310265;0.07950596;-0.0592623;-0.044343166;0.13022359;-0.03657189;0.10577538;-0.09012762;0.082330436;-0.1019508;0.050557014;-0.0024222587;0.052993935;0.009053385;-0.048813865;-0.09736228;-0.07625514;-0.1657776;-0.1664363;0.025863267;0.21364237;-0.15879911;0.021218726;0.031638663;0.33427322;-0.09183007;0.21645044;0.09667438;0.08746935;-0.2401452;-0.120459095;0.10528778;-0.11902016;0.032687042;-0.02811487;0.14987485;-0.13947096;-0.07796759;-0.30523396;-0.07607385;-0.06986322;-0.014866096;-0.078168035;-0.1997329;0.029700868;0.017838873;-0.21991165;0.00013562839;0.21524005;-0.12159326;0.14282353;-0.073254086;-0.05432457;0.09019886;0.043308496;0.10225668;-0.067255296;-0.09848929;-0.14676511;-0.06481931;0.3243522;0.103974186;0.07829125;0.04977459;-0.0030292873;0.09731903;-0.112632774;0.075748056;-0.10083446;-0.017071586;-0.16984081;-0.16299361;-0.09428212;-0.15559252;-0.17866452;-0.15177466;0.09957348;0.018776914;-0.05086802;-0.032430924;0.022616982;-0.28955263;0.23015395;0.08170285
-0.19709098;0.03654711;-0.022996536;-0.07798142;0.1468232;0.052945174;0.17453764;-0.14655647;-0.0006767112;-0.021861445;0.039223596;0.16995437;-0.30729166;-0.06513727;-0.23743472;-0.06327656;-0.05363212;0.038567208;0.25702256;0.090624414;0.10241218;-0.15324128;-0.02671719;-0.08383318;0.17442276;0.01664311;0.035219714;-0.26294154;0.19522353;0.07547989;-0.016161095;0.013308122;0.005404976;-0.03989764;-0.1756234;0.03624118;-0.079999566;-0.026836127;0.028659036;-0.039566692;0.20995753;-0.12154179;0.13280101;-0.10776687;-0.12302428;0.18281363;0.014855733;0.23920749;0.06262635;0.14921905;0.03877405;0.07765135;-0.21059471;-0.101389214;0.10930456;-0.01194781;-0.04132551;-0.105356656;0.122273944;0.056464314;-0.11814406;-0.102141656;-0.14545284;0.0011143823;-0.22013514;0.060866896;0.07822437;-0.06454854;0.05790972;-0.088737205;0.09608914;0.01194498;-0.007999797;-0.039830804;0.026639521;-0.08429538;0.016403392;0.013964484;-0.01068162;-0.04153294;0.10161639;-0.2874065;-0.06371193;0.11192095;-0.07157062;-0.008232062;-0.11333093;-0.14336742;0.059135508;-0.061424837;-0.041152317;-0.14346886;0.091649555;-0.16943246;0.020629793;0.10808762;0.023047004;0.019945266;-0.039596215;-0.033461276;-0.107441016;0.061240852;-0.06696262;0.03459076;-0.086946145;0.13206632;0.10426707;-0.08864006;0.021270107;-0.042008653;-0.0457587;0.09445534;0.25242952;0.14156331;0.1754915;0.0028023815;-0.029215496;0.011499803;0.019232977;0.057456333;-0.148437;-0.016544903;0.14952922;-0.0010917283;0.17043628;0.020666422;-0.19609495;0.04547616;0.060725246;0.06020035;0.037687846;-0.13629046;-0.035109993;-0.01940786;0.038174875;0.21190968;-0.025143834;0.02545997;-0.09975687;-0.14212856;-0.16495831;0.07363245;-0.16396274;0.0488502;0.036895093;-0.03742562;0.15959144;-0.025172535;0.13630715;-0.10629443;-0.0017639488;0.17955838;-0.0554272;-0.18231656;0.0741107;0.07846661;0.030058524;-0.037782647;0.12294583;-0.00643159;-0.18246084;0.06400599;0.01599608;-0.008762457;0.06551774;-0.10019963;0.12639762;-0.10617755;0.00996889;0.015913494;-0.05778686;0.13896938;-0.048803803;-0.04827444;0.041330256;0.16275446;0.04318628;0.08571445;-0.09528519;-0.14499362;-0.078883626;-0.08930692;0.010240349;-0.017567003;0.099875435;0.1098527;-0.099603236;-0.050202094;-0.0071233152;-0.10560072;-0.09504443;0.21841046;-0.10206306;-0.10556774;0.10102479;0.11777639;-0.07590891;-0.23327595;-0.09163588;-0.040508505;-0.15059002;-0.07343315;-0.1841834;-0.039310344;-0.10677613;-0.029368993;-0.14463425;-0.08716555;-0.006892328;0.027971346;0.030388772;-0.35717675;-0.2018154;-0.004669997;0.2540354;-0.023867164;0.120127656;0.009943031;-0.20446222;0.019007545;-0.00482436;0.015868051;0.021307845;-0.08017007;0.17785709;-0.112747505;-0.16399117;0.02258048;0.10206539;0.0924378;-0.11797954;0.037006423;0.21809891;0.0075887437;-0.11855955;-0.20100158;-0.022938695;0.16860352;-0.12919363;-0.13164894;0.026856413;-0.19343297;0.15321131;0.10932809;-0.02071041;0.05246076;-0.0243698;0.13235009;0.044806555;0.058700047;-0.041801598;-0.042986635;0.033141933;0.052806895;0.00379437;0.0595687;0.041628744;0.02315029;-0.10794867;-0.019850327;-0.07680685;0.18224634;0.115827575;-0.015107598;-0.15084508;0.13136075;-0.02965175;0.1562179;-0.14238225;-0.041166574;0.066413015;-0.032461308;0.094381936;-0.12578033;0.15732446;-0.07931725;-0.027748007;0.06541182;0.0039999536;0.03734582;-0.13074547;0.07222199;-0.26471245;-0.10153948;-0.011613579;0.2514016;-0.00055691757;0.039471056;0.07758854;-0.074014805;0.14767085;0.12018057;-0.09504305;-0.1745199;-0.09361951;0.11079121;0.18535116;0.15864025;-0.07852335;-0.21654129;-0.042529244;0.15974648;-0.16527149;-0.16419227;0.11587645;-0.026136514;0.06121106;0.053231027;-0.27907988;-0.049525063;-0.15644945;0.09079101;0.034155853;0.051549386;-0.12911788;0.00615968;-0.070988744;-0.11543691;0.0631849;0.07673568;0.13141757;0.10508203;0.06652331;0.05226114;-0.057015117;0.105900645;-0.0541649;-0.05207243;0.124641106;0.20561562;0.038876995;0.111906216;-0.01895925;0.07067987;0.036220215;-0.07361422;0.2673114;-0.16175675;-0.10647324;-0.05830304;0.13042817;-0.16359195;-0.2709403;-0.16997807;0.0010477814;0.057626173;0.14987995;-0.17005503;0.023754088;0.008751767;-0.15212314;-0.10795015;0.1698657;0.03697999;-0.12505573;0.049695723;0.075738914;-0.01213762;0.021577308;-0.23125103;-0.12028268;0.03427586;0.08562555;-0.0002062262;0.10748827;0.07962392;0.15054673;-0.12681438;-0.30867264;0.053940315;0.038169913;-0.25744528;0.10036299;-0.13334785;0.059050053;0.124912634;0.03609847;0.0017820052;0.051305354;-0.14111325;0.07825652;-0.054769214;0.036382407;-0.1286771;0.011398695;0.0021838204;-0.061636448;0.03864271;0.09471783;0.035807204;0.08554224;0.10226973;0.017329134;0.042468045;0.094560206;0.08960657;0.004968532;-0.17992537;0.009500503;-0.06725509;0.04739613;-0.068780385;-0.07380658;0.076507226;0.16354173;-0.038665522;0.032707456;-0.06396105;-0.05587256;0.05636498;0.09061753;-0.06781384;-0.20371763;-0.032426123;-0.10368106;-0.07643213;-0.13314801;-0.0035266315;-0.06557596;0.2890651;-0.04164014;-0.17376277;-0.062201124;0.07121273;0.1584443;-0.120145395;-0.054500345;-0.24004558;0.103034034;0.12877047;0.09663192;0.14462271;-0.17049891;-0.013310479;-0.050949916;0.22776215;0.22439261;0.066360064;-0.20118865;0.06845571;-0.17560717;0.14761072;0.028808158;-0.16035692;-0.034382463;0.15204717;-0.0029803668;-0.08248937;0.09993376;-0.23828816;0.08296097;0.0744139;0.11424195;0.24450204;-0.27170056;-0.06426791;0.1885057;-0.15242217;-0.16661856;0.22040345;-0.010279225;-0.004412492;0.054878477;-0.34808567;-0.08016056;-0.122536406;-0.066252366;-0.29278198;0.11236995;0.06632114;-0.13059245;0.026199508;-0.01948094;0.04910938;0.04919608;0.007860271;0.047022864;0.091797225;-0.08796442;-0.100063495;-0.07622007;0.012332489;-0.12761123;-0.023738043;-0.21173748;-0.17404622;0.08988116;-0.054229416;-0.10146998;0.11955522;0.06392292;0.112140015;0.15719597;-0.058016814;-0.107687;0.09360825;0.15198056;-0.057207495;0.070322126;-0.050773297;0.11613263;0.016039973;0.019843236;-0.055300716;0.0047010635;0.06661492;-0.056735214;-0.08841583;-0.07110495;-0.12502107;-0.09168975;0.11566312;0.2033204;-0.26032743;0.09496722;-0.084444985;0.24221513;-0.10092487;0.17278777;-0.040960044;0.025395924;-0.08256588;-0.1324565;0.118501656;-0.05820923;0.010771311;-0.04219531;0.08101495;-0.037110124;-0.04972007;-0.3128282;0.015364043;-0.07445922;-0.047754526;-0.10028923;-0.09271374;0.06309536;0.005832169;-0.13831039;-0.10846141;0.10305789;-0.076515056;0.023522751;-0.27331668;0.03234794;0.027103493;0.03629432;-0.043537177;0.033182066;-0.05796498;-0.043482043;0.083901875;0.31025258;0.056722943;0.0035919407;-0.03187585;0.102397904;0.01983807;-0.10999171;0.10131464;0.034290772;-0.059712924;-0.17959477;-0.0875926;-0.05802594;-0.1499276;-0.16240793;-0.029571338;0.046143916;-0.08440708;0.0026880677;0.026967844;0.10567922;-0.24027927;0.1321636;0.047762416
-0.23683657;-0.023961587;0.07968697;0.054340452;0.10492637;0.048111506;0.10854552;-0.124476515;-0.069784254;0.09650352;0.03508436;0.14588675;-0.34132996;-0.18336007;-0.09177588;-0.17880157;0.015742427;-0.023448216;0.34367552;0.18303673;-0.017579917;-0.14364032;-0.04811634;-0.17286575;0.18313584;-0.08317459;-0.071566924;-0.32526004;0.06423492;0.16633351;0.008874066;0.063687555;-0.07097483;-0.054418713;-0.2124675;0.10121489;0.029207133;-0.040659845;0.053765103;-0.15075822;0.22353062;-0.10181362;0.05105134;0.014272748;-0.13200346;0.122623;-0.17028308;0.21007279;0.09784002;0.17784946;0.13701585;-0.01680314;-0.07502858;-0.07639055;0.13832696;-0.067392215;0.0035346411;-0.066801205;-0.00958372;-0.0762356;-0.018987471;-0.101324625;-0.11051505;0.11375292;-0.1962421;-0.014809567;0.12564306;-0.10718431;0.18346323;-0.13931878;0.0101313945;0.030819727;-0.036616378;0.074374296;0.05716725;-0.1467316;0.010683222;-0.026289418;-0.058076862;0.011882314;0.12696502;-0.18671378;-0.0899427;-0.006961514;-0.11773983;-0.11744835;-0.14901689;-0.15541749;0.14668663;-0.11497135;-0.012499139;-0.11180371;-0.057406057;-0.0783863;0.11368948;0.10790488;-0.072289996;0.011072353;-0.1737259;-0.07554678;-0.21508217;0.10944653;-0.14877401;-0.10895671;-0.030419283;0.07452783;0.09747633;-0.027589357;0.066687;-0.122949764;-0.17347336;0.20432852;0.08821914;0.13556483;0.23417562;-0.011025133;-0.01266447;0.11117522;-0.007855901;0.040913995;-0.097140394;0.012781044;0.055986207;-0.0694564;0.10443806;0.08187716;-0.20335318;0.111590736;0.023640364;0.1735036;0.10793172;-0.13070318;-0.0026603246;-0.21002269;0.15535226;0.13647938;-0.16341874;0.07922052;-0.26049936;-0.07766536;-0.07370605;0.038656037;-0.090963565;0.083500765;0.03757696;-0.09890092;0.07894569;0.050601445;0.23408696;-0.05581608;0.02580152;0.18488951;0.017644957;-0.1608073;-0.0007098965;-0.045530368;0.091644324;-0.00084155286;0.0032328635;0.0157973;-0.12736946;0.05033397;0.17350507;0.11753935;0.04693045;0.0061623147;0.020114215;-0.11911211;-0.12040118;0.056508385;-0.020354014;-0.05331507;-0.14749372;-0.10920102;-0.066075005;0.08109389;0.14475293;0.106370926;-0.050145924;-0.15364586;-0.008624346;-0.18451978;-0.12008264;-0.044353835;0.21092933;0.037845973;-0.065600075;-0.057344098;-0.05763101;-0.22688755;-0.081082255;0.09415154;-0.059680264;-0.030567165;0.0999587;0.07062291;-0.015731229;-0.12324672;-0.24811319;0.042961936;-0.18162015;0.13433099;-0.21228896;-0.1098912;-0.28695503;-0.059368312;-0.21154588;-0.12934919;-0.13744976;-0.011091839;0.018588724;-0.36985126;-0.19105554;-0.0026161883;0.22536309;-0.112695634;-0.033132832;-0.06392105;-0.17690381;0.009734897;0.055394072;0.011221253;-0.044792384;-0.094434395;0.06671213;-0.21764769;-0.22741322;-0.00045840107;-0.02932562;0.006196047;-0.0645816;0.047932655;0.09180008;-0.035076037;-0.27708986;-0.15037109;0.06645016;0.1603547;-0.19103295;-0.094217286;-0.010113609;-0.05826066;-0.030542376;0.15079919;-0.040430285;0.034383073;-0.007365069;0.22375302;-0.050763227;0.053764097;-0.0008974058;-0.14153966;0.051745307;-0.019652208;-0.14862609;0.060818464;0.0023315563;0.03128413;0.023617355;0.010835891;-0.10459537;0.03224912;0.109366104;0.027764194;-0.15594804;0.049872205;-0.14084877;0.0799436;-0.08957876;-0.09271763;0.118748985;0.013856552;0.014758229;0.067433864;0.23649232;-0.018033182;-0.040379792;0.045728184;-0.09842031;0.10750063;-0.08430022;0.04816304;-0.14541352;-0.13121362;-0.12819156;0.24605785;-0.01155081;-0.008602795;0.13618119;-0.17343353;0.11683457;0.014274593;0.012834297;-0.22636774;0.038469296;0.11956511;0.21987641;0.025314445;-0.021167133;-0.18387926;-0.0104188435;0.281165;-0.19656725;-0.12158073;0.2689094;-0.02194863;0.099173576;-0.033808667;-0.30076548;-0.06277731;-0.20410012;0.13992193;0.042529996;0.021137672;-0.06623682;0.032976173;0.08203109;-0.053685408;0.012730302;0.080814764;0.16552879;-0.008639274;0.11485863;0.08213077;-0.0030398597;0.11486468;0.09926026;-0.14780805;0.08176709;0.20983015;0.041931372;0.14444979;0.047003083;-0.006387664;0.11818002;-0.15252641;0.07792691;-0.19466469;-0.13043998;-0.029746743;0.041844442;-0.1600942;-0.15701663;-0.059897926;0.060823005;-0.018150538;0.06683521;-0.2495028;0.05547984;0.009525452;-0.15355462;-0.17386508;0.123356394;-0.021775706;-0.0570735;-0.0038784363;0.118459255;-0.14068718;-0.1343471;-0.16735639;-0.18167955;0.196226;0.2117532;-0.01996696;0.09881684;0.05459393;0.07867407;-0.13831098;-0.2355671;0.089670554;0.0012780715;-0.20140032;0.051135372;-0.11844112;-0.08303712;0.09875462;0.011864198;0.04922987;0.09378122;-0.15947716;0.09816822;0.056583792;0.036761794;-0.014594395;-0.018281406;0.049699802;0.10511992;0.15244967;0.12668972;0.03973079;0.10007836;0.09320164;0.11346668;0.10212759;-0.06708568;-0.024294611;0.04398387;-0.15370642;0.066095546;0.040936656;0.083116345;-0.14692429;-0.1368205;-0.10145705;0.1836461;0.014939536;-0.033989646;-0.07287478;-0.107875586;0.06713681;0.044797428;-0.20169891;-0.21084704;-0.057864346;-0.15418236;-0.2546879;-0.17278017;-0.21267395;-0.13572274;0.26106617;0.013659786;-0.15980917;-0.057224527;0.09042004;0.028725442;-0.15536165;0.07807945;-0.24443826;0.025888914;0.1271545;0.09644386;0.17324905;0.0008206839;-0.056557942;-0.104341745;0.2056635;0.14153346;-0.081351526;-0.1096329;0.02565712;-0.15999004;0.18980393;0.056150116;-0.16997942;-0.07091673;0.19155492;0.04492899;-0.043224256;0.05348159;-0.23308194;0.050030675;-0.022839487;-0.053591147;0.27781194;-0.1277232;0.13039315;0.079426974;-0.085786186;-0.054779332;0.27817085;-0.17396218;-0.05978556;0.09987941;-0.27483565;-0.049255464;-0.14398989;-0.10024741;-0.2533448;0.14274544;0.019410836;-0.08833954;-0.123410895;0.04980863;0.017381823;0.091727644;-0.06302453;-0.034428876;-0.03573301;0.0657222;-0.22193019;-0.07893251;0.021657793;-0.0773317;-0.018499335;-0.21543173;-0.24089274;0.04512532;-0.07015414;-0.1563305;0.19667917;-0.07146702;0.05760371;0.18642253;-0.009494967;-0.11002003;0.050636027;0.047593568;0.022062806;0.009433303;0.015681157;0.0961794;-0.026121635;-0.008318389;-0.028818805;0.0874142;0.05240804;-0.06955719;-0.20116618;-0.0059198802;-0.024322568;-0.12328316;0.1499061;0.2674302;-0.3689351;0.14085492;-0.003978765;0.27357736;-0.23007107;0.089962885;0.06724626;-0.043169443;-0.016425418;0.0019359208;0.05110254;0.02024022;0.03795592;0.040718243;0.08035806;-0.14280492;0.027551241;-0.25637326;-0.03738303;-0.02974211;0.08852396;-0.09004741;0.009393881;0.003125899;0.11184579;-0.035418656;-0.009408055;0.016299428;0.006404777;0.020089827;-0.15142392;-0.033566896;0.11141026;0.044982873;0.006751179;0.03269901;-0.048094723;-0.16967656;0.0344856;0.18826418;0.10682343;0.10751634;0.04788588;0.15898363;-0.027066747;-0.10503608;0.13010505;-0.021381414;0.108821966;-0.17582943;0.048471738;-0.025750278;-0.18181129;-0.19432597;-0.03211395;0.054851606;-0.091963395;0.019421322;0.018875983;0.010194234;-0.112906896;-0.02745771;0.20560805
-0.16661051;0.06887352;0.029187493;0.07343366;0.06191673;0.0549692;0.06573883;-0.24678814;0.04435419;0.036016528;-0.026353024;0.13424218;-0.3695098;-0.15294318;-0.20352218;-0.13301286;-0.036937114;0.058293886;0.19336437;-0.037484612;0.09813656;-0.09049608;0.03271545;-0.0422622;0.16397199;-0.06806311;-0.062264632;-0.21148182;0.052276384;0.14935352;0.027969636;0.03572818;0.001409572;0.10761146;-0.24961986;0.028982475;0.14325076;-0.14801456;0.026812311;-0.09184356;0.14029376;-0.10455127;0.1146791;-0.16483562;-0.20464653;0.1603044;-0.030091014;0.27005163;-0.07285319;0.12511829;0.10278945;-0.055394866;-0.16643664;-0.053319078;0.029013377;-0.17974406;-0.05575812;0.045594938;0.11787956;-0.014010559;0.0119658355;-0.15345076;-0.08759431;0.022066591;-0.0998136;0.067748435;0.108590275;-0.066874996;0.111978054;-0.062219314;0.11422004;0.02687633;-0.038832672;-0.06898281;-0.11185675;-0.08825193;0.052043226;-0.030211428;0.015191;0.026879765;0.11584335;-0.15413111;-0.11090524;0.10640245;-0.000711574;-0.092816375;-0.058527853;-0.14293556;0.14680585;-0.011984178;-0.050281193;-0.021716075;0.0010294064;-0.17931738;0.13119367;0.12429505;-0.027403874;-0.068776816;-0.12837772;-0.12243985;-0.1332787;0.01890315;-0.0224027;-0.07699687;0.03929783;0.15593007;0.04735053;-0.011824833;-0.081886455;-0.18231393;-0.22590035;0.208124;0.10961868;0.011422231;0.16498615;-0.027938828;-0.05501083;0.07557777;0.09383454;0.0863313;-0.15338272;2.7194674e-05;0.05452706;-0.09641668;0.17287698;0.012741557;-0.25179765;0.12339752;0.11690005;0.16808915;0.05349569;-0.06300932;-0.11769682;-0.054389752;0.06625436;0.11914078;-0.035358276;0.18099245;-0.21130303;-0.03305099;0.055506848;0.11581137;-0.06157576;-0.021348825;0.010210071;-0.0557946;0.25868607;-0.010288775;0.18455307;-0.061997317;0.02851184;0.2213711;-0.100872695;-0.094958395;-0.034830257;0.06926599;0.14277315;-0.08230069;0.13439912;-0.018196845;-0.116790466;0.02534059;0.13115223;0.16470988;0.07298469;-0.0031519854;0.02444906;-0.055299994;-0.042806365;0.11996338;-0.07442346;0.044454735;-0.086082734;-0.033069037;-0.040026553;0.03636652;0.12257569;-0.016926913;0.091363095;-0.16028818;0.019614747;-0.11672768;-0.083555326;0.041968744;0.055023354;0.23362625;0.03588431;-0.24188723;-0.10317796;-0.13391854;-0.17167267;0.19586885;-0.06988537;0.05636534;0.07606223;0.02061475;0.025856439;-0.08068674;-0.23870562;0.015472963;-0.0783193;0.11867393;-0.21654095;-0.05351222;-0.24799998;-0.01576682;-0.15220729;-0.028650707;-0.06535257;-0.026506176;-0.00993564;-0.2512309;-0.18857835;0.11563723;0.06903648;0.039133217;0.07364218;0.12582643;-0.23663358;-0.032243557;0.11653457;-0.003375867;-0.107882485;-0.2207861;0.09667284;-0.10988595;-0.0953534;0.030238796;0.14801861;0.045288716;-0.026338445;0.10052465;0.25005528;0.15125696;-0.1845516;-0.11996262;-0.08886383;-0.01740142;-0.17527832;-0.016626906;-0.016100278;-0.25590318;0.10453544;0.07655488;-0.10710464;0.056260947;0.09672315;0.12361245;-0.10194308;0.00810106;0.0021592646;0.0003850256;-0.00820634;-0.0067780395;-0.13356848;0.12131027;0.02989295;0.03492369;-0.071082994;0.02573536;0.024899514;0.13352433;0.1544012;-0.04030384;-0.10790392;0.11394803;-0.088405944;0.16290897;-0.12056044;0.020555122;0.111682996;-0.06894841;0.04617878;-0.0011426234;0.27501562;-0.0006605523;-0.13268337;0.0017762211;0.05474893;0.10914797;-0.04605227;0.07226591;-0.166764;-0.007966819;0.04246857;0.1013121;0.0050804024;0.03950971;0.095232345;-0.07995384;0.050804164;0.0030604457;-0.0015525874;-0.20555523;0.042182676;0.05617829;0.18380916;0.04669864;0.0294617;-0.012806985;0.09869882;0.14652571;-0.025229814;-0.12189103;0.10715114;0.098307766;-0.023205373;0.072060704;-0.20004763;-0.071923964;-0.19175364;0.11975026;0.19618906;0.06212286;-0.09600381;-0.041496076;-0.0021677348;-0.07503251;-0.045685608;0.1382622;0.085769676;0.13873611;0.053948093;0.09409354;0.011961526;0.18251242;-0.09205908;-0.080562785;0.12337808;0.2900763;0.1064994;0.16406026;0.018728672;-0.0041449307;-0.03434519;0.11465123;0.20154287;-0.19269495;-0.04710553;-0.08170432;0.083470166;-0.21134159;-0.21107665;-0.041535396;0.08709877;-0.00020927872;0.19948055;-0.19735806;0.07790914;0.048934177;-0.10035343;-0.10669439;0.1630319;0.044180375;-0.030052338;0.04823601;-0.008012861;-0.11744364;-0.08513059;-0.08474263;-0.22480749;0.14588195;0.15813215;0.08337945;0.06362692;0.06524776;0.17317814;-0.16410008;-0.2478291;0.022224687;0.19227079;-0.24585927;0.15713316;0.0075742723;-0.029340599;0.06566527;-0.019427868;0.14129949;0.14806329;-0.2378703;0.11204959;-0.03663692;0.028832858;-0.14857297;0.10883882;-0.060716078;0.06728547;0.06918457;-0.001288146;0.057409465;-0.011801055;-0.02423114;0.17041594;-0.06255643;0.09486515;0.0055115395;-0.061851777;-0.22231758;0.08121034;-0.096183635;-0.0100250635;-0.08632598;-0.049684852;0.044641424;0.038556494;-0.051955298;0.053336434;-0.010321743;-0.14000954;-0.0018630406;0.040011026;-0.20270231;-0.18411408;-0.036027342;-0.07309956;-0.13757037;-0.14157984;-0.14933565;-0.05683713;0.22450784;0.019181719;-0.17570852;-0.026135612;0.1836639;0.13968271;0.015303049;-0.022485007;-0.12518731;0.05437231;0.066055454;0.12452031;0.09695522;-0.14922181;-0.0666363;0.049214877;0.25144202;0.22678338;-0.039838966;-0.18767953;-0.0012127085;-0.15734914;0.20203225;0.030548263;-0.083501704;0.072963595;0.3017721;0.10450188;-0.10306417;0.0015652316;-0.31189403;0.061253972;-0.047354035;0.056049306;0.20321658;-0.13063893;-0.028846046;0.08505832;-0.13491909;-0.12728977;0.25846782;-0.05335095;-0.096065715;0.07848758;-0.23153703;-0.096305914;-0.1740075;0.07309689;-0.28539428;0.035222106;0.13280326;-0.15463078;-0.04954203;-0.06506871;0.0765186;0.10129038;0.017992739;0.02449709;0.059874196;0.15285006;-0.13811807;-0.008541065;0.01238429;-0.16542743;-0.06131218;-0.09183956;-0.22890218;0.09737671;0.0348477;-0.10430744;0.12953351;0.060020007;0.012584338;0.2579744;0.034067787;-0.16373299;-0.009886226;0.06854437;-0.070132054;-0.032441355;-0.0026508835;0.080706485;-0.13352811;0.06469278;-0.07719254;0.010596483;0.059118915;0.011594279;-0.23440315;0.011668259;-0.0965713;-0.027187183;0.015938886;0.061833512;-0.2864415;0.091052964;-0.0023601842;0.29313645;-0.12966302;0.11042018;0.06333775;-0.046204187;-0.112797976;0.014589104;0.03581214;-0.16199453;0.0064522773;-0.010728759;0.14804518;-0.13335112;-0.08463631;-0.21334894;0.05531247;-0.06518516;0.000358233;0.09190685;-0.062513165;-0.008450553;-0.027658707;-0.22038637;0.027932657;0.15801415;0.018294854;0.12799555;-0.25300342;-0.1127767;-0.017884523;0.105997816;0.09590058;0.028775936;-0.071285576;-0.16218102;0.077966504;0.18236586;0.02002237;0.22575943;-0.06557466;0.060637005;-0.10804295;-0.07265542;0.011707906;-0.002210818;-0.036199037;-0.19310729;-0.055599496;0.058350716;-0.16288707;-0.14029741;-0.06544915;0.12736237;-0.017887851;0.009105827;-0.061842896;0.08876788;-0.03591537;0.10776726;0.23231767
-0.1779111;-0.03202079;-0.039878644;-0.025184615;0.119374275;0.06679655;0.07277537;-0.2227336;-0.0031173003;0.05717919;-0.040852595;0.1790274;-0.3920697;-0.05870551;-0.099032514;-0.12902434;0.060257785;0.016659617;0.17318057;0.07794914;0.009937711;-0.19135039;-0.0014540865;-0.09044237;0.12084354;-0.1007813;-0.066872016;-0.31250846;0.09786121;0.18935163;-0.00041937025;0.15708455;0.007845271;0.10352538;-0.1431098;-0.06366787;-0.021758111;0.016826466;0.119348906;-0.10326108;0.07484874;-0.110989444;0.099369764;0.01529931;-0.14581048;-0.0063148355;-0.047657736;0.22602399;-0.030780233;0.23203474;0.058096737;-0.05328337;-0.17715086;-0.1593429;0.19881588;-0.14854306;0.09373651;0.022617219;0.11924942;0.06307034;-0.102222346;-0.081670724;0.0044601806;0.093520395;-0.062774435;-0.014910078;0.019505436;-0.07105084;0.10590902;-0.017561574;0.07866623;0.023832686;-0.0021022668;0.041808203;-0.0704216;-0.11316867;0.0043655373;-0.09800527;-0.0070577017;-0.06903379;0.06865028;-0.11292934;-0.13995515;0.078286804;0.0106030805;-0.13297686;-0.23101574;-0.17523281;0.09756914;-0.13124308;0.054709535;-0.038207088;-0.09663189;-0.10700367;0.04391395;0.10223189;-0.047814284;0.0070494125;0.00033832996;0.014163882;-0.10592983;0.045841243;-0.0439392;-0.07012357;0.0007900401;0.11857979;0.06641926;-0.106434725;0.05336544;-0.19213463;-0.22867355;0.24147221;0.15718932;0.059233394;0.050314523;-0.07664187;0.029604895;0.084300764;0.047858622;0.10967873;-0.09311759;0.13223644;0.0008286636;-0.000925451;-0.016724434;0.086786345;-0.1420402;0.044293147;-0.014498455;0.113809586;0.019561404;-0.161843;-0.14376523;0.00229855;0.050133687;0.09466781;-0.14819823;0.16489239;-0.1835844;0.03233788;0.048231706;-0.020480245;-0.07389046;0.063647546;0.028431216;-0.033772007;0.10936145;0.119705655;0.096653946;-0.10987653;-0.030929621;0.09768543;-0.031483658;-0.08389093;-0.04064704;0.005248985;-0.030716212;-0.081225924;-0.06811981;-0.075779244;-0.16180947;0.069798656;0.005303775;0.122114904;0.0813894;-0.15346482;-0.016043631;-0.026504716;0.052735798;0.111521386;-0.011630999;0.084995;-0.10088935;-0.02583029;-0.044731677;-0.0059034093;0.07747878;-0.011669061;0.11197724;-0.10767637;-0.1757457;-0.17033656;-0.0422447;-0.05018736;0.001031451;0.1458577;-0.059135802;-0.18240555;-0.056918386;-0.17417042;-0.014304087;0.18944088;-0.06398554;-0.012142913;0.16962709;0.13161393;0.093112506;-0.1311223;-0.20254691;-0.07593229;-0.10736598;0.12877615;-0.20874354;0.048459042;-0.20169653;-0.03403722;-0.16492112;-0.057514846;-0.16165712;-0.05095637;0.013628966;-0.35963798;-0.06695303;0.07917322;0.1441556;-0.0393432;-0.0014418;-0.011533656;-0.20665392;0.09303849;0.020464815;-0.027180454;-0.09762705;-0.039220974;-0.035938855;-0.091542765;-0.05668488;-0.08893543;0.020597093;0.070075825;-0.024763756;0.00397398;0.0926794;0.12062252;-0.22381611;-0.078757346;0.0683485;0.06510078;-0.14230551;-0.0017740573;0.009460112;-0.24872881;-0.053326383;0.032069795;-0.0850075;-0.08234213;0.059890967;0.19344993;-0.16958238;0.10594427;0.05580518;-0.10035349;-0.0062066573;-0.017321335;-0.16375591;0.04237258;-0.085005015;-0.022121236;0.0034591989;-0.01811839;-0.037479624;0.07852964;0.13845564;0.049424987;-0.053603288;0.04714219;-0.12499832;0.06955007;-0.004386506;-0.17047045;0.17714225;-0.19452462;0.1133456;-0.0046318495;0.3213417;0.009654418;-0.03462681;0.04473914;-0.011382387;0.091345266;-0.094329655;0.028917175;0.0011541373;-0.038732853;-0.064936854;0.1488502;-0.10300388;-0.033621944;0.06354115;-0.15768276;0.088539384;-0.007087375;-0.100844555;-0.1472422;-0.09057398;0.06864783;0.05953819;-0.017948616;-0.07947209;-0.09479696;-0.026570512;0.12086393;0.007973218;-0.13938072;0.27677983;0.019810226;-0.0407711;-0.098714955;-0.2035784;-0.05686934;-0.16710445;0.10097435;0.21648799;0.15406308;0.046453524;0.044216778;-0.025982099;-0.08366603;-0.03378425;0.020903358;0.078436546;-0.00019784967;0.07712916;0.15800849;-0.09622189;0.042544734;-0.050173815;-0.021840008;-0.0033241282;0.23675266;0.07347985;0.17716879;0.050790705;-0.031352546;0.07690758;0.024564948;0.23046872;-0.041653488;-0.04452603;0.035780504;0.0061291098;-0.19823498;-0.09209058;-0.01806255;0.033990223;0.09988461;0.02531734;-0.12796994;0.0438822;-0.00498147;0.027378341;-0.12766625;0.14447583;0.17561093;-0.040145133;0.07650103;-0.030541385;-0.13530242;-0.07161225;-0.05028317;-0.12393273;0.12074198;0.14416778;0.0011694287;0.12716931;0.19770743;0.17916483;-0.12901375;-0.13350579;-0.03333249;0.124083206;-0.17226078;0.09301146;-0.02521007;-0.14307894;0.022683904;0.016919877;0.06139984;-0.00736965;-0.21985847;0.16114913;0.0019759075;-0.033848457;-0.05619232;0.057978738;0.03336804;0.10039528;0.114863;0.076288484;-0.10044925;-0.017187947;-0.033184584;-0.0312775;0.040273227;0.07846716;0.12720025;-0.028857844;-0.21970198;-0.06344064;-0.11027994;-0.045748856;-0.15615302;-0.10558309;-0.07047435;0.23295023;-0.043155067;0.13394514;-0.08659846;-0.0768466;-0.14299586;0.0011041407;-0.20404144;-0.15702406;-0.13080476;-0.22009197;-0.14887634;-0.061256595;-0.070392;-0.04237579;0.20563704;-0.12697035;-0.09718282;-0.059091844;0.066330515;0.08866523;-0.095331416;0.095632;-0.1317472;-0.053440105;0.07796757;0.1587557;0.1263606;-0.062377106;-0.08049481;-0.06664107;0.20821601;0.0859413;-0.024691122;-0.07963687;0.039922573;-0.16634187;0.13198909;0.0069498625;0.03153573;-0.027358118;0.23298576;0.10767034;-0.04750667;0.018376322;-0.21266639;0.12971234;-0.01313158;0.0029432143;0.243712;-0.22344661;0.10357497;0.1036046;-0.1032834;-0.15388018;0.17566656;0.031765774;-0.0069914893;0.021570189;-0.16912568;-0.14024626;-0.040542357;-0.008021476;-0.19912402;0.022989806;0.10521767;-0.12318831;-0.06551184;0.055017352;0.04315877;0.0040951106;0.04062832;0.03143132;0.012914704;0.124137126;-0.17726354;-0.027022148;-0.05400239;-0.20650806;0.004516085;-0.178444;-0.13512956;-0.017703243;-0.069941916;-0.019492855;0.23602703;-0.06950307;-0.01690347;0.18117023;-0.07680173;-0.113709025;-0.088630565;0.0518678;-0.020283468;-0.03536176;-0.11280787;0.0122870365;-0.016195329;0.11956195;0.050608244;0.10765043;-0.08620853;-0.0047901124;-0.22470897;-0.005423861;-0.053844426;-0.076390915;0.093835846;0.19179755;-0.27652237;0.10956626;0.09194104;0.15724443;-0.07989183;0.079480484;-0.028316228;-0.022109788;-0.048688564;-0.06790857;0.11249141;-0.038091302;-0.04199468;0.016617265;0.2006575;-0.1144917;-0.05356375;-0.21464236;-0.05530248;-0.15350218;-0.022226203;-0.109813705;-0.012386968;0.1252173;0.045047477;-0.13575003;-0.06906237;0.05700596;0.05822949;0.031830017;-0.19834754;-0.04785667;-0.028227614;0.01675446;0.09399379;-0.04512386;0.025550298;-0.07693745;-0.01716633;0.04536856;-0.042180933;0.14980356;0.03193456;0.14730145;0.04145584;-0.07668566;0.09212961;0.06378508;0.087261476;-0.09484462;0.036171142;-0.04008551;-0.23962674;-0.18793607;-0.047366478;0.026211888;-0.025340358;0.022959642;0.048325356;0.16765897;-0.17719595;-0.042864885;0.13483937
-0.18381418;0.07127211;0.09704065;0.1275117;0.17245165;0.019652253;0.114289895;-0.21988457;-0.020979358;0.046356484;0.084912494;0.2147076;-0.47809625;-0.11033617;-0.039917372;-0.16827331;0.10199245;0.024119483;0.045773737;0.066788115;0.024521584;-0.24446815;-0.029514136;-0.11569701;0.03173553;-0.0926178;-0.06869364;-0.2803737;0.124387905;0.11693829;-0.028325591;0.070034154;-0.03042609;-0.0507784;-0.18290296;-0.012333845;0.14174552;-0.081350505;0.11196926;-0.15280429;0.12073148;-0.17459123;0.010739257;-0.10894324;-0.19575384;-0.034507252;-0.10620792;0.315526;0.074682645;0.09020323;0.11784343;0.0027310506;-0.06030852;-0.06670028;0.14325382;-0.16971396;0.10312647;-0.09215271;0.00939609;0.061668314;-0.006171024;-0.12828712;-0.12753485;0.034467608;-0.17211404;0.053474963;-0.03621936;-0.018280711;0.23012511;-0.08611752;0.04104063;0.1419406;0.10760353;0.07141256;0.01986586;-0.14318207;-0.004391144;-0.07605218;0.07128231;-0.00038170005;0.056301083;-0.058169022;-0.19872612;0.17008626;0.04687296;-0.09675189;-0.0909992;-0.18281145;0.040098596;-0.12578963;0.062352367;-0.03816311;-0.02391848;-0.0068324283;0.16139868;-0.017853724;0.10088579;-0.11021596;0.085835874;-0.048020754;-0.09349921;0.18057516;-0.09214161;0.00027109007;0.055044316;0.10974559;0.14898287;-0.10167293;0.12997238;-0.23263623;-0.2043123;0.1743588;0.07346118;-0.0038497075;0.16380438;-0.09846505;0.07560478;0.051241376;-0.053004194;0.012656196;-0.2097416;0.015594736;0.0714342;0.06111905;-0.039791543;0.03762194;-0.084740154;0.16866311;0.0015478035;0.08194472;0.16882439;-0.023132173;-0.025289455;-0.06780735;0.037994344;0.047388293;-0.04201876;0.1762154;-0.14778118;-0.08101625;0.061086126;-0.08444522;-0.050644998;0.005314518;0.09527776;0.01463257;0.10613341;0.14142552;0.16741699;-0.1469507;-0.09513673;0.13146804;-0.12855534;-0.015639361;0.013362566;-0.070996895;0.012734508;-0.08932461;-0.036236685;0.009110769;-0.18129699;0.07026233;-0.06960252;0.0035515602;0.040702518;-0.082534045;0.0291384;0.018208694;-0.061677188;0.07539316;0.055758562;0.17529424;-0.069489;-0.09813547;0.016143624;-0.0062592765;-0.001090252;0.052124374;0.13052222;-0.14862359;-0.04061347;-0.10882071;-0.17145114;-0.052930117;0.12761305;0.12643598;-0.080941476;-0.08782261;0.020241845;-0.20417184;-0.11311717;0.004410309;-0.0514178;-0.10125003;0.16751789;0.05442172;0.080169;-0.0072627766;-0.16382097;0.06377704;-0.05760936;0.15988483;-0.15222552;0.056241773;-0.29096073;0.11286537;-0.10139118;-0.052853264;-0.06344766;0.058300722;0.028402504;-0.29869083;-0.0381233;0.01548274;0.2758846;-0.03303015;-0.01129041;-0.054561146;-0.16691248;0.07753027;-0.00766444;-0.01958189;0.042123936;-0.08745859;0.06051984;-0.16186272;-0.047976006;-0.05265703;0.11692711;-0.023719808;-0.08484042;0.08680399;0.1549624;0.16345271;-0.11655977;-0.076074004;0.009678317;0.014380223;-0.06585823;-0.06084527;0.019818392;-0.2507551;-0.0055160765;-0.0044895057;-0.16698447;0.07313013;-0.121410966;0.129452;-0.06731892;0.011403786;0.017271737;-0.0132406745;0.08669788;-0.026454758;-0.19155636;0.073089264;0.01872725;0.011179375;-0.03915742;0.0062623476;-0.074399754;-0.021066258;0.10992261;-0.0071685603;-0.077585764;0.10972075;-0.18694825;0.11938647;0.016307732;-0.12708858;0.08532217;-0.0927451;0.04963607;0.09836748;0.2926113;-0.022313762;0.095588215;0.1264616;0.005929321;0.111504;0.01697652;0.018243069;0.088629454;-0.0268784;-0.087218724;0.13129821;-0.09669622;-0.11212302;0.02372742;-0.022688273;0.027311778;-0.07299497;-0.095958196;-0.1930292;-0.13706246;0.11953781;0.07453305;-0.008228094;-0.01491324;-0.09575515;0.041047752;0.122926004;-0.033533517;-0.101997614;0.19859481;0.07026337;-0.04106047;-0.019508017;-0.2264342;-0.08668924;-0.15667275;0.014121091;0.081541836;0.044637244;-0.06297457;-0.024671782;0.04498401;-0.06438129;-0.001875609;0.035903618;0.0791357;-0.05528674;0.10242687;0.20213266;-0.07797001;0.13592906;0.04014636;-0.10450109;-0.024100062;0.30547562;0.08867065;0.11617431;0.016734425;0.045123477;0.10539271;0.045729183;0.23685549;-0.005426657;0.016156185;0.00900297;0.043594453;-0.17304194;-0.19711463;-0.030127425;-0.011316729;0.13687868;0.08925052;-0.25632933;-0.012803257;-0.093995206;-0.052254308;-0.16762581;0.07768209;0.08879916;-0.016163262;0.0023694362;0.014398306;-0.18569183;-0.012559466;-0.08786953;-0.20067565;0.10543146;0.13671343;0.03663654;0.23398858;0.04868676;0.0569622;-0.09639889;-0.13607097;0.047118727;0.07135596;-0.1696437;0.13210607;-0.22727838;-0.045542654;0.042438015;0.08087063;-0.014741302;0.042779982;-0.10950728;0.16035505;-0.009590065;0.008488123;-0.024537936;0.10865048;-0.010879419;0.044933144;-0.017535852;0.10531684;0.002302526;-0.0055361493;-0.05529708;-0.0060789404;-0.009295193;-0.038616776;0.100690745;-0.041338775;-0.091021195;-0.06904819;-0.043618232;0.11531162;-0.12289056;-0.16001637;0.006097491;0.08113553;-0.023163835;0.107941516;-0.14270498;0.010673562;-0.16372281;0.027115235;-0.05895935;-0.16334133;-0.012648354;-0.08570725;-0.15581945;-0.10701421;-0.027063357;-0.13071018;0.1714681;-0.048312172;-0.1680817;-0.1173806;0.055273455;-0.025326919;-0.044077143;0.04907583;-0.12938763;-0.050579827;0.09177054;0.18799534;0.09078321;-0.06716153;-0.047886495;0.010578539;0.07059981;0.0641785;0.02822718;-0.007158281;0.040023804;-0.18673183;0.074274555;0.06675464;0.018919291;-0.065566815;0.30284864;0.14538077;-0.07313438;0.057733588;-0.34580606;0.047694158;0.04718512;-0.007869873;0.17328781;-0.20577833;0.086135514;-0.04691645;0.07634651;-0.13496508;0.20980039;-0.039234377;-0.06033192;-0.0027103082;-0.11242614;-0.03324942;-0.06525631;-0.07840729;-0.17867795;0.0155927595;0.15789385;0.0621748;-0.18725906;-0.058725473;0.038946103;-0.028884346;0.027192283;-0.007014857;-0.023514075;0.07532469;-0.18955718;0.031628523;-0.06413673;-0.1775868;-0.0042237365;-0.17489916;-0.1473878;-0.018267533;-0.105084166;-0.010481196;0.1781552;-0.077894315;0.14307362;0.23018196;-0.04670939;-0.07566007;-0.12585495;0.104779646;-0.043250065;0.106167495;-0.13798292;0.12437156;-0.085596435;0.1083918;0.06453773;0.078736626;-0.0079651;-0.02165029;-0.18772274;-0.14180593;-0.08118448;-0.07296869;0.06382033;0.104317784;-0.38318658;0.026581595;-0.0054534753;0.26527652;-0.2501166;0.044495966;-0.015338406;0.054982126;-0.06434967;-0.009668424;-0.028665092;-0.099327035;-0.02715263;-0.0012808577;0.0899061;-0.07379599;-0.019874249;-0.11814407;-0.077734165;-0.18168347;0.043572333;0.014419362;-0.002643755;0.10969533;0.025438055;-0.108599745;-0.12181901;0.17380327;0.08478396;-0.042129;-0.19836096;-0.07073257;0.20336561;0.10319313;0.08093057;0.06850626;-0.06275439;-0.16700946;0.09990907;0.0777471;0.02023293;0.17332007;-0.097373635;0.20403929;-0.06440304;-0.08163475;0.08659457;-0.016918715;0.087141536;-0.051137257;-0.0043578763;0.05851437;-0.22243726;-0.13370089;-0.11609819;0.13398294;-0.15269251;0.0718429;0.053141177;0.106534034;-0.16236952;-0.027892219;0.16748881
-0.091910824;0.09538895;0.11397316;0.002913995;0.13290247;0.07819444;0.15686646;-0.0975852;-0.041718125;0.097893044;-0.0066782646;0.213808;-0.3768237;-0.07391143;-0.045938704;-0.14301704;0.04111455;0.042214356;0.11755672;-0.010982619;0.035073638;-0.06541327;-0.013093676;-0.03773686;-0.028732479;-0.045986876;-0.051764738;-0.19688542;0.08746846;0.15091012;0.047015943;0.12899756;-0.033309363;0.071728855;-0.05320248;-0.03512375;0.014092532;0.007837759;0.16350058;-0.11467455;0.14642532;-0.0833982;0.07491338;-0.028652465;-0.1800016;0.080486126;0.015060319;0.3146661;0.057633303;0.1746164;0.20490293;-0.066805884;-0.013526576;-0.05738905;0.16138855;-0.13937566;0.061609507;0.00082845974;0.092220284;-0.0018061632;-0.0407901;-0.15618987;-0.01697297;0.110801496;-0.13707156;0.054466728;-0.047414277;-0.012482976;0.072705865;-0.16169833;-0.04158744;0.048603807;-0.0038960057;-0.04660273;0.013491097;-0.03547541;0.048221488;-0.07254766;0.16247807;-0.0031915258;0.09162363;-0.14671746;-0.0667846;0.022311596;0.025323667;-0.18866396;-0.27822828;-0.22884409;-0.04004078;-0.014770964;-0.026248008;-0.09414628;0.043335944;-0.054409448;0.12416157;0.08809042;0.0487383;-0.008308586;-0.044266995;-0.003802056;-0.20761284;0.05969857;-0.07581756;0.02151562;0.016871253;0.07963914;-0.0018704205;-0.11619443;0.050281648;-0.18314289;-0.083044074;0.17527077;0.08699329;0.15697312;0.12873574;-0.12647505;-0.040490106;0.07113953;0.07260568;0.00046104912;-0.14957784;-0.015187284;0.023733445;0.04176897;0.02693022;-0.024911676;-0.11116348;0.09563757;0.023948474;0.1208308;0.1977277;-0.12860762;-0.035032686;0.028887097;0.078591675;0.1266882;-0.17063376;0.20994681;-0.254559;0.013604729;0.1049975;-0.036584407;-0.074738935;0.12184495;0.048925098;0.043254606;0.06260356;0.13125865;0.1063304;-0.016219584;-0.11434829;0.041486595;-0.12995838;-0.019012475;-0.057939563;-0.056362234;-0.002560408;-0.19498228;-0.11134576;-0.07580107;-0.21425639;-0.018027764;-0.06806701;0.06589197;0.06715251;-0.06846271;-0.05010071;0.03020309;0.04918126;0.07823664;-0.07092469;0.10392486;-0.0149804335;-0.04401596;-0.052814785;0.08303212;-0.04922839;-0.043045476;0.07143985;-0.10714633;-0.0021349208;-0.050470464;-0.1916458;0.031149225;0.050020203;0.21600656;-0.17237778;-0.07885171;-0.029892772;-0.20667075;-0.13574085;0.05139731;-0.114048734;-0.0025702345;0.16413172;0.005628178;-0.018733557;-0.011201711;-0.168291;-0.02555081;-0.045950852;0.14637274;-0.18941993;0.019299401;-0.18861577;0.0983619;-0.15600032;-0.015572371;-0.11522519;-0.064966545;0.0625027;-0.31630272;-0.17645583;0.12072738;0.2317623;0.06904085;-0.042493887;0.14099889;-0.17396215;0.05846303;0.15640831;-0.038878586;0.028788079;-0.054820385;0.06888582;-0.00025703447;-0.13606872;-0.048938803;0.068124875;-0.02741376;0.009651844;0.047280777;0.08951415;0.06444346;-0.15071765;-0.11330713;0.11104205;-0.010217687;-0.17395127;-0.14727114;-0.04964603;-0.13214353;0.12840474;0.0511552;-0.118356526;-0.01291538;-0.044570997;0.006891265;-0.10233587;0.0019572212;0.0009547968;0.005189076;0.006321409;0.004553257;-0.10791702;0.08081864;-0.06503167;0.09217469;0.12359629;-0.010907092;0.04285456;-0.032799393;0.07869306;-0.03350737;-0.039153233;0.12980866;-0.16717257;-0.0108822305;-0.13361603;-0.086318344;0.13940145;-0.14096743;0.020598939;0.061799273;0.31473443;0.051183548;-0.0036723032;0.08362174;0.09030348;0.0510138;-0.023013009;-0.09277242;-0.019450467;-0.045345917;0.0067205485;0.13010703;0.0416148;-0.011581775;-0.009309712;-0.038260426;-0.0088192;-0.006702603;-0.02867435;-0.23016228;0.04497695;0.101840965;-0.023725713;0.11363737;-0.032234553;-0.0146669615;-0.06820914;0.17764868;-0.011489243;-0.12662259;0.28131127;-0.0008450958;-0.080726154;-0.03889163;-0.17826706;-0.068346165;-0.20769678;0.050098307;0.21027137;0.16725443;-0.08501295;-0.0044536465;0.08362415;-0.024937525;-0.027456284;0.17707981;0.1102974;0.019763226;0.10742136;0.13074844;-0.062432937;0.08209097;-0.005169776;-0.13059044;-0.032359786;0.26762867;0.08858282;0.11077325;0.033346627;-0.0445389;-0.009991416;0.10209068;0.17384595;-0.00012767443;0.06179417;-0.078096196;0.009796604;-0.06420444;-0.16706994;-0.03427277;0.005900102;0.17024511;0.17501567;-0.2118506;-0.068643935;-0.056944385;0.03959961;-0.13940953;0.007707878;0.09939324;-0.0426383;0.04298037;0.07078239;0.00632266;-0.085699834;0.0020272657;-0.124827884;0.208822;0.12606348;0.074545294;0.15480685;0.18202856;0.17912681;-0.11713975;-0.09791592;0.09517623;0.13174468;-0.2345494;0.085635856;-0.18604964;-0.13493027;-0.0021858802;-0.024798358;0.09748236;0.04198767;-0.07835618;0.055842858;0.008136498;0.039350435;-0.10159822;0.16024208;-0.06880926;0.13040273;0.0908553;0.041165024;-0.06696525;-0.039994735;0.011218865;0.177749;0.04566744;0.08588075;0.030859303;0.11776232;-0.06335569;-0.06564023;-0.10905235;0.016647752;-0.085803874;-0.13971911;0.031197077;0.15111718;-0.09037633;0.034502145;-0.14211163;0.006796968;-0.06670873;0.0772985;-0.07976638;-0.17758134;-0.09238578;-0.13618724;-0.21078144;-0.07148723;-0.06938971;-0.12502837;0.2757911;-0.15676425;-0.016664995;-0.053622276;0.17295332;0.09097849;0.005141711;0.00083610095;-0.06474467;-0.10092749;0.08311077;0.16966882;-0.044616822;-0.043234356;-0.049754567;-0.07261784;0.09543816;0.13551371;0.05179864;-0.096369274;0.050849494;-0.13895729;0.0030844582;0.1654229;0.121888675;-0.05430718;0.23938914;0.122264534;-0.04791684;0.013555544;-0.2368216;0.007362328;0.00028123974;0.04904676;0.12890294;-0.10019409;0.11971479;0.005622092;-0.00027497055;-0.15486859;0.18586673;0.001631219;0.036117483;0.051692657;-0.08221838;-0.10493615;-0.043703746;0.011785832;-0.04851679;-0.07621547;0.13666418;-0.03498873;-0.0010376859;0.15418689;0.10218182;0.009051461;-0.02783594;-0.04527297;-0.019654877;0.03213152;-0.15144885;0.03191014;-0.08555228;-0.3189074;0.06286441;-0.17803179;-0.11980521;0.055396214;-0.18515623;-0.00064441474;0.16912901;-0.15461156;0.0019152754;0.15704827;-0.03839375;-0.029275704;-0.10864936;0.0013574893;-0.010134163;-0.048688415;-0.03860428;0.06573074;-0.11667699;0.055477645;-0.024639176;0.15577145;-0.13969593;-0.02683985;-0.18557598;-0.096974686;-0.006181662;-0.032757603;-0.008047771;0.024164414;-0.24786317;0.11750218;-0.06395444;0.15516546;-0.090620615;0.020373173;-0.08960515;0.11812679;-0.10326676;0.06957381;-0.04907323;-0.04368795;-0.075147316;0.09041157;0.115999065;-0.13050525;0.015329172;-0.11738221;0.040956482;-0.17282344;0.10375437;-0.03948206;-0.041911855;0.06980081;0.02673764;-0.23287876;0.003206933;0.09913611;0.07851203;0.01179755;-0.20836772;0.079104654;0.07151779;0.08914822;0.08501551;-0.043906834;-0.039365984;-0.100147344;0.00054878264;-0.047565732;-0.023681676;0.25228566;-0.048197083;0.13390094;0.018686617;-0.14393187;0.12452673;0.12713307;0.18855587;-0.095039874;-0.029279625;0.14379768;-0.20496142;-0.16269858;-0.13156626;0.057551302;-0.055720944;-0.025379635;0.057369817;0.23865958;-0.14582098;-0.040311843;0.10485544
-0.096146725;-0.05959439;0.054265108;-0.09865118;0.05774533;0.011013039;0.07996024;-0.108238615;-0.06550959;0.14445324;0.012406426;0.32157624;-0.50278145;-0.16127218;-0.1468197;-0.090742216;0.10456443;0.08764457;-0.023375744;0.050652202;0.00912673;-0.048016187;-0.028498698;0.037605055;0.12403095;0.007737033;0.13842711;-0.21820913;0.16462523;0.117650576;-0.12565689;0.24215817;0.038204316;-0.029127227;-0.079493195;-0.1087823;0.015498398;-0.013149464;0.058435354;-0.09626234;0.11667656;-0.010768653;0.053852662;-0.08096997;-0.15232202;0.03228589;0.0027051028;0.2809988;-0.069161415;0.12829228;0.02949846;-0.01990249;-0.040058892;-0.118869394;0.17026643;-0.05051968;0.22009139;0.020748075;0.14041321;0.12219955;-0.02042127;-0.11368756;-0.084768005;0.08953308;-0.13166933;0.10484117;0.050447006;-0.009432556;0.08775338;-0.14392403;0.007610148;0.11848172;0.059501387;-0.061010253;-0.044202723;-0.009987793;0.02891415;-0.03744107;0.0750602;-0.07354437;-0.042416118;-0.23471652;-0.0787605;0.12241487;0.05876692;-0.097590975;-0.16544749;-0.12458137;-0.050808247;-0.07050541;0.0026837578;-0.098203294;-0.078972995;-0.13636668;0.06678462;0.23803703;0.0367952;-0.054734636;0.08775548;-0.11113309;-0.04275502;0.101770304;-0.046744734;-0.06389033;-0.06894644;0.17547773;0.11471545;-0.1276011;0.05080218;-0.08866685;0.029389352;0.18355274;0.114579216;0.04016258;-0.014476431;-0.114883624;-0.05724654;-0.07145027;0.042656995;-0.07914485;-0.045916192;-0.046010725;-0.104570255;0.07111246;0.10334644;-0.08766004;-0.07640733;0.13002057;0.17938225;-0.00014917341;0.12343262;-0.07155843;-0.12684444;0.027149012;-0.009077224;0.0743334;-0.123275384;0.05736927;-0.111151055;-0.061299052;0.11369631;-0.03367181;-0.15714243;0.04231918;-0.023625018;-0.0012033698;0.14703493;-0.003481432;0.18323493;-0.1421105;-0.14276534;0.027048301;-0.1627953;-0.082592905;0.02071816;-0.0040012235;0.09417759;-0.16694993;-0.06543917;-0.07034232;-0.20020959;-0.0014834444;-0.049707443;0.0017432399;-0.06189832;-0.062903844;-0.054510303;0.085365534;0.13351426;0.14131811;0.17705956;0.20884714;0.048917994;0.06725629;-0.055964243;-0.0124810655;0.048461936;0.023868423;0.036431074;-0.022889787;-0.054142993;-0.030240163;-0.07476372;0.077541225;0.16125341;0.24012662;-0.19367288;-0.29697412;0.13542663;-0.10856182;-0.21685266;0.09951278;-0.17925653;-0.015597234;0.10217818;0.15910093;-0.05639695;-0.07156092;0.017530195;0.06459246;0.036498502;-0.029200116;-0.0419291;0.08316303;-0.19732423;0.0053890366;-0.08244172;-0.11538249;-0.08461085;-0.0918194;-0.09787844;-0.24596943;-0.035458136;0.034747552;0.1313198;0.054643996;0.013307221;-0.015826719;-0.15354134;-0.017509444;0.077125885;-0.024988957;0.07707729;-0.0914605;-0.025169967;-0.02399018;0.053107128;-0.009072073;0.061184783;0.17250854;0.07688649;0.1410704;0.061719242;0.07834105;-0.024173586;-0.1844626;0.06651591;0.06954633;-0.15439026;-0.10187855;0.06201677;-0.35213923;0.16023587;-0.010126914;-0.08173079;0.11164243;-0.07826484;-0.067535184;-0.07803303;0.032317244;-0.021184828;-0.010817372;0.07493159;0.14293912;0.026222091;0.15332307;-0.09282692;0.05307589;0.11523727;-0.03910574;0.03125804;0.13812634;0.11165854;0.05347155;-0.097799554;0.10389373;-0.028996632;0.05048506;-0.020936562;-0.14128722;0.030486435;-0.044740405;0.25182074;0.10864933;0.22560447;0.11587332;-0.021867434;-0.07749491;0.1234387;0.081630796;-0.019962275;-0.031772073;-0.045995038;-0.09205849;-0.051486433;0.17660934;0.10153553;-0.061177343;0.036920194;0.10645745;-0.024493586;0.054686323;0.008550749;-0.21913542;-0.020617576;0.08405953;0.026273837;0.08434413;-0.07947524;-0.17190002;-0.022598146;0.0014626205;-0.02738425;0.06293097;0.21144788;0.03922085;-0.16624053;-0.065377116;-0.24921133;-0.022415949;-0.13632755;-0.06845559;0.236591;0.19537707;-0.10279401;0.017909678;0.009184475;-0.078931205;-0.05548604;0.17575799;0.15433957;0.077353396;0.12687704;0.037740305;-0.07495066;0.15648918;-0.0871287;-0.039955728;0.10734182;0.09371553;0.17806816;0.1813517;-0.07952043;-0.110279694;0.00029528455;0.11578513;0.23775724;-0.12047896;0.10079198;-0.040536903;-0.019985858;-0.023443162;-0.18049033;-0.070316836;0.033766422;0.10221981;0.15882942;-0.13454492;0.09482013;-0.054397997;0.015097792;-0.1577869;0.04123773;0.18032694;0.021762824;-0.119318016;0.0896828;-0.052316636;0.044683155;0.086555764;-0.14668645;0.099969216;0.21030012;0.06940649;0.19929765;-0.014125132;0.009686082;-0.17632163;-0.09569243;-0.003369528;0.10208187;-0.25246984;0.14792523;-0.18475956;-0.061868556;0.03534777;0.07240965;0.047609143;0.05329732;-0.13694838;0.106630854;0.07298633;0.011589134;-0.13241042;0.010723637;-0.14206593;-0.019236455;0.05912981;0.12110986;0.083175585;0.08287158;-0.081309736;0.12466266;-0.06777483;0.04151069;0.03191957;-0.012361399;-0.019283712;0.12161457;-0.017058862;0.017252145;-0.18782799;-0.06148499;0.046209596;0.04035701;-0.19849473;0.015447986;-0.09624058;-0.00099712;-0.24127242;0.09405153;0.018085612;-0.15471281;-0.02882463;-0.12740949;-0.07757819;-0.11296208;0.085388504;-0.026024725;0.22998768;-0.24632975;0.002516123;-0.05535026;0.15619528;0.05535244;0.024740258;0.024373207;-0.078234755;-0.06067264;0.012235051;0.1668813;-0.020468147;-0.15663365;0.12039046;-0.045114048;0.07062881;0.19811009;0.1907403;-0.20923229;0.15833114;-0.18695953;0.10826983;0.068586685;0.2616589;0.025394376;0.2701254;-0.02599761;0.0027701096;0.1730492;-0.22500019;-0.053869676;0.046365;0.09372509;0.1474684;-0.081460394;-0.0035279335;-0.03674824;-0.08213146;-0.309631;0.19676454;0.025474774;0.0008102043;0.01304958;-0.18009265;0.054154523;0.04192994;0.005320507;-0.05103338;0.077847406;0.18397886;0.019224672;-0.08614839;-0.00669246;-0.07278413;-0.033353288;0.066889286;-0.024223724;0.16458274;-0.11352887;-0.098436035;0.006415809;-0.16138522;-0.24101155;-0.10716527;0.00010212479;-0.1255627;-0.021831952;-0.036851313;-0.024735438;0.1503084;-0.21436563;0.19457811;0.15360238;0.0031392279;-0.03717448;-0.0835372;0.18788636;0.029238204;0.0944089;-0.015799912;-0.0044326046;-0.12116357;0.049607165;0.014062247;0.06939483;-0.100528225;0.036257703;-0.1588576;-0.0007994763;-0.08977321;-0.08841452;0.11091809;-0.046087656;-0.27216637;0.079503775;0.06271855;0.15354517;-0.1436286;0.07758368;-0.12631884;0.093067154;-0.06573185;-0.034906436;-0.02902184;-0.1673541;-0.03127213;0.062617235;0.10464018;-0.076060615;-0.23650369;-0.22739568;-0.05892968;-0.17104882;-0.032477595;0.11118079;-0.011384551;0.098485254;-0.08208592;-0.35756746;0.021704894;0.166958;0.030594263;-0.015671996;-0.21453969;-0.053802267;0.11635626;0.12847358;-0.05558674;-0.025899505;0.010069935;0.04728706;-0.015597104;-0.057993393;-0.07608033;0.26212785;-0.09847216;0.0012521755;-0.030875463;0.013263251;0.06622313;0.0436414;0.18030313;-0.029154442;-0.10738221;0.069643706;-0.11480515;-0.17332539;-0.15940125;0.0050277915;-0.09322746;-0.012659246;0.062219944;0.21425864;-0.25371101;-0.07556236;0.15887183
-0.074532524;0.055843282;0.07785162;0.04248814;0.10145911;0.02064676;0.019059615;0.06963456;0.05491442;0.21025896;0.1215423;0.20848621;-0.39799392;-0.117816806;-0.0207472;-0.13662905;0.03248604;0.047257643;0.032019574;0.030587843;0.010964633;0.033070188;-0.016097259;-0.012425871;-0.035527308;0.0070042745;0.059243333;-0.26302904;0.18237522;0.07036096;-0.07356645;0.08566158;-0.04949933;-0.08558196;0.022552464;0.03814108;-0.06762109;-0.08387529;0.022119893;-0.046265006;0.11097819;-0.15555605;0.010770503;-0.07534855;-0.06726559;-0.013983461;0.03067234;0.2120849;0.123138465;0.2510627;0.009816645;0.005518036;-0.15329066;-0.14007357;0.103658654;0.05113344;0.20619072;-0.02580016;-0.03709162;0.03731953;0.09016683;-0.10032592;-0.09743209;0.11361402;-0.2786151;-0.06976748;0.01905138;0.05778359;0.07473946;-0.1367814;0.09579154;0.050336286;0.009390445;-0.084456705;0.036530733;-0.030556649;-0.04381641;0.03653261;0.05524438;-0.16721696;0.050495118;-0.12270951;-0.12939006;0.13946411;-0.07586376;-0.14493145;-0.1558404;-0.12223962;0.033527736;0.016387427;-0.014681183;-0.1318486;-0.017669447;-0.088065;0.15509745;0.0605712;0.1419594;-0.050914116;0.067299694;-0.06374004;-0.03556605;0.16358614;0.07487372;0.049251195;0.10836471;0.22055988;0.10475004;-0.06505313;0.12119122;-0.10294057;-0.0894537;0.0522528;0.15860194;0.05408921;0.120747566;-0.08844939;0.07597555;0.046042867;-0.022825198;0.02739093;-0.087756604;0.024899537;-0.06010445;-0.015441542;0.0706469;-0.045752514;-0.06182993;0.08762548;0.14981878;0.07865873;0.10912562;-0.11291182;0.006017475;0.08546089;-0.0005945477;0.090592735;0.02707213;0.05975578;-0.11584361;0.09705109;0.03260357;-0.16079816;-0.09459493;0.04657465;-0.048154656;-0.12487723;0.1263048;0.035029944;0.14278443;-0.19660825;-0.029897003;0.07297033;-0.116431765;0.012093614;0.046423215;-0.07218734;-0.030876284;-0.13627718;-0.06505501;-0.02057592;-0.18096723;0.05810757;-0.0041732914;0.03041467;-0.008386695;0.023206512;-0.08877592;0.07409683;0.091953084;0.100953676;0.08341646;0.11446989;-0.046678174;-0.047375757;-0.12118998;0.033694446;0.03562558;0.026600301;-0.027589759;-0.09821104;-0.1587588;-0.11659541;-0.15537028;-0.05643048;0.09105853;0.16797853;-0.18571295;-0.1962135;0.05961803;-0.09965114;-0.22165239;0.15472743;-0.077185184;-0.08323443;0.10729095;0.03437554;0.049445495;-0.14965582;0.0069671003;0.10828929;0.05448486;0.13873914;-0.038200848;-0.00456253;-0.21479417;0.10362615;-0.054174077;-0.0362034;0.008314085;-0.05042797;-0.01253411;-0.22563858;-0.0966434;0.02608147;0.25904536;-0.062375784;0.04328252;-0.014408145;-0.21759918;-0.021921547;-0.0063338694;-0.17179285;-0.024706569;-0.015992759;-0.0010237898;-0.13688365;0.029674266;-0.006676912;0.079914086;0.065844595;0.04194773;0.1458116;0.0601919;0.1379353;-0.1270699;-0.059616964;0.08494843;-0.00054015825;-0.16735463;-0.14076851;-0.07920968;-0.17183551;0.08198554;-0.036430664;0.019092614;0.077041686;-0.17635196;0.116441205;-0.09441329;0.11584705;0.012407104;0.093251236;0.15876998;-0.045912128;-0.101167366;0.2310169;0.020913487;0.06811083;-0.007395399;0.07735778;0.019424194;0.14176227;0.00087321707;0.04032572;-0.033514023;0.10360253;-0.018359493;0.0620145;-0.09832037;-0.09315738;0.13899392;0.027638089;0.13719986;-0.0012398367;0.13975418;-0.037518732;0.057704095;-0.008665517;0.0995872;-0.031096596;-0.04726889;-0.08417143;-0.023598462;-0.10956189;-0.010862993;0.20258686;0.011346306;0.0052179643;-0.009295649;0.12851745;0.0054227486;0.11770892;-0.078440115;-0.16011375;-0.11143556;-0.064667344;-0.025642637;-0.040187664;-0.06357076;-0.0873825;0.0261367;0.13536787;-0.026293;-0.041619547;0.22444907;-0.034302346;-0.010109758;0.027092848;-0.2734307;-0.040882487;-0.032669127;-0.017693099;0.1587176;0.0861334;-0.09916189;-0.03257071;0.12135415;-0.03448846;-0.014729774;0.112159826;0.048929945;-0.0688427;0.13822994;0.064025424;-0.13516438;0.20808312;0.059307925;-0.02289697;-0.02896925;0.14916119;0.06432245;0.051586356;0.07786396;-0.035102796;0.009299493;0.14048855;0.11835621;-0.036946606;0.041958217;0.0037789273;0.071525685;-0.09302955;-0.078465275;-0.08273785;-0.12327542;0.14850573;0.15094046;-0.1869892;-0.04052138;-0.10399479;0.068520844;-0.070877485;-0.0032952598;0.13104068;-0.031978726;0.031448897;0.060292102;-0.023562524;-0.027737275;0.042092096;0.047487378;0.08683831;0.05560248;0.04963412;0.07539705;0.08487094;-0.015704513;-0.1377217;-0.046494685;0.08935787;0.105816945;-0.10600319;0.22344457;-0.10098577;0.03182648;0.058203276;0.12414849;0.08041028;0.005083396;-0.07592817;0.04252595;0.027227689;0.02147727;-0.16085379;0.1115539;-0.108752675;0.005010504;-0.013455946;0.18108056;-0.0025434708;-0.007520237;-0.046711944;0.13661948;-0.007460919;-0.011707894;-0.005364478;0.030671103;-0.14534731;-0.0021363401;-0.008732063;0.00659973;-0.1525869;-0.070185125;0.08332497;0.10119844;-0.22370557;0.039091405;-0.02053215;0.12122977;-0.119699426;0.11938663;-0.0023583898;-0.14917578;-0.16377863;-0.093327574;-0.16532919;-0.11924419;-0.014451828;-0.039740533;0.3199699;-0.26520765;-0.037874434;-0.12291418;0.13580167;0.0025412485;0.041521195;-0.046015345;-0.008238454;-0.008435004;0.0995372;0.060663573;-0.023986569;-0.16087745;-0.023302475;-0.06847537;-0.027981194;0.13003793;0.1706811;-0.06496736;0.13633268;-0.18034904;0.014837933;0.1137749;0.18142337;-0.01562909;0.1531881;0.0131407445;-0.059430074;0.11688558;-0.2750079;-0.011004942;-0.044033833;0.14836214;0.15613036;-0.0022718955;0.055277277;-0.05363296;-0.08215481;-0.23995048;0.15010431;-0.07479627;0.080579594;0.11292073;-0.080175936;-0.068296656;0.014329405;-0.07786266;-0.0036099458;0.07124769;0.25133488;0.07197316;0.037875265;0.05167247;-0.13571058;0.04157797;0.031862527;0.069225825;0.016252387;-0.030074524;-0.08521792;-0.025387961;-0.21999559;-0.17874967;-0.03269444;-0.123091444;0.03252268;-0.034221962;-0.049879823;-0.09506253;0.15519698;-0.21914266;0.17174129;0.054726884;0.051419437;-0.10893855;-0.17462622;0.087278776;0.07444114;0.045144893;-0.122202136;0.07013987;-0.037253425;0.040181633;0.07059677;0.15140349;-0.03898483;-0.0276874;-0.032621216;-0.07148345;-0.062767096;-0.1414638;-0.020971641;-0.030767858;-0.26728478;0.210061;-0.03334146;0.009214032;-0.108470686;0.04970078;-0.10994188;0.05035552;-0.04002484;-0.0014568607;-0.047033012;-0.06483577;0.03330931;0.01754107;0.13087921;-0.060741365;-0.100060835;-0.10553753;-0.019633133;-0.11378557;0.041934412;0.009071782;-0.0015393674;0.14702095;0.0011637239;-0.32084116;-0.059484016;0.10560215;0.028307226;-0.092018485;-0.14664026;-0.02811055;0.13380127;0.034289964;0.02857263;0.09353142;-0.0008587158;0.02091943;-0.040451597;-0.12006016;0.044267803;0.17714547;-0.10606037;0.12101372;0.015113458;-0.084040314;0.10012018;0.12634994;0.27974162;-0.07632963;-0.0043305284;0.011825862;-0.12267528;-0.033771683;-0.10956626;-0.027639186;-0.16798238;0.11905041;-0.050208334;0.09501633;-0.2986629;-0.07824911;0.13773955
-0.13451521;0.058318928;0.06512119;0.107028306;0.14451662;0.067230836;-0.0041254996;0.1318872;0.019141866;0.10040185;-0.012927914;0.14962292;-0.37156397;-0.17305705;-0.069385685;-0.170897;0.025408002;-0.029603323;0.05250936;-0.016919686;-0.13362564;-0.07238896;0.08846977;-0.05885143;0.006963405;-0.009125198;0.13675335;-0.22238944;0.17609818;0.16572656;-0.065066874;0.12398304;-0.0066707074;-0.08797411;-0.027037624;0.0063819974;0.10402834;-0.050409753;0.009987839;-0.012460688;0.11590277;-0.06588175;0.069914654;-0.008536571;-0.044138767;-0.064655334;-0.12360523;0.07581719;0.06807048;0.23111379;-0.023698315;-0.06595945;-0.029878886;-0.10363729;0.062629715;-0.022123171;0.19447128;0.087011196;0.07307356;0.04119552;-0.016923806;-0.11405812;-0.07572252;0.10350825;-0.2056653;-0.049119737;-0.008921719;-0.012370128;0.053815275;-0.22722688;0.04800733;0.050942015;0.07399653;-0.10252218;-0.0062968717;-0.1290424;-0.046831273;-0.035799865;0.110085405;-0.06382305;0.08341251;-0.19364113;-0.09218704;0.097665936;-0.008808282;-0.12694594;-0.27529192;-0.17216918;0.099575594;0.113728404;-0.012804679;-0.058040097;0.026463747;0.02298398;0.12435611;0.050715532;0.18742888;-0.078797884;0.042238805;-0.14672945;-0.10952073;0.13163069;0.122192666;-0.0007989533;0.07111523;0.2224406;-0.0059543815;-0.13975611;0.16707611;-0.12447775;-0.05541368;0.12392196;0.06342487;-0.024944548;0.05779858;0.014676951;0.069811575;0.09040397;-0.1032248;0.11264855;-0.12348577;-0.0818814;0.017048076;-0.043395497;0.045012362;0.014448119;0.038911123;0.1755665;0.1024427;0.023080995;0.08534178;-0.012665063;-0.011634602;0.08221923;0.06565583;0.11652135;-0.13301365;-0.008823729;-0.20482032;0.1362718;0.035077576;-0.08607674;-0.13143733;0.060899522;-0.0087484345;-0.020285947;0.035097703;-0.022651663;0.19166413;-0.22307694;-0.07076894;0.01332405;-0.11382512;0.032712817;0.031390894;0.08531779;0.03569856;0.00021898035;-0.07385647;-0.02708315;-0.12804206;-0.03541677;-0.004682534;0.08341347;0.022305608;-0.0058152913;-0.05133753;0.12772843;-0.05345504;0.12853555;0.07903222;0.017762575;-0.032652587;0.054982457;-0.12288396;-0.058129996;-0.069321565;-0.044992205;0.014465597;-0.104120836;-0.008976892;-0.14128117;-0.09818125;-0.020404626;-0.012968753;0.18828003;-0.06998741;-0.13612302;-0.074980475;-0.108916655;-0.13520859;0.13065384;-0.17820641;-0.010102525;0.08417373;0.1089732;-0.05517037;-0.0297381;-0.037675496;0.007534683;-0.00050626515;-0.014480938;-0.07040692;0.115308374;-0.2043058;0.019764243;0.015988164;-0.088690504;-0.10628193;-0.16545111;-0.12029373;-0.14127783;-0.042593;0.07097282;0.122739434;0.0069168955;0.12128247;0.10775008;-0.14293513;-0.045051;-0.025901271;-0.042949233;0.044927653;0.005156151;0.010751203;8.715217e-05;0.0013537281;0.019542705;0.030483833;0.11451041;-0.042825654;0.07100376;0.02679356;0.07578823;-0.14072736;-0.035325006;0.11252896;-0.05475013;-0.15323682;-0.1467997;-0.12887676;-0.24713874;0.015909018;-0.047374096;0.00946188;0.12299263;-0.052968923;0.028184794;-0.07227355;0.014000769;-0.10030939;-0.088192895;0.13185504;-0.049574446;-0.052138735;0.18263221;-0.048559822;0.015867235;0.13391392;0.019825652;-0.038635787;0.05981001;-0.012955228;0.12780955;-0.09471829;0.093703486;-0.07554617;0.097518474;-0.07413906;-0.11154574;0.13400199;-0.036827724;0.10799797;-0.012375505;0.13307978;0.04866196;-0.04158365;0.074509464;-0.022418467;0.054991875;-0.072733514;0.008790752;-0.05768957;-0.08847549;-0.019464258;0.042091496;-0.010023476;-0.13581645;-0.031789944;0.042785976;-0.05114021;0.094516195;-0.030911164;-0.23999646;0.008413107;0.028211122;0.053043224;0.06215758;0.017673451;-0.14112988;-0.004641714;-0.00027794778;0.06664518;0.025791017;0.24607247;-0.007555015;-0.08725235;-0.08330025;-0.24431951;-0.07365941;-0.15203921;-0.0154213;0.22516139;0.16055776;-0.039216712;-0.049134668;0.095307104;-0.0052840407;0.109057084;0.048080336;0.04498396;0.00036518188;0.009105693;0.042377237;-0.10816712;0.19169779;-0.07956621;-0.055057872;0.16794716;-0.008783143;0.116954915;0.010864793;0.004524564;-0.17296001;-0.010729472;-0.017791187;0.10109577;-0.046578236;0.1714197;0.011990917;-0.008796879;-0.14454338;-0.17919917;-0.06134889;-0.03990828;0.07722873;0.22414659;-0.22569789;0.049909405;-0.046513535;0.0105174;-0.09411265;-0.10280768;0.14651735;0.046397995;-0.07968786;0.0153322555;-0.04581075;-0.16679761;0.08609772;0.09257312;0.106512904;0.2050187;0.11517747;0.080310814;0.016871193;0.10185946;-0.19481464;-0.09747021;0.10116823;0.14434502;-0.17384991;0.22300571;-0.15859392;0.07489855;-0.022207865;-0.0027330609;0.12724225;0.0048794993;-0.13690965;-0.09149715;-0.017823393;0.10242534;0.0036954414;0.026233573;0.039463583;-0.09990918;0.057297695;0.18213062;-0.08693755;-0.013474674;-0.08573304;-0.0030920072;0.0873536;0.04152407;-0.009707595;0.08967371;-0.10989398;0.018409695;-0.01913068;-0.059042487;-0.028139148;-0.16668312;0.054494306;0.1361433;-0.10560171;0.00021727326;-0.103239335;0.11324223;-0.25626987;0.112952985;0.012747631;-0.1264077;-0.11068863;-0.07290918;-0.14859366;-0.08814675;0.03400343;-0.10722155;0.19871761;-0.2044541;-0.12788866;-0.12230504;0.106622696;-0.0380305;-0.015746871;-0.030282883;-0.12604378;-0.004593608;0.06715082;0.17252475;0.0039716456;-0.20499176;-0.015308767;-0.11225603;0.037341993;0.1811968;0.15032177;-0.10827592;0.1457054;-0.082102686;0.015248417;0.19991845;0.2984473;-0.09890943;0.17575759;0.017328488;0.01783307;-0.0076610125;-0.32676855;0.05338383;0.056801777;0.0888388;0.17401934;-0.06250302;0.04613462;0.006558227;-0.06335243;-0.14813907;0.13094339;-0.08560243;0.056587424;0.08846329;-0.14108355;-0.1364719;0.03816616;0.028753065;0.05348738;0.0821784;0.145462;0.20041531;-0.108352676;-0.005831231;0.00896722;0.08990329;0.032066755;-0.0831655;0.035031006;-0.018191574;-0.12070835;0.05924062;-0.09774826;-0.18601772;0.0034499227;0.017999388;-0.05047318;0.10758736;-0.13573442;0.02816131;0.16933113;-0.18426186;0.078995034;0.15465252;0.08505698;-0.0034746393;-0.122564904;0.11210267;0.09705243;0.042730406;-0.06247167;0.034585148;-0.12813611;0.14284986;0.047090996;0.05395456;-0.012402812;-0.040566903;-0.12871692;-0.07039909;-0.029124135;-0.18023759;0.03110967;-0.027268546;-0.07239161;0.15246077;0.043325614;-0.059922054;-0.20008083;0.010716264;-0.14062582;0.018621294;-0.055046547;0.06679889;-0.060190003;-0.1015438;-0.095550805;0.118697815;0.29860294;-0.11315218;-0.046243902;-0.051014423;0.04093812;-0.17766914;-0.087243445;0.059399806;0.020785036;-0.014657443;-0.10681627;-0.2438116;0.015554785;-0.026756477;-0.0060191094;-0.029488064;-0.08484395;0.02753208;0.09699491;0.081710376;0.002057581;0.056084048;0.03759383;0.06669956;-0.06771229;-0.020606278;-0.073716395;0.25060415;-0.0884778;0.12494625;0.06526885;-0.022510318;-0.02485988;0.14525071;0.21699701;-0.01924956;0.029935073;0.061582465;-0.24322724;-0.17425272;-0.037528235;0.13364352;-0.117695026;0.03170279;-0.0468872;0.21322991;-0.18683098;-0.119703524;0.07822075
-0.16584252;-0.057299238;0.11567443;0.10532269;0.12528703;0.14905426;0.10597163;0.1353677;-0.06983281;0.15498392;0.065985784;0.11709628;-0.316242;-0.081180096;-0.09081753;-0.271651;0.040853404;0.066380516;0.086215526;0.017701885;0.009526461;0.071160294;-0.07755;0.05633362;-0.014667251;-0.075514406;0.11411131;-0.15759946;0.091059394;0.15039796;-0.052740894;0.09056025;0.08766118;-0.079270326;-0.19191128;0.07860083;0.021923028;-0.047379423;0.043585368;-0.0062108603;0.16701044;-0.13633846;-0.023670848;-0.10210673;-0.13429753;-0.079138845;0.007710509;0.046680998;0.017643116;0.21613072;0.032552075;-0.11662528;-0.0630414;-0.19481991;0.16026661;0.011989356;0.1731352;-0.029038105;-0.002084651;-0.10367135;-0.05140312;-0.16618504;-0.21302947;0.12296159;-0.30404493;0.06982836;-0.0031281326;-0.010577945;0.04444111;-0.051438186;0.024155768;0.064643264;-0.03715557;-0.016271511;0.0312779;-0.09182099;-0.09814282;-0.08094179;0.13023858;-0.036276143;0.1268713;-0.2128032;-0.14255938;0.012781383;-0.0183139;-0.08410295;-0.256672;-0.013857299;0.017167548;0.08244525;0.07495913;-0.035678692;-0.033152647;-0.011022612;0.10061442;0.15373987;0.08312275;-0.12271213;-0.021929743;-0.14209366;-0.157151;0.14903672;0.036612704;0.12019095;0.107257776;0.15326281;-0.012209753;-0.07701283;0.048556793;-0.0652404;-0.015877008;0.0623679;0.1538255;0.058260217;0.1353301;0.02664007;-0.07328114;0.021175342;-0.073761575;-0.07936119;-0.0154154245;-0.043117926;-0.011568932;0.023699468;0.024725765;-0.04114018;0.038697314;0.17952798;0.11456019;-0.07600043;0.11227196;-0.046727035;-0.018774537;0.051229898;0.05927507;0.05727206;-0.011722434;0.046236597;-0.1986649;-0.0023422067;-0.045497477;-0.103470065;-0.055323105;0.06410183;-0.08963495;-0.0325781;0.0908608;-0.015791632;0.062329408;-0.14554739;-0.05517139;0.053663347;-0.12648419;0.06835648;0.039243568;0.025449006;0.063636266;0.00030648633;-0.064722255;0.061848823;-0.20994955;-0.040366184;0.05135382;-0.027042916;-0.036920622;-0.0645956;0.0340918;0.19851314;0.010313622;0.10715709;0.11600737;0.16131617;-0.0011583444;0.031591557;-0.018391913;-0.05647599;-0.05049474;-0.071390964;-0.032103855;-0.17408057;-0.13924332;-0.116525315;-0.011357378;0.046342015;-0.050639447;0.10355208;-0.103955545;-0.22706498;0.062396437;-0.094620794;-0.254698;0.15817153;-0.13999937;-0.01925444;0.11516413;0.0030985808;0.047032222;-0.05804696;-0.095472656;0.042896144;-0.0049911668;0.038089603;-0.10293969;0.034154348;-0.17764786;0.15070789;0.006242943;-0.06613321;0.00046143672;-0.07023131;0.003897011;-0.17496285;-0.071963385;0.09063736;0.17280851;0.010417548;0.08012287;0.12399157;-0.19450152;-0.065710396;0.0890051;-0.004123247;0.06284074;0.10361706;-0.055028968;-0.0317405;-0.003714942;-0.078541264;0.16913277;0.07767947;-0.061963018;0.081402175;0.009004602;0.2097209;-0.123334475;-0.17937958;0.013158604;-0.121294975;-0.15968253;-0.19937563;-0.05325483;-0.08487727;0.060496286;-0.15150148;-0.027740298;0.16699362;-0.063055694;0.018574387;0.038876932;0.07742093;-0.064679384;0.006337232;0.03009851;0.09891345;-0.029915504;0.14339064;-0.1171478;0.112174325;0.080719486;-0.08252241;-0.04896636;-0.061355002;0.09109714;0.016684338;-0.14869063;-0.0133285355;-0.046851553;0.021205012;-0.07024822;0.04408954;0.22396243;0.0378536;0.07602513;0.004357532;0.017156115;0.018907296;0.017457826;-0.046867773;-0.06266739;0.0076394654;-0.027363352;-0.0016057731;-0.08838571;-0.06567839;0.03052572;0.09452467;0.11272726;0.006871827;0.055313922;0.14219253;-0.07722175;0.10754173;-0.108056076;-0.13333362;0.009294606;-0.061774436;-0.042563364;0.05465334;0.05765782;-0.22730352;-0.111752726;-0.05177535;0.12096112;-0.099813156;0.22850539;-0.017205266;-0.13710403;-0.026476618;-0.21469416;-0.13423641;-0.07575327;-0.034697145;0.18459277;0.119561814;-0.18425614;-0.09120951;-0.0029057579;0.014715069;0.048603274;0.113079466;0.04219145;0.091731496;0.020236176;0.08343105;-0.11126117;0.14279705;0.061741207;-0.052305203;-0.032829393;0.06792995;0.014147118;0.016514694;-0.013852317;-0.063899584;0.12055448;0.12398932;0.17202395;0.0408201;0.047243048;-0.017294314;0.029341394;-0.039968796;-0.003955768;-0.041003186;0.06251316;0.18825285;0.0999448;-0.09605409;0.055802092;0.010973959;-0.02436622;-0.17062172;-0.10710034;0.08343998;-0.08867705;-0.09602937;-0.09076531;0.0020256871;-0.04158348;0.12290417;-0.042530775;0.1969385;0.14483264;0.04683899;0.13831548;0.030909697;0.10202437;-0.08815805;-0.11316267;0.1056395;0.15641022;-0.16258739;0.24903788;-0.08062738;-0.054930698;-0.013679248;0.038106754;0.15324189;-0.0047574746;-0.15280205;-0.04198079;0.042268466;0.06519968;-0.09195618;0.16624062;-0.018925032;-0.0667748;0.13638227;0.22252776;0.00784355;-0.101705655;-0.18379268;0.022024395;0.028730411;0.016535243;-0.011031709;-0.06448591;-0.2156588;-0.050067503;-0.03208003;-0.059913766;-0.02556989;-0.0664339;0.08395876;0.047535546;-0.10782983;0.045013696;-0.08138469;0.010473504;-0.21203743;0.20500165;-0.12113457;-0.18579133;-0.017550597;-0.119497046;-0.053142898;-0.17145236;0.01747618;-0.056846034;0.30157518;-0.31284958;0.016833447;0.04129484;0.15672411;-0.016434235;0.08992205;-0.088830195;-0.1211571;-0.032702807;0.05043206;0.100503676;0.016249502;-0.083038546;-0.13597684;-0.006444792;-0.05483801;0.22156271;0.24423964;-0.12725958;0.15599711;-0.105907515;0.15384395;0.07694282;0.29544726;0.028273387;0.059464753;-0.026020084;0.027314816;-0.016251551;-0.20059226;0.0363085;0.004666681;0.09941624;0.067090355;0.020607376;0.11588898;0.045812044;-0.06007545;-0.1798046;0.23927201;0.04504734;-0.05327744;0.004390834;-0.12550743;-0.12302855;-0.0076086977;-0.02156515;-0.10711732;0.056667797;0.11226368;0.18330805;-0.01556901;0.053504005;-0.018287688;-0.006275334;0.14268908;-0.04166875;0.07005058;-0.00575341;-0.099466234;0.093078345;-0.028688557;-0.14937772;-0.033453155;-0.07528434;-0.01701404;0.046355143;-0.16671431;0.074510105;0.19851899;-0.17248964;0.050445396;0.1048155;0.056119073;-0.13432944;-0.19756234;-0.024288971;0.067781344;-0.039129972;-0.10562962;0.07857695;-0.13351361;0.02834029;0.058931176;0.006770973;-0.03635816;-0.008671499;-0.14724997;-0.08364735;-0.14973241;-0.16096438;-0.021253379;0.035193514;-0.21978337;0.03159425;0.03603922;0.028874386;-0.21004611;0.052912615;-0.10500599;-0.010028374;-0.037175465;0.10869783;-0.0055661937;-0.09556217;-0.09844771;0.018212067;0.1818984;-0.013121425;-0.07042196;-0.028178876;0.12773778;-0.21297602;0.00013058008;0.148161;0.01300447;0.015082774;0.02277281;-0.25750154;0.038957115;-0.065244146;0.03498369;-0.012359539;-0.021958917;0.02509204;0.103334606;0.07926192;-0.02136019;-0.009024044;0.011712667;0.09641253;0.0075233458;-0.020083072;-0.06897886;0.38889068;-0.08328634;0.02045424;-0.068298884;0.028507799;0.09823045;0.14030334;0.19588824;-0.18322349;-0.0040973993;0.05792806;-0.076144286;-0.06830323;0.0050755027;0.05192921;-0.09419081;0.02675629;-0.038747143;0.1466179;-0.34096003;-0.12061686;0.11685487
-0.09594823;-0.05361782;0.09472466;0.18527061;0.18972765;0.23465712;0.004240572;0.09938702;-0.041998055;0.22223318;0.02311163;0.26626533;-0.28296036;-0.1870662;-0.07135124;-0.28563964;0.080173165;0.07948776;0.10826409;0.11143035;-0.09364882;0.033993162;-0.107395746;0.05448604;-0.12102135;-0.06008659;0.22516231;-0.18538615;0.03663238;0.15963009;-0.08439462;0.076906495;-0.022690684;-0.051673114;-0.20921731;0.07286978;0.06852506;0.023233756;0.11774637;-0.0682035;0.13565455;-0.11445243;-0.0050971415;-0.11269773;-0.11703533;-0.008298961;-0.0432181;-0.038270958;0.037832264;0.27078903;-0.08943834;-0.08946721;-0.064953946;-0.16341075;-0.013069274;-0.0826905;0.10129359;-0.015972776;-0.017875656;-0.10851821;0.07335541;-0.09947796;-0.16498041;0.16126905;-0.27922398;0.06028458;0.06668701;0.042324122;0.07503647;-0.17330793;-0.011071104;0.025859222;-0.0013473452;-0.026503468;-0.0491066;-0.014297645;-0.18152869;-0.07055243;0.16551162;-0.03549785;0.10470828;-0.066516295;-0.0762323;0.051746715;-0.015564113;-0.14804192;-0.21141204;-0.11477293;0.15665358;0.038158998;0.054965936;-0.11522863;0.03572716;-0.13531369;0.037340242;0.118593246;0.12875369;-0.08021603;0.05519078;-0.1331685;-0.008342488;0.13897984;0.034993798;0.0048583923;0.13539416;0.1977073;0.03908863;-0.19713569;0.018288225;-0.05604206;-0.11050122;0.16644676;0.2046592;-0.031247566;0.12938505;-0.067460574;-0.06501204;0.081069335;0.049729563;-0.10701541;-0.059151016;-0.031011278;-0.09117957;0.036568515;0.13184577;0.05515087;0.018452348;0.039380297;0.16073544;-0.012423762;0.026616145;-0.1421333;-0.024824524;0.08309015;0.005967593;0.10014784;-0.10920938;0.0465014;-0.18816647;-0.007951349;0.0044881;-0.12612046;-0.07622862;0.02253719;-0.08434439;-0.10176283;0.06887011;-0.072888106;0.0021542031;-0.07889344;-0.14207554;0.06914981;-0.22459768;-0.035748813;0.1264924;0.121462636;-0.031002956;0.030075563;-0.024346663;0.04058926;-0.19879152;-0.043411117;0.10463855;0.04095946;-0.09603945;0.041375767;0.066544585;0.15914844;-0.015358635;-0.047093756;0.03472987;0.10368143;-0.018402662;0.11050625;-0.032611817;-0.012738932;-0.057833027;-0.10818203;0.04216374;-0.13354321;-0.0240589;-0.02093611;-0.15366386;-0.029922921;-0.10401746;0.22634357;-0.031415224;-0.12359491;0.047094785;-0.06702774;-0.08506775;0.05392452;-0.10695982;-0.05711815;0.15478103;0.10125666;-0.0013330216;0.0040771654;-0.016958755;0.09848557;-0.021778248;0.19220707;-0.062362056;-0.048958667;-0.042623404;0.037999243;-0.12837711;-0.07398551;-0.012689712;-0.044088338;-0.07097536;-0.17420295;0.014641019;-0.06913933;0.11406625;0.116302185;0.0873369;0.15502065;-0.1186587;-0.15353453;-0.011231235;0.00045936502;0.013164732;0.07352572;-0.08005102;-0.10160111;-0.013855996;0.02376378;0.16748488;0.03851099;0.06534886;0.116849124;0.013897693;0.11785571;-0.024638074;-0.22493212;-0.010883455;-0.09363784;-0.14164557;-0.18517359;-0.09023339;-0.046142027;0.1283036;-0.1569848;0.004598599;0.10591344;-0.15252955;-0.03548385;0.032104503;0.005121057;0.0066883042;-0.071420476;0.14291625;-0.010963923;0.007227432;0.1467351;-0.0236065;0.07237586;0.033019785;-0.038032528;-0.06488182;-0.018938035;0.10901557;0.14721496;-0.13960646;0.09977636;-0.05480888;0.09672509;-0.09719151;-0.009185463;0.1927879;-0.056934293;0.106315054;0.122367166;0.042482976;-0.038734898;0.005146962;-0.13099073;-0.01794374;0.08063917;0.03584645;0.10768685;0.0026357188;0.015220887;-0.06784102;0.025261698;0.04885078;0.07199838;-0.009184658;0.15322283;-0.21306068;0.07726981;-0.008343531;-0.10077444;0.01764499;-0.062089555;-0.07936968;0.029285338;0.051400196;-0.20334342;-0.19524375;-0.04736761;0.13895407;-0.108641244;0.18713626;0.0014479589;0.01006439;-0.094431736;-0.112115026;-0.052979115;-0.12416868;-0.057471365;0.2648069;0.009202143;-0.018197084;-0.08481762;-0.003215415;-0.06322055;-0.0032276507;0.1545299;0.06835881;0.022797052;-0.017039195;0.12746868;0.02903398;0.20254244;-0.05533638;0.030082285;0.0730037;0.0124654025;0.012418873;0.08345858;-0.011862671;-0.08636701;0.06304035;0.05395794;0.119373195;0.0063461508;0.103839815;0.062187463;-0.0066983406;-0.17387077;-0.03102212;0.024492057;0.0920575;0.09483204;0.11356537;-0.11849908;-0.0059350035;0.03323776;-0.06393924;-0.06648797;-0.2047442;0.08287326;-0.023798851;-0.08345724;-0.15155675;0.08133767;0.034694523;0.12477623;-0.03196727;0.03997685;0.05125648;0.017168446;0.017825425;-0.09214548;0.096821204;-0.14328939;-0.05770878;0.005840084;0.040695664;-0.18872878;0.24144006;-0.16978885;0.030598704;0.041833326;0.07958916;0.05099077;-0.06670589;-0.18606198;-0.1228889;0.066674046;-0.06639411;-0.1280209;0.17243466;-0.033059746;-0.1797927;0.02813138;0.081116885;0.019612078;-0.097564295;-0.13801749;0.006917288;0.11116893;0.006053808;-0.0781111;-0.16683684;-0.1660273;0.043726817;-0.045440063;-0.076785274;-0.16664958;-0.09065088;0.028041035;0.088232055;-0.05439658;0.117269844;-0.13461569;-0.02942374;-0.16471618;0.112900175;-0.11294078;-0.16437317;3.2690623e-05;-0.18046439;-0.044248004;0.021293866;0.014223481;-0.10904126;0.2955171;-0.10141505;-0.024092864;-0.09019791;0.094159536;0.11264456;0.061616294;-0.074423105;-0.13340692;-0.08037206;-0.0019017853;0.120137624;-0.051245388;-0.15690872;-0.01612079;0.03946671;0.09583312;0.20404905;0.20854564;-0.050289217;0.041645356;-0.069879524;0.2183748;-0.03900872;0.22636053;-0.037917156;0.14876656;-0.004020215;-0.047572996;-0.030795775;-0.14414938;-0.035269428;-0.09325324;0.051534917;0.1796919;-0.05356308;0.19448264;-0.010421916;-0.11309037;-0.22506797;0.18646155;-0.018938903;0.016477978;0.040624738;-0.046877954;-0.19700608;0.13938467;0.0002698679;-0.004744152;0.028836643;0.13549292;0.148603;0.046522506;0.015842784;-0.10537444;0.043509334;0.078211054;0.10483667;0.021627227;0.14133458;-0.14382137;0.007449468;-0.051635753;-0.11940032;-0.08566904;-0.06087578;0.063275464;-0.010180542;-0.014241823;-0.018083509;0.17674968;-0.050847925;0.009622204;0.11526077;-0.082430266;-0.01586856;-0.11337902;0.032122444;0.057693105;-0.09402795;-0.123913765;0.02462022;-0.0154607715;0.068257615;0.024594871;0.02608175;0.011070706;0.1318723;-0.11171492;-0.0015988935;-0.07770831;-0.054395575;-0.024981147;0.045187593;-0.21209632;0.09749589;0.047619775;0.025339596;-0.16585977;-0.009316854;-0.11457781;-0.077018164;-0.105932936;0.15334386;-0.068195835;-0.11124922;-0.1400097;-0.002463016;0.20154566;-0.092157274;-0.082062796;0.027228476;0.14626263;-0.091346666;-0.045243617;0.04036893;-0.00016771595;0.12463764;-0.033245683;-0.27211457;0.11674652;0.03450154;-0.0014648461;-0.11319654;-0.054461736;0.11001366;0.062155228;0.018262053;0.07111146;0.019338874;-0.076949745;0.05784405;0.059484348;-0.066107385;-0.11392201;0.36915615;0.020489179;0.029861236;-0.008705299;0.02265595;0.17076313;0.06537062;0.24111548;-0.17329846;0.04641549;-0.03678798;-0.19161662;-0.068634115;-0.06088421;0.01674555;-0.05114785;0.07599146;0.06088697;0.1543867;-0.20118399;-0.030091513;0.1241156
-0.14300252;0.0057340525;0.16074283;0.19319323;0.15713514;0.27415568;0.07782843;0.17915943;0.013265421;0.14791958;0.09687561;0.17337915;-0.13069403;-0.13997072;-0.08400743;-0.33014742;0.07872612;0.049427096;0.07459714;0.03892398;-0.042291198;0.049558766;-0.097078875;0.022277301;-0.011577223;-0.011175539;0.13753186;-0.1333617;-0.06987183;0.20224725;-0.043869596;0.21583858;-0.0022102308;0.023706097;-0.1890564;-0.044251755;0.055915337;-0.080219656;0.21505357;-0.07252713;0.1568753;-0.15575586;-0.065096736;-0.040222865;-0.028139258;-0.053241186;-0.08340226;-0.091016464;-0.03618992;0.17997307;-0.10070692;-0.0405535;-0.007758701;-0.14510883;0.109181926;0.008252195;0.17106186;0.003309066;-0.07516566;-0.08570013;0.06016168;-0.123112865;-0.17297111;0.09774959;-0.29171154;-0.092725985;0.08722263;0.041719113;0.11737878;-0.13572262;0.12602624;0.11107384;0.07938817;-0.032836393;-0.026458353;-0.04654296;-0.11985014;-0.05363088;0.22958277;-0.041254275;0.038356144;-0.070079066;-0.07739089;-0.0058648926;-0.035482086;-0.17287773;-0.09699835;0.03320902;0.0734916;0.015493176;-0.030717913;-0.08848299;0.05610082;-0.19150762;0.040457986;0.018928047;0.12377005;0.004547628;-0.06283133;-0.07881913;-0.14725631;0.28082955;0.010886413;0.15054592;0.031953588;0.120845936;-0.076039456;-0.13454457;0.17619592;-0.058529075;0.012358558;0.16722444;0.032071725;0.058861684;0.14832221;-0.10522204;0.029528469;0.10603374;-0.101087235;0.08159257;-0.06914846;-0.019040592;-0.041642558;-0.05733629;0.19893774;-0.04557105;0.0052447664;0.113228135;0.18972802;-0.077405326;0.04855924;-0.10461697;-0.0076263193;0.12971418;0.0931598;0.019359615;-0.01584568;0.042090833;-0.22585328;0.026712706;-0.0711428;-0.20355108;0.07235968;0.08635498;-0.12298252;-0.013358232;0.112479314;0.09279784;0.04307834;-0.18222663;-0.049638506;0.09534459;-0.19602194;0.10543919;0.06319233;-0.010748869;0.077594556;-0.03588221;-0.029450474;0.093983226;-0.1402462;-0.06048676;-0.05301507;-0.0957234;-0.049026825;0.0663534;0.05893469;0.17902642;0.047362294;-0.06483474;-0.005204596;0.074348405;-0.03220835;0.020834658;-0.0017240909;0.05953777;0.08912747;0.024901444;-0.024336707;-0.15418173;-0.014538364;-0.15958005;-0.06561914;0.059947375;-0.054570314;0.2515246;0.04172513;-0.24341807;0.045625776;-0.08546605;-0.08745498;0.06855135;-0.1732796;-0.046510678;0.046450797;0.005167416;0.0055720895;-0.04988193;0.0017052089;0.13385563;-0.032219604;0.22567634;0.035170402;-0.035051625;-0.011486288;0.057445545;-0.10843854;-0.11444952;0.008600766;0.001309584;-0.10312233;-0.0885326;-0.002935594;-0.0014953295;0.13108316;0.043652385;0.08112946;0.1535272;-0.17068404;-0.22047499;-0.011715434;-0.10731219;0.01844967;-0.077746935;0.05170667;0.01679259;-0.016181549;-0.07734657;0.08206403;0.14103661;0.07159218;0.11786206;-0.07743882;0.079634175;-0.054964308;-0.14832303;-0.08441909;-0.08322402;-0.116079636;-0.22414988;-0.042559132;-0.03295525;0.059143152;-0.22070168;0.042855203;0.1512898;-0.09474991;0.11739018;0.014941108;0.027243124;0.03311578;-0.0022591928;0.14625034;0.124860734;-0.10330875;0.11887402;0.038198344;0.10022465;0.01971394;0.044974156;0.0047271303;-0.063347846;0.056610215;0.115640186;-0.1942991;-0.05983194;-0.02769829;0.19686317;-0.15736094;0.02547886;0.17527787;0.09668226;0.09805024;0.04602245;0.012316737;0.00229115;-0.10480526;-0.073679276;0.061250944;0.0015390826;-0.020447766;0.102670975;-0.045636848;0.01762933;-0.06119108;0.081367634;0.07091055;-0.073621534;0.11078671;0.20624024;-0.1586947;0.063397296;-0.08856708;-0.17059788;-0.067204416;-0.08555294;-0.12834322;0.081551164;0.048428804;-0.21599339;-0.11677411;-0.030816656;0.10689657;-0.09929104;0.15698113;0.08019745;-0.0033837669;0.01977381;-0.09291373;0.009168898;0.068826474;-0.018424632;0.22816645;0.050778385;-0.051255584;-0.109871805;-0.041897334;-0.14816089;0.06885256;0.15025645;0.0455407;0.08517643;0.05921993;0.0027272573;-0.029906904;0.057778783;-0.069324166;0.05240487;-0.015727332;0.031638756;0.08252582;0.027519898;0.07468357;-0.019375341;0.14747667;0.0613461;0.07666144;-0.009034685;0.2034492;-0.01669321;-0.05132081;-0.09447008;-0.1486253;0.0066664405;0.077284835;0.13448386;0.14593618;-0.15577562;-0.13087112;-0.029522259;0.042753804;-0.13024607;-0.15066837;0.18044023;-0.039533995;0.04738824;-0.032839898;-0.027122647;0.009542758;0.1484024;-0.006700413;0.15493453;0.021510638;0.055008773;0.13914697;-0.01466017;0.11501044;-0.13915706;-0.068361886;0.030860752;0.12217569;-0.22325812;0.070323095;-0.16230057;0.03336782;-0.062086593;0.023477104;0.0069413763;0.04498255;-0.2331868;-0.08195757;0.08890686;0.045443844;-0.15755734;0.1581953;-0.069548726;-0.14831623;0.08653036;0.1381058;-0.083725914;-0.08819664;-0.19656333;0.04387061;0.0613796;0.02600388;-0.14233595;-0.19109632;-0.22728191;-0.06849099;0.09649035;-0.059327275;-0.17626788;-0.07172077;0.08005133;0.09536522;-0.15703641;0.14067505;-0.02134619;-0.044021085;-0.25039345;0.18183687;-0.06498925;-0.15267406;-0.074967265;-0.19711345;-0.17654324;-0.024555506;-0.03052244;-0.103421;0.26125297;-0.13083777;-0.049494218;-0.1047837;0.1654617;0.11005485;0.15151824;-0.012314654;-0.12080492;-0.008205212;-0.044552535;0.04979293;0.09921103;-0.10022974;-0.010314138;-0.07709667;0.070960954;0.04831135;0.15115482;-0.067938715;0.08791726;-0.07372625;0.16597493;0.036418185;0.21179506;0.016036047;0.17456004;0.061018188;-0.013489967;-0.035385698;-0.20359787;0.06798676;0.0028060477;-0.012901832;0.19744375;0.026961658;0.08149272;-0.06382699;-0.06303139;-0.11734182;0.14907978;0.034280792;0.03618338;0.12874252;0.03107377;-0.04136551;0.111446336;-0.059537686;-0.0118628815;0.00928359;0.17759828;0.17015404;-0.008936987;0.04568435;-0.031103037;0.09218849;0.037137914;-0.00423113;0.056997143;0.06825261;-0.11995077;0.033149876;-0.11303663;-0.09124897;0.041724242;-0.031680506;0.022104945;-0.06769652;0.02810596;-0.033210527;0.08676153;-0.085656926;0.079995684;0.19261357;0.052267905;-0.036459725;-0.10427261;0.05255255;0.10807093;-0.13694124;-0.07214587;-0.026076907;-0.038665447;0.14786802;0.029593343;0.08522729;-0.076779306;0.09072565;-0.08189441;0.029846197;-0.06945328;0.011804533;-0.09805452;0.0009669859;-0.10667903;0.027879626;-0.07128079;-0.047481447;-0.07893342;0.027056817;-0.061742395;-0.14042021;-0.20089659;0.0812753;-0.0872671;-0.00026044736;-0.11249592;0.071486995;0.16635983;-0.06024552;0.009622466;-0.113490716;0.17174822;-0.1463465;-0.025474941;0.11980807;0.053599454;0.04580388;-0.01048822;-0.27212355;0.19632405;-0.05966396;-0.07693741;-0.018370617;-0.0030223455;0.013868703;-0.017157152;0.07168086;0.046813037;-0.00524704;-0.08667398;0.057175282;0.08231652;0.033304077;0.0052931993;0.364936;-0.041277826;0.186227;-0.043127745;0.051988844;0.13614757;0.026848003;0.3322184;-0.25888073;-0.067538396;-0.08553102;-0.15575235;-0.11215745;0.0641287;0.14504154;-0.119578436;-0.018247208;0.05016421;0.11196314;-0.3282659;-0.14561813;0.072570734
-0.22899082;0.014226033;0.132984;0.07067779;0.08869533;0.11384807;0.060105;0.15786022;0.051539503;0.011070548;0.046619363;0.23722006;-0.15611355;-0.10440123;-0.1829441;-0.34374267;0.004732723;-0.013145941;-0.011986021;0.069098055;-0.13320962;0.08956232;-0.019050466;-0.010844787;-0.0042123687;-0.15303403;0.25811404;-0.19707868;0.04972366;0.24425636;-0.009277162;0.20669806;-0.011673455;0.07768355;-0.24420017;0.01432474;0.008736495;0.07180976;0.17643267;0.014735105;0.17951913;-0.21527876;-0.012442708;-0.072013;0.083306596;0.06980399;0.016672462;-0.15084617;0.07235242;0.24766144;-0.023868714;-0.07443124;0.055658195;-0.170178;0.036940724;0.034066074;0.15944164;0.11427074;-0.042350262;-0.016754733;-0.0056967647;0.0017242309;-0.102806635;0.24236858;-0.30215985;-0.03483713;0.15209973;0.08358047;0.015174346;-0.032549992;-0.050380036;0.12096179;0.0970696;-0.04163047;0.14270538;0.0050839544;-0.104922466;-0.028368758;0.13195696;0.1028441;-0.04180524;-0.12704664;-0.05926933;0.04823711;-0.108111694;-0.21392396;-0.093373;-0.05356349;0.104068086;0.12980329;-0.019599885;-0.12067531;0.07448843;-0.037850082;0.1101263;0.14203186;0.038069043;-0.0314969;-0.012341147;-0.16407679;-0.08294247;0.26570204;-0.028996637;0.0040388186;0.16042277;0.038772337;-0.036064487;-0.10391621;0.18228412;-0.018122468;-0.063995905;0.16936657;0.10238696;0.078686036;0.09453731;0.045068935;0.0205293;0.044349425;-0.03964386;-0.07958545;0.008406364;0.048334938;-0.081195705;0.08004196;0.13641809;-0.019121518;0.09806059;0.009877158;0.12900613;0.031534456;0.10674161;-0.019612364;0.022329073;0.1325615;0.039815627;0.12985387;0.016193511;0.04682185;-0.23461667;0.051169634;-0.032034066;-0.12885392;0.021186018;0.093060665;0.021268068;-0.042403802;0.021156477;0.08205529;0.103434525;-0.123822;-0.0152258435;0.030896489;-0.09577045;0.109554306;0.0957942;0.050041918;-0.040288873;0.103111275;-0.11021724;0.14346316;-0.26679388;-0.06288743;0.06106303;0.031363606;-0.011170547;0.10901103;0.10524655;0.24882762;0.08274161;-0.07399513;0.121027045;0.017442595;0.008303647;0.17609501;-0.14296368;-0.0069962433;0.04576919;-0.018082706;-0.06421832;-0.15906173;-0.020997856;-0.10474848;-0.07478315;-0.010308007;-0.014830244;0.10033066;0.053312767;-0.17549494;-0.0004679965;-0.0026777994;-0.008009724;0.007058512;-0.16825622;-0.06381531;0.06381679;0.09807761;-0.062233448;0.14955243;0.17122746;0.12254842;-0.11250982;0.2064058;0.018540366;0.10364082;-0.054668423;0.108041935;-0.08622582;-0.10503686;0.012728897;-0.09952191;-0.05436793;-0.07595436;-0.15730157;0.12298923;0.13459939;0.025940634;0.105849706;0.15733992;-0.25658602;-0.09538828;-0.0702068;-0.117118955;-0.07095664;-0.0062562386;0.04620116;0.04379894;-0.006743099;-0.10850807;0.076814;0.05723314;-0.01769176;0.2245102;-0.02498649;0.15471809;0.0015137546;-0.08481375;-0.14747603;-0.027543304;-0.07690646;-0.23471007;-0.08471042;-0.06182965;-0.007684503;-0.22966774;-0.079466075;0.12233425;-0.16396724;0.12864265;0.015718635;0.03279048;0.04382879;-0.059757765;0.16741604;-0.0447387;-0.06994713;0.27385056;0.029682605;0.010668271;0.032525014;0.013711403;-0.011629621;-0.0068725958;0.026711801;0.1337181;-0.19524425;0.01945051;-0.05511652;0.11190215;-0.065335676;-0.0027643435;0.3200395;0.07028041;0.07402277;-0.032116763;-0.036311388;-0.052603535;0.037307102;-0.051332016;0.041085053;0.04734162;-0.005559407;0.03590183;0.16902576;-0.09580014;-0.08387831;0.16286609;-0.07834054;-0.084208645;0.076548636;0.20223002;-0.13726589;0.088628575;-0.00081883057;-0.11039154;-0.13088763;-0.14435032;-0.09169142;-0.02110463;0.12714897;-0.18009204;-0.10051938;0.08120936;0.023056269;-0.11904052;0.22180119;-0.037289355;-0.05801751;0.054170426;-0.18631338;-0.034986883;-0.1251018;-0.06695549;0.22029488;0.086278476;-0.0030629255;-0.10770735;0.03448219;-0.032838173;0.03419821;0.14705937;0.08187173;0.012633066;-0.0024114696;0.09516602;-0.065399155;0.231113;0.035447802;0.14763832;0.09661048;-0.03421648;0.033687938;0.03403984;0.024181558;-0.14894368;0.2104329;-0.026532266;0.1509306;0.062035125;0.23592183;0.0112039605;0.017731357;-0.10295083;0.052286632;0.06626515;0.1514862;0.15719321;0.15717728;-0.19961755;-0.09927516;-0.017455908;0.066958085;-0.25775152;-0.14172472;0.07563447;-0.0021520401;0.04791122;-0.0274419;0.0721956;0.02472659;0.1585796;0.035053715;0.064507514;-0.014626811;-0.010130118;0.11182117;-0.15519086;0.12815768;-0.035653032;-0.04004412;-0.02668847;0.12898722;-0.1781636;0.19626114;-0.064620554;-0.061496943;-0.13566369;0.101860836;0.09499635;-0.090934016;-0.16289979;-0.1960158;-0.017604811;0.08234056;-0.01353973;0.0825184;-0.10693835;-0.10638892;0.0073238756;0.1286321;0.047309842;-0.071905404;-0.20456696;-0.05899867;0.016828647;-0.030135864;-0.113454305;-0.21023503;-0.24881119;-0.06402179;0.112691924;-0.11877799;-0.05968848;-0.009887795;0.032716386;0.14543168;-0.036939055;0.009354405;-0.044473212;-0.052599862;-0.2053748;0.06905416;-0.01770461;-0.21213143;0.05730935;-0.17476322;-0.14087032;-0.11960345;-0.0010488894;0.015706522;0.16019055;-0.20792927;-0.1258375;-0.14804141;0.11603701;-0.01014082;0.10030499;-0.030457087;-0.12983131;-0.011864066;0.051898412;0.11221209;0.066237494;0.012696283;-0.022789177;-0.004389148;-0.048644245;0.15376817;0.1661992;-0.09705722;0.18266991;-0.035811957;0.1595821;0.051194094;0.17105451;-0.08646968;0.12688608;0.004904831;0.007844872;-0.10087851;-0.14919521;0.0007081795;-0.040630817;0.025346272;0.12402451;0.06084419;0.09976309;-0.1554957;-0.07693538;-0.048778202;0.25881284;-0.012859712;0.06378673;0.121905535;0.01393253;-0.07317029;0.179084;-0.0027807644;0.021013418;0.015825327;0.1619933;0.0695215;0.046505343;-0.093368195;-0.06284361;0.061573192;-0.0079626255;-0.13138157;0.094355114;0.027098626;-0.09330219;0.15363525;-0.14455755;-0.04722267;0.0428738;0.0022790364;0.099407345;0.05858333;-0.0519546;0.08953135;0.2279377;-0.11983085;0.15447843;0.15633653;-0.10141861;-0.00057176134;-0.18783855;0.005147086;0.14978312;-0.0024588706;-0.046496198;0.048725773;0.009292036;0.10487886;0.11992725;0.033323232;-0.012253518;0.027880719;0.012713635;-0.13798067;0.0037712986;0.043995436;-0.04571619;-0.018548332;-0.19436406;0.05778773;-0.08003087;-0.059386864;-0.11845666;0.012620205;-0.14202888;-0.09399537;-0.14740737;0.15536143;-0.17922027;-0.028262379;-0.059379984;-0.056069594;0.20297587;-0.072405644;-0.019594109;-0.07958967;0.12611942;-0.029121803;-0.02244239;-0.022429021;0.023803411;0.04142042;-0.078162804;-0.21532892;0.047051437;-0.11165423;-0.10328458;0.03185045;0.04337897;0.12636945;-0.06441289;-0.05515028;-0.09080809;-0.046011455;0.0053591533;0.16959557;0.046859395;-0.08868803;0.048690103;0.23779944;-0.068643734;0.14690663;-0.12715861;-0.009526098;0.14282778;0.07673791;0.31717327;-0.116491355;-0.020103585;0.021547403;-0.12247483;-0.15714885;0.01283572;0.08048994;-0.17156653;0.11072031;0.04245596;0.08901166;-0.2598457;-0.08468769;0.0022561508
-0.12770487;-0.09649646;0.1492859;0.1468302;0.18639413;0.18515904;-0.047284935;0.0384247;0.015756506;0.10099971;0.12970418;0.26321283;-0.18017519;-0.22686173;-0.0341818;-0.27070147;-0.029990481;-0.004995061;0.03162438;0.102778114;-0.05324527;0.01945735;-0.14616889;0.028931793;-0.07107284;-0.14176705;0.15347502;-0.19551226;0.06579708;0.2789457;0.059100535;0.19246224;-0.05419012;-0.049798932;-0.1439445;0.0045510354;-0.04940689;0.04434281;0.1573184;-0.0190003;0.052970923;-0.09125218;-0.04873224;-0.08339961;0.054577325;0.039080676;-0.0679529;-0.14030081;0.108759664;0.12552994;-0.0976914;0.01699725;0.082134336;-0.17358753;0.117267214;-0.061907828;0.13197726;0.04697856;0.069732;-0.021953518;0.08185547;-0.051308736;-0.06511254;0.10395942;-0.3483446;0.0030502388;0.14078493;0.026155584;0.06805112;-0.09019397;-0.076383695;0.15344833;-0.035387028;-0.022405164;0.04857952;-0.18863596;-0.17585261;-0.09152319;0.11883234;-0.005468267;0.043873634;-0.08077307;-0.04391297;0.100276075;-0.121662535;-0.123675875;-0.061369687;-0.122473754;-0.057344973;0.039702654;0.09199497;0.022546967;-0.08426108;-0.080967985;0.08729182;0.025145924;0.055992264;-0.14769825;-0.018817486;-0.12844835;-0.101689145;0.23249273;-0.008097418;0.114662215;0.20181334;0.1133957;-0.064867206;-0.106083095;0.15919624;-0.051586796;-0.021255877;0.05127762;0.088586085;-0.063059874;0.24347576;0.07284016;0.0225328;0.018592093;-0.054365847;-0.016318558;-0.09817439;0.079855524;-0.112697944;0.0537163;0.089832015;0.11325302;0.17652662;-0.019659393;0.0018534967;-0.021908412;-0.02690661;-0.13839447;0.009209389;-0.0071812663;0.11031915;0.040075295;-0.08766177;0.025925703;-0.28434762;0.13947178;-0.019745719;-0.12763584;0.008480801;0.0115326345;-0.012606782;-0.074870996;0.08956546;0.10877609;0.12573457;-0.11549119;-0.019162366;-0.03460402;-0.21684782;-0.0033285846;0.05880189;-0.10259495;-0.048073787;0.08488207;-0.06879914;0.025568279;-0.2629854;-0.028709352;0.0126867;-0.06867207;0.077319615;0.11056373;0.0295447;0.2379279;0.0043485356;0.02586889;0.22520874;0.04535919;-0.09264464;0.06915538;-0.14373972;0.02233428;0.08665387;-0.044221196;-0.024789046;-0.106693484;-0.10887436;-0.19731036;-0.07072659;0.074696414;-0.05757396;0.06865731;-0.06364086;-0.1581613;0.11314911;-0.038535472;-0.13745452;0.07758861;-0.124385804;-0.01398251;0.09102002;-2.8326545e-05;0.030656071;0.101073086;0.073201224;0.053334832;-0.120425746;0.16719232;-0.018225033;-0.06240013;-0.04246815;0.003441069;-0.040222775;-0.04292364;-0.009190489;0.052475926;-0.057926126;-0.08068226;-0.12391444;0.0050199917;0.13443916;0.007659617;-0.024150837;0.15063505;-0.23863472;-0.13736618;-0.016283052;-0.124134935;-0.17048477;0.083767824;-0.062042385;-0.12060013;0.092449635;-0.037386663;0.057063676;0.030388331;-0.08742509;0.13296825;0.047929585;0.228939;-0.027585912;0.007030618;-0.07196445;-0.07889467;-0.1508101;-0.23997639;-0.12079432;-0.08853466;0.027590824;-0.104113996;0.05752844;0.076014265;-0.09945114;0.057294592;-0.06920438;0.06869058;0.04090054;-0.0063864943;0.20648204;0.0898198;-0.06501914;0.09111824;-0.06450329;0.051606327;0.09732612;0.04291986;-0.030758297;-0.064007126;-0.031922374;0.011170457;-0.20256153;0.0016809463;-0.067362554;0.09990206;-0.21212111;0.051302668;0.24597791;0.027166212;0.10135645;0.15564658;-0.024598224;0.010836254;-0.07871929;-0.0456926;-0.026558999;0.043128904;-0.109898426;0.11819565;0.14436135;0.05855766;-0.026446724;0.1816804;-0.034608684;-0.072065905;0.04934738;0.17227507;-0.10052356;0.026590116;0.060266405;-0.010375153;-0.12347892;-0.017068708;-0.072605155;-0.056718025;-0.009538037;-0.06097921;-0.24595763;0.096422486;0.11581843;-0.031444866;0.107032746;0.015726343;-0.09323665;0.015784753;-0.083811;0.011761353;-0.008722951;-0.08838367;0.22352414;-0.0102977725;-0.1253871;-0.18098058;-0.10863642;-0.0744529;-0.0018514842;0.05353872;0.12761597;0.012419521;0.09206997;0.17458196;-0.020369235;0.23414059;0.034874287;0.027328154;-0.055179987;-0.025940703;-0.029408282;0.013344459;0.1441682;-0.10628979;0.12209499;0.07860558;0.0780114;0.035832778;0.16127817;-0.11316635;0.07944909;-0.12556523;-0.027627533;0.036609244;0.0874963;0.14419068;0.01784293;-0.2777156;-0.070150286;0.06631805;0.09714338;-0.27407125;-0.0923132;0.10024541;-0.15295482;0.0877486;-0.15655786;-0.025743192;-0.14182283;0.22468118;0.13525626;0.06541392;0.054365758;0.105630055;0.07188434;-0.09007385;0.07024948;-0.14298393;0.026567545;-0.039676756;0.14087729;-0.2495619;0.13710102;-0.23704161;0.01413217;-0.021620322;-0.027081596;0.12341757;0.005332186;-0.24567376;-0.099679165;0.10609832;-0.007828106;-0.14074413;0.14704502;0.04167255;-0.06536687;0.055966236;0.16627094;-0.04090664;-0.027440755;-0.05550455;-0.10937505;0.12412541;-0.076674744;-0.017365627;-0.09110241;-0.26899865;-0.05392243;-0.03966969;-0.15369213;-0.064034835;-0.046740294;0.0531982;0.15884255;0.024094515;0.033921227;-0.14606448;-0.080836825;-0.10755163;0.041762978;-0.086745374;-0.08190318;0.09476797;-0.19318224;-0.20462479;-0.08924001;0.039331287;-0.0012561663;0.25150874;-0.11083739;-0.0012786066;-0.0026374154;0.07797456;0.0022123766;0.039113972;-0.089595385;-0.08992756;0.0067107766;-0.026999246;0.102335505;-0.016595451;0.027158901;-0.17280313;-0.12444168;-0.019799057;-0.0058649303;0.17016417;-0.034294184;0.1606777;-0.074898235;0.16087866;-0.02779775;0.054155048;-0.06550548;0.13056166;0.013393186;0.05913707;-0.071726516;-0.20963235;0.057543926;-0.033185933;0.0946028;0.1784301;-0.0072387876;0.11424414;-0.02958884;-0.06794789;-0.06648094;0.29875216;0.018319048;0.10801238;0.057116583;-0.015493567;-0.09180142;0.112673566;-0.12691072;0.06491654;-0.057839092;0.12546414;0.05672618;-0.07644928;-0.056081098;-0.028838195;-0.017587548;0.06290286;-0.18457654;0.105508104;0.098727465;-0.16501975;0.19291891;-0.024656989;-0.086875215;0.020237746;-0.047595605;0.07022177;-0.011815195;-0.0414985;-0.0029910004;0.20493372;0.0015222532;0.15272981;0.020417962;-0.047365543;-0.06804244;-0.19203137;-0.07673713;0.067873836;-0.12844965;-0.010088732;0.12028683;-0.08765665;0.11950854;0.083334066;0.10807341;-0.08283352;-0.022820245;-0.062372264;-0.053659447;0.08661197;-0.044943567;0.06516592;0.036997743;-0.18585739;0.066284776;0.015834263;0.10745468;-0.12725972;0.03384694;0.0015632696;-0.17337999;-0.07504656;0.066390805;-0.067556635;-0.1436941;-0.05100146;0.068016395;0.19052508;-0.07552681;-0.0654317;0.039086007;-0.046810504;-0.23549351;0.09379507;-0.029065043;0.013494033;0.021207467;0.044502288;-0.15921248;0.06945161;-0.11308729;-0.13564605;0.016442165;0.05861677;0.02765521;-0.040507868;-0.009258637;-0.02045953;0.102843195;-0.11612181;0.1072112;0.17360412;-0.055932123;-0.01692082;0.282755;0.013014326;0.11234745;-0.06085886;0.05430258;0.17215952;0.008465535;0.3214542;-0.19084553;0.08453653;0.04270585;-0.27429152;-0.04114314;0.06035043;0.13375197;-0.07310518;0.1445389;0.14692736;0.11976515;-0.18311392;-0.1622523;-0.09171044
-0.07435653;-0.084311396;0.12706128;0.008582786;0.17312047;0.14897144;0.1459955;0.060220778;-0.014030551;0.08920473;0.050555583;0.21255441;-0.07756973;-0.24026729;-0.07504328;-0.25607687;-0.0038229176;0.061943967;-0.17850335;0.06924326;0.06452724;0.101726726;-0.022340791;-0.037674323;0.03567828;0.009223643;0.20607997;-0.22339098;0.00500692;0.17449649;0.036929697;0.14421606;-0.05733349;0.0161088;-0.017468698;-0.024805112;-0.032891404;-0.009867745;0.07796381;-0.040911943;0.047331575;-0.008104873;-0.022425694;-0.0464495;-0.044770963;0.030208008;0.014050717;-0.147314;0.027381342;0.23503828;-0.16358541;-0.05638795;0.079051234;-0.24174389;-0.005756218;0.06253421;0.09644877;0.028680846;-4.399025e-05;-0.03126748;0.11226512;0.03938333;-0.2368169;0.09357457;-0.38905898;-0.06592957;-0.020750526;0.0046763155;0.06138249;-0.18233953;0.00035054362;0.20245071;0.13558929;-0.10985011;0.16871934;-0.05948078;-0.017620362;0.03607701;0.089628;-0.032682322;-0.069675565;-0.18902113;-0.08265476;0.015481021;0.036010496;-0.1618483;-0.12288368;-0.0661382;-0.06810893;0.039706755;-0.12391986;-0.018425468;-0.08778346;-0.17999902;0.009772996;0.022225052;0.10964898;-0.17153107;-0.10204725;-0.103297494;-0.13734494;0.27354768;-0.027118701;0.034022525;0.009337341;0.20203374;-0.048910234;-0.06509284;0.10424899;-3.3888526e-05;0.041402765;0.039285835;-0.027543865;-0.10832727;0.11548018;-0.0045723505;0.018018331;-0.046995796;-0.10458671;-0.023454415;-0.0033006715;0.017302496;-0.016954953;-0.034921296;0.13030067;0.061770715;0.00037120172;-0.07091921;0.06447494;-0.15257609;-0.07325925;-0.017621933;0.026957512;0.11823654;-0.051048845;0.16411987;0.025988279;0.10090009;-0.159211;0.14222383;0.060747378;-0.15010543;-0.10112401;0.07827376;0.04883625;-0.0717935;0.13259308;0.07324033;0.18222952;-0.04255029;-0.15105143;-0.052219644;-0.23002943;-0.008648008;-0.009351915;-0.00856053;-0.042901244;0.10611219;-0.12031387;0.10129445;-0.22684118;-0.056310374;-0.02043651;-0.08208991;-0.0014718003;0.09160759;0.13270576;0.23382169;0.12002148;-0.062321883;0.1837814;0.054112036;-0.07439395;-0.003402836;-0.033792075;-0.058833156;-0.02742519;-0.06489778;-0.14179653;-0.061455164;-0.15257837;-0.043507986;-0.071913615;0.04789318;-0.12054463;0.17065032;-0.06461216;-0.09770856;0.1205208;-0.0077730305;-0.121148504;0.07508741;-0.017002095;0.06427704;-0.002977991;0.061499935;-0.07069352;0.015076475;0.1884002;0.018280264;-0.06606342;0.12747924;0.03913085;0.05000162;-0.11055402;0.1524943;0.014381299;-0.08862542;-0.0055695134;0.020887287;0.021595068;-0.08821375;-0.12544549;0.061982874;0.08672856;0.07488506;-0.09882852;0.1461416;-0.116293855;-0.20685145;0.05929458;-0.062035177;-0.0058650277;-0.011414044;0.11540278;0.016435571;0.15136479;-0.01213175;-0.0331521;0.10712364;0.058381554;0.12583381;-0.049686983;0.1288792;0.12255406;-0.114061095;-0.2023807;-0.04001909;-0.049012072;-0.15852927;-0.048845977;-0.12126961;-0.01460892;-0.078817494;0.052642807;0.18766792;-0.10244666;0.0069372156;0.01977908;0.09025018;-0.035072546;-0.017981464;0.12778215;0.04824375;-0.049743097;0.12464251;-0.02060782;-0.07004608;-0.00573067;-0.07956712;-0.100654654;-0.041094333;0.09860548;0.081390925;-0.15807374;-0.06448394;-0.105763085;0.10439466;-0.24806386;0.079898804;0.22140443;0.072351396;0.0679292;0.11020891;-0.067072615;0.017724307;-0.04993802;-0.049691852;-0.010435625;0.0677818;-0.0037428262;0.046766303;0.057883844;-0.065418124;-0.06793314;0.1490181;-0.06155169;0.011776865;0.07688542;0.24030617;-0.1266869;0.111065954;-0.06188311;0.017705677;-0.21013023;-0.064608045;-0.15648083;0.037419695;0.13978326;-0.2941636;-0.21467434;-0.017500004;0.1135032;-0.04310321;0.15949534;0.14992653;-0.12780719;-0.02955416;-0.11554705;-0.03053547;0.010094195;0.036784247;0.26928914;0.10260701;-0.13664143;0.0060366564;-0.13102308;-0.02738129;0.06731659;0.11087073;0.042721726;0.07394917;0.030968577;-0.0105546415;-0.03164028;0.2073395;-0.08210749;0.05061823;0.14451803;0.028944306;0.112361506;-0.0061764205;0.01543642;-0.09326434;0.03987736;0.14540352;0.1585376;0.074175395;0.17034324;-0.22441627;0.13272795;-0.18656367;-0.06406578;0.008288304;0.058934994;0.12134279;0.082153715;-0.18239824;-0.031709697;0.030253265;0.07709443;-0.117904425;-0.07372972;0.18154019;-0.15005855;0.00623765;-0.13693406;0.065658234;-0.027512042;0.2577492;-0.03208294;0.022089813;0.09176625;0.014640028;0.18380871;-0.18448852;0.009352183;-0.16324593;0.046785355;-0.020905996;0.11466735;-0.14227995;0.092573605;-0.10415496;-0.0075759245;-0.07886544;0.062329985;-0.022781512;0.01572749;-0.16972661;-0.114772715;-0.035368543;-0.0029375677;-0.07103962;0.102624394;-0.09133217;-0.09738944;-0.0061772396;0.15515715;0.09724943;-0.087808274;-0.063236736;-0.082618;0.010520793;0.017253937;-0.05783932;-0.05929583;-0.27421767;-0.015331603;0.039964642;-0.0072060274;-0.059280746;0.012412942;0.03592946;0.049072523;-0.05263088;0.0684512;-0.049984742;-0.046541817;-0.19115736;0.07711657;0.008772359;-0.12828787;0.13112181;-0.18090534;-0.04943111;-0.06981361;0.058312334;-0.025129167;0.2768921;-0.256758;0.03267221;-0.061077315;0.18226998;0.1336065;0.12183841;-0.1736107;-0.18588807;-0.03748235;0.07125324;0.11867934;0.038487706;-0.050958123;-0.042324115;-0.043658916;0.11386209;0.08653085;0.15372081;0.018940357;0.12887648;0.012192831;0.16949579;-0.051352955;0.03920655;-0.0030541352;0.13672347;-0.11305351;0.08748145;-0.09431295;-0.20378494;0.04170535;-0.06488159;0.014075361;0.26417914;0.1120051;-0.02644592;0.0028265174;-0.055937048;-0.09752641;0.31766793;0.06678776;0.077520534;0.029280331;0.12005264;-0.19273865;0.24180344;-0.0493587;-0.10338056;-0.08695761;0.19911422;0.08918488;0.07965578;-0.058728077;-0.100079894;-0.04970417;0.028388852;-0.09058072;0.1438775;-0.048538283;-0.007841314;0.10050961;-0.13288262;-0.10781284;-0.07062923;-0.043873724;0.02174845;-0.04287094;0.056799345;0.0025641168;0.23678027;-0.11971587;0.12138718;0.13138302;-0.056480274;0.004732021;-0.2741455;0.0017219918;0.04232945;-0.07907571;-0.104100354;0.11087675;-0.0408368;0.1447509;0.1800247;0.002719549;-0.026890261;0.041803088;-0.030572524;-0.12709644;-0.047124103;-0.05307707;0.034676664;0.03435485;-0.1969926;0.11318214;0.07133021;0.007176996;-0.114861995;0.0015029287;-0.25302434;-0.10712901;-0.19374993;0.1442383;-0.13624536;-0.057424154;0.046477806;-0.08463894;0.11417937;-0.0010327115;-0.116473615;-0.072546534;0.08996156;-0.15155979;-0.022634426;0.06526356;0.095260344;-0.00872161;0.00543048;-0.26598024;0.032641806;-0.005861112;-0.037776463;-0.061320562;-0.068444334;0.07536587;-0.017376764;0.045029152;-0.11721025;0.09940625;-0.061407708;0.19905056;0.04087005;-0.06658917;-0.08562674;0.14386381;0.029316755;0.016815845;0.058331586;0.07883824;0.054019887;0.112371735;0.30366457;-0.23781407;0.07881986;0.09031725;-0.17427935;-0.015462356;-0.0013134788;0.061346993;-0.12889676;0.03939146;0.037651077;0.12504621;-0.22626288;-0.08349299;-0.08297827
-0.09573445;-0.046207134;0.063354716;0.12800363;0.19467431;0.26163307;0.04655458;0.12267915;-0.026622478;0.08610686;0.044225056;0.21987283;-0.051343568;-0.14432858;-0.14212877;-0.34707937;0.07327963;0.068559185;-0.17416814;0.12558353;0.03602024;-0.004120399;-0.04329251;-0.07307295;-0.006508491;-0.018286634;0.16559215;-0.19044107;-0.08892404;0.16310182;0.09366783;0.19166501;0.03811508;-0.047801748;-0.09094438;-0.01968047;0.037702516;0.01523116;0.081335425;-0.039426737;0.14360763;-0.08599949;-0.027982004;-0.034633867;-0.029786665;-0.030932583;-0.010287147;-0.21171866;0.0055747377;0.2010309;-0.22024365;0.031783886;0.06522496;-0.09833836;0.064288646;-0.14473905;0.17121051;0.14566246;-0.04809726;-0.033473782;-0.004805005;-0.08656723;-0.15035231;0.14036822;-0.34503263;0.03327715;0.124301106;0.016077051;0.09231298;-0.1624068;0.085150965;0.23503736;-0.025285812;-0.0607244;0.085628815;-0.086369686;-0.10928757;-0.043183062;0.1151343;-0.04490473;0.047326475;-0.11035131;-0.09032014;0.10030064;-0.060595434;-0.10897774;0.0057622935;0.01809534;-0.048992373;0.010655073;0.09439067;-0.055309832;-0.09482526;-0.07678061;0.0050831996;-0.026976159;0.0171624;-0.08663206;-0.06944157;-0.047380835;-0.13239592;0.30557084;-0.0067275325;0.005791406;0.035354894;0.17022352;-0.1286299;-0.09662099;0.1800409;0.022092417;0.07598418;0.04252868;0.030779507;-0.06622002;0.14659333;0.07288826;0.05157759;0.09435335;-0.005342665;-0.008597173;-0.04158294;-0.038745813;-0.11602903;0.0564541;-0.013218236;-0.0010274644;0.08925762;-0.049335077;0.085552506;0.021683138;0.039015647;-0.17192972;-0.00688829;0.1909685;-0.0031483097;0.011738203;-0.046037406;0.0641846;-0.105887674;0.13666523;0.060819793;-0.16238675;-0.014627806;0.092737176;-0.10745562;-0.17300487;0.05693424;0.017932342;0.058495514;-0.16580394;-0.19388355;-0.097377114;-0.28867906;-0.06831243;0.07486101;0.004959742;-0.010994211;0.10152303;-0.16844602;0.07099422;-0.29663303;-0.05775792;-0.014308129;0.020945454;-0.069362655;0.023300027;-0.015589644;0.22605321;0.110531874;-0.06766519;0.11423815;0.098415844;-0.03646454;0.027544577;0.050607316;0.07813921;-0.08906306;-0.077166356;-0.094343156;-0.14391486;0.025393272;-0.07616522;-0.07628169;0.11655017;-0.14947063;0.09694201;0.030746344;-0.19667527;0.12116748;-0.09233077;0.0033825785;0.066473335;-0.028729102;0.09754477;0.08419422;0.075674266;0.08373535;0.08651794;0.028224792;0.02698636;-0.053840965;0.19765742;-0.045859125;-0.01690664;-0.088937886;0.019532094;0.0026370187;-0.105799064;-0.10255468;0.007902488;-0.038935214;-0.07893249;-0.02692822;-0.057923336;0.0773844;0.085052684;-0.035901148;0.052467275;-0.17255546;-0.05264375;-0.034981754;0.051011305;-0.12442481;-0.073176496;-0.02392731;-0.042637423;0.08504535;-0.12849939;-0.08590732;0.058741536;0.037035577;0.1461672;-0.056052785;0.1689982;0.022815876;0.005742831;-0.063599855;-0.11007692;-0.060916454;-0.1848996;-0.070877336;-0.12948063;-0.0075238612;-0.21299143;-0.0018838418;0.16005996;-0.054571167;-0.029760985;-0.06767052;0.09539931;-0.10407026;0.05284817;0.12961717;0.03841798;-0.07782683;0.06330405;0.031638924;0.074913986;0.061953206;0.05003011;-0.0640178;-0.15367153;0.11484593;0.027603723;-0.11407053;-0.0057157194;0.004047436;0.061141305;-0.22484955;0.08174113;0.1461939;0.18668608;0.094093494;0.012670234;-0.055888373;0.07381143;-0.097956896;-0.17759459;0.121709794;0.10997929;-0.09710035;0.06904521;0.17902195;-0.05324017;-0.11892451;0.09808189;0.059650104;0.045993116;0.034691695;0.26402506;-0.18377842;-0.02905413;-0.044256363;0.0321526;-0.13548696;-0.14859061;-0.076298594;-0.04529053;0.08164574;-0.19574492;-0.21353222;-0.06780315;0.13857496;-0.02611913;0.19158533;0.0061795227;-0.10679024;-0.077759944;-0.11551522;0.13939932;-0.0943614;-0.008962742;0.16689728;0.05123958;-0.01766639;-0.15908714;-0.09393738;-0.102533594;0.15503545;0.15708455;0.05485125;-0.050244063;0.010066106;0.14897937;0.08575342;0.2999727;-0.046607066;0.17901003;0.05987818;-0.026098616;0.050675683;-0.0014040272;0.055817127;0.017242542;0.062216315;0.1085008;0.10017548;0.18807976;0.28716594;-0.19427906;0.00618368;-0.11739356;-0.009719891;-0.045671713;0.037512325;0.15482289;0.121148355;-0.21620883;-0.093840994;0.023374945;-0.032997377;-0.18112105;-0.1521307;0.1450478;-0.103895724;-0.12940596;-0.12330168;0.0059740017;0.010887213;0.26530045;0.16859923;-0.054228485;-0.025719712;-0.034721505;0.05993781;-0.15059173;-0.012756883;-0.19105928;0.057068147;-0.027323537;0.22518545;-0.20727627;0.1664389;-0.012575953;0.018159999;-0.023511015;0.0178558;0.011911288;0.0068822084;-0.31187475;-0.054918338;0.06283365;0.06599763;-0.03969095;0.19108436;-0.022360688;-0.072205886;-0.02844642;0.2191404;-0.014621283;-0.05830219;-0.16914426;-0.048003033;0.06375253;-0.032989033;-0.14347462;-0.13179563;-0.25498894;-0.0917868;-0.08767738;-0.0837891;0.065997295;0.06630912;0.09364302;0.05537443;0.050243314;0.0432616;-0.043166667;-0.09065193;-0.11305506;-0.03965985;-0.047257926;-0.15358052;0.058285862;-0.16927734;-0.1818543;-0.016253749;-0.12526928;-0.078771114;0.22495951;-0.0398094;-0.031252716;-0.010046296;0.033896863;0.09692159;0.06407058;-0.13702482;-0.1609593;-0.11089678;-0.012376201;0.118938394;0.055170335;-0.018495854;-0.06798243;-0.07369672;0.051145457;0.008873641;0.20136179;0.03035632;0.117449015;-0.010440066;0.15086864;0.007638008;0.0750622;-0.09333732;0.049600184;-0.03382572;0.03176311;-0.080362104;-0.14589001;-0.05061206;0.027140439;-0.015766231;0.10297992;0.12871443;0.011279199;-0.07775917;-0.038962677;0.029305842;0.22769757;0.078698926;0.2308632;0.048074078;0.073899694;-0.027822904;0.18396746;0.011542508;0.010382139;-0.06903529;0.08733632;0.078351066;0.025109692;0.019565951;-0.032849766;-0.07713693;0.13817894;-0.14361443;0.08030166;0.056170125;-0.06137209;0.09067838;-0.19715855;-0.15300348;-0.06632426;-0.13913313;0.04687943;-0.009981577;-0.011974725;0.07674153;0.22136822;-0.032504506;0.07554385;-0.058756605;0.036318604;0.021874946;-0.3081165;0.02408585;0.18415868;-0.13473499;-0.030827567;0.11386068;-0.027733859;0.19196936;0.08067971;0.13220185;-0.06673482;0.07144529;-0.0484388;-0.14761345;0.08185476;-0.11195011;0.0052435948;-0.0569222;-0.23055702;0.044012386;-0.011974717;0.005332847;-0.2006078;-0.0082537765;-0.07974644;-0.080980726;-0.16703507;0.03276845;-0.10579391;0.028749608;-0.035371356;0.08626496;0.004590458;-0.038411602;-0.07201826;-0.0479829;-0.06419097;-0.22103064;0.06791051;0.038625788;0.17380463;0.026617428;-0.05551121;-0.17574462;0.1865047;-0.015756892;0.03603198;-0.062779166;0.0043556243;0.057641838;0.00023426366;0.047319695;0.009236189;0.016264558;-0.0887602;0.16737993;0.15268481;-0.0430487;-0.17523123;0.26011539;-0.07390962;0.099399574;0.053874284;0.03762311;0.14087817;-0.005006875;0.29045796;-0.22834572;0.09226631;0.06270694;-0.25756213;-0.058649115;-0.0461165;0.1715249;-0.10940344;0.14505337;0.14347696;0.10199909;-0.32284877;-0.17329557;-0.032795593
-0.057420243;-0.15880947;0.031334035;0.054658547;0.13352168;0.15668647;0.09185398;0.1437563;0.10847361;0.0106670745;0.18088965;0.16947894;0.0954944;-0.07389227;-0.114333324;-0.30518034;-0.0942727;0.075525135;-0.15646519;0.1082734;-0.05952106;0.12763366;-0.12054413;-0.13408351;0.06998857;0.028171899;0.26954126;-0.18929335;-0.068281494;0.27631563;0.05353944;0.13074404;0.0019877395;7.709728e-05;-0.00110905;0.03714541;-0.07456274;-0.09667606;0.11403089;-0.14843576;0.07545843;0.025088245;-0.13334332;-0.1632594;-0.0123175075;0.04375878;-0.00803724;-0.21336438;-0.051433567;0.19095558;-0.18517669;-0.014912996;0.032202415;-0.13778391;0.109461926;-0.15753742;0.12912576;0.050465908;-0.06023209;0.08406787;0.09177977;-0.006279756;-0.09661057;0.04444859;-0.2814711;-0.0036796224;0.0677258;0.025485396;0.029963467;-0.1134029;0.034161903;0.282331;0.009899895;-0.069918595;0.16202758;0.06642603;-0.11260762;-0.012142224;0.2987101;-0.028509514;0.012831355;-0.13694902;-0.012691605;0.033611074;-0.01351104;-0.080204464;-0.109712645;0.07558775;-0.033839025;0.07770257;0.016398568;-0.010362222;-0.046560396;-0.22162567;0.028348396;-0.045529705;-0.03372566;-0.07144091;-0.108185545;-0.13936716;-0.09168613;0.2275922;-0.11671114;-0.07761588;-0.026250096;0.048162233;-0.024585078;-0.16904461;0.0609411;-0.02821557;0.10137585;0.15632586;0.059086863;-0.09366768;0.11843155;-0.028893279;0.01952482;-0.031423014;-0.06621522;0.017717393;-0.016420452;-0.14699058;-0.048439603;-0.047895394;0.055095702;0.08440921;0.00059310393;0.053685926;-0.0019117282;-0.13095804;-0.06483592;-0.099606074;-0.065529235;0.07809245;0.061022487;0.07763999;-0.025461692;-0.03888731;-0.16075386;0.13913369;0.16508596;-0.17553952;-0.0062557124;0.12978299;-0.06732037;-0.1434417;0.10096216;-0.023332844;0.04757723;-0.0697294;-0.022392021;-0.17224035;-0.2625672;-0.025404261;-0.0039345;-0.03405194;0.111745834;0.11805725;-0.012919351;-0.030611206;-0.2526904;-0.03406463;-0.1734203;-0.12580794;-0.07234758;-0.031062085;-0.038612686;0.3431248;-0.04035464;-0.0329676;0.061111845;0.0822796;-0.12470186;0.06499518;-0.07325965;0.101381905;-0.10204346;-0.07147799;-0.09310751;-0.06542268;-0.022396583;-0.066151194;0.043299086;-0.030052489;-0.22891083;0.08677771;0.009986723;-0.11759336;0.22282368;-0.069497414;-0.11071644;0.13444741;-0.073082544;0.11526029;-0.030170351;-0.026939593;0.0031771602;-0.040069006;-0.032858003;0.007846958;0.0093360385;0.12703645;-0.05710317;-0.13443804;0.056853555;0.12461477;-0.03885908;-0.12597305;0.01842072;0.030609934;0.08447171;-0.050072193;-0.13463259;0.0012551981;0.118988976;0.10387562;0.03651671;0.0650656;-0.08601188;-0.095832415;-0.05674329;0.09672075;-0.13193075;-0.09161461;-0.047495898;-0.038910735;0.15401185;-0.020209666;0.024290133;0.19777992;-0.010521252;0.17000324;-0.0097529;0.21098226;0.019773982;-0.12028064;-0.07989575;-0.1509277;-0.048130505;-0.25013754;0.015220506;-0.12015134;0.078088835;-0.03975169;0.0660471;0.16201591;-0.05856892;0.05307303;0.04421236;0.14001979;0.034113098;0.0017851017;0.030363496;0.113765165;-0.030856194;0.047858708;0.08350103;0.10562225;0.14496496;-0.10208226;0.047527052;-0.016641794;0.055624004;0.11073895;-0.13954103;-0.068268694;-0.047617923;0.019630363;-0.17492782;0.10771535;0.16668627;0.16287345;0.115994744;0.013219417;-0.008266682;0.0469509;-0.099901915;-0.082886755;0.0063394974;0.03723995;-0.12755407;-0.00393067;0.08125959;0.081186265;0.016871717;0.099743016;-0.08652196;-0.022810765;-0.06142729;0.24105334;-0.1626582;0.06998088;-0.048490886;0.030723527;-0.2565388;-0.11389736;-0.102429725;0.037101112;0.15992847;-0.14383341;-0.2343844;-0.05008703;0.10999287;-0.16548516;0.06392168;-0.0032340747;0.0069945916;-0.024781061;-0.08747881;0.13826089;0.030419823;0.012683475;0.17137073;0.1262012;-0.09676821;-0.1509829;-0.0070326133;-0.15226024;0.16056007;0.1584453;0.05959873;0.0568993;-0.037467066;-0.020912321;0.07272567;0.18832362;-0.16106187;0.08620366;0.14104949;0.092591435;0.054006066;-0.093222894;0.15994097;-0.07877545;0.19377063;0.115751855;0.052173942;0.25050578;0.26962128;-0.28790072;-0.06624086;-0.20760998;-0.008997447;-0.081272036;-0.014346577;0.11554985;0.17312866;-0.10143494;0.058190767;0.078476325;-0.026612293;-0.1196705;-0.22412254;0.071856834;-0.23910977;-0.098867305;-0.2789488;0.054789897;-0.002936779;0.25207764;0.11981009;-0.06411575;0.012796609;-0.072932854;0.11482037;-0.10511708;-0.093320824;-0.08281209;0.09477768;-0.008965851;0.11132974;-0.17485446;0.1923578;-0.024032518;-0.046415273;-0.04504769;0.0226156;0.10187608;-0.037020173;-0.18834445;-0.048885237;-0.027218124;0.04398051;-0.12177824;0.13129991;-0.1136125;-0.25648397;0.08650987;0.16000396;0.060099714;0.03576187;-0.29965386;-0.029539881;0.08576593;-0.002981245;-0.010030143;-0.114221476;-0.2307747;0.05822479;-0.12974828;-0.11432778;-0.06961011;-0.028743206;0.15776205;-0.05401448;-0.07402766;0.071814954;0.005327261;-0.13424037;-0.08201558;-0.013761501;0.0040195505;-0.20786953;0.016495295;-0.21246955;-0.04675076;0.013669406;-0.073605016;0.012868786;0.29086688;-0.073796146;-0.060153436;-0.086633086;0.13610302;-0.015239521;0.21580337;-0.21196416;-0.19439775;-0.073906556;0.05202568;0.14148645;0.1290485;0.022343965;0.008232478;0.10181484;0.11447577;0.056016166;0.15275545;0.078265324;0.19416764;0.07941795;0.08272829;0.0881719;0.055118706;-0.0660434;0.048906274;-0.068214595;0.056676146;-0.04482006;-0.20866118;-0.048671916;-0.0273966;0.09727368;0.071873546;0.116360344;-0.0020735615;-0.08820931;-0.08472895;-0.075293176;0.19766226;0.01962992;0.2032599;0.12014967;0.06122856;-0.04945994;0.22335511;-0.059324443;-0.13136572;-0.011133337;0.07981977;0.13966665;-0.023239432;0.03337188;-0.13140444;0.02098333;0.15035142;-0.06712638;-0.032960054;-0.023310505;-0.09472433;-0.010312181;-0.19045591;-0.019137826;-0.05895353;0.054869853;0.09183871;0.042132497;0.02417888;0.048729077;0.13742705;0.065903895;0.14064857;0.053266637;0.028253362;-0.07766703;-0.28185758;0.04072362;0.17156947;-0.031962406;-0.010581501;-0.009808502;-0.12384506;0.12322642;0.09593235;0.111189544;-0.1321844;0.12653004;-0.045722604;-0.08155384;-0.008661528;-0.041220937;-0.024377653;0.050922643;-0.14712164;0.0820829;-0.04276112;0.015407381;-0.08962607;-0.045382477;-0.1547667;-0.1943751;-0.13691604;0.10237821;2.5192849e-06;-0.17687848;-0.021632226;0.03698547;0.13366893;-0.03174457;-0.07360094;0.025016833;-0.056672864;-0.16845314;0.021428233;0.11697078;0.04703181;-0.008858079;-0.18355131;-0.19394012;0.13013588;-0.059230622;0.041284766;0.0035771504;0.0767899;0.1217308;-0.053551823;0.012926484;-0.08141145;0.033144463;0.03798427;0.1891993;0.044338107;-0.14337254;-0.11891908;0.25015488;-0.10434276;0.13119452;-0.056291334;0.05093404;0.06352717;0.111449115;0.23173125;-0.25143883;0.10476123;0.06484795;-0.24455479;-0.10344397;-0.025481217;0.026064707;-0.16166516;0.084777065;0.017785864;0.17109126;-0.2516502;-0.15226486;0.029918429
-0.048352413;-0.1050392;0.10580636;0.08269048;0.10175621;0.20077915;0.1290323;0.17535485;0.106986985;0.08879606;0.1578575;0.29662135;0.120755844;-0.15350719;-0.07547117;-0.31935987;-0.115543045;0.1072507;-0.059645317;0.17050993;-0.091309704;0.14377914;-0.13508868;-0.1521044;0.010675545;-0.05383026;0.23600757;-0.19555783;-0.016495774;0.18219587;0.029149616;0.0995776;-0.059261367;-0.053505346;-0.13001247;0.08195185;-0.05090188;-0.0077152806;0.02201664;-0.071289666;0.19835375;-0.06449268;-0.1409138;-0.08972207;-0.06561685;0.111951515;0.024781372;-0.25359035;0.0287903;0.22736967;-0.1583316;-0.10306435;0.07609821;-0.22027019;0.0502016;-0.21404493;0.14850795;0.14008819;-0.017677179;-0.011244103;0.1354463;-0.028076006;-0.08254453;0.0049711135;-0.22416505;-0.051591482;0.12442908;0.08699902;-0.007025513;-0.18039037;0.11228589;0.2140429;0.10929687;-0.0990756;0.092797235;-0.0020726796;-0.07948356;0.027490802;0.18032835;0.08254739;-0.03125176;0.053083777;-0.017851546;0.040107034;-0.14971684;-0.07493448;0.0043566204;0.03424086;-0.061673358;0.013086787;-0.0011040851;0.07839087;-0.008471864;-0.11046372;-0.046537824;0.028128173;0.06658141;-0.11633579;-0.030416604;-0.03510169;-0.017718457;0.30072135;-0.096213184;0.020837085;0.04688726;0.17499132;-0.10139759;-0.08275869;0.22738755;-0.11749807;0.038085863;0.05489385;0.026700905;0.013197992;0.07683135;-0.0071358136;-0.0471226;0.077331245;-0.019272953;0.06909022;0.08223411;-0.059947036;-0.22607572;-0.044608455;0.018269079;0.088129535;0.0056178267;-0.05398403;0.008499606;-0.049958196;-0.020404607;-0.19824931;0.040525936;0.14609578;0.056771785;0.007576749;-0.06381711;-0.027367763;-0.13836414;0.10554785;0.004705485;-0.10377941;-0.08410248;0.08173139;-0.11203618;-0.10918416;0.14606208;-0.044842742;0.1300971;-0.07152175;-0.12685099;-0.16231398;-0.25466532;-0.10309463;0.056707423;-0.14560764;0.04655117;-0.023060882;-0.094477266;0.11138267;-0.24436677;-0.045257226;-0.11737148;-0.08401431;0.045887254;0.023174748;0.058769014;0.26258156;0.039907906;-0.14685185;0.17500074;0.08658034;-0.010745374;0.014100637;0.1138643;0.10610006;-0.12378993;-0.038917653;-0.15284915;-0.06635585;-0.057118483;-0.070852935;-0.01089704;0.07561352;-0.23941527;0.1129576;0.022641351;-0.12363796;0.17975877;0.015381865;-0.044959027;0.09959914;0.006384602;0.02469925;0.026910111;0.07716142;0.067647405;0.13275263;-0.12257675;0.16217361;-0.11475347;0.13058914;-0.090058394;-0.2185136;-0.045691945;0.12842359;-0.002299389;-0.20372988;0.04434715;-0.014035404;0.065528676;-0.014701945;0.0008283476;0.020059045;0.056841854;0.025157966;-0.08092023;0.00040120963;-0.12395659;-0.035717897;-0.048588682;0.06528798;-0.070585616;-0.043158807;0.0055471184;0.09475249;0.037824012;-0.13929205;0.017192567;0.044668116;0.02218283;0.115028195;-0.03444943;0.21063748;0.07661789;-0.0015307465;0.013853777;-0.07417021;-0.15688662;-0.14862585;-0.10762205;0.038371075;0.022542251;-0.011630293;-0.12005863;0.08065235;-0.022002531;0.075222544;0.028275767;0.1165957;-0.0091136;-0.007679235;0.06439989;0.011964219;-0.028217366;0.14941995;-0.06255335;0.10839394;0.1994728;0.04755634;0.023158018;-0.040092412;0.07462817;-0.010250183;-0.17004025;0.053537633;0.051623918;-0.013393581;-0.20552322;-0.011582746;0.21073084;0.18483026;0.10075777;-0.035840645;0.049500916;0.017926082;-0.029674083;-0.05931245;0.053027935;0.06990551;-0.11720826;-0.046746112;0.16111812;0.03724489;-0.07313326;0.08731291;-0.0894542;-0.011522289;-0.015439416;0.17282477;-0.20076193;0.026062539;-0.109823324;0.047439013;-0.20466205;-0.10207994;-0.0058279806;-0.024648244;0.16165575;-0.13613747;-0.2816694;-0.07198607;0.10964148;-0.057490088;0.10438023;0.009553984;-0.006042645;-0.07384368;-0.14207709;0.046825506;-0.049520187;-0.090664715;0.03478403;0.10343938;0.05124165;-0.10700176;-0.093329415;-0.037354037;0.117617264;0.063562125;0.080488145;0.041725136;-0.10370361;0.0042015784;0.0065055;0.2013535;-0.090343244;0.066675454;0.021896327;0.029770372;0.087970816;-0.03033468;0.072896175;-0.119309805;0.16580027;0.2031078;0.17949687;0.18453859;0.30843672;-0.12070446;-0.04065314;-0.18479967;0.004147406;-0.03190462;0.11793465;0.14878213;0.0027852303;-0.01997327;0.08665935;0.014535301;-0.09614781;-0.0028795276;-0.13028948;0.12133449;-0.2525985;-0.031576384;-0.18758407;-0.072553605;0.041729424;0.27380222;0.20264567;-0.06489417;-0.09845839;0.02928972;0.110947214;-0.1367734;0.018522687;-0.17875277;0.0047809845;0.002405145;0.25247085;-0.27626508;0.10427438;-0.11726265;0.03878549;0.037216917;0.11749777;-0.0372201;-0.017556323;-0.26978227;-0.18138552;0.05050921;0.0046798848;-0.15377492;0.074749544;-0.011025956;-0.06626371;0.045533314;0.13528585;-0.023168733;-0.013330674;-0.24404334;-0.04769149;-0.03474377;-0.032865595;-0.094236106;-0.033300538;-0.16085498;0.07284766;-0.024797676;-0.11454903;-0.11984455;-0.034812573;0.0465461;-0.04407976;0.09285531;0.08393719;-0.0981636;0.005042183;-0.06679495;0.090467066;-0.21833085;-0.20345625;0.07423629;-0.096272215;-0.05670658;-0.029347539;-0.0675262;-0.05186692;0.26773584;-0.018128105;-0.14141144;-0.11826188;0.095391;0.06262026;0.2278767;-0.00890838;-0.18012865;-0.10450153;-0.064232476;0.07682363;0.06295726;-0.023175145;-0.067847736;0.0038044567;-0.046186276;0.06795667;0.24011295;0.057056848;0.18976505;-0.0053529637;0.02679627;0.18697841;0.0068424493;-0.076198764;0.12855947;-0.056227908;-0.038677398;-0.084512115;-0.15719438;-0.121186174;0.036625497;0.03850411;0.19811474;0.0302067;0.10438749;-0.14503361;-0.15473993;-0.0663465;0.279179;0.073934436;0.2137669;0.10430044;0.06538586;0.020594366;0.14315099;0.0075619966;0.029792937;-0.14813434;0.018700259;0.0808663;0.0027741138;-0.082823016;-0.031292357;-0.034332328;0.04077386;-0.14320673;0.034168877;-0.0062733954;-0.026700169;0.047157254;-0.09508901;-0.08916553;-0.0005850925;-0.108743116;0.10058901;-0.119423494;-0.0851316;0.080132656;0.10076485;-0.042085208;0.19497177;-0.07358441;0.10596443;-0.0070674215;-0.25675663;0.0048521436;0.18547277;0.011523581;0.070146315;0.050762415;-0.15588039;0.04566829;0.07276076;0.14155279;-0.06587974;0.15158284;0.07747279;-0.04797647;0.13227655;-0.02004684;-0.110129446;-0.070217155;-0.15787916;-0.0540049;0.058334414;0.14814532;-0.10698996;-0.021646338;-0.21258579;-0.22735885;-0.18627562;0.13528714;-0.026606904;-0.04176313;-0.00057036575;0.08269925;0.1156957;-0.14304802;-0.04151018;0.042679965;0.007771288;-0.15774634;0.11134038;0.06303142;0.03871021;-0.07621225;-0.14598843;-0.09339546;0.17265745;-0.03316828;-0.051720336;-0.15084337;0.11876498;0.14560105;0.10461228;0.029298555;-0.030793248;0.040383957;0.04738611;0.05362716;0.061873347;-0.1719383;-0.18361455;0.19693644;-0.053306494;0.09438884;-0.050818868;-0.017809011;0.08429213;0.018551283;0.19419782;-0.27388665;0.06650822;-2.824668e-05;-0.21713644;-0.098855875;0.024464821;0.05247932;-0.17675301;0.17238067;0.045804553;0.17739168;-0.28137514;-0.14927314;-0.030904185
-0.11692606;-0.029653968;0.15901382;0.06116457;0.03599608;0.17811859;0.032774642;0.23634142;0.051839635;0.050165858;0.11795529;0.19789912;-0.037207007;-0.06381136;-0.10556384;-0.24049753;0.0078086746;-0.0392851;-0.07675269;0.078660026;-0.0028242308;0.15930833;-0.18834445;-0.18053353;0.15864666;-0.053430744;0.3239563;-0.090285785;-0.03894374;0.08939473;0.01028813;0.029965775;0.08106959;-0.025927404;0.037630815;-0.048882663;-0.018689703;0.0555137;-0.01259244;-0.003232186;0.049983516;-0.07224791;-0.1714907;-0.11150497;0.020888757;0.100965075;-0.0009614658;-0.18703483;-0.101253584;0.14218272;-0.20360677;0.027240546;0.09811652;-0.12416025;0.053320654;-0.18943545;0.11491978;-0.024203517;-0.08765413;0.09941042;0.00647078;-0.12733096;-0.05334457;0.01628404;-0.21892725;-0.05902611;0.1259499;0.15118584;0.0010634745;-0.17490073;0.07587971;0.3441645;0.030731536;-0.1666156;0.1949285;0.09254344;0.032506857;0.03377656;0.14735682;0.05403992;-0.02442402;0.030746382;-0.06706728;0.021822177;-0.08112161;-0.14739309;-0.19210784;0.004743708;-0.23548232;0.17621392;-0.041767187;-0.039339084;-0.061313707;-0.013580673;-0.05575425;-0.0028202545;-0.04651057;-0.13987865;0.050609816;-0.15785764;0.025223175;0.283228;-0.054809455;0.11992881;0.0917148;0.00035112404;0.0061931657;-0.12937734;0.1470337;-0.02709558;0.17448466;0.07769484;-0.0027275556;-0.104261614;0.13555235;0.15330061;0.0041853585;0.028725188;-0.06251524;-0.07461403;0.10074498;-0.13351004;-0.1530862;-0.039155446;-0.01274612;0.012787194;0.0411025;-0.08303203;-0.035404697;-0.022266094;-0.091861516;-0.18363193;0.007665425;0.09575845;-0.043437667;0.0956536;-0.062353272;-0.15864559;-0.0022748173;0.18152477;0.07641473;-0.07088409;-0.06599492;0.08789356;-0.09203293;-0.104932204;0.1387676;-0.101089396;0.04700232;0.004990255;-0.14676525;-0.21242014;-0.17701995;-0.01814513;0.017558834;-0.03749583;0.14906065;-0.022233289;-0.112220064;-0.003205818;-0.12263528;-0.13083556;-0.13272074;-0.09319357;-0.079507954;0.11881698;-0.09113245;0.2079044;0.051717415;-0.01753724;0.15763535;0.044974595;-0.017542854;0.11645487;0.05760737;0.16485044;-0.018133936;0.07859645;-0.057554152;-0.044180743;0.002099999;0.003221156;0.030202797;0.07891543;-0.22057137;0.07351448;0.11264913;-0.19862102;0.11803905;0.09489556;0.06920825;0.08110452;-0.019569129;0.13744533;0.017115802;-0.029018814;0.07517917;0.09730794;-0.033963505;0.16973697;-0.070957385;0.0970822;-0.01386479;-0.17346907;-0.043075636;0.02029162;-0.06698047;-0.16113348;-0.13089211;0.022000117;0.14566751;-0.046111714;-0.10352872;-0.0018686587;0.077445276;0.15743767;-0.031200986;0.041134965;-0.11877556;-0.07778423;-0.06006749;-0.029035317;-0.15219933;-0.14028196;-0.080615394;0.046828404;0.026081163;-0.1522219;-0.0068261926;0.11764241;-0.0128825605;0.16948895;0.03489451;0.05486758;0.061157633;-0.051347304;-0.035046823;0.002692137;-0.016644185;-0.13482973;0.04303502;0.0025456478;0.22554018;-0.14383255;-0.0928826;0.16985115;0.0071860435;-0.04206287;-0.012796896;-0.025741583;-0.01113196;0.04784709;-0.04060748;0.13472961;-0.11414088;0.11795896;0.07185491;0.085814156;0.16610038;-0.03978552;0.07895398;-0.077196695;0.17817935;0.06461262;-0.20249735;-0.10370691;0.0029748394;0.016494662;-0.20501617;0.06919707;0.18843274;0.21128899;0.037219703;-0.065912016;0.11134543;0.1755776;0.033809453;-0.05629951;0.09018581;0.08773853;-0.15463853;0.026086282;0.12802006;0.038683027;0.053566396;0.07668152;0.008605917;-0.03597382;0.0039893356;0.15104619;-0.25586858;0.08522594;-0.11894115;-0.052397836;-0.17511533;-0.24182218;-0.10558742;-0.08124302;0.08913432;-0.068201534;-0.29884458;-0.18990877;0.01369652;-0.08596074;0.15647483;0.11878351;-0.08799341;0.09706019;-0.09000956;0.040901832;-0.0818007;-0.13297589;0.011956568;0.13236237;-0.06953851;-0.1644341;-0.052172944;-0.14711402;0.18423362;0.07957052;0.14442539;-0.068036385;-0.151094;0.106902726;0.06481574;0.21754631;-0.17142849;0.031864487;0.07788615;-0.095096484;-0.032497466;-0.08435618;-0.021621475;-0.03716649;0.15139866;0.09916224;0.079556644;0.15015577;0.2583206;-0.116013646;-0.0973902;-0.01857599;0.006030938;-0.16308844;0.0065644523;0.085481;0.09717633;-0.06336297;0.060204085;0.11521438;-0.06961348;0.024047311;-0.07970272;0.06485821;-0.15212643;-0.098295294;-0.28019375;0.0087224785;-0.07455867;0.3090175;0.22230092;-0.06460625;-0.103896216;-0.026985336;0.16626476;-0.0027998819;-0.052629165;-0.0048562265;-0.1097069;0.056302674;0.20924753;-0.22772636;0.1008357;-0.029644465;0.12931983;-0.018359762;0.14923017;0.06548202;0.008934346;-0.16560788;-0.09750449;0.042866427;0.060373753;-0.049058188;0.22113185;-0.19248973;-0.11389359;-0.03389103;0.09092312;0.0123355705;-0.09090236;-0.278624;0.02538568;-0.040913325;-0.07553715;-0.15188852;-0.10775828;-0.14464712;-0.0030145624;-0.12844093;-0.1621136;-0.15526861;0.07635217;0.11488555;-0.06692507;0.04315838;0.060223628;0.042313762;0.035936963;-0.15798436;-0.10212174;-0.08044187;-0.29012918;0.14716457;-0.1887178;-0.011010745;-0.11044447;-0.038242206;0.10355129;0.33145136;-0.08527265;-0.1738008;0.038759958;0.15358488;0.027706116;0.21538986;-0.050216615;-0.11949665;0.022307351;-0.065668575;0.24726139;0.031510442;-0.041905206;0.053023916;0.15497561;0.07220071;0.07254512;0.24243721;0.05252776;0.19868545;0.08271959;0.022548337;0.08347554;-0.0133121805;-0.008138467;0.08531362;-0.07752924;0.05087101;0.114654265;-0.12574944;-0.17985901;-0.057663694;0.08247351;0.09964497;-0.04541895;0.025854012;-0.044252563;-0.08496918;-0.053031538;0.13686138;0.177416;0.10953153;0.13673429;0.023855204;-0.060738206;0.22985078;0.012710024;0.030675631;-0.012209777;0.017625237;0.10963533;0.11426877;-0.13520215;-0.14937179;-0.075748384;0.15180671;-0.05686411;-0.055870477;0.0075918846;0.06616287;0.044140283;-0.25377834;-0.22231074;-0.018418156;-0.088062465;0.07567168;0.045833517;0.060948703;0.0026609704;0.08019716;-0.009505437;0.19732495;-0.09122727;0.09891871;0.035932332;-0.11686819;0.06156517;0.028642528;-0.046256274;0.024115013;0.05076184;-0.21248098;0.106868505;0.099719256;-0.015598579;0.020499982;0.16365957;0.07437303;-0.14556955;0.20487796;-0.13862826;-0.001598563;-0.08680734;-0.1719935;-0.051061276;-0.008007353;-0.025871705;-0.15475711;0.04877597;-0.203717;-0.10042874;-0.21732895;0.03597674;0.013613;-0.07905698;-0.07007745;0.1395395;0.076233976;-0.12961304;-0.03466874;0.058277175;0.10832905;-0.07368145;0.13164753;0.07125996;-0.011572803;-0.07058631;-0.02372018;-0.15668552;0.10039116;-0.099197984;-0.02237847;-0.0007727079;0.020455671;0.00677628;0.10467237;0.1625161;-0.10225712;0.041559335;0.022972338;0.19598693;0.0745445;-0.22807774;-0.07601657;0.16398339;-0.13943951;0.114656225;0.10262238;0.09258647;0.058498986;0.030340636;0.17967;-0.13891174;0.014971782;0.1289335;-0.12179563;-0.058038097;0.03742392;-0.025682913;-0.23215598;0.21388355;0.09813322;0.16244964;-0.16116475;-0.15967265;-0.020624932
-0.14918406;0.031735614;0.112362325;0.096265316;0.03604763;0.08113795;0.0956654;0.31011662;0.021176178;0.007553368;0.06748796;0.19186142;0.0013594173;0.033953503;-0.059372593;-0.16198872;-0.020933522;-0.03360793;-0.086555175;0.06889836;0.0110437265;0.14351763;-0.083827734;-0.037724037;0.2087134;0.07085781;0.27828556;-0.041797683;-0.12676367;0.16760027;-0.017317431;0.008963112;0.07697767;-0.013385481;-0.059190083;-0.016639758;-0.080735;0.05795612;-0.014113967;-0.07865132;0.118161716;-0.074398;-0.13960971;-0.0703784;-0.013242307;0.1395139;-0.06401156;-0.23876846;-0.033798855;0.07322983;-0.12562644;-0.077874795;0.037477273;-0.25265414;0.22627553;-0.08001915;0.09411227;-0.047224898;-0.01710679;0.05163288;-0.018808523;-0.07967033;-0.09071882;-0.012016935;-0.24784671;0.06557722;0.13017736;0.0729421;0.041802727;-0.18669751;0.10200679;0.26968735;0.1492517;-0.12088703;0.1591298;-0.0071501564;-0.024700023;-0.065452255;0.17278713;0.029743759;0.05522229;-0.03809556;0.022785148;0.12732679;-0.19600393;0.081066385;-0.16360544;-0.019104816;-0.22840904;0.11066877;0.040162746;0.10073331;-0.093116544;-0.0134504875;0.02407945;-0.09815135;-0.037498944;-0.12576495;0.07713746;-0.15205438;-0.14531605;0.22019266;-0.104072616;0.078505695;-0.06952164;0.043134052;-0.049062863;-0.098725766;0.1324335;0.11081227;0.10588166;0.12936893;-0.044333927;-0.08950725;0.058913223;0.15849967;0.05969192;0.15383115;0.005434939;0.024205193;0.022240747;-0.104239404;-0.09632246;0.056488886;-0.057650913;-0.030267281;0.047992557;-0.016679088;-0.007771216;-0.13420491;-0.14635746;-0.16871859;-0.095097676;-0.03167595;0.0011268747;0.15612547;0.012143036;-0.14232098;-0.13452345;0.22022139;0.0035546983;-0.1633641;-0.13948211;-0.0108921835;0.019689113;-0.20888484;0.06430389;-0.10677801;0.18747258;-0.01889996;-0.027795354;-0.07466456;-0.1625277;-0.052407328;0.045229632;-0.13726689;-0.007319523;0.068221;-0.07472842;0.040989142;-0.029277002;-0.021047259;-0.19462936;-0.054825976;-0.0045560156;0.06595964;-0.0409165;0.24855676;0.029183662;-0.12688899;0.16878669;0.088961884;-0.01901386;0.07967615;-0.039827384;0.0029013955;0.043362163;0.043692663;-0.10896522;0.03548882;-0.14404154;0.03141442;-0.12626788;-0.03239221;-0.10251011;0.09007462;0.042234;-0.052048888;0.2539608;0.09079145;0.0943606;0.14010982;0.048174076;-0.0054465085;-0.0402558;0.01683544;0.017175741;0.053820428;-0.06896909;0.23904562;-0.20207818;0.0037388522;0.017084433;-0.24930432;0.07723428;-0.019054243;0.02463533;-0.20273016;-0.13467725;0.0815695;-0.005715915;-0.025950577;-0.03998827;0.06569184;0.12099335;-0.00055711064;0.067150705;-0.000945837;-0.09058334;-0.16625705;-0.07359596;-0.014213026;-0.08470084;-0.047945112;-0.09610629;0.05850122;0.15680669;-0.08660193;-0.19836527;0.062080126;0.025875818;0.041709624;-0.022555536;0.102873355;0.04820812;-0.09712626;0.010934062;-0.0761505;-0.03091939;-0.09270319;0.019944977;0.036351155;0.20300207;-0.1446315;-0.016851915;0.07590596;-0.17400536;-0.08272436;0.031390026;-0.001821751;-0.046448525;0.111043274;0.093810916;0.10849024;-0.095642254;0.08141379;-0.0070511857;0.12197786;0.18643062;-0.024889985;0.033562243;-0.018065771;0.09387506;0.048219204;-0.17663653;-0.07389501;0.029150106;0.1722853;-0.019062893;0.005651871;0.14816251;0.05785524;0.16367011;0.031603742;0.009189519;0.09227734;0.12002905;-0.14773458;0.016879937;0.20856678;-0.11840274;0.036153954;0.14283216;0.014343247;0.019013073;0.10031887;0.07324144;0.0425374;-0.027445883;0.060545024;-0.13091145;0.08899819;-0.062998556;0.09813397;-0.14574377;-0.13976547;-0.07865199;-0.09412607;0.03931574;-0.11697351;-0.24173605;-0.13596255;0.0625173;-0.13307668;0.006702163;0.08527059;-0.14994454;0.08744327;-0.18664491;-0.007874648;0.04063793;-0.17096338;0.04212758;0.069192074;-0.05058224;-0.100088656;-0.07611498;-0.14765942;0.24013168;-0.08297902;0.02699239;-0.1019937;-0.02962347;0.036897287;-0.12982705;0.13145755;-0.048042983;0.031142537;0.13023385;-0.22700332;0.09786392;-0.019622287;0.004066641;-0.036529362;0.06267181;0.16012922;0.09083064;0.063000746;0.29453167;-0.15384741;-0.021544786;-0.008450437;0.01254329;-0.1781448;0.06424285;-0.025648074;0.07815995;-0.07811669;-0.025464254;-0.0041866186;0.024613986;-0.082982786;0.019664478;-0.03240395;-0.16000234;-0.09202895;-0.2568573;0.061169934;-0.12245036;0.1629717;0.21584305;-0.18973729;-0.047777902;-0.11183324;0.18020226;-0.110786416;-0.01306554;-0.074464925;-0.022275893;0.055067096;0.30028105;-0.11681917;0.020807423;-0.0879316;0.1373034;0.030121613;0.1846243;-0.02361178;-0.026595464;-0.014417637;-0.14672707;-0.04217723;0.16480246;-0.09413701;0.18977615;-0.035421677;-0.16680995;-0.04462804;0.148282;0.03695161;-0.035709754;-0.1327742;-0.029106103;-0.078810036;-0.0844339;0.040878627;-0.073018886;-0.13316645;0.038674872;-0.08150047;-0.061132792;0.025217215;0.051666494;0.12538202;-0.13818213;-0.080907285;0.014170203;-0.007106714;0.006066251;-0.14331327;-0.11271408;0.009191336;-0.18518654;0.1910732;-0.24852106;-0.11649009;-0.15835793;0.0077589243;-0.000494646;0.1977657;-0.07530905;-0.04284398;0.012104424;0.0555119;0.010592999;0.1588017;-0.062130544;-0.082446344;0.12258428;-0.014188714;0.18502094;-0.10497129;0.03665429;0.045228843;0.012742109;0.010536148;-0.06835047;0.19037439;0.094160534;0.1353783;0.04359068;0.05522953;0.21353588;-0.1089006;0.06264659;0.073066734;-0.0049250885;-0.001744217;0.07051185;-0.12177068;-0.11982006;0.014854714;0.06637142;0.1961103;-0.0055679874;-0.063751385;0.016272094;-0.19844621;0.037189696;0.22512889;0.14352067;0.2179524;0.040422175;-0.04596088;0.008430214;0.17832445;-0.024549186;0.18857498;-0.005412038;0.08780246;0.19149417;-0.019031504;-0.20257385;0.009226968;-0.06158393;0.11113483;-0.22205634;0.0031576785;-0.08434232;0.07331491;0.030272942;-0.0943502;-0.090476416;0.053753424;-0.17650025;0.112136744;0.084331974;-0.004290703;0.045116562;0.19323123;-0.057242345;0.20962384;-0.024797712;0.101306446;0.02370292;-0.19821678;0.09506608;-0.06563207;0.0026474344;-0.10913338;-0.008258188;-0.17565113;0.12683521;0.15121707;0.024260186;0.05857283;0.054135002;-0.04898237;-0.05184742;0.14941858;-0.073116906;-0.08832541;0.019339815;-0.18417028;0.02161602;-0.07346576;0.09951788;0.014674119;0.107631676;-0.14448787;-0.01647235;-0.13926134;0.117747635;-0.015276646;-0.057090558;-0.01679167;0.14184327;-0.0045862393;-0.103800066;-0.10129123;0.019912768;0.02059514;-0.1893953;0.06949598;0.14233446;0.028698582;-0.14322156;-0.1047025;-0.104693055;0.16367894;-0.0593859;0.07737768;-0.054307953;0.030530013;0.028520461;0.086390264;0.153491;-0.079805456;0.07327794;0.0044701374;0.22522257;-0.049166802;-0.26618013;-0.029544417;0.098033845;-0.060457323;0.04963523;0.08677351;0.1351538;0.0908342;0.0075015314;0.12748519;-0.189097;0.020946931;-0.01024287;-0.25106105;-0.07477819;-0.12853636;-0.079989284;-0.18873277;0.20145743;0.049356792;0.08022378;-0.18674116;-0.010413486;-0.07016577
-0.066113375;-0.04947278;0.04549148;0.02329918;0.022336965;0.1942136;-0.032888357;0.20512712;-0.04683838;-0.023024905;0.09960895;0.1800904;0.13003081;0.018388003;-0.0039611445;-0.20395918;-0.10671484;0.1461684;-0.15367518;0.104053065;0.042975463;0.06184889;-0.044319373;-0.15701985;0.17290151;0.0059910887;0.13453986;-0.12526675;-0.07306959;0.18744689;0.17131329;-0.105319776;-0.032046355;0.10149815;-0.1300574;0.15134574;-0.033789728;0.068257116;-0.027768228;-0.021882731;0.078728005;0.013461896;-0.13138542;-0.017253669;0.08032906;0.015760958;0.0023516095;-0.21201393;-0.03437279;0.10953318;-0.23058112;-0.120785885;0.14125288;-0.2634749;0.14400075;-0.1262268;0.116091184;-0.0020569002;0.021693941;0.039102152;0.1489055;-0.0866821;-0.12547489;-0.07798754;-0.23932211;-0.0910528;0.099350184;0.104783736;0.022728004;-0.028728448;0.063845634;0.3059131;0.064851284;-0.092542864;0.19000171;0.08323274;0.035023157;-0.073251404;0.27039808;-0.034819063;0.012464737;-0.040103197;-0.10521538;0.08092644;-0.23526786;-0.050099183;-0.094575904;0.07227626;-0.13392307;0.13159946;-0.031281088;0.043464243;-0.14294715;-0.03495176;0.02622051;-0.052674014;-0.11799869;-0.21942276;0.06925525;-0.1289536;-0.13179047;0.19051653;-0.18779849;0.14942962;0.08153348;0.13422467;-0.082589574;-0.056713372;0.18843867;0.034994554;0.10866217;0.017428571;-0.17130072;0.059436284;0.104057185;0.13277492;-0.07642943;0.100337096;-0.06029454;0.015729332;-0.031031078;-0.013383289;-0.11830517;-0.05330743;-0.16592109;0.0887692;0.037613582;-0.16276807;-0.033857048;-0.062501095;-0.17350954;-0.19572683;-0.053028256;-0.03049842;0.015816255;0.09253545;-0.036770597;-0.07277452;-0.011438647;0.15207155;0.044940636;-0.14885849;-0.05505554;0.07784917;0.004885433;-0.15746099;-0.02090651;-0.074529655;0.09395941;-0.08193391;-0.029423762;-0.0920507;-0.21276435;-0.030678133;-0.06965823;-0.0709211;0.12972172;0.082353555;-0.05274953;0.09542935;-0.1296736;0.018699879;-0.11752201;-0.071849845;0.07185352;-0.038878318;-0.011301919;0.2648606;0.11762814;-0.16807894;0.06765555;-0.07359144;-0.114432864;-0.032015264;0.010931141;0.07294727;0.042717215;0.0072829616;-0.16171438;0.09390641;-0.051883776;0.10203988;-0.16310984;-0.013601961;-0.18297806;0.0024832888;0.19143374;-0.0150708025;0.19330202;-0.0640186;0.024214508;0.07582201;0.06006343;0.031672105;-0.09528554;0.0023403356;0.12177493;0.08563997;-0.15058945;0.22625595;-0.19075179;0.034623362;0.0543713;-0.28252035;-0.02433117;-0.01355418;-0.05459258;-0.1367906;-0.004398838;0.15554039;0.09275096;-0.029820886;-0.062563665;-0.034627806;0.12028252;0.095972575;-0.050321266;-0.036722958;-0.13662942;-0.12047813;-0.13700357;0.060793467;-0.040606484;-0.036070045;-0.1063179;-0.0066023734;0.08277766;-0.04055294;-0.031879213;0.0072373417;-0.010814187;-0.032709368;-0.009932382;0.075166635;0.1536915;0.009655385;-0.062890954;-0.052747745;-0.09945214;-0.16902944;-0.032049105;-0.006819388;0.17833287;-0.16645192;-0.072709925;0.22031467;-0.19120656;-0.048146024;0.072818615;0.015325648;-0.019766716;0.019992799;-0.09927233;0.042092748;-0.035882965;0.13499653;0.006219777;0.0914703;0.091373526;0.05810889;-0.05467831;-0.062563516;0.004517032;-0.041294485;-0.26856655;-0.04165553;0.036362957;0.08742367;-0.041110016;-0.011181159;0.052811395;0.13966845;0.082963906;0.11532294;-0.09208062;0.11994513;-0.0011791572;-0.08035896;0.029650277;0.19216263;-0.09206178;0.033715628;0.080061704;0.05226699;0.0027649945;0.08431113;-0.121052966;0.07346701;-0.012541761;0.22287169;-0.2316676;0.10294197;0.025036432;0.028353412;-0.14552656;-0.05171686;-0.031486332;-0.12983626;0.15727949;-0.065421596;-0.28904384;0.07864792;-0.00051959755;0.042209323;0.13487388;0.019843252;-0.045812346;-0.030743735;-0.12868154;0.05482184;-0.0016021925;-0.23719068;0.024902798;0.010402064;-0.070216365;-0.08438653;-0.006127442;-0.14305337;0.35179433;-0.045482;0.0025459144;-0.1501122;-0.094347924;0.14336474;-0.08319029;0.20162046;0.010485566;0.16959189;0.06451233;-0.073342636;-0.0035891898;-0.19131498;0.08219677;-0.12745245;0.19202252;0.12988561;0.058287255;0.090819634;0.29594326;-0.0375445;-0.04238371;0.046577763;0.019104658;-0.0792175;0.069682546;-0.0567044;-0.030434083;-0.011011319;0.09103532;0.044417754;0.019112207;-0.07867322;-0.06064211;0.030722927;-0.09435002;-0.023040015;-0.22490211;-0.0777912;-0.12556459;0.079909645;0.1131339;-0.21187457;-0.046738908;-0.08410246;0.17929688;-0.015424945;0.0060969614;0.020685246;-0.041104417;0.117140695;0.1419333;-0.13515653;0.10739628;-0.111503035;0.22786903;0.009652943;0.19444904;-0.018127728;-0.0075024245;-0.017530652;-0.14496493;0.09714806;0.06309056;-0.026464125;0.18665667;-0.03679378;-0.11593699;-0.08024984;0.19948268;-0.055061962;-0.021358274;-0.23451254;0.014267157;-0.016238494;-0.053107627;-0.10249523;0.03514037;-0.07283378;0.020271692;-0.056615267;-0.06018656;-0.061376814;-0.0651619;-0.020059887;0.0052808747;-0.041985873;-0.05326419;-0.07528233;0.06570416;-0.1278877;-0.03607938;-0.055229858;-0.17103851;0.055153787;-0.3089732;-0.025126355;-0.17195857;-0.02012611;0.03874858;0.2314621;0.04924007;-0.0485117;-0.08510056;0.0361598;-0.019753214;0.09256337;-0.07014543;-0.22333495;0.13193278;0.02985651;0.18680035;-0.09876074;0.03140104;-0.037131753;0.03520124;-0.03828426;-0.044191062;0.2348445;0.06557004;0.21211098;0.11270774;0.04159973;0.20688187;-0.14664607;0.04442475;0.06327378;0.08002391;-0.048723105;0.10215871;-0.11241802;-0.18971422;-0.018270157;-0.07782921;0.26343232;0.03927103;0.13915546;0.032608397;-0.1293629;0.09602925;0.1882657;0.117435314;0.08675689;0.12888914;0.0013305729;0.10289089;0.29367855;0.019666705;0.18238665;-0.019723387;0.03528029;0.1266518;-0.015810478;-0.0957313;0.032446366;-0.072995044;-0.05361073;-0.17252256;0.06296235;0.09347177;-0.10501233;0.13670962;-0.09604978;-0.058467876;0.048092917;-0.20786692;0.105011486;0.013373316;-0.013435342;0.020961793;0.20249465;0.104483426;0.1493671;-0.030197449;0.12254607;-0.0021586518;-0.11626326;-0.055830196;0.023461971;0.038035277;-0.105600104;0.074679166;-0.08170609;0.13056836;0.1771263;0.06464621;-0.02226987;0.06251779;0.043583874;-0.22263385;0.238456;-0.19693737;-0.03894645;-0.037703592;-0.038276404;0.031124905;-0.029982245;0.09337358;-0.1362251;0.14442259;-0.09631205;-0.025228057;-0.113273755;0.13933331;-0.013554637;0.103084885;-0.025375985;0.14988519;0.029125702;-0.14617547;0.047219027;0.038063888;0.078240216;-0.21699679;0.09599096;0.03873399;-0.03362637;-0.15017073;0.048015203;-0.101038784;0.2354037;-0.033060785;-0.050220836;-0.21373546;0.042400647;0.060061857;0.15797706;0.11412292;-0.07365227;0.11723965;0.12181501;0.14026718;0.039572816;-0.2376728;-0.046193413;0.1334496;-0.004404709;0.02523777;0.059882518;0.08642009;0.047007848;0.10790889;0.067020066;-0.21232732;-0.053117223;0.10311913;-0.3109638;-0.036127117;-0.0008618922;0.024638532;-0.23076268;0.18855704;0.13007669;0.16874538;-0.30432785;-0.025720404;-0.063810766
-0.033935633;-0.058074526;0.062877186;0.01566382;-0.015001513;0.18394156;-0.011270188;0.3268364;-0.056132704;-0.15363923;0.07978208;0.13185717;0.09285378;-0.0063060443;-0.09206751;-0.09637037;-0.110635646;0.0549991;-0.21796225;-0.012943555;0.1328211;0.13164653;-0.03664649;-0.14539266;0.08380606;0.00080768275;0.16201589;-0.038528167;-0.13033627;0.12332021;0.14453818;-0.09804035;0.09368598;0.03563388;0.0688671;-0.03068408;0.054358404;0.061538875;0.004701607;-0.047353245;0.083553195;0.007351726;-0.25464913;-0.13333495;-0.049873766;0.05233821;0.008079205;-0.16503201;-0.12961145;0.026103377;-0.2672811;-0.06154014;0.103382565;-0.19628234;0.07701644;-0.13512316;0.038614385;0.0030161028;-0.096469104;0.045596037;0.048326902;-0.06775771;-0.03147405;-0.074671574;-0.18512662;0.05668852;0.16459365;0.04047717;0.020080477;-0.03987092;0.1689937;0.3021528;0.00425836;-0.08620926;0.11208674;0.1922606;0.08643775;0.08605168;0.3089738;0.05233697;-0.020636093;-0.12184129;0.06319796;-0.011531149;-0.064799085;0.0656905;-0.06802259;0.06554382;-0.11769874;0.1809103;-0.14091933;0.17652968;0.03876897;-0.06892434;-0.09776644;-0.06477676;-0.17760651;-0.12124361;0.031713795;-0.10319255;0.005494897;0.1629365;-0.04996388;0.20699136;-0.032560486;0.07567045;0.066858746;-0.19992957;0.07232342;0.20720924;0.22470364;0.13881212;-0.10425172;-0.014385575;0.050961457;0.03338133;0.029749874;0.12190724;-0.04056144;-0.035364877;0.12542996;-0.031754024;-0.20436929;-0.058663346;-0.017342247;0.05607071;-0.035639025;-0.17890942;0.045704767;-0.14228138;-0.19710633;-0.110649854;-0.13587317;-0.027987618;-0.07597699;0.111394234;0.06733551;-0.09373132;0.05092376;0.2550818;0.058086418;-0.074368194;-0.1057736;-0.0484241;-0.1545056;-0.14599858;0.07712661;-0.10436153;0.037778262;0.02281383;0.047321822;-0.16542676;-0.27554324;-0.12446756;0.023601871;-0.051208735;0.08219089;0.12652697;-0.07346314;0.074745946;-0.02722867;5.969678e-05;-0.25038517;-0.011251945;-0.08812835;-0.041092273;-0.13712513;0.30433926;-0.013199421;-0.1195904;-0.02737801;-0.088741206;0.010435067;0.11394008;0.05609224;0.09960715;0.0094908;0.06984268;-0.11385063;-0.00017077677;-0.12330731;0.20499244;-0.04041939;0.02944734;-0.15268776;0.038780067;0.14510617;-0.07371934;0.20203371;0.05950074;0.07112631;0.20466739;0.07811323;-0.020584166;-0.18245994;-0.06284989;-0.092572734;-0.099739194;-0.02623268;0.2192943;-0.022906944;-0.08214067;-0.055763997;-0.22999346;-0.053677004;-0.022764932;0.01970288;-0.105226256;-0.035247657;0.19835582;0.12690681;-0.055449754;-0.076601416;0.079618715;0.17386748;0.19434951;0.12684344;-0.016528143;-0.0787003;-0.31099904;-0.09101251;0.051559012;-0.002783161;-0.026839167;0.0023653975;0.15929264;0.03827255;0.06091019;-0.05366151;0.15735693;0.06339597;0.15161252;-0.01792964;0.05399346;0.17948109;-0.055147473;0.02771824;-0.12701727;-0.08999821;-0.20401797;0.0173339;-0.0411725;0.16720985;-0.08195472;-0.044743642;0.2431012;-0.104126684;-0.14951263;0.13798426;0.04987772;0.012311553;0.07242453;-0.048457168;0.1922987;0.01898066;0.15287635;0.074002646;0.05950501;0.20185411;0.06469301;0.07384244;0.08870267;0.09870566;-0.061933313;-0.3039089;0.03189843;0.11176565;0.17245732;-0.1602295;0.068433575;0.043480072;0.16763225;0.06554979;0.031753987;-0.089382015;0.09477703;0.043632366;-0.2125843;0.052218545;0.05904676;-0.056407046;0.066029966;-0.047956195;-0.0074208695;0.035929836;0.06411669;0.1347134;0.043077294;-0.11609429;0.19310018;-0.2223232;0.10676359;-0.06798354;-0.021868385;-0.06612493;-0.15418887;-0.044253085;-0.14229116;0.11904687;-0.086333044;-0.25570405;-0.11870182;-0.13253923;0.029019129;-0.015552061;0.05697705;-0.024664009;0.16821608;-0.18671787;-0.0036961425;-0.003677067;-0.20536886;0.03333358;0.044987176;-0.04295108;-0.06402747;0.05724347;-0.13451356;0.30313355;0.02295395;0.026690437;-0.11879618;-0.11519666;0.035051323;-0.11386864;0.10451292;-0.09319129;0.12565961;0.17454238;-0.17730643;-0.0480468;-0.16463327;0.0354157;-0.049079135;0.15379187;0.07535664;0.114319205;-0.054520503;0.3664749;-0.17717625;-0.07475565;0.08323344;0.01034556;-0.06786125;0.13263011;-0.07037844;-0.023561161;0.023532454;0.10281414;-0.044159167;-0.013727112;0.15891877;-0.03326997;-0.0037285676;-0.08087371;-0.12449517;-0.1005844;-0.0050552352;-0.0679406;0.23166479;0.09705417;-0.1493152;-0.071027555;-0.12354485;0.08909651;-0.19285226;-0.10204314;0.043907426;-0.20958842;0.08231521;0.2750119;-0.23369443;-0.039606694;-0.060791526;0.13402629;0.103179194;0.12969665;0.0068757245;0.04039092;-0.02693089;-0.121992566;0.08164944;0.091620944;-0.13153528;0.081668474;-0.02497955;-0.16718194;-0.12297809;0.22703946;0.1113664;0.020357164;-0.2252089;0.095751666;-0.045054626;-0.067740954;0.03582656;-0.030682059;-0.049850944;0.15206228;-0.07634757;0.101897605;-0.046021987;0.0065544974;0.15548903;0.0027512102;-0.16204415;-0.11674797;-0.03829655;0.050557766;-0.13317771;-0.07217195;-0.063804775;-0.23060088;0.1763738;-0.28206617;0.02533936;-0.06299536;0.14992978;0.029168354;0.18656638;-0.18842459;-0.038171176;0.031269085;0.026196303;0.008408362;0.24538091;-0.01563969;-0.1297837;0.16903654;0.008173097;0.14816478;0.00058757566;-0.0033929492;-0.099846706;0.12600912;0.08555914;-0.04642052;0.13367048;-0.024475005;0.22507954;-0.060768902;0.037916664;0.15420844;-0.18824594;0.1326771;0.085711874;-0.022304293;-0.05804111;0.060787193;-0.014366572;-0.22273558;-0.015145665;0.008158271;0.073999606;0.05309689;0.0471198;-0.007662455;-0.30513683;-0.048897788;0.114126556;0.15673544;0.14812793;0.1877331;-0.047966894;0.085596755;0.07238723;0.12799531;0.20183077;0.021924494;0.022893423;0.10400397;0.1554212;-0.12221406;-0.07668188;0.01881638;0.03897468;-0.12521091;0.033645727;-0.07320918;0.11075889;0.16802359;-0.20072755;-0.24729952;-0.02311784;-0.21291628;0.027507449;0.11638063;0.052538086;0.024383647;0.1224485;-0.034412872;0.28411478;-0.08290157;0.07216843;0.018322604;-0.11088735;0.05485372;0.006527773;0.08336574;-0.064412564;0.0011396579;-0.14576277;0.066723324;0.2197736;0.033594377;-0.08816025;0.16045228;0.002787344;-0.06454319;0.120243356;-0.12378802;-0.15754016;-0.107090876;-0.021903135;-0.057842277;-0.16368723;-0.030379405;-0.09372226;0.10464905;-0.32680073;-0.025542866;-0.22194937;-0.01279103;-0.045601204;-0.074780986;-0.19231486;0.11979196;0.0045016557;-0.05366398;0.0216604;-0.026544273;-0.02927726;-0.039263852;0.15699941;0.20351169;-0.04419953;-0.05109244;-0.08201224;-0.18527499;0.1703372;-0.1305234;0.01011079;-0.12738958;0.004562867;0.1621208;0.12753361;0.17699036;-0.07337947;-0.0028257992;0.095875196;0.24641144;-0.048494227;-0.17300685;-0.058313593;0.16095328;-0.048222803;-0.016016189;0.15353791;0.19611521;0.084352985;-0.052565422;-0.031241264;-0.06393717;-0.02932977;0.096656196;-0.048636418;-0.1616442;-0.104231484;-0.0718498;-0.202697;0.09144295;0.103595085;0.12378882;-0.18270177;0.0057877107;0.031206053
-0.13892628;-0.069182016;0.06477855;-0.08512516;-0.013098264;0.1724708;-0.017638672;0.33607244;0.08901214;-0.14540385;0.14445662;0.13738695;0.00059366843;0.074871704;-0.14797768;-0.06470722;-0.11077612;0.046235465;-0.084586814;0.07929566;-0.007986047;0.039643854;-0.10207451;-0.04845221;0.084261805;-0.041730855;0.16688123;-0.054335386;-0.11271481;0.1233948;0.1662279;-0.09242327;-0.030559061;0.007229336;-0.07728027;0.0026867131;0.0834766;-0.010708089;0.03065482;-0.05007493;0.014426871;-0.11712101;-0.19529511;0.021373913;-0.014105608;-0.0496857;-0.009901941;-0.2800857;-0.08336806;0.15032013;-0.3121415;-0.03723868;0.025731362;-0.17026687;0.057297084;-0.14349021;0.1786367;-0.11581364;0.06699614;0.12729259;0.009077341;-0.065888554;0.0326427;0.009142442;-0.24718818;0.018285407;0.04071643;0.022320917;-0.09810365;0.0123203965;0.031238053;0.2511519;-0.036838584;-0.012947818;0.24359544;-0.0038776244;-0.1418418;-0.046652157;0.18782921;-0.021316662;0.050112043;-0.0041711144;-0.09176312;0.06082937;-0.1766879;0.008504937;-0.1754012;-0.03757172;-0.18990207;0.24179754;0.07586027;0.2300259;-0.072012536;0.019285802;-0.017929863;-0.014590531;-0.21978615;-0.21173188;0.007088635;-0.09957487;0.047357406;0.25824106;-0.14159445;0.12468835;-0.042815726;0.1945801;0.0050454936;-0.11820893;0.10285864;0.18085665;0.15024088;0.0675626;-0.21861796;0.09448834;0.091708995;0.12625597;-0.0128368;0.06306655;-0.0065367785;0.058758814;0.00913167;0.06793713;-0.18567963;-0.054253265;-0.004535138;0.055733234;-0.06558353;-0.09885374;-0.07651276;-0.19621626;-0.19204155;-0.06807172;0.009255643;-0.1740097;0.011938041;0.102692254;0.05686173;-0.19682029;0.06838278;0.25328907;-0.01883915;-0.15609118;-0.0252324;0.078785345;-0.1263044;-0.061470732;0.03915451;-0.051416256;-0.002605361;-0.064420134;-0.099584416;-0.15428928;-0.26880404;-0.02328448;-0.13897665;-0.018999798;0.0011647041;0.013586391;-0.041118152;0.07534444;0.011891832;-0.030241977;-0.15850875;-0.07677851;0.005294608;0.05637751;-0.0017982798;0.32432064;0.06560042;-0.08585888;0.03448707;-0.099749565;-0.032986335;-0.0052067274;-0.13961874;0.07357373;-0.008473181;0.04109285;-0.20261951;-0.014075239;-0.16955687;0.07391818;-0.118734375;0.11217953;-0.077876024;-0.060216434;0.12062529;-0.10495314;0.19721927;0.10886299;0.0711973;0.052823186;0.009442245;-0.04143391;-0.105127506;0.07248745;-0.004916262;-0.012121458;-0.04559416;0.15233514;-0.07858147;-0.03707931;0.023395794;-0.16412477;-0.030487495;-0.017385734;0.050797474;-0.08779322;-0.031200763;0.15635887;0.051465828;-0.07349621;-0.14241187;-0.021519525;0.10644808;0.032863624;0.034872677;0.09751456;-0.101276845;-0.23613355;-0.06796781;0.022038281;-0.028895926;0.08424217;0.04715134;0.00279972;-0.09405004;-0.076851204;-0.021403516;0.02018577;-0.0377414;0.090045124;0.016415702;0.09229418;0.12804528;-0.059822027;-0.030762881;-0.057173524;-0.09831105;-0.19952504;-0.0035899752;0.03859116;0.10506133;-0.2296437;-0.1042949;0.14864524;-0.26024598;-0.13398777;0.07760483;0.10978748;-0.03439909;-0.053682234;-0.044418547;0.10590273;-0.038263727;0.06513589;0.06408473;0.0426055;0.12650236;0.10457565;-0.030505784;-0.06136327;0.028179139;-0.12329756;-0.20776321;-0.08858643;0.03507627;0.16777164;-0.01633191;0.022527473;0.19189642;0.14915937;0.09392953;0.04151216;0.06338894;0.12740317;0.10534495;-0.20560095;0.0056591067;0.05193832;-0.122097604;-0.044064794;-0.03541751;0.006813984;-0.009187976;-0.031643756;-0.028064448;0.04951504;-0.09471303;0.09987446;-0.20428067;0.030395316;-0.0696017;0.13598116;0.013328732;-0.1722969;-0.051503636;-0.20415008;0.054410923;-0.08695858;-0.28182286;0.03121192;-0.0322321;-0.11025577;0.07934743;-0.10346596;-0.019894885;0.08241465;-0.14025822;-0.009343936;0.07764217;-0.2512529;0.07367538;0.057725143;0.008284344;-0.088286474;0.09271596;-0.10013307;0.25911057;0.10847753;0.057380732;-0.096517086;-0.0015357735;0.023411516;-0.14023858;0.12356546;-0.1500843;0.108748935;0.16920249;-0.17962152;-0.048544884;-0.09672375;0.05345171;-0.10244284;0.11794406;0.05834864;0.02719512;0.035533037;0.31373385;-0.025962647;-0.055130094;0.09466781;0.04541266;-0.20575742;-0.0269207;-0.03521581;-0.031237684;-0.0469583;0.067133866;0.03733844;0.102937005;0.05243089;-0.013921825;0.04530744;-0.115656726;-0.12607968;-0.15314688;0.06156647;0.015028078;0.17175588;0.1940709;-0.054198094;-0.037622742;-0.11383;0.19073842;-0.12834315;-0.092882566;-0.04190817;-0.11944822;-0.017242955;0.12732469;-0.21065462;0.0381106;-0.059415266;0.22398196;-0.020661524;0.16356945;-0.02209618;-0.022447174;-0.03535886;-0.1530609;-0.016104104;0.24399246;-0.028312206;0.07861949;-0.06375906;-0.13620196;0.046606958;0.22481272;-0.067652114;-0.01194824;-0.14390966;0.06417422;0.14378457;0.022245737;-0.07919308;0.04757254;-0.04756215;0.034952927;-0.18402581;-0.007895629;0.055653382;0.029875452;0.046299364;-0.063771375;-0.109794416;-0.027024163;0.036085833;0.026162002;-0.20475523;-0.12754278;-0.0062377653;-0.14852549;0.15242915;-0.28427872;-0.007511237;-0.21213119;0.18511628;-0.014545301;0.1251104;-0.05211375;-0.009287962;-0.06466231;0.07570419;0.04912773;0.17761324;-0.07289506;-0.14858167;0.19586796;0.002959222;0.17204347;-0.028657323;-0.08399293;0.011278511;0.08991384;-0.0726176;-0.13859668;0.17194146;0.054824747;0.24563469;0.009479426;0.0036593068;0.14166173;-0.13291591;0.07320243;-0.105531074;0.12621921;0.008220646;0.09076853;-0.06408922;-0.11307773;-0.12180952;-0.026488662;0.17686501;0.104247175;-0.05162548;-0.022958584;-0.2344948;0.044098698;0.13199376;0.11901956;0.14497489;0.123011835;0.02193231;0.040658902;0.21289268;-0.0008030415;0.17261004;-0.08280619;0.00966224;-0.034018237;0.06513497;-0.1904249;-0.054220416;-0.11524154;-0.03334704;-0.19367373;0.13861428;0.0033242165;0.042052917;0.1752484;-0.070389725;-0.25375932;0.11752252;-0.268434;0.14476736;-0.022167943;0.07262983;0.087045416;0.08994942;0.026103675;0.13790154;-0.21795551;0.13759607;-0.022024747;-0.10747235;0.05451495;-0.068988;-0.0070862584;-0.0033629767;0.07404363;0.027658196;0.10333658;0.05546559;0.08327621;-0.15176938;0.17381966;-0.01254978;-0.12945199;0.057603993;-0.032545865;-0.061525427;-0.020859636;-0.079005904;0.0066439444;-0.1655527;0.041319616;0.017189065;0.15333013;-0.2194411;0.012530334;-0.1111185;0.10657755;-0.034111097;-0.030566314;-0.11930621;0.067733414;-0.018291602;-0.014752809;0.082456544;-0.08384208;-0.019834388;-0.15860705;0.008174862;0.1384615;-0.12623456;-0.10463807;-0.02209736;0.02904965;0.1792262;-0.17945175;-0.006434424;-0.17150514;0.03936992;0.03268719;0.14889868;0.13324542;-0.22000623;-0.059499286;-0.01521589;0.35494822;0.075936034;-0.19417404;-0.03406423;0.02307078;-0.052362997;0.013487828;0.067257956;0.0073483256;0.19590767;0.03944196;0.051160328;-0.0060024885;0.026993744;0.043375973;-0.120968126;-0.1636714;0.014716238;-0.21169873;-0.1395695;0.1080884;0.15216152;0.040117282;-0.222624;-0.10687953;0.032553982
-0.14504579;-0.044796254;-0.025513798;0.027286218;0.10153176;0.005013207;0.07844487;0.27863815;0.009383347;-0.023944665;0.062436957;0.15067041;0.04257169;0.1026149;-0.08679649;-0.07054449;-0.12028985;0.09585526;-0.20063852;-0.0100611085;-0.0014601861;0.035489824;-0.016436035;-0.09412856;0.1339112;-0.09031041;0.15712868;-0.091655076;-0.07077432;0.086973414;0.13688697;-0.048868157;-0.043986667;0.034605265;-0.1845842;0.06871136;-0.065250725;0.022720916;-0.011483444;-0.123785034;0.06774557;-0.09533048;-0.29512644;0.053716373;0.08008747;0.04065999;-0.0065465868;-0.20285758;-0.11702504;0.049224366;-0.23346883;-0.076512605;0.14796013;-0.0149285225;0.15278363;-0.03712346;0.24810949;-0.06845024;0.019573625;-0.011222094;-0.0057753846;-0.0018618845;-0.109958574;-0.07734439;-0.23248135;0.026973827;0.1785627;-0.029560732;-0.14747153;-0.040989213;-0.016473182;0.3551517;0.04107751;-0.061285883;0.27700067;0.12940362;0.00097352953;-0.081165686;0.20652543;0.009613069;-0.007823775;-0.07548909;-0.05838686;0.022060627;-0.1528641;0.018446285;-0.11722773;-0.064267516;-0.18269056;0.14296272;0.034504764;0.184374;-0.06724751;0.031264964;-0.041253626;-0.16416556;-0.17368023;-0.18794551;-0.07631615;-0.060480643;-0.007207178;0.21814919;-0.09049988;0.0420305;-0.026263326;0.19242688;0.06718563;-0.11303013;0.18597214;0.13258018;0.060159825;0.06623367;-0.10318192;0.12779905;0.011780407;0.03986176;0.088916555;0.09405107;-0.12706779;0.07468525;-0.0401417;-0.063368954;-0.13949811;-0.0010262239;-0.11941118;0.18577614;-0.0073985923;-0.20496723;-0.005205816;-0.1307199;-0.1269233;-0.08187312;-0.11110963;-0.055735145;-0.07935013;0.13113616;-0.11227732;-0.07748372;0.040531404;0.15691577;-0.052853607;-0.214514;-0.0053345775;0.026710888;0.05477525;-0.13015252;0.052689265;-0.069024764;0.14452502;-0.09719504;0.03141672;0.020706506;-0.2821912;-0.16651592;-0.07563239;-0.01684861;0.0013287249;0.073820226;-0.082479455;-0.00063970196;0.0066411323;0.07989523;-0.16581579;-0.119826116;-0.024715466;-0.025082089;-0.104987875;0.34589368;0.09255694;-0.030237976;0.0042233206;-0.15990707;-0.19869968;0.053355448;-0.111424595;0.06398988;-0.05456835;0.11254372;-0.17481795;-0.021358242;-0.08348645;0.007963057;-0.11371573;-0.033050057;-0.15488572;0.06870224;0.095417365;-0.028826483;0.19166665;-0.05875543;0.07582363;-0.051858477;0.054726712;-0.065352745;-0.08337671;0.12185565;-0.060555596;-0.086520255;-0.015017062;0.082850926;-0.13424405;0.06120207;0.01461117;-0.2278313;-0.12675227;-0.067747496;-0.08744414;-0.2152986;-0.066741526;0.0775094;0.028969297;0.035436004;-0.035424985;0.041789163;0.06449146;0.024014913;-0.044410992;0.053594187;-0.0875713;-0.038526125;-0.16008057;-0.12248737;-0.07508774;0.10990327;-0.086855344;0.045768056;0.038850427;-0.07836809;-0.065308355;0.062393922;-0.03790697;0.084425464;0.03270625;0.10748638;0.16445662;-0.073195204;0.06738508;-0.04158596;-0.08975541;-0.13876583;0.002044723;-0.050389428;0.12438729;-0.18100214;-0.036227725;-0.023754096;-0.19402945;-0.095699646;-0.0045767617;-0.015289235;-0.108199395;0.02464811;-0.040136598;0.011348056;-0.023752928;0.067493804;0.05971097;0.016362645;0.16738513;0.05209809;-0.084404506;-0.025530018;-0.050363332;-0.009082074;-0.1783233;-0.12254528;0.17081155;0.035809327;-0.0062949634;-0.017671738;0.21184643;0.17229399;0.029232616;0.12626621;-0.033449974;0.062210493;0.044335984;-0.05435297;-0.059363734;0.09051121;-0.13579904;-0.0032161577;0.043881167;0.055733163;-0.10256065;0.06591222;-0.031346466;0.06493424;0.00671163;0.094925955;-0.10979921;0.035139862;-0.04150506;0.06680372;-0.089640945;-0.15389661;0.027669802;-0.30072674;0.052444868;-0.09460399;-0.2548128;0.11066053;-0.15381421;-0.09536344;0.10518013;-0.020758275;-0.083304934;0.115948826;-0.07974216;-0.05766383;0.124022506;-0.19361334;-0.0006091832;0.05875307;0.031420693;0.016334934;0.044461586;-0.100907475;0.24999098;-0.02051439;-0.058456667;-0.08114945;-0.02112149;0.13738567;-0.14266625;-0.011568627;-0.034377474;0.110961325;0.0926;-0.11509283;-0.10167072;-0.08816941;0.065443784;-0.22469313;0.15594669;0.0016954326;0.022830319;0.07142236;0.20658545;0.006777756;0.11896575;0.04762659;0.0070028906;-0.11807092;0.054394696;0.037403405;0.01995532;-0.068268545;0.00427272;-0.07996843;0.039647523;0.04134889;0.02520105;-0.024992567;-0.006878664;-0.05798781;-0.049032073;-0.050628617;-0.08455423;0.16079986;0.25248715;-0.14786938;0.03841866;-0.22021593;0.1331988;-0.12804332;-0.01883576;-0.06883192;0.00810835;0.08067227;0.16751194;-0.07977338;0.021390751;-0.036581155;0.19370532;0.01569497;0.18395394;-0.013210266;-0.054124903;0.016194878;-0.12366479;-7.831902e-05;0.13440031;-0.06731427;0.049000666;0.1269258;-0.14624648;-0.028548714;0.20288095;0.04590821;-0.1261801;-0.03708178;-0.03980027;0.11316537;0.04827795;-0.017262153;0.08200527;0.059370123;0.02594534;-0.05839008;0.09026266;0.072016865;0.045279942;-0.051713824;-0.1420076;-0.054516893;-0.03138306;-0.14673345;0.030027647;-0.23813862;-0.14223526;0.1051497;-0.21258684;0.167087;-0.2901509;-0.0020209053;-0.22417147;-0.010617694;-0.14499964;0.05871544;-0.06624775;-0.022597102;0.008212577;0.08074418;-0.09515484;0.13464823;-0.024632642;-0.21696064;0.090147875;0.15938841;0.10901649;-0.10076492;-0.014751325;-0.1664862;-0.07843005;-0.07370733;-0.22657296;-0.0073357723;-0.027317647;0.16569608;-0.0018853993;-0.0069735553;0.23066656;-0.050450515;-0.02497602;0.042863265;0.09926173;0.0036253089;0.03871888;-0.06364025;-0.12926574;-0.04423831;0.03139403;0.16918726;-0.0006838952;0.039598975;-0.06750624;-0.10573411;0.022847896;0.19677728;-0.015443569;0.15209326;0.16674213;-0.024493692;0.123685025;0.09065947;-0.077871874;0.1396265;0.043895725;0.023549866;0.13694444;0.026369216;-0.084156506;-0.06667946;-0.094218396;-0.016788436;-0.13027379;0.06774696;-0.05140565;-0.015912553;0.09449047;0.036311865;-0.24295029;0.052688453;-0.2794416;0.040295042;0.083050385;0.060628474;-0.1231317;0.21431762;0.05337607;0.20421837;-0.2196525;0.014970228;0.12506105;-0.11149528;-0.023750305;-0.053346187;-0.08936518;-0.050790142;0.17721377;-0.103762135;0.02314117;0.16678551;0.088126585;-0.109259926;0.0019058227;-0.07651665;-0.18726104;0.040787555;-0.14755638;0.015157834;0.0022859718;0.07030209;-0.019421885;-0.119192146;-0.002603656;-0.0666167;0.17269671;-0.18605624;0.011334294;-0.19215585;0.13169397;0.067456566;-0.09291186;-0.04802876;0.06780409;-0.068784885;-0.13018772;0.15155438;-0.044302117;-0.08451788;-0.044254173;0.047685403;0.041860793;-0.08763673;-0.1746788;0.011490391;-0.11539678;0.13316679;-0.15860678;0.022991365;-0.06754035;0.10201337;0.061904326;0.17371432;0.18629616;-0.22129394;0.086835176;0.029779421;0.15160511;-0.04237845;-0.22881131;0.057202596;0.064743765;-0.07246306;0.11413131;0.01185976;0.03510412;0.16491131;0.13214615;0.102302015;-0.009009857;-0.0023097198;0.10041338;-0.12808724;-0.033205114;0.002734757;-0.20783713;-0.07217679;0.19585873;0.159879;0.08332579;-0.16872379;-0.017184515;-0.006036062
-0.05648454;-0.13106883;0.06552668;-0.011192374;0.047697194;0.14241716;0.016626274;0.21103284;0.100429185;-0.19906431;0.0345801;0.04354724;0.101488166;0.060098354;-0.0658498;-0.12943622;-0.06461511;0.07979211;-0.22146176;-0.041196752;0.07242751;0.10720725;-0.06713258;-0.10294515;0.15596981;0.052231103;0.18005495;-0.112074435;-0.23586702;0.20381172;0.05637273;-0.15329055;-0.04136387;0.023943154;-0.06925447;-0.027506176;0.036348242;-0.032531668;0.021078529;-0.036116093;0.09645128;-0.13985911;-0.29313412;0.057672262;-0.0643208;0.06300269;0.020777754;-0.29522705;-0.005393335;0.16567138;-0.3700855;-0.15314735;0.13492624;-0.0914113;0.15226182;-0.03693342;0.11712628;-0.036333114;0.054521486;0.14923939;-0.055124085;0.024157174;-0.1788222;-0.021243742;-0.24150226;0.008661986;0.16708009;0.0635172;-0.020522995;0.014388469;0.18176678;0.31842852;0.084132925;0.0029649425;0.1851;0.008395553;0.052039333;-0.03789638;0.22287135;0.1510822;0.09611866;0.03730423;0.033845276;0.09486974;-0.24065743;0.034294058;0.008698445;0.06872168;-0.27738032;0.17439911;0.05566041;0.13377327;-0.06734544;0.06057076;-0.033236604;-0.09242045;-0.09336968;-0.22295679;-0.065805584;-0.13447952;-0.025544735;0.22655495;-0.045223705;0.16167223;-0.09200631;0.22378671;0.030671984;-0.08325151;0.058231916;0.17970265;0.12427935;0.10013613;-0.14118834;0.05955843;0.060781676;0.101675555;0.030799603;0.14459059;-0.045651652;0.12949355;0.026817586;-0.04969222;0.008235723;0.06874945;-0.116176985;0.10521272;-0.08169574;-0.1412379;-0.0021019334;-0.19835874;-0.27851704;-0.17372271;-0.041636005;-0.17475419;0.0018779554;0.050341282;-0.04733877;-0.24105646;0.045126017;0.058338128;0.075690426;-0.020662494;-0.08818079;0.0040299376;-0.06903407;-0.16527094;0.09276239;-0.029351668;0.16586207;0.011308645;-0.09129621;0.02288737;-0.29779667;-0.10476089;-0.021754459;0.08641047;-0.046589553;0.009903787;0.024063807;0.0024783541;0.034328986;-0.0045343903;-0.075359;-0.017598141;0.0679279;0.05003286;-0.065713756;0.3117815;-0.021826671;-0.09760575;-0.010411556;-0.007656876;-0.15639593;-0.0030171727;-0.1383813;0.08706036;0.034197528;0.10390189;-0.17510903;-0.03717518;-0.23050049;0.05762896;0.033927552;0.12397045;-0.14249805;-0.03031318;0.1887591;0.015716394;0.18908045;-0.054636374;0.17289796;0.099977255;0.08123993;-0.16654542;-0.11144789;0.07824751;-0.015657306;-0.16212304;-0.026180178;0.053832974;-0.20431246;-0.08400666;0.15218374;-0.14364463;-0.15714228;-0.07072689;-0.01035249;-0.1767683;-0.048785735;0.18164617;0.038871974;-0.038094297;-0.14847083;0.054098886;-0.021268012;-0.10623171;0.06447531;0.11423196;-0.09729206;-0.16644815;-0.14795163;0.009220435;0.059137285;0.051517952;0.027758224;0.040803865;-0.013071663;-0.062371124;-0.13072646;0.088301085;-0.07415634;0.06647494;0.10541143;0.07995859;0.21260072;-0.2013829;0.049609043;0.04134881;-0.07116624;-0.18395977;-0.061686147;0.027895227;0.021368051;-0.1676708;0.03432142;0.02817059;-0.20425788;-0.15322307;0.084464036;-0.010643552;0.018516297;-0.006965866;0.0028926635;0.118516974;-0.13899593;0.004225092;0.06773353;-0.09059241;0.10753649;0.09781512;0.043845277;-0.050609447;-0.0068939794;0.029891107;-0.32450002;-0.071028724;0.08649299;0.20566668;-0.086101994;0.015609121;0.10766762;0.09470371;0.07812916;0.054180305;-0.11492029;0.020312244;0.116281345;-0.03898972;0.0041552326;0.022165755;-0.1539542;0.0708876;-0.067306824;0.1253382;0.02164708;0.056778103;0.037552197;0.027867366;0.014555723;0.26254275;-0.027124066;0.16528314;0.08778174;0.03996278;-0.054998342;-0.15537934;-0.0038618543;-0.2363962;0.12451305;-0.09518622;-0.23123196;-0.022040768;-0.12591885;-0.008728096;0.05932032;-0.050682765;0.05053408;0.08295176;-0.084364235;0.030577112;0.14565745;-0.15524454;0.016100021;0.13003384;-0.10450675;0.028325442;-0.03552575;-0.07781957;0.28693053;-0.006132508;-0.06964435;-0.029808404;-0.018129008;0.036188144;-0.08491332;0.10703568;-0.12338747;0.15454754;0.043164495;-0.15438035;0.012528816;-0.1372208;-0.01832315;-0.108406894;0.23364827;0.18127628;0.17837165;0.075199865;0.3056162;-0.072806895;0.080900505;0.08298254;0.14137898;-0.13704933;-0.025442705;0.02591717;-0.047557972;-0.0071854563;-0.023526516;-0.019985057;-0.0052790428;-0.03300748;-0.014487851;-0.01601783;-0.042109568;-0.17045972;-0.033363406;-0.014232408;-0.12099525;0.15962495;0.072726585;-0.010273562;0.09302734;-0.21176712;0.08453584;-0.22763951;-0.07172521;0.051822018;-0.021455921;0.11368225;0.18306933;-0.23449948;0.025843328;-0.09731476;0.25359616;0.09436374;0.06916031;0.016494833;-0.13695881;-0.06606087;-0.19727907;-0.008541875;0.16892858;0.03427649;0.0015401419;0.011663449;-0.04670421;-0.08344261;0.13005577;-0.074056454;-0.079488516;-0.056064297;-0.20019352;0.013636168;0.07307352;-0.0019313603;0.017546615;-0.023690788;-0.012398832;-0.23172073;0.13269278;0.04394797;-0.029063739;0.03619802;-0.054825775;-0.041687448;-0.008820856;-0.007660738;0.017762447;-0.085278645;-0.1280696;0.10504689;-0.13968313;0.09348606;-0.3076445;-0.056835447;-0.1863266;0.005885941;-0.09697657;0.096620336;-0.15730117;-0.0444068;-0.05082789;-0.036689747;0.02669673;0.14845578;-0.11638311;-0.12791502;0.20009477;0.07705887;0.030905718;0.020193117;-0.031428147;-0.061133806;0.031498976;0.03179046;-0.07016877;-0.008135763;-0.029016595;0.17434373;0.015850194;0.039834388;0.11958928;-0.23328099;-0.012466071;0.036368404;0.10069339;0.03965274;0.09175286;-0.023980025;-0.019129144;-0.08873487;0.06532537;0.2051159;-0.004138434;-0.098633476;0.055854883;-0.15268493;0.13693061;0.13109827;0.047268193;0.048355963;0.0903932;-0.09169944;0.095319636;0.24543755;-0.0799428;0.16209964;0.039594106;-0.014504676;0.03217802;-0.00954982;-0.21220165;-0.011129698;-0.057379074;-0.038587913;-0.069314115;0.15556538;-0.06385225;0.04279441;0.0510357;-0.10140683;-0.12848549;0.09031168;-0.18330774;0.13385232;-0.011613399;-0.012227524;-0.076590315;0.06649536;0.055915628;0.10441305;-0.11020029;-0.024520403;0.04553306;-0.042155933;0.007341538;0.06931074;-0.051178485;-0.042232033;0.08922035;-0.07982194;0.096644334;0.10467921;0.06426263;0.04482924;0.009415523;0.0046095354;-0.10111371;0.028680893;0.0452517;-0.01578677;-0.0030431545;-0.093689844;-0.12884052;-0.06839285;0.113048315;-0.12164468;0.09193345;-0.057628397;0.009732882;-0.31137082;-0.008437411;0.019381361;-0.10485549;-0.171957;0.16303284;-0.09054604;0.008920179;-0.05486313;-0.09513223;-0.11500372;-0.12178371;0.120888986;0.007443908;-0.02596794;-0.09397817;0.021716325;-0.11963346;0.14900295;-0.0071029407;0.12273075;-0.117708646;0.03915346;-0.042473424;0.055275206;0.02619403;-0.15145539;0.08105718;0.013338535;0.29372612;-0.008540329;-0.13912925;-0.08396712;-0.029553909;-0.12369394;0.131443;0.07240417;0.048542313;0.02375603;0.059643917;-0.05676253;0.0011713789;0.12281112;0.09931212;-0.104838036;-0.020854995;-0.0025515396;-0.16775186;-0.1895613;0.24995087;0.03658134;0.07345208;-0.19640249;-0.06012329;0.0009665529
-0.18049017;-0.10889331;0.0071082735;0.08633716;0.0021131826;0.017930627;0.04462079;0.20349327;0.048266068;-0.14894894;0.13837543;0.13742983;0.031045914;-0.028657926;-0.16748141;-0.17434561;0.017249461;0.04551379;-0.19505718;0.0892094;0.02592184;0.09590917;-0.0081726555;-0.11558472;0.18506241;0.024814952;0.0902686;-0.061621796;-0.19161414;0.07605098;0.041136958;-0.13425408;-0.058660563;0.017655203;-0.20045248;0.11211909;0.02201049;0.06704189;-0.03795374;-0.10025138;0.053896453;-0.07266917;-0.1669669;0.06525644;-0.053409964;-1.2061171e-05;0.034619484;-0.27925968;-0.093809545;0.19711338;-0.27453592;-0.20292956;0.08907065;-0.014959799;0.092348985;-0.03343397;0.022819359;-0.07470779;0.04010685;0.08449155;-0.06398387;-0.010253723;-0.1245895;-0.023148147;-0.10991275;0.07151918;0.14174715;0.08825546;-0.051931813;0.063559495;0.14055762;0.3603305;-0.05227082;-0.09306458;0.3112307;0.05806538;-0.11107259;-0.06215323;0.1811277;0.14004515;-0.012230487;-0.09471283;-0.06835153;0.057556797;-0.26198605;-0.008119189;-0.055931453;0.034283936;-0.30496076;0.21087424;0.087165676;0.22153871;-0.044212237;0.0035303629;-0.026401196;-0.1479571;-0.23109655;-0.10384332;-0.0802515;-0.035395157;-0.029163012;0.20154957;-0.14739461;0.18497181;0.039918993;0.18911648;0.056022525;-0.12058811;0.097957335;0.22109427;0.05013476;0.08038754;-0.11939299;0.026849462;0.020884356;0.14173786;0.008886492;0.12817213;-0.07085968;0.17076838;0.08303268;0.024701852;-0.087561965;-0.055135004;-0.018764077;0.12523513;-0.12855236;-0.115536146;-0.029696578;-0.18703428;-0.18304388;-0.13653912;0.021434102;-0.17119657;-0.088879354;0.13225797;-0.12402197;-0.2278548;0.0618941;0.15574041;-0.008183588;-0.052111287;-0.061423816;0.11940656;-0.122988716;-0.15456791;-0.013995402;-0.0682333;0.07289744;-0.09285282;-0.14846972;-0.09613433;-0.10911039;-0.078954026;-0.014717373;0.033099648;-0.015010125;0.09737135;0.10959821;0.03199257;-0.096395105;-0.034433626;-0.063168146;-0.1082917;0.070982575;-0.056327168;-0.09745721;0.27860075;0.0537835;-0.08362057;-0.11009206;-0.0669963;-0.07364383;0.018818447;-0.066344105;0.03995733;-0.08690795;-0.019859439;-0.01261751;-0.08705432;-0.14511907;0.05562655;-0.028557625;-0.037816826;-0.12994194;0.069020145;0.15497464;-0.0032567712;0.24531448;-0.0012412848;0.11765687;0.051636603;0.1023427;-0.08664103;-0.16989908;0.018303044;0.0023406292;-0.02327685;-0.09434509;0.16970053;-0.20677799;0.081737004;0.1484944;-0.26176637;-0.20026937;0.045394965;-0.036451872;-0.11525276;-0.1525068;0.12390289;0.04668222;0.06533535;-0.16650686;0.046281483;0.0020361764;-0.081391074;-0.038944993;0.09266078;-0.16577634;-0.24240142;-0.14993258;0.040002003;-0.07475946;0.018840699;0.068206616;0.0593323;0.02880338;0.008308526;-0.08070107;0.105207115;-0.057551764;-0.014666589;0.13737549;0.11178721;0.23358575;-0.08453619;0.07433633;-0.014773797;-0.17162296;-0.13863945;-0.15846848;0.020212365;0.037720434;-0.19046776;-0.004214724;0.11038123;-0.21977338;-0.18135235;0.12662396;0.08385428;-0.026197243;-0.12596701;0.0037356343;0.09170969;-0.10902062;-0.035134755;-0.0148645565;-0.018911298;0.26092654;0.16262975;-0.05044784;-0.14128901;0.062481754;0.027572688;-0.328711;0.048093442;0.088176094;0.118319735;0.0163595;0.03675185;0.28517842;0.12519911;-0.04897502;0.0035949517;-0.18144691;0.13817714;0.014782978;-0.035517704;0.073144086;0.067455895;-0.025995776;0.051429674;-0.081711374;0.027290797;-0.07166117;0.014323817;-0.06193225;0.08381768;0.014411162;0.24974248;-0.020459473;0.050780084;0.027057935;-0.025911227;-0.049756095;-0.10646182;-0.07200887;-0.09908071;-0.034523584;-0.0042695287;-0.27245882;0.120003946;-0.12993748;-0.031242378;-0.028396692;-0.10070393;-0.003653086;-0.015610726;-0.11546023;-0.090514585;0.012088547;-0.18174428;0.008332315;0.006911157;-0.06797764;-0.1046148;-0.06727615;-0.10531639;0.2908437;-0.034965552;-0.12208766;-0.13481061;-0.015218774;0.10236352;-0.090768866;0.06458634;-0.14293727;0.07861372;0.0506639;-0.118065745;-0.0043168855;-0.072500914;0.12323052;-0.12184124;0.09059958;0.16856296;0.1442476;0.01412039;0.25691837;-0.10579678;0.009902687;0.12411143;0.21762761;-0.06912424;0.089999065;-0.07541408;0.09984382;-0.04616855;0.07833571;0.08805192;0.02371577;-0.03802065;0.037180424;-0.07966362;-0.12621666;-0.119831026;-0.09190445;-0.04738074;-0.114890315;0.09355958;0.13767621;-0.12740335;0.0021166147;-0.19931899;0.10647191;-0.13345772;-0.09194385;0.10734707;0.039820198;0.071558245;0.079577155;-0.09199728;0.0915077;-0.05637659;0.16375485;0.123339236;0.10691926;0.09068293;0.017908443;-0.057774045;-0.07622275;0.030202853;0.21678118;-0.06566332;0.04111478;0.06613521;-0.0919135;-0.03683259;0.14837009;0.04319472;-0.11920391;-0.10883611;-0.13400204;0.11054019;0.007834578;-0.018958148;0.055852465;-0.09283681;-0.045556016;-0.24405561;0.053864826;0.065006934;0.05962216;0.0725273;-0.083353065;-0.15396158;-0.07508129;0.005802405;-0.09301122;-0.053675354;-0.12626788;-0.06333259;-0.2659453;0.13906099;-0.33135706;0.06971485;-0.1659856;-0.017802756;-0.17389432;0.061622955;-0.025725385;-0.12708499;-0.048434183;0.038296185;-0.01986996;0.053701147;-0.046941034;-0.2035533;0.18731686;0.059820917;0.13001423;-0.11033083;0.0025590423;-0.067172654;0.058468577;0.14147769;-0.11747377;0.058100615;0.008601153;0.23837154;0.028670888;0.0062625376;0.06635452;-0.17209555;-0.050888646;-0.020769399;0.07382033;-0.0012299691;0.0070678624;-0.029238112;-0.16415413;-0.06959164;0.06712596;0.085881315;0.06013731;0.013182786;-0.015996896;-0.20526852;0.0603891;0.20982118;0.043346923;0.09648597;0.18773878;-0.011509448;0.105283;0.111183345;-0.071924925;-0.0035158878;0.08996651;-0.09538147;0.072486214;-0.056886647;-0.19712533;0.019678997;-0.001317161;-0.08889526;-0.087944925;0.0689863;-0.0036152098;-0.0016135704;-0.038875565;-0.04482731;-0.08616286;0.00011456994;-0.30760884;0.09059168;0.10385195;0.11011711;-0.0102050565;0.14472276;0.041156814;0.17272767;-0.117987595;0.004988779;0.0087058935;-0.062277373;0.104252055;0.06506806;0.009025421;0.037885413;0.06380104;0.0988475;0.12072827;0.19920732;-0.026574992;-0.056766097;-0.031857625;0.08094164;-0.007955151;0.010612015;0.08440436;-0.0423247;0.06577167;-0.053800464;-0.1524434;-0.10521126;0.02016299;-0.073163;0.125359;-0.20084757;-0.025837706;-0.09301409;-0.0059464662;-0.062185887;-0.15807883;0.014767027;0.16397277;-0.11576477;-0.017632915;0.117771864;-0.02362063;-0.13369092;-0.08192884;0.0566899;0.17184211;0.019151507;-0.17822263;-0.04324719;-0.040660027;0.2144058;-0.078993104;0.16666088;-0.06871817;0.10983502;-0.025655564;-0.013696857;0.15577753;-0.19064377;-0.08412484;-0.0019954946;0.2758733;0.033003572;-0.13439767;-0.036078934;0.1191322;-0.13710794;0.0864572;-0.024455221;0.07105573;0.113543406;0.16334267;-0.049646545;-0.12951784;0.09952565;0.10210313;-0.11303667;-0.1473076;0.009236233;-0.2201811;-0.030758008;0.17356865;-0.020860843;-0.022325028;-0.13487528;-0.025236892;-0.014349724
-0.17167792;-0.014585932;-0.07669506;0.0024400973;0.19518678;0.12390038;-0.03082654;0.1272967;-0.023509111;-0.17935857;0.16725734;0.017331857;0.15407778;-0.09745908;-0.033330157;-0.08423267;-0.1298184;0.1526745;-0.14921965;0.050996464;-0.014469065;-0.027765393;0.0063326377;0.0053417827;0.07264828;-0.016061462;0.06974429;-0.043888558;-0.25073266;0.19073424;0.13782181;-0.12253047;-0.04587936;0.012466962;-0.26452756;0.09020766;-0.0030710641;0.002148443;-0.088551745;-0.14540811;-0.05513303;-0.091285236;-0.31334588;0.06275286;-0.02913101;-0.0735282;-0.07225113;-0.31964582;-0.03451994;0.134788;-0.28035793;-0.09158561;0.04648908;-0.028510032;0.10935721;-0.048531327;0.12055459;-0.1183776;0.07683144;0.003448237;-0.07895641;0.049903456;-0.08256074;-0.025693081;-0.1501244;0.030126676;0.108437695;-0.0075496645;-0.18427859;0.02902108;0.13657089;0.27771193;-0.060502693;0.0068071536;0.24536245;-0.00062531466;-0.11421545;-0.0014444274;0.18424928;0.14485592;0.05853489;-0.12282704;-0.106705256;-0.021930924;-0.24542168;-0.008423746;0.07357469;0.07195723;-0.325191;0.039876956;0.018781096;0.26619133;-0.0812965;0.018034903;-0.033613004;-0.1997549;-0.139739;-0.16801424;-0.016948292;-0.09268188;0.11327325;0.22063422;-0.1708556;0.101171434;-0.10607074;0.32104847;0.08034905;-0.06741347;0.17525984;0.11891074;0.09819709;0.0071721952;-0.1722242;0.06285093;-0.016624061;-0.045288824;-0.031340454;0.022067238;-0.07633516;0.2439476;0.15489106;0.014987815;0.017809467;0.05641995;0.01753343;0.014442469;-0.09882087;-0.23845874;-0.01977335;-0.12663329;-0.2915569;-0.25623116;-0.08661155;-0.15201887;-0.00082971284;0.14833088;-0.037909552;-0.23434237;-0.014410365;0.12539822;0.03508784;-0.13609758;-0.07660168;0.1452989;-0.07092947;-0.11399775;0.045357313;-0.11603103;0.11458966;-0.048237607;-0.102599956;-0.043837816;-0.08755123;-0.1499202;-0.012932539;0.037507545;0.035431534;-0.0035530748;0.08856125;0.07768998;-0.039848443;-0.044595744;-0.17317145;-0.05062245;-0.02689259;-0.0104793;0.06863847;0.20088455;0.022431422;-0.05437932;-0.07342179;-0.13448547;-0.15991457;-0.02134286;-0.0807356;0.06316522;0.03473012;-0.068287775;-0.070175946;-0.085316576;-0.17322473;0.03767753;-0.13927555;0.087062545;-0.15548015;-0.098189324;0.1260442;0.09488299;0.17221192;-0.104717344;0.06920834;-0.048502516;0.036471147;-0.053856358;-0.18129753;0.08790503;0.029722583;-0.07918792;-0.009492147;0.13655594;-0.16641265;0.08527215;0.11709825;-0.21646671;-0.17108497;0.07527796;0.042407263;-0.19094653;-0.09400974;0.09680149;0.102609545;0.11782745;-0.08068565;0.009149285;0.052735135;-0.08048876;-0.10375697;0.19609128;-0.12784941;-0.1511709;-0.0048728962;-0.0059908046;-0.083774865;-0.055391055;0.042254284;0.14100769;0.022865765;0.010190284;-0.038304538;0.0753441;-0.12219188;0.08154383;0.16087249;0.013078122;0.16091403;-0.081165865;-0.0020984013;0.06887539;-0.14376315;-0.064162634;-0.13588911;-0.07706262;0.048830375;-0.19952005;0.04406309;0.012147923;-0.12447795;-0.043978404;0.0051743253;0.031247986;-0.04380989;-0.04093055;-0.020650843;0.035116095;-0.13012366;-0.007719066;-0.04678031;-0.038410705;0.11656728;0.010962593;-0.060958438;-0.06621992;0.15095274;-0.039902538;-0.2977211;-0.01883916;0.09219118;0.14724661;-0.040236887;-0.011681461;0.21320248;0.16396548;-0.024593994;0.13634959;-0.23385349;0.04878452;0.03612274;-0.085193075;-0.07675159;-0.060471494;-0.08492719;0.022390649;-0.17884064;0.139332;-0.04427241;0.07255497;-0.04554805;0.17374936;-0.032644935;0.2538568;-0.091593236;0.029941011;-0.069344506;0.03666848;-0.11146484;-0.048687734;0.034502763;-0.17368917;0.02972731;0.034621153;-0.26159757;0.05841501;-0.1235812;-0.060716465;0.12635602;-0.003812485;-0.06497999;-0.009553499;0.06965961;-0.07609658;0.050163858;-0.16021746;-0.014695304;0.04159987;-0.07331864;-0.07807661;-0.058596447;-0.033089656;0.1585507;-0.040840033;-0.121356234;-0.040251076;0.028823601;0.02613661;-0.11208918;0.048812423;-0.022692297;0.14714427;0.14200023;-0.033867873;-0.0699632;-0.14271851;0.18996303;-0.19429214;0.1251637;0.22413547;0.076471455;0.010615036;0.26403803;-0.033421442;-0.028082127;-0.016229289;0.11190974;-0.17730147;-0.07711641;0.062005933;0.040394902;-0.06195387;-0.03503098;0.07733684;-0.050622214;-0.08085424;0.01841765;0.007562507;-0.094432734;-0.09965035;-0.07990463;-0.06866543;-0.113205045;0.043463588;0.06713566;-0.048986707;0.09007589;-0.27005047;0.08691426;-0.18661794;-0.010940108;0.058607496;-0.06405001;0.09315574;0.02990883;-0.08138721;-0.0061343303;-0.076448165;0.118973754;0.13321541;0.082562104;0.0706758;-0.12665097;-0.06993796;-0.16675101;0.044537727;0.097064234;-0.0065219784;0.0444216;0.05420581;-0.08604614;-0.023837289;0.16720068;-0.13032536;-0.11231666;-0.036019865;-0.19547527;0.12811767;-0.0009433101;0.071655184;-0.0154859545;-0.06929806;-0.0042588916;-0.24204326;0.0076940116;-0.017602362;0.019488059;-0.027685983;-0.088870354;-0.14888947;0.031113872;-0.057528086;-0.05087666;-0.07697047;-0.22011855;-0.026388837;-0.22479299;0.012763825;-0.32112107;-0.10594004;-0.095984295;-0.085710794;-0.1536315;0.15968905;-0.116451226;-0.12538143;-0.061062846;0.08359373;-0.05788554;0.021223677;-0.01817336;-0.18030602;0.11718211;-0.018913766;0.01811299;0.05839985;0.01911063;-0.104658775;-0.012159214;0.07533492;-0.17496662;0.030070268;-0.07600688;0.2301567;0.06490618;-0.16583087;0.14592071;-0.297463;-0.011340861;-0.1398457;0.107287094;-0.09269173;-0.049890127;0.04243652;-0.02974778;-0.16724394;0.04820392;0.058777116;-0.067605585;0.08220609;-0.018109983;-0.066643804;0.049455505;0.22514889;-0.0917179;0.14010462;0.1114945;-0.093550205;-0.0835663;0.1506019;-0.120116375;-0.07529695;-0.0187384;-0.035833076;0.059935555;-0.06406636;-0.058641873;-0.03706806;-0.15841316;-0.021272842;-0.016493017;0.0591374;-0.119691275;-0.04536618;-0.008939464;0.014639027;-0.16856077;-0.010323395;-0.2864539;0.19603977;-0.052974872;0.009777097;0.061487652;0.1830766;0.103555106;0.16704485;-0.21788232;0.010227281;0.06981837;-0.08759193;-0.032443326;0.0934235;-0.04936673;-0.02249018;0.1888387;0.09803639;0.12701589;0.08739513;0.04919654;-0.14000753;-0.07936024;0.04959615;-0.004249541;-0.056958534;0.06769173;0.029428309;-0.013258778;0.073291264;-0.08397432;-0.09951025;0.087458804;-0.17332377;0.04014538;-0.13604836;0.00784414;-0.1925827;0.062146425;-0.00446234;-0.14466423;-0.04069709;0.081094764;-0.038049463;-0.056474604;0.038755402;-0.10233487;-0.071780115;-0.10263032;-0.041614827;0.04639866;0.03594182;-0.16891295;0.044740774;0.0001482343;0.18972735;-0.09947697;0.091547705;-0.116799094;0.09282934;0.08218357;0.027129743;0.09193011;-0.19532207;0.035695165;-0.027611108;0.18785281;0.04287683;-0.18391997;-0.13154112;0.035161316;-0.08140523;0.1170911;0.046113174;-0.025919896;0.08997708;0.16014901;-0.042468596;-0.012459012;0.2247495;0.018125672;-0.07427908;-0.1146087;-0.026560485;-0.26857892;-0.085782714;0.22990589;0.07951176;0.0006809071;-0.29753798;-0.05573326;-0.06185339
-0.13827954;-0.1099427;-0.048966285;0.06297283;0.06838507;0.11373165;-0.04520813;0.064613834;-0.011003022;-0.18815275;0.11493291;0.047413796;0.047436282;-0.006899024;-0.17992817;-0.029794933;-0.137579;0.25800586;-0.2642861;0.15506296;0.09277134;0.06378792;-0.036296874;-0.09442606;0.08852506;0.027705373;-0.037705824;-0.19548991;-0.08309762;0.15060334;0.14418761;-0.08768005;-0.023149608;0.09737628;-0.34457067;0.06467756;-0.093315646;0.0025585138;0.012007164;-0.005689192;0.008579996;-0.11362588;-0.20156085;0.12131615;-0.043774724;-0.0053209593;-0.111506894;-0.17159216;0.058952868;0.0938543;-0.28598535;-0.20613581;0.11339868;-0.061758004;0.01859363;-0.13995504;0.14046305;-0.023754254;0.09114818;0.08287742;-0.09638545;0.077564724;-0.05990799;0.09317289;-0.14383112;-0.04942072;0.033687096;0.071713164;-0.04088651;-0.06834314;0.10492577;0.39853218;-0.116260044;0.1129405;0.21686059;-0.021770544;-0.1809453;-0.092062294;0.228075;0.063854605;-0.03372471;-0.044484634;-0.017704904;0.042595323;-0.2989146;-0.12782972;0.053154748;-0.14924818;-0.23793396;0.04232164;0.10651129;0.23470515;-0.07163265;0.062099434;0.042861704;-0.16732734;-0.16021447;-0.073348284;-0.027021954;-0.03322867;0.024517704;0.17255522;-0.12794952;0.13646953;0.017660394;0.187739;0.108846016;-0.12954254;0.15856624;0.09513225;0.09850017;0.050866816;-0.07303181;0.04092453;-0.004521304;-0.020063315;-0.053799845;0.074223965;-0.08525031;0.26618305;0.14587979;0.042874247;0.03989567;0.010335173;-0.08616249;0.14540915;-0.19869049;-0.18748114;-0.058051124;-0.10127316;-0.08364755;-0.13653125;-0.13000463;-0.26611048;-0.031306233;0.20855835;-0.16426504;-0.18604328;0.025248699;0.041238103;0.15743442;-0.07032745;0.006132283;0.1417018;0.025958912;-0.11832366;0.015172575;0.04300937;0.056788485;-0.0612622;-0.068036444;0.058337223;-0.0974504;-0.07981219;-0.033016793;-0.05636612;-0.08894746;-0.08315693;0.13020007;0.119353704;-0.13488789;-0.0111943865;-0.05074457;0.0066361544;-0.037597258;-0.06490344;0.020443724;0.27545092;-0.09561838;-0.11878716;-0.24660063;-0.16867538;-0.20303974;-0.041284636;-0.12286835;-0.03203813;-0.016933184;0.07548427;-0.02088171;-0.01821685;-0.16046245;-0.039791603;-0.10439484;-0.028964015;-0.18664943;0.05527789;0.06058267;0.034996457;0.124675855;-0.1407983;0.14117175;-0.026561547;0.11508958;-0.13117236;-0.123792894;-0.04706871;0.08669256;-0.108928196;-0.11972955;0.05666539;-0.16092913;0.10854894;0.0641699;-0.2061324;-0.14379029;-0.09081231;-0.09167206;-0.053684648;-0.12299733;0.12994365;0.12036156;0.07632077;-0.034556996;-0.0020583076;0.03711273;-0.07743689;-0.0628597;0.1944461;-0.16204116;-0.15041815;-0.09733708;0.05183296;-0.14600213;0.05023182;0.09110609;0.10117442;-0.05110829;-0.14186694;-0.16048591;0.004320134;-0.13087618;0.011451938;0.042889897;0.06352948;0.21501614;-0.008314617;-0.014394273;-0.02296275;-0.08004241;-0.08864054;-0.11998225;-0.025356539;0.101040296;-0.20441565;-0.10413986;-0.059629023;-0.18821768;-0.031091474;-0.051921956;-0.022875102;-0.008782091;-0.042412743;-0.019627476;-0.050035466;-0.24744436;0.050976083;0.027823942;-0.06875138;0.13240969;-0.03749908;0.018545428;-0.025503784;0.04437259;-0.026106281;-0.25054258;-0.0670832;0.0651311;0.026788738;-0.040890682;-0.03613161;0.3151091;0.13049217;0.0787467;0.09592175;-0.21683605;0.12758097;0.13039947;-0.06515421;-0.0008700763;-0.08861648;-0.1116036;-0.021293018;-0.21335664;0.056433953;-0.18193716;0.07607176;-0.025583416;0.07466945;0.1074101;0.07643175;-0.065929;0.046657905;-0.019228047;-0.046232;-0.17575294;0.028624078;0.023340574;-0.18791997;0.050164293;0.08590094;-0.24104315;0.18426117;-0.03393208;-0.059438523;0.04436486;0.01573374;0.022015957;-0.14223023;0.023825863;-0.05179785;-0.0071052145;-0.1432073;0.05023077;0.00555017;-0.014035951;0.015612289;0.051311698;-0.039764047;0.29526457;0.028930215;-0.048821587;-0.051007852;-0.02173948;0.1789477;-0.07428433;0.06583613;-0.027542967;0.10879571;0.11657646;0.04378978;-0.08865986;-0.09795974;0.060551386;-0.16509484;0.2279704;0.05431334;0.1196711;0.0070440816;0.23055862;-0.026691847;0.08369999;0.13235673;0.11436989;-0.025624642;-0.028675864;0.04009903;0.01798574;-0.13907394;0.016001156;0.11425636;-0.1101043;-0.08669194;0.02441918;-0.05387958;-0.033643782;-0.07896354;-0.00655017;-0.15501235;-0.19433305;0.17454989;0.21241458;0.034567807;0.013063045;-0.32737988;0.049929254;-0.08102666;-0.11823007;-0.10156253;-0.023768378;0.044173576;0.15954708;-0.18460967;0.12184979;-0.08266142;0.057181682;0.15610883;0.20982061;0.03528266;-0.078638814;-0.016912665;-0.22975986;0.027315564;0.1664363;-0.012959905;0.13738157;0.15675724;-0.024075003;0.0066047306;0.23244277;-0.09698446;-0.10610999;-0.022306927;-0.33781543;0.02032956;-0.10946865;0.06429252;-0.12238872;0.016749669;-0.07944613;-0.12325201;-0.07745096;0.046870753;0.0851297;-0.04320962;0.0033321655;-0.11418045;-0.13203184;0.011723241;-0.13737823;-0.11278127;-0.27565342;-0.084492855;-0.088649675;0.11343518;-0.39961487;-0.043013293;-0.084511414;0.0033349989;-0.16421118;0.14406508;-0.004370617;-0.18887337;0.079465054;0.029429507;0.12117378;0.031169362;-0.02978611;-0.16422583;0.059950422;0.05891357;-0.013064241;0.030532595;0.08287792;-0.22942154;0.060336787;0.02774669;-0.061609123;0.03381241;0.05169462;0.11469272;0.11640207;-0.06932172;0.22395447;-0.3071727;0.08357562;-0.042105883;0.10926997;-0.0601905;-0.03851011;-0.06747271;-0.1339167;-0.08263382;-0.024735577;0.14053127;-0.1769062;-0.028813181;0.0759812;-0.0029184187;0.13452658;0.12207992;-0.08834188;0.1537195;0.049566172;0.052773684;0.05486259;0.23114271;-0.1564094;0.04346894;0.12377758;-0.107853875;-0.12735808;-0.15267096;0.008340058;0.02431715;-0.108145945;-0.0011090173;-0.0030358091;0.13892211;-0.093541116;-0.008509653;-0.04792376;0.07663651;-0.16191755;-0.06786546;-0.3975053;0.06879712;-0.06771901;-0.041124936;0.068755426;0.13152313;0.17408717;0.14537707;-0.19025595;0.023175893;0.17043978;-0.13853109;-0.011227456;0.062267397;-0.067842714;-0.023456719;0.13722199;0.05072118;-0.032342143;0.11413635;0.09407248;-0.14854588;-0.08995214;0.009405823;-0.019545332;0.097199656;0.07970519;0.0074059;0.16832778;-0.13495429;-0.11504267;-0.07253592;0.052740965;-0.10721085;0.05805487;-0.11590093;0.02095222;-0.13869862;0.023536973;0.03586017;-0.112560995;0.060542867;0.01316119;-0.07184737;-0.017669221;0.12446334;-0.08967747;-0.028444737;-0.18074381;0.0119655635;0.102475144;-0.03650487;-0.12276174;0.029794969;0.13672262;0.11052316;-0.07901805;0.09809879;-0.103181385;-0.034541614;0.052831236;-0.012871331;0.093043216;-0.12721284;0.010936747;-0.08899066;0.13020769;0.14549717;0.016989086;0.018953124;0.04528981;-0.04115414;0.060423307;-0.07729175;0.014835757;-0.0021100126;0.13558358;0.030398466;-0.06379095;0.19526349;0.011958889;0.0055978997;-0.1345288;0.096136086;-0.31132504;0.03474353;0.18394321;-0.016927779;0.009698435;-0.12554274;-0.13940778;-0.08644853
-0.10137927;-0.018519934;-0.10956456;0.09112946;0.13727108;0.039515853;-0.10305306;0.103589505;-0.07493103;-0.14635828;0.05971936;0.025466856;0.17034394;-0.09499876;-0.11132868;-0.11113431;-0.08732873;0.20639619;-0.32771164;0.012869283;-0.024319697;-0.05048271;-0.055186193;-0.074663885;0.079929985;0.07926793;0.0015355998;-0.04608115;-0.18201682;0.03602281;0.19541909;-0.029816544;-0.055634055;0.14306307;-0.27989078;0.16035023;-0.13343474;-0.023906372;-0.051723592;-0.09626962;-0.10778471;-0.18606515;-0.3762831;0.011217858;0.052083638;-0.06884997;-0.07175967;-0.16376568;-0.024365168;0.15820539;-0.2661779;-0.15142627;0.11066747;0.004326407;0.09072139;-0.15616566;0.124297485;-0.13661002;0.06580049;-0.024381917;-0.09914444;-0.12300784;-0.15390404;0.18146916;-0.20718159;0.11576399;0.12944797;0.05295797;-0.13585226;-0.072827555;0.1533611;0.24538533;-0.085348815;-0.03379011;0.2572834;0.11981302;-0.06891353;-0.0351272;0.064020604;0.012193896;0.027032016;-0.20854346;0.015846275;0.002673713;-0.25432912;-0.18838395;0.0035881407;-0.0913993;-0.27539384;0.14822067;0.19717433;0.22698548;0.008335181;0.1434308;0.0054345275;-0.26737595;-0.064681254;-0.054905538;-0.123281874;-0.17617561;0.17928143;0.21390195;-0.11993196;0.23886685;-0.020366821;0.29796338;0.12569422;-0.087595604;0.26002243;0.20008959;0.1310011;0.041304745;-0.2041467;0.03637156;-0.058122806;0.0802879;0.0054578995;0.03588775;-0.019872146;0.16368313;0.07129909;0.11469027;0.042397503;0.026103154;-0.018280722;0.14153951;-0.22247234;-0.29982963;-0.13372487;-0.140885;-0.15424977;-0.17828798;-0.020180866;-0.1151373;-0.007027129;0.1754454;-0.18499437;-0.19344944;0.057275005;-0.0045432877;0.02039291;-0.19141039;-0.13430132;0.17898403;0.020408122;0.018407602;0.016368262;0.028470071;0.08591718;-0.109561704;-0.044793874;0.088272214;-0.08602806;-0.0881737;-0.13024628;-0.05698614;0.037531488;-0.12154953;0.054394823;0.12347232;-0.08019956;0.02756352;-0.18731324;0.06469625;0.0035832261;-0.054796845;-0.06541729;0.25139728;-0.1198507;-0.08735812;-0.15168265;-0.12867571;-0.19433239;-0.03139534;-0.13746478;0.0019048615;-0.06395658;-0.023511743;0.111051284;0.0613966;-0.20541362;0.06746979;-0.13283515;-0.067654446;-0.11514513;-0.008790165;0.03595465;0.11804018;0.15713224;0.03310039;-0.0033911618;0.07727793;0.17044277;-0.14311023;-0.25691578;0.056817994;0.0047373204;-0.13063887;0.0011563158;0.13285647;-0.17498146;0.11240983;0.048887014;-0.26444727;-0.11883009;-0.030082623;-0.011019969;-0.0505475;-0.09003037;0.17926045;0.107419595;0.13571495;-0.05524936;0.004675631;0.078378685;-0.18845393;0.028578594;0.13323174;-0.16048862;-0.08416022;-0.049647413;0.116718106;-0.050783705;0.08989497;0.12474735;0.18072616;-0.06746824;-0.036147576;-0.06335912;-0.02260635;0.052869845;0.07798361;0.110641286;0.04538531;0.08522601;0.011821722;-0.005872761;0.008211327;-0.06269413;-0.13720459;-0.1179369;-0.025620062;0.05870664;-0.24823815;-0.13845824;0.040870793;-0.23110901;-0.14301705;-0.033770278;0.09058933;0.04463947;-0.037924808;-0.048054412;-0.033372287;-0.11243164;0.07016503;-0.047442894;0.038032312;0.27249858;-0.010230686;-0.015912084;-0.1626303;-0.007723643;0.06335742;-0.12911126;0.1007494;0.053597827;0.05521533;-0.0023392667;-0.13944274;0.21762556;0.20680556;0.075749554;0.10013485;-0.27581614;0.1627567;0.051506877;-0.022919672;-0.034717556;0.017768146;-0.109858625;0.044989992;-0.13613825;0.16596162;-0.102549955;-0.051366035;-0.05539187;0.00865643;-0.02947074;0.10765029;-0.038821902;0.117192134;0.041062176;0.02883746;-0.1627088;-0.10876372;-0.030525008;-0.074436456;0.069254376;0.09140058;-0.15289328;0.14716253;-0.13166206;0.0068890597;0.08417271;0.012489382;-0.0937595;0.033840697;-0.0076887514;0.032571122;0.04917275;-0.10031803;-0.062007163;0.07185171;0.004155431;0.025058297;-0.03721597;-0.10566986;0.30209976;0.041064713;-0.08966543;-0.14725342;-0.018494911;0.06454315;-0.050888315;0.063548885;-0.0723025;0.08637624;0.016157141;-0.0149635505;0.025633095;0.013478525;0.13265222;-0.18958643;0.16652901;0.14224744;0.05352283;-0.0296456;0.20300896;-0.050745536;0.03663181;0.1393988;0.18963137;-0.14716533;-0.006206129;-0.060153805;-0.025127422;-0.018273465;-0.024261206;0.18857571;-0.02157238;-0.018644879;-0.041557547;-0.13093801;-0.10570236;-0.032791216;-0.06386467;0.018089654;-0.07190131;0.14461742;0.11474282;-0.039920285;0.12429089;-0.30193698;0.03361755;-0.14726089;-0.046905573;-0.007475204;0.067596786;0.054230068;0.05783257;-0.18955466;-0.028090965;0.027118323;0.12896436;0.23593171;0.19364288;0.06080247;-0.1734548;0.021087926;-0.12929246;0.061530806;0.16352026;0.010311812;-0.00543331;0.13703369;-0.025510503;-0.009338542;0.2178034;-0.040754903;-0.0424836;-0.06334621;-0.28842035;0.0868975;0.0639078;0.10663295;0.031323835;0.036568407;-0.078354366;-0.08674308;0.017671421;-0.06295187;-0.03351445;0.0039346456;0.05369299;-0.07670774;-0.010671014;0.044022676;-0.07793545;-0.1255372;-0.24704112;0.01951873;-0.15755856;0.07588121;-0.32661262;0.018944362;-0.22006567;-7.888263e-05;-0.11762875;0.065744825;-0.023802144;-0.076586485;0.08523748;0.08467801;-0.02514239;0.032416854;-0.08471161;-0.07270285;0.06603239;-0.0052139983;-0.033628337;-0.078863226;0.12179293;-0.24143976;0.09789785;0.042763714;-0.18829723;0.068027616;0.008058143;0.23942629;0.092214696;-0.17034125;0.06402301;-0.2796017;-0.011946766;-0.1290405;0.19889061;0.025773037;-0.060890622;0.061864097;-0.11713637;-0.084790185;-0.10086291;0.1400771;-0.1788486;-0.015494645;0.025277315;-0.12762885;0.10808789;0.098574966;-0.067751065;0.08189332;-0.05477309;-0.07526329;0.0018052217;0.19487382;-0.110616185;-0.022921422;0.032516807;-0.14989331;0.04585843;-0.064655244;0.044756267;-0.013998423;-0.116932325;-0.07099722;-0.08474031;0.18708311;-0.14285354;0.07697693;-0.017326392;-0.061214384;-0.15418907;-0.1365006;-0.37620336;0.08157179;0.030185344;0.0335275;0.027964048;0.1690893;0.115573734;0.1552704;-0.19218172;0.10210832;0.12059877;0.03548783;0.026607305;0.041445255;-0.026214112;0.08666264;0.14734975;0.18457367;-0.015433742;0.043219708;0.16867685;-0.14071095;-0.018077154;-0.022127323;-0.08791302;0.077913456;0.061482992;-0.04346574;0.027002951;-0.0905066;-0.13201775;-0.19962724;0.055147137;-0.14311899;0.08439819;-0.13402985;0.0618956;-0.071582265;0.053915855;0.00941706;-0.1396483;0.0150395045;0.057371706;-0.014996359;0.04339702;0.10574315;0.021303106;-0.0015109457;-0.1958157;0.025346309;0.07799775;0.0191074;-0.14571916;-0.052125327;0.061459776;0.1803453;-0.1715439;0.10108158;-0.116213605;0.06002252;0.10780054;0.013663218;0.061427236;-0.11597038;-0.03211767;-0.046868566;0.07051262;0.15448755;-0.1141094;0.0046691857;-0.10736777;-0.050702933;0.16333246;-0.014667514;-0.021168469;0.053108577;0.04082882;-0.029479003;-0.085060515;0.21406008;0.038694877;-0.019337632;-0.07897649;0.04383619;-0.33844137;-0.067592435;0.18561652;-0.05743469;-0.08163836;-0.30040455;0.0064664097;-0.03860378
-0.12546597;-0.028291296;0.002106506;0.06996842;0.017979998;0.020479664;0.0356114;0.09354648;0.00047642863;-0.05824616;0.11870481;0.010064713;0.0093918815;-0.110058695;-0.19896159;0.020244708;-0.03412238;0.1173202;-0.24955063;-0.02426444;0.024010029;-0.0054362332;0.03751563;-0.050559927;0.12914297;-0.011206665;0.0130070085;-0.15066968;-0.0512881;-0.024430858;0.04744113;-0.13931108;0.07237877;0.03569315;-0.23837695;0.04285109;-0.09410273;-0.04490996;0.066133365;-0.11770713;-0.14983578;-0.14291705;-0.35896674;0.04123643;0.0106026;0.020903522;-0.1352792;-0.14580071;0.06496054;0.19331996;-0.34409472;-0.15308577;0.11264827;0.095275745;0.13075094;-0.026708033;-0.0067410003;-0.123005755;0.12501377;0.100183345;-0.0053444463;-0.013090836;-0.1330767;0.08440848;-0.081490345;0.0649884;0.02188493;0.117510274;-0.20049696;-0.046432972;0.11248994;0.26372027;0.06054697;0.003480416;0.16363944;0.13436247;-0.0903993;-0.04339151;0.09375936;-0.017547766;-0.014526773;-0.10892437;-0.085285775;0.092913546;-0.22110504;-0.15865573;-0.04414912;-0.12304843;-0.33015338;0.015183106;0.1512097;0.14509873;-0.06458663;-0.008157132;-0.13028593;-0.265155;-0.1848888;-0.04314673;0.06521841;-0.10015188;0.07699318;0.14555095;-0.09111976;0.19788687;-0.01385429;0.20612894;0.10934124;-0.19836439;0.1819883;0.18731576;0.18387638;-0.008635972;-0.13249938;0.04412454;-0.14885847;-0.0316958;-0.0159144;0.10930766;0.017937453;0.07331909;0.07126974;0.13877618;-0.03505315;0.040845014;-0.107336916;0.09114653;-0.134552;-0.15718247;-0.037046738;-0.0573045;-0.18102922;-0.086672254;-0.04529664;-0.036156;-0.023722436;0.16362159;-0.20345256;-0.13363965;-0.06293841;0.0030254668;0.18717551;-0.08547152;-0.087239854;0.12507728;-0.034031022;-0.13265546;-0.06614015;-0.009805122;0.13299501;-0.100140825;-0.17800424;-0.097209595;-0.1746989;-0.20017444;-0.15168476;-0.002996241;0.044571504;-0.14320925;-0.016183473;-0.044364985;0.013378039;0.015646761;-0.15909413;0.026890807;-0.018682832;-0.040964875;-0.030708518;0.22670908;-0.091918245;0.011126216;-0.13887224;-0.06323597;-0.18901539;-0.0227038;-0.19175184;0.075814255;-0.08912155;-0.055597734;0.064651735;-0.03382353;-0.13342321;0.04722901;-0.028134793;0.07110289;-0.15011847;0.06448439;0.008604785;0.12539929;0.17091331;-2.316193e-05;0.01822977;0.10620166;0.11594603;-0.111283876;-0.2665551;-0.016640155;0.030738402;-0.027791493;-0.03881568;0.07103368;-0.16509081;-0.04317892;0.05037277;-0.123894155;-0.082740225;0.10702183;-0.016847743;-0.026263716;-0.006486537;0.066553;0.17714235;0.08006957;0.048682705;-0.039433077;-0.070650294;-0.08047689;-0.07253791;0.17591926;-0.025689716;-0.012700731;-0.017471785;0.04857358;0.04581091;0.019555334;-0.03576474;0.16770776;-0.04371355;-0.14940508;-0.13111189;0.06538341;0.039810956;-0.057426278;0.034534477;0.0865522;0.2432845;-0.11215918;0.0834808;0.068362504;-0.0046597733;-0.073524624;-0.19370931;-0.10329919;0.17736845;-0.14795066;-0.049771823;-0.06619114;-0.23235103;-0.021603994;0.008429917;-0.038815398;0.029959902;-0.020528808;0.08755217;0.03539816;-0.22766086;-0.021335227;-0.092063494;0.07549437;0.24155357;-0.014470665;0.01916441;-0.06888352;0.011319337;0.069160104;-0.26773706;0.079175785;0.0925039;0.0821673;-0.019973058;-0.022168301;0.27946237;0.18298429;0.111024365;-0.027561417;-0.19522172;0.16143107;-0.0018030127;-0.05535603;0.08415141;-0.100923225;-0.10254808;-0.024749657;-0.19467422;0.13265114;-0.014132177;-0.09624612;-0.10927006;0.038980402;-0.02088829;0.097754054;-0.017848201;0.13816074;0.022347419;0.079912715;0.023338465;-0.088636026;0.11238279;-0.052544683;-0.018883696;0.0043780315;-0.1424391;0.102726705;0.007555801;0.0056219012;0.06317117;0.007636286;-0.106466725;-0.031609595;-0.04410275;0.0080027;0.037419997;-0.22929367;-0.0031247584;-0.07515242;-0.09641027;0.01407126;-0.053083025;-0.1382037;0.24753472;-0.038409248;0.016256595;-0.14466539;0.062272675;0.08656137;-0.08040138;-0.012219013;-0.08976638;0.0075760875;0.07957093;-0.019157654;-0.06758206;-0.13559723;0.19639204;-0.116751924;0.2016837;0.117540255;0.018424448;0.016245365;0.28451115;-0.0022288184;-0.05250276;0.07807036;0.022791844;-0.044886712;-0.041038185;-0.07474443;-0.014031445;0.01360764;-0.04244858;0.070950635;-0.04188576;-0.06487265;0.012480049;-0.09027876;-0.09033561;-0.11197315;-0.007877462;-0.06525236;-0.13301496;0.11149558;0.17860433;-0.004743788;-0.004229567;-0.24009392;-0.035440195;-0.056906454;-0.020644646;0.014001769;0.046079166;0.045109738;0.14166397;-0.14852555;0.06926132;-0.0095327785;0.17312807;0.18317269;0.1916341;0.00072710466;-0.09264881;-0.015750526;-0.1425344;-0.1422959;0.13282235;0.065051004;0.018705605;0.17362937;-0.047179174;0.08591666;0.2568884;-0.004061968;-0.0664431;-0.1149891;-0.2368309;0.05901293;0.04787906;0.0016657892;-0.027886014;0.017888699;0.06819569;-0.2687598;-0.09041895;-0.11888201;0.043508146;0.040057335;0.012962472;-0.11812909;-0.05290375;-0.06333622;-0.0075726984;-0.14185646;-0.14142892;-0.061879262;-0.1817024;0.14393269;-0.33143938;-0.02170911;-0.10883356;-0.028189553;-0.15431584;0.005229644;-0.051435165;-0.13783719;0.0755974;-0.04494905;0.031381503;0.12118944;-0.036813192;-0.07708303;-0.012592752;-0.04301818;0.05683977;-0.03654434;0.03932827;-0.17954253;0.050591614;0.07019933;-0.16763486;0.084118426;-0.12099455;0.11986582;0.17343315;-0.12163176;0.06931789;-0.20657751;0.08447305;-0.119423464;0.19341482;-3.4023225e-05;-0.0028330095;-0.07648012;-0.057685196;-0.06247554;-0.012960604;0.090365805;-0.12520216;-0.001985174;-0.04375136;-0.1505717;0.17441069;0.1737942;0.047946993;0.08883009;-0.103535116;-0.027899202;-0.081459284;0.25419068;-0.1777051;-0.0350309;0.12778431;-0.18619648;0.037387487;-0.049835432;0.018722069;-0.09500617;-0.0800901;-0.14008752;-0.06812963;0.17245065;-0.1433182;-0.007462116;0.006895887;-0.051272575;-0.11889971;-0.16835877;-0.29428968;0.1389733;-0.0016763409;-0.044933394;-0.0030189122;0.064865746;0.10461591;0.07075708;-0.17143863;0.121396616;0.08525991;-0.025427422;-0.044899173;0.20299384;-0.052277602;-0.005840296;0.03958392;0.17868552;0.12899873;0.12507439;-0.0045332806;-0.06546478;0.054125547;0.009202125;-0.13149846;0.060883056;-0.04737673;-0.074117444;0.13918522;-0.08167791;-0.043148447;-0.055199727;-0.003776725;-0.020418864;-0.059838753;-0.12746911;0.055218544;-0.057973355;-0.0053406935;0.07771153;-0.22261368;0.049565185;0.028955389;-0.14309894;0.03910617;0.18267481;-0.08597406;0.007128882;-0.102715105;0.07725807;-0.013981239;0.058616318;-0.13377215;-0.00013924387;0.0816622;0.22163674;-0.12813511;0.06681645;-0.05155291;0.020316416;0.02649223;0.06991278;-0.01347561;-0.15760776;-0.033913918;-0.06900256;0.2096219;-0.00018731068;-0.15819518;-0.03271685;-0.024946809;-0.046408378;-0.0039068046;-0.036951635;0.012539385;-0.05261376;0.068851314;-0.14060003;-0.047428932;0.08733176;0.08414145;0.016984586;-0.101011634;0.019101955;-0.22724833;-0.11737467;0.18773922;-0.03351105;-0.043829694;-0.17992355;0.0030832537;0.012187189
-0.15901119;-0.054158196;-0.02803675;-0.008745782;0.043727133;0.067509405;-0.044584207;-0.033373285;0.08865222;-0.09836973;0.074517824;-0.019775294;-0.024720695;-0.106146805;-0.13754529;-0.060548015;-0.0110136485;0.24847037;-0.22602198;0.028166438;0.046734598;0.16675074;0.14283475;0.0023978218;0.13576213;0.0302221;0.14295566;-0.16152066;-0.06532687;-0.0035465837;0.061882157;-0.05347702;0.057660203;0.066941656;-0.23250169;0.038373698;-0.05890423;-0.03562892;0.066701904;-0.005736505;-0.15832065;0.07304088;-0.31983483;-0.11416459;-0.04087091;-0.03720357;-0.10272085;-0.20254725;0.07517818;0.1574113;-0.3107423;-0.12564413;0.019422753;-0.022108346;0.14520007;-0.09150004;-0.020911753;-0.05301448;0.16156597;0.074249856;-0.14833479;-0.16733567;-0.10694408;0.13913666;-0.084171906;-0.047664374;0.11492906;0.09965422;-0.13045837;-0.1433225;0.09258845;0.2187558;-0.06526744;-0.0035488394;0.1013767;0.21216036;-0.073647;-0.067795135;0.117385596;0.07475594;-0.029930325;-0.14984992;0.032651648;0.14124252;-0.32738253;-0.16283232;0.025687238;-0.12800056;-0.34580937;0.15244381;0.01507807;0.27539602;-0.0411184;-0.06429479;-0.074350074;-0.0595965;-0.19001144;-0.06321035;-0.11133214;-0.115355186;0.1941229;0.05495463;-0.033356108;0.27414316;-0.08309029;0.24595577;0.0843348;-0.16612688;-0.031095915;0.23926619;0.17901757;-0.07502862;-0.20973471;0.05597448;-0.15557922;-0.046904393;-0.015875652;0.023760248;0.15485235;0.11627337;0.14835027;-0.026558526;-0.08473971;-0.04618383;-0.031028317;-0.012583879;-0.19718134;-0.2581594;0.044497237;-0.10264192;-0.14266105;-0.1722698;-0.06487208;-0.092318065;0.0021487307;0.19797465;-0.14732124;-0.15485956;0.017032748;-0.023691446;0.07755449;-0.12781149;-0.07585067;0.04259281;0.0039704884;-0.036891103;-0.020124223;-0.112734325;0.16072227;-0.048271324;-0.14844485;-0.15614316;-0.09743631;-0.2401202;0.017693339;-0.0078706285;-0.00820868;-0.0935282;0.06478682;0.04123357;-0.07221989;-0.107644185;-0.15635765;0.06251446;-0.04401994;0.012126471;-0.11193792;0.26672676;-0.08059003;0.023742372;-0.23341163;-0.102194816;-0.0100628035;0.03184635;-0.20665069;0.111497074;-0.09156173;-0.005274457;0.010362373;0.010029425;-0.21356879;-0.06557458;-0.080946855;0.039718367;-0.0847531;-0.053112615;-0.05101299;0.046580076;0.18792786;-0.0041683814;-0.0024465881;0.090684876;0.11245708;-0.15920381;-0.29335502;0.028543582;-0.08294183;-0.19517377;-0.0027941847;-0.02994417;-0.024308385;-0.056057047;0.11218087;-0.16358842;-0.1804678;-0.0042104446;0.05797871;-0.06467221;-0.04319393;0.11407156;0.11894954;0.0992027;-0.006723904;-0.085197754;-0.10215754;-0.0035220785;-0.02217129;0.17432249;-0.024845244;-0.07090897;-0.056209072;0.051081736;-0.03954165;0.028681476;0.13139145;0.20920435;0.04970289;-0.0028579468;-0.040786825;0.119925566;0.048135877;0.020919275;-0.025960345;0.22443669;0.24328743;-0.07275256;0.022173809;0.004856661;-0.09467048;-0.17423117;0.020739598;-0.17682378;0.17137459;-0.25131088;2.5572812e-05;-0.014223758;-0.108568326;-0.15496556;0.07823385;-0.006967009;-0.0056532756;-0.15601866;0.03004552;0.19050114;0.005881243;-0.1275525;-0.02772141;0.1434851;0.33734304;0.012770568;0.03160914;0.01915047;0.15533893;0.016282307;-0.19328266;0.025958914;0.024668299;0.050437108;-0.06561826;0.08015025;0.1671373;0.24399815;0.04324464;0.0269957;-0.11312804;0.1605841;-0.007966517;-0.14229523;0.03331783;-0.03192481;-0.12821035;0.022483813;-0.19378558;0.11865819;-0.027329741;-0.07349876;-0.0866829;0.1001464;-0.028379096;0.074572526;-0.1825125;0.1398926;-0.10840913;0.038884085;-0.10881616;-0.054575726;0.049889702;-0.11029827;0.17917812;-0.030176282;-0.22253948;0.035619423;-0.06957768;0.06691222;-0.0050142827;-0.021472994;-0.037389565;-0.028930865;0.044434253;0.027863963;0.09881993;-0.17556041;-0.03329402;0.09468848;-0.18338916;-0.030453155;-0.048169218;-0.100728504;0.047417447;-0.006117008;-0.081809744;-0.023205437;-0.042087805;0.011329389;-0.005980919;-0.0148148695;-0.028285455;0.018359687;0.1425111;-0.057622336;0.03171767;-0.13198294;0.1697127;-0.037713982;0.15591036;0.2681592;0.05811653;-0.013939673;0.34537622;-0.0708729;-0.019095302;0.073914915;0.018688338;-0.13326609;0.0309062;-0.12513469;0.065045774;-0.04191426;0.0682646;0.06798375;-0.06626032;-0.056830194;0.0141779585;0.07612471;0.033572845;-0.12473431;-0.08892144;-0.027253063;-0.05572553;0.05604352;0.12095622;0.0013024629;-0.05798204;-0.26871487;-0.051575154;-0.18014425;0.07424844;0.09120203;0.016230872;0.1433538;0.20338064;-0.08991941;0.052858133;0.15766065;0.08671759;0.11681167;0.114516094;0.0669285;-0.09388938;-0.042703442;0.007823028;-0.031885464;0.041769817;-0.12194807;0.13460231;0.100198865;0.0030513995;-0.02287088;0.20680204;0.0642828;-0.13408506;-0.059945393;-0.26898247;0.0928461;0.0044193775;0.056820564;-0.06885614;-0.09725968;0.07275148;-0.24578914;-0.07511163;-0.15430619;-0.004701438;0.08776929;0.052853853;-0.14421424;-0.03378333;0.022408215;-0.04920578;-0.013498672;-0.10892807;-0.019064125;-0.2216076;0.11224999;-0.26649234;0.1752619;-0.051689554;0.057311505;-0.09733958;0.054122467;0.04784261;-0.033875328;0.09737009;0.06863198;0.03095967;0.04356916;-0.039591253;-0.17841698;0.07412338;-0.0810246;0.08627366;0.0060503883;0.033737093;-0.10002129;0.193474;0.20964271;-0.21138865;0.09821499;-0.13658872;0.19747025;0.25457007;0.02427167;0.0023965985;-0.25088373;0.08835744;-0.071650654;0.20646194;-0.02502653;0.041812688;0.011493431;-0.109010704;-0.09080288;0.06474207;0.104211554;-0.17572613;-0.11284889;0.06450807;-0.22722796;0.04940434;0.14245342;-0.008394402;-0.05086624;-0.11043077;-0.019355144;0.0481558;0.18203571;-0.08812041;0.0069874194;0.09428684;-0.07448957;-0.03763216;0.03355292;-0.0657288;-0.11089181;-0.08142826;0.064886205;-0.08095888;0.10141;-0.18445694;0.09686462;-0.019267518;0.0643256;0.0014458293;-0.22849798;-0.33535942;0.05258033;-0.045466263;0.09541734;0.11855078;0.13414209;0.08814334;0.064918704;-0.09902586;0.04566218;0.10324701;-0.03372357;-0.051861905;0.27868968;-0.019431965;-0.029284727;-0.07773213;0.2612607;-0.0116239125;0.15398842;0.046333242;-0.075750746;0.021405095;0.018867122;-0.079923935;-0.023778556;0.02797978;-0.11185824;0.006765307;-0.03729062;-0.13531643;-0.19061469;-0.02033875;-0.0016620964;-0.0670868;-0.242428;0.10659854;-0.15950355;0.029692134;0.09243099;-0.16342358;-0.03924589;0.06927328;-0.078128874;-0.06682105;0.1549482;-0.07867623;0.005413062;-0.07175652;0.13132621;0.19938414;0.11745459;-0.058026142;-0.08018719;0.053651758;0.19110484;-0.137192;0.088244066;-0.06549525;0.028220816;0.04223023;-0.034586575;-0.028594365;0.00173902;0.06468527;0.009007251;0.17193842;0.020077936;-0.14138824;-0.081926435;-0.01204928;0.005929302;0.06694955;-0.0011663385;0.16934891;0.103321716;0.0074958666;-0.12412469;-0.07478833;0.076867566;0.107389055;0.114973664;-0.060585424;0.10553689;-0.12577806;-0.14205305;0.15741695;0.05522407;-0.08421562;-0.24521656;0.07190078;-0.015378013
-0.049548745;-0.1524123;-0.051385522;-0.022492064;0.12487358;0.06087005;-0.03636868;0.09534473;0.065395534;-0.0645192;0.030400163;0.02045852;0.022974815;-0.13865162;-0.12690438;-0.003484685;-0.10504801;0.07844401;-0.24652536;0.048377797;-0.052878395;0.08911986;0.092822984;-0.0119364755;0.06964468;0.02847313;-0.04042839;-0.12780324;-0.07399115;-0.11627835;0.19755514;-0.14761882;0.0030893476;0.16170417;-0.19574262;0.10182768;-0.0073120575;-0.08469025;0.09305928;-0.07370617;-0.123877734;0.014861911;-0.24545434;0.050245162;-0.08562443;0.0027907202;-0.12651299;-0.20767726;0.09040403;0.26944834;-0.3249105;-0.08716641;0.033898477;0.015930727;0.0747632;-0.15218447;0.027060036;-0.07991851;-0.058337398;0.012522418;-0.16341744;-0.16087842;0.0230928;0.09349556;-0.10426255;-0.08326288;0.019289076;0.12116393;-0.13180012;-0.035622407;0.124434076;0.18630958;-0.007112106;-0.030823397;0.09019004;0.21491069;-0.041704897;-0.11258624;0.047273364;0.04153005;0.055682596;-0.09590982;-0.0421857;0.03546045;-0.3717527;-0.21929963;0.10113941;-0.055034697;-0.37677115;-0.0026218449;0.20656778;0.22207962;-0.04019873;0.087963276;-0.16891903;-0.061537202;-0.118328534;0.026204804;-0.07963306;-0.08664526;0.24454385;0.11088666;-0.17377031;0.12250901;-0.004203406;0.29560176;0.027191969;-0.30402762;0.11273252;0.12637328;0.07702471;-0.110361755;-0.21315858;-0.007879869;-0.20090935;-0.07133631;-0.007402906;0.08223073;0.13520174;0.13972929;0.14917138;0.022170966;-0.14696765;-0.03929215;-0.13739973;0.035718784;-0.14138342;-0.17004034;-0.008732656;-0.029270437;-0.118167154;-0.075433776;-0.053818475;-0.0052651;0.10474233;0.18243507;-0.036219757;-0.277893;0.07348849;0.063267015;0.22298142;-0.038801298;-0.07085102;0.13998422;-0.077265985;-0.0637715;-0.088811405;-0.09034854;0.23059867;0.060422108;-0.17296275;-0.09467226;-0.18458363;-0.26835287;-0.060388334;-0.009154834;-0.030851249;-0.3113185;0.050159615;-0.08538201;-0.0960951;-0.021840008;-0.07079802;-0.028925039;0.01837459;-0.01831142;-0.26120666;0.22574818;-0.17569727;0.009092377;-0.34525475;-0.09624944;-0.148723;0.0391905;-0.20664477;0.107904315;0.0025739435;-0.11338548;0.11420272;-0.12983239;-0.19063285;-0.07293365;-0.070909806;0.06177426;-0.13516793;0.028581038;-0.099611476;0.092444666;0.12864408;0.037481148;0.013942627;0.0013749457;0.14366357;-0.089231916;-0.20816697;-0.073910415;-0.030640801;-0.013071514;-0.037799846;0.033479713;-0.1375183;-0.05322285;0.026787125;-0.20363246;-0.09025186;0.01649003;0.034106523;-0.123330355;-0.06360226;0.2810004;0.0837971;-0.065558404;0.037899237;0.05772464;-0.03552641;-0.12501492;-0.04114394;0.047600523;-0.06033185;-0.17294365;-0.042570908;0.11055912;-0.030488873;0.1571528;0.011085134;0.16703573;0.04027224;-0.08762887;-0.009477896;0.12308886;-0.0007527716;0.051456336;0.048231207;0.22947063;0.26664054;-0.13033536;-0.049664833;0.089287266;-0.12657392;-0.20711392;-0.061902247;0.006400746;0.1753597;-0.20020117;-0.02370121;0.061978877;-0.16777036;-0.1144303;0.023356901;0.13716276;0.033509377;-0.039192643;0.008622837;-0.018119581;-0.09109724;-0.1535555;0.02876497;0.14840454;0.23274171;-0.026429275;0.03550655;-0.022051923;0.036095787;-0.0011462304;-0.16660628;0.016307276;0.13113973;-0.050378006;-0.13145624;0.049984302;0.30178067;0.27772856;0.0621512;-0.085423015;-0.09158804;0.17774348;0.089150324;-0.13235511;-0.021430463;-0.015882911;-0.03170626;0.07016992;-0.21245645;0.25721535;-0.01899217;-0.17162408;0.019127;0.03713112;-0.04932379;0.04905806;-0.24196765;0.13129954;0.0052734064;0.015171391;-0.04537124;-0.034753405;0.073095255;-0.17005424;0.07173212;-0.05960225;-0.18957543;0.033854242;-0.048813142;-0.009854887;0.055700574;0.05807915;0.02053125;-0.12610446;-0.026170691;-0.122652;0.14287321;-0.23571196;0.03897069;0.005430719;-0.07280578;-0.094573356;-0.051675186;-0.15204397;0.04958264;-0.013211285;-0.030184232;-0.08872601;-0.040787708;0.010837589;0.016322441;0.14535056;0.034766693;0.08946313;0.049970366;0.09151129;-0.026373375;-0.015503753;0.16373956;-0.19423684;0.06925693;0.16280082;0.1844395;-0.042431258;0.2933307;-0.0073426277;-0.108052075;-0.024634577;0.058812913;-0.15016717;0.0081788665;-0.07187749;0.068052985;-0.043863412;0.06531433;0.13359924;-0.0032796045;0.00960775;0.042320166;0.11370635;-0.09478077;-0.07856167;-0.16975805;-0.04634649;-0.02580984;-0.041591037;0.25770473;0.062013686;-0.06480246;-0.17828496;-0.0048323954;-0.034124512;0.0014955527;-0.050285086;0.07456121;0.048549365;0.10779948;-0.18889366;-0.040160287;0.073295034;0.07383813;0.119910896;0.08387026;0.063766934;0.035070535;-0.1830188;-0.11157089;-0.1333958;0.017914873;0.021465452;0.016324043;0.017609647;0.00079354795;-0.017030524;0.15555355;-0.11808604;-0.10474289;-0.015434285;-0.16274837;0.13078646;-0.0084581515;0.0009308676;-0.0896828;-0.05606205;0.18114646;-0.2303028;0.014929132;-0.17802835;-0.0013273739;0.0007621477;-0.06320521;-0.16680326;0.027969176;0.06187207;-0.15164462;-0.13055378;-0.098435305;-0.03306422;-0.30047488;0.07908652;-0.3602589;0.05866451;-0.038466707;-0.08231485;-0.12561736;-0.033979982;-0.037473474;-0.19760329;0.1047195;0.07731344;-0.038245168;-0.027851338;-0.10065578;-0.110392764;-0.025143249;-0.037297647;0.031986054;-0.100987196;-0.070428826;-0.11343817;0.21707556;0.108337075;-0.07394034;0.18777135;0.08573794;0.18173286;0.121938035;-0.09954074;0.01906356;-0.23715006;0.046342995;-0.013399819;0.16102247;0.013281658;-0.041119184;-0.0058285263;-0.19552937;-0.22690299;-0.013489802;0.012242485;-0.1883398;-0.1454363;0.008833281;-0.0974117;0.012880914;0.041359384;0.08936949;0.033551034;-0.03709248;-0.058645573;-0.14504224;0.17875643;-0.06865639;0.0057960926;0.060532857;-0.10146212;-0.037394676;-0.029538019;-0.007832535;-0.05803706;0.07488794;0.013088216;-0.009434726;0.09496487;-0.04689773;0.09244715;0.02476594;0.048041597;-0.085512675;-0.13439761;-0.3313612;-0.059045255;0.00023457938;0.09111255;0.13971303;0.0691302;0.07223445;0.13342085;-0.13404705;0.0591276;0.1854514;0.0021208376;-0.0065485355;0.15845713;-0.15079157;0.0982211;0.016985515;0.204122;0.06942112;0.14283432;-0.01925667;-0.06748784;-0.008317543;-0.046096552;-0.045857027;-0.007761455;-0.029772643;-0.02106801;-0.039660294;-0.0436772;-0.09984201;-0.062836505;0.101749584;-0.09347597;-0.047354154;-0.22416557;0.13190955;-0.018687844;0.10709701;0.21429008;-0.16735637;-0.025270453;0.10682851;0.0033102902;-0.064218044;0.17915583;-0.07795645;-0.06101865;-0.10580422;0.02775315;0.15695368;0.10987885;-0.09368266;-0.05487176;0.122885294;0.20617907;-0.08331692;0.08200136;-0.049663883;0.010128349;0.07934458;-0.033577196;-0.071904205;0.052596826;-0.015397815;-0.121770516;0.17073569;-0.012987777;0.00482424;-0.066002965;0.165712;0.03220371;0.006169608;-0.012074204;0.02898822;0.081114374;0.09679056;-0.09483309;0.050539397;0.10642708;0.08961508;0.09421616;0.003860122;0.13615261;-0.19058658;-0.07325769;0.035274103;-0.025523039;-0.05524852;-0.1836858;0.08574442;-0.010030876
-0.16750513;-0.13104805;-0.11830189;0.062385157;0.024850395;0.009464702;-0.031013062;0.0027918313;0.00060591026;0.0012716227;0.093479425;-0.035991747;-0.03765003;-0.065638594;-0.25161907;-0.11000587;-0.08410045;0.07010157;-0.30125114;0.06876557;-0.14046758;0.2055117;0.056366365;0.058795437;0.14468123;0.06114244;0.119247034;-0.02823081;-0.14157312;-0.058544204;0.14781119;-0.11636849;0.030273587;-0.009337349;-0.15192008;0.16150306;-0.054616265;-0.0557363;0.075585;0.020735374;-0.094950095;-0.048643187;-0.2567141;-0.04726861;-0.040353693;-0.010709954;-0.0710486;-0.106449425;-0.022725796;0.19308837;-0.2857785;-0.011627753;-0.056335326;-0.010716542;0.14322752;-0.12662227;0.1023288;-0.063531846;-0.016206484;0.081333205;-0.12134607;-0.24856655;-0.095209785;0.15958197;-0.12644501;-0.014715498;0.13504836;0.06619787;-0.20086984;-0.13860098;0.1820453;0.20393173;-0.029787157;0.020697363;0.06232706;0.11263282;-0.10063506;0.05338895;0.023915144;-0.11909481;0.009796197;-0.24796833;-0.008840855;0.11357865;-0.43780872;-0.196891;0.081569046;-0.09847445;-0.50085104;0.102471195;0.19095032;0.18879971;0.0806906;0.06549758;-0.0622346;-0.10328108;-0.29043806;0.0073845964;0.01451711;-0.16696678;0.2418044;0.09506309;-0.074335575;0.19170403;-0.009972981;0.25983232;0.047892462;-0.25389802;0.085088104;0.18693213;0.117889754;-0.17182885;-0.21966098;0.0743728;-0.09528328;-0.06808356;-0.009897022;0.04457891;0.013765001;0.0955907;0.120632514;-0.020785483;-0.039627284;0.019815505;-0.030972876;-0.0061576124;-0.17182419;-0.25879207;-0.05565235;0.01178976;0.025244094;-0.042044297;0.061071835;-0.121565364;0.06752358;0.10999276;-0.22109205;-0.060033303;-0.067402616;0.031205272;0.15936527;-0.124214455;-0.058839656;0.0673385;0.011331602;-0.02950641;-0.012635683;-0.13581753;0.27133253;0.05737054;-0.08585554;-0.043215994;-0.087539986;-0.16170543;-0.034473162;-0.027238559;0.00038732527;-0.34262702;0.06304897;0.050589405;-0.017663086;-0.06362141;-0.1657614;0.10751028;-0.04139208;0.013780048;-0.19979395;0.2121643;-0.09932941;0.052294046;-0.35941336;-0.05479707;-0.11624697;-0.021184662;-0.12964398;0.14759965;0.044817362;-0.012189495;0.11383456;-0.05697464;-0.1637301;-0.031832762;-0.07993427;0.046666816;-0.12673202;-0.07506321;-0.13360348;0.066154934;0.0320465;-0.05695541;0.014485823;-0.026528811;0.0418758;-0.2798259;-0.23318826;-0.073091306;0.01668006;0.018546833;-0.028568367;-0.018918922;-0.22172809;-0.050292034;0.1746475;-0.114707485;-0.13199139;0.049454186;-0.009050378;-0.1732755;0.0030498873;0.2627964;0.07480274;-0.12388396;0.017387453;-0.05824178;0.036183607;-0.029880635;0.022006651;0.06074236;-0.10183512;-0.1428522;-0.08668639;0.080829255;-0.051711008;0.26163715;-0.09779766;0.19399059;-0.089718685;-0.1725724;-0.05888371;0.1028129;-0.071387164;-0.014134484;0.036949206;0.23249035;0.2684031;-0.046593837;0.09180247;0.024334025;-0.0964957;-0.15518473;-0.13836935;-0.01387606;0.17965683;-0.21021861;-0.1466265;-0.09013917;-0.20812526;-0.07561267;-0.1083252;-0.0076056207;-0.013891946;-0.11081791;0.121667154;0.027766515;-0.066982195;-0.10213123;-0.14320317;0.01433616;0.3909179;0.11671437;-0.008358394;-0.113935046;0.084882386;-0.06433901;-0.14926736;-0.0417012;0.09917276;0.030380655;-0.14401065;-0.040351663;0.25784373;0.18902418;0.080403745;-0.02575705;-0.052549575;0.18251611;-0.013650269;-0.08635293;-0.010100263;-0.16709436;-0.06682782;0.012243695;-0.20531881;0.1728156;-0.03905871;-0.088477835;0.029518196;0.12914304;0.088078275;0.054395825;-0.15568711;0.034010757;0.05200522;0.09155867;0.03025173;-0.074795626;0.08943921;-0.0352996;0.14111204;-0.059216205;-0.11008567;-0.04496106;-0.07023561;0.05820782;0.10828904;0.07909929;-0.07532925;-0.16082071;0.013775887;-0.013157555;0.037657253;-0.12861523;-0.10423611;-0.03189933;-0.07163036;0.03705578;-0.0025716473;-0.09651781;0.21540971;0.006922851;-0.05103507;-0.014791697;-0.04967346;0.08648392;-0.07789485;0.04179392;-0.0130124455;-0.0051668286;0.115523376;0.05346468;-0.11645302;-0.03999139;0.1682795;-0.103103004;-0.019260328;0.17554756;0.12791674;-0.059648115;0.33951533;0.041429497;-0.043076247;0.053567704;0.10447918;-0.1524714;0.09869705;-0.17154634;0.03357492;-0.039917707;0.054224215;-0.013057291;0.15058792;-0.0039939145;0.049733996;0.012684609;0.033502787;-0.19523443;-0.06559818;-0.11748091;-0.11984648;0.05361302;0.2865341;0.0011141377;0.043605905;-0.24463247;-0.064345516;0.09431843;-0.10640338;0.03918939;-0.06797292;-0.011025253;0.18224317;-0.21805482;-0.14046523;0.050960906;0.024599224;0.23249538;0.030050585;-0.06281831;0.06412413;-0.14299063;-0.1644389;-0.06609276;0.08231267;0.0054268995;0.062082943;0.030025579;-0.035724584;0.03570281;0.24159163;-0.11026745;0.033271167;-0.026215106;-0.32569587;-0.016205065;0.064222366;0.0132425325;-0.06602492;-0.032524794;0.012540438;-0.2085453;0.038536347;-0.17219588;0.020826163;-0.040588368;-0.09216422;-0.16048786;-0.099878855;0.011322706;-0.16501483;-0.10801307;-0.020074151;-0.11485521;-0.18274768;0.02074727;-0.36525682;0.039286833;-0.0465593;0.08138292;-0.07059754;0.0016640394;-0.11647956;-0.18347016;0.055439815;0.028076215;-0.021335699;0.037810583;-0.027569244;-0.0619356;0.069389224;0.093267694;0.02317221;-0.088295765;-0.05336543;-0.14628638;0.073259376;0.10048159;-0.20707734;0.24924202;0.0683069;0.07734854;0.15416291;-0.011000099;0.0036904973;-0.14718403;0.14083692;0.05345867;0.25494948;-0.06714875;0.16288905;0.010825281;-0.059333637;-0.18733335;-0.0013605516;0.050962683;-0.3250661;-0.22405969;0.15424132;-0.07259827;0.045855276;0.08824372;0.08601546;0.11251052;-0.050354235;-0.0028810836;-0.02093858;0.16386475;-0.07467848;-0.043286916;0.081506014;-0.16576238;0.048651073;-0.036517214;-0.14478011;-0.11610016;-0.01128232;-0.012357138;-0.1541336;0.16163275;-0.089706026;0.0967196;-0.02098482;0.076651454;-0.13659847;-0.09325881;-0.25893497;0.023399135;-0.032571003;0.037953105;0.095201895;0.040350508;-0.029840851;0.19183595;-0.07662924;0.041870277;0.076038904;0.08016867;-0.078985274;0.23518053;0.009401242;0.047431637;0.052798033;0.24603663;0.01467595;0.15911405;0.16926934;-0.024286693;-0.06949761;-0.06532484;-0.12480719;-0.04218469;-0.02095157;-0.070621096;0.079928964;0.05281866;-0.07733345;-0.22286664;0.11359391;-0.1605432;0.05222289;-0.092416905;0.14682795;-0.0983423;0.03752279;0.1639385;-0.17209196;-0.056867182;0.12109883;-0.07121377;-0.025628844;0.15357108;-0.17561267;-0.010259887;-0.06541221;0.034756027;0.10551853;-0.026891096;-0.23498003;-0.037015732;0.08387791;0.2129384;-0.15337527;0.15357055;-0.05489741;0.0225589;-0.06639851;-0.052090295;0.078320734;-0.08074262;-0.049993798;-0.011665506;0.16051602;-0.015215537;-0.046039782;-0.007125192;0.011293651;-0.025028696;0.039856095;0.061525475;-0.045340873;0.025975658;0.092050046;-0.0108152805;-0.08809915;0.0874646;0.10334457;0.15704255;-0.0036087076;0.03818938;-0.20838614;-0.129761;0.14480212;0.045013636;-0.14402379;-0.12995583;-0.008303123;-0.068871394
-0.13821307;-0.020003106;-0.04195665;-0.0014618975;0.08392694;-0.020795269;0.043430056;0.03029688;0.057337552;-0.07884065;-0.034872662;-0.0026357716;-0.114739954;-0.14676404;-0.12594539;-0.07288388;-0.0056264494;0.20407851;-0.19053881;0.032763414;-0.090344585;0.17136599;0.07310493;-0.0071828403;0.11125762;0.06488041;0.13168761;-0.098900214;-0.12066485;-0.1488963;0.15663414;-0.18364961;0.07682279;0.082845464;-0.29400247;0.08935458;-0.010620688;0.0327505;0.11828607;-0.030770408;-0.1345611;-0.016762475;-0.20281947;-0.044295583;0.06505401;-0.08996588;-0.087668054;-0.114683405;0.041618466;0.22408772;-0.26242557;-0.056002565;-0.0949562;0.1662286;0.10979592;-0.06472854;0.025416747;-0.1371531;0.06305147;0.030515814;-0.14113748;-0.25446826;-0.09409945;0.08700142;-0.010392572;0.0530385;0.09726425;0.027886542;-0.3763436;-0.06305066;0.08206371;0.21975748;-0.032078046;0.0699799;0.029982729;0.1898495;-0.19495635;-0.09076773;0.14722922;-0.04794916;0.02748044;-0.17494346;0.094748035;0.022829443;-0.33977386;-0.29478776;0.10095116;-0.018169872;-0.4606281;0.0077643506;0.16597697;0.18983473;0.027368607;-0.02228282;-0.08880747;-0.11234179;-0.35472086;-0.007223492;-0.12376083;-0.15672621;0.29237068;0.05278845;-0.19962828;0.16257042;0.005013216;0.31738192;0.07903837;-0.28586593;0.0079563605;0.24424198;0.19764414;-0.11033059;-0.21278642;0.0003239065;-0.11965179;-0.066845655;-0.040671933;0.050668593;0.039062224;0.020590348;0.100523226;-0.06333533;-0.02006851;-0.021162001;-0.10506708;-0.005696079;-0.06490242;-0.3009139;0.037405323;0.0030173918;-0.088067316;-0.118973635;-0.009890667;-0.06845415;0.15558748;0.16022494;-0.16849327;-0.15259413;0.013303198;-0.102640815;0.13947657;-0.07624741;0.031009944;0.08917759;-0.058824304;0.053428076;-0.091415726;-0.11557692;0.25162184;0.04348209;-0.23635332;-0.064229175;-0.12513644;-0.101114005;-0.06213402;-0.15211385;0.1469174;-0.3891151;-0.08982214;-0.052462935;-0.06585971;-0.068399176;-0.124874614;0.019652234;0.0074512055;-0.060653552;-0.20264669;0.02823215;-0.16550191;0.08156555;-0.3346503;-0.107045494;-0.11699737;-0.03747353;-0.15944302;0.13346224;-0.0652304;-0.016231611;0.0029423411;-0.13969776;-0.2022955;-0.029829273;0.017094197;-0.017174147;-0.14678288;-0.09007029;-0.14517184;0.010362395;0.06542168;-0.09411622;0.022185903;-0.03050957;0.10875546;-0.2680215;-0.1312617;-0.03902711;-0.026089434;0.03086386;0.034000278;-0.03240557;-0.18641286;-0.031142415;0.09159538;-0.047312625;-0.1698178;0.096393146;0.058664992;-0.18106538;-0.035560254;0.18564674;0.04436225;-0.2053543;-0.061389655;0.08580197;-0.047109082;-0.083854474;0.11015407;0.085273005;-0.16988039;-0.15309699;-0.14873601;0.053337775;0.01458188;0.17793573;0.009410321;0.1319567;0.031345893;-0.19911033;-0.098747544;0.10501118;-0.078794666;-0.009197863;-0.04269932;0.19382775;0.23155926;-0.084144026;-0.0058150897;-0.018980518;-0.1486398;-0.12224705;-0.099223934;-0.07782135;0.14011647;-0.1364075;-0.05143403;0.035525322;-0.0885373;-0.08241453;0.053482637;0.034472205;0.015026823;-0.07035063;0.085696004;0.07173301;-0.018915065;-0.08625071;-0.019934548;0.19626915;0.23983593;-0.07134714;-0.04837155;-0.17141068;-0.020629719;0.09110318;-0.21907137;0.029989602;0.114955954;-0.036487523;-0.1027501;-0.019638104;0.3422464;0.24453525;-0.067011304;-0.15438373;-0.090101436;0.044215184;0.06807867;-0.16159463;0.01682964;-0.04321133;-0.04801312;0.11582727;-0.077834815;0.22721942;0.084174424;0.055462595;-0.026155734;0.06730647;-0.045278154;-0.09597161;-0.19727649;0.1597979;0.046370722;0.028706847;-0.035199996;-0.10157079;0.0053739306;-0.09170163;0.03412314;0.011692737;-0.21547607;0.0040301;-0.07554124;-0.04228038;-0.06909188;-0.0984818;0.003481328;-0.05903059;0.08937755;-0.15921767;0.17564858;-0.16880412;0.026825324;-0.038870033;-0.14373116;-0.08026422;0.018838268;-0.11479681;0.2053168;-0.03624068;0.00091809424;-0.14065897;-0.015348878;0.058249127;-0.059725966;-0.041054018;-0.07590364;0.0582406;0.111126706;0.050716512;-0.07961312;0.014918422;0.12054045;-0.23840879;0.086187;0.1260484;0.082823016;0.048753873;0.2901979;0.044947974;-0.069191225;0.052379124;0.07948679;-0.16938847;-0.021370543;-0.13593432;-0.056822605;0.0007289905;0.07661915;0.035759374;0.010258642;0.03650169;0.12322607;-0.016502855;-0.037352346;-0.11624356;-0.089123376;-0.11839788;-0.013139608;-0.14218174;0.30692506;-0.011075761;-0.045829967;-0.31109145;-0.13637823;0.009552755;0.017436087;0.060674448;0.00030210952;0.04994941;0.16496927;-0.046924468;-0.12969947;0.16453539;0.07274815;0.19081724;0.16659023;0.06819316;0.10437968;-0.035192464;-0.13329282;-0.11059435;0.009588367;0.04619131;0.092590526;0.046639077;0.0005999559;0.0012644102;0.24053963;-0.07956641;-0.114576;-0.040015034;-0.19855763;0.06754128;0.017803878;0.09650417;-0.1783276;0.029162671;0.12670414;-0.24931386;0.030913906;-0.18275522;0.043091096;-0.0501985;0.01895445;-0.08259127;0.02792198;-0.02752271;-0.21194065;-0.1279027;-0.14043617;-0.114136785;-0.22558627;0.055748038;-0.34046793;0.011778257;0.046226062;-0.014997224;0.029420163;0.015403709;-0.036519997;-0.1598211;0.051588636;-0.05429388;-0.049077637;0.05637239;-0.0039067254;-0.06727004;0.09696911;0.06773707;0.0875714;-0.04161651;-0.06364097;-0.1539406;0.18421581;0.09024302;-0.19792221;0.11604993;0.117759675;0.2002168;0.17744082;-0.09362017;0.0025653327;-0.17631459;0.113608375;0.05799616;0.21761106;0.044151176;-0.017818779;0.002987107;-0.1761875;-0.21692115;-0.05843704;0.057867903;-0.28091952;-0.15520191;0.024127332;-0.02545175;0.058572754;0.101064175;0.14700967;-0.09631998;-0.1605877;0.03321189;-0.010295002;0.047064707;-0.15180825;-0.014088307;0.13872829;-0.21831425;-0.012121748;0.083435275;-0.036403526;-0.13946092;0.05467321;-0.019631471;-0.025625804;0.08941475;-0.052542042;0.07807337;0.020248193;0.010534187;-0.24210225;-0.119121;-0.22404651;-0.15179761;0.041520406;0.072030984;0.09345881;0.13675298;0.030574929;0.06660635;-0.030311331;-0.106870145;0.092139035;0.0932927;-0.0064759897;0.18048893;-0.03263298;0.11834973;-0.0034447988;0.22469717;0.039416175;0.12775348;0.09641604;-0.13346748;-0.05174797;0.0502621;-0.09324228;-0.18872452;-0.15660237;-0.17052224;0.057164162;-0.017785568;-0.08150546;-0.08859776;-0.009348555;-0.0515996;0.007968863;-0.20842965;0.03805206;-0.024072045;0.055207577;0.06203042;-0.059977647;0.033900425;-0.037332673;-0.11279148;-0.04382544;0.17593335;-0.24984607;-0.0029091574;-0.09705561;-0.046689242;0.051312685;-0.01694846;-0.25308624;-0.012377273;0.1167922;0.17134255;-0.12315762;0.0746949;-0.053405996;0.059047855;0.09175727;-0.037159774;-0.07756216;-0.013992495;0.041333195;-0.09012876;0.17918609;-0.051005315;-0.03389919;0.051594287;0.08274295;-0.07292781;0.09520939;-0.001226107;-0.015716774;0.078851916;0.12434111;-0.10980186;-0.03313981;0.07661339;0.085854396;0.0768832;0.09015855;-0.033869673;-0.17276381;-0.106236815;0.13121463;-0.034549076;-0.08374263;-0.106473126;0.04711565;-0.069760986
-0.16815405;-0.08478963;-0.08334202;0.021295497;0.09914345;0.055836756;-0.054601323;0.08443882;0.054961026;-0.13995509;0.0782101;-0.059110627;-0.09430209;-0.13199712;-0.20452972;-0.09988442;-0.09033533;0.07133988;-0.16291015;0.06790474;-0.13087101;0.15047169;0.03566391;0.039219994;0.16994862;0.0041430034;-0.039260957;-0.04445726;-0.07906697;-0.080007836;0.21581857;-0.17915808;-0.010417068;0.109120116;-0.30386207;0.04369524;-0.12748735;-0.06579861;0.05179992;-0.1482158;-0.08654809;-0.089424565;-0.20799759;-0.060008958;0.058718856;-0.0869281;-0.019649291;-0.2762368;0.08813905;0.2074801;-0.3202524;-0.00523942;0.03487791;0.20888247;0.13903365;-0.23307854;0.194717;-0.09134648;0.035727452;0.05238468;-0.08555473;-0.19180273;-0.1467657;0.17594694;-0.12759149;-0.028818294;0.0024908741;0.03464525;-0.31567279;-0.04910905;-0.01655922;0.0924056;-0.032284267;0.11223823;0.042739313;0.07061952;-0.19775124;-0.09867235;0.105396874;0.049990196;-0.15182014;-0.1127124;0.08883314;0.04249074;-0.4054029;-0.31365052;0.052521717;-0.0036323834;-0.31371498;0.056480464;0.23378848;0.1648769;-0.09709016;0.09267318;-0.0059716916;-0.09631009;-0.28475806;-0.027604545;-0.14702724;-0.10669431;0.1677727;0.14937662;-0.19108498;0.19926743;-0.06432703;0.1799317;0.10459214;-0.27171162;-0.047534823;0.20726623;0.022047143;-0.07226197;-0.09134389;-0.007611117;-0.07710173;-0.12901494;-0.022798778;-0.00234075;0.052940022;0.025831522;0.09355822;0.11413831;0.062434077;0.035025448;-0.022234796;0.07664973;-0.119740866;-0.28295395;0.019788977;0.065960884;-0.07579706;-0.12626074;0.12522638;-0.10628158;0.07737481;0.06709798;-0.21211271;-0.089375615;0.02945765;-0.022787735;0.01456131;-0.029886872;-0.055534814;0.0068675727;-0.08414534;0.0873866;-0.16723229;-0.12303921;0.15985581;0.08396806;-0.22442983;-0.16523941;-0.04456249;-0.15878688;-0.1409549;-0.13467231;0.0778666;-0.44529533;-0.032469295;0.018625196;-0.012059624;-0.0044641476;0.025055662;-0.045114253;0.0811223;-0.10856844;-0.1778914;0.079369456;-0.117374584;0.11567481;-0.30697483;-0.17196833;-0.06206847;0.005237247;-0.013252175;0.10651345;-0.10059222;0.08043867;0.07331883;-0.008255533;-0.1753525;-0.0797483;-0.045408826;-0.039496686;0.05301152;-0.07457543;-0.06351011;-0.0070447456;-0.031491056;-0.1517436;-0.032413524;-0.095135264;0.08316028;-0.18445255;-0.041101206;-0.014092139;0.04126558;-0.023493567;-0.14169432;0.045441844;-0.23256403;-0.08819299;0.11658167;-0.0527563;-0.20291191;0.12983069;-0.04528907;-0.060421772;0.030889427;0.21611221;0.084348;-0.22155054;-0.060485005;0.004991587;0.0425052;-0.061137985;-0.002225819;0.17165035;-0.15668356;-0.070187606;-0.08934849;0.044402283;0.008368503;0.22459494;0.050493862;0.19631451;-0.04648655;-0.08940187;-0.067985035;0.11806328;-0.10635614;0.073529534;-0.09474216;0.16312501;0.18372294;-0.01856401;-0.050898947;0.084526226;-0.0132444315;-0.14806919;-0.12497094;0.054812577;0.20834939;-0.092563406;-0.053029194;0.016618017;-0.26174998;-0.04528159;-0.107456185;-0.05036144;0.11789464;-0.19499251;0.059131525;0.08508652;-0.16085018;-0.12289746;-0.119493775;0.15010256;0.3542702;-0.030690676;-0.06693728;-0.13950448;0.04728351;0.011434038;-0.17401578;-0.17758514;0.123161666;-0.10825859;-0.15458736;-0.013344971;0.36072543;0.2300293;0.016614182;-0.16965199;-0.16629726;0.0462492;0.15696548;-0.12787989;-0.029635908;-0.00719358;-0.032875143;0.21287113;-0.113436185;0.23492657;0.0049074222;-0.1032819;-0.041843455;0.12976381;0.09822748;-0.1432447;-0.26597387;0.10940703;-0.046647962;-0.091211475;-0.11893917;-0.11328515;0.14554878;-0.1656557;0.13856958;0.02087173;-0.15272698;-0.030909108;0.00052051374;-0.070474796;0.067375265;0.004856133;-0.04999028;-0.07091424;0.0048228856;-0.118451536;0.14966863;-0.26278192;-0.056875344;-0.045575168;-0.14884314;-0.07222305;-0.07187517;-0.028420232;0.10898435;0.005594804;-0.021471579;-0.1153684;0.0027789597;0.0949393;-0.07857082;-0.03223777;0.086856075;0.054632965;-0.052727576;0.10518847;-0.111429125;0.024562335;0.30269787;-0.13636206;0.069666654;0.086025275;0.19231187;-0.016654897;0.22908708;0.1278372;-0.1039638;-0.010650015;0.17452192;-0.053964857;-0.07623897;-0.04809602;-0.13091612;0.023224687;0.005366918;0.017599748;0.14337534;0.07063238;-0.03655597;0.080407046;-0.022720102;-0.08606678;-0.10864697;-0.06400021;-0.094932266;-0.11782341;0.3081113;-0.019413287;0.028843066;-0.17239706;-0.15553758;0.021006964;0.069428734;-0.0526817;0.031442087;-0.029475292;0.2030838;-0.14687397;-0.07377408;0.13864672;0.13743481;0.11338946;0.22394092;0.098213516;0.02262399;-0.16609988;-0.15231946;-0.112080455;-0.08709232;0.13683411;0.11234118;0.03771687;0.01825684;-0.01986203;0.21449924;-0.02710981;0.004551883;0.09579638;-0.28222212;0.03345578;-0.04694725;0.05628226;-0.17861548;0.059793126;0.0064206123;-0.17915879;-0.047346957;-0.17636791;0.022432372;-0.050862912;-0.0045278813;-0.104337625;0.06177945;0.016076833;-0.13763493;-0.030313607;-0.047201235;-0.10873094;-0.19403392;0.10990253;-0.37721223;-0.02069303;-0.04042366;-0.1490825;0.032053683;0.06297146;0.008560029;-0.10062498;0.17293203;0.012327294;0.05890357;-0.087147765;0.006734102;-0.15021574;-0.0006705651;-0.025644667;0.10561342;0.055167943;-0.08414219;-0.22053376;0.18282801;0.0430478;-0.22733189;0.21457167;0.1107543;0.20682576;0.25351262;0.0034372928;0.05567466;-0.20552777;0.061096698;0.061093606;0.13330725;0.06843714;0.032182667;-0.048311137;-0.10015538;-0.16232309;-0.10341535;0.10655864;-0.3824875;-0.21797068;0.03867465;0.029559204;0.040872455;0.008807871;0.117454216;0.035948634;-0.11309476;-0.05306392;0.071270935;0.07708311;-0.0801097;-0.04191194;0.0036989087;-0.26470783;-0.052218217;0.041518565;0.012483001;-0.081803866;-0.03980768;0.033760272;-0.09876398;0.20562851;0.024928015;-0.08299298;-0.10632344;0.1426235;-0.21838272;-0.15756838;-0.42393148;-0.11064901;-0.03831784;-0.013118262;0.12490128;0.11657092;-0.04802207;0.09622596;-0.17356856;-0.093895465;0.14423831;-0.051203225;-0.05080495;0.15544978;-0.07952639;0.051574893;-0.051823825;0.3406395;0.087367654;0.15908417;0.1257823;-0.06561542;-0.1133592;0.0063672513;-0.123876564;-0.16185522;-0.06421025;-0.03509597;0.048069477;0.018295197;-0.16564903;-0.05376557;0.048471145;-0.11193759;0.014593371;-0.12361622;0.043213535;-0.0448969;0.11138249;0.1413393;-0.04375333;-0.006544492;0.02522052;-0.04332918;0.011192944;0.17947891;-0.13860103;-0.00826131;-0.03794098;0.035198867;0.088978924;0.052997176;-0.17934646;0.043562554;0.0994571;0.19624174;-0.18421432;0.0786275;-0.1457405;-0.029074667;0.13561495;-0.03929359;-0.036487523;-0.070574164;-0.045372576;-0.11626451;0.10589754;0.023910724;0.054577596;-0.052899092;0.15075397;-0.062838495;0.1722846;-0.023399893;-0.06152497;0.07979435;0.15386087;-0.032862786;-0.031589;0.05052239;0.093541846;0.02651246;-0.03666621;-0.017482791;-0.30780682;-0.12910368;0.064452395;-0.040060263;-0.077111065;-0.019773914;0.0076305247;-0.037555918
-0.12878227;0.066369;-0.077505514;0.0041553453;0.056265067;-0.020568028;-0.06852293;0.038935654;-0.03453207;-0.069377676;-0.04106607;-0.12867925;-0.113545604;-0.11302614;-0.2053739;-0.10245974;-0.02216914;-0.049378425;-0.28891778;0.09630871;-0.086693555;0.16342896;0.17133355;0.1398968;0.21031187;-0.019807626;-0.07921089;-0.015579192;-0.085756704;-0.16677177;0.24038288;-0.031311426;0.077531524;0.05214429;-0.22113656;0.1123712;-0.11745867;-0.038487528;0.1496421;-0.18479443;-0.06437725;-0.02959346;-0.26419133;-0.026852768;0.09811004;-0.14461255;-0.052261163;-0.2477335;0.079874784;0.15025687;-0.3899661;-0.067489736;0.006672765;0.12173242;0.18711038;-0.077758655;0.22005898;-0.045164;0.10401418;0.09426404;-0.078710526;-0.09135826;-0.16198662;0.15449765;-0.08559655;0.1430624;-0.010611638;-0.02383692;-0.28513813;-0.06811937;0.07192733;0.12484604;0.11544066;0.0802336;-0.021638647;0.13886756;-0.053454254;-0.0343668;-0.039766923;-0.0063833753;-0.0427685;-0.25116625;0.0095903035;0.08468297;-0.4812228;-0.18579946;0.11445367;-0.0034793084;-0.329153;-0.041385863;0.12691508;0.22508802;0.028656214;-0.015803466;-0.075589016;-0.17762439;-0.34268263;0.07004281;0.00074111426;-0.143909;0.21541196;0.16421258;-0.15659516;0.20483083;0.007883664;0.21278872;0.1323935;-0.13559663;-0.04663489;0.32721362;0.11304987;-0.17193682;-0.2729113;-0.03248078;-0.1607435;-0.10705619;-0.062881544;0.114718236;0.17773667;-0.014939932;0.10992106;-0.00078586105;0.02881497;0.042404894;-0.007242566;0.014864005;-0.15299198;-0.23601402;0.059041914;0.030861542;-0.08325424;-0.049063716;-0.03169943;-0.0867171;0.13498631;0.077892505;-0.14987154;-0.15527627;0.019991608;0.05362234;0.008777754;-0.17258413;0.048901565;0.124402024;-0.11066877;0.014273482;-0.05477567;-0.1640275;0.15844654;0.032996647;-0.14971878;-0.18008302;-0.02276669;-0.10302141;0.012730588;-0.05048016;0.017796334;-0.4184992;-0.105397195;-0.10710911;0.08843144;-0.026591014;-0.049777687;0.02884119;-0.028371476;-0.057941608;-0.1417599;0.10656624;-0.06047112;0.043306988;-0.24956524;-0.010323203;-0.22628735;-0.008945988;-0.13102253;0.05594977;-0.052924052;0.086245224;0.058193423;0.049222495;-0.12861328;-0.0059960946;-0.023797411;0.0364968;0.0051353015;-0.034309372;-0.1292543;0.06882881;0.0560202;-0.14912386;-0.025940366;-0.033689078;0.04657354;-0.19676216;-0.065896146;0.03426873;-0.06332684;-0.044403665;-0.043807037;0.017003817;-0.28074196;-0.16085246;0.020951279;-0.05053917;-0.13863333;0.07144175;0.06649589;-0.099073775;0.041555673;0.23834535;0.034119394;-0.35801065;0.08954166;-0.008454951;0.008068581;-0.11954557;0.08952141;0.110160425;-0.089689456;-0.11084594;-0.04734414;0.12879626;0.01844009;0.111523695;0.06655243;0.21898429;0.016810784;-0.22448255;-0.14482561;0.24349378;0.0037514314;-0.04051216;0.03865694;0.1294227;0.15152565;-0.071395695;0.085088916;0.019089587;-0.027188612;0.022447089;-0.16424918;-0.042716827;0.097464085;-0.25400567;-0.14923647;0.014714495;-0.11756657;-0.15807612;-0.07362489;0.010512271;0.031843938;-0.1456708;-0.026881102;0.025739599;-0.1089851;-0.17462398;-0.045941997;0.04580601;0.2617172;0.023496991;0.023888702;-0.19157648;0.0891752;-0.054443095;-0.16440018;-0.11825678;0.049603127;-0.0780312;-0.020173265;-0.09012601;0.24616237;0.23792134;0.034736585;-0.20338675;-0.14577433;0.12083831;0.16661462;0.0016070972;-0.11020157;-0.06784584;0.011686306;0.10061079;-0.12042532;0.24583124;-0.09115697;-0.062858716;-0.0623536;0.13766173;-0.034528606;-0.13084772;-0.19703418;0.08811908;-0.03650403;-0.019055888;-0.16392846;0.0009873958;0.044435352;-0.048069846;0.028673725;0.049665026;-0.23381859;-0.08216081;-0.047474906;0.033053245;0.0013952604;-0.084409416;-0.08368863;-0.1256339;-0.11005301;-0.11088906;0.20594247;-0.32547337;0.08085275;-0.019617846;-0.025927017;0.059745368;0.0634841;-0.20698424;0.030066438;-0.08880567;-0.014596484;-0.14424253;-0.098947085;0.062158644;-0.04217499;-0.088158436;0.10713914;0.0046533127;0.039623395;0.0631535;-0.086064324;-0.042119794;0.14820202;-0.25384408;0.031787157;0.12411709;0.11029942;0.067363076;0.20551494;0.047276486;-0.1237801;0.1080365;0.11540278;-0.10664791;0.0010270663;-0.09405422;-0.16902494;-0.08767191;0.08601283;-0.04361005;0.02222299;-0.10646737;0.022167178;-0.020586696;-0.024025105;-0.25493595;-0.13384426;-0.016431138;-0.15364851;-0.033177417;0.30123982;-0.031601213;-0.016571471;-0.17660607;-0.069461256;0.04910198;0.04013769;-0.051096547;0.041497353;-0.12220373;0.26287034;-0.15336703;-0.14999129;0.0526666;0.09421746;0.14054106;0.25062028;-0.0028149737;0.009193673;-0.0823911;-0.0155988755;-0.12799826;-0.117114;0.11038607;0.06690949;0.004792627;-0.01561707;-0.041188557;0.09126194;-0.014628824;0.07998878;0.12293123;-0.38045898;-0.13412344;-0.078954875;-0.018709375;-0.051921375;0.10280219;0.06066619;-0.0962506;-0.05086357;-0.04194884;0.03500289;0.020003721;-0.023371795;-0.0894698;0.03408012;0.045453254;-0.13392755;-0.040467523;-0.113620244;-0.0945175;-0.18359908;0.0293126;-0.32073402;-0.014908845;-0.03810419;-0.09201915;0.052104726;-0.041397296;-0.057774782;-0.08947308;0.059771463;0.026454303;0.009520641;-0.04202333;-0.005037142;-0.08791045;0.0037158874;0.16418351;0.11801583;0.0404735;-0.047951948;-0.067965016;0.00040970964;0.09941168;-0.2834243;0.13309169;0.014130608;0.10563795;0.2782135;-0.09180641;0.02536532;-0.0822203;0.061678812;0.08407799;0.24644971;-0.032276154;-0.021828124;-0.038169384;-0.037587583;-0.16063705;-0.16093928;0.16198663;-0.31944284;-0.22843687;0.099702545;0.11164623;0.024797684;-0.051207498;0.05205331;0.037784487;-0.19952701;-0.0286349;-0.040963612;0.14135376;-0.077640325;0.15495957;0.14495745;-0.25091943;0.03261677;-0.014412501;0.00973222;-0.10101543;-0.01372445;-0.093425594;-0.066220395;0.08496247;0.00084698555;0.051863935;0.012508399;0.11692379;-0.2803651;-0.105980426;-0.30854318;-0.08579575;-0.006525359;0.03484745;0.047010843;0.0894387;-0.077786736;0.10812643;-0.060521822;-0.13591257;0.23715645;0.07636477;0.02042288;0.12946433;-0.02385706;0.04548553;0.059986297;0.3124567;0.11829316;0.16347395;0.17551018;-0.13600993;-0.08241815;0.05435288;-0.118089356;-0.21981496;-0.10539935;-0.01747461;0.08388619;-0.053419992;-0.10564851;-0.15922813;0.0822558;-0.22218479;0.028439337;-0.047523554;-0.01395648;-0.06739297;0.15708739;0.11780118;-0.15780221;0.027696919;-0.062003866;-0.079676054;-0.021036912;0.142182;-0.28330114;-0.015554368;-0.038060006;0.033260643;0.0054291226;-0.002771553;-0.25073326;-0.1557321;0.043610185;0.2898953;-0.21186364;0.18130052;-0.19484775;-0.0067610494;-0.049254097;-0.043587852;-0.026246635;-0.07043632;-0.03166702;-0.09390783;0.11067905;0.03950431;0.07798671;0.044058353;0.09279822;-0.07242735;0.08917806;0.003604808;-0.11002776;0.12214791;0.057158504;-0.07815076;0.0046700416;0.0031535532;0.12934668;0.026475184;0.07510628;-0.04810842;-0.18802725;-0.055318374;0.17422396;0.06725512;-0.12091958;0.0063365134;0.12243346;-0.13552749
-0.24643974;0.11622722;-0.100315325;0.073786534;-0.02898096;-0.021970375;-0.07347153;-0.05582826;0.03194983;-0.08411629;0.032057464;-0.03319481;-0.16083355;-0.08052572;-0.1986563;-0.11931523;0.028843338;-0.06980169;-0.23376246;0.06879261;-0.016635628;0.1142344;0.07116806;0.07363564;0.16427626;0.08692212;-0.10433228;-0.07173722;-0.16271435;-0.1108765;0.16757984;0.019246906;0.026296575;-0.019668758;-0.2684295;0.04210592;0.028221585;0.043619413;0.05966809;-0.23707283;-0.19148193;-0.123235695;-0.20874906;0.03365166;0.15439196;-0.10013733;-0.040786587;-0.21056423;0.0577088;0.18751088;-0.2163508;0.080358386;-0.07266317;0.06526295;0.15670146;-0.14383036;0.20564733;-0.06099855;0.09747364;0.17660902;-0.103532925;-0.1141545;-0.00049570494;0.10146616;-0.021922566;0.11138431;0.107124425;0.037299246;-0.40897015;-0.002102634;0.026680648;0.122017734;-0.058191743;0.10601378;-0.07594187;0.009849794;-0.1494507;-0.044845115;-0.024990328;-0.0726556;-0.03195238;-0.21923211;0.030990822;0.1771381;-0.49456623;-0.38403127;0.15319973;-0.0313517;-0.32877088;0.035571065;0.123724714;0.27120996;-0.0546635;0.06452149;-0.112838015;-0.15439434;-0.34113798;0.08751813;-0.08115077;-0.15469787;0.21530655;0.1421164;-0.05752051;0.25025964;-0.006552273;0.18880999;0.18074252;-0.11390175;0.0588294;0.2723443;0.08749004;-0.22690831;-0.14825667;-0.026600644;-0.11548177;0.0515879;0.021478575;0.09254575;0.09195081;0.051061198;0.1828263;-0.034658886;0.1937189;0.010196071;0.03668742;0.09011117;-0.15642938;-0.26619437;-0.07488906;0.09538834;0.025957488;0.055077028;-0.03933367;0.04211706;0.2486056;0.09204071;-0.2710865;-0.16571423;-0.05410408;0.007948719;-0.051586464;-0.016007716;-0.048838753;0.02813615;-0.04416203;0.060730908;-0.17248058;-0.0698955;0.28693804;0.0644719;-0.08633453;-0.08390782;-0.014794552;-9.071223e-05;-0.10625283;-0.06839346;0.11359505;-0.391259;-0.08424542;-0.07097051;0.07079882;-0.06494275;-0.08245669;0.085310854;-0.061995223;-0.18821737;-0.20127703;-0.012452216;-0.041347288;0.0861168;-0.31156522;-0.043539677;-0.09631381;-0.09903044;-0.066898376;0.07607268;-0.026033495;0.22013235;0.087560035;-0.09430135;-0.13810176;0.005181668;-0.060899463;0.016946007;0.07666604;-0.14560433;-0.098519616;0.013104033;0.07225758;-0.218253;-0.06690915;-0.06755728;0.14448532;-0.3243588;0.045677844;-0.008770506;-0.030293183;0.0030513972;-0.06658409;-0.042179815;-0.23994729;-0.12819071;0.1006995;-0.0038105214;-0.18338437;-0.01075397;0.036858607;-0.20503774;0.03385461;0.25373024;-0.04440588;-0.3517985;-0.0884599;0.010297039;-0.017158443;-0.18636353;0.10487595;0.112111196;-0.06387776;-0.10811825;-0.05222909;0.09903737;0.05593276;0.13437285;-0.07390258;0.14070898;0.008282192;-0.19792466;-0.104764305;0.116591625;-0.07625846;0.02243469;-0.021827657;0.15496488;0.14196979;-0.16152157;0.082124345;0.09246273;0.03836081;-0.059384145;-0.13460973;0.035747193;0.16729832;-0.15614669;-0.15722537;-0.08876338;-0.1397821;-0.0516156;-0.14868271;-0.023691835;0.10252224;-0.22150454;0.0076496117;0.021478556;-0.19213948;-0.045716435;0.007633716;0.03488338;0.25824976;-0.027824754;0.023065202;-0.07054627;-0.0358031;0.06651797;-0.10153362;-0.08753212;-0.052302413;-0.14272842;-0.04464995;-0.11032258;0.23190022;0.20035547;-0.036619827;-0.13506643;-0.07907869;0.098839104;0.19489893;-0.04014266;-0.09732348;-0.18806864;0.031241989;0.13406652;0.01114471;0.17605159;-0.038163967;-0.039657082;0.03663112;0.07474701;0.019260919;-0.09594628;-0.16007221;0.04000728;-0.09709247;-0.038570274;-0.07080821;0.066253506;0.022287415;-0.12304392;0.03375824;0.034036506;-0.27369362;0.053090513;-0.1778854;-0.105462365;-0.0734442;-0.005720416;-0.10402578;-0.061997306;-0.2143006;-0.033419125;0.21746294;-0.3225318;-0.0654735;-0.03484992;-0.15578829;-0.088180095;0.078661926;-0.18869394;0.014094956;-0.008918;-0.0049407906;-0.051037923;-0.09628145;0.030396419;-0.0970582;0.022724457;0.100102775;-0.00088824733;0.065575235;0.11121862;-0.098502025;-0.03937893;0.20779169;-0.11171912;-0.049179398;-0.006954673;0.15198557;0.069584936;0.24512112;-0.02762116;-0.15510912;-0.05189295;0.088002115;-0.123632364;-0.097619675;-0.08963691;-0.017433241;-0.054425735;0.10172519;-0.02035783;0.13843563;-0.032086495;-0.003294398;0.039093055;0.07834061;-0.1894769;-0.10780228;-0.13196851;-0.17031968;-0.029012036;0.30450785;-0.045458145;0.028075881;-0.11913187;-0.1065702;-0.08019492;-0.024642391;-0.048300356;-0.028012652;-0.003258093;0.25222492;-0.0055208392;-0.17007345;0.021986984;-0.038003586;0.15507713;0.14559367;0.13199514;0.082203954;0.031769436;-0.08224802;-0.040313862;-0.05625459;0.034400053;0.04558398;-0.0067847166;0.053828165;-0.10602667;0.15132639;-0.026551014;0.048612755;0.117848895;-0.4453413;0.0033934582;0.048967686;0.079802796;-0.15789536;0.04724555;-0.07177351;-0.03323353;-0.029896824;-0.08214622;0.03936699;0.0053890017;-0.028145958;-0.036282428;0.036929294;0.040788103;-0.13939779;-0.13911203;-0.11423576;-0.21109314;-0.20246555;0.058496095;-0.2385628;0.08113966;0.020804472;-0.0013197426;0.01877567;-0.041672993;-0.048603896;-0.2774281;0.19181217;0.016879978;0.13106084;-0.13265187;0.007656752;-0.058899403;-0.074925885;0.014517229;0.11255763;0.06757824;-0.11746698;-0.09117205;-0.048561543;0.14047359;-0.27508324;0.0681613;0.13940136;0.20145139;0.37908357;-0.0793355;-0.0470417;-0.03720282;0.056541596;-0.0452326;0.24740869;-0.022111045;0.06898089;-0.11671053;-0.026160885;-0.13063483;-0.18471259;0.16172509;-0.4854486;-0.21934974;0.11257141;0.020521982;0.05588362;-0.060756747;0.012679374;0.006815675;-0.19475603;-0.00801019;0.07346755;0.0026539713;-0.1490306;0.070402235;0.1918281;-0.3077502;-0.10484739;-0.110396855;-0.035739705;-0.11648221;0.07202346;0.01212806;-0.0004677073;0.19459414;-0.02744515;-0.0020422481;0.043878656;0.053083006;-0.2989269;-0.053436205;-0.45837647;-0.031241842;-0.057999037;0.06496918;0.09130824;0.05828477;-0.063726425;0.14073518;-0.033437464;-0.17309889;0.14111565;0.044086304;-0.12021333;0.12936223;-0.041582156;0.08989958;-0.064243756;0.37501523;0.077061616;0.12675053;0.20041053;-0.06345543;-0.17032132;0.05206317;-0.029421419;-0.18518429;0.0097059915;-0.04684441;0.119814925;0.021769766;-0.038736347;-0.13328157;0.17371199;-0.1262854;0.07362202;-0.08505683;0.006537564;-0.079743534;0.2024299;0.068657726;-0.03676331;0.053476594;-0.016176207;-0.13825026;0.03949089;0.05970324;-0.25816262;0.019226724;0.0052441;0.013858828;-0.028290782;0.041517578;-0.18121828;-0.06957112;0.091998436;0.3105608;-0.118143916;0.1368507;-0.15560743;-0.030463364;0.005288702;-0.031751033;-0.019550852;-0.09814064;-0.12382914;-0.060946643;0.06283969;0.07121274;0.13551746;0.05907516;0.14798252;-0.026087265;0.016527368;0.08159302;-0.18159845;-0.011333065;0.0029220576;-0.12542051;-0.065266915;0.0014674922;0.22268897;0.075225875;0.05942074;0.012067653;-0.25056356;-0.13365482;0.054105025;0.031859864;-0.19493817;0.0466;0.073792905;-0.010598838
-0.12348398;0.12372894;-0.029530948;0.015309005;0.03836413;0.07391151;-0.09207589;0.034308404;-0.112487875;-0.17060271;0.059576396;-0.14857213;-0.14872006;-0.18188828;-0.15322804;0.007415714;0.012373869;0.10431642;-0.16405143;-0.04055103;-0.08155055;0.105990365;0.11712655;0.014100058;0.21115501;0.045739513;-0.079562716;-0.026319113;-0.1906129;-0.15561128;0.1965216;-0.060720995;-0.03679315;0.071935415;-0.35711592;0.042668916;-0.076641165;-0.032823097;0.20476066;-0.13600233;-0.053737085;0.024034752;-0.038461946;-0.035377223;-0.0031574052;-0.16614656;-0.0104488535;-0.404087;0.061157227;0.17250888;-0.2894985;-0.036151722;-0.10083147;0.08016933;0.2165131;-0.09215241;0.122780524;-0.08759398;0.14193764;0.07767748;-0.112733215;-0.12879056;-0.01643275;0.05777258;-0.068828;-0.020261226;-0.03570915;-0.02580013;-0.3679641;-0.009348717;-0.11568753;0.14911522;-0.0026148262;0.15058851;0.06281268;0.060233463;-0.16179518;0.032214116;-0.06336524;-0.01449386;-0.14619844;-0.22047035;0.03857639;0.21975988;-0.506471;-0.22082788;0.16516492;0.07341241;-0.3236619;-0.08643811;0.098014645;0.29007727;-0.1266546;0.007669122;-0.092861705;-0.09736692;-0.34397185;0.10435662;-0.16023467;-0.19442172;0.24588044;0.12309251;-0.15074529;0.2689424;0.004773243;0.23378286;0.19714406;-0.17822115;0.030049535;0.3275496;-0.09034463;-0.14922403;-0.13600889;-0.038602684;-0.15100084;-0.10441414;-0.03177686;0.057145115;0.026155131;-0.0866941;0.10838675;0.021095138;0.22193184;0.060992297;-0.026341518;0.0016439799;-0.011791737;-0.40424198;-0.03730988;0.110005595;0.07726521;0.0025180303;0.08255609;-0.06775262;0.19486926;0.2183892;-0.20539594;-0.0027096823;-0.047269423;-0.09002709;-0.033192594;-0.05020392;-0.13704462;0.0054471055;-0.102491856;0.054251436;-0.19504756;-0.03487819;0.27796268;0.100080915;-0.09369221;-0.07194099;-0.11418394;-0.069621086;-0.06315103;-0.10776019;0.05402774;-0.43323833;-0.009017308;-0.11167436;-0.048209284;-0.062353972;-0.00927273;0.104791746;0.0363702;-0.11257384;-0.0995963;0.019167753;-0.095172994;0.012349456;-0.23481812;0.0018224488;-0.16335092;0.019869542;-0.14675055;0.106792524;-0.054409754;0.15670069;0.13579577;-0.014174176;-0.18150719;-0.08142855;-0.07375837;-0.07238562;0.023686033;-0.015723353;-0.049283832;0.020113677;0.13580252;-0.09770104;-0.051992696;-0.21512213;0.16751352;-0.29318905;0.04645702;0.04601237;-0.042013705;-0.016097233;0.0019378433;-0.11771913;-0.2135246;-0.11845773;0.063448526;-0.1560123;-0.14920759;0.07277999;0.05748507;-0.15982966;-0.08963981;0.26325852;-0.049655464;-0.41100633;0.0050240657;0.11544649;-0.069943815;-0.09648742;0.084290326;0.1175824;-0.15806432;-0.04861958;0.038773034;0.07039445;-0.03698525;0.18908773;0.07944528;0.13853292;-0.04511582;-0.116108425;-0.03472378;0.1613931;-0.09579342;0.025302956;0.14697787;0.23020227;0.13742575;-0.083184965;0.0070410348;0.101852044;0.041975085;-0.07721332;-0.023180949;0.09488477;0.20191345;-0.112779364;-0.12497111;-0.11569982;-0.09979215;-0.027188854;-0.073515035;-0.11369909;0.12452428;-0.116029546;-0.08001305;0.10905637;-0.090897016;-0.19405875;-0.010902986;0.045540147;0.32346398;-0.085968755;0.09887134;-0.13287507;0.10969236;0.03602446;-0.16570899;-0.2363243;-0.05942558;-0.115720436;0.0114688;-0.011253885;0.25941274;0.084890194;0.046424724;-0.13850227;-0.03123779;0.07876279;0.19156049;-0.08461299;-0.063899964;-0.15059654;0.064271204;0.22513117;-0.06412108;0.22774129;0.041435473;0.013113048;-0.11591519;0.12403928;-0.0010374961;-0.0127191385;-0.12266221;0.08587769;-0.018155683;-0.1047296;-0.21959344;0.09461174;0.046495806;-0.055886492;0.11352475;0.13426317;-0.16588719;-0.062220443;-0.14224645;-0.14716569;0.041963045;-0.16251528;-0.0078143;-0.08114577;-0.10144536;-0.010172678;0.19517003;-0.16044411;-0.030559132;-0.013855365;-0.1379927;0.10529202;0.044596232;-0.19654386;0.028581325;-0.07089578;0.00033212156;-0.13259473;-0.030487925;-0.02226726;-0.03846965;-0.11456922;0.27585497;0.020737788;0.04819;0.08986865;-0.10198245;0.10750065;0.20947152;-0.27333724;-0.006383603;0.089850284;0.09249214;0.0063088164;0.2793298;-0.061966095;-0.034870535;0.029603224;0.06842757;-0.061043825;-0.07353381;-0.17420486;-0.14809251;-0.10111261;0.07838548;0.042954583;0.07545794;-0.04686455;-0.02172366;0.10821746;-0.03624177;-0.14097658;-0.14913005;-0.13545434;-0.1039929;-0.10043235;0.21916081;0.029587641;-0.03877083;-0.2172345;-0.19213991;0.057579137;0.05679372;-0.08845389;0.0834048;-0.083715886;0.22818884;-0.062316068;-0.08994978;0.13540187;0.03589407;0.052849222;0.24753352;-0.021275003;0.06731487;-0.05134006;-0.06139854;-0.11153298;-0.13804981;-0.060525727;0.102310695;0.024396883;0.0049569933;-0.09466116;0.14640841;-0.030442026;0.05624872;0.22956553;-0.40920183;-0.040632192;0.026688192;-0.03367523;-0.13785388;0.021233073;0.054638762;-0.16514404;-0.053100005;-0.17656194;-0.034966134;-0.047286395;-0.05056923;-0.08579279;0.13636845;-0.011676131;-0.14317396;-0.077461585;0.07233578;-0.12594563;-0.27941382;-0.023516744;-0.34875894;-0.049788114;0.08193253;0.034403425;-0.026743567;0.0037263033;-0.0070768823;-0.2622475;0.16861011;0.09085652;0.028996862;-0.1325226;-0.07731829;-0.10451981;0.015103734;-0.0010424483;0.07365656;0.06016443;-0.1438287;-0.067911424;0.012605927;0.060586955;-0.14980194;0.1152704;0.039650843;0.23131606;0.35220194;-0.02357798;-0.03139421;-0.07283517;0.14102373;0.13750058;0.18216498;-0.028417379;-0.022620993;-0.050604135;-0.00701456;-0.21921006;-0.10284073;0.111430146;-0.44472578;-0.1533312;0.11867415;0.088862225;0.016356148;-0.03712587;0.035868846;0.048380263;-0.08406122;-0.004414816;0.07526036;0.04820343;-0.06820679;0.11030711;0.1882954;-0.33992112;-0.0429643;-0.04002236;-0.012851657;-0.12496698;-0.08696439;0.021908956;-0.04014439;0.24186179;0.010079686;-0.033094365;-0.05358831;0.119764194;-0.22514224;-0.04364249;-0.40467843;-0.067973986;0.06677025;-0.07224428;-0.03454075;0.11133279;-0.047076277;0.17486253;-0.10473172;-0.15939161;0.12661956;0.1069412;-0.120966785;0.15056817;-0.03299455;0.10149833;-0.094297424;0.34004354;0.026511606;0.21002658;0.17358708;-0.09889913;-0.16269909;-0.053729374;-0.14773187;-0.16312084;-0.06510434;-0.0029654307;0.19381242;-0.024346119;-0.08390325;-0.21401332;0.09976563;-0.23831642;-0.07308113;-0.08934368;-0.07329263;-0.0854683;0.27341294;-0.009893959;-0.11334683;-0.026318137;-0.20377554;0.037892986;-0.1061295;0.11532968;-0.31637233;0.02269769;-0.037858896;0.035515416;0.02884528;0.033965297;-0.22600736;-0.017359443;0.09953274;0.21345115;-0.19522198;0.010668713;-0.11145007;-0.056837242;-0.030251047;0.05233871;-0.009949332;0.011972946;-0.08751147;-0.018329246;0.016839845;-0.038218632;-0.0048052454;0.0042189355;0.14443272;0.06924046;0.2199903;0.007420018;-0.1019347;-0.0013160696;0.080306746;-0.06950335;-0.029822486;0.023673136;0.24175635;-0.08853991;0.10816024;-0.054646883;-0.26447958;-0.003723442;0.22410129;-0.0824055;-0.15803762;-0.028654182;0.15400524;0.01230091
-0.15481752;0.08748584;-0.19137695;0.05524038;0.09666287;0.14746252;-0.105300374;-0.07628838;-0.070977844;-0.16348967;-0.055653516;-0.16746713;-0.12999582;-0.104362704;-0.16558471;-0.029606525;-0.012529608;0.10081811;-0.13827236;-0.04058365;-0.04847699;0.10713752;0.14693724;0.05227269;0.18524128;0.072059885;-0.05011699;-0.07754214;-0.25239965;-0.16675097;0.22840978;-0.090226956;-0.038935952;-0.051686905;-0.27773374;5.6228717e-05;-0.03019313;0.03933411;0.12112973;-0.24012697;-0.14754802;-0.06738704;-0.16377182;0.06027782;0.090884425;-0.23395823;-0.015410191;-0.446431;0.02191866;0.14649667;-0.29891416;0.110147774;-0.02320577;0.12906191;0.23795508;-0.17911841;0.18771568;0.061152995;0.018483896;0.09903631;-0.06957894;-0.17292252;-0.038572792;0.06505787;-0.06804847;-0.029196944;-0.013035155;-0.04314607;-0.36888802;0.15133125;-0.078377575;0.10785345;0.07622752;0.069267444;-0.044825606;0.09736992;-0.071776725;0.05125297;0.01488477;-0.11859812;-0.20040764;-0.12609456;0.1109039;0.1859959;-0.38344544;-0.31475392;0.25022095;0.08506782;-0.20021573;-0.017032428;0.14559735;0.167659;-0.078817934;0.07721313;-0.14385542;-0.08657778;-0.301017;-0.04951418;-0.09014674;-0.07991771;0.22216012;0.05848489;-0.13349825;0.13428587;-0.05842881;0.23810539;0.11761898;-0.22827372;-0.18370949;0.22755796;-0.084143415;-0.1944067;-0.18243271;-0.030917522;-0.30399883;-0.06358409;-0.05081362;-0.058344595;0.1881371;-0.0017491768;0.04166461;0.06505716;0.18204226;-0.0703106;-0.098571606;0.120745875;-0.1395123;-0.3218056;0.042985164;0.12127786;0.000344247;-0.16098627;0.06998938;-0.016873598;0.18317676;0.07952128;-0.14538565;-0.062228743;-0.005088386;-0.07528494;-0.014498432;-0.116010875;-0.09061668;-0.050602857;-0.10837939;0.00520311;-0.10545521;-0.09019709;0.30824786;0.0647964;-0.21229489;-0.13848409;-0.10189854;-0.1744226;-0.008911791;-0.13435295;0.060893524;-0.3429584;0.09711699;-0.018146394;0.01242367;-0.1442172;-0.11337909;0.06817955;0.08420489;-0.12395875;-0.019110631;-0.08700587;-0.13591368;-0.05415674;-0.11777186;0.020518467;-0.14482945;0.04792261;-0.16615653;0.11637557;0.0046824175;0.12605858;-0.008129785;-0.07456282;-0.09116749;-0.061365202;-0.16105148;-0.07459468;0.111903384;-0.05796703;-0.03994956;0.08222421;0.08284339;-0.15364277;-0.022622291;-0.24280575;0.12903449;-0.21788707;0.033411488;0.0025090384;0.124423474;0.080624506;0.051607963;-0.066156276;-0.30314645;-0.12243127;0.010737118;0.034281693;-0.23262069;0.15337709;-0.014196612;-0.10106888;-0.047582846;0.29943797;0.12153027;-0.4367278;0.042487863;-0.0007264729;-0.072175354;-0.0130296005;0.09376689;0.093786046;-0.119019374;-0.028888872;0.08612866;0.09553716;-0.0097757485;0.08053383;0.12332831;0.19362162;-0.12795329;-0.23818226;0.04224269;0.038001236;-0.11261119;-0.09837313;0.1662976;0.3182354;0.16236696;-0.1099256;0.1075775;0.11367987;0.017336518;-0.1319353;-0.010790981;0.12419077;0.18868345;-0.20372032;-0.11644272;-0.099909395;-0.12846175;-0.09393063;-0.19055232;8.0562044e-05;0.15109941;-0.17230271;-0.09322671;0.06731301;-0.06808676;-0.18565235;-0.10283664;0.15017068;0.1498496;-0.049875267;0.16025607;-0.13683449;0.10353857;0.11038811;-0.08364944;-0.13582014;0.08919786;-0.16713198;-0.0403982;-0.032657206;0.23451078;0.11543837;0.064195834;-0.050688304;-0.11781267;0.034936182;0.00971729;0.0350145;-0.001336061;-0.20060273;0.034537487;0.3464159;-0.05500452;0.37877664;0.042734046;-0.028533934;0.04455728;0.18123378;-0.065519966;-0.0067114206;-0.118174724;-0.05573762;-0.18016817;-0.06684172;-0.14295764;0.08324041;0.17184384;-0.108340144;0.120541655;0.16663127;-0.27029404;-0.03858166;-0.1592683;-0.17112991;-0.14387533;-0.0486077;-0.036642037;-0.22894514;-0.119728476;-0.2050653;0.19109885;-0.28918973;0.090869516;0.013294018;-0.052270893;0.017141348;0.07669003;-0.18413448;0.01161421;0.033013996;-0.050730877;-0.07467818;-0.14003514;0.016451703;-0.04395044;-0.07921501;0.13303545;0.15167513;-0.05764516;0.16125306;-0.2065361;0.021339813;0.32883936;-0.15436882;-0.03242016;0.11368007;0.1448944;0.18012746;0.25293696;-0.07711284;-0.08211561;0.024597302;0.005062423;-0.055445846;0.00922301;-0.13162006;0.00943289;-0.07698453;0.062534414;0.13022907;-0.022366937;0.04198051;-0.029062519;0.05686067;-0.024534786;-0.03691676;-0.14062648;-0.2110519;-0.075663336;0.029830689;0.18050626;-0.008184592;0.032718338;-0.11672903;-0.15129007;-0.063520834;0.059100665;-0.06456702;0.084488764;-0.07629838;0.25560156;0.01134405;-0.0703576;0.10791192;-0.01643425;0.258964;0.20103566;0.07570611;0.085831836;-0.06993922;-0.033029836;-0.036172435;-0.21332154;-0.07364908;0.061337795;-0.0237179;-0.10666097;-0.07031025;0.102528185;0.11035751;0.0005933455;0.14120373;-0.36097822;-0.08549191;0.05026112;0.07804168;-0.123472705;0.025561726;0.037153356;-0.018589593;-0.12392477;-0.14210445;-0.085263826;0.048520364;0.041683055;-0.013866851;0.043456115;0.08586823;-0.15202661;-0.042790018;0.07908215;-0.12719558;-0.33551222;-0.033538617;-0.3494473;0.14062521;0.06749799;-0.0037903406;0.013719168;0.006308624;0.060418256;-0.2943961;0.15385601;0.06345606;-0.0065541435;-0.091261044;-0.015274503;-0.21557555;0.0032523167;0.11728529;-0.004824057;0.21211515;-0.13008966;-0.11117704;0.15763435;0.19931059;-0.2177989;0.082083665;0.044763044;0.08009133;0.50381106;0.0039411625;-0.15806979;-0.10781433;0.13173258;0.078735076;0.11462024;-0.020480623;0.042751223;-0.09530309;-0.037539773;-0.22155641;-0.16802946;0.12037539;-0.4102608;-0.15485252;0.02763886;0.12727407;0.07554946;-0.14133847;-0.05939936;0.05362682;-0.13993643;-0.002383829;0.074470975;0.19222216;-0.15443544;0.08451085;0.16474925;-0.3105868;-0.06008036;0.014764168;0.031742413;-0.079133354;-0.17946634;0.06052267;0.1175878;0.23968714;0.012959296;0.05132255;0.006931374;0.094691195;-0.34098116;-0.022125456;-0.39603686;-0.2042941;-0.0591035;-0.032875467;0.06506794;0.08131808;-0.04999263;0.05942334;-0.11945848;-0.09479284;0.20834215;0.013466669;-0.082257845;0.23332196;0.0097957365;0.047376998;-0.12778406;0.2523365;0.03522034;0.16468784;0.021136563;-0.12348098;-0.16484445;0.04191503;-0.15730174;-0.23152599;-0.020270232;-0.014809966;0.019133298;0.012395302;-0.0030736534;-0.11101546;0.22565994;-0.14183673;0.0071773194;-0.11870713;-0.14773981;0.009312337;0.34175426;0.076714054;-0.10379674;0.071528755;-0.19509107;-0.07613568;0.015844826;0.117439836;-0.19533843;0.07109758;-0.1480366;0.07071417;-0.03329613;0.0870077;-0.15120372;0.011233665;0.047929723;0.32627243;-0.053402264;0.056341916;-0.08179786;0.08052657;0.0910707;0.049316086;-0.041160893;-0.016411368;-0.070789106;-0.13726509;0.10421084;-0.08807128;-0.023853472;-0.099303976;0.07768081;-0.057430394;0.17821592;0.097250365;-0.03833905;0.106226;0.048529297;0.06304612;-0.045774277;0.06439218;0.24501683;0.03493858;0.032963566;-0.11591151;-0.2775742;-0.10477403;0.265267;0.05214498;-0.17299184;-0.002428509;0.06022609;-0.01080466
-0.016455801;0.20083304;-0.13869588;0.10942092;0.021506673;0.032145217;-0.012658581;-0.10050853;-0.07446265;-0.1561988;0.050693296;-0.04075359;-0.11129843;-0.12513001;-0.15264563;0.011992162;-0.046842802;0.048209567;-0.28754085;-0.06954635;0.07660565;0.11093285;0.11056453;0.07780741;0.13101956;-0.057573736;-0.14304955;-0.059479143;-0.24491236;-0.05981401;0.28954345;-0.11230074;-0.015781196;-0.0200366;-0.22380945;0.14784066;-0.17088977;0.04086087;0.15593107;-0.20035416;-0.20845357;0.026042167;-0.07507924;0.07241244;0.030625258;-0.15778664;-0.046685956;-0.39713833;0.011177598;0.2557996;-0.31139088;0.06516821;-0.10404005;0.1829045;0.32002574;-0.2171165;0.32815105;-0.011580721;0.022284143;0.23613597;-0.01830273;-0.15516315;-0.014229213;0.0634628;-0.026196366;0.08527044;-0.042753026;0.018723652;-0.37384665;0.0724888;0.010357323;0.15078808;0.10605699;0.0634455;-0.13069147;-0.031601075;-0.024084192;-0.039357845;0.07632466;-0.14358945;-0.13815431;-0.1868522;0.20981492;0.2510992;-0.4409719;-0.28822792;0.30746934;0.07820029;-0.28301522;-0.10747598;0.06309522;0.19142197;-0.0063920165;0.101709284;-0.21803601;-0.07863407;-0.2738787;0.046074238;-0.08811661;-0.15732017;0.28553945;0.059438765;0.053902265;0.18485789;-0.071870394;0.32119858;0.055608686;-0.2829742;-0.061678093;0.30885655;-0.16044046;-0.1974588;-0.2243253;-0.1425354;-0.21936077;0.027444528;0.07376606;0.035446074;0.05043535;-0.10435528;0.035011258;-0.063850254;0.31498408;-0.010992967;0.021705106;0.076629415;0.06423687;-0.45961854;-0.06058866;0.13189834;0.16055179;-0.042367246;0.045311455;-0.03431087;0.17357118;0.02932073;-0.19132145;0.011350818;-0.04776874;-0.07364135;0.002739497;-0.07334068;-0.16197737;0.024596967;-0.04306246;0.17804797;-0.1491125;-0.12223909;0.4237205;-0.012545744;-0.18883811;-0.043511778;-0.12581986;-0.16414177;-0.07716736;-0.26884764;-0.06995151;-0.3923393;0.15330048;-0.13128026;-0.05645753;-0.15732406;-0.09698354;0.0996065;0.04456719;-0.12012669;0.02181806;-0.017804502;-0.09996357;0.02555702;-0.062015276;0.045576464;-0.14149554;0.04446899;-0.15300786;0.0070479284;0.005664396;0.2751607;0.08525145;-0.11165969;-0.12873797;-0.059602827;-0.14997973;-0.092772044;0.0824967;-0.036837436;-0.07462441;0.0334459;0.10890456;-0.04835757;-0.17897674;-0.27615342;-0.010208852;-0.25613794;0.047813423;0.0720758;0.08184429;0.045642566;-0.047617167;-0.107803;-0.14991418;-0.07984727;-0.04753385;-0.017606184;-0.16079155;0.0209209;-0.019045636;-0.0946109;-0.08327789;0.36806908;0.058766607;-0.41551012;0.030543448;0.063327245;-0.0009372306;-0.13198526;0.054225314;-0.03303102;-0.052122768;0.024645483;-0.08060215;0.20603384;-0.009066933;0.1439791;0.16374347;0.2663855;-0.017262816;-0.16585647;-0.040946767;0.1215712;-0.08694878;-0.032990474;0.13574839;0.23205552;0.10023258;-0.05610865;0.09851531;0.044683423;0.020958815;0.053295806;-0.044582717;0.014739734;0.15069157;-0.23323444;-0.012328089;-0.010666871;-0.10131879;-0.08138649;-0.20299512;-0.18185948;-0.012065091;-0.13487451;-0.10758352;0.016427409;-0.10865673;-0.22604652;-0.21324731;0.047446933;0.16208816;-0.024638038;-0.034637786;-0.17901738;0.064228974;0.048333082;-0.17396227;-0.17074332;-0.003840087;-0.22321187;0.03500087;-0.0451417;0.36690715;0.16586179;-0.03553736;-0.07288288;-0.033243056;0.116123274;0.060051378;-0.05975635;-0.015873501;-0.18695703;0.10109472;0.25494054;-0.000116521966;0.29170755;-0.03020174;-0.12443968;0.01023285;0.2691352;-0.058631312;-0.117054544;-0.21367812;-0.031504;-0.022692107;-0.056909565;-0.33011732;0.120838836;0.04914612;-0.035002805;0.071195066;0.13417538;-0.11017633;0.013249798;-0.108241126;-0.1250597;0.01590434;-0.1045335;-0.045329213;-0.2211046;-0.1132815;-0.22687584;0.18293098;-0.15353873;0.051901776;0.094702855;-0.0859827;0.05108188;0.026058352;-0.24426176;0.043512598;0.059013307;-0.059118718;-0.18740626;-0.038005132;-0.08900322;-0.20173801;-0.1308196;0.25842667;0.096280694;-0.06284069;0.18493116;-0.13985124;0.22106345;0.26056492;-0.1929176;-0.098727934;0.067443825;0.13245791;0.18507205;0.16606487;-0.13837315;-0.07260879;-0.042347103;0.05464286;-0.1337126;-0.059695438;-0.14513716;-0.21420169;-0.024504459;0.029805548;0.06347128;0.0024358754;-0.036399484;-0.052342955;0.07572669;0.004647086;-0.20556286;-0.21348456;-0.09578352;-0.08227488;-0.023434639;0.27438796;-0.01106992;0.10593493;-0.025405047;-0.1473366;-0.059279326;0.009190885;-0.23641032;0.067770235;-0.15058792;0.18636101;-0.0933491;-0.14539747;0.1958456;0.06621519;0.13452978;0.12591179;-0.0046339347;0.06898011;-0.05751241;-0.018947478;-0.03731792;-0.17577523;-0.03312965;0.07262264;0.01719089;-0.02411737;-0.11179578;0.09592755;0.069877535;-0.050495844;0.21099144;-0.48774984;-0.19092819;0.10341571;0.16685303;-0.041232865;0.15030724;-0.05384242;-0.11013913;-0.02682411;-0.21887666;-0.003450903;-0.049349513;-0.07052045;-0.06892436;0.0007697033;0.013298668;-0.100325875;-0.0646545;-0.07641993;-0.23301739;-0.24203973;0.031105446;-0.27750918;0.057811983;0.075056784;0.0147496555;0.062335912;-0.0823845;-0.04163622;-0.26619303;0.08911021;0.00036412218;0.018617634;0.0070370683;0.004960198;-0.18889475;-0.08739865;0.02825429;0.0035060812;0.23387292;-0.090335675;-0.0026615807;0.08150525;0.12193831;-0.19918686;0.08020295;-0.11427249;0.12407044;0.47347116;-0.16355279;-0.22343662;-0.07103478;0.07938866;0.07081426;0.2064712;0.12351149;0.0428056;-0.11809535;0.023707937;-0.21462674;-0.08765933;-0.0064729904;-0.40096772;-0.19554883;0.03140694;0.074723594;0.07979637;-0.09104169;0.050831508;0.025261745;-0.046239812;0.08787128;0.00024668677;0.041056648;-0.21364725;0.10796889;0.17621477;-0.2432162;-0.060879353;0.004591151;0.012449911;-0.13550052;-0.18537243;0.033090375;0.038625322;0.31756935;0.078221984;-0.009364362;-0.070174515;0.06382923;-0.27078378;-0.030648835;-0.45957765;-0.058092333;-0.07412239;-0.04014567;-0.033351645;0.08082288;-0.044435702;0.16208717;-0.028062379;-0.084801845;0.29365444;0.107255474;-0.1158111;0.20791745;0.0045640827;0.014135714;-0.06407791;0.3226236;0.15905693;0.10798018;0.1806483;-0.1339502;-0.20876528;0.02025841;-0.11538107;-0.19268467;-0.063484386;-0.040619895;0.20273435;0.046003856;0.06447997;-0.11462291;0.14320678;-0.15793148;-0.14614956;0.00071689504;-0.18163042;-0.0017907441;0.37499994;0.05050289;-0.15120773;0.022331653;-0.34708142;0.020199604;0.02731509;0.11552431;-0.3297233;-0.009842016;-0.16349208;-0.044235457;-0.051311538;-0.030224297;-0.1419525;-0.08993116;0.039162625;0.2662381;-0.016098743;0.085712954;-0.16351493;-0.013658309;0.026154488;0.11791104;0.018295359;-0.10225146;-0.030860523;-0.01703374;-0.14432484;-0.0275932;0.0071121207;-0.040159274;0.010622333;0.07382906;0.16427171;0.10117077;-0.030352466;0.10007552;0.19667388;-0.09856283;-0.087989874;0.03310918;0.27229738;-0.114928514;0.026577111;-0.02162576;-0.25300577;-0.066418804;0.31372207;-0.082045496;-0.2527977;-0.15608637;0.20490429;-0.006482877
-0.10567538;0.17286299;-0.0077949404;-0.0049461415;-0.03178469;0.027565427;0.014705824;0.022529269;-0.09552568;-0.17138709;0.0026196202;-0.11652657;-0.22988316;-0.12705661;-0.24821834;-0.15196984;-0.07937625;-0.07461717;-0.14666808;-0.011048663;0.031550325;0.12969348;0.23928483;0.0029400063;0.09050862;0.03808289;-0.1482625;-0.12872875;-0.29406422;-0.25059357;0.17801721;-0.0401126;-0.025044914;0.028605707;-0.074293345;0.065373726;-0.12755905;0.03892914;0.24391876;-0.14272232;-0.08552268;0.097237475;-0.028621845;0.13257632;0.06821672;-0.122410566;-0.016458103;-0.36532736;-0.018269286;0.2574816;-0.2729664;0.18124498;0.0052110883;0.04748721;0.26770735;-0.16084357;0.2585889;0.0060734157;0.08937414;0.20112182;-0.04291924;-0.21809074;0.019227995;0.06810741;0.031634584;0.031528935;0.011988282;-0.03620453;-0.36843178;0.1175793;0.07893131;0.14954278;0.10592025;0.013318132;-0.09037589;-0.060111642;-0.018415494;0.07751911;-0.052047435;-0.06800969;-0.09337271;-0.19412126;0.2646065;0.2205998;-0.5906534;-0.26593852;0.22234695;0.007873615;-0.3749356;0.017655328;0.08468345;0.33592695;-0.07249622;0.05608634;-0.2042967;-0.055711467;-0.32898745;0.13704799;-0.059286002;-0.16558264;0.46012074;0.1598409;0.04461911;0.12863238;-0.0004154325;0.21694955;0.17918433;-0.1956239;-0.091190875;0.28514042;-0.09920622;-0.36039314;-0.18143371;-0.08547443;-0.21588987;0.026831098;0.018820066;-0.040610865;0.091308706;-0.16761015;0.035146337;-0.1372525;0.21807444;-0.056329057;-0.054304563;0.0044699423;-0.10404423;-0.3617868;0.008174923;0.0666644;0.22051305;-0.086491086;0.14051661;0.021271514;0.2587307;0.0918469;-0.20097083;0.15728332;-0.13006927;0.07391275;0.019871848;-0.020262303;-0.06963023;-0.063112155;0.017739285;0.08049872;-0.051972292;-0.24796316;0.34900403;0.035431053;-0.132236;-0.13726099;-0.092008896;-0.21733688;0.040944766;-0.2394221;0.02681034;-0.50236803;0.12814787;-0.068034306;0.016213005;-0.1390127;-0.07727661;0.027006326;-0.015324918;-0.09545354;-0.059585027;-0.17231117;0.01656769;0.016630214;-0.10544636;0.050498188;-0.22038409;-0.012354639;-0.088537864;0.0020910793;0.059350368;0.22062643;-0.039027303;-0.024430983;-0.08411468;0.066529654;-0.101464055;-0.09237067;0.0823494;-0.1071775;-0.082403034;0.038608897;0.18231061;-0.060093813;-0.07686056;-0.26657027;0.100953735;-0.21909611;0.07984871;-0.0050526964;0.018823113;0.10996223;-0.059266496;-0.055142637;-0.30966634;-0.19008516;0.12186176;-0.064448826;-0.10811227;0.17006074;0.097739875;-0.1919032;-0.052666944;0.2609894;0.08130052;-0.44352546;-0.020010006;-0.00772178;0.00056481455;-0.17196186;0.12148259;-0.08928741;-0.09663727;-0.12417264;-0.027067624;0.27055866;0.106953084;0.06264294;0.10021202;0.21281701;-0.03923622;-0.1867565;0.01896692;0.07903895;0.0057773264;-0.11883758;0.15473434;0.20342575;0.15348698;-0.19884202;0.2608258;0.009227296;0.16799502;0.026344184;-0.13633141;0.028487915;0.12944818;-0.30683303;-0.2744778;0.008950505;-0.1751153;-0.07078807;-0.20596747;-0.13037637;0.010019056;-0.17895883;-0.10868244;0.07580642;-0.15544696;-0.34105662;-0.09897182;0.122595645;0.19834232;-0.12398615;-0.02896485;-0.028479248;0.07745771;0.03178873;-0.040239714;-0.118657835;-0.043121208;-0.14466503;-0.025255771;-0.11797006;0.3498402;0.14714862;0.0048551434;-0.18794324;-0.07143248;0.17789975;0.11121527;0.040604606;-0.027959786;-0.20105702;0.050838422;0.29797122;0.03287943;0.2986067;-0.08288745;-0.06420797;0.115057915;0.12002827;0.06538364;-0.09722365;-0.19541399;0.04414861;-0.112325825;-0.1038502;-0.30564564;0.022616139;0.15074193;-0.024448337;0.11123323;0.25121576;-0.1900647;-0.04725434;-0.102566876;-0.08621264;-0.14157596;-0.16511278;-0.03084012;-0.11427583;-0.0905227;-0.13821535;0.16314392;-0.276412;0.042900506;0.081722364;0.053155225;0.023242606;0.13618618;-0.32693294;-0.08624784;0.0011337351;0.03090214;-0.11105282;-0.024255535;-0.042486668;-0.15982562;-0.042970683;0.25766167;0.13625841;0.06084291;0.17029952;-0.27357513;0.16600244;0.15538317;-0.26625443;-0.08872483;0.062349834;0.25549752;0.09308244;0.1038219;-0.22716868;-0.107184;0.0065879948;-0.01911035;-0.09614425;-0.042162724;-0.11244107;-0.09334409;-0.06105247;-0.08195484;0.002762364;0.10838614;0.05630977;-0.0104078585;0.12648381;-0.12660266;-0.18971008;-0.18303888;-0.1329156;-0.14049692;0.07852711;0.16764967;-0.041260447;0.0828475;-0.10235748;-0.15830146;-0.04081127;0.09126942;-0.2775583;-0.007832087;0.014080105;0.34502676;-0.06508984;-0.2868389;0.21685961;0.016134836;0.1735165;0.2399653;0.07386326;-0.077238984;-0.013472432;-0.009642271;-0.023743447;-0.12981288;0.0706519;-0.051002476;-0.037266284;0.03077875;-0.11730075;0.073360525;0.011384989;-0.09507182;0.22293872;-0.3774367;-0.20117082;-0.009522046;0.1251715;-0.027946634;0.042177156;0.07354957;-0.091239534;-0.01589319;-0.1613043;0.033965148;-0.02780407;-0.009411632;-0.097586624;0.024374863;0.07721531;-0.1256369;-0.022529405;0.01563307;-0.23573391;-0.23379306;-0.09089811;-0.20146485;0.101454794;0.10980508;-0.03682611;0.174128;0.001832019;-0.024495995;-0.14248453;0.18070738;-0.114600584;-0.021760395;-0.014401101;-0.100181565;-0.14901662;0.018672332;0.07344626;0.092607215;0.0702855;-0.16855983;0.0051442627;0.10126861;0.16561791;-0.1505201;0.06352011;-0.039314155;0.18040924;0.5571697;-0.142056;-0.19163826;-0.14537334;0.1462349;0.11167484;0.26585212;0.10601189;0.08763864;-0.11704719;-0.070741646;-0.16178691;-0.09016959;0.07809329;-0.38650468;-0.27779052;-0.036912195;0.019270597;-0.0444798;-0.21712331;0.043001767;0.04610086;-0.16855079;0.10979454;0.10430528;0.052406654;-0.15553026;0.16171756;0.24844866;-0.2926629;-0.014061695;-0.08505474;-0.05246477;-0.19651999;-0.20611267;0.015071116;0.005806627;0.29421836;0.011272513;0.022059724;0.059985995;0.050220173;-0.4112399;0.11451467;-0.39956418;-0.20763089;0.04436952;-0.01994662;-0.08959056;0.010040827;-0.06909617;0.19483896;-0.06477993;0.008031634;0.2726007;0.117777474;-0.09953168;0.13722748;0.10241713;-0.010568152;-0.058459487;0.3510462;0.06694328;0.20049421;0.12572138;-0.074687675;-0.22934806;0.053184457;-0.017752914;-0.08305506;-0.11176591;0.051848345;0.15737955;0.026304882;0.056663264;-0.23969081;0.1724912;-0.10387478;-0.0216462;-0.060398456;0.00030537063;0.014617664;0.324817;0.054685652;-0.072149925;-0.0046702484;-0.30781916;-0.08366079;0.082688846;0.050755426;-0.40108794;0.005096717;-0.1576225;-0.122021236;-0.07851514;-0.17308767;-0.20975439;-0.14784296;-0.0980491;0.15449883;-0.08475169;0.03802258;-0.02447574;-0.050379664;0.025941126;0.0826851;-0.06066966;-0.09521352;-0.050197925;0.0060185585;-0.056135535;-0.1679409;0.053920843;0.016739829;0.09767577;0.0023314129;0.054022696;0.11570727;-0.12595578;-0.08265609;0.15736859;-0.0761348;-0.064283215;-0.031482294;0.2924842;-0.046655845;-0.009203717;-0.1272284;-0.37216848;-0.11702189;0.3077387;-0.04651231;-0.28115976;-0.071147926;0.14689343;-0.010940398
-0.10521875;0.2177468;-0.08556458;0.048586782;0.094231114;0.09759504;-0.0172796;-0.09192275;-0.0939299;-0.14199652;-0.030101435;0.030593777;-0.21192658;-0.0860606;-0.24961847;-0.08198419;-0.21433568;-0.002775021;-0.1559863;0.051490434;0.0031425909;0.16672975;0.17940323;0.058722626;0.17460106;0.13345611;-0.07390027;-0.122421;-0.20181514;-0.11868416;0.19800335;0.039553847;-0.016561791;0.09237421;-0.08433902;0.066823445;-0.122233346;0.048597127;0.20194055;-0.21960773;-0.084136814;0.054825723;-0.007244109;0.11803772;-0.0804297;-0.18217845;-0.09236545;-0.44822174;-0.020262139;0.1807141;-0.23165587;0.13373303;-0.075273775;-0.037042994;0.20699482;-0.2824359;0.32325348;-0.06448365;0.095462956;0.306323;-0.02438717;-0.16342816;0.09143457;-0.02443246;-0.0055934438;0.14273693;-0.11163714;-0.088828936;-0.32857874;-0.0062619788;0.093235314;0.035313126;0.11443407;0.016147744;-0.052939992;0.09282723;-0.08596104;0.093026705;-0.022895172;-0.16844857;-0.1060106;-0.2724461;0.26501188;0.18531084;-0.5315757;-0.27327314;0.28981042;0.030640345;-0.32233378;-0.1167747;0.055100277;0.27609724;0.013270102;0.08328284;-0.11455971;-0.038280398;-0.4125495;0.067474104;-0.059950467;-0.1094837;0.49044728;0.07909369;0.054886356;0.19098735;-0.025489472;0.25696424;0.022567771;-0.35619658;-0.1382406;0.34806406;0.035450537;-0.32457948;-0.1855106;-0.008745869;-0.27319825;0.06783924;0.04581159;-3.3757606e-05;0.12861767;-0.12128114;0.12318137;0.007352752;0.24817239;0.04126298;0.010844915;-0.09551559;0.033224843;-0.4298562;-0.057378177;0.13369751;0.23568822;-0.10897018;0.14284615;-0.0165997;0.37898347;0.23595229;-0.11940958;0.0074030925;-0.0960159;-0.008488506;0.13614033;0.09872958;-0.09958158;-0.054420646;-0.04918096;0.12154988;-0.09888061;-0.21286252;0.33605024;0.01635052;-0.25320166;-0.07663812;-0.07546653;-0.20982261;-0.04999;-0.1658596;0.09517473;-0.49063018;0.03184999;-0.123902984;-0.061558645;-0.1789502;-0.071889535;0.011809385;0.013897754;-0.063949965;-0.050371476;-0.113158755;-0.057524547;-0.039546035;-0.12020339;0.0141223;-0.081556216;0.10835265;-0.16064714;-0.044118077;-0.045899197;0.15310618;0.038028028;-0.16959494;-0.064813614;0.07675283;0.0055013527;-0.044352826;0.23510289;-0.08275122;-0.15281725;0.063326135;0.18091467;-0.014038007;-0.21713701;-0.22022025;0.06962839;-0.15112127;0.17436506;-0.037052464;0.14713846;0.076157905;-0.14245263;-0.027198337;-0.2759091;-0.09506175;-0.05568294;0.041730154;-0.20367666;0.14727332;0.18502069;-0.1536719;-0.067524895;0.34540835;-0.016937492;-0.51949936;-0.0017126913;0.095534585;0.07057142;-0.16085112;0.1366662;-0.026769103;-0.144286;-0.10637538;0.079112224;0.26962405;0.064329155;0.023822462;0.27391455;0.33046266;-0.11397288;-0.20956907;0.09127721;0.11897655;-0.17424588;-0.10950028;0.22761548;0.31784505;0.3166608;-0.0803099;0.083796114;0.08359474;0.08217354;-0.005216703;-0.12724346;0.1086253;0.21500371;-0.17421012;-0.1664749;0.033980273;0.003366563;-0.010935928;-0.21984339;-0.13782945;0.10845891;-0.13957684;-0.089349404;0.04696113;-0.025581358;-0.2420635;-0.0928225;0.13267967;0.14258836;0.003508775;-0.011759194;-0.10165811;0.026478356;0.11752292;-0.084799424;-0.18032402;-0.055338066;-0.22856714;-0.099707074;-0.0065990756;0.35144627;0.1417327;-0.04603734;-0.096988544;-0.009139131;0.20624897;0.16678107;-0.054639377;0.13377848;-0.20499517;0.059723053;0.32599238;0.039333165;0.31982854;-0.070945755;-0.08273277;-0.00886001;0.14877576;-0.00084932783;-0.19251053;-0.3012136;-0.01933309;-0.100499965;-0.15558076;-0.17326193;0.0036345434;0.10096231;-0.16075894;0.1894679;0.21156369;-0.14911981;-0.09371683;-0.13026442;-0.114659056;-0.11733041;-0.1490547;0.13059634;-0.15384921;-0.17178851;-0.16623856;0.29692534;-0.26628897;0.04835565;0.03621055;-0.08954739;0.07903661;0.15343022;-0.35433075;-0.05017751;0.0075103836;-0.022729434;-0.13888165;-0.16378304;-0.0034612326;-0.084555075;-0.12860584;0.25231963;0.106760405;-0.055681974;0.11550336;-0.22753553;0.08186952;0.24856858;-0.16139153;-0.20041974;0.13427329;0.18426749;0.035541166;0.27189687;-0.20525748;-0.030047568;-0.058178097;0.032645524;-0.058199175;0.03730948;-0.084148936;-0.1438744;0.027990589;-0.11601792;0.008904762;0.057408616;0.11805093;-0.04205057;0.08499084;-0.0881901;-0.17015137;-0.07947678;-0.14444983;-0.13921551;0.07055354;0.3250128;-0.024110278;0.034315508;-0.13386793;-0.13762401;0.08791847;0.040002476;-0.19205353;0.04542638;-0.06620334;0.2509235;0.05198837;-0.28797802;0.29405075;-0.025374215;0.2151048;0.13938726;0.07371861;-0.040957317;-0.08288897;-0.06454675;-0.17072512;-0.21745843;0.15037906;-0.016093815;0.024243785;0.0058027836;-0.14426067;0.18689167;0.17126241;-0.121945895;0.2865079;-0.42511833;-0.16875453;-0.0067790686;0.0037492123;-0.048284553;-0.029218296;0.052703213;-0.05317407;-0.18974385;-0.18973437;-0.05991725;0.017577041;0.0102119;0.056494936;-0.06055598;0.103962414;-0.11321608;-0.0044228756;0.018025484;-0.24008562;-0.37555605;-0.13624951;-0.23606773;0.16109295;0.0877313;0.07671822;0.08919246;0.13060564;-0.05789427;-0.16939811;0.11666605;0.05513357;0.09571355;0.08903845;-0.013195461;-0.1593436;0.13013317;-0.00648261;-0.0036898814;0.23257193;-0.080963455;-0.06531058;0.15169989;0.15861614;-0.14490826;0.16084674;-0.052191485;0.1816165;0.5889298;-0.15200572;-0.07240023;-0.07997543;0.20526923;0.17523102;0.26553318;0.07616668;0.121134445;-0.15095541;-0.012841234;-0.18583833;-0.20368555;-0.030555332;-0.35508943;-0.22510268;0.17638625;0.032389782;-0.006577524;-0.14691901;0.12510186;-0.0069699367;-0.22919732;0.04759227;-0.018675504;0.09479889;-0.10349963;-0.007368488;0.29882225;-0.32988617;-0.059817754;-0.08502966;-0.07187481;-0.18255796;-0.08845828;0.15623574;0.15221645;0.27547842;0.04747083;0.113235466;0.015171708;-0.0964396;-0.37394968;0.03675393;-0.43099672;-0.22758575;0.06901361;0.09170642;-0.06330442;0.006435899;-0.10471902;0.23767573;-0.16630755;-0.10078006;0.26990795;0.10445247;-0.06274831;0.16966265;0.19783309;0.0014745246;-0.062307682;0.3736004;0.08558617;0.11698164;-0.015063531;-0.071724154;-0.09382338;-0.04465692;-0.01905018;-0.1660501;-0.13498814;0.00873702;0.047559634;0.027066655;0.038680375;-0.14729384;0.20863739;-0.07762071;-0.11798023;-0.0009278883;-0.07479342;-0.039475385;0.30876535;0.08769167;-0.18478762;0.012120954;-0.2441014;0.06016561;-0.025093144;0.014123018;-0.29640704;0.0049860915;-0.19356361;-0.02422679;0.025846008;-0.17244828;-0.15665784;-0.11619727;-0.02448788;0.165244;-0.15907387;0.16260035;-0.0886189;-0.026589919;-0.011228207;-0.0568553;0.01352722;0.02260016;-0.06423218;-0.012526196;-0.009055802;-0.11670606;0.060173176;-0.12322754;0.09959378;0.00029911788;0.16840087;0.02918186;-0.10061169;-0.037641156;0.07749546;-0.059577044;-0.14622882;-0.07428217;0.25554964;0.025431763;0.013790349;-0.008381441;-0.23222834;-0.13379864;0.16529445;-0.07907525;-0.17800741;-0.16251433;0.17836007;-0.009812932
-0.12458754;0.18146268;-0.03154323;-0.20304894;-0.18757528;-0.13709514;0.061060973;-0.36376828;0.026941044;-0.049923386;-0.07602646;-0.37741855;0.152445;-0.11850721;0.17603707;-0.13343431;-0.01836752;0.18692333;-0.28971633;0.11284259;0.26601073;-0.10363362;-0.10595684;-0.06371481;-0.06501151;-0.12774739;-0.007010993;-0.021467103;-0.04088116;-0.24094567;0.15475474;0.15908691;-0.051394153;0.14530925;0.0360045;-0.22700289;-0.39348388;0.07278813;-0.023877649;0.224598;0.048814677;0.0070291855;0.018194634;0.019157486;0.1127488;-0.0077635613;0.014849718;0.08296184;0.19594157;0.15844882;0.08501296;0.06843415;0.097653255;0.125583;0.25683892;-0.34539232;0.10205231;-0.15483193;-0.19578159;-0.016810311;-0.054027896;-0.13366829;-0.0524171;0.23254432;-0.31146026;0.0026945279;-0.034640122;0.025934504;0.21120086;-0.025124596;0.21757823;-0.386364;0.05901459;-0.120806955;0.04643248;-0.051190097;0.06856421;-0.12861504;-0.0044628177;-0.053715684;0.16397719;0.0646023;-0.14314301;0.1631044;0.15778273;-0.07136677;0.041812122;-0.12052987;0.056855798;-0.20525287;-0.11282142;-0.25148082;0.07332251;-0.18792672;-0.24125022;0.1382772;-0.24270204;0.1122408;0.069333464;0.17351927;-0.19552448;-0.013671501;0.12735596;0.32759795;0.022490138;-0.0181778;-0.012624592;-0.0011998146;-0.26006475;-0.26874903;-0.09855721;0.2498687;0.06409377;-0.20074901;0.011435432;-0.13837013;0.097871855;-0.23199137;0.1611407;-0.07342466;0.052460913;0.052482776;-0.115887746;0.07438467;-0.1796399;0.02687079;0.10212676;-0.14360745;-0.017674614;-0.10362588;0.21474805;-0.27404457;0.004440438;-0.105510876;-0.07436469;0.071047805;0.4061673;0.08681935;0.1919106;0.009754369;-0.016228514;0.1534154;-0.39089262;0.10439806;-0.024999518;0.08225742;-0.2071227;0.21685788;-0.17625248;-0.0010574692;0.32852083;0.0089431675;0.15848185;0.25332993;0.059684668;-0.12869002;0.119622685;0.07943373;-0.3096428;-0.07766675;0.039196014;-0.12474344;-0.09882927;0.07153798;0.13500755;-0.06496044;-0.06660208;0.099103436;-0.09513439;-0.06715488;0.0935348;0.039886683;-0.047707006;-0.07502838;0.12509143;-0.03077961;0.19742455;-0.13696915;0.12115686;0.103990674;-0.11127564;-0.16951632;0.029206695;-0.029997665;-0.1954058;-0.040005572;0.13778533;-0.22689307;-0.045455452;-0.2584739;-0.16800933;-0.07193404;0.04317777;0.16824411;0.07239235;0.33935964;0.009720947;0.124037445;-0.22707485;0.08154874;0.018684618;0.08944571;0.318323;-0.007227208;0.07025506;0.2628312;-0.14493926;0.071919255;-0.065304846;0.006472102;-0.034044854;-0.30628937;0.10111257;-0.1497698;-0.13765432;0.10587794;-0.15502633;-0.14355531;0.19251528;-0.008341583;0.05056394;-0.25387767;0.14386168;-0.070912294;0.22781788;0.03679499;0.04333199;0.06411762;0.28590173;-0.1128586;-0.018431261;-0.10729012;-0.09315513;-0.058031764;-0.17416559;0.046758857;0.2381241;0.10850748;-0.1708491;0.16191296;-0.30347022;-0.12364036;-0.18388362;-0.010751742;-0.24391459;0.109723106;0.12231771;0.25156254;0.159383;0.02850751;0.116705;0.17897312;-0.20587851;0.07953617;-0.1385425;-0.26771492;-0.059315797;-0.18919288;-0.2466355;-0.2400957;0.11613527;-0.24938078;0.08578786;0.18044831;-0.16408435;-0.13390723;-0.15956642;-0.014048104;0.21170932;-0.026227051;0.14635034;0.028030863;0.025726847;-0.24384576;-0.14403486;0.038839664;-0.07197727;0.1084114;-0.14211054;-0.081117176;-0.028104937;0.1981233;-0.25528824;-0.1794192;0.0011767047;0.05283125;-0.20256661;-0.03193642;-0.054898407;-0.09277967;-0.064415514;-0.14577773;-0.12983459;-0.4565862;-0.19789594;-0.034140203;0.058060244;-0.10957914;-0.02737006;-0.11510423;0.11735028;-0.10418527;-0.114240594;0.02239835;0.029697169;-0.03944584;0.06316965;-0.026226386;0.109944075;-0.293841;0.2644096;-0.12398629;0.07012261;-0.32617104;-0.17457426;0.003565065;-0.20131716;0.11968603;-0.08850359;0.16991223;-0.04019777;-0.11286858;-0.04965365;0.03692705;-0.036848277;-0.010282531;-0.09697571;-0.04639253;-0.1408828;-0.17309819;-0.16823491;-0.14511286;-0.15375198;0.084057525;0.22532542;-0.19740315;0.16382876;0.22272922;-0.06665968;-0.02532735;-0.045535427;-0.020535598;0.12388966;-0.25420913;0.05070385;-0.0123896785;0.173126;0.11909324;-0.12152431;0.060088336;-0.3524395;-0.06858817;0.01990155;0.053748596;0.112516195;0.09588885;0.051139645;0.20535454;-0.16216233;-0.023096886;-0.24850102;0.01817861;-0.048745237;0.040248483;0.03837546;-0.060208708;0.37520456;-0.007565683;0.16823576;0.266835;-0.07282378;-0.0009777552;0.15341066;-0.12610972;-0.031504985;0.0030291302;-0.07400404;-0.057316955;-0.019804073;0.21563141;0.09478507;-0.10999879;-0.2521309;-0.2500534;0.29498264;-0.12744915;0.09548248;0.016310412;0.06371695;0.3313504;0.0117097795;-0.114512;0.09735074;0.10180099;-0.13881722;-0.25639412;0.03883898;0.12590955;0.11716119;0.19425565;-0.17729755;-0.08722801;-0.098068915;-0.033166073;0.17479119;-0.30408385;-0.11367314;-0.001599357;0.14895336;0.0914938;0.05475661;-0.09191791;-0.03397914;-0.26877493;-0.2200758;0.013821842;-0.04861433;0.053857736;-0.124580465;-0.15776287;0.1887985;-0.06745142;-0.13933815;0.08503026;-0.16720748;0.12017662;0.002779917;-0.07638893;-0.025780438;0.23908614;-0.067915834;0.11572133;0.13925429;-0.16725054;0.11665024;-0.06335182;0.08371547;-0.08213765;-0.2532668;0.04000266;0.11031281;-0.25330043;-0.40015456;-0.2106896;0.13032736;0.30951908;-0.2880343;0.083418414;0.053071864;-0.099291734;0.12774073;-0.1712791;-0.10403718;-0.09487359;-0.53461504;0.29380426;-0.02609872;0.088417396;0.14334609;0.09702624;-0.45830527;0.042974774;0.13291678;0.07267525;0.07866257;-0.19986227;0.15722038;-0.14992903;0.08629598;-0.039276972;0.22908126;-0.08607092;0.047650732;0.08573059;-0.10566633;0.030063376;-0.022882707;-0.11408746;-0.34775412;0.04719611;0.0046618613;0.01412463;-0.057586458;-0.18058011;0.072702974;-0.098146334;-0.19320457;0.008790063;0.13972637;-0.09057328;-0.10832924;-0.16013736;-0.21803556;-0.072051205;-0.22538355;-0.11247258;-0.0855174;-0.053924184;-0.0090664765;-0.06697733;0.005032589;0.16735366;0.15354128;-0.045705516;-0.15519963;0.16031066;-0.14608636;0.0023582408;-0.27247527;-0.16630548;0.090129904;0.051056907;-0.13670172;0.091753334;0.20976155;0.06149119;0.14784738;0.29957753;-0.17784683;-0.42715445;-0.23530518;0.2619646;-0.05911857;0.13584514;-0.35012284;-0.034113083;-0.21127558;0.16076232;0.14378363;0.0073956563;0.29935783;0.09476589;-0.16260986;0.019491399;0.03745147;-0.24863482;0.07538642;0.13301389;0.047845475;-0.14174531;0.18299387;-0.2213932;0.10386083;0.09019862;-0.008243992;0.048250277;0.15129375;0.0023759392;0.11160551;0.03863029;-0.4452474;0.10165295;0.070699915;-0.1044002;-0.15456961;0.14763561;0.09181697;0.04016834;0.015825856;0.2027853;-0.06402793;0.3342636;-0.03832341;-0.012907291;-0.3664721;-0.05738122;0.069416545;-0.07020031;0.015003007;-0.0032267359;0.32149616;0.03401577;0.2759453;0.011767236;0.20009021;-0.2333058
-0.08799412;0.06539423;-0.01094113;-0.22370905;-0.25357804;-0.21122289;-0.08351652;-0.21075563;0.041194037;-0.20260245;0.016468;-0.16718967;0.046487123;-0.04166041;-0.04427997;-0.050539058;0.15560347;0.070866786;-0.085702285;0.11154208;0.1408544;-0.16079943;0.0092494795;-0.09661267;-0.15188624;-0.12967199;-0.024418185;0.05762229;0.015573336;-0.40119562;0.07353847;0.20350277;-0.04918957;0.050271764;-0.1162621;-0.28278387;-0.26044735;0.055317245;-0.011388678;0.292038;-0.018857935;-0.15321845;0.011696017;0.098661914;0.039192647;0.14714253;0.08278046;-0.12303507;0.17459266;-0.057361208;-0.07723452;0.04932968;0.09499442;0.038637847;0.19274421;-0.059934624;0.032736428;-0.18433629;-0.092029996;0.012704866;-0.036263518;-0.07667443;0.0489125;0.28506;-0.14342082;0.023828343;0.014628165;-0.058446985;0.086872816;0.043799687;0.33418062;-0.16667348;-0.06509578;-0.21159956;-0.14588109;-0.100561015;0.037874036;-0.00046787056;0.019246787;0.0961891;0.25287938;-0.029789012;-0.04575498;0.075786285;0.15754655;-0.07211732;-0.04538965;-0.04803754;-0.035100546;-0.07672397;-0.04540687;-0.1287324;0.09058367;-0.0011298778;-0.12596291;0.07823349;-0.1504329;0.053551164;0.16283755;-0.050355732;-0.061986174;-0.26124197;0.35249594;0.1581588;0.20119888;-0.06831175;-0.046779115;-0.015125615;-0.12689373;-0.020934375;-0.10178539;0.09552441;0.11759332;-0.25827375;-0.17657505;-0.21742392;0.10008197;-0.22086827;0.10499534;-0.23439807;-0.07970958;-0.0030566612;-0.15506485;0.03714203;-0.01441336;-0.011646391;0.039552838;-0.105532825;-0.085576445;0.0074939188;0.0060111214;-0.15865456;0.019313073;-0.041147187;0.057819463;0.18382114;0.12309526;0.119694434;0.14238434;0.1546399;0.018729214;0.15764327;-0.42750096;0.024372736;-0.03901174;-0.040913768;-0.09142825;0.14777571;-0.13500603;0.04445536;0.25613242;0.100650355;0.17509046;0.042903364;0.06904552;0.09624645;0.07831678;-0.0059936605;-0.26503822;-0.03269131;-0.0033999253;-0.057543658;-0.010297122;0.049795125;-0.032287527;-0.05480039;-0.12819839;-0.09191413;-0.14398354;0.20070282;0.13557188;-0.12950757;0.10956822;-0.13144997;0.053742774;0.099903375;0.16079737;-0.019463582;0.1662578;0.06481933;-0.22351931;-0.15582803;-0.14959104;0.06409096;0.0009969741;-0.017947627;0.0062684487;-0.1581023;-0.09736054;0.027521739;-0.13564368;0.11155064;-0.09643936;-0.05326836;0.065299846;0.11311375;-0.13583328;-0.04869103;-0.12035429;0.2080956;0.013140769;0.14535648;0.273733;0.1455245;0.051522065;0.04033951;-0.020168835;0.13085978;-0.07336341;-0.18611585;-0.0966772;-0.32887018;-0.018263882;0.089736596;-0.08548472;0.008085748;-0.0027137855;-0.049053907;0.15598471;-0.060392138;0.1598462;-0.13267404;0.15167661;0.06336787;-0.087414674;0.057681214;-0.08795341;-0.0096576335;0.10556169;-0.10966091;-0.06730351;0.0690383;-0.19951883;-0.22796452;-0.16869631;-0.06675012;0.11294797;-0.013717169;0.080160625;0.15260415;-0.15966415;-0.07825747;-0.2564108;-0.023519097;-0.3092019;-0.092354044;-0.08207438;0.18705362;0.11607243;0.027140541;0.1550102;0.022250963;-0.1401177;0.09614917;-0.09893291;0.032867182;0.049377497;-0.21345755;-0.21309501;-0.08064643;-0.010628295;-0.09900527;0.03368946;0.01566717;-0.09833031;-0.06336735;-0.14793895;0.10675704;0.19271189;-0.09418579;0.2702004;-0.01642764;0.08617703;-0.36306927;-0.036470868;0.10833219;-0.06315423;0.109720886;0.071357585;-0.10183122;-0.14969459;0.1950404;-0.07416542;-0.23262689;-0.07771861;-0.12823257;-0.086938135;-0.1645614;0.06209895;-0.07058771;-0.07251224;-0.03937046;-0.058841538;-0.31144592;-0.044975773;-0.14935489;0.03101175;-0.121645264;-0.13545835;-0.13624549;0.053876072;-0.14372729;-0.25673756;0.117090024;0.007810215;0.13906363;0.08781117;0.108903676;-0.13191053;0.041137386;0.15571202;0.0294753;0.05382506;-0.124842025;0.010920053;-0.054221008;0.04961548;0.12515204;-0.13078208;0.02507745;0.06954029;0.034134723;-0.05006756;0.10859226;0.032058425;0.0622731;-0.0032786264;-0.090734825;-0.07089717;-0.32158884;-0.07229901;-0.15519644;-0.24957049;-0.017274678;0.16070765;-0.14663908;-0.12805954;0.14497423;0.16717897;-0.04580854;-0.12950677;0.045937512;0.09990584;-0.0026498889;-0.024484206;0.017351681;-0.006566264;0.012089183;-0.025340991;0.096913874;-0.24370909;-0.15003122;-0.026519759;-0.06874636;0.19656733;-0.091502376;0.051209904;0.07945934;-0.2697719;0.07564286;-0.24660222;0.14495257;-0.023475682;0.0881679;-0.02133433;-0.002274084;0.21712472;-0.045118295;0.052329574;0.4647006;-0.1430099;-0.10702603;0.127193;-0.22120747;0.019063817;0.08577829;-0.002419319;-0.057347625;-0.09327724;0.2799709;0.1162948;0.018897908;-0.11243941;0.05648523;0.12226362;-0.121764064;0.03104033;0.0113477;0.01609309;0.1303707;0.04902165;-0.07752162;0.023462282;0.04292947;0.054952916;-0.3789235;0.09171865;0.15349016;0.0070386506;0.007585268;-0.09679909;-0.08300568;-0.007592179;0.045468654;0.19200376;-0.14908092;-0.204194;0.039971925;0.079160996;-0.06474144;0.010618711;-0.022699054;0.0108024;-0.17193237;-0.122543775;-0.050145943;-0.15646683;0.02142483;-0.009326526;-0.029193966;-0.05068924;-0.038851794;0.0303762;-0.12610176;-0.114938535;0.19676134;0.09135515;0.19471183;0.17009526;0.091856144;0.07105836;-0.07584168;0.09614739;-0.16319634;-0.14642963;0.078329265;0.059871845;0.03283705;-0.16458288;-0.062079974;-0.144719;-0.16051108;-0.189097;-0.19945101;0.06995163;0.11633839;-0.15772974;0.02048016;0.027116895;0.12495864;0.035649665;-0.066797644;-0.114566416;-0.15431102;-0.34412438;0.13055107;0.06827595;0.026233168;-0.09577109;-0.20176727;-0.33117408;0.02825043;0.15540649;0.040116232;0.087040834;-0.36624584;0.007490294;0.035107106;0.31729686;0.087045856;0.089258984;-0.1136103;-0.06405182;-0.058464207;-0.13136902;0.12654178;-0.025804896;-0.21365777;-0.35921806;-0.02006019;0.10720042;0.02958989;-0.087935045;-0.10682992;0.07318921;-0.1308732;0.006101562;-0.10875778;0.13893515;-0.16389808;-0.013570148;-0.012515338;-0.1369092;0.009352131;-0.23809618;-0.012666631;-0.10877598;-0.09471933;-0.037072215;-0.09631254;-0.073382504;0.2277096;0.010679997;-0.06724144;-0.1709796;0.12950683;-0.27570173;-0.20162658;-0.004359346;0.04501778;0.07187242;0.0521898;-0.033874746;0.013360013;0.3588754;-0.08935283;-0.077214;0.2854908;-0.11886731;-0.6078477;-0.062698334;0.32575855;-0.23538561;0.036504302;-0.36671248;0.051806454;-0.23939803;-0.04389055;0.103986666;-0.10307785;0.047056187;0.11983823;0.017513731;0.011618216;0.010674437;-0.27741;0.07166016;-0.034291267;-0.086503915;0.04409855;0.2380684;-0.21320206;0.06231171;0.050372478;0.023277834;0.018297236;0.17372845;-0.06295862;0.0031397995;-0.06194842;-0.2782371;0.13277084;0.14318688;0.08083117;-0.134124;0.12044345;0.0464092;0.0297107;-0.077900566;-0.009373035;-0.07286102;0.014471504;0.11646711;0.08411398;-0.4190015;-0.07912341;0.010440975;0.0027695403;-0.03492386;0.0026200768;0.17340092;-0.18411279;0.1884976;0.023485096;-0.0015305225;-0.15735754
0.095758274;0.046253227;-0.023829093;0.099539;-0.17113966;-0.24784839;-0.018765563;-0.1389293;-0.035489745;-0.19262029;-0.13527802;-0.21141797;-0.019647447;0.047637258;0.0048236833;0.030805737;-0.07862965;-0.116761796;-0.09770665;0.14850643;0.12783436;-0.21015505;-0.19349846;-0.12741959;-0.16260122;-0.010684979;-0.10324413;0.10424498;-0.16644764;-0.33643705;0.08285065;0.08363003;-0.0032685853;0.07507746;-0.0639644;-0.1224961;-0.19031549;-0.0029052126;0.003009955;0.18016112;0.07563697;-0.10928073;0.050416693;0.08602477;0.08152395;0.10804743;0.13896209;-0.28598532;0.11986589;0.089803815;-0.08067763;0.07122477;0.1027927;-0.0624452;0.17953868;-0.07894241;0.07640969;-0.21562132;-0.17047627;-0.11957646;0.050684374;0.016784456;0.08146641;0.07680113;-0.05503015;-0.057538327;0.16188528;-0.072264455;0.031116156;-0.030699624;0.22231409;-0.1260024;-0.10094456;-0.034373123;-0.013239418;-0.1436487;0.13407493;0.14365709;-0.0039731083;-0.047109723;0.28171673;-0.05196051;-0.07431737;0.064365886;-0.003687947;0.11343254;-0.055438776;0.07634177;0.19726914;0.019398462;0.08607044;-0.20992883;0.022546193;-0.0131795565;-0.18003553;0.16701154;0.008982003;-0.04467661;0.023915375;-0.07762398;-0.25505382;-0.135705;0.064355634;0.024301767;0.05929045;-0.20414571;-0.11119608;-0.105365545;-0.13347076;-0.10667069;-0.17335278;0.1592041;0.003329569;-0.12803991;-0.04024497;-0.063161716;0.059137795;-0.17009377;0.16726777;0.046196554;0.008134862;0.0019893849;-0.1841467;-0.079752326;-0.03741318;-0.04551962;0.033830352;-0.16470885;0.07771332;0.094486326;-0.053649664;-0.074635394;0.030884707;-0.1777723;-0.07145733;0.051335283;0.21786858;-0.029603695;-0.08555045;0.12643886;-0.07237343;0.13866954;-0.3008208;0.033484004;-0.00020352086;-0.032912537;-0.109404646;0.19430344;0.051339287;0.07009342;0.21642785;-0.0800422;0.18783961;-0.050110195;0.17823711;0.24858753;-0.0822551;-0.031065801;-0.22215185;-0.039731897;0.012799107;0.04883365;0.037192438;0.005348379;0.03485467;-0.06802865;0.021866696;0.13345915;-0.12565687;0.05414223;-0.0028169304;-0.1247028;-0.08188476;-0.18750463;0.09581172;0.06578813;0.075533085;-0.09308139;0.034333393;0.048387233;-0.16472915;0.018794106;0.0939839;0.041746873;-0.029974785;-0.17145294;0.14773208;-0.02327092;-0.03516566;-0.12663043;-0.07672243;-0.032649692;-0.14514521;0.013344917;0.056270313;0.2666646;0.01589034;0.08623;-0.10371004;0.1397753;0.06025113;0.102901705;0.26730326;0.21447578;0.18148214;0.13942903;-0.004415835;-0.052771293;-0.16496122;-0.2063728;-0.11851799;-0.2511045;0.024374973;0.047713898;-0.010171095;0.030551357;-0.037674382;-0.058688022;0.17779991;0.1099568;0.11393483;-0.22959507;0.10461766;0.013192808;0.022885498;0.03341712;-0.17459781;0.056162417;0.019392753;-0.12632895;-0.014242704;0.052628633;0.06009443;-0.116429634;-0.11532853;-0.10770757;0.14824091;-0.049182132;0.012267759;0.108444236;-0.13316508;-0.097463794;-0.20507802;-0.1558065;-0.2906074;0.025694722;-0.015048499;0.16048583;0.141891;-0.09681444;0.051866382;-0.03770299;-0.08449722;-0.06824952;-0.19845916;0.11686795;0.022100061;-0.030693095;-0.18525009;-0.12801766;0.035199042;-0.14886259;0.026884643;-0.04649436;-0.13896212;0.06375729;-0.103132695;0.00940595;0.03829748;0.018276788;0.07833785;0.032553483;-0.15615971;-0.32430124;-0.074576;0.15447827;-0.016708523;0.15448697;0.018036246;-0.105907224;-0.1090699;0.2844573;-0.099726446;-0.06589835;-0.14635994;-0.041863155;0.013028719;-0.15101774;0.06662504;-0.23579781;-0.051929735;-0.082134515;-0.14032146;-0.29687327;-0.21760488;-0.11623849;-0.06947584;-0.11959092;-0.12499955;0.015645424;-0.055541556;-0.041011635;-0.08703344;0.010092344;0.022776298;0.08001811;0.23933683;-0.054190096;-0.12603362;-0.102845296;0.26844472;0.021858227;0.0289143;-0.08044079;0.0071225646;-0.009695489;0.030375576;-0.04991489;-0.11676554;0.11519713;0.102472715;0.10582315;-0.09480513;0.20399255;-0.060033925;-0.027420135;-0.03097823;-0.024479685;-0.034701664;-0.16221382;-0.04780589;-0.14108692;-0.13227741;0.052758563;0.057137452;-0.009205921;-0.04540005;0.10545999;0.08766565;0.09228542;-0.029461173;0.043121636;0.06430938;-0.053861007;-0.05627342;-0.12867436;0.017796108;-0.06915537;-0.031303212;0.018807802;-0.28495115;-0.13082887;0.18589269;0.059794452;0.10662081;-0.06357458;-0.014668899;0.10403707;-0.25015894;0.038647413;-0.07981154;0.066868745;-0.080709316;0.08053787;0.070212275;0.059680127;0.0616328;-0.0038954916;0.02686958;0.25984856;-0.1922567;-0.00031623236;0.045476876;-0.1498544;0.12757418;0.1470101;-0.1570168;-0.0032192254;0.011488853;0.1783587;0.17634672;0.011387856;-0.13797218;-0.02890937;0.20364815;-0.00070432125;-0.05591423;0.08665116;-0.01640497;0.022085942;-0.0073268022;-0.016626269;-0.053204596;0.03394061;-0.12074598;-0.62774885;-0.041745458;0.1125548;-0.052312925;0.09305026;-0.1560243;-0.026369795;-0.008272489;-0.044266053;-0.027412806;-0.086959474;-0.15557396;0.14972106;0.11664408;-0.06630485;0.11265649;-0.11812482;-0.07942393;-0.116930306;-0.098600715;-0.0462212;0.04469529;-0.13669434;-0.017482065;-0.089439645;-0.20000286;-0.12051809;-0.07928137;0.0027073082;-0.13647033;0.111905165;0.14053045;0.06595223;0.1274401;0.033942074;-0.022910548;-0.031692497;0.05525425;-0.22875343;-0.16495335;-0.07954887;0.120382674;-0.1209328;-0.09469513;-0.179805;0.007850497;-0.21353588;-0.08230402;-0.26393864;-0.02879527;0.14648977;-0.26101434;0.025482817;0.06492959;-0.011443694;-0.10296843;0.001955241;-0.028130094;-0.10505988;-0.37222633;0.07239275;0.0136079;0.09144772;-0.079969764;-0.06855934;-0.43584487;0.18856995;0.044427156;-0.016320692;0.0733109;-0.25649652;0.15382631;0.10669954;0.27552974;0.014986035;0.22244745;-0.10450894;-0.06768983;0.07485958;-0.1836448;-0.02645784;-0.12679334;-0.3614635;-0.29616237;0.020869343;-0.0042303014;-0.0265977;-0.11032437;-0.015769614;0.04097033;-0.25423664;0.03980771;0.022180066;0.18134709;-0.048442844;0.11478727;-0.026730824;-0.20994997;0.056688655;-0.12918612;0.12377289;0.10341247;-0.11196991;-0.14922898;0.046882037;-0.14782023;0.051576354;-0.012252118;-0.055439536;-0.17013775;0.1624348;-0.1413826;0.018966721;0.011269723;-0.021706717;0.04864029;0.02347023;-0.13609944;0.24021901;0.25332588;-0.058282066;-0.008285214;-0.022252701;-0.11431956;-0.49989423;-0.12702017;0.17336744;0.044554014;-0.09034564;-0.12053956;0.046325617;-0.15925483;0.118708216;-0.02589598;0.04599336;0.03344433;-0.007201185;-0.019103207;0.07127921;-0.041868836;-0.19406173;0.003084507;0.02824059;0.085213274;0.15813313;0.29712683;-0.2069516;0.11416275;0.0012714248;-0.14304191;0.067544654;0.18256745;-0.02122523;-0.0116588045;-0.04679776;-0.20868246;-0.022739178;0.022244303;0.18286271;-0.14361271;0.071451485;0.026907815;0.04954926;-0.20676154;0.07631975;-0.08715353;0.12161841;-0.049787503;0.09279991;-0.34172347;0.048121102;-0.055817295;-0.0479723;-0.015513195;-0.087499954;0.22266603;-0.23326808;0.24329035;0.03636014;0.025654178;-0.039675515
0.0976809;-0.0324936;-0.09360422;0.021493416;-0.1169946;-0.29747003;-0.14453527;-0.13882835;-0.03619497;-0.12223913;-0.0016983188;-0.15183678;-0.029105231;-0.16372173;-0.09818981;-0.009685224;0.018651161;-0.15786368;-0.07245501;0.23494023;0.21684955;-0.03237036;-0.07986808;-0.0014966495;-0.26280364;0.0735168;0.044457622;0.06578431;-0.03080102;-0.2883515;0.074103996;-0.035482407;0.025618365;0.17832097;-0.17422587;-0.058501102;-0.27437428;-0.015722249;-0.090885274;0.20677157;0.07008969;-0.22430882;0.04183621;0.029268928;0.033385098;0.050215133;0.01224441;-0.13244955;-0.04961002;-0.14082426;0.0621591;-0.014736344;0.14953946;-0.016502157;0.15275007;0.007686822;0.013457796;-0.23587002;-0.13892512;-0.22704498;-0.021901129;-0.02516137;0.16309115;0.019795537;-0.08888674;0.07758468;0.18483847;-0.08740212;0.019513713;0.104312666;0.14614297;-0.06329964;-0.14867812;0.03861355;0.042953655;-0.18328598;-0.12185785;-0.05638826;0.09187685;0.13473877;0.19456823;0.1297695;0.06323315;0.10927305;-0.14841074;0.10736516;-0.15307972;0.21846232;0.1319378;-0.047994804;0.14892267;-0.2753048;0.021717705;-0.097989194;-0.050802466;0.20536293;-0.11107604;0.030818831;0.15016425;-0.08528428;-0.2694088;-0.1364008;0.09435829;-0.0014301541;0.15322885;-0.022738952;-0.00044270625;-0.035128135;-0.09906032;-0.044082683;-0.35137993;0.22663125;0.25289387;-0.13339725;-0.07141474;-0.14573221;0.0407369;-0.24264964;0.057882708;-0.06352995;-0.06574929;0.15834677;-0.2278229;0.03315498;0.09547468;0.044219427;0.16641936;-0.18262503;-0.1378216;0.12544298;0.07161876;-0.27341726;0.28723824;-0.22379525;-0.07269086;0.054353703;0.06640789;0.08567182;-0.12436975;0.044543847;-0.0711025;0.011078856;-0.29176039;0.043754622;-0.13200898;-0.050544396;-0.04230733;0.19473399;0.030375585;0.014596913;0.26345533;-0.11913819;0.10857458;0.045680244;0.011074683;0.21923625;-0.16792949;-0.023816606;-0.030786613;0.09751824;-0.02108306;-0.068258636;0.14101267;0.078346714;-0.018575277;-0.09903402;0.08575641;0.0035748507;-0.14670724;0.092726946;0.005272076;-0.30704507;-0.12839659;-0.1876089;0.14387074;0.12982471;0.033838615;-0.15597911;-0.04364253;0.07170285;-0.2837147;-0.049110323;-0.008560694;-0.027945101;0.024377244;-0.26043972;0.008517575;0.040016156;-0.15613957;-0.055720467;0.092202134;0.0629235;0.011309451;0.12664597;-0.05092368;0.18272081;-0.045828674;0.25862297;-0.16713217;0.19341625;-0.09238214;0.074327335;0.26987243;0.0042582145;0.17295325;-0.044975046;0.08236771;0.054714955;0.012154478;-0.27735275;-0.13166393;-0.33818722;0.10069838;0.012990972;-0.07669347;-0.07052066;-0.05205779;0.061316013;0.23849976;0.21855974;-0.0027177692;-0.210163;0.009015375;0.23889884;-0.039019413;-0.017774532;-0.16642883;-0.14056377;0.037657026;-0.0817769;-0.00010957884;0.17323503;-0.03360736;-0.082178615;-0.17513049;0.03112176;0.05224327;-0.13812083;-0.061990835;0.029260373;-0.15533428;-0.2138404;-0.14217184;-0.11845356;-0.4465242;-0.19731133;-0.031415734;0.27602747;-0.041236084;-0.08995523;0.04815454;-0.0028493875;-0.013631408;-0.00662989;-0.19760337;0.117277056;-0.011523457;-0.08026863;-0.10880662;-0.09329261;0.04502266;-0.15879199;0.03225004;-0.08894137;-0.21426037;0.03447201;-0.13496712;0.044122197;-0.015561329;0.07182176;0.10395634;0.121995635;-0.101933435;-0.3588893;0.011980679;-0.045103114;0.035985775;0.14953038;-0.07611242;0.03013586;-0.09395311;0.21696305;-0.15482523;-0.03783267;-0.16949588;-0.11972711;-0.099742725;-0.018085705;0.022432873;-0.19863564;-0.18400688;-0.027899677;-0.09915661;-0.25061435;-0.22251333;-0.16545825;0.102890775;-0.10385786;-0.14764348;-0.03873487;0.008490681;-0.18878838;-0.027806746;-0.12693934;-0.057209946;0.0900979;0.11843237;-0.18744075;-0.07385899;-0.028803708;0.13004361;-0.018046252;-0.061126262;-0.16804934;0.108534604;-0.09174119;0.017257273;-0.09419441;-0.04739506;-0.06866062;0.021176545;0.057529166;-0.018592985;0.21077059;-0.05490434;0.19298054;-0.121231735;-0.022671115;-0.1279839;-0.13368367;-0.1356979;-0.19612217;-0.009753149;-0.17152587;0.114377975;-0.15313259;-0.14451219;0.053359415;-0.14446713;0.18312407;-0.11891428;-0.0140210735;0.026317015;-0.21380775;-0.12801242;-0.044647012;0.0006294999;-0.188961;0.08310775;0.062746726;-0.16886903;-0.03563111;-0.013609697;0.0066156285;-0.018249596;0.03833461;0.050494492;-0.025342382;-0.30515605;-0.038183197;-0.14520817;0.08015603;-0.13275476;0.15511832;0.12587509;0.017493298;0.076419905;-0.2385578;-0.0052420874;0.13655125;-0.28514102;-0.007680699;0.10804694;-0.14814435;-0.0046689464;-0.045206364;0.01181153;-0.10224982;-0.053655498;0.05014352;0.10160873;-0.031706642;-0.05790429;-0.10384743;0.10867908;-0.01540893;0.056378312;0.2398711;-0.00769902;0.03646168;-0.05384174;-0.03094004;-0.021989573;-0.068290606;-0.13379069;-0.56381303;-0.061253373;-0.007549522;-0.22547953;0.07160351;-0.15159576;0.017183164;0.1085622;0.05598689;0.028451571;-0.18271427;-0.117320895;-0.029065026;0.13710074;0.026945954;0.1364266;0.055826217;-0.04061926;-0.13072298;-0.1384586;-0.07987193;0.13449007;-0.047383178;0.05064382;-0.11039744;-0.018185701;0.03288875;-0.16936171;-0.015231351;0.014517992;0.03816147;0.18005134;-0.08023302;0.08046903;-0.00096126867;-0.11779266;-0.046318956;0.25179332;-0.04757196;-0.10461097;-0.12165038;-0.0464669;-0.021550035;-0.08004833;-0.27861208;0.0028904907;-0.037955828;-0.20405254;-0.34456778;-0.052437063;0.0053453343;-0.10557992;0.022524795;0.06114621;-0.058253698;0.03416185;0.043856073;-0.09706277;-0.16341111;-0.3359812;0.1180832;0.06660448;0.08463296;0.02187725;-0.09514788;-0.37515646;0.24389797;0.009620571;0.12982789;0.1189973;-0.21435606;0.01195205;0.045830574;0.16633743;-0.085653685;0.23009475;-0.11558418;-0.13048099;0.036159977;-0.15057223;-0.04417393;-0.16085184;-0.21669987;-0.25880748;0.03990786;-0.08603979;0.123221785;-0.15402234;-0.05990004;0.01416278;-0.3219921;-0.06346886;0.030861987;0.33786798;0.02167257;0.24530755;-0.18754359;-0.25043976;-0.069866434;0.0030223625;0.044204894;0.08036689;0.017123647;-0.095333934;-0.056098297;-0.09595596;0.07135973;-0.046989113;-0.25071916;-0.154684;0.10180633;-0.12297523;-0.14770982;-0.09923028;0.0030419668;0.07115723;0.06253421;-0.20237595;0.20805867;0.077096745;-0.114282385;0.011459827;-0.1193606;-0.13110298;-0.5475073;-0.29874122;0.20464844;-0.04951579;-0.022538338;-0.081683464;0.063908294;-0.1993477;0.10033878;0.024670377;-0.021872126;0.20861305;-0.07363471;-0.005871142;0.10827839;0.017544206;-0.12378971;0.22490537;0.13974355;0.106188886;-0.0044385707;0.14564818;-0.25765264;0.013250404;0.037407774;-0.1059219;0.11755066;0.1495347;-0.14223862;0.03488132;0.07574519;-0.18744142;0.11780831;0.08408659;-0.017156508;-0.2737924;0.069225535;0.10615549;-0.06428419;-0.07645058;0.11745497;0.14819533;0.1456806;0.114370845;0.12804654;-0.3543384;-0.12092072;0.045903437;0.029542092;-0.005299976;-0.012761635;0.13261063;-0.067223385;0.15280141;-0.010684723;0.026177552;-0.12707101
0.23206024;-0.02203786;-0.01064455;0.09942907;-0.22015347;-0.31489176;0.047684286;-0.067075446;0.041864306;-0.12462311;-0.19504699;-0.13661964;-0.036820587;-0.07269503;-0.07063248;0.01464241;0.047437232;-0.05523832;-0.151905;0.14686523;0.25690582;-0.08070722;0.018033316;-0.10190967;-0.1696918;0.13677508;-0.0150449425;0.2074999;-0.10909587;-0.111120865;-0.057785414;0.015581323;0.07558353;0.07195872;-0.04061182;-0.15043181;-0.19370979;0.02989192;0.06559049;0.1863057;-0.06741728;-0.11553141;0.025230221;-0.019107625;-0.16962719;0.13545762;0.016462177;-0.15765296;-0.2136742;-0.05246226;0.03793981;0.05271696;0.0317615;-0.13430834;0.1359849;-0.019284224;-0.021703668;-0.04397478;-0.11338119;-0.117503315;0.06328811;-0.03482719;0.09240328;-0.0076636756;-0.048677277;0.12663403;0.07185125;-0.13284081;-0.08477582;-0.031244265;0.19987747;-0.11534926;0.014972405;-0.07941041;-0.0027845502;-0.102393225;-0.05321337;0.08890423;0.08242818;0.06803274;0.16868055;-0.002151825;0.15671091;0.17333099;-0.0697695;0.18024248;-0.011530191;0.43967572;0.2119409;-0.22882518;0.11259808;-0.21077311;0.020698441;-0.08051379;0.11777797;0.21941288;-0.20473202;-0.030650793;0.20129405;-0.055386174;-0.17079845;-0.1420814;0.06514502;-0.08278184;-0.033901844;-0.027240511;0.04056562;-0.09360626;-0.09284077;-0.18369327;-0.3237716;0.17625825;0.16810971;-0.24615599;-0.07252723;-0.19086075;0.06442245;-0.17451838;0.1097583;-0.018337645;-0.11684298;0.07383193;-0.2690711;-0.06364239;-0.060884062;-0.08395101;-0.0113960365;-0.111210875;0.17393667;0.026367454;-0.070174634;-0.2098383;0.11843957;-0.2031671;0.004278699;0.079283044;0.19942872;0.043841492;0.11311585;-0.08525727;-0.025551999;0.013196368;-0.24429035;0.09412727;-0.033965603;-0.12787914;-0.079226166;0.22739376;0.033162333;-0.057070054;0.19671834;-0.092349306;0.08323261;0.10369631;0.073321514;0.16285802;-0.092047915;-0.105920255;0.046310157;-0.13559599;-0.12274665;-0.04025678;-0.098976;0.003156973;-0.038658116;-0.0032792892;0.119801216;-0.09031766;0.0771567;-0.033035338;-0.044409778;-0.22581656;0.012246973;-0.245194;0.10526113;0.059700903;0.16319244;-0.12338972;-0.12504983;0.030108731;-0.179962;0.11981462;0.06991153;0.105980076;-0.07306411;0.008578634;0.1089291;-0.01345964;0.00024564966;-0.020023214;0.12683666;0.096301734;-0.048942838;-0.06874646;-0.09583322;0.13038073;-0.025289085;0.13141187;-0.24701431;0.07223402;-0.04589402;0.06353211;0.17007634;0.004250566;0.35625124;0.062034123;0.026119515;0.0146596255;-0.02080342;-0.21429254;-0.08445378;-0.34282938;-0.000103594124;-0.07054441;0.08910562;-0.07952296;-0.09056979;-0.03157446;0.12699024;0.19409782;-0.03905075;-0.13592993;0.19059184;0.19805285;0.00086308306;0.043262783;0.10243353;-0.036871057;-0.025577607;-0.051575452;0.18907836;0.13561186;0.042812645;-0.06114437;0.041998442;0.16745535;0.08475251;0.07340304;-0.061635677;0.052318595;-0.17257395;-0.2051647;-0.07138847;-0.12701537;-0.4950548;-0.003717494;-0.12577145;-0.046119444;0.011070259;-0.10615104;0.020798804;0.19645622;-0.13216327;0.019142017;-0.09556576;0.019542413;0.13009296;-0.111352384;-0.20326921;0.009453158;-0.019313488;-0.03437862;0.016497267;-0.047649637;-0.1614773;0.1863363;-0.12820317;0.1970318;-0.023946214;0.07331109;-0.075783886;0.018877415;-0.17435843;-0.11006801;-0.0049929703;0.16269463;0.036847178;0.17119403;0.07196658;-0.055449676;-0.08858788;0.21623725;-0.087087676;0.183004;-0.2101525;-0.061941758;-0.051560685;0.113315634;-0.12816833;-0.056491558;-0.23617993;0.057265673;-0.022769097;-0.29569978;-0.22788268;-0.22254519;0.0364222;-0.04927664;0.006100403;-0.03548857;-0.07391541;-0.24622062;0.001544677;0.010903454;-0.1480241;0.2519952;0.1936359;-0.0563607;-0.019280221;-0.0029156324;0.22361496;0.14728467;0.0957226;-0.037269358;0.048889548;-0.0054993033;0.065693766;-0.17127769;-0.06152785;-0.032570384;-0.009660956;0.10578902;-0.09017785;0.1967642;-0.0038202144;0.0059480313;0.010046188;0.069084726;0.07161819;-0.01721451;-0.108023204;-0.09770614;-0.102396384;-0.18141969;-0.19353713;-0.076032035;-0.002289394;0.08151498;-0.07580378;0.098551646;-0.12548275;-0.1494666;-0.12130323;-0.009385579;0.024278924;-0.026270136;-0.23074251;-0.03927429;-0.07864952;0.09898347;-0.2015913;0.0074069267;0.15123223;0.010713213;0.10661898;-0.19969705;0.012035445;0.12733413;-0.20759186;-0.02407566;-0.16586572;-0.11471553;-0.0970645;0.22174819;0.12216604;0.004564988;0.060407963;-0.24962369;-0.09952225;0.24211948;0.0010172136;0.110777095;0.050782118;-0.024777284;0.11676398;0.035867892;0.0010150418;-0.06590226;0.051341392;0.14065062;0.19109292;-0.25212586;-0.19805056;-0.102643676;-0.09354245;-0.120531835;-0.0154722715;0.13643494;-0.13002622;0.010324376;0.015547403;-0.11835573;-0.14660853;-0.053402167;-0.21711516;-0.57598984;-0.040849634;-0.08736613;-0.020749528;-0.05620553;-0.22270077;-0.11348543;-0.05071428;-0.08525499;-0.18358755;-0.04186974;-0.036695696;0.16782261;0.06605081;-0.18609543;0.20764194;0.070506886;0.10254926;-0.18346359;0.16716732;-0.06386069;0.12808494;-0.09709457;-0.044458147;-0.2022108;-0.09073251;0.032990493;-0.25508502;0.0010190686;0.0027548238;0.11031107;0.052984256;-0.092545964;0.0083151655;-0.03601797;-0.0042958288;-0.06789363;0.080225885;-0.008702571;-0.005354356;0.14639348;0.15402524;-0.037660263;-0.043497276;-0.26618338;0.22230989;-0.16445395;-0.15632609;-0.33420625;-0.018700495;0.23189497;-0.19950105;-0.057379242;0.07928057;0.024827128;-0.08368823;-0.112643644;-0.122368306;-0.19734436;-0.40483335;0.09845348;0.28041145;-0.03446556;0.06425075;-0.05421208;-0.34054187;0.08933673;0.22803473;0.077061504;-0.104479805;-0.23471089;-0.036685556;0.030489322;0.16858739;-0.061760034;0.29659444;-0.02841555;-0.17386073;0.014346463;-0.21509701;-0.091568775;-0.21762244;-0.33919874;-0.31250727;-0.038258687;-0.02914608;0.004915779;-0.20910789;-0.09514005;0.15119752;-0.23353255;-0.058762725;0.008719991;0.27290004;0.11638844;0.052514113;0.024590028;0.1762795;0.2909378;0.061027903;0.034953065;0.3145644;-0.049956106;-0.107231565;-0.08546451;-0.108764514;0.028980942;0.10983455;-0.13832906;-0.20146117;0.26995763;-0.15975463;-0.009867649;-0.11419583;0.05661443;-0.007608676;0.03623307;-0.101477526;0.30343217;0.08082077;0.032496314;0.069355;-0.15943345;-0.19582419;-0.47731695;-0.29403958;-0.065771066;0.03580197;0.029820729;-0.14555725;0.11232876;-0.31296018;0.005820216;0.22371176;-0.032014415;-0.08070292;-0.043999888;-0.09065347;-0.052757844;-0.17584199;-0.25176054;-0.026906738;-0.11587284;0.07665853;0.014790822;0.28492466;-0.20439534;0.0776333;-0.017081855;-0.272597;0.009162619;0.13002926;0.054396275;0.17762192;0.0169469;-0.24489436;0.021134928;-0.099004164;-0.03503577;-0.2819942;0.037720893;-0.16090365;0.121348724;-0.016480519;-0.21887644;0.11426615;0.019610794;0.032489415;-0.1536714;-0.26105124;-0.02907396;-0.0038715152;-0.0062581077;0.20119126;-0.036039717;0.11743241;-0.16994599;0.33285287;-0.037422977;0.0110652475;-0.15354323
-0.0034699945;-0.09620128;0.0032345003;-0.06276928;-0.18959595;-0.3249316;0.020048015;-0.015974535;-0.06761458;-0.0055021667;-0.0370858;-0.10261816;-0.0701606;-0.12291459;-0.0714784;-0.038224738;0.06943406;-0.053637348;0.010500436;-0.006997796;0.11581165;-0.058983337;0.062586345;-0.09556114;-0.20082015;0.14816281;-0.12275002;0.150735;-0.16894385;-0.17223416;-0.03993946;0.1360296;0.06979514;0.168496;-0.039335497;-0.074282676;-0.117761314;-0.00204733;-0.060526654;0.18394414;-0.11190951;-0.10444332;0.19191346;0.08976798;-0.007880819;0.13546719;0.17685007;0.038096488;-0.16694462;-0.20349388;0.14406176;0.08890941;-0.03736732;-0.06483345;0.098233834;-0.007065744;-0.072147064;-0.06911394;-0.03948993;0.0022932503;0.011077064;0.04348978;0.23415144;-0.14174236;-0.04638728;0.15466917;0.047399767;-0.07700239;0.06920284;-0.0066476334;0.07307533;-0.071731515;-0.11708087;-0.04776959;0.1520234;-0.19095786;-0.15733793;0.047315195;0.18336412;-0.09787234;0.24267612;-0.004485081;0.079108626;0.17144218;-0.17768657;0.06679338;0.056154165;0.27023706;0.10440173;-0.26160178;0.105902836;-0.067121215;0.1082126;-0.025866987;0.06387552;0.101320036;-0.13601527;-0.07387708;0.0028580357;-0.025743604;-0.05829184;-0.19330916;0.112071514;-0.26962617;-0.03434819;-0.07385987;0.021402802;-0.10757836;-0.14700277;-0.06538763;-0.301029;0.04559893;0.08450038;-0.09779488;-0.007407517;-0.029334439;-0.10492794;-0.2052441;0.09419682;-0.011614089;-0.051499218;0.14906429;-0.17451438;0.021469928;0.033134896;0.011892304;-0.016083993;0.06810154;0.22646604;-0.074545;0.058664266;-0.1524424;0.16310894;-0.10775209;-0.12915754;0.17195772;0.12198257;0.0763622;0.079658404;-0.08419904;0.14665979;-0.0053240117;-0.14177209;-0.13467337;0.06268586;-0.06730719;-0.013904747;0.07689997;-0.051139805;-0.015407751;0.079012096;-0.058631547;-0.007893219;-0.11503562;0.030451631;0.26335278;0.07992764;-0.28132105;-0.25826195;-0.007847274;-0.07633533;0.014626698;-0.031284623;0.05569874;0.019899886;0.08872136;-0.054308746;0.010979551;-0.14570674;-0.004440819;-0.10361735;-0.10427298;0.059640165;-0.1706576;0.06430922;0.17027512;0.059254892;-0.17934503;0.10026018;0.055457015;0.058223434;0.005670218;0.12539726;0.024562046;-0.1653652;-0.084397405;-0.17713006;-0.0010403509;-0.04302488;0.1377365;0.009247158;0.01211578;-0.009084946;0.09599858;-0.09410486;-0.037214953;-0.038749702;0.1432076;-0.37340802;0.11722412;-0.18237124;0.14071514;0.07473693;-0.061446294;0.15028068;0.05854334;0.052503623;-0.009686673;-0.1661254;-0.22315727;-0.17383091;-0.40711975;-0.032641754;-0.01563223;-0.10779793;-0.14138205;-0.06148677;0.11210068;-0.007627923;0.15699843;0.08591278;0.07941812;-0.028320774;0.18511128;-0.0715828;0.102749184;-0.11806063;-0.102535956;0.20462814;-0.045652345;0.049747605;0.16794644;-0.061168816;-0.13955864;0.052607134;0.20799677;0.0026414196;0.005019486;-0.004315007;0.028719582;-0.19370815;0.0025446424;-0.11412545;-0.005233657;-0.6016645;-0.0018986159;-0.016010746;0.012759932;-0.07745879;-0.064251214;-0.04456121;0.08799668;-0.0044876146;0.068653;-0.13951887;0.037294775;0.15375262;-0.11695962;-0.08360504;0.05938233;0.013248174;0.04579177;-0.030147871;-0.055163864;-0.29202262;0.13078311;-0.014956958;0.17574492;0.033532236;0.038486987;0.033434913;0.002796923;-0.20757906;-0.22637571;0.012540401;0.080862105;-0.09491311;0.15826984;0.14347112;-0.032565683;0.06298453;0.0579529;0.049478523;0.17338774;-0.16524425;-0.15104476;0.05116517;0.01173685;0.02962044;-0.06273753;-0.12212799;0.0127085205;-0.13288781;-0.28585374;-0.15439858;-0.13443416;0.03541621;-0.042411406;-0.014120257;-0.062480953;-0.051959828;-0.22250497;0.14131278;0.03145943;0.006578475;0.1397993;-0.02962916;0.027884295;0.10155506;0.12524985;0.09550399;0.010480934;0.014266316;-0.13700701;-0.0052344524;-0.074035786;-0.0133939525;-0.038425103;-0.12409918;0.021225827;0.094513275;0.1601934;-0.014135527;0.042840146;0.090949886;0.035730794;-0.10673311;0.15605022;0.048079256;-0.0956647;-0.15840188;-0.113982424;-0.011706962;-0.028085051;0.07527529;0.04723815;-0.10994606;0.1710913;-0.11742821;0.09351604;0.030509291;0.041406203;0.0628974;0.030573545;-0.04832223;0.12341083;-0.20099342;-0.1008519;-0.05885042;0.123190925;-0.24062367;0.1523422;0.05287924;-0.019240746;-0.022333529;-0.06375506;0.094938286;0.058455613;-0.24485302;-0.045650765;-0.09681455;-0.008651546;-0.27252176;0.0871636;0.1254947;0.0088182315;0.10163222;-0.13533841;-0.023842545;0.23055747;0.008997793;-0.06339574;0.0072483774;0.008047648;0.09864459;-0.07332515;-0.09744693;-0.03135825;-0.06250441;0.11568758;-0.0017315316;-0.14791906;0.072757185;-0.070880115;-0.121302634;0.009289731;0.09071465;0.008019648;-0.076684535;-0.004553585;-0.02758759;-0.17101465;0.0360273;0.07317731;-0.0965227;-0.6153385;-0.045436565;-0.11952674;-0.13367097;-0.09991933;-0.05412268;0.003782858;0.017512646;-0.027250407;0.12922792;-0.040753756;-0.155321;0.10801561;0.07765895;-0.17395584;0.098880716;0.07150084;-0.042679086;-0.12204635;-0.014257415;-0.07561553;0.111557096;-0.21574515;0.07558066;-0.2672737;-0.091507144;0.07536153;-0.1452972;-0.012172981;0.044857793;0.13996847;0.20917827;-0.04222883;0.0009493209;-0.11264942;-0.16676138;-0.2187544;0.13036919;-0.0016956114;0.15788935;0.18791305;0.11323244;0.0074261604;-0.00427287;-0.16231117;0.2521951;-0.14202781;-0.040061776;-0.16986527;-0.1303531;0.12414336;-0.13387834;-0.12893265;0.10447232;0.031352405;-0.024460923;0.06440607;0.06881155;-0.28728467;-0.4487907;0.025715489;0.14409433;-0.0882949;0.03473187;-0.070334814;-0.4324835;0.20198908;0.3124356;-0.15679795;-0.0779935;-0.16320398;0.031658087;0.15789361;0.2238675;0.1258839;0.07108149;-0.19870901;-0.07460867;-0.07773742;0.0128454985;-0.17465918;-0.11071954;-0.34341937;-0.1964819;0.09054295;-0.06385465;0.034818005;-0.3190786;-0.00017926857;0.061640207;-0.11387866;-0.046349853;0.035215516;0.24898985;-0.13424528;0.04846652;-0.04080964;-0.04369648;0.20539685;0.03998308;-0.10494891;0.22366436;0.17041704;-0.20147763;0.109069616;-0.08142854;0.09027792;0.082755476;-0.22958389;-0.17932963;0.0060307765;-0.13861337;-0.07520085;-0.009932304;0.1214883;0.056760795;-0.06590995;-0.20372196;0.22963832;-0.07439238;-0.060085822;-0.048321355;0.06645012;-0.07526893;-0.27786162;-0.23334368;0.13335225;0.04998011;0.0058272127;0.03757365;0.08881187;-0.08753673;-0.012575073;0.15838914;-0.19505379;0.040631883;-0.22590691;-0.023523662;-0.14954926;-0.107521474;-0.041558914;0.2122592;0.06288802;0.058520608;0.06497819;0.18430783;-0.17379922;-0.01669478;0.0889034;-0.06495888;-0.14222196;-0.008290925;-0.082858376;0.14183915;-0.08595269;-0.14031012;0.19873789;0.016017022;-0.13817981;-0.2339597;0.0794635;-0.022482486;-0.1519966;-0.05949731;0.015155444;0.027312854;-0.023748074;0.06898946;-0.0015753898;-0.23232575;-0.19346212;-0.06376601;0.025814297;0.20400779;0.010613635;-0.06262499;-0.099084534;0.23000963;-0.06260176;0.09344369;-0.16337138
-0.026488205;-0.19734348;-0.1565789;0.05516756;-0.15675059;-0.30902848;-0.05984658;0.0056678224;0.009158141;0.0016996418;-0.18328147;-0.18531702;-0.011918574;-0.010381392;-0.037761535;0.11405074;0.15283032;-0.13450846;0.11467833;-0.19186884;0.11296145;-0.16038974;-0.044975232;-0.109405555;-0.17058524;0.2051686;-0.12064468;0.2674924;-0.22042252;0.056131206;-0.026995262;0.08494397;0.017529259;0.1913438;-0.059559286;-0.11208065;-0.20270707;0.012494678;0.049841836;0.06851539;-0.09935917;-0.14668022;0.25428534;0.034398552;0.036804136;0.06456815;0.13831796;0.0144289;-0.022899691;-0.15179315;0.15733635;-0.029450338;-0.1869707;0.08714544;-0.047192626;-0.1277042;-0.0636314;-0.15651052;-0.030699916;-0.13638185;-0.010481592;0.020367071;0.21855839;0.008458009;-0.091373965;0.12142014;0.17581907;-0.03970508;0.02798392;0.07200312;0.11818679;-0.119512334;-0.010661036;0.046602383;0.08203284;-0.11773627;-0.16126254;0.17035224;0.17870821;0.05822676;0.17223297;0.18506393;0.16758431;0.21620286;-0.2577885;-0.013965323;0.070024766;0.05918482;0.20291081;-0.25425437;0.07458473;-0.2722632;0.023126587;0.010758894;0.1880439;0.087126285;-0.09497274;-0.027358439;0.07276722;0.0679961;-0.14717951;-0.111657284;0.020693827;-0.22199948;0.071545064;0.04201951;-0.04117326;0.008238492;-0.10062865;-0.066627875;-0.36305526;0.044662904;0.02167299;-0.23748143;-0.18313105;0.012652814;0.0009661115;-0.14846237;-0.024157556;0.1159529;-0.04419024;0.2557267;-0.29076484;0.0098825395;0.18329695;0.11371086;0.118868396;-0.06218441;0.15156129;0.07576723;0.042169973;-0.1144441;-0.026212104;-0.11228681;-0.084006734;0.1533423;0.057114974;0.103059635;-0.070980534;-0.050801113;0.27378887;0.057175264;-0.20750013;-0.13259134;0.085601434;-0.06613293;0.013260992;-0.006336488;-0.072851956;-0.1425065;-0.009909143;0.004474424;-0.04601322;-0.042908177;-0.047286335;0.17479435;-0.05060143;-0.30083907;-0.20721723;0.11653494;-0.11806698;0.11504417;0.06492254;0.14380072;-0.057844013;-0.16645402;-0.01920901;-0.12374332;-0.016647283;-0.1898033;-0.3601779;0.0048724446;0.16410497;-0.05573432;0.04841313;-0.02850938;-0.03166676;-0.21624643;0.15343396;0.027003873;0.13547632;0.149146;-0.008260852;0.13005911;0.06126772;-0.16347939;0.02244169;0.04930306;-0.021303156;0.06924677;0.028949428;-0.04914081;-0.09257637;0.18685372;-0.015501864;0.10012103;-0.054367743;0.08732822;-0.3397597;-0.07088673;-0.067562625;0.17296004;0.07644212;0.1051115;0.11355968;0.08040609;0.18727951;0.051574957;-0.21507032;-0.15849708;-0.20996757;-0.517051;-0.04475483;-0.14260092;-0.14458498;-0.100705765;-0.049041353;0.13037463;-0.21113053;0.064243525;0.23728727;0.068668745;-0.11549704;0.12530729;-0.03270754;0.040168665;0.11691794;-0.12136636;0.102806084;-0.015248465;0.18081339;-0.0076566585;0.14952223;-0.02148314;0.01890586;0.16866086;0.01572106;-0.11522914;-0.15522218;0.047835607;-0.2815304;0.05882898;-0.1861734;-0.049869522;-0.510143;-0.09095227;0.105183996;0.12914053;-0.10913088;-0.07854983;-0.011004547;0.07111218;-0.045787238;-0.11005553;-0.07201808;-0.013736212;0.1692215;-0.07235205;-0.0957655;0.030343195;0.040515374;0.033067893;0.1609772;0.035636846;-0.27106467;0.12731369;-0.16505148;0.050574925;-0.012841491;-0.09432899;0.14695595;-0.015007972;-0.21661963;-0.04413708;0.16191138;0.10664087;-0.11880858;0.1497955;0.16174592;-0.02409408;0.0652192;0.056066696;0.06357854;0.094892815;-0.10725754;-0.1786784;0.075691745;0.00058467925;0.06262466;0.09906384;-0.20288362;0.076283194;-0.093337886;-0.19665985;-0.08645401;-0.21741045;-0.14270194;-0.08519234;-0.08042241;0.07329228;-0.12258082;-0.054493736;0.14464939;0.010170799;0.04892326;0.112301365;0.022406943;0.038931344;0.034256037;-0.07556992;-0.1505272;0.15147965;-0.073167704;-0.11365117;-0.027264751;0.0689141;0.15407747;-0.06470643;-0.093627766;-0.042478025;0.008735832;-0.05039298;-0.10857821;0.07478225;0.09886993;-0.017640729;0.09870389;0.15350726;0.04302986;-0.083133824;-0.16726959;-0.17945187;-0.0838046;0.15042067;0.07093593;0.13639615;-0.07345596;0.08242384;-0.01643977;0.177681;-0.0634192;-0.11846424;-0.10972425;0.041997448;0.02788485;0.16993058;-0.19388722;-0.157568;-0.031911526;0.15583947;-0.25768134;0.071064785;-0.08233623;0.050396502;-0.13233012;0.0008641933;-0.03194996;-0.014214905;-0.2026821;-0.034461062;-0.0460973;0.0023370623;-0.24749547;0.17414992;0.051872376;-0.049919393;-0.013160396;-0.16153117;-0.16008043;0.14350465;0.045118984;0.12512606;0.21588033;0.0073069623;-0.08710557;-0.04977818;-0.14327395;0.04245178;-0.08273374;0.023098828;0.14854145;0.1082632;-0.03577985;-0.031190243;-0.03374261;-0.0013764082;0.022964071;0.0032772003;-0.13883683;-0.044614803;-0.01963821;-0.17314817;-0.0029674624;0.032366484;-0.10565468;-0.5097683;-0.2061726;-0.10417711;0.0750311;0.029256135;-0.15454069;-0.08989064;0.04298661;-0.0150205325;0.08926771;-0.079650015;-0.06661703;-0.0025147705;0.102668636;-0.03192643;-0.094817765;-0.07383108;-0.1126543;-0.07833939;-0.09929641;-0.25652567;0.2812786;-0.12212273;0.0032462224;-0.37197834;0.05396872;-0.058859073;-0.15269078;-0.05884774;0.006974095;0.09556883;0.10831861;0.09146549;-0.10774341;-0.040405065;-0.03562116;-0.14792022;0.2500141;0.02068013;0.1265025;0.12681925;0.14954062;-0.122367494;0.0019800137;-0.12211983;0.22776477;-0.045341004;-0.11174284;-0.07635646;-0.08750881;0.047917437;-0.10633828;-0.13722196;0.04531834;0.037240166;-0.02304607;0.020666476;0.05908374;-0.119976096;-0.45584282;0.08954301;-0.015808566;0.07265016;0.14485934;-0.042041164;-0.432294;0.2000647;0.22278336;-0.09617433;-0.2809233;-0.09760637;0.0011632157;0.035736706;0.11108483;-0.013729701;0.06522557;-0.15720472;0.078768246;0.012031964;-0.13345766;-0.115318045;-0.21651351;-0.36164394;-0.22792745;-0.015711416;0.028453622;0.09988591;-0.49341738;0.095418155;-0.0037341514;-0.18537821;6.327527e-05;-0.14504689;0.17061566;-0.026530452;0.10422134;-0.14105585;-0.018708127;0.057037618;-0.01642756;-0.090864636;0.119643845;0.0687408;-0.2232022;0.116188;-0.15325142;0.13061397;0.10501705;-0.21649349;-0.25480157;-0.077129036;-0.08035216;-0.011446281;-0.07744014;0.14992163;0.04943978;0.07106507;-0.14318858;0.08521768;-0.09381806;0.0984492;-0.123816095;-0.05666784;-0.0882962;-0.11303431;-0.2610974;0.14095795;0.00045676445;-0.0072765662;0.16009921;0.09233833;-0.0920998;0.14145866;0.098151274;-0.111401446;0.055765916;-0.20093103;-0.15647495;-0.0577895;-0.025461162;-0.025238598;0.14985946;0.019916695;0.19361396;0.11168977;0.1782894;-0.2276576;0.17598969;-0.04427345;-0.14955546;-0.019152269;0.015284077;0.030372616;0.08090672;-0.14940406;-0.17329155;0.027109822;0.036473796;-0.11396714;-0.078965865;-0.051480405;-0.0070574717;-0.11137677;-0.1502981;-0.08732187;0.00061576226;-0.017320292;-0.07126881;-0.009767017;-0.07496094;-0.38243112;0.13770615;0.10492909;0.19359821;-0.07641007;0.092433855;0.046804465;0.2148401;-0.02269661;-0.103216715;-0.097621895
0.053735588;-0.049988367;-0.047079824;-0.13717067;-0.2792429;-0.14070371;-0.057441548;-0.03346017;-0.016150974;-0.0012084097;-0.17211948;-0.11571147;-0.017624572;-0.012303813;0.036237508;0.08674159;0.112008475;0.057719834;0.043413397;-0.23191708;0.05460493;-0.09301441;0.04001136;-0.06427335;-0.07381272;0.255225;0.11028012;0.32867154;-0.20405883;0.09631349;-0.15516198;-0.09228918;-0.02714752;0.25504646;0.083039716;-0.13452025;-0.31190446;-0.06618338;0.09692751;-0.08277952;0.048583295;0.046521466;0.26709503;0.032304786;-0.22446896;0.15819776;0.16963619;-0.21385081;-0.12654708;-0.15269749;0.07066409;-0.026420202;-0.08035464;0.0138359675;0.106612585;0.05110493;-0.017559053;-0.121067196;-0.006493852;-0.056527887;0.10283489;-0.110588826;-0.11554936;0.14866605;-0.028834395;0.03706735;0.114677735;-0.13660085;0.05685846;0.025182744;0.017454742;-0.18818682;-0.02142223;-0.18344712;0.10127018;-0.01743157;-0.060585555;0.14889656;0.25530162;-0.07431072;0.16831352;0.06590761;0.18935257;0.15688106;-0.18730137;0.031132894;0.25813147;0.07004026;0.09722524;-0.1692089;-0.011063905;-0.31285924;0.08435661;-0.045001224;0.040609792;0.118011326;-0.17566095;0.07646604;0.02395569;0.006176261;-0.081489965;-0.17137778;0.1733831;-0.04429932;-2.854693e-05;-0.06148283;0.01870055;-0.05692679;-0.103047565;-0.05801856;-0.2529748;-0.120584756;0.10057277;-0.16367191;-0.053902835;0.033909827;-0.06853858;-0.12252229;-0.19892041;-0.088083126;-0.012765343;0.025523834;-0.19322014;0.025256641;0.21061048;0.0024851577;-0.13051249;-0.07952398;0.12107871;0.076183625;-0.23418926;-0.116721615;0.022058861;0.021078203;-0.10114659;0.20912683;0.15146294;0.1665639;0.08208605;-0.07418017;0.13948198;-0.022244353;-0.35788158;-0.10461442;0.030259872;-0.057718243;0.05681106;0.1600585;-0.08071239;-0.09724656;0.3240552;-0.103397146;-0.017200598;-0.109194614;0.0004921358;0.14912954;-0.0154439965;-0.29361817;-0.17599773;-0.005328375;0.12753227;0.055012956;0.11285932;0.10379598;-0.011940075;-0.18095113;0.098982446;-0.27818605;0.010915262;-0.10403474;-0.08812841;0.05508867;-0.023961456;0.082611024;0.14445311;-0.03453674;0.012920241;-0.20432651;0.057823975;0.04236193;0.121767156;0.13797303;0.022092842;-0.045655634;0.054524925;0.09497239;-0.07337011;-0.17006063;0.19259644;0.1367798;0.08011942;-0.12808417;-0.14101723;-0.078901514;-0.22081998;0.03953237;-0.077468395;-0.10640401;-0.14147568;0.03009818;-0.08540687;0.013144599;0.18145984;0.12347262;0.07058042;-0.083136775;0.20764767;0.062602155;-0.26093858;-0.20529976;-0.2341239;-0.4808373;0.008232874;-0.044937078;-0.09318853;-0.034870956;-0.16845495;0.016797524;0.083462104;-0.030169707;0.007980007;-0.1141545;0.01165314;0.08193832;0.088203646;0.028957846;0.17171107;-0.1520808;0.1339414;-0.014072339;0.25731182;0.103295624;0.212173;0.07387326;0.026079223;0.14717062;0.023364298;-0.04381586;-0.012821617;0.04059376;-0.10658327;0.03587273;-0.0805021;-0.01299779;-0.44854188;-0.052537553;0.018496826;-0.10569285;-0.13063763;-0.2621022;-0.14845578;0.15154862;-0.24976046;0.0029487598;0.032407388;-0.12760241;-0.06266606;-0.028197093;-0.12465895;-0.18348487;-0.008785507;-0.06609751;-0.036634404;0.01881189;-0.07631818;0.080456965;-0.12589566;0.13917911;0.0010583588;-0.040516842;0.08014628;-0.13849974;-0.09956246;0.028004969;0.114746444;0.15020807;-0.13584854;0.0768451;0.095490664;0.0040193265;-0.07989103;0.14409102;-0.084889606;0.14338313;-0.034656394;-0.16252889;0.055699404;-0.033941034;-0.055268995;0.13153887;-0.23104455;0.08766767;-0.17177401;-0.22126418;-0.1566567;-0.09085353;-0.23361824;0.0572682;-0.034564618;-0.020525457;0.11125638;-0.23859309;0.040049624;0.11511375;-0.0067108097;0.26362982;-0.07402728;0.20560662;0.07240371;-0.079118565;-0.09276732;0.18520388;0.16399716;-0.09730613;-0.19346382;0.021420233;0.07545185;-0.1126488;-0.20003541;-0.09879881;0.024146717;-0.04658609;-0.03672186;0.08161546;-0.010816036;-0.336274;-0.09122915;0.06418911;-0.00015523398;-0.15282437;-0.11446761;-0.18720174;-0.14352134;0.017565515;0.10234572;0.11276499;-0.07376621;0.0118029965;-0.059597537;0.10610516;-0.043363966;-0.106472366;-0.11931011;-0.021300657;0.012064157;-0.015315346;-0.21180937;-0.0052042017;-0.13415433;0.091123946;-0.32675496;0.24611185;0.08182563;-0.025846688;0.043989435;-0.008123453;0.15647115;0.07249356;-0.16344015;0.1473794;-0.19219224;-0.030474858;-0.2703372;0.16811697;0.12358087;-0.009408122;0.03147467;-0.1232602;-0.17932218;0.05439181;0.13414852;-0.045486983;0.053422064;0.079738416;0.04937408;-0.00059057015;-0.25853953;0.019224355;0.00044994868;0.10813973;0.23445877;0.13353723;0.028957495;-0.17054167;-0.04703441;-0.06917132;0.09247239;0.023459133;-0.037750367;0.20685254;0.113571346;-0.17967544;0.15180112;0.10311749;-0.07227141;-0.3092098;-0.046319995;0.04397032;0.028770082;0.026385667;-0.00995249;-0.045472562;-0.007973451;-0.022744501;0.0486789;-0.1934779;-0.07657785;-0.08705918;0.18895636;-0.031854983;-0.059248194;-0.02733301;0.006328293;-0.18035276;-0.009004481;-0.16133879;0.13905188;-0.08563524;0.041051853;-0.22183388;-0.04944803;0.09807297;-0.14787978;0.014043985;-0.109507516;0.07138598;0.118762895;0.023619438;-0.19422416;-0.061893087;0.04833192;-0.14991479;0.24328402;-0.00065448607;0.16068318;0.16812049;0.179583;-0.044674616;-0.19190575;0.017214948;0.049461138;-0.09478255;-0.038779944;-0.21992216;-0.1295204;0.095860176;-0.08281008;-0.056216076;-0.0050371606;-0.011525089;-0.019398967;0.12724523;-0.0032997793;-0.12411838;-0.33421046;-0.07874567;0.04972016;-0.0044655576;0.035925977;-0.12141587;-0.36904332;-0.08875961;0.26290622;-0.026847688;-0.19771098;-0.14557326;0.12771228;0.06382462;0.04610218;0.09378569;0.15816571;0.06788773;-0.11255837;-0.13890684;-0.02399694;-0.08973634;-0.21945646;-0.2105872;-0.25739986;0.06791102;0.049107093;0.07503188;-0.4998451;0.014980956;0.14569207;-0.17982319;0.04944123;0.12407157;0.20715827;-0.06203219;0.19395344;-0.16088954;0.1141775;0.08520699;0.050665334;-0.01934892;0.23284435;0.1350183;0.022449346;-0.08243716;-0.12401476;0.1322052;0.03625554;-0.122028425;-0.22045372;0.061555564;-0.021538692;-0.04442873;0.05863118;0.17243779;-0.0069164596;0.07883851;-0.12940812;0.10519194;-0.08718209;-0.06042428;-0.00967385;-0.04695152;-0.047556885;-0.118838415;-0.27384493;-0.084416285;0.0796518;-0.10235688;0.006618165;-0.106251165;-0.24231571;0.2213656;0.033381786;-0.16435353;-0.034586117;-0.16815606;-0.073074386;-0.024735276;-0.16214757;0.006509319;0.040594675;0.04267243;0.024933478;0.07827154;0.094125755;-0.30503654;0.04106044;-0.13511923;-0.12080942;0.1795515;0.14213578;-0.19525824;-0.016735198;0.11386152;-0.21275474;0.091591164;0.010518768;-0.080032356;-0.2609042;0.114818595;0.03185844;-0.06787729;0.06066623;-0.09945826;-0.032115772;0.12180214;0.109664105;-0.075718656;-0.06389355;-0.23825668;-0.0105294585;-0.0018108955;0.20087229;-0.109116085;0.011892154;0.038163487;0.17554635;-0.13321996;0.010024072;-0.1719126
-0.120635904;-0.00994682;-0.061155688;0.0020765536;-0.1310626;-0.2668309;-0.14082004;0.072338685;-0.005876934;-0.054709855;-0.22741929;-0.08609486;0.0015151113;-0.18153223;0.070852585;0.13354656;-0.12272847;-0.048180446;-0.039827477;2.5203395e-05;-0.055941544;-0.19091563;-0.05847852;0.03278597;0.01571345;0.0501868;-0.022966035;0.20021598;0.033733893;0.049890816;-0.19096327;-0.14175555;-0.016976625;0.27052447;0.037651602;-0.24069545;-0.33507502;0.031732954;0.11816475;-0.015185831;-0.10648515;-0.037045557;0.14536592;0.19021218;-0.17924698;0.15934879;0.23517428;-0.018634532;-0.08516183;-0.17781843;0.11541224;-0.17490599;0.040443618;0.13047427;-0.032975454;0.00086833606;-0.13302334;-0.19144765;0.16249497;-0.010875941;-0.027062938;-0.0017822523;-0.16273761;0.16343898;-0.028249938;0.14147751;-0.06847208;-0.10801757;-0.08695702;-0.07276052;0.19283763;-0.2865055;-0.15710196;-0.057663318;0.118226685;-0.10225375;0.03240562;0.14391772;0.055071484;0.016142098;0.15756007;0.060571123;0.006685122;0.088200614;-0.17401718;-0.088216186;0.08968423;-0.13053983;0.26492321;0.08229183;0.045638468;-0.2277754;0.004650066;0.0844174;0.22689325;-0.07751882;-0.17407669;0.14911321;0.19575565;0.088455595;0.013723381;-0.10553931;0.150253;0.10899823;0.024579942;-0.06368344;0.08078782;0.009028205;-0.14889842;-0.11652408;-0.26276538;-0.057816517;-0.058316562;0.021860603;-0.20656525;-0.0015112441;-0.06566046;0.0024176536;0.034777492;0.10891342;0.054629803;0.07094202;-0.22886802;0.05463515;-0.009281333;-0.052369896;-0.02999573;-0.11619249;0.016723422;-0.064681366;-0.18998194;-0.17739984;0.03288356;-0.106535114;0.082742706;0.033067647;-0.08105483;0.117603734;0.06951966;-0.0322367;0.06524245;0.12122955;-0.37869233;-0.13593473;0.056142457;-0.07240023;-0.09253472;0.15217727;0.01769443;-0.085720204;0.23774038;-0.088757224;0.11409848;-0.10900886;0.10429212;0.121894434;-0.08444292;-0.26195562;-0.13302685;-0.00048508658;0.11930153;0.0424739;0.17356676;0.062412884;-0.035530657;-0.22425821;0.04653505;-0.2466927;0.046475317;-0.065682925;-0.047612194;0.08570225;0.056475203;0.0019869034;-0.06513899;-0.10452987;0.011049093;-0.1340845;0.09434152;0.28138104;-0.061593764;0.024864163;-0.0029615483;-0.07350523;0.14400305;0.008233783;-0.21329479;0.11787479;0.12339133;0.06616971;-0.015250224;-0.1389901;-0.061318982;-0.09356356;-0.29766572;0.13179143;-0.13502419;-0.27497056;-0.11516252;-0.002194491;-0.08940892;0.112480074;0.12247394;0.03081354;0.03387719;-0.05903645;0.06951886;0.08998839;-0.20160969;-0.18882982;-0.3982702;-0.47188398;-0.13227122;-0.077320434;0.09810142;-0.2201148;-0.13765408;-0.04744625;0.042280965;0.012539692;0.013960632;-0.02910937;-0.019750575;0.15194209;-0.14581615;0.13944428;0.1539514;-0.05856427;-0.02222417;-0.02316913;0.2803203;0.08489104;0.023677165;0.0024984092;0.039450098;0.12746835;0.019150974;0.007530587;-0.15776023;0.08489961;-0.24887659;0.05155479;-0.27513942;0.08230094;-0.32599062;-0.23482692;0.12744136;0.09803243;-0.053010777;-0.12809414;-0.06722307;-0.018581605;-0.09320071;0.09006899;-0.109726965;-0.16939941;-0.06732082;-0.2546592;-0.11517669;-0.042700008;0.12610921;0.13398784;0.09967733;0.06620397;-0.08908482;0.021498768;-0.14446701;0.036303815;0.09193836;-0.14102304;0.08114787;-0.23489024;-0.09010889;0.027992414;0.17301798;0.1391608;-0.059514746;0.04487486;0.039217126;-0.040797614;0.08367388;0.110670425;0.23525366;0.08232538;-0.058634628;-0.18381193;0.12784061;0.040753882;-0.03585654;0.12531815;-0.14418542;0.06576363;-0.10658383;-0.06903201;-0.18435256;-0.13590552;-0.3625785;0.0005595226;-0.07589618;-0.014586614;0.06256255;-0.14284761;0.020992342;0.055846777;-0.11175411;0.15395394;-0.119351484;0.030573143;0.20155527;-0.080091126;-0.0030892019;0.047242355;0.14930256;-0.030779943;-0.26635602;0.13048276;0.055022042;-0.0042466945;0.0017456794;-0.11861385;-0.091539845;-0.09417789;0.057923287;0.16172169;0.10669985;-0.33086264;0.031134387;0.10536664;-0.1947081;-0.011254525;0.025373364;-0.08826154;-0.13755314;-0.031519186;0.17372952;0.016870903;-0.14990632;0.007818161;-0.062548004;0.123706326;0.019868484;-0.01119031;-0.06044612;0.053697012;-0.033873983;0.033960197;-0.23369691;-0.046036437;-0.15910833;-0.030201076;-0.2208852;0.14640099;0.14495541;-0.066396624;0.042824995;-0.065008126;0.024366485;0.09236776;-0.19701312;0.027196305;-0.2547953;0.093441635;-0.0971402;0.021925744;0.1746946;-0.015857462;-0.16684906;-0.060447898;-0.06001303;0.11930394;0.060096677;-0.04547025;0.039716255;0.085977875;-0.120101534;0.123082645;-0.084802285;0.12023427;0.016067412;0.15805173;0.046497148;0.2977907;0.14237277;-0.035257705;-0.1629017;0.06547295;0.120788574;0.010494753;0.012464091;0.07396292;-0.11902004;-0.0938154;-0.02961854;0.15330794;0.09684175;-0.2428814;-0.080118336;-0.11228823;-0.020592066;0.01523941;0.06245044;-0.034962438;-0.05373418;-0.0023693626;0.08169536;-0.051920537;-0.17388424;0.034765802;0.05007995;0.01774176;-0.14670123;0.014322167;-0.18005612;0.10659066;-0.07539915;-0.13328154;0.03796043;-0.050278515;0.0809243;-0.2893345;0.01808785;0.2704327;-0.2161469;-0.05332117;-0.078899;0.19273369;0.13381733;-0.020140607;-0.14335969;0.02517091;-0.09189217;-0.21433832;0.20877226;-0.02546959;0.08058553;0.09789448;0.06877821;-0.064947315;-0.054279637;-0.007920714;0.030341724;-0.32844853;-0.102862924;-0.09199442;-0.011909996;0.097605824;0.048591115;-0.0912844;-0.046500303;-0.068774596;0.0037465736;0.11637937;-0.03087585;-0.20598125;-0.110168144;-0.044832785;0.017134778;0.16649564;0.16126971;-0.036059894;-0.2470362;-0.14501604;0.12297854;-0.083224736;-0.21175013;-0.1270976;0.043714173;0.053724833;0.05148269;0.12535955;0.065284505;-0.2240555;0.025850141;-0.32506725;-0.06302699;0.06876289;-0.41584608;-0.16054453;-0.3445375;-0.050621882;0.094794996;-0.03780904;-0.46627668;-0.054297104;0.033520684;-0.15594155;-0.009950297;-0.012078412;0.21697752;-0.02923147;0.07698687;-0.12284169;0.084841415;-0.055998467;0.08385459;-0.056197107;0.080885276;0.12648842;-0.12220126;-0.11442403;-0.07277179;0.08281335;-0.060708486;-0.16074875;-0.11552151;-0.09311248;-0.1509448;-0.102036424;0.005454321;0.22797447;0.064018145;0.07006675;0.0114444485;0.018142588;-0.14699692;0.015377851;-0.13023442;0.11309443;-0.06902618;-0.1576043;-0.1745236;-0.10330787;0.08943738;-0.07641742;0.14523365;-0.1250992;-0.23350164;0.115129344;0.15504245;-0.1888376;0.12682733;-0.08277568;0.028494861;0.029162446;-0.098182924;0.08103052;0.102616936;0.068396844;0.06563127;-0.021560414;0.08354765;-0.26856935;0.16861545;-0.07001422;-0.102590755;0.064117365;0.14959644;-0.0635963;0.09422965;-0.013414376;-0.2368144;0.044023924;0.10020349;-0.11277276;-0.15391833;0.093807474;0.1461269;-0.2590421;-0.091739476;0.029089633;0.15270144;0.016262911;-0.028053686;-0.011800894;-0.06042942;-0.24226968;0.055550035;0.048240293;0.12849604;-0.056759275;-0.08419325;-0.10853119;-0.01564285;-0.11247794;0.030904347;-0.015007792
0.036192697;-0.08079948;-0.036136616;-0.110402636;-0.059897587;-0.42846534;0.09101081;0.10674375;0.12928104;-0.00525663;-0.1110957;-0.19010894;0.03302109;-0.12096776;-0.15745065;0.03553323;-0.011006234;-0.08209245;0.007173646;-0.068647675;-0.06961397;0.05910665;0.035858847;0.05190767;0.047491975;0.24989425;0.006230593;0.24832374;0.048363864;0.014901378;-0.09677376;-0.14427117;0.022073647;0.15408818;0.13351804;-0.21731798;-0.25108755;-0.0707978;0.083721735;0.095056154;0.057397753;0.02861883;0.16395523;0.11962472;-0.24780741;0.0630602;0.11830339;-0.18843341;-0.12978996;0.022849536;-0.10021718;-0.13656937;0.024707766;-0.158089;-0.09754535;-0.11995611;0.020377629;-0.05353142;-0.0103540495;-0.12953854;0.123883;0.09494724;0.014364128;0.039290883;0.17796935;0.008838773;-0.1638797;-0.029290646;-0.07660897;-0.11222531;0.0730758;-0.21186894;-0.17108601;-0.14957397;0.13124532;-0.12119975;0.022494223;0.21291137;0.10986613;-0.24004413;0.11536648;0.021654492;0.022756191;0.20315804;-0.024465056;-0.12858836;0.16678172;-0.046607308;0.23135196;0.068985045;-0.07628175;-0.18061033;0.098834895;-0.06492227;0.09339554;0.103431344;-0.06791778;0.1772751;0.17807007;0.16917469;0.033631004;-0.21266569;0.09189199;0.13272296;-0.10924489;0.067402735;-0.02020591;-0.08519596;-0.19933991;-0.13002594;-0.3793406;0.023376085;0.15730809;0.042624462;-0.19235411;-0.03513527;-0.08340846;-0.122210465;0.06583263;0.09170165;0.14285345;-0.08114594;-0.24393716;-0.080062516;0.12032806;-0.09706747;-0.07950317;-0.07882461;0.18157074;-0.039745152;-0.22895375;-0.24579775;0.11095454;-0.06216289;0.1813119;0.20563214;0.10648281;0.10351416;0.11662724;-0.18104614;0.007892397;0.006866205;-0.3141047;-0.14192276;0.00054023066;-0.06061412;-0.060162693;0.14619823;0.021174412;-0.06143502;0.28733477;-0.18370844;0.05272178;-0.13689303;0.11879197;0.214663;0.08403214;-0.11982367;-0.038781885;-0.027224338;0.06436227;0.07861904;0.008908381;0.15462641;0.017285127;-0.27445525;-0.17627817;-0.14007841;0.0448937;-0.016119173;-0.003821181;0.06726571;0.17133336;-0.032457124;-0.039528396;0.016464297;0.016569616;-0.26305762;0.032774605;0.2723099;0.0031503628;0.026830448;0.1789537;-0.0532369;-0.04389391;0.047684718;-0.28533643;0.057683736;0.16376649;0.08567684;-0.08101892;0.0063098143;-0.12779309;-0.13527851;-0.28351706;0.10547715;-0.053262644;-0.17195544;-0.030466255;-0.0063096625;0.012204118;-0.07398134;0.09977327;0.09930868;-0.1277567;0.10659485;0.18532184;-0.026220642;-0.14293692;0.042156335;-0.19547723;-0.45465872;-0.015932148;-0.04253371;-0.1134546;-0.07294953;0.016213033;0.06466261;0.17148261;-0.101826094;0.04895736;0.03458558;0.06078589;-0.077548526;-0.05033536;0.021879612;0.1423788;-0.036121074;-0.01944138;0.10070886;0.14869611;-0.03911427;0.19203657;0.044244822;0.10603909;0.19841984;-0.04167529;-0.19134802;-0.07921368;-0.023161132;-0.12867919;-0.02844821;-0.068739936;0.12028836;-0.22424133;-0.14541434;0.11326896;-0.019261131;0.10016246;-0.18493354;0.08216411;-0.12119436;-0.20597148;0.10601968;-0.09838944;-0.22448632;0.092545874;0.022296814;-0.10717879;-0.12230674;0.100045234;0.22510633;0.16990873;-0.03642622;-0.33286628;0.12634763;-0.15451437;0.06861748;-0.14430563;-0.17031553;0.041018948;-0.03980993;-0.16405824;0.014786733;0.0682969;0.096813045;-0.066922;0.0034901646;-0.016229233;0.04059698;0.07681125;0.04506052;0.18178943;0.2429976;-0.18934458;-0.15358329;0.026454713;0.0048847627;-0.1641033;0.042439666;-0.03021406;0.019486135;-0.26327577;-0.10940705;-0.22105642;-0.025352996;-0.3620429;-0.054365993;-0.057870597;-0.09901731;0.10593767;-0.2701418;0.1876239;0.046919264;-0.038178124;0.1117126;-0.13514517;0.1694812;0.16512126;-0.13905354;0.054289803;0.17445426;0.13673668;0.12076959;-0.2996335;0.045412816;-0.06043335;0.018894508;-0.1623521;0.088929616;0.07988784;-0.028545877;-0.12119089;0.05701196;0.029484052;-0.3525721;-0.06795818;0.09458253;-0.057911023;0.11429756;-0.05926762;0.06572365;0.040134165;0.022901358;0.100625165;0.055435423;0.06001237;0.14061092;0.18659824;0.07303177;-0.09992836;-0.10173228;-0.32327873;0.003573876;-0.09167055;0.08210992;-0.13778017;-0.04918277;-0.121883;0.0073220558;-0.36581397;0.06168408;0.15625042;0.08821525;0.09017903;-0.05289524;-0.05182051;0.18713845;-0.081105985;-0.042030767;0.024098173;-0.05006269;-0.20259307;-0.087261215;0.14328061;-0.15289138;0.07487216;-0.0393756;-0.13532898;0.2838963;0.013893899;-0.053743172;-0.13283712;0.031914823;-0.14960384;0.10292547;-0.10135491;0.012811907;-0.04861353;0.10458285;0.27239558;0.08764018;0.116984956;-0.14489754;-0.09901217;-0.06938623;0.031246532;-0.022108411;-0.027625263;0.12948987;0.05199755;-0.17090045;0.053955246;0.030648254;0.11160217;-0.15090434;-0.15484318;-0.04160468;0.21641715;-0.049867228;-0.09482693;-0.049158294;-0.07314865;-0.019170549;-0.046884272;-0.21869965;-0.22647591;-0.010500369;0.08112039;-0.13804021;0.07278387;0.053592693;-0.050067503;0.24217255;0.051091477;-0.11151497;-0.05680854;-0.0067264633;0.072579645;-0.23036431;-0.061597787;0.14039074;-0.103557155;0.014915296;0.031102628;0.07857012;-0.007998498;-0.002282912;-0.039229687;0.04830516;-0.016234748;-0.34244367;-0.06451825;0.0008718662;0.106921904;0.13245848;0.16138119;0.04783932;-0.1931863;-0.066334605;-0.030299708;-0.10619976;-0.14722218;-0.07290748;0.040915724;0.15066619;-0.2588346;-0.1308838;0.08507228;0.014012791;-0.04698337;0.033448655;0.08592901;-0.20407893;-0.019370966;-0.121851824;0.08843595;-0.035642177;-0.01597691;-0.063492544;-0.3664078;-0.29351163;0.18476288;0.051842365;-0.26302966;-0.12158726;0.042286947;0.01851485;0.06941042;0.17035897;-0.007968341;-0.12431424;-0.11927663;-0.33134976;-0.057063363;-0.07542488;-0.34917924;-0.20908347;-0.26358613;0.043135002;0.076772474;-0.062735625;-0.49939737;-0.05644888;0.09991891;-0.070395716;0.05656906;-0.018712921;0.10593255;-0.06642333;0.051973827;-0.21383902;-0.09742682;0.15444091;0.14867604;-0.026353661;-0.035145164;0.19414788;-0.13225165;-0.06456821;-0.12708093;0.14694262;0.030393373;-0.2238824;-0.2260734;0.046948314;0.0016504972;-0.029286284;0.13375658;0.20733228;0.024358803;0.10462842;-0.008354301;0.1622862;-0.20768672;0.01133981;-0.05467603;0.11357936;-0.24930938;-0.102751315;-0.17182179;-0.24108456;-0.024454318;-0.050452165;-0.01464729;-0.3525249;-0.35635662;0.08155265;0.029014397;-0.19212613;0.026417091;-0.034739923;-0.14143454;0.1150908;-0.003882645;0.081217386;0.03488268;-0.02743882;0.022636179;0.10444863;0.107196;-0.20141214;0.11270135;-0.026772866;-0.022409165;0.09385188;0.16169925;-0.14423779;0.046215277;0.08531771;0.10016237;-0.032025926;-0.0773167;-0.11233811;-0.1732612;0.08951738;0.15093033;-0.06684951;0.00828946;0.08539879;0.018691447;0.03275872;0.044889405;-0.16838834;0.15752923;-0.18618096;0.17831878;0.029533494;0.16583125;-0.005278456;-0.009573031;-0.097317226;-0.0039931904;-0.047992636;0.10389193;-0.020869777
-0.1257899;0.14480756;-0.061153166;-0.11374581;-0.17776226;-0.5032234;0.120614566;-0.03601169;0.07197515;0.059936028;-0.11446625;-0.32082573;-0.14195226;-0.2100031;-0.015577064;-0.04740296;0.0740671;-0.1374903;-0.0039039575;-0.05693755;-0.08888932;-0.041272905;0.069190055;-0.13082132;-0.00724202;0.08676903;0.032149535;0.021722335;0.14409164;-0.029472904;-0.16761519;-0.06366492;-0.04526025;0.2115037;0.15756018;-0.16383015;-0.11822111;-0.11097402;0.042563826;-0.028233876;-0.029333891;-0.12443133;0.17971611;-0.099194184;-0.16006267;0.067506395;0.099700436;0.04646728;0.024148373;0.13235389;0.05825422;-0.1576528;0.15857095;0.024010142;-0.022165908;-0.35284257;0.0858788;-0.06418261;0.017918704;-0.07590904;-0.1061697;-0.07140781;-0.038580503;0.17909198;0.1125978;0.064511724;-0.054873765;-0.025240703;-0.13461027;-0.0156479;0.1011944;-0.22292708;-0.14241284;0.0122677935;0.11435093;0.014873011;0.09251549;0.11527724;-0.017515108;-0.19043668;0.1269444;0.00359415;-0.11944418;0.033708446;-0.055325422;-0.30119574;-0.04253338;-0.042323746;0.053638134;0.20447268;-0.19380698;-0.058002066;-0.022958985;-0.050618313;0.11531864;0.078894876;-0.2511516;0.13158908;0.29213715;0.04626678;-0.12759618;-0.024734825;0.15521596;-0.1096332;-0.06915609;0.08163917;-0.09422725;0.14632711;-0.009219592;-0.22006646;-0.46353504;-0.06625578;0.03453466;0.19066867;-0.06885027;0.11140184;0.058950137;0.07579797;0.050591476;0.12236819;-0.027321879;-0.05938387;-0.3590724;-0.0022308403;-0.016521921;-0.021759544;-0.2013978;0.1306724;0.18896101;0.033713378;-0.17538688;-0.17445111;-0.052111484;0.03826017;0.10255629;0.1466926;0.06569304;0.119589135;-0.0052663223;-0.15191066;0.105885126;-0.09203172;-0.110075496;-0.11382752;0.0017364239;-0.093871325;-0.037299264;0.15035047;-0.033684753;-0.121930294;0.20898362;-0.1199334;0.056449503;0.022470182;0.1048886;0.2964472;-0.02787134;-0.08479492;-0.036991846;0.022854913;0.0009117464;0.0015415512;0.20953867;0.05445535;-0.069868356;-0.20873193;-0.27664584;-0.07126698;0.044002287;-0.098627545;-0.06340151;0.06164291;-0.0044415393;-0.14194761;0.12818037;-0.15088964;0.03017537;-0.1424892;-0.010446464;0.23916057;-0.054747384;-0.05722134;0.02239275;-0.021480018;0.003520965;0.01933812;-0.20637485;0.057582825;0.0946882;0.029432844;0.029800754;-0.04300933;-0.033189125;0.002943613;-0.2204524;0.07999896;-0.04877085;-0.113029085;-0.108227916;-0.04201775;0.08550322;0.07006741;-0.051870182;0.07992305;-0.06479543;0.089297496;0.18690056;-0.11224594;-0.11127128;-0.09128304;-0.24173526;-0.3709282;-0.120179184;0.023895875;-0.080679774;-0.166486;-0.033026505;0.017668458;0.03913877;-0.1046848;-0.030232236;-0.15140381;-0.02439176;-0.090622105;-0.05902637;0.052232992;0.11787617;-0.12831156;-0.02768505;0.070702516;0.17408197;0.004892242;0.019319098;0.061094467;0.09591761;0.1393626;0.029047474;0.049317874;0.024662558;-0.061076112;-0.07957034;-0.03245607;-0.12851636;0.09692188;-0.2893366;-0.07452586;0.04741191;0.080427974;0.015687533;-0.018579522;0.07611271;-0.02872393;-0.09769331;0.12275973;-0.18440941;-0.26924384;-0.05749021;0.012052008;-0.04491975;0.032460183;-0.011331753;0.19858037;0.08437305;0.05743785;-0.23906735;0.19716427;-0.06327734;0.20419143;0.043023124;-0.124424145;-0.12004164;-0.1340566;-0.15297294;-0.13464727;-0.014262656;0.13462843;0.012326671;0.08209335;-0.0089108255;0.07257343;0.05012591;0.057352617;0.18797167;0.13679042;-0.182508;0.0020981368;0.06731929;-0.09142765;0.0076861596;0.041789964;-0.18682843;0.08996607;-0.12995788;-0.1253314;-0.027165823;-0.08862576;-0.29710433;-0.022577187;-0.024462419;0.022840878;0.020201474;-0.1566406;0.09782679;0.17380632;-0.030864535;0.1545117;-0.036783185;0.14496608;0.1598449;-0.12848616;-0.028029379;-0.00818632;0.09760723;0.029700646;-0.26817495;0.084067516;0.020084463;-0.011465776;-0.088824;-0.027950801;0.11481128;-0.0011405455;-0.105901085;0.14198351;0.021984283;-0.07845021;-0.0014270212;0.0972594;-0.097274095;0.050180826;-0.11554551;0.006498171;-0.044935755;0.03890064;0.16941968;-0.06443841;0.0174314;0.024377728;0.071324915;0.13707846;-0.021115622;0.014129571;-0.22954951;0.002528322;-0.1891887;0.0948108;-0.14102505;0.069067895;-0.122743584;-0.057431035;-0.42358252;0.007607932;0.17467563;0.13025643;0.13691881;0.0769288;-0.056853537;0.032643627;-0.041058026;-0.100511074;-0.12176406;0.012998349;-0.1976017;-0.08291388;-0.015844751;-0.041943703;0.052764058;-0.03143336;-0.0084756985;0.03218612;-0.034877833;-0.09191928;-0.13088769;-0.03574349;-0.09627827;0.050792947;0.037425358;0.08200417;-0.14338095;0.12985687;0.028240552;0.005190659;0.009010207;-0.06334243;-0.066954434;-0.013803597;0.03598363;-0.010604637;0.12312534;0.0018743115;-0.0037098066;-0.12053883;-0.08901801;0.099308304;-0.061691187;-0.20260982;-0.17267646;0.040846795;0.094877824;-0.084137365;-0.10081231;-0.020632891;0.033064548;-0.112581044;0.18519513;-0.07522716;-0.22621161;-0.08079299;0.08742623;-0.123302;-0.08393815;0.08383882;-0.07038196;0.22194618;0.09969476;-0.15223426;-0.11053129;-0.06793797;-0.02221019;-0.2015422;-0.007162907;0.069107324;-0.06909853;-0.03645016;0.12110511;0.110520184;0.010439492;-0.15361507;-0.15040967;0.105336405;-0.13825972;-0.33341435;0.0961504;-0.044457927;0.2223269;-0.061591085;0.04327806;0.003784996;-0.007298771;-0.06890055;-0.022280518;-0.07543319;-0.29059622;-0.05121506;0.04846303;0.007193511;-0.20431064;0.080045216;0.1253012;-0.1259033;-0.07483429;-0.010038871;-0.018123625;0.014566614;-0.15839681;-0.043421786;0.07238708;0.022057729;-0.15151525;-0.075590916;-0.26578513;-0.15366673;0.008800668;-0.035431754;-0.16888633;-0.14423957;-0.010317193;0.0070476527;0.116998516;0.01173875;-0.15819293;-0.027333386;0.040056087;-0.28555465;0.015485742;0.013807524;-0.30036232;-0.29249698;-0.18009867;-0.021231122;0.13644633;-0.09977083;-0.49841428;0.03418928;-0.12065188;-0.09960152;0.04749403;-0.06645922;0.027753146;-0.037434567;0.08045953;-0.09713453;0.10538984;0.14312226;0.16234885;-0.08515785;0.0057986025;0.077102594;-0.054748543;0.090698496;0.0031822636;0.12214914;-0.06965003;-0.0802539;-0.34164017;0.014736947;0.014613249;-0.12248849;0.029085068;0.046348594;0.07390659;-0.037897337;0.10434195;0.019759841;-0.1634104;0.041699756;-0.07912084;-0.031318948;-0.20660053;-0.018510466;-0.15929715;-0.085052006;-0.16272467;0.07609126;0.14989156;-0.1079406;-0.2142759;0.09234454;-0.001789154;-0.11766389;0.034117892;-0.14452042;-0.12877452;-0.01788703;0.0042661866;0.092458025;0.095317945;0.22823365;0.06244582;-0.018177357;0.040286925;-0.100668095;0.1724885;0.06914784;-0.06338668;0.03530881;0.09796814;-0.075352155;0.104156815;0.00031057466;-0.07055086;-0.08788367;0.058656823;-0.13505246;-0.038871508;-0.04323307;0.01024714;-0.20194262;-0.22343451;0.09959861;0.103239685;0.037878204;-0.01787754;-0.006510184;-0.028700924;-0.26771286;0.17103553;-0.009337494;0.16810496;-0.0683549;0.017268868;0.14412144;-0.039418455;0.0035238464;0.1062716;0.119020425
-0.022703905;0.0038443324;-0.077399604;0.07757704;-0.055016797;-0.43760297;0.06604417;-0.10765722;-0.017675396;-0.0040329755;-0.015732618;-0.22830029;-0.21787855;-0.08321457;-0.12592281;0.031167872;-0.09156176;-0.17920293;-0.061705396;0.10724116;-0.041763112;-0.014832432;-0.008164138;-0.13852115;-0.07386052;-0.10539951;-0.014382404;0.0384669;-0.0633577;0.03919894;-0.12766132;-0.07050417;-0.04228676;0.20967075;0.047422472;-0.0032186008;0.008123803;0.12312995;-0.0015449063;-0.018156208;0.03781425;-0.16177878;-0.056115642;0.16590773;-0.2615496;0.11360253;0.066277444;-0.1136213;-0.041106228;0.19129159;0.00093331403;-0.11765214;-0.051365852;0.12370778;-0.0026149221;-0.3154628;-0.11678331;0.053548988;0.008733182;-0.18903802;-0.0066713486;-0.07154031;0.057382707;-0.08702942;0.15755409;0.06069527;0.009971521;-0.0689623;-0.1258873;-0.05178596;0.15648854;-0.32167745;-0.30868152;0.024713973;0.15202568;0.12803799;-0.04757956;0.15249619;0.035507645;-0.08326819;-0.008093003;-0.031517062;-0.02946752;0.14900763;-0.020309173;-0.38835233;-0.04115893;-0.06210197;0.20388284;0.050009593;-0.17621651;-0.08720217;0.07175305;0.021739364;0.17083266;0.0958302;-0.14832067;0.08681138;0.19959182;0.017375223;0.0644794;0.00517158;0.019738982;-0.083713286;0.14845468;0.30238333;-0.032838102;0.08404364;0.02891289;-0.18381955;-0.43673477;-0.07460285;0.003909217;0.01915618;-0.0018416774;0.13362965;-0.04101338;0.096783645;-0.08323182;0.12899688;0.080602236;-0.057197258;-0.34770295;0.016634481;0.09952089;-0.0021679802;-0.20113182;0.07730568;0.08651593;0.13833821;-0.017323116;-0.20194468;0.025873374;-0.08211665;0.13440596;0.19400138;-0.15992978;0.017983126;0.16972272;-0.10559503;0.08453032;-0.07081638;-0.20999089;0.070133656;-0.056517575;-0.013154386;-0.05794227;-0.032476638;-0.021489095;-0.16782564;0.1439681;-0.050197594;0.08095084;0.051662073;-0.054954626;0.31352815;-0.10828341;-0.08971553;-0.0040838737;0.07947236;0.0034686294;0.08317682;0.056299068;-0.034852415;-0.038458806;-0.18131018;-0.22224024;-0.07899637;-0.13422593;-0.032490067;-0.13945684;-0.102105714;0.20519428;-0.04849558;0.017919432;-0.06236873;-0.01782271;-0.19109552;-0.102372244;0.16010462;-0.0043286947;-0.1433254;0.07970342;-0.021544687;-0.024866777;-0.022425314;-0.064512305;0.07172376;0.15112409;0.07017864;0.081802525;0.036070533;-0.06262706;-0.11631794;-0.15472478;-0.057174183;-0.0579433;-0.20661955;-0.21486995;0.07490564;-0.030994419;0.07433421;-0.06070328;0.07362231;-0.17605653;-0.0029087574;0.095157;-0.042360492;-0.14785609;-0.037171923;-0.04417826;-0.25011885;-0.0023212885;-0.019964468;-0.024226317;-0.2108335;0.017017264;0.039174695;-0.0028952195;-0.11857841;0.18956317;-0.1992669;0.0031907673;-0.113112025;-0.2021305;-0.046287622;0.090532586;-0.07708091;-0.12437595;-0.16568504;0.083222754;-0.090942845;-0.13721655;0.0052545187;0.013797128;0.10548146;0.18890738;-0.07470694;-0.14740582;0.0070976;-0.16514967;-0.03798712;-0.02290822;0.15059328;-0.23086391;-0.2344375;-0.015760887;0.07018869;-0.123220205;-0.007547045;-0.011423544;0.020434197;-0.004231179;0.017977828;-0.18126847;-0.1402088;-0.020654589;-0.09692618;-0.12741326;-0.052308787;0.153347;0.014058104;0.10456836;0.23402324;-0.11766909;0.18328403;0.14762864;-0.046121944;0.017201992;-0.14726257;0.10299393;-0.11900972;-0.25868654;-0.027000893;-0.053424172;0.1350686;0.07453727;0.10065753;-0.016076712;0.052140035;-0.037033755;-0.041040212;-0.008865461;0.21038897;-0.184383;0.0619157;0.092652604;-0.10923253;-0.028242664;0.14315514;-0.18622726;0.09207718;-0.07870761;-0.033630844;-0.23070697;-0.09342243;-0.09583341;-0.13359942;-0.008696102;-0.052207805;0.093647316;-0.2154528;0.123993784;0.0580281;-0.08456409;0.055006836;-0.12450917;0.0732742;0.10125946;-0.055580664;-0.024693793;0.027289543;0.06654381;0.021531312;-0.27670407;-0.010868614;0.07479344;0.089657225;-0.031740695;-0.14016826;-0.034820784;-0.047310892;0.10089333;0.19028781;-0.06655757;-0.14141543;0.08476856;0.03064837;-0.15368077;-0.0008053647;-0.16968437;-0.06995934;0.046705823;-0.049963944;0.0046368875;-0.065738276;-0.1806545;0.06337301;0.09358944;0.087428376;-0.09215899;-0.067606725;-0.25795627;0.034879133;-0.22502272;0.07888996;-0.12937856;0.17026865;-0.05406944;-0.037209827;-0.33811665;0.22385961;0.08793516;-0.056404814;0.1426319;-0.013852698;0.08492396;0.2416116;-0.18200463;-0.040093414;0.05118747;0.085998386;-0.12413676;-0.082504556;0.0785012;-0.096768506;0.0038482873;0.028194891;0.07597719;0.045812454;-0.07421165;-0.26448256;-0.10273724;0.00949803;-0.06251314;0.0033574135;0.0027367193;0.0696265;-0.043763854;0.19040823;0.046963774;0.022603685;0.04626526;-0.08982527;-0.026401678;0.022506474;-0.1054478;0.11253043;0.09409042;0.059386007;0.02904046;-0.07431197;0.07918814;0.14077169;-0.047406413;-0.15224595;-0.17131087;-0.1352843;0.0994608;0.038395725;-0.16081244;-0.123155266;0.0052155037;0.026238095;0.13939182;-0.22492051;-0.17575422;0.033559743;0.05176608;-0.02484568;-0.034787487;0.12055526;-0.08895274;-0.023534752;-0.014092341;0.022683265;-0.04951054;-0.10564437;0.05157402;-0.25472996;-0.092766;0.21057715;-0.10203541;0.024267405;-0.010012939;0.0014684144;0.009061742;-0.06524726;-0.1250437;0.030877953;-0.11363336;-0.37306982;-0.029982798;-0.01623428;0.10797591;0.03925892;-0.03901624;-0.032591928;-0.12187515;-0.14874692;0.08602994;-0.2299029;-0.24683513;-0.18233779;-0.01435202;0.06625085;0.022946646;-0.0858415;0.01563344;-0.04690498;-0.111125804;0.18958215;0.11187837;-0.00388766;-0.10918275;-0.047346074;-0.14162998;0.16698842;-0.06800398;0.10803561;-0.3734978;-0.10455298;0.0728018;-0.06032182;-0.06699304;-0.07257639;0.009647905;0.0032283082;0.08135084;0.022070188;-0.05634572;0.027421013;0.1217403;-0.30471203;0.007380827;-0.19461791;-0.11055371;-0.31267774;-0.0634098;-0.010275235;0.05953419;0.13195969;-0.38530767;0.11445472;-0.0053778472;-0.08247639;0.03569991;0.04552956;0.0063807373;-0.0507904;0.10720205;-0.2886641;0.056952514;-0.008274356;0.02941702;-0.1359745;-0.0741161;0.11746509;-0.058765285;0.06954163;0.05234411;0.1934015;-0.087719895;-0.0154657755;-0.16985233;0.027825246;-0.09836753;-0.08720637;0.028492551;0.120298505;0.0858784;-0.019361325;0.020302908;-0.005046105;-0.15568066;0.10986783;-0.14533179;0.026660888;-0.19621225;-0.3157982;-0.2416935;-0.07378221;-0.031438705;0.18694353;-0.05790509;-0.12976578;-0.22646968;0.16877644;0.084624976;-0.11386972;0.060177114;-0.18073796;0.0013902579;0.04948743;-0.0035783593;0.08942738;0.103232265;0.25117925;0.06371103;-0.047124192;0.097121246;-0.027323045;0.16774587;-0.05324779;0.255784;-0.057927772;0.11084048;0.033519503;0.010009671;-0.066721335;-0.03486663;-0.10257205;0.18060482;-0.07501342;0.113820046;-0.015914856;0.14494509;-0.1975994;-0.12274858;0.1384051;0.07081404;0.23982614;-0.061127916;0.0053857095;-0.007161583;-0.1345654;0.21665454;0.064394765;0.23329714;0.029693276;-0.004758018;0.08448282;0.1680984;0.09145968;-0.016801916;0.08658848
-0.04332944;0.117329784;0.0783228;-0.14656314;-0.06506688;-0.5319677;-0.05373077;-0.08077472;-0.011622414;0.026688443;-0.15007481;-0.2252913;-0.26046494;0.11988495;-0.08967;0.029583031;0.024837634;-0.12888233;0.039053172;0.041632436;-0.07848348;0.082404986;-0.047561076;-0.050136805;-0.18658562;-0.15144044;0.022916459;0.04342339;-0.07216881;-0.07683463;-0.1537819;0.03412818;-0.07201445;0.19279931;0.18559356;-0.023378689;-0.16149345;0.10164921;-0.028991653;-0.098113574;0.0062533314;-0.12830392;0.047599014;0.24428725;-0.23175105;0.07708834;-0.063118696;-0.054226853;-0.002433442;0.12548132;0.04547148;-0.10039534;0.12757088;0.11467562;-0.0016174299;-0.17281146;-0.13566849;-0.037626788;0.075693905;-0.119089894;-0.016228251;0.035832297;0.15809545;-0.019226488;0.07823399;0.115687974;-0.0060313805;-0.17115222;-0.27464327;-0.0542068;0.094861045;-0.15102786;-0.21614763;0.0117105385;0.10505935;-0.013500298;-0.00072935264;0.11627715;0.054694086;-0.03933744;0.03066018;-0.03005016;-0.12875235;0.015379072;0.042683057;-0.38925597;-0.02280294;-0.048847914;0.011225704;-0.060400963;-0.15122306;-0.017115658;0.026286583;0.17754349;0.06159834;0.03873688;-0.10815317;-0.029198227;0.09935704;0.09131204;-0.058291446;-0.047410086;-0.10418944;0.08788191;0.23810309;0.09696847;0.113930374;0.044451583;0.14779055;-0.1756221;-0.25496235;-0.053039547;-0.14623833;0.03308605;-0.025255183;0.116593406;-0.043269664;0.15262368;-0.057918828;0.1378889;-0.07844905;-0.05225391;-0.2213355;-0.07776922;0.074685015;-0.07042053;-0.16980734;-0.03610294;0.025720991;0.044364892;-0.020432202;-0.1357206;0.011667575;-0.1437039;0.105000384;0.1703714;-0.0402067;-0.0034035062;0.12921503;-0.1066237;0.0117095765;-0.13181031;-0.076539755;-0.0016065612;-0.02413731;0.10452074;0.027237862;-0.033164643;-0.06262219;-0.11762756;0.11017963;-0.032331098;0.11936687;-0.008871839;0.038964033;0.20060332;-0.15328093;0.007232768;-0.09646817;-0.03320234;0.02193185;0.08506601;0.015621561;-0.0329314;0.093898386;-0.0659739;-0.2614532;-0.12887375;-0.14710253;0.09886201;-0.08709013;-0.18865329;0.010335691;-0.24497615;-0.16400711;-0.03226507;-0.07470711;-0.14444001;-0.04309929;0.22377668;-0.064806536;-0.1119907;0.06336718;-0.013407063;-0.052202154;0.022805665;-0.2004334;0.11697962;0.11504779;0.105009116;0.02841237;0.15750848;-0.012823097;-0.08346965;-0.1649928;-0.04447311;0.2055334;-0.098683745;-0.08805021;0.08491283;-0.1299621;-0.121580966;0.061414085;0.026870014;-0.09723869;0.07650306;0.09016232;-0.108712964;-0.16472006;-0.10222601;-0.16271627;-0.28616726;-0.037170976;-0.054131396;0.060091592;-0.25033844;-0.0064484472;-0.05401826;0.0048671556;-0.054574266;0.055232763;-0.18866388;0.018799473;0.05882596;-0.326566;0.0072331997;0.043236833;-0.18692374;-0.15548787;-0.017965572;0.067405574;-0.0044970047;-0.2263775;-0.037326664;-0.13800903;0.114849225;0.10512772;0.010010315;-0.08218421;-0.05407941;-0.22036083;0.01867294;-0.07263124;0.16924752;-0.095178105;-0.28797337;-0.123632684;0.058752436;-0.23947808;0.048784185;-0.019032398;0.07160917;0.0076835905;-0.0068251467;-0.071962036;-0.23887815;0.09257638;-0.004008605;-0.16703598;0.011954142;0.15451519;0.09847283;0.114669256;0.160948;-0.080882564;0.10106706;0.16946048;-0.04800011;0.043234576;-0.05134227;-0.0021863137;-0.046483595;-0.07805155;-0.07274408;-0.11803787;0.13202499;0.16898344;-0.07930028;-0.07796017;0.054958828;-0.13310754;0.014030661;0.06258368;0.13390592;-0.042192474;0.08240468;0.104364686;-0.2135112;-0.07572181;0.070035815;-0.12854101;-0.07488457;0.067364514;-0.15521196;-0.26041776;-0.14869992;-0.15823045;-0.064043984;-0.1409132;0.050753005;0.12779284;-0.02165883;0.023046307;0.025485855;-0.334157;-0.016683906;-0.14309658;0.1158772;0.12461973;0.123025484;-0.11235508;-0.019297617;0.19703476;-0.04275099;-0.17038433;0.005569613;0.050142884;0.13176766;0.010619238;-0.24424465;0.009618477;0.027375888;0.1619357;0.037158728;-0.022205016;-0.026960213;0.1934887;0.051879544;-0.11788903;-0.21899265;-0.12783742;0.074869394;0.08594617;0.04089042;-0.07358928;-0.092807226;-0.1775801;0.10083754;-0.10785841;-0.017465863;-0.09492162;0.061221626;-0.16621028;-0.1535151;-0.14304467;0.1115496;-0.28077063;0.046313193;0.066678666;-1.9086146e-05;-0.4158038;0.18205307;0.23031282;-0.0743444;0.079552166;0.06937266;0.12615101;0.15994324;-0.3401205;-0.1118213;0.1342905;-0.044198114;-0.1378626;-0.106467895;0.10098128;-0.0349878;-0.09079339;-0.012884836;-0.08746849;0.11209961;0.07714054;-0.2050903;-0.018344948;-0.010126301;-0.074142165;-0.007354666;-0.081870906;0.093242325;-0.14580284;0.2856325;-0.07523305;0.15148982;-0.03188983;0.055450074;-0.037311375;0.15035115;-0.045379195;0.09500589;0.121451735;2.7613833e-06;0.012182335;-0.00082444114;0.091317706;0.14749841;-0.1418428;-0.12568319;-0.10237929;-0.100168146;0.05758;0.040355485;-0.2563206;0.02850162;0.036277223;-0.012322387;-0.0072449995;-0.017360507;-0.17540011;-0.070338145;0.10103686;-0.09641552;-0.07260913;-0.032560214;-0.07293282;0.10425673;-0.04497027;0.008470579;-0.049240306;0.07490793;0.07988636;-0.07158427;0.0074883867;0.09265552;-0.15468593;-0.019358942;0.020714227;0.051382225;0.14293402;-0.006672064;-0.1131523;0.086108156;0.12585199;-0.26749367;0.0027000546;-0.06854138;-0.07247403;0.027953735;-0.060316622;-0.13778067;-0.23102859;-0.18209377;0.023882441;-0.22230166;-0.15320049;0.04824068;-0.21205741;0.017717488;0.10228176;-0.048348974;0.008845663;-0.06724898;-0.066731565;0.11924361;-0.07242061;0.11907059;-0.061991602;-0.12500642;-0.05028039;0.058229603;-0.0665506;0.037512038;-0.09999275;0.00043290135;-0.1109747;-0.021977097;-0.18748696;0.034974873;-0.09007109;0.06674125;0.21292421;0.08902408;-0.10066128;-0.15317853;-0.08285133;-0.32901612;0.029465921;-0.19480278;-0.2154453;-0.30738094;0.008671439;0.050812297;0.068347245;0.07650892;-0.27347133;-0.03200969;0.016398476;0.021287365;0.093389474;-0.003829401;0.04396338;-0.03853222;0.026864242;-0.16249791;0.14056697;0.08896012;0.19791497;-0.09232128;0.048196986;0.0531167;-0.16816843;0.06870413;0.0479717;0.20472297;-0.16036871;-0.02657948;-0.20964287;-0.058006115;-0.11205477;0.013174536;0.044501327;0.10093763;0.09546325;0.03670849;0.093985945;-0.003932085;-0.20289342;-0.08627283;-0.21036303;0.112090774;-0.034787223;-0.23787256;-0.035818405;-0.037770007;-0.134234;0.0043529402;-0.11952272;-0.20821401;-0.22976688;-0.106611304;-0.011986635;0.0002682668;0.06667789;-0.113652386;0.1045303;-0.08432432;0.06626361;0.041477904;-0.055617213;0.2634951;0.07608539;-0.06441822;0.16265287;0.05592665;0.17066017;0.039571166;0.23239057;0.0049536717;0.024282131;-0.25505295;-0.05257349;-0.07739201;-0.101420574;-0.023251591;0.08329959;0.076622315;-0.0029817785;-0.094411366;0.09950173;-0.038898207;-0.05203168;0.0897292;0.0413744;0.1089466;0.10183539;-0.084231526;-0.039653495;-0.22861563;0.11599179;-0.015370658;0.15336408;-0.15776858;-0.10227357;0.048333324;0.12189339;0.15074411;0.024557;0.03241341
0.04843259;-0.07664725;0.032840535;-0.12115543;-0.18370342;-0.40552935;0.0024610355;0.04374741;0.0029730678;0.055707403;-0.03790132;-0.120551296;-0.12113722;-0.039814267;-0.010598653;0.074329875;0.0056954427;-0.06394923;-0.019559586;0.025143912;0.1332585;-0.045584716;0.11833042;-0.31749472;-0.050104085;-0.17799778;-0.12683432;0.08694353;-0.036778692;-0.11353977;-0.18964441;-0.08457685;-0.051862106;0.09539002;0.30100483;0.10315018;-0.13947266;0.04992876;-0.043443732;-0.056132212;-0.06793496;-0.19992682;-0.038001247;0.082182914;-0.09665717;0.14397545;0.0857437;-0.18834437;0.0067867986;0.2738492;-0.008040758;-0.103584655;0.08063285;0.07082044;0.10515571;-0.31348258;-0.15834527;0.16251157;-0.011880564;-0.06885472;-0.031158581;0.012228756;0.15138376;0.1249593;0.10957305;0.26131567;0.083245315;-0.094293095;-0.10426894;-0.03868661;0.21195325;-0.08477879;-0.20536326;0.1385681;-0.09775662;-0.033480622;0.03610519;0.122363515;-0.09302568;-0.12216308;-0.01208076;0.14052483;-0.19387335;0.098940715;0.11703807;-0.37250185;0.09913745;-0.058492824;-0.073895335;0.053358696;-0.22364224;0.040490277;0.0470497;0.07690694;0.017773712;0.07204139;0.046367977;-0.038935903;0.13522123;0.104342915;-0.052821506;0.022540294;-0.046845056;0.10562233;0.11241674;0.2296087;-0.074662484;0.02743409;-0.20334564;-0.059149545;-0.28893822;0.01799864;-0.18959725;-0.050419558;0.09373205;0.104490675;-0.038766623;0.18469751;0.068029344;0.0042048963;-0.048397712;-0.02538284;-0.24851073;0.052598897;0.038972396;-0.014422294;-0.09574658;-0.22731537;-0.023193369;-0.052660633;-0.12804392;-0.13662018;0.15479802;-0.069965184;-0.037137784;0.1185034;-0.011851669;-0.0058931853;0.15885343;-0.18075186;-0.04009237;-0.01686653;-0.1825014;-0.09780502;-0.021015285;0.013186206;0.0333496;-0.10282685;0.04293048;-0.13003533;-0.0042021126;0.085973926;0.21270773;0.040850945;-0.07431403;0.05895824;-0.1357945;0.10184969;-0.013277372;-0.08639749;-0.05481499;0.0005247428;0.06923881;0.15849018;-0.032193813;-0.15481797;-0.09405716;-0.09807026;0.03902387;-0.08697301;-0.061009668;0.1285223;-0.015355058;-0.075318195;0.017276691;-0.12534161;-0.13093485;-0.23641245;-0.03247328;0.08771674;0.08047136;-0.0060517085;0.03384768;-0.09974733;-0.059838757;0.054380976;-0.16389018;0.042642266;0.03496614;0.00023048696;0.03591195;0.21475439;0.067386;-0.221952;-0.05485192;-0.09036704;0.037571575;-0.03331791;-0.007603139;0.118022114;0.04620133;0.10241246;0.020899724;0.062518895;-0.12355541;0.035910238;-0.06320461;-0.068463504;-0.09303987;0.063395396;0.05472718;-0.07426389;0.008533544;-0.0110375155;0.062973924;-0.06618527;-0.17344534;0.02515291;0.082601525;-0.10804544;0.15984544;-0.15274516;-0.08687849;-0.029423764;-0.07661872;-0.10343231;0.11655715;-0.0843519;-0.09355068;-0.0037519257;-0.04417858;-0.00033662762;-0.052202575;0.14479162;0.06400061;0.18805742;0.100783356;-0.15904224;-0.114151865;-0.0072279237;-0.1321059;0.007878223;0.011089526;0.060391016;-0.08535762;-0.29794958;-0.0059716017;0.1391139;-0.09363365;-0.025515562;0.08296592;0.14065427;-0.05051522;-0.023721607;-0.09099219;-0.24571274;-0.06827128;0.0015739957;-0.1593841;-0.045869175;0.16957733;-0.04290334;0.14172745;0.21339653;-0.07780807;0.07527584;-0.003162537;0.07063274;0.063861735;-0.06540983;0.00223757;0.012899833;-0.0050616176;-0.0017440413;-0.13741115;0.051296137;0.100860335;-0.22325328;-0.063325845;0.1377453;-0.025901;0.117215306;0.09667214;0.053574353;-0.08535344;0.07342017;-0.17078133;-0.26477528;-0.17222221;0.05678748;-0.12632698;-0.027808417;0.050237678;-0.20305574;-0.17363544;-0.00407848;-0.12183552;-0.17894818;-0.1057836;0.07627649;-0.022526542;-0.09534763;0.03652241;-0.06035623;-0.34829718;-0.055573244;-0.029298307;0.049676575;0.12485236;-0.008739503;-0.029096622;0.115635045;0.23353118;-0.114048384;-0.21260738;-0.12386598;0.07022238;0.06516497;-0.13836595;-0.075240925;-0.030756498;0.078846864;0.04707839;-0.057841178;-0.058172878;-0.15893267;0.13667871;0.09114052;-0.09304868;-0.07091016;-0.114122756;0.05779773;0.048020788;0.034904473;-0.070395656;-0.13421753;-0.03830296;0.02482192;-0.011139142;-0.058601726;-0.13074668;0.07977981;0.01477524;-0.16767997;0.0637002;0.027932752;-0.09517901;0.09593717;-0.037559368;0.02746264;-0.4475999;0.29495102;0.07578591;-0.03498023;-0.066277824;0.12881643;0.15897386;0.16963473;-0.20783651;0.0012817829;-0.13004093;-0.034665935;-0.004009705;-0.12502062;0.16357987;-0.17419295;-0.13393739;-0.0042128386;-0.114769906;0.08997192;0.15596488;-0.12700169;-0.123777926;-0.014619364;-0.15768838;-0.03242442;0.02018275;-0.0019232273;-0.12487462;0.17784642;0.032456238;0.24048689;-0.055390514;-0.16054587;-0.112927355;-0.036722094;-0.14489757;0.04918439;0.06311932;0.2171611;-0.014105632;-0.06658524;0.16394782;0.069716364;-0.030727968;-0.044092115;-0.10009229;-0.021707702;-0.04802373;0.00015310234;-0.13491985;-0.1074711;0.03312373;0.09187515;0.108022414;-0.099762015;-0.04348899;-0.1378192;0.07876139;0.1468227;0.16687267;-0.03975262;-0.014209116;0.06675282;-0.09927503;0.049195755;0.0762498;0.15649244;0.08206507;-0.10419405;-0.02135634;0.084594995;-0.10337396;0.05634457;-0.08888666;0.050749406;0.10438182;-0.17658696;-0.09537329;-0.0053773457;0.037304357;-0.07732355;-0.07484362;0.11485888;-0.004588717;0.010493643;-0.102444634;-0.08622859;-0.23466209;-0.048124894;-0.09509052;-0.11190838;-0.17333747;-0.18483979;-0.043593764;0.14742924;-0.0055985935;0.021062834;0.10227348;-0.0021132394;-0.020121861;0.119858205;0.1502367;0.08985927;-0.020651024;-0.13206635;-0.014118634;0.060790904;0.02053676;0.032317046;-0.05072043;-0.15216492;0.0010658479;-0.0643407;-0.2526041;0.06807941;-0.07086914;-0.086905465;0.035278738;0.16336106;-0.034035325;0.030758977;0.038388524;-0.18197183;-0.20704281;-0.21416846;-0.0927365;-0.12013015;0.102599315;-0.050916903;0.060019635;-0.008143994;-0.21130903;0.08280757;0.1636738;-0.16363509;0.035118666;-0.03648549;-0.047334254;-0.08258333;0.08618471;-0.024108097;-0.00220007;0.030582825;0.085724875;0.032824017;0.06571185;0.0176023;-0.08106473;-0.0179855;-0.09361189;0.19096054;-0.012219657;-0.07148751;-0.24656516;0.023835901;-0.019103555;0.12550677;-0.12765534;-0.0046859146;0.0073420927;0.033284463;-0.011195835;-0.090673536;-0.22108315;0.02981532;-0.14044243;0.12875572;0.027436797;-0.25231916;-0.25951198;-0.078729175;-0.1997845;0.016940774;-0.26932555;-0.24799605;-0.38447833;-0.014559334;-0.085829765;-0.0287846;0.06453998;-0.10853714;0.013075736;-0.10995807;0.08981475;0.2086699;-0.04276604;0.21564056;0.22660965;-0.025117714;0.061467856;-0.10307914;0.16269648;0.28838086;0.03884317;0.008215639;0.06880685;-0.2748573;0.06123313;-0.08797156;-0.1066374;-0.064382315;-0.0254633;-0.043746684;-0.02800034;-0.08740678;-0.04199114;0.011459993;0.03348808;0.13006699;0.07695825;0.05423884;-0.022739807;-0.06800623;0.077102356;-0.2664547;0.066467464;0.025866099;0.05314475;0.038522523;-0.15239984;0.09803072;0.21078815;0.01751393;-0.06595421;0.15190563
-0.039352525;0.13348655;0.10097176;-0.17843264;-0.06337881;-0.4888379;0.021490544;-0.028139455;1.0951426e-05;-0.07078863;-0.1657392;-0.10668867;0.026782766;0.0012350157;0.022462588;0.16259441;-0.04518083;-0.04612487;-0.048446607;-0.09067639;0.14421271;0.048699796;-0.03197172;-0.04540972;-0.11483624;-0.117559336;-0.016639953;0.049237307;-0.0064697657;-0.360569;-0.21739085;0.060724508;-0.04763261;0.0263201;0.11110521;0.05950353;0.07339609;-0.003084029;0.11949255;-0.019733533;-0.13909054;-0.17818084;0.019852065;-0.0995563;-0.13385297;-0.025773969;-0.0083327275;-0.0792136;0.094332635;0.32158792;0.035801925;-0.19912216;0.19087358;-0.0076192487;-0.032997966;-0.21097271;-0.2171049;-0.04627073;-0.22734874;-0.14383182;-0.10540296;-0.1507217;0.12655258;0.1463995;0.07772878;0.10366417;-0.028185746;-0.0725775;-0.14816286;-0.04173471;0.08409518;-0.14728135;0.010810812;0.18368043;0.021480355;0.0326652;0.15196426;0.08145967;-0.026838712;0.012714548;-0.0521048;0.13856623;-0.2173919;0.06254488;0.17987147;-0.2907943;-0.03532741;-0.054390192;-0.07253452;0.102265954;-0.08394985;0.085053824;-0.046621576;0.015260273;-0.027939621;0.08386627;-0.0028004653;0.026144395;0.11075019;-0.04712275;-0.049394395;0.16094607;-0.009285916;-0.013232042;0.17235552;0.060147177;-0.08408886;0.0895439;-0.0041783033;-0.15641382;-0.38222054;-0.07420366;-0.0740177;-0.1571124;0.08324533;0.0516654;-0.037772197;0.24510261;-0.0903359;0.0170231;-0.027956277;-0.05806233;-0.2307197;-0.009964716;-0.05948472;-0.099466115;-0.23072961;-0.08240631;-0.021779936;0.063458934;0.113297775;-0.196821;-0.01551138;-0.08341552;-0.089584544;-0.019716067;0.008697968;-0.0060297037;0.0730605;-0.043280616;0.017500456;-0.1342249;0.10297073;-0.043640524;-0.12732574;-0.07955954;-0.076151796;-0.04165145;-0.043218408;-0.104963064;0.100509666;-0.041501522;0.27386847;0.021256665;-0.010871156;0.12159864;-0.18249218;0.14570658;-0.16582043;0.013517752;-0.034167442;0.03005371;0.20777534;0.05028274;-0.055621423;-0.026190432;-0.223018;-0.06570379;-0.018321697;-0.02937524;0.1136071;0.04653038;0.06316185;-0.16244997;0.02730003;-0.06006709;-0.12159629;-0.014516647;0.12869707;0.050727986;-0.01222585;-0.056483332;-0.123000644;-0.020523647;-0.1349575;0.16285284;-0.060303565;0.1409181;-0.03148868;0.013310128;0.08599674;0.25581363;0.20254043;-0.056054253;-0.011328701;0.011580132;-0.09860939;-0.112654045;0.07929;0.12741892;-0.026835721;-0.008298511;0.0687117;0.024595173;-0.10717972;0.08074791;-0.054495092;0.052545216;-0.11865101;-0.125839;-0.021280201;-0.04338202;0.0741713;-0.021100286;0.022409441;0.06055333;0.06249102;-0.024891382;0.10510263;0.10785444;0.097969644;-0.15130857;0.052037124;0.088188566;-0.12739278;-0.01180245;0.07228287;-0.053841766;-0.072243586;-0.061686978;0.11312728;-0.03072984;-0.091102794;0.04668102;-0.137859;0.12289244;0.21934332;-0.19697969;-0.09703771;-0.051707603;-0.22831193;0.12251434;0.042842105;-0.02674597;-0.041449845;-0.299143;0.065787084;0.05868789;-0.1627603;0.08663069;-0.027612062;0.14600645;0.19227271;0.0051409877;-0.2923309;-0.19822463;-0.018915882;-0.005341957;-0.043354265;0.05593191;0.20762111;-0.10587325;0.007504094;0.018423233;-0.06147694;0.17706174;-0.013383681;0.042773977;-0.010200407;-0.031645752;-0.057079095;0.13843752;-0.02947108;-0.06038881;-0.01089798;0.2346488;-0.05013735;-0.16959627;-0.08518423;0.05778359;0.05557812;0.024930874;0.01345064;-0.15445349;-0.053554855;0.0035995618;0.001744412;-0.36568165;-0.046696935;0.06516995;-0.052858084;-0.14076187;0.0028463907;-0.26605827;-0.08072318;-0.0830803;-0.06102801;-0.1397588;-0.1703764;-0.03967252;-0.0676104;-0.1897249;-0.01329537;-0.05991121;-0.23704334;0.026097108;0.002583728;-0.026422083;0.060991142;-0.021486055;-0.0025790313;0.034108177;-0.04733606;0.05532739;-0.11755463;-0.18849044;0.09695866;0.0055780443;0.02373288;-0.14273277;-0.06279158;-0.06946129;0.057095088;0.048701283;0.07412798;-0.07158553;0.040019747;-0.093645595;-0.14415751;-0.009228767;-0.017710222;-0.13541727;0.065850705;-0.03824694;-0.04013788;-0.07453711;-0.17493702;0.04895552;-0.07667782;-0.0030703365;0.021158641;0.051946044;-0.06095167;-0.14052525;0.05144252;-0.053007275;-0.20024927;0.024291517;0.047164436;0.016351731;-0.3450517;0.28631663;0.14527433;-0.16998686;-0.057766985;-0.07329095;0.1436252;0.091414;-0.27788293;0.05510808;-0.04509634;-0.11971322;-0.058706053;-0.0675909;-0.011139146;0.111694366;-0.05639914;0.0061224257;0.059027594;-0.058237854;0.09862899;-0.16636226;0.0078368215;0.1948932;-0.22596104;-0.06594999;-0.037362117;-0.07630305;-0.07170409;0.21489683;0.001831786;0.22884089;0.10062081;-0.052840788;0.023821574;0.030296734;-0.055563826;0.063602805;0.18742262;-0.022724824;0.044043034;-0.18323548;0.067882515;0.073034585;-0.08571861;-0.15838806;0.12176404;-0.016458271;-0.043574404;-0.06402139;-0.26338482;-0.17680307;-0.009276657;0.12959473;0.0036749302;-0.16246167;-0.02711663;-0.08357213;-0.02227204;0.03220455;0.045006443;-0.26268643;0.043467015;0.07938303;0.07020954;0.08123639;0.08927657;0.15819843;0.04632735;0.030980654;-0.008585213;-0.05981523;-0.011800982;-0.09441546;-0.11478342;0.09188433;0.072833195;0.042418465;-0.19574082;0.01192723;0.29572865;-0.13771379;0.01335766;0.11883568;-0.014811021;0.0668304;-0.18725401;-0.18877394;-0.17148104;-0.093221985;-0.07089393;-0.11467643;-0.15252069;-0.16415711;-0.18502256;-0.0114813475;0.004610103;0.10816683;-0.061151404;-0.057494454;-0.006906901;0.14818333;-0.008077929;0.14251594;-0.046907198;-0.22345617;-0.06184835;0.034875516;-0.016071182;-0.028929291;-0.0073852423;0.003974526;-0.17646085;0.036832668;-0.1546978;0.036007613;-0.11808177;-0.020489227;0.16887519;0.08176179;-0.06500675;0.029862517;-0.016215077;-0.12844342;-0.09685427;-0.23751642;0.0709201;-0.21737492;0.24039106;0.14117932;0.032651413;0.050632507;-0.13066906;-0.13084655;0.08357246;-0.050490964;0.026274512;-0.20456976;0.04940544;-0.012757626;-0.014678088;0.14630708;-0.031151807;0.088120885;0.016832717;0.003239163;-0.07372451;-0.067997195;0.10809803;0.05361403;0.0052798223;0.22460313;-0.10973615;-0.01404643;-0.12589598;0.008026936;-0.04149253;0.027347295;0.03468647;0.049503926;0.021361781;-0.022803336;-0.06604832;0.06855854;-0.07750119;-0.0006860526;-0.19849002;0.03430739;-0.0064472;-0.10950411;-0.17464957;-0.03986086;-0.25309458;-0.11123939;-0.041887015;-0.09433048;-0.28880602;0.015920661;-0.11503877;-0.1501942;0.06648854;-0.19158638;-0.009546522;-0.041988537;0.09034263;0.116168015;-0.13870078;0.17337555;0.2774794;0.030833252;0.2426707;0.06363031;0.1003484;0.19948947;0.0089793885;-0.036895275;0.13521089;-0.114208646;0.052019544;-0.006397541;-0.18822975;0.059577055;0.0026513461;0.056176182;-0.014751;-0.02304061;-0.021569815;0.11335259;-0.13327353;0.0071203485;-0.088004;0.053138897;0.053785037;-0.021524655;0.09582862;-0.23231766;0.110138744;0.12496898;0.020723553;-0.09969526;-0.09536386;0.09170495;0.20449613;0.09545299;-0.1585666;-0.036173124
0.0995676;0.0067166435;-0.07357392;-0.1363419;-0.15322891;-0.4643795;0.035497654;-0.026869522;-0.00986137;0.0006257807;-0.01900019;-0.0949864;-0.13592623;-0.0063134353;0.10021027;0.13715783;-0.07760698;-0.12920359;0.020439748;-0.08164626;0.058795102;-0.11407084;-0.069104455;-0.19793113;-0.06289211;-0.07177698;-0.08988987;-0.013639297;-0.041726604;-0.4411303;0.067397505;0.053329293;0.047590807;0.13459378;0.21022232;-0.032101385;0.0018714432;0.035842128;0.08886419;0.13266571;-0.090081476;0.0020369964;0.16097844;-0.09434028;-0.17336434;0.038634162;0.055609293;-0.13197798;0.14213265;0.20092759;0.12078816;-0.27245873;-0.020381384;-0.028328277;0.04127543;-0.15413721;-0.078659736;0.001292951;-0.17754215;-0.14973506;-0.0047161286;-0.17723793;0.19940971;0.16043988;-0.06157189;0.17222011;0.0315397;-0.09192826;-0.10379178;0.054461066;0.20954883;-0.08575626;-0.1338771;-0.0064171073;-0.14520995;0.1863401;0.14839958;0.17049424;0.040433858;0.023648314;0.09152677;0.2012971;0.0060579437;-0.2009226;0.14191833;-0.30735317;-0.10490581;-0.158908;-0.18457802;0.1131585;0.00669819;0.07281032;0.051312316;0.11415229;-0.026395593;0.050123796;-0.070539705;-0.076445945;0.06830249;0.034783248;0.101892136;0.09228;-0.26413557;-0.07286573;0.19945583;-0.14481184;-0.13724512;-0.011464762;-0.09214253;-0.13744704;-0.1873265;0.061847877;0.11001178;-0.01926003;0.124882594;-0.02859819;0.017264305;0.07374452;-0.017780155;0.15694062;0.054574687;-0.04230535;-0.3440428;-0.033160675;0.054991215;0.03373362;-0.1881057;-0.037836786;-0.07957666;0.04707197;0.09440389;-0.19839203;0.007846489;0.10004428;-0.001705654;0.13534231;0.057963923;0.08928928;0.10126799;-0.049917668;-0.102813706;-0.095205165;0.20437506;0.021842424;-0.08595345;-0.050815225;0.112171024;-0.1628463;-0.22108507;-0.029681573;-0.06991713;-0.056278463;0.15837416;-0.09391826;0.06192896;0.14850482;-0.038501035;0.20319375;0.034608137;0.13529296;-0.022780443;0.044606317;0.21417186;0.08755504;0.028064137;-0.18509333;-0.25937682;-0.015750933;0.079374686;-0.016438276;0.09325686;0.06290295;0.18249343;-0.0060811695;0.12945586;-0.03297166;-0.17772482;-0.14369671;0.21704006;0.12387238;0.056222666;0.057149664;-0.03656435;-0.068993285;-0.06321386;-0.07204112;-0.042726357;0.016534539;-0.03388497;-0.012926016;0.10676717;0.2751634;0.123858094;0.034836583;0.009690152;0.0028946977;0.081240214;-0.12333783;-0.014836941;0.15448135;0.13211931;0.053374004;-0.14420898;-0.0077666426;0.024136826;-0.11159298;0.012979877;-0.0012422827;-0.027476482;-0.07050211;0.08347745;-0.044783626;-0.080219865;-0.0034423473;0.024136888;0.1152468;0.007512403;0.03668937;-0.015819287;-0.0035363927;0.0042174356;-0.08864189;-0.10569697;0.024015699;-0.09110815;0.13651437;0.03817932;0.043131273;0.11521871;-0.0354028;0.053706273;0.16991927;-0.22589278;-0.0029604086;-0.11941415;-0.01575495;0.026689848;-0.065119505;-0.040852033;-0.20350151;-0.053602993;0.16536976;0.121443965;-0.010433583;-0.06719997;-0.05104006;0.08544763;0.09080432;0.060134392;0.040336646;-0.10515237;0.043347917;0.010179489;-0.06419157;-0.16599485;-0.14831558;-0.013232223;-0.0056327954;-0.13422604;0.08884845;0.22075164;-0.25896066;0.10552709;-0.071038924;-0.11714192;0.01590084;0.08203269;0.11949545;-0.04552299;0.08180478;-0.004121786;0.25965276;-0.036249943;-0.025107708;0.09611882;0.24646156;-0.078354165;-0.09703029;0.0106016705;-0.03000008;-0.018808987;0.11025569;-0.1742919;-0.2209493;0.15088001;-0.05815352;-0.028371869;-0.24086975;0.0845891;-0.029223042;-0.11192943;0.01297067;0.0046677417;-0.30134958;0.056259014;-0.14943336;-0.03402216;0.0016794899;0.051615488;-0.03190539;-0.081498206;-0.12160408;0.118328445;-0.10802273;-0.31222162;0.07030469;0.17354909;-0.0040704557;0.09172629;-0.13446748;-0.07816952;0.205912;0.036007643;0.10404603;-0.02124592;-0.22908087;0.020612279;0.14743078;0.03134813;0.051113818;0.011782667;0.08395678;-0.08814064;-0.10513423;0.03498552;-0.00022114084;-0.1655132;0.10886903;-0.05999071;0.0068958933;-0.10753515;-0.20390818;0.01811079;0.068257265;-0.0560844;-0.034864;0.033976942;-0.045895286;-0.0025459095;-0.09479373;-0.036236152;-0.004201774;-0.111402445;0.09858357;-0.067920275;0.15013918;-0.14885768;-0.0007596811;-0.0049446677;-0.03762233;-0.30204383;0.21886341;-0.12166891;-0.09101093;0.014318222;0.05600513;0.09147544;0.16980359;-0.23206115;-0.012585511;-0.028461192;0.074172825;-0.16108921;-0.30008155;-0.21014005;0.08277952;-0.16252661;0.03956035;-0.06952612;-0.013414858;0.06354157;-0.119629815;0.035044175;0.30069354;-0.28629398;0.0010702731;-0.011358134;0.029158007;-0.021032795;0.09645067;-0.0959503;0.30752453;0.082216464;0.112261586;-0.057384603;-0.10009535;-0.09288814;0.08070191;0.16362564;0.08259069;-0.051229987;-0.08514854;0.13790894;0.13954034;0.04535811;-0.14306729;0.05996974;0.0405712;0.09884597;-0.10537302;-0.22186469;-0.28643376;0.10760471;0.043180168;0.14812975;-0.29818115;-0.18513758;0.103981204;-0.04556318;0.09234887;0.03602927;-0.26331177;0.058575768;0.026861496;-0.04299963;0.08983989;0.18978238;0.1458126;0.08969557;-0.034288634;-0.020302247;-0.07810681;0.115692765;-0.051995773;0.03601253;0.035247017;-0.038821265;0.051335964;-0.012235747;0.11332126;0.15565288;-0.08845923;0.113683596;0.13927802;0.18426289;-0.06421753;-0.050579768;-0.061794832;-0.1690741;-0.21340613;-0.24464448;-0.070834965;0.029958602;-0.116200306;-0.02094978;-0.03975208;-0.13099441;-0.043527104;-0.18035305;-0.087949365;-0.22752512;0.098300464;-0.09540209;0.054871697;-0.18268026;-0.058307316;0.042944305;-0.10926368;-0.19014873;0.087881714;-0.101171896;0.018374588;-0.22543582;0.043666717;-0.19731095;-0.0923591;-0.009024696;-0.16173892;0.120246;0.021543128;-0.17259893;0.0889027;0.06013485;-0.124709;-0.09266385;-0.11258212;0.14454204;-0.06851328;0.09099193;0.082998306;-0.09615817;0.090982124;-0.07909568;0.0800472;0.17473188;-0.1499196;-0.034480046;-0.028076356;0.08842733;0.0083748335;0.0606006;0.003191467;-0.08372671;0.07093583;-0.09534649;-0.07062401;-0.047735352;-0.03219485;-0.034644753;-0.030188564;0.037226293;0.2812522;-0.26505888;-0.07418952;-0.18278508;0.12585244;0.09763171;-0.024336398;0.08110473;0.14079031;0.1310575;0.0018855099;0.06712039;-0.08576082;-0.07795887;-0.11294735;-0.2199258;0.086982846;-0.028843753;-0.29321483;-0.10134476;0.026312077;-0.30969775;-0.11085514;-0.1615897;-0.39750373;-0.2606697;-0.145299;-0.0989111;-0.08909608;-0.09934798;-0.21325654;0.049347863;0.07735861;0.06616228;0.10296039;0.11531447;0.15801647;0.13606292;0.0036926174;0.23372497;0.1831198;0.18321949;-0.013836879;0.14510009;-0.12749799;-0.06311507;-0.0518158;0.09375504;-0.14832903;-0.03605345;-0.07790184;0.109095186;-0.106040806;-0.027459396;-0.033129185;0.047253154;-0.20172289;-0.07089388;-0.026216684;-0.094572775;-0.036467597;-0.033698827;0.05769445;-0.0018637184;-0.05022133;-0.08855155;0.019539107;0.07806013;-0.057589103;-0.18132938;0.059534978;0.18151286;-0.0324207;-0.08483205;0.15364052
0.023412978;0.048836906;0.110255025;-0.1611608;-0.035286628;-0.2536514;-0.09564374;-0.027887668;-0.051446285;-0.09010826;-0.0524263;-0.018718882;-0.12683362;0.031921983;-0.09067498;0.20448153;0.040093422;-0.04963502;-0.09861025;-0.011712422;0.1285327;0.0028631613;0.024148384;-0.12345666;-0.11910036;-0.21508327;-0.14554602;0.13367334;-0.08968202;-0.47970185;-0.046547595;0.07027769;0.07878379;0.14046204;-0.0928896;-0.097809516;0.00089227787;0.12072771;-0.12214708;0.13012579;-0.18829149;-0.027575307;-0.17543107;0.050954472;-0.17186014;0.1372911;0.063868724;-0.1788545;0.0067092986;0.14438948;0.038442723;-0.25083873;0.09164391;0.10894977;0.044320658;-0.0326939;-0.16407768;-0.07564009;-0.066313714;-0.008583595;0.041987482;0.07029911;0.10863061;0.07744642;0.024562944;0.17661124;-0.10137138;-0.104478344;-0.15953495;0.043147612;0.17127989;-0.022336572;0.007127502;0.16074458;-0.16233209;0.18276429;0.1312518;0.039482195;-0.06636531;0.12329495;-0.058712352;0.19142088;-0.013888957;-0.04922795;0.114980064;-0.1994697;-0.07321904;-0.0895747;-0.08957332;0.0835319;0.0437526;0.009152705;0.027716303;0.03718716;0.1085735;0.11902498;0.08305772;-0.0972297;0.096797004;-0.0771235;0.0373695;0.17322369;-0.33072153;0.11202213;0.12693655;-0.068455175;-0.056185383;0.0058917347;-0.13425437;-0.020362137;-0.19217111;0.06562443;0.00309549;-0.09925335;0.046957627;-0.08727654;-0.0146216145;0.025365364;0.022319045;-0.012935305;-0.016430585;0.0054323217;-0.24198414;-0.023683151;-0.08679919;0.015852852;-0.12335235;-0.160004;-0.023546768;-0.06526803;0.22009021;-0.025989432;-0.08845289;0.06891252;-0.052852254;0.08802385;0.0017639496;-0.050107498;-0.040734835;0.08441795;-0.18049744;0.1077815;-0.016508961;-0.040202808;0.08952125;0.031903666;-0.23308645;-0.055592123;0.030528424;-0.01427899;0.074220456;0.0062754652;0.14319158;0.104723126;-0.11359144;0.009002394;-0.088792354;0.16006567;-0.060767904;-0.012948228;-0.059191886;0.08234861;0.057078157;0.1144829;0.038861867;-0.13487136;-0.12708719;-0.015638435;0.0071855756;-0.11180403;0.12840804;0.07660118;0.03243359;-0.030252779;0.018950451;0.061437275;-0.0048646955;-0.16958968;0.07662574;0.0059287967;-0.0960534;0.027275829;-0.029299501;0.016098352;-0.040780608;-0.096373476;-0.0019946944;0.04873823;-0.023428459;-0.092568636;0.030944858;0.15273494;0.14339228;-0.19687432;-0.2662349;0.02699685;0.1497817;0.015650474;0.04271779;0.15928623;0.07256096;-0.0695972;0.12923467;0.040762734;-0.014252021;0.018662656;0.0045586703;-0.040315248;-0.124954656;0.052499037;0.08939788;-0.005174741;-0.07901062;-0.020172514;-0.051490165;0.058306534;0.055174265;-0.07207037;0.022008145;0.026104482;0.043923408;-0.10134496;-0.076989196;0.006312712;0.17144287;0.014296834;0.11144845;0.150794;0.090850174;-0.079456136;0.023789046;0.08799669;-0.1371717;-0.011598474;0.012869299;0.18150106;0.05934822;-0.067123644;-0.032499917;0.04433493;-0.097353585;-0.089546785;-0.0118727265;0.0022526688;0.05849861;-0.06752888;0.16009963;0.2603434;0.17314877;0.017219786;-0.029664654;0.2164736;0.20539175;0.021759538;-0.18751469;-0.10691421;-0.055275284;-0.08041645;-0.2671068;0.04328754;0.08871364;-0.05517609;0.061516147;-0.13322014;0.06030263;0.042666968;0.11980568;-0.041302767;-0.004631994;-0.036210038;0.012765852;0.10424809;-0.059987687;-0.05742463;-0.10938932;0.17475706;0.04051083;-0.18794419;0.108539775;0.054092888;0.10141195;0.23553994;-0.106773496;-0.13007137;-0.0065373206;0.009952363;-0.12111417;-0.2947825;-0.110420115;-0.18228155;0.104297556;-0.031877737;0.03112118;-0.18727541;-0.04892939;-0.26814044;-0.06035871;-0.05134669;-0.06468314;-0.09087306;0.036659773;-0.21754616;-0.0033168993;0.055343322;-0.2507049;-0.03195468;0.17287198;-0.005511711;-0.064864576;-0.07650734;-0.04585973;0.081231;0.1501543;-0.029319894;0.0015092491;-0.09309757;0.055804837;0.23332366;-0.11529168;0.061230287;0.062315874;0.0904953;0.019854736;-0.03005759;-0.0039250394;-0.0037962904;-0.090133704;0.0678783;0.13889262;0.04405895;-0.21759206;-0.06994257;-0.047801543;-0.007834428;-0.108245045;-0.08044756;-0.054638293;-0.040082306;-0.07948222;0.08542983;0.065028384;0.0076755565;-0.14813009;-0.072655275;-0.117504746;0.1697669;-0.18846126;0.012894561;-0.07207797;-0.15180406;-0.3454455;0.085945725;0.027200066;-0.13344406;-0.080470726;0.035706814;-0.012045025;0.14112687;-0.17100397;0.086300395;-0.15097648;-0.09424482;-0.13638228;-0.15709484;-0.07448244;0.06735654;-0.06473849;0.009591522;-0.10574581;-0.057617113;0.104289286;-0.13974848;-0.02301224;0.0043807137;-0.13293006;-0.009239771;0.025990196;-0.079100884;-0.07499683;0.14677855;-0.10282396;0.18354495;0.022937283;0.009012567;-0.2502097;-0.019882966;-0.07147925;0.10759215;0.019377839;0.050372686;0.12751845;-0.09676695;0.15146405;-0.013356223;0.007145681;0.1003765;0.0026137542;0.082282;-0.03848846;-0.022151371;-0.17453735;-0.19606535;0.027941192;0.017145067;0.15147658;-0.34857613;-0.0022474579;0.0991484;-0.01867923;0.0066581387;0.15428667;-0.19665831;0.08972005;0.278079;-0.02204793;0.04790374;0.09911457;0.19160886;0.10141273;0.1265254;0.107588306;0.0741445;-0.002930705;-0.037683748;-0.14120983;0.045881167;-0.1376704;-0.06750091;0.020329006;0.15230668;0.1330535;-0.095304035;0.120287776;0.15901957;0.12221095;0.075083286;-0.14977765;-0.1511915;-0.25009117;0.014463848;-0.19695899;-0.053601358;-0.0052643167;-0.17753471;0.014424053;0.12688419;-0.019898595;0.00967716;-0.033308566;-0.01748454;-0.084310204;0.026770748;-0.13961127;0.15271193;-0.24528652;-0.0042353156;-0.0246974;0.019789461;-0.05035203;0.11710809;-0.114434876;-0.05381656;-0.21890251;0.018475324;-0.01989703;-0.1723064;0.10583324;0.0024983927;0.05678081;0.097698785;-0.07982449;0.007589998;-0.018569855;-0.21870796;0.013554016;-0.1642743;0.04222967;0.13865532;0.07049716;0.16486013;0.015082603;0.13145961;0.014678603;-0.15427478;-0.016629018;-0.075596616;0.053540766;-0.111745514;0.0991533;0.026497567;0.06300685;0.11543818;-0.07978866;0.1108837;0.073810644;-0.070893645;-0.13919327;0.0015345125;0.07130508;0.001211331;0.01809504;0.20735726;-0.14468935;-0.08732685;-0.19506222;0.01717523;-0.035732593;0.026122486;0.02292725;0.081972465;0.115846984;0.13230187;-0.08995943;-0.036925513;0.09761898;-0.023706874;-0.0734077;-0.06001104;-0.005412415;-0.22921902;-0.037541628;-0.026671464;-0.433433;-0.07592919;-0.22715898;-0.33367518;-0.5203312;-0.23516436;-0.039430846;-0.077714734;-0.14242949;-0.24304102;0.09923112;0.064553544;0.030020228;-0.20510556;0.118759796;0.20430923;0.26246008;-0.097195715;0.13960019;0.039413165;0.17712022;0.03806928;0.1484552;0.08093453;0.16430071;-0.06138187;0.121458784;-0.024177717;-0.08299563;0.09286599;0.078426264;0.10410087;-0.04027529;0.07516338;-0.06741357;-0.04528053;-0.087916695;-0.115126945;-0.048254374;-0.10057355;-0.011347537;0.11093015;-0.041380867;-0.14355524;-0.06983282;-0.02044425;0.045821752;-0.10663634;-0.034707777;0.2925614;0.078793906;0.05332339;-0.14549065;0.024990441
-0.0038925388;0.14799803;-0.017801931;-0.119282715;-0.16820857;-0.32526916;0.019975435;-0.080939226;-0.10818897;-0.1287071;0.028648479;-0.1062642;-0.067531064;0.10516315;-0.06370577;0.005253113;0.06551313;0.014929105;-0.15701593;0.034507312;0.035253;-0.11261875;0.07377567;-0.029787147;-0.150306;-0.11548472;-0.07928223;0.07615361;-0.018160494;-0.4155163;-0.041344948;0.18886817;0.030775364;0.02496242;-0.03874431;0.084944546;-0.0060038106;0.15461816;-0.19182797;0.13091879;-0.06659002;0.07715852;-0.12580588;0.124587566;-0.14181826;0.058811333;0.13553706;-0.11807378;-0.016604777;0.17370474;0.0014013472;-0.17053348;-0.056294315;0.06449285;-0.03496486;0.08610837;-0.17596166;-0.12533376;-0.09616565;0.016123423;0.050836172;0.04098349;0.1335119;-0.054717783;-0.07338692;0.118941806;-0.0709417;-0.0759995;-0.030556835;0.19550806;0.1837372;-0.008048338;0.059331525;0.08321832;0.016826367;0.041965645;0.14030239;0.0530046;-0.23100933;0.036731232;0.073794246;0.13064417;-0.114195146;-0.2148318;0.1359243;0.021966994;0.03775064;-0.13331889;-0.31443772;0.083174005;0.059595473;0.0031418256;-0.079673775;-0.022570884;0.14702629;-0.08621397;0.07536718;0.013078001;0.15430637;-0.11717317;-0.104564786;0.013981203;-0.040469307;-0.010607277;0.13345297;-0.058940217;0.09973602;-0.050352957;-0.14143658;0.042002294;-0.28088492;0.1207475;-0.03385211;0.03247127;-0.08346052;-0.05608934;0.044112664;0.0353492;-0.079534724;0.11912736;-0.20296466;-0.18678144;-0.1255277;-0.007380652;-0.13438012;0.034856994;-0.03245568;-0.0628314;-0.005483899;0.06451945;0.2160607;0.16225073;-0.22883199;0.034280747;-0.0019355927;-0.018260155;-0.039554644;-0.015294139;-0.07581455;-0.033391215;-0.12973644;0.046591617;-0.027963847;-0.023743508;0.0064356215;0.15616608;-0.09857591;0.07108146;0.042437814;0.010679733;0.06849982;-0.021419315;0.16090403;0.015854277;-0.13149603;0.03345413;-0.17534003;0.13314053;-0.21119978;0.012727255;0.11439611;0.14903252;-0.12404872;0.04608714;-0.048219804;0.016650341;-0.11523034;-0.10150023;0.07464331;-0.08414262;0.22601496;0.042494904;0.020961963;-0.0035669664;0.04382484;-0.110043995;-0.14369412;0.087077625;0.0055071283;-0.0492887;-0.09806065;-0.07487715;0.04961963;0.012571978;-0.20699835;0.00384195;-0.16858268;0.07298596;0.15480018;-0.12371115;-0.043201346;0.03674354;-0.08820755;-0.14353961;-0.27576566;0.08604274;0.019050138;0.020345813;0.05524936;0.20224354;0.16493765;-0.017222157;0.08302609;-0.06042073;0.11859068;-0.005447285;-0.032030962;0.0648126;0.000746035;0.14057761;0.01130471;0.009390832;-0.035422917;0.109125964;0.10436913;-0.15892085;0.016433164;0.08285369;0.01450507;-0.10869401;-0.014000763;-0.05798495;0.01718982;0.0046337447;0.14983067;0.06778634;0.15869966;0.014931575;0.06881307;-0.1676259;0.06527427;-0.051804364;-0.1612224;-0.1393322;-0.05429941;0.18684663;0.109453864;-0.117306575;0.025614055;-0.009396983;-0.074878655;-0.06669774;-0.101182625;0.07935807;0.24370699;-0.116032295;0.14229444;0.29476994;-0.056620557;-0.03177702;0.009568515;0.22784881;0.0636399;-0.07271018;-0.13754643;-0.12932037;-0.14464982;-0.11162472;-0.22360615;0.038833495;0.012238722;-0.10052769;0.016600465;-0.01815686;0.04587829;-0.07979822;0.01757472;0.028141193;0.12264925;-0.08305397;-0.20010786;-0.010158531;0.07098973;0.041785408;-0.11174318;0.25472194;-0.031721633;-0.007747608;0.19483891;0.07281532;0.09106014;0.1764784;-0.045939557;-0.32150772;-0.11361334;0.016094292;-0.15649351;-0.2394083;0.047201723;-0.17090176;0.061799493;-0.045239016;0.116596036;-0.22289227;-0.1587832;-0.0974386;-0.12504096;0.14161992;-0.10555257;-0.088357806;0.015333865;-0.12576024;-0.13390727;0.006419509;0.06828851;-0.1768135;0.103703566;0.049062815;-0.04790124;-0.032445084;0.0502148;-0.00025752434;0.1049168;0.074332885;0.04575695;-0.12297743;0.04262301;0.18980783;-0.15610488;0.0004011092;0.052087344;0.024304455;-0.03704997;0.05418;-0.034680646;0.031429403;-0.015125694;-0.055949748;0.033565816;0.16929102;-0.03752375;-0.032435182;-0.15172783;0.009030526;-0.008421182;-0.15664437;0.169311;0.008908371;-0.11526572;0.11991147;0.13370521;0.07205189;-0.24156769;-0.052806273;-0.19699958;0.18832657;-0.24657513;-0.066155836;-0.00082926836;-0.14301868;-0.29081672;-0.05475351;0.003959884;-0.10049928;0.09083902;0.0064678444;0.085313186;0.21941744;-0.13315438;-0.0037544568;-0.05982326;-0.13374926;-0.014622088;-0.16839889;-0.14458792;-0.009911588;-0.0809608;0.0991396;-0.12103098;-0.016401945;0.008645373;-0.010254579;-0.10499356;0.05568065;-0.12890117;0.1712914;0.15035161;-0.20641816;-0.27177313;0.17048997;0.1639295;0.19989848;0.103493966;0.18409128;-0.07137488;-0.028475907;-0.03071462;-0.04752445;-0.058059465;0.0070757004;0.07987568;-0.06776887;-0.029000625;-0.047347706;0.0369447;0.045280382;0.08577577;0.10373258;0.097454734;0.053457968;0.034320068;-0.11175035;0.14414181;-0.0049754144;0.110171445;-0.25622085;0.020024508;0.07835497;0.081082985;-0.00357959;-0.10570261;-0.074646175;0.20407651;0.21406417;-0.010818655;0.0141958725;-0.07519019;0.019029757;0.09247153;0.062431283;0.13520414;0.06828644;0.016936053;-0.04146789;-0.14711852;0.061764173;-0.1397649;-0.12765062;0.105703;0.044404402;0.1783817;-0.055840336;0.04926794;0.1132264;0.10852782;-0.061174385;-0.35308015;-0.13125105;-0.15318984;-0.12345854;-0.34650692;-0.017537704;0.04749048;-0.04797944;0.0028912844;0.16608521;-0.048550412;0.07256369;-0.03232846;0.048570074;-0.03810753;0.10085391;-0.16427793;0.153872;-0.25577536;0.055895023;0.040282384;0.10473055;0.038723566;0.09812303;-0.14227434;0.0700904;-0.108473435;0.03797412;0.076014295;0.051335078;-0.07878845;0.0009669513;0.084464826;0.061850615;0.082827225;0.06947659;-0.008301171;-0.037139986;-0.08551019;-0.089620605;-0.13253471;0.051077094;0.046971932;0.17159615;0.18363701;-0.01232727;0.043900836;-0.17511582;-0.0389678;0.015173178;0.0025283848;-0.018263994;-0.043900408;-0.052090194;-0.04515494;0.1433483;0.051961567;0.25074232;-0.040837288;-0.0043234187;0.0053721895;-0.075759366;0.17024077;-0.047844235;0.06716295;-0.0402647;-0.23748748;0.007984608;-0.11707859;0.09385958;-0.11225912;-0.087643765;-0.12119833;0.11815048;0.059679277;0.057264306;0.0058721066;0.018223476;0.096256785;-0.112157054;-0.005558976;0.07438531;0.1714875;-0.16992685;-0.21795197;-0.08374408;-0.3370597;-0.0915801;-0.22962463;-0.14536881;-0.4504249;-0.3333538;-0.036179595;-0.060002204;-0.09763949;-0.08498918;0.114484064;-0.071335815;-0.00787244;-0.2635571;0.10661554;-0.012310549;0.021839548;0.00095825817;0.06401195;-0.21670373;0.1975814;0.029265594;0.0085451715;0.16676277;0.24040881;-0.14954613;0.054549277;0.12915306;-0.14451106;0.028211411;-0.040479023;0.18961185;0.02128892;0.04908236;-0.11901618;0.0077028624;-0.15249278;-0.10443345;-0.11217942;-0.06322668;0.1382127;0.05106925;-0.06746633;-0.16826189;-0.13256942;0.036072228;-0.04006844;-0.032403793;-0.10660104;0.3175584;0.024169754;0.038975555;-0.006526999;0.14696692
0.20420976;-0.04057672;-0.07932669;0.013474637;0.024057107;-0.32133496;0.07216488;-0.064502686;-0.027601376;-0.06958321;0.0256057;-0.11611288;-0.037457246;0.026490504;0.15660132;0.07906372;0.055265266;-0.013496229;-0.048096165;0.14110501;0.12718295;0.06869576;0.09185362;-0.02488619;-0.15177603;-0.21092159;0.004203455;0.06533496;0.0017705295;-0.3816222;0.09604009;0.111880556;0.07008591;0.045894317;0.14980921;-0.091030456;-0.11717175;0.05017116;-0.0376861;0.15042442;-0.07889299;0.12913595;-0.19442141;0.09929734;-0.28329715;0.059060566;0.006587122;-0.14342555;0.034923688;0.030827455;-0.0059887907;-0.16608018;0.03257633;0.022792978;0.047866207;-0.08295708;-0.097694196;-0.009458522;-0.1437984;-0.14522526;-0.1188664;-0.048847765;0.2036322;0.041884184;-0.03028693;0.117328;-0.014166438;-0.14804848;-0.11910966;0.06686965;0.13357984;0.046075247;0.016442183;-0.040556114;-0.0794403;0.105561905;0.21885332;-0.06787322;-0.22534154;0.24928135;-0.052004736;0.14513084;-0.03143035;-0.25826678;0.011695513;-0.034953598;0.06954026;-0.056204885;-0.22945574;0.051024895;0.015402506;-0.09547231;0.07672569;-0.03258564;0.20406145;0.012983342;0.05700693;-0.012406669;0.11247067;-0.085958585;-0.03582819;0.11951532;-0.18901162;-0.07916731;0.09260273;-0.12028696;0.02548961;-0.12141944;-0.16838019;-0.009573497;-0.22683781;0.10573056;0.11569102;0.093361035;0.03526055;-0.0068065207;-0.002562626;-0.026176829;-0.11510915;0.09466525;-0.14821126;-0.09288811;-0.12739591;0.0027174011;-0.0782416;0.08579874;0.04949649;-0.13979386;-0.018611668;0.10962435;0.24845588;0.09667414;-0.09430152;0.049295865;0.09878895;-0.07822884;0.0065515833;-0.10678126;-0.01977893;-0.026524207;-0.036485527;0.037248865;-0.060071304;-0.026331656;-0.03971822;0.13760957;-0.056989554;0.15009438;0.009317075;0.05716251;0.031806596;-0.034297034;0.03686363;0.021786923;-0.16985337;-0.012630526;-0.07886964;-0.09705239;-0.16079803;0.15043017;0.026579808;0.024903156;-0.1256628;0.0818039;0.009510604;-0.05450683;-0.048823696;0.113332294;-0.019834395;-0.1169506;0.108093396;0.056737665;0.020017888;0.013797852;0.06703677;-0.05931471;-0.019322842;0.0762183;-0.071464196;-0.10983251;-0.048975296;-0.09399317;0.12871069;0.087314405;-0.012987042;-0.05997503;-0.08233224;0.034916714;-0.024434997;0.10168787;-0.035124663;0.06590976;-0.15237825;0.058251947;-0.10669491;-0.044249374;-0.03030103;-0.08687713;-0.03635008;0.13863185;0.06092167;-0.035586152;0.1810898;0.0013452403;0.054913618;0.009676435;0.025254453;0.05040818;0.124663316;0.038426243;0.098494165;0.10694494;0.021479953;0.09759258;0.016196629;0.027153172;0.043377325;0.013729291;-0.13126211;0.021037063;0.10313477;-0.11562036;-0.07130347;-0.03746582;0.16088904;0.12509128;0.0164584;-0.032852855;-0.06478543;-0.01564248;0.12713304;0.07559652;-0.13809344;-0.049094852;-0.074492216;0.13870637;0.08758745;-0.04880882;0.14853069;-0.098283075;-0.13013427;-0.20029144;-0.034975;0.0056815664;0.21931772;-0.0063230405;0.049968656;0.2367292;-0.13185723;-0.040513925;-0.06839294;-0.01734329;0.089767136;-0.057488978;-0.22724625;-0.15834104;-0.019573921;-0.05330704;-0.24861206;-0.0050550634;-0.09984018;-0.12997644;-0.12654254;-0.11753227;0.16132633;-0.06469496;0.03477321;0.087568;0.03754656;-0.0018683785;-0.014667574;0.13240169;-0.03966126;-0.047306616;-0.19384557;0.1734244;-0.08179873;-0.0041498947;0.081492424;0.068180546;0.1235308;0.11069279;-0.06356603;-0.28245676;0.051428713;0.03204765;-0.0024315359;-0.37170437;0.116559654;-0.20209028;0.02946854;-0.012299753;-0.04586752;-0.13780747;-0.18156174;-0.107452594;-0.0431815;0.081019394;-0.16834277;-0.06102537;0.04342489;-0.18302722;-0.011576246;0.037408404;0.05991414;-0.22033131;0.087126546;0.05799918;0.02598478;-0.13034025;0.04632541;0.087311134;0.20476145;0.067584634;0.026972614;-0.13715294;0.042600352;0.17694786;0.04474577;-0.010908811;-0.02845954;-0.14287291;0.02593963;-0.013705467;0.025056321;0.20983422;-0.30185866;0.007940776;-0.02676245;-0.055142097;-0.11377504;-0.054407932;0.014508496;0.01467738;0.01744975;-0.29193303;-0.049454756;-0.061209343;-0.0074880132;-0.08408993;-0.08276411;-0.03590956;0.04595509;0.04777721;-0.1891207;0.20834036;-0.096384525;0.18786937;-0.080711864;-0.15546216;-0.13856387;0.139856;-0.12255648;-0.053723548;0.002671785;0.016936665;0.065535426;0.27679172;-0.03140695;0.052147377;0.0903185;0.02080218;-0.13547672;-0.067123555;-0.09694294;-0.0142596895;0.031553455;-0.027613616;-0.07732817;-0.016883591;0.046640817;-0.106953815;0.035974696;0.13601424;-0.057090618;0.13897946;0.23145592;-0.0626783;-0.13929087;0.09799144;0.12826152;0.11078946;-0.000803126;-0.047203258;-0.11072209;-0.16828896;0.06906855;0.101488106;-0.017478757;-0.012417685;0.02060141;-0.09291569;0.120835856;0.01410121;0.025221206;0.035544246;0.04817608;0.14689393;-0.0994164;-0.025928237;-0.07465738;-0.09909637;0.048746776;0.11494437;0.22366464;-0.20004782;-0.00025883457;0.1328002;0.027537495;-0.010029536;-0.0986601;-0.098817825;0.24730209;0.09945448;0.119359545;0.16521353;0.16490526;0.09402225;0.15333708;-0.04557221;0.06617977;0.0618183;0.13270906;0.03604104;-0.033738334;0.06457339;-0.067847334;-0.023761619;-0.019917531;0.17557648;0.0066910903;-0.08885858;0.0069634845;0.02280281;0.19303471;0.009279438;-0.1639311;-0.088688985;-0.12777327;-0.0015226942;-0.3026395;-0.16534282;-0.06056864;0.024818556;0.059044935;0.1426583;-0.037327472;-0.01921296;-0.025262129;0.054014593;-0.03632887;0.1511243;-0.2617271;0.098765306;-0.27681273;-0.06701016;-0.011623221;-0.13019422;0.09491588;0.056264456;-0.1952703;0.12705456;-0.09012174;0.21232627;0.08006535;-0.07673509;0.09047535;0.050120376;0.06462824;0.07923188;0.044144496;0.05368314;-0.048592422;0.0912279;-0.02226879;-0.10475578;-0.05343204;-0.06089164;0.045245282;0.13657746;0.24024205;0.017351586;0.11574036;-0.0054333066;0.03112555;-0.034502268;-0.061136782;0.024991335;-0.051792312;0.098169126;-0.041994993;-0.061932366;-0.13509664;0.13438389;-0.017271303;0.074244946;-0.08169727;-0.052463666;0.007718162;0.03540789;0.043581534;0.10469213;-0.048987634;-0.12281283;-0.057866275;0.0050478955;0.13589163;0.03710669;-0.09912182;-0.05803147;0.15830015;0.12035969;-0.008035909;-0.01698738;0.041713934;-0.016326172;-0.12627573;0.11694144;0.045701195;-0.110452466;-0.19991124;-0.050619557;-0.2558367;-0.0383904;-0.15217716;0.101852536;-0.27069697;-0.24415517;0.06542743;0.03662071;-0.14172544;-0.11097014;0.14937876;0.12400301;-0.016940689;-0.25329998;0.16518213;0.042671017;-0.13956979;-0.030922154;-0.13282566;-0.25968447;0.104979925;0.033512395;0.067323446;0.13656878;0.22504517;0.02465775;-0.078182764;0.07343296;0.001356136;-0.0021557377;-0.06593266;0.07823506;0.026202153;-0.06267356;0.11454114;-0.11799683;0.059374593;0.14356053;-0.05835074;-0.19963929;0.15077338;0.058013655;-0.17073098;-0.31206456;-0.17607716;-0.010012598;-0.046945855;0.014531184;-0.046775125;0.36484748;0.045146916;-0.028357552;-0.009590655;0.04036044
0.09650798;-0.009366591;0.022235036;0.030503126;0.036272172;-0.27328056;0.21217838;-0.093210734;0.022562388;0.13383946;-0.059161447;-0.2154349;-0.10475393;-0.1015313;0.04413945;0.023561796;0.11985226;-0.06916101;-0.114662565;-0.012301428;-0.051325418;-0.04319169;0.13670206;0.052197758;-0.09956825;-0.17697251;0.012642012;-0.066008665;-0.13927871;-0.45507947;0.081429586;0.09978181;-0.044447135;0.20407803;0.1421032;-0.09454401;-0.07538479;0.010729354;-0.118634604;0.12964916;-0.121049896;0.052113917;-0.1681039;-0.012625959;-0.2698857;-0.00045486705;0.1054065;-0.11563358;0.054932788;0.079551294;0.021984093;-0.099907555;0.1674586;0.041056246;-0.04402187;0.018682664;-0.088127054;0.029361065;-0.14517392;0.0004400656;-0.081788264;-0.030478284;0.0069972896;0.008984627;-0.03324677;0.08801407;-0.087520525;-0.13509695;-0.17808114;0.06431579;0.064831264;-0.19859941;0.17594163;0.051957577;-0.022273501;0.19604428;0.19585279;-0.08648016;-0.0896621;0.16721804;-0.04502655;0.09654816;-0.058450684;-0.06421098;0.029836819;-0.09758533;0.05415454;0.039731495;-0.37925947;0.08550387;0.024721501;-0.08181137;-0.046051495;-0.015526939;0.09317016;0.01346219;0.062826276;-0.08511005;-0.0856784;-0.018857522;-0.13121456;0.1844635;-0.22146006;-0.11032486;0.08108819;-0.16878065;-0.12082467;-0.23112446;-0.04164289;-0.04907739;-0.16109368;0.14478248;-0.021490471;0.054501;-0.11409647;0.010248868;-0.059628814;-0.017335597;0.015563489;0.053906124;-0.32263926;-0.011230749;-0.041363053;0.022941656;-0.102136046;0.14719833;-0.048074607;-0.13403536;0.015881456;0.051624827;0.16406368;-0.025274249;-0.09177629;0.011297967;0.02113901;0.013433917;-0.003879613;0.023672026;0.106765136;0.024304224;0.021994594;0.059500754;0.026600232;-0.06154837;-0.10005927;-0.017672883;-0.09426225;0.102333225;0.12991878;0.042259373;-0.01658912;-0.08192573;-0.0243347;0.085724674;-0.064571485;0.1120285;0.015720312;0.0267268;-0.17058066;0.06878627;-0.035410393;0.12763329;-0.064968124;-0.022662418;-0.0023784474;-0.039692096;-0.06676926;-0.053524338;-0.009310186;-0.155167;-0.050672844;-0.0012698187;0.07811117;-0.041761305;0.011305221;-0.08662513;-0.1216529;0.073923305;-0.08359635;-0.017635845;-0.053749844;0.009284875;0.08647617;0.08090528;-0.21592554;-0.044759076;0.16795667;-0.058330048;0.09260901;-0.09109403;0.08698165;-0.011835064;-0.075717546;-0.007918905;-0.123566136;-0.015933795;0.13124578;-0.16864754;0.08064116;-0.027205389;0.10047815;0.029861813;0.01055561;0.04586173;0.26441494;0.063604966;0.015868522;0.13028187;0.06612055;0.044562064;0.11164078;0.08861244;0.05041784;0.025777286;-0.060944468;-0.049460657;-0.13442849;0.059773367;0.10093481;0.018867608;0.059046637;-0.19884777;0.101928644;-0.09081287;0.021455508;0.13808085;0.08111527;0.10549181;0.052726317;-0.11808001;0.073516525;-0.09897297;0.06129488;-0.13261862;0.06200012;0.14892298;0.036615938;-0.0562611;0.069826335;-0.014318108;-0.046726253;-0.25105757;0.04540409;-0.062050957;0.15193571;-0.11437627;0.019949017;0.1106538;-0.061424293;0.06369559;-0.07676448;0.1831259;0.093933254;-0.03514608;-0.08994553;-0.20401847;0.09431951;-0.07473823;-0.2009764;0.07129874;-0.04782382;0.044044826;-0.048373945;-0.15311724;0.08930384;-0.013648521;0.14983165;-0.08205781;0.07005278;0.06450097;-0.16070175;0.006946713;-0.0683462;-0.09400345;-0.13736041;0.122778684;-0.0021531787;0.06017318;0.064405926;0.14934346;0.03148812;0.07477661;-0.23038952;-0.12829168;0.030725745;0.050227538;-0.10867905;-0.13495372;-0.030123953;-0.14431138;0.024284383;0.05859738;0.027693389;-0.06273983;-0.13451263;-0.05441852;0.023326678;-0.023687799;0.089569196;0.018330855;0.13078023;-0.10432183;-0.026981506;-0.028099192;0.034693908;-0.18426268;0.07365227;0.029945645;-0.057953265;-0.030131813;0.10594431;-0.03146655;0.28326115;0.1274824;-0.027785543;-0.17656997;0.07043593;0.2221692;-0.1364856;-0.07674962;-0.015764572;0.06514646;-0.1385867;0.09437123;-0.046485227;0.13148734;-0.217119;-0.058886405;0.08559262;-0.17182317;-0.16892515;-0.21858227;-0.1337507;0.025621433;0.070424594;-0.18321331;0.09794993;0.058838893;-0.09761656;-0.20603684;-0.08460158;-0.026764425;-0.06267516;0.01768884;-0.36517125;0.13966376;-0.07061314;0.015972268;0.082003236;-0.08632748;-0.32978943;0.0038321817;-0.046487033;-0.03251539;-0.046793394;0.055150256;0.03370649;0.35636982;-0.06501166;-0.043661833;0.03862364;0.05953001;-0.14539975;-0.07046484;-0.040337767;-0.011534731;0.18068479;0.11897244;-0.014490738;-0.08831366;0.013305838;-0.037807927;0.018870486;0.06141262;-0.20311305;0.0011307597;0.06168021;-0.047803175;-0.23523685;0.08189798;-0.0651221;0.022153938;-0.10591247;-0.043253724;-0.09793183;-0.06330928;0.07830668;-0.0017613928;-0.00426223;0.015546799;-0.06957822;-0.16899925;0.03314924;-0.012038385;-0.10152107;-0.15280725;0.08905209;0.121713184;0.044345297;-0.02953131;0.031419102;-0.17425919;-0.03010943;-0.018360756;0.11200944;-0.22662784;0.1141238;-0.019865843;0.0394981;0.047950722;-0.039863925;-0.083057575;0.17719592;0.17958836;0.10423348;0.12571691;-0.013076412;-0.11024339;0.098627895;-0.0704553;0.045689493;0.13170497;0.0039734924;0.10263191;-0.075970344;0.03538907;-0.0059760697;-0.038053967;0.06242464;0.21542008;0.18374524;-0.1570127;0.053831607;-0.14725393;0.15462995;-0.14887731;-0.1366555;-0.13971078;-0.15947376;-0.059467554;-0.18165073;-0.113178454;-0.01760904;-0.08006115;0.045550976;0.0988952;-0.1632718;0.050170638;0.11921374;0.12695083;0.017622765;0.0067328755;-0.1823941;0.036660112;-0.16972123;0.060323488;0.09881421;-0.11358737;0.092224084;0.09539962;-0.21955074;0.13382263;-0.053519875;0.14011998;-0.011648358;-0.09104625;0.010290592;0.014068921;-0.039835297;0.05100109;0.07594969;0.015421341;0.21095961;-0.0014685369;-0.028899336;0.014290227;-0.032987468;-0.029338751;-0.004384329;0.12963662;0.075214274;-0.13426928;0.3614659;0.009152303;0.038430694;-0.06636057;0.020683432;0.02964718;0.0036115416;0.08185147;-0.089751825;-0.12908599;-0.10908547;0.10063548;0.033020377;0.034375433;0.034553014;0.019588975;0.08555656;0.013813831;0.0649929;-0.067391396;-0.07418866;0.12175638;-0.053886805;0.105934;0.0893967;0.108728506;-0.25690186;0.006742172;0.04113024;0.24910338;-0.030215096;0.017112268;-0.1251536;-0.08445437;-0.14310202;0.059127983;0.021806411;-0.21593855;-0.19018276;0.08270667;-0.14876841;0.0061762272;-0.13162223;-0.08536015;-0.20505561;-0.035305843;0.0143780755;0.057412367;-0.095875934;-0.19321002;0.066898525;0.02665785;-0.038462814;-0.10720529;0.17831913;0.022639206;-0.24121402;0.045784276;-0.1167001;-0.161423;0.16068357;0.2659519;0.014211701;0.17146519;0.08469377;-0.028937675;-0.03004885;0.21318412;-0.0024966004;0.0016832015;0.03936415;0.13022494;-0.07017453;0.008450328;0.09090095;-0.05104397;0.0028744652;0.02741317;-0.08107502;-0.09235552;0.054592088;0.09497565;-0.11710612;-0.14438878;-0.04477896;0.022906285;0.13236474;-0.16343151;-0.049862254;0.3516415;0.034216836;-0.18937202;0.0980009;-0.058802795
0.17543459;-0.096607655;0.09511898;-0.10563675;-0.06471394;-0.18307516;0.24156252;-0.09085916;-0.037478235;0.13873516;0.009126495;-0.27895513;-0.031438462;-0.09836706;0.086191595;0.08151662;-0.0679299;-0.032305796;-0.09393701;-0.023465822;-0.073440485;0.02494678;-0.14179042;-0.021750402;-0.2073414;-0.10956764;-0.003880646;0.020098403;-0.2041881;-0.40435487;0.05115891;0.026253873;0.024023723;0.19252332;0.043675136;-0.07420433;-0.020314869;0.021741824;-0.008976082;0.09790078;-0.03205139;-0.015543999;-0.11673026;0.007236869;-0.23274884;0.022562707;0.05065679;-0.09653445;0.12552667;0.20163734;0.044753622;-0.075924546;-0.00833164;-0.080278054;0.07631298;-0.09091162;-0.030850694;0.040764816;-0.10374025;-0.078496985;-0.024421455;0.06427654;0.053605255;0.018139867;-0.14861983;0.022936989;-0.18745302;-0.10190218;-0.021866554;0.034799416;0.06493835;-0.11645366;0.08600134;0.07751745;0.10555003;0.154394;0.17791228;-0.15687741;-0.17174976;0.12440633;0.08953423;0.047356445;-0.012047683;-0.15721534;-0.06536881;-0.042144503;0.027812501;-0.10844681;-0.30992225;0.021234177;-0.04896652;-0.18899812;0.025550192;0.04682743;-0.024987463;-0.22882746;0.07354211;-0.1476258;-0.07548107;0.056481548;-0.033809233;0.09925615;-0.15767641;0.059667416;0.12470767;-0.12081262;-0.040168427;-0.14524259;0.009910575;-0.19499972;-0.15721355;0.20626473;0.07472254;0.039355088;-0.021888133;0.029205322;0.048906848;0.083489716;-0.00025074836;0.03527061;-0.03742099;-0.03353869;-0.17922686;0.0010444737;0.092554666;-0.02320568;0.1100782;-0.048591346;0.06507693;-0.019735008;0.040423222;0.029300503;0.053323545;0.01955009;-0.09373163;0.08908086;0.09855369;0.013891334;0.016436595;-0.12409565;0.09414898;0.083749555;0.18351766;0.014883114;-0.121292;0.120335236;0.049829602;0.079676844;-0.0076020635;-0.07418272;0.073628105;-0.1332906;-0.07607986;0.004426373;-0.06368039;0.06572343;0.13360544;-0.1470371;-0.25660726;-0.046730105;-0.04620555;0.054645523;-0.14484285;0.04454265;-0.008684157;-0.00041128177;-0.16174303;-0.10234576;-0.02539266;-0.13962162;-0.19166848;0.19475283;0.15421802;0.053177875;0.11628623;0.04134122;-0.052589446;-0.07774737;-0.0027029077;-0.09359797;0.153692;0.059883542;0.13369437;0.12766062;-0.22351646;-0.06227045;0.080224596;0.10390086;0.11861167;-0.111936636;0.022494;0.12201915;-0.048961025;-0.092371315;-0.07183979;-0.06150625;0.20227371;0.017369293;0.008804833;-0.05634759;0.06413861;0.043370504;-0.013467491;-0.12097171;0.25564232;0.11464556;-0.22716027;0.0204279;0.13384315;0.12399232;-0.0272365;0.08710613;0.0897928;0.04178574;-0.16897674;0.02004345;-0.120674744;-0.033270173;-0.0565531;0.12270828;0.16232908;-0.029577885;0.102826014;-0.03692753;0.08483715;-0.027139327;0.12277878;-0.08334598;-0.0030682774;-0.07473983;0.07806398;-0.0038471606;-0.015077518;-0.077868685;0.13872376;0.14536674;-0.029490825;-0.09831986;0.08811477;0.025530081;-0.091824874;-0.1189521;-0.015681779;0.1214303;0.050539546;0.07733706;0.15319355;-0.03392535;-0.102828436;0.08752957;0.14837384;0.081134014;0.12111056;-0.08532665;-0.088695355;-0.2534529;0.03621052;0.07914415;-0.1744413;0.042174563;-0.018256543;0.034967054;0.06413156;-0.098217696;-0.043221623;-0.08546111;0.18065566;0.104017824;-0.06830731;-0.016378356;-0.08496327;-0.07380202;-0.108130865;-0.19668597;-0.16477424;0.042320374;-0.1433886;-0.025215682;-0.1045307;0.0020185034;0.09790439;0.013466866;-0.2394732;-0.22397585;0.055127416;-0.17752036;-0.07028402;-0.18872528;-0.053470667;-0.2646737;-0.08753581;0.11606284;-0.010203616;-0.12133728;-0.039671164;-0.058079805;0.05473951;-0.020016732;0.020023417;-0.057720978;0.0033153354;-0.16534337;0.21590419;-0.00579074;0.07407334;-0.1702781;-0.058064178;0.10638035;-0.0353155;-0.016780006;-0.037550885;-0.09112925;0.26526257;0.11374629;0.011730831;-0.2043469;-0.1109972;0.21017161;-0.1504615;-0.00969478;-0.026397305;0.12314628;-0.09933268;0.0093320655;0.010359919;0.16702153;-0.2964938;-0.026908962;0.06319875;-0.19327489;-0.034267895;-0.2116071;-0.038352255;0.08887711;0.020892264;-0.06115942;0.070542425;0.19924265;0.004221793;0.14381821;-0.108134635;-0.022201473;-0.042409103;0.15044582;-0.23896128;0.088589795;0.10796287;0.051063273;0.100204214;0.1157297;-0.377019;-0.044157375;-0.1549622;0.056288227;-0.0568412;-0.103850126;0.0012472135;0.28209227;-0.02800039;0.06433192;0.08749347;0.17049024;-0.24551445;-0.110561155;-0.105332;0.045045152;0.26206028;0.1761022;-0.052217335;-0.11150727;0.013804274;-0.1194455;-0.13300261;-0.024162197;-0.2467921;0.0007759569;-0.019560391;-0.08876869;-0.13870469;0.06447115;-0.13927253;0.06549485;0.016121354;0.05683837;-0.09740325;-0.10113661;-0.12692066;0.12485201;-0.10687402;7.6181277e-07;-0.17575414;-0.1936576;0.20495313;-0.06067573;-0.042498656;-0.080937155;0.030527143;-0.009449669;-0.047510084;-0.13188842;0.09323527;-0.10471809;-0.07432018;-0.102950126;0.14966679;-0.16922498;0.11883841;0.080452695;0.013121211;0.050790135;-0.04926286;-0.07823027;0.20202537;0.031944808;0.11650596;-0.08730294;0.15934792;-0.17529617;0.064908504;-0.11136402;0.015111124;0.13110064;0.17513016;0.10961806;0.083406836;-0.092316985;0.0037929867;0.09705191;0.077943094;0.15793131;-0.0045908196;-0.07061149;0.021347804;-0.08771001;0.1519517;-0.3672409;-0.0053726826;-0.12030962;-0.028343124;0.12691127;-0.06423297;0.086045496;0.024436597;-0.04481063;0.21170188;0.016168684;-0.11570447;-0.051467933;0.07101654;0.057240468;-0.04557001;0.13369052;-0.016591495;-0.13822721;-0.23595193;0.080234565;0.049102377;-0.011007237;0.14587887;0.0021754694;-0.21351877;-0.015485189;-0.10739299;0.21600753;-0.07770725;-0.07077791;0.13162859;-0.13649505;-0.07476983;0.06781791;0.07174385;0.07923065;0.18002045;0.10503702;0.051471937;0.14342245;0.0211253;-0.14081284;-0.0039217807;-0.005964656;0.07875464;0.07169215;0.25672293;-0.10792124;0.031495843;-0.12049738;-0.07293238;0.076949276;-0.007879908;-0.05478652;-0.10943635;-0.082115054;-0.15713899;-0.028943386;-0.07866045;0.07499088;0.1377711;0.23198551;0.042408176;0.03947649;-0.03375315;0.115350164;0.0043636044;0.21354394;-0.0072299964;0.07826066;0.12696278;0.18839152;-0.28492096;-0.112181164;0.063190624;0.151516;-0.08619522;0.11054636;0.0029295057;-0.005272855;-0.1259164;0.107939385;0.034970496;-0.12743162;-0.096791886;0.06526726;-0.23254119;0.052621007;-0.12615569;-0.111335166;-0.051921718;-0.18761179;-0.042298555;0.039846044;-0.06333313;0.009370816;0.05961851;0.17016149;-0.019457975;-0.20616618;0.15806545;0.09847657;-0.19674692;-0.028746443;-0.058194496;-0.020480873;0.10426918;0.20596804;0.114445426;-0.11254231;0.032183204;0.041059487;0.11061032;0.18546896;-0.074728735;-0.029611988;0.041951254;-0.04043252;0.082102865;0.062671244;0.10223722;-0.05065726;-0.0629994;-0.014937281;-0.14004335;-0.14389232;-0.00943761;0.02475427;-0.08734748;-0.1428792;-0.0008169785;-0.014981934;0.10002001;-0.18553343;0.0679681;0.11259142;0.16099906;-0.022863686;0.16213834;-0.023627559
-0.0017708427;0.0383889;0.046807773;-0.021814298;0.025643442;-0.27216578;0.15234357;-0.024172708;-0.023876322;0.1013389;-0.019018274;-0.18974456;0.03533441;0.02306393;0.013113975;-0.0193387;-0.19208995;-0.08778009;-0.1414029;-0.06613554;-0.08051475;-0.04005538;0.022030208;0.17488167;-0.10808832;-0.18894795;0.0011249618;-0.009070756;-0.0998033;-0.39075333;0.07492297;0.06822749;0.06144843;0.036179997;-0.1485763;-0.0813576;-0.009673169;0.033341985;0.015519538;-0.038858492;-0.026387764;-0.08855722;-0.0044066743;0.02936717;-0.12019638;0.0787629;-0.055368107;-0.085980505;0.043486606;0.15581691;0.019992925;-0.2899203;0.015739128;0.097159855;-0.07349433;0.13705735;-0.13522956;-0.039533217;-0.10080188;-0.04710404;-0.05688419;0.09535012;-0.010498247;0.10221366;-0.22572194;-0.052217133;-0.017931689;-0.1342939;-0.1102583;0.0039287857;0.0899342;-0.17700188;0.06761204;-0.022092793;-0.0013067885;-0.008454709;0.038891762;-0.1732513;-0.123567544;0.19337703;0.07657043;0.030844944;-0.09939832;-0.11635173;-0.10896864;-0.21117224;0.015857205;-0.097776555;-0.44222844;-0.075271934;-0.07026959;-0.15289712;0.10031933;-0.008996983;-0.05904544;-0.14159203;0.029827349;0.001143263;0.0043122848;-0.04483403;-0.1274678;-0.019857397;-0.085276484;0.22015977;0.18645409;0.15309821;0.037139047;0.0405329;0.10954487;-0.1834196;-0.097858;0.21402834;-0.0016780738;0.029219966;-0.0012673888;0.056947865;-0.014060394;-0.0847298;-0.13210067;0.09927918;-0.15646341;0.0052642324;-0.102225624;0.03721824;-0.007918055;-0.028390175;-0.013674405;-0.06004099;0.053701125;-0.051068958;-0.025009813;-0.07496922;-0.030811287;0.055104427;0.024774453;-0.029385412;-0.13328588;-0.02061935;0.0012849881;0.020574687;0.07298746;-0.061457723;0.11964945;0.059045885;0.011343973;0.16056521;-0.117201105;-0.039919093;0.022672057;-0.13033186;-0.012847762;0.00886636;-0.042842127;-0.023124706;-0.18722893;0.06517141;0.11433685;-0.054870777;-0.25327092;0.041856993;0.047011826;0.037523847;-0.1531335;0.06865893;0.029867578;-0.0133250365;-0.30963787;-0.18878788;0.10408452;0.064663224;-0.014760207;0.17845179;0.0028591484;-0.079053484;0.077037424;0.020352302;-0.07520348;0.006084142;-0.02973629;-0.13533024;-0.04019753;-0.06984719;-0.0068639778;0.12922138;-0.095419094;-0.023349464;0.1531014;0.24952339;0.16482736;-0.11771334;-0.008819543;0.0026790781;0.033356626;-0.007043556;0.020393867;-0.016462952;-0.04872581;0.015248172;0.085650206;0.061491717;-0.07287381;0.032160893;0.10923517;-0.057065744;0.2796259;0.18338704;-0.19741279;0.2206427;-0.0103446;0.080175444;-0.03580871;0.07987106;0.14295435;0.06812782;-0.16066714;-0.1312676;-0.17421338;0.06911419;-0.042119395;0.09852956;0.1472832;0.037535653;0.0034294657;0.073907115;-0.10428227;0.2254709;0.044621535;-0.09954169;-0.15564558;0.050330732;-0.10848379;-0.07956308;-0.13156123;-0.049688052;0.13327745;0.11596317;0.17574571;-0.10176458;0.08220559;-0.05201165;-0.018988308;-0.10125002;0.015884055;0.055779207;-0.026643958;-0.020790942;0.0348795;-0.012354653;-0.014718355;0.07202684;-0.026891971;0.21601334;0.028669009;-0.047747597;-0.12595637;-0.051371593;0.15799949;-0.041773308;0.013250002;0.0626959;-0.050150257;0.12821722;0.039930753;-0.12554027;0.04390769;-0.022934398;0.053965434;0.10416014;-0.012177722;-0.09187451;0.032616846;-0.1058219;-0.03190891;-0.09006195;-0.017227512;0.092633866;-0.013846344;-0.039909653;-0.024949584;0.026926529;0.009997877;0.0011297566;-0.2534858;-0.1881927;0.06309328;-0.061800472;-0.16343342;-0.22591038;0.03467447;-0.25130662;0.044551898;0.00065760437;-0.022546751;-0.16217344;-0.119751826;-0.018289538;-0.12732513;0.1206936;-0.087412685;-0.22004324;0.10237651;-0.010098777;0.062394176;0.07632316;-0.011973863;-0.1974297;-0.05864937;-0.080140576;-0.19289277;0.05035991;-0.11178541;-0.19725268;0.22328195;0.13357964;0.1328631;-0.19671974;-0.055308703;0.21134616;-0.1256042;-0.11770798;-0.01586606;0.10834612;-0.07778129;-0.057000812;-0.057753257;0.11633233;-0.19964789;0.0425533;0.00806785;-0.06555603;-0.0654105;-0.2300703;-0.05699812;-0.013340087;0.044374853;0.087489374;0.13570134;0.15873592;-0.22197554;0.11814371;0.037830777;-0.08224763;-0.022514386;0.05402634;-0.0776955;0.06159609;0.06778378;-0.07787588;-0.013190581;0.029874286;-0.44127554;-0.14194658;0.055695906;0.17528535;0.034934994;-0.08896814;-0.06783518;0.05608408;0.03144947;0.09879461;0.12210918;0.13812375;0.03085029;-0.12515242;-0.069893524;0.104139164;0.08309335;0.11612804;-0.021435862;-0.052127346;-0.06446233;0.121541545;0.09137018;-0.13634768;-0.12419008;0.06643086;-0.17206581;-0.20066574;0.0029012284;0.021289544;-0.08284555;-0.030824741;-0.03967401;0.036106214;-0.0165103;-0.044288747;0.052725006;0.049085602;-0.017861927;-0.017633844;-0.1566855;-0.11363923;-0.061144315;0.04026867;-0.038405046;-0.15214065;0.08734595;0.013521124;-0.17145464;-0.052827902;0.0968648;-0.21489844;0.074491985;-0.013282311;0.17599049;-0.24816076;0.076285206;0.1757318;-0.027877228;-0.043156672;-0.13592614;0.08591057;0.3301515;-0.030179523;0.11578741;-0.116942234;-0.007156829;-0.026654128;0.043463327;-0.057066616;-0.12706538;0.12493832;0.04931644;0.18627086;-0.004152016;-0.112761386;0.05288818;0.027569136;0.0163767;-0.049735975;-0.0018897415;-0.282013;0.07927017;-0.040956732;-0.07471385;-0.2096914;-0.03617577;-0.15380567;0.014384466;0.04832301;-0.13238144;-0.03528631;0.09712994;0.063145794;0.21193016;-0.034052897;0.05073882;-0.043746818;0.03565014;0.20183842;0.05397072;0.09247399;-0.09389811;-0.041660972;-0.15863377;-0.055428784;0.19825956;0.0031872254;-0.041660506;-0.08188756;-0.22736256;-0.006614836;-0.147467;0.1984553;-0.0033943134;-0.02881728;-0.007275079;-0.036097735;-0.09972937;0.08793291;0.030768426;-0.04155897;0.10186569;0.082204394;-0.004486205;0.04717811;0.042445455;-0.12326075;-0.011624395;0.06340795;0.092222236;0.103073016;0.37948638;-0.1231917;-0.031083696;0.019623768;-0.061316274;-0.10332447;-0.017587556;0.05022486;-0.11749708;-0.14230733;-0.1241894;0.031456638;-0.018083189;-0.02492018;0.057891674;0.031626675;0.05846097;-0.03524733;0.07905449;0.052183334;0.09754722;0.19513215;0.03800213;0.10270033;-0.10168335;0.18706349;-0.19172783;-0.09198811;0.028872585;0.1981643;-0.11949257;0.05576843;0.07980977;-0.023314135;-0.048608217;-0.010324609;0.006582838;-0.15243839;-0.016783368;0.1487239;-0.09994543;-0.08676562;-0.09718498;-0.07160876;-0.02891851;-0.13007541;0.032196186;0.0077901296;0.04433221;0.05470735;0.17525283;0.09567537;-0.039005242;-0.21758175;0.038232587;0.044741854;-0.0969772;-0.102460876;0.034329165;-0.027250333;0.0021266944;0.23570989;0.030983448;-0.009184729;-0.061108965;0.074275814;0.029189402;0.06390358;0.058301754;-0.03345707;-0.003987748;-0.03364894;0.09962335;0.12619983;-0.059937466;-0.10287088;-0.10501693;-0.10274703;0.009791684;-0.007969239;-0.015542107;0.04781992;-0.16083322;-0.17343397;0.12231781;-0.003636418;0.011208702;-0.11992164;-0.059099548;0.1989868;0.0012995426;-0.1211539;0.1224419;-0.09366686
-0.17235398;-0.20398375;0.09287416;0.13761066;-0.10038734;-0.12521419;0.09870327;0.06617628;-0.06417114;0.20699237;-0.091626994;-0.28357238;-0.10434849;0.055543896;-0.011709934;0.12451105;-0.0013576464;-0.16738132;-0.0692968;0.095707506;-0.22023164;-0.10420925;0.019953636;0.10822509;0.008755244;-0.22305961;0.17996411;0.06065336;-0.10414301;-0.31770065;0.09566499;0.005160845;-0.012045639;0.007811422;-0.043017294;-0.08557866;-0.034462087;-0.04534707;-0.04749683;0.15758877;-0.003923847;-0.042969845;-0.020174323;0.049765386;-0.021086194;0.008473128;0.020117892;0.19808955;-0.035479903;0.15422323;0.010572932;-0.17522074;0.036320332;0.023932857;0.055549044;0.056319453;0.01514926;-0.0045904587;-0.10773559;-0.108407594;-0.11289264;-0.08813408;0.107908994;-0.048397567;-0.10991358;0.011396589;-0.16886388;-0.097232394;-0.017592005;0.13100654;0.14235441;-0.26062855;-0.039633542;-0.01241286;0.026679873;0.028225992;0.17487702;-0.022485202;-0.22499211;0.07269345;0.10922583;0.002202533;-0.00975051;-0.028941123;-0.12528451;-0.030824749;-0.12008737;-0.096057;-0.3621869;-0.026658531;0.0037167615;-0.0555021;-0.026873047;0.042606164;0.073393226;-0.18747042;-0.057713605;-0.08668608;-0.04228243;-0.046638872;-0.09565272;-0.14488743;-0.033162285;0.11014503;0.06912055;0.22826253;-0.07346176;0.106378414;0.07557289;-0.0935739;-0.018656846;0.06443078;0.019964777;-0.058012478;-0.013076142;0.026046049;0.019295458;-0.15225653;-0.059859104;0.00036405967;-0.08567923;0.056251448;-0.036896713;-0.014088794;0.0031095133;-0.053710166;-0.059212122;0.06859868;-0.019986907;-0.04080928;-0.02972855;-0.069768526;-0.0052491934;0.04383863;-0.035883702;0.19856802;-0.11845846;-0.009474665;0.07514589;0.040235296;-0.06307362;-0.018184638;0.0047553503;0.10772331;-0.06750495;0.12865815;0.02635705;-0.0840615;-0.016465275;0.105491094;0.04690761;-0.105503134;-0.036319863;0.011496378;-0.2032616;0.08151555;0.11171486;-0.033303432;-0.31637806;-0.05552212;-0.0046801404;-0.13897756;-0.004684479;-0.025905758;-0.034337528;-0.010078873;-0.4216981;0.038294587;0.054431733;0.09208853;-0.19693145;-0.014701433;0.06978709;0.012486305;0.15890288;0.041592266;-0.23339887;0.058407933;-0.008998365;-0.04955205;-0.055396236;0.092294686;0.031458955;-0.03456574;-0.27866992;-0.195078;-0.0057530096;0.14734033;0.073338926;-0.01729227;0.13016583;0.13334166;0.12551157;0.019415788;-0.06777449;0.13872501;0.05893344;-0.066022374;-0.08534976;-0.010304248;-0.123338126;0.06941548;0.08384199;-0.08309181;0.16341501;0.10654208;-0.08632316;0.026831899;0.06782428;0.18797974;-0.067299835;-0.025040908;0.020778913;0.030623158;-0.13551132;-0.12632619;-0.19977549;0.115087904;-0.0817846;-0.056382794;0.16229923;0.04835118;-0.037195146;-0.08139565;-0.075484596;0.13796125;-0.067814685;-0.13306907;-0.22032459;-0.029037382;-0.0408325;-0.024658354;-0.28050834;-0.06648039;0.03322845;0.11827119;0.0599923;0.073989436;0.028211372;-0.021364152;0.008771965;-0.0981063;0.10605494;-0.11004922;-0.12714843;-0.20313168;0.04341812;0.047820624;-0.06297449;0.05666268;-0.00014573894;0.08745345;0.07040592;-0.17520498;-0.07049009;-0.11334399;0.23893826;-0.009332007;-0.03212405;0.05832975;-0.009535314;-0.0023390006;0.13459624;-0.016573586;-0.026517535;-0.2680325;0.13021843;0.04963962;0.08059856;-0.09354244;0.06850021;-0.03547632;-0.21454994;-0.16965413;0.019060604;0.1213599;0.007675686;-0.05312147;-0.032213062;0.002164536;-0.10401622;-0.08551031;-0.15335314;-0.1261826;0.104577586;-0.06431919;-0.21646658;-0.11633568;0.05601144;-0.15964347;-0.08218382;-0.00770715;-0.079926334;-0.24551612;-0.00799158;-0.062083125;-0.16337325;0.009294365;0.059430446;-0.2600138;0.10610499;-0.17127308;0.05659692;0.011424217;0.075238325;-0.1911396;-0.05168657;0.029391434;-0.029949497;0.09060054;-0.11326486;-0.21736114;0.32772878;0.038908318;0.28593493;-0.18683715;-0.0059075346;0.20930792;-0.059096504;-0.06674416;0.090045296;0.15353212;-0.07686079;-0.050141893;-0.16746083;-0.038670197;-0.18773958;-0.013573535;0.0047015236;-0.019021252;-0.17127259;-0.18145682;0.0044721593;0.18547711;0.10347078;0.058946878;0.16610146;0.18994536;-0.19361083;0.22096917;-0.07624689;-0.08366215;0.05646039;0.11235752;-0.050848752;0.08523847;0.25961947;0.015652252;0.12590827;0.046558663;-0.33938468;-0.05893439;-0.10647733;0.17589402;-0.054178827;-0.14968728;-0.094429635;0.062023804;-0.02269253;0.058265015;-0.09899008;0.026779758;-0.02175282;-0.017151829;-0.1881256;0.13181396;-0.07802291;0.22053684;-0.22547758;0.031507332;-0.129536;0.089235276;0.14833273;0.018317394;-0.10074671;0.021565152;0.022015769;-0.12426418;-0.07039593;0.021930562;-0.11007506;-0.027054584;-0.08974859;-0.07469236;0.073935576;-0.1410466;-0.03730693;0.01815512;0.027931605;-0.13516118;-0.038209856;-0.1900719;-0.1406118;0.0150201805;0.0020547544;-0.05473236;0.10371858;0.033555616;-0.1511855;0.062407777;0.058238886;-0.24485043;0.096190974;-0.05653347;0.14216399;-0.13142152;-0.049691614;-0.03499459;-0.04116636;-0.0036252919;-0.0376882;-0.04361209;0.35093346;-0.113793716;0.05693221;0.0575257;-0.014930536;-0.1908089;0.050995093;-0.12048597;0.0752012;-0.04021652;0.032111093;0.054161;-0.0077073025;-0.045615334;-0.022872856;0.11402655;0.24084441;-0.06173067;0.006436384;-0.18634595;0.065660946;-0.013269567;0.0026005846;-0.14352906;-0.01612907;-0.14388256;-0.10120736;0.10257277;-0.09663586;0.011486269;0.13521715;-0.021501696;0.2661384;0.090331055;0.035149783;0.022927113;0.033092465;0.16422407;-0.0017876222;0.042307973;-0.09758643;-0.07658336;-0.24866936;-0.08017873;0.09765228;-0.048820935;0.0797649;-0.09997573;-0.13072501;0.02491951;-0.15373594;0.06769582;0.04024944;-0.20301723;-0.048829254;-0.07264408;-0.16913037;-0.046710853;0.058259122;0.0387155;-0.012385998;0.06793969;0.14197904;0.06639284;0.021802515;-0.13882215;0.050779093;-0.040031813;0.115014836;-0.17339043;0.10938602;-0.123232454;0.029011942;0.054476574;0.01735558;-0.088806674;-0.01816484;-0.011038331;-0.17662212;-0.14666586;-0.05770965;0.18924464;-0.044161845;0.0038824438;0.038182735;0.07521888;-0.007537989;0.02233521;-0.08899651;0.05676352;0.06545594;0.08061679;-0.054265134;0.05347666;0.05421216;0.218216;-0.10862355;0.03686344;0.066780396;0.050548367;-0.15925477;0.0788645;-0.0029672123;-0.07080626;-0.13836709;-0.012492115;0.039153308;-0.15615086;0.25687602;-0.03687453;-0.12506875;-0.06847351;-0.07287667;-0.057803687;0.22285022;-0.17043479;0.031670995;-0.024164509;0.06176179;0.028526753;0.13447033;0.1334798;0.115632705;-0.12743013;-0.0478694;0.026562743;0.007708439;0.13284163;-0.10012385;0.10008966;0.0026924112;0.12190012;-0.116721265;0.025658637;-0.055022553;0.012386784;-0.05118858;0.03904582;-0.059216157;0.0044893716;-0.10794931;0.05997945;-0.034054067;-0.0055389353;-0.054879684;0.0019558496;0.02062268;-0.06621584;-0.15731531;-0.119734235;-0.029076885;0.084569216;-0.028456628;-0.0019230258;0.14486487;0.04690571;0.06715301;-0.21376036;0.033455234;0.011074949;-0.022595538;0.043734916;0.08416627;0.11522014
-0.13174838;0.05409829;-0.033346605;-0.039731003;-0.12961592;-0.1661831;0.18812013;0.17530943;0.008944477;0.13031936;-0.05476596;-0.32315862;-0.12543136;0.13687716;-0.0362893;0.08796919;-0.04870534;-0.06752453;-0.057341907;-0.0028059497;-0.17697266;0.02730412;-0.054593094;0.0940571;0.081781134;-0.12426544;0.25183588;0.106796354;0.09130387;-0.31628144;0.061545037;0.00834332;-0.035618845;-0.031040963;-0.028242407;-0.15193516;-0.12471537;0.02257292;-0.06457837;0.038302146;-0.111570336;0.14547008;-0.02972879;-0.04350524;-0.032772113;-0.035660967;-0.060060102;0.06615845;-0.23343869;0.21939865;-0.090208486;-0.11351974;0.09068158;-0.03374612;0.10688046;0.05431931;0.014927986;-0.07072955;-0.10485571;0.0036435693;-0.07865979;0.021250632;0.045206647;-0.028187856;-0.13781585;-0.12655386;-0.017782189;-0.16174199;0.049300555;-0.05271211;0.1863025;-0.1632733;0.07725221;-0.109930456;-0.01186828;0.07265506;0.05000752;0.07604955;-0.15555447;-0.030477362;0.19642241;-0.026623873;0.025724057;0.054822173;-0.023712423;0.07624318;-0.02655269;0.13832648;-0.23357797;-0.080624625;-0.045757398;-0.18678978;-0.07499938;-0.0400347;-0.078815885;-0.08525625;0.091253415;-0.17139904;-0.0810779;-0.043609716;-0.002244562;-0.05280362;-0.09698904;0.38516074;-0.0042842645;0.1451975;-0.19759306;-0.022547487;0.030448232;0.02234734;-0.0062692943;0.07092681;-0.11445145;-0.072158515;0.022853741;0.05183305;0.039885264;0.0052135764;-0.13190773;0.055392556;0.026056238;-0.13159363;-0.09455781;0.020865178;0.075736985;-0.17145327;-0.123073734;-0.0050778254;0.13364312;0.023829412;-0.26298875;-0.03638192;-0.08164056;0.08755981;-0.08739402;0.08038773;-0.027697949;0.018734938;0.20772065;0.09566212;-0.09865336;0.13286978;-0.006931451;-0.10705053;-0.1047083;-0.03743739;0.024257228;-0.04171857;-0.084823176;0.11145292;0.15498851;-0.17881109;-0.02073467;-0.017287686;0.05759463;0.25012356;0.082718894;-0.008826965;-0.16401163;-0.010094339;0.10527296;-0.21044312;-0.07899682;0.021173626;-0.00813462;-0.072477;-0.3501066;-0.00591332;0.029660922;0.16915418;-0.114412256;0.056020178;0.16404483;-0.049119443;-0.0012084343;0.05885038;-0.07239369;0.029206809;-0.13370852;0.0396134;0.080462806;0.11247248;0.047986154;-0.04826652;-0.17054373;-0.17752464;-0.08831007;-0.030499402;0.07554069;0.060321894;-0.080008805;0.056307234;0.07886224;-0.017670266;-0.17329875;0.23416331;-0.1274263;-0.15092859;0.12544551;-0.10974694;-0.12589705;0.011045467;-0.027316427;-0.0733677;0.14105864;0.066949375;-0.1486872;0.15136947;0.21166542;-0.006149072;-0.10438513;0.020281019;0.10244948;-0.098055236;-0.15089446;0.00361509;-0.18158054;0.10756985;0.06624767;0.034177728;0.0667142;0.04484084;0.108437486;0.020709984;0.106230065;6.7994006e-05;-0.12921447;0.039527476;-0.29578748;-0.013062526;-0.107975334;-0.1192599;-0.14278533;-0.0722728;0.1318933;-0.014206399;0.02596481;-0.024585996;0.028520703;0.025326272;0.18037349;-0.13354811;-0.059725177;-0.034513146;-0.057270534;-0.06576544;0.04489029;-0.15985428;0.08382967;-0.15718089;0.042153854;0.06508194;-0.074647374;-0.05919969;0.08770353;-0.045122776;0.2829356;-0.000681741;0.12027424;-0.004066534;-0.11725414;-0.03468909;-0.08985409;0.15431905;0.10846669;-0.05625443;0.011925029;0.10389449;-0.08126838;0.11939978;-0.032119267;-0.13299303;-0.03522531;-0.23290193;0.14632079;0.029911887;-0.17035867;0.01662179;0.09166234;0.021005496;-0.12137455;0.047218606;-0.037437536;-0.054942105;0.03406458;-0.018606413;-0.13799155;0.0018883288;0.04217068;-0.1551035;-0.22395082;0.053840846;-0.02508184;-0.08216079;-0.0044508595;0.07175854;-0.1469829;0.04388623;0.0328372;-0.07537032;0.1043027;-0.18962789;0.011751216;0.1748743;0.0797079;-0.06633956;0.08916085;0.1343663;-0.029109146;0.0030729077;0.06476651;-0.2262367;0.19693334;-0.019753998;0.15003462;-0.058059953;-0.014884086;0.11956251;0.042024996;0.07079804;0.021467827;0.08263493;-0.042012397;-0.11604584;-0.014262625;-0.08658788;-0.32186034;0.0050470238;0.087567165;0.06951588;-0.10556449;-0.038605474;0.032896567;0.059441846;0.049669873;-0.07584161;0.045534022;-0.016844196;-0.12679464;0.19112204;-0.22254452;0.014841797;-0.009875883;0.12372694;-0.0042373477;0.07659597;0.03532403;0.08443169;-0.08831781;0.08652728;-0.40353584;0.084499866;-0.010014177;0.11817647;0.1435766;-0.09324428;-0.15108159;-0.11638721;0.01713669;-0.021454211;-0.12187977;-0.08532737;-0.07571013;0.09135784;-0.16567393;0.1257018;0.10265532;0.1859139;0.072396144;0.039012752;-0.05389015;0.12863368;0.044117775;0.041951325;0.08724069;0.173656;-0.025922507;-0.22174133;0.0738936;-0.012952635;-0.13256243;0.027160645;0.034885433;-0.014811742;-0.008820499;-0.23143265;-0.023113932;-0.08616835;0.07093218;-0.0265932;-0.1123421;-0.09512562;0.016594471;-0.09202624;-0.110376626;0.003449066;0.06415783;-0.089655474;-0.122902356;-0.0930144;0.10415376;-0.14751567;-0.0012792537;-0.11943246;-0.030841297;-0.20117068;0.034011018;-0.0065779793;0.09745306;0.033583265;-0.06523663;0.037136123;0.19901808;0.012011157;0.06579272;-0.037080597;0.048956603;0.011041283;0.15756725;-0.19254872;-0.1067427;0.017330848;-0.03807422;0.15076195;0.061793134;-0.15878713;0.14885533;0.1740429;0.07256034;-0.02297845;-0.006239239;-0.17803039;-0.107603446;-0.08580262;0.053507037;-0.15650442;0.048142858;-0.16442108;0.06602414;0.25767767;-0.1006175;0.06749165;0.11867919;-0.0034597965;0.2819425;0.12901075;-0.019988483;0.06579121;0.28702;0.17338817;0.008512032;0.013942966;-0.16629007;-0.045709174;-0.027498115;-0.07747796;0.20824274;-0.0883769;0.044540897;-0.03686685;-0.044653237;-0.07658096;0.060487483;0.025325025;0.023228547;-0.10980273;0.039840814;0.09865391;-0.13486658;-0.073264696;0.16019058;0.10289817;0.1714053;0.096225806;0.08293237;0.018882709;-0.025359107;0.027589148;-0.07151572;0.10477193;0.06712826;-0.19101824;0.045723647;-0.13553546;-0.06976393;0.0490262;0.03275244;0.062768;-0.062526435;0.041841518;-0.06392253;-0.13677849;-0.14686298;0.33528918;-0.06432682;0.047546405;0.043833178;-0.043842487;0.0863209;0.08227407;0.053093776;-0.04602684;0.1647303;0.099152565;-0.0603113;0.10707023;0.02685116;0.22015685;-0.055282414;0.02644837;0.1029899;0.13889107;-0.25263795;0.19126125;0.13484617;0.0927488;0.0009484169;0.2281993;-0.11219329;-0.25130084;0.2246479;-0.13697578;-0.21437381;-0.12923773;-0.1389171;-0.052600067;0.13074559;-0.035138175;0.020259717;-0.009266594;0.04699534;0.18101376;0.031961814;0.07828518;0.12754586;-0.05882982;0.019017883;0.066229776;0.13399677;0.089367434;-0.11823019;-0.05579717;0.024104562;0.1069594;-0.011546104;-0.028879315;-0.0834783;0.048158217;0.0031024492;0.20598249;-0.024453504;-0.066912904;-0.27008772;-0.017874189;0.012157521;0.08063663;-0.11124265;0.01906838;0.06396089;-0.2986853;-0.091908425;-0.0737962;0.068781815;-0.07907927;-0.041470736;0.24634206;0.10259477;0.060793936;0.18536472;-0.23561937;-0.062891856;-0.16352683;-0.056694686;0.041710295;0.06084859;0.050211284
-0.18583849;0.06575851;-0.043718833;-0.05755764;-0.0064104646;-0.2306686;0.025400113;0.12963071;-0.09143943;0.18882054;0.07459193;-0.24431361;-0.051093858;0.0029748646;0.1123052;0.045517594;0.002418653;-0.095586166;-0.12138431;-0.003201335;-0.16724028;-0.16014452;0.0021868993;0.05828535;-0.0034176947;-0.21921475;0.024409624;0.17514238;-0.09517002;-0.21597917;0.104312256;-0.16872457;0.0066806246;0.03364038;0.051433224;-0.1282027;-0.1051424;0.049925257;0.044488028;0.22911464;-0.038904317;0.010066272;0.04784898;0.045079052;-0.120848134;-0.15341435;-0.019217117;-0.12736572;-0.07462362;0.02336791;-0.16579534;-0.032748125;0.09476732;0.1413562;0.1372084;0.24338014;0.095266;-0.10544976;0.031595927;-0.07890616;-0.044874888;0.11232282;0.0875359;-0.095587045;-0.0005381209;-0.05134387;-0.0100982655;-0.083586454;0.09760877;-0.01827914;0.2016409;-0.017061;0.08219804;-0.040212814;0.104112916;0.09429822;0.14610966;-0.007996924;-0.025025964;-0.016455615;-0.00942492;0.025092559;-0.066091284;-0.10027674;0.048620433;0.28085467;0.10024729;0.045608394;-0.115131624;0.10603928;-0.1994697;-0.24408676;-0.05338857;-0.09011419;-0.04376933;-0.09518264;0.07237392;0.081513695;0.020013219;-0.09021385;-0.031367887;0.02886754;0.004712139;0.23277096;0.10956447;0.2780286;-0.15113762;-0.02944255;-0.0013460575;0.026586305;-0.09400709;0.0011848462;-0.13436861;0.06495405;-0.05090605;0.024726076;-0.051358838;-0.06482027;-0.21437247;0.01394828;-0.012546395;-0.12116576;0.012029941;0.0071327095;-0.14988616;-0.052241076;0.1086212;-0.20675358;-0.084277116;-0.01830173;-0.10423614;-0.039090183;-0.033252727;0.037978187;0.060594585;0.06159574;0.04320367;0.038001686;0.10800127;-0.07215373;-0.02809765;0.12591708;-0.058026206;-0.021167325;-0.07747672;0.005234752;0.10467109;-0.019098694;0.012633885;0.108303584;0.11344529;-0.079985775;0.07244373;-0.09363103;-0.038636573;0.19072956;0.029154977;-0.02951711;-0.08958008;-0.010374152;0.08828033;-0.22808747;-0.0364041;-0.019854236;0.053096734;-0.022096066;-0.19260304;-0.056399114;-0.0048667723;-0.04087541;-0.21839434;0.1258735;0.18278979;-0.012782772;0.24022332;-0.086532146;-0.06020137;0.17157438;-0.0074094874;-0.035230372;0.08347981;0.15271379;0.09035089;-0.08156713;-0.15681912;-0.25421306;-0.109766185;-0.0056167045;0.033089995;-0.063675836;0.10427766;0.06314677;0.18908402;0.013962559;-0.014837425;0.16925748;-0.10227134;0.021499494;-0.0048815818;-0.034743845;-0.10316551;-0.05211947;-0.036784183;-0.12348498;0.24245408;0.08680539;-0.16425037;0.13514683;-0.08101544;0.11909306;-0.09976272;-0.14562726;0.123816036;-0.11221427;-0.18075103;-0.18852107;-0.0947967;-0.06716369;0.10151728;-0.0025213822;-0.06576363;0.048876204;0.07186119;0.15507016;0.015015316;0.03520239;-0.2718856;-0.18193674;-0.23644468;-0.075202316;-0.12030643;-0.0654588;-0.082588606;0.010297553;-0.06639918;0.025658356;0.15916389;0.07560703;-0.058655363;0.042982016;-0.0040611997;-0.08622903;-0.06452713;-0.04739955;-0.0034390707;-0.0746608;-0.03692984;-0.10584303;0.023267062;-0.1511006;-0.092164546;0.0779619;-0.116745114;-0.048753023;-0.015405816;-0.16821511;0.23727094;0.024427565;0.025841128;0.03886425;-0.11991209;-0.02607864;-0.11551828;0.08544642;0.023047833;-0.06519794;-0.03681388;-0.06743175;0.041074146;-0.01565328;0.13088179;-0.14588901;-0.103882544;-0.32866037;0.110329695;0.011809146;-0.08826326;0.17442335;-0.13114111;0.04933013;0.087116025;-0.027298147;-0.17434953;-0.015737059;-0.09043724;-0.124657616;-0.075187415;-0.030344037;-0.041020025;-0.03969299;-0.03704196;-0.17241317;-0.021477913;-0.09934492;-0.087973386;-0.0022494977;-0.256869;0.0067889094;-0.09585338;-0.008296359;0.059327178;-0.13354768;0.10673491;0.13172475;0.037520055;-0.17472732;0.028808134;0.15028434;-0.04635108;-0.015627334;0.007955873;0.066326104;0.058436267;0.03464702;0.07037653;-0.05977452;-0.107815355;0.09411064;0.060491573;-0.040621817;0.06660801;0.068197995;-0.0010639508;-0.12877768;-0.11035749;0.014304498;0.02089625;0.056596417;0.16760264;0.16219215;-0.07472278;-0.16879937;-0.061122563;0.025277412;0.15744671;0.0035308986;-0.10729034;0.11307689;-0.041509673;0.06536043;-0.016524002;-0.07035054;0.15065737;0.18795963;0.03558184;0.080124386;0.14398244;0.032019928;0.050677422;-0.0674403;-0.2194035;0.114652425;0.018937469;0.039794978;0.07817174;-0.008668589;-0.14502877;-0.04737377;0.0139710065;-0.096030205;-0.17280248;-0.011237977;0.021376211;0.19703744;-0.18542357;0.081976086;-0.009614569;0.08142865;0.01649457;0.117141046;-0.14399044;0.105039805;0.0016562189;-0.19188082;0.11380925;0.053943366;0.07026495;-0.08381959;-0.044523336;0.13289925;-0.10349787;0.15014514;0.024066092;-0.03416551;-0.084720016;-0.096965075;-0.033534657;-0.10933332;0.040231895;-0.08111479;-0.10323184;-0.12002607;-0.15920006;-0.023081861;0.10624896;0.08137904;0.02591878;-0.015351472;0.00028357786;0.014408831;0.06573316;0.047314133;-0.14695917;-0.04153933;-0.04860712;-0.2399218;0.18117836;-0.0019583744;0.051243953;0.027605329;0.0622943;-0.025935257;0.27393377;-0.053926323;0.0018203363;-0.017018085;-0.032654606;-0.100174226;0.09267315;0.05822498;-0.06847956;0.110369064;-0.04260256;0.10132031;-0.011591748;-0.23859435;-0.08985979;0.09264226;0.20098081;0.12097149;-0.0032327673;-0.020966765;0.082964435;-0.14943671;0.02969613;-0.14012006;-0.10088736;-0.23372488;0.026219577;0.18912162;-0.17377347;0.017091766;-0.02509746;-0.08760424;0.079958774;0.06467829;-0.034936305;0.06995306;0.16898946;0.121162295;0.06996207;-0.013568478;-0.24471433;-0.06617487;-0.012766188;-0.042361382;0.21225542;-0.0745728;0.04195131;-0.028124623;-0.08037502;-0.16370697;0.043431446;-0.018698884;0.14727165;-0.24472196;-0.027422423;0.02370634;-0.15626016;-0.08132733;0.228063;0.14172925;0.018279286;0.062337022;-0.04940839;-0.06971834;0.1050919;0.079345115;0.029794753;0.04776265;-0.0012981984;-0.114119895;0.13901463;-0.04126573;-0.04663358;0.0770293;-0.043457557;-0.08927741;0.017990546;0.010879389;-0.048738465;-0.04513328;-0.03916956;0.16294232;-0.0072797625;0.026888069;-0.09477488;-0.04205745;0.1265277;0.10220428;0.0979956;-0.051389977;0.11522737;-0.022903323;0.09281914;0.1783537;-0.056568403;0.2833235;-0.01065543;0.106334105;0.020811383;0.17968024;-0.20698301;0.16695601;0.10290394;0.00085322355;0.006536347;0.12922777;-0.21816593;-0.21000439;0.096323185;-0.098866954;0.025764186;-0.02195675;-0.10496602;-0.071878724;0.004877607;-0.16941851;-0.1151216;-0.09504381;0.20354593;0.16108106;0.08839821;-0.0014152983;0.020873878;-0.10618319;0.046649966;0.11095658;0.038814276;0.07816391;-0.10145617;0.04138152;0.08974566;0.0840916;-0.017719759;-0.027568996;-0.062033795;-0.13751958;-0.12073107;0.19434297;-0.08336024;-0.021934258;-0.2861002;-0.0082024755;-0.047253717;-0.020320054;-0.025509594;-0.0027213155;-0.07219728;-0.08202462;0.16099364;-0.14526275;-0.100538336;-0.0017112573;-0.019624673;0.04833016;0.06868512;0.10011968;0.12384914;-0.097967915;0.099892646;0.0010654075;-0.082680985;0.017637819;0.05666159;0.09937464
-0.16530205;-0.014399667;0.0024902816;0.13221392;-0.025595758;-0.22694734;-0.03849126;0.14690164;-0.14247014;0.1288267;-0.13312423;-0.36931825;0.054584935;0.083633296;0.022531806;0.035970684;-0.08975197;-0.10070125;-0.017647645;-0.11055332;-0.13262053;-0.094969876;0.03929852;-0.045844268;0.020595677;-0.07447837;-0.061478958;0.095593736;-0.06989838;-0.22047412;0.048227005;-0.256855;0.025841728;-0.019587524;0.0078440225;0.07239215;0.052873634;0.10201497;-0.08909572;0.20113786;0.0950266;-0.03520502;-0.08991684;0.067164786;-0.054960232;-0.13429804;-0.11681928;0.110683545;-0.14881925;-0.012835005;-0.07177627;-0.051745113;0.09805502;0.2412949;0.04309359;0.10444067;0.033662304;-0.0993641;-0.11742006;-0.07999477;0.14039493;-0.03058201;0.19714944;0.0033125859;-0.04122263;-0.080614835;-0.03968034;-0.043059513;-0.06033357;0.034159012;0.19280522;-0.17729977;0.06586202;0.11089677;0.20686166;-0.0011315737;0.24994123;0.051617462;-0.117291845;0.07524162;0.15942274;0.1303526;-0.06800485;0.027254932;-0.10621067;0.13361289;-0.052537;0.07288881;-0.15214096;0.14436448;-0.06285468;-0.24320564;-0.16442646;0.07799252;0.101039894;-0.05425308;0.048498522;0.09903127;-0.111491576;-0.050622147;-0.12509145;0.023633027;0.089446194;0.20629744;0.17156638;0.16539545;-0.24426219;-0.04326381;0.11657948;-0.03016681;-0.16129819;0.020397384;-0.14359738;0.053090658;-0.00062656304;0.06251414;-0.007368426;-0.06508872;-0.08795113;0.06161543;0.052922733;0.0741709;-0.12457566;-0.07703686;-0.06256704;-0.044078894;0.079138756;-0.010682663;0.023415448;0.017909382;-0.1326369;-0.038083855;-0.06919191;0.0053709596;0.10023948;0.098988235;-0.004930541;0.011043924;-0.03674254;-0.06284747;0.0022587618;-0.012496818;0.16439463;0.023823198;-0.03562822;0.026146958;0.05063022;-0.069074266;0.053014416;-0.0020131026;-0.054586235;-0.09395801;-0.029635854;-0.07317201;-0.035292648;0.116447784;0.006347691;-0.07609223;-0.018740306;0.13760951;0.038018722;-0.21503861;0.11299886;-0.03796416;0.03722743;-0.013430549;-0.23014101;0.022442771;0.0588079;0.05336831;-0.34961122;-0.09662892;0.22233859;-0.1141024;0.28870118;-0.13727991;-0.17006107;0.10032243;-0.049321227;-0.01013191;0.012388881;0.22115667;-0.022697069;-0.018806547;0.026856188;-0.24569924;-0.0070128078;-0.10213304;0.0030690788;-0.079988316;0.11097498;-0.069569945;0.074554645;-0.068942025;0.043884996;0.020879291;-0.15522711;-0.060175307;-0.10992425;0.08980022;-0.13958319;0.013247833;-0.04778181;0.06627726;0.32319957;0.0008678952;-0.031246202;0.122779265;-0.11637609;-0.05799356;-0.0382489;-0.084678166;0.13318823;0.04750522;-0.073658206;-0.06036543;0.039676793;-0.024760177;0.08424529;-0.10432875;-0.04617169;0.01304208;0.13853182;0.090542115;0.053296898;0.005889219;-0.14909214;-0.22962427;-0.10759656;-0.08343991;-0.032748163;0.031568196;-0.13654605;0.017109055;0.10995966;0.011289975;0.011423014;0.027694276;0.08726547;0.13283266;0.03818451;-0.13115184;0.09347608;0.113069884;-0.050927006;-0.1826375;0.016482655;0.018219294;-0.010403867;0.048522603;-0.054538414;0.01763506;-0.1316109;-0.006820885;-0.06258737;-0.015709974;-0.0036220234;-0.02043492;0.06897518;0.16334505;-0.06932277;-0.02806341;-0.023403596;0.060122352;-0.055092216;-0.027609944;0.101725526;-0.06750042;0.08535098;-0.07107272;0.12633817;-0.030306518;-0.11658404;-0.37229216;0.11748582;0.099574566;-0.07280562;0.07080475;-0.17723995;-0.09073344;0.004200924;-0.023683375;0.015563564;0.07393682;-0.111880384;-0.1850506;-0.10868073;-0.044630866;-0.035851024;-0.055129383;-0.1264824;-0.18106088;-0.05369047;-0.047999598;0.0014470797;-0.056088872;-0.054612838;-0.066095576;-0.12308125;0.007269091;-0.032173745;-0.17905869;0.07077555;-0.09278642;0.02793894;-0.06514291;0.107293956;0.1285178;-0.1379865;0.00074036955;0.029511288;-0.011130996;-0.045622498;-0.062104136;0.24255832;-0.17702433;-0.0010088772;0.017911604;-0.008474843;-0.08938514;0.030718604;-0.03316928;-0.103285834;-0.05508926;-0.12766594;-0.048112985;0.11690085;0.0074840817;0.1571293;-0.040891886;-0.084703356;-0.17137496;0.017817412;-0.010148308;0.22955558;0.00058876834;-0.07527649;0.100005314;0.066542715;0.061732396;0.054956038;0.039651725;0.1350772;0.22648318;0.038576674;-0.08997185;0.018313417;-0.11522404;0.09305824;-0.014051557;-0.21630952;0.019697685;-0.0831391;0.12311478;0.1367715;0.03629023;-0.14830488;-0.046856288;-0.04465111;-0.10362921;0.02202935;-0.01124775;-0.048745774;0.16702217;-0.11098882;0.09305142;-0.026478926;0.03839924;0.116226315;0.07335732;-0.15431954;0.078091264;-0.07407992;-0.11961183;0.05618832;0.06640008;0.06525452;-0.03438303;0.096026875;0.11514683;-0.1737155;0.07706416;0.19085293;-0.10655878;0.005892165;-0.23401456;0.117396206;-0.0180456;0.12376798;-0.1902576;-0.064596385;-0.18218058;-0.048736304;-0.032809418;-0.006095745;0.112070255;0.16609196;0.0459283;-0.019003114;-0.044063315;-0.025377365;0.06635085;-0.011550363;-0.22735319;-0.09395037;-0.098588176;0.014626858;0.050075173;0.033490617;-0.045038976;-0.03306888;-0.045032732;0.24531752;-0.111129746;-0.029674765;-0.10117498;0.029726202;-0.38048372;0.1131484;-0.099289656;-0.056061823;0.02765355;-0.15718119;0.057251316;-0.047201533;-0.067573;0.046261225;0.1721451;0.20700955;0.19462648;0.015037478;-0.2115394;0.05073499;-0.0016733389;-0.015467856;-0.12588435;-0.16333748;-0.24315494;0.016396806;0.1698789;-0.12359839;-0.10590277;0.054941174;0.08555365;0.0072245086;-0.026121153;-0.13765478;0.052787527;-0.045365695;0.050825752;0.043175757;0.03433999;-0.18365279;-0.044558566;-0.04654489;-0.017397122;0.12032474;-0.014006407;-0.09885859;-0.1231815;-0.118885994;-0.12777315;-0.05680162;-0.028377455;0.016965136;-0.21931238;-0.08074291;0.017199412;0.054524906;-0.04100811;0.19655228;0.17769931;0.07523595;0.06496255;-0.05028131;-0.18880732;0.1263368;-0.07084382;0.0056467582;-0.012968839;-0.1936005;-0.102149844;0.1444852;-0.030198555;0.045615785;0.07748011;0.024705498;-0.12461054;0.062361356;0.067885876;0.025476906;-0.017634;-0.12255991;0.2885025;0.008914589;0.11116806;-0.07965469;-0.07472854;-0.017849658;0.086082704;0.01565221;0.06775869;-0.036667906;-0.18941684;0.06119658;0.08719564;-0.053427458;0.243272;0.017682657;0.07987556;0.10830286;0.057468917;-0.13860802;0.21820004;0.13506216;-0.0027264194;0.0017629033;0.055136822;-0.15950426;0.0020748838;0.2023176;-0.09465541;0.010488636;0.03874967;0.040632308;0.041268695;0.05307169;-0.23227637;-0.09813675;0.0014674476;0.04583768;-0.01209822;0.02085586;0.016052097;-0.048795182;-0.00667629;-0.05595505;0.08875904;-0.03536941;0.23621945;-0.18655907;0.06329996;0.14898868;0.11311504;-0.031945042;0.10706898;-0.05132898;-0.011279991;-0.017941749;0.25882983;0.1079454;0.119951256;-0.28063726;-0.03936633;-0.08911784;0.08677811;-0.11172727;0.06644212;-0.15009594;-0.15123342;0.07259816;-0.043684036;0.055274423;0.050078183;-0.17986064;0.047363773;0.12510127;0.061536733;0.1615727;-0.20216271;0.01011982;0.000600722;-0.16698082;0.0864232;0.015321653;-0.005778378
-0.015071367;-0.041670367;0.04120152;-0.04396153;0.020663517;-0.39819705;-0.028484564;0.25337628;-0.07365674;0.12121579;-0.13742155;-0.21293251;-0.12449512;0.12314985;0.092637464;0.09815225;-0.037368316;-0.13671783;0.030940045;-0.17193751;-0.14279605;-0.17995349;-0.034794126;0.1561093;0.16573973;0.0014489929;0.018109554;0.2162852;-0.0641127;-0.22482261;-0.1788138;-0.28225884;0.057212215;-0.108047545;-0.032377664;-0.03457766;0.08392209;0.02241823;0.006690417;-0.05884188;-0.12144068;0.024605379;-0.01174812;0.13252543;-0.09877543;-0.023870187;-0.16286053;-0.0858781;-0.21201451;0.16184767;-0.097669445;-0.08436868;0.095670424;0.23415758;0.09918012;0.10073089;0.08648053;-0.15647255;-0.20559001;0.01039644;0.14381838;-0.12836045;0.19884168;-0.1419;0.06297928;-0.039316528;-0.040826384;0.012163278;-0.0042020204;0.20604107;0.23224059;0.08182504;0.067363024;-0.020761332;0.20108598;0.09216188;0.13583477;0.12504455;0.009362993;0.20927724;0.14581396;0.048882123;0.02640868;0.084999375;-0.023907693;0.2540622;-0.08727289;2.1987922e-05;-0.26932082;0.134042;0.02893475;-0.15922196;-0.064931534;0.042233985;0.025741762;-0.036828063;-0.044120204;0.11378976;-0.07412714;-0.010130527;-0.019264577;0.09320142;0.008654018;0.08808499;0.05566197;0.08514274;-0.06796013;0.06619395;0.013195881;0.05704503;-0.009229297;-0.16251975;0.0015340905;-0.091076784;0.010445689;0.18594961;-0.027585113;-0.082577676;-0.15642151;0.009842029;0.044497132;0.04882744;-0.048989046;0.023558348;-0.07385349;-0.12243865;0.09130694;-0.002062823;0.043554742;0.070111446;-0.1478362;0.048982933;-0.07475732;0.044488475;0.10033119;-0.049700085;0.015779393;-0.09861213;0.12286884;0.029803101;0.087829806;0.12560186;0.03435067;-0.103326574;-0.04248217;-0.04214044;0.09910455;-0.13473198;0.05006472;0.12442859;-0.11094452;-0.18755318;-0.039128803;-0.09677486;0.07334332;0.20923951;-0.040485915;-0.14816017;0.03649464;0.08896787;0.10656035;-0.17896298;0.09051385;0.015569705;-0.0090156095;-0.026191682;-0.28049582;-0.06230616;-0.046850838;0.120296024;-0.20165041;0.06949601;0.20402305;0.08613583;0.20867984;-0.1586763;-0.079550125;0.08537644;0.10464916;0.092849866;0.065018065;0.22975245;0.0462246;0.047347877;0.0632098;-0.2019117;-0.15890005;-0.14866763;-0.0045329942;0.048068088;0.0757267;-0.016073894;0.105073735;0.019322826;0.03190539;0.12933846;-0.19205639;0.11144062;0.060727652;0.043948054;-0.105289295;-0.109556004;-0.21766737;0.20600481;0.23714438;0.034599777;0.048047926;0.061905585;-0.05294114;-0.07643352;-0.09705272;-0.028000675;0.08841806;-0.08873136;0.017625676;-0.08949572;0.08203778;-0.09609718;0.057164628;-0.1039522;0.07452882;-0.0916596;0.04827358;0.050129503;0.042101283;0.10662814;-0.115236506;-0.088184886;-0.06824408;0.052251242;-0.13181253;-0.002932651;-0.076907516;0.03561899;0.08568267;-0.052703187;-0.05653771;-0.07356649;-0.056467243;0.017085388;0.08744869;-0.21307603;0.068896055;0.17103949;-0.15118971;-0.0511787;0.09568329;-0.13085301;-0.03448847;0.089191176;-0.116640076;-0.020339144;-0.099579126;0.024593111;-0.024759412;0.102791786;0.05356775;0.09394069;0.114939846;0.20654899;-0.062021323;0.1058658;-0.15478942;0.099513836;0.17068915;0.011350983;0.008918102;-0.0023082288;-0.054076057;0.017239606;-0.013594573;0.020947594;-0.052367903;-0.35698798;0.053262036;-0.050560422;0.04098579;-0.06676221;-0.005668687;-0.15085189;-0.08699309;-0.15915866;-0.02351402;0.1413104;-0.059095457;-0.17830957;0.009513577;0.06434919;0.012647125;-0.039329067;-0.21868253;-0.1299248;-0.15443651;-0.081660405;0.020957327;-0.26971972;-0.11219892;-0.09622271;0.013327438;-0.04331792;0.12388787;-0.19284372;0.01977525;-0.09152442;-0.06388474;-0.033898264;0.18562762;0.13966745;-0.12053495;-0.019939557;-0.03578947;0.13570866;-0.07052883;0.04985393;0.16591063;-0.011393206;-0.018464852;-0.10350538;-0.24231306;-0.041835487;0.07075456;0.12009376;-0.10230297;-0.055033922;0.049376544;-0.056611165;-0.12662771;0.0053536114;0.059099723;-0.052466355;0.026227115;-0.04632939;0.060019903;0.10221133;0.14591405;0.12665167;-0.15652175;-0.02744141;0.020173049;0.09551888;-0.24911128;0.11537956;0.13740785;0.23102254;0.1011646;-0.077044636;-0.082143694;-0.008986772;0.105792224;0.034991596;-0.041865278;0.11968161;-0.017384976;0.15775312;0.09772565;-0.02375424;-0.14601855;-0.030857127;0.105701014;0.10270252;-0.1018886;-0.008980505;-0.07427889;0.09183036;-0.12981859;-0.0821507;-0.1073617;0.08170643;0.0077851694;0.11838769;-0.116554715;0.03615491;0.11723093;0.0025154538;0.03832332;0.003084755;-0.004287985;-0.09662593;0.16136362;0.0725293;-0.12303762;0.04679094;0.05626151;0.08960304;-0.00302897;-0.33424667;0.0768293;-0.15181044;0.009117563;-0.08038028;0.06666001;-0.11024098;-0.06289414;-0.08268497;0.04288033;-0.00025979255;-0.06759887;-0.050172802;0.017363748;-0.012294139;-0.004383232;-0.10433697;0.110105015;-0.17402601;-0.015927978;-0.19880605;0.051197957;0.086442925;0.08641837;0.034792263;-0.09638697;0.14050114;0.123866215;-0.15819941;0.10586982;-0.048646867;0.032596458;-0.13454765;0.15831691;0.085936;0.027862728;0.031908415;-0.047192648;-0.026138796;0.07140377;-0.12327512;-0.0982149;0.30319813;0.1511033;0.10311416;-0.05807673;-0.24883513;0.052486237;-0.043442294;-0.0065333447;0.05680919;-0.13067366;-0.03210207;0.027623644;0.19300555;-0.2101938;-0.004478929;-0.06380489;0.08084649;0.17356668;-0.067130074;-0.10994369;-0.045545664;-0.057955243;0.23816523;0.022632366;0.04369353;-0.23645556;-0.11680589;-0.0574502;-0.050894614;0.02586205;-0.21748863;-0.08452878;-0.13868997;0.028418053;-0.14562295;0.018926192;-0.106359884;0.11504556;-0.14101802;0.013026743;0.066305555;0.12168238;-0.010541395;0.32260042;0.13896978;-0.041859265;0.05828142;0.06867079;-0.10869104;-0.06524565;0.0141220605;-0.004614161;0.007308014;-0.16465925;-0.20988367;0.05621385;0.03748118;0.031087877;-0.012533258;0.111698456;-0.056601193;0.052331578;0.04577656;0.09586477;0.095625274;0.043770917;0.31834242;-0.06190981;0.21112183;-0.07025034;-0.03568989;-0.016308716;-0.018772878;0.05306029;0.06688803;-0.014206653;-0.06329674;-0.008886484;0.0221484;0.083275884;0.1514418;0.086537935;0.01500824;0.08366631;0.019223697;-0.22958612;0.17563657;0.15910208;-0.09004097;0.066058;0.1097013;-0.09233995;-0.16384792;0.20331894;0.13757788;-0.013902225;-0.079359904;0.022630263;-0.21552579;-0.03771534;-0.269302;-0.08241379;-0.025890362;0.16101328;0.096334055;0.12764761;0.008741226;-0.050794642;0.014564347;-0.059265945;0.19013418;-0.052125312;0.010675176;-0.09494268;0.10261698;0.11360511;0.050557364;-0.08159963;0.05723051;0.043681864;-0.15363659;-0.01756507;0.12634572;0.10926604;-0.04535751;-0.18068795;0.050487265;-0.0125668645;0.017362501;-0.12744127;0.15139042;0.06087391;-0.081946604;0.121635325;-0.15153253;-0.053724974;0.11445504;0.014525482;0.25114873;0.04785164;0.11328002;0.11590144;-0.06433165;0.2203985;-0.086262494;-0.12114565;0.028238416;-0.08834204;-0.031351767
0.07704256;0.023583068;0.018341023;-0.006857278;-0.035504762;-0.25636935;-0.007090103;0.21299493;0.0027241223;0.13615175;-0.03905793;-0.1745305;-0.015369224;0.0055345525;0.13080306;-0.1131034;0.08809999;0.109764464;-0.05938665;-0.1894667;-0.10253373;-0.16966483;-0.047715154;0.09825665;-0.009645085;-0.11626665;0.14184327;0.14066337;-0.1396836;-0.0676369;-0.04373219;-0.34828484;0.06555476;-0.003805737;-0.050313205;-0.099144295;-0.10477189;0.09863353;0.104092;0.0060504293;-0.13628784;0.105137065;-0.13860415;0.20282866;-0.3069478;0.017325765;-0.07089523;-0.102453455;-0.19732903;0.14818975;-0.12913309;-0.07396476;-0.01314459;0.2776636;0.028388957;0.07041413;-0.01653844;-0.1898997;-0.061882507;-0.0011458306;-0.012015946;-0.17678498;0.105409265;-0.09712275;0.06762815;-0.1383667;-0.12503383;0.15918082;-0.03397393;0.01601842;0.24157834;0.055316452;-0.034932695;0.010219468;0.1866792;0.16533904;0.18590432;0.15746453;-0.069747195;0.114210345;0.22461373;0.1367999;0.014317021;-0.0139615545;-0.11811484;0.27584308;0.065988585;0.067173794;-0.16453208;0.3436029;-0.13272558;-0.34298292;-0.019796936;0.025956038;0.07147054;0.115589045;-0.049290683;0.12773298;-0.15375002;-0.08666939;0.095139354;0.035663355;-0.0437843;0.21777102;0.0018241002;0.1578592;-0.067952946;-0.08882991;-0.022195209;0.15335998;0.061894204;-0.030219467;-0.0400306;-0.093163736;-0.07401398;0.1644881;0.005044128;0.10232226;-0.07161141;0.0154295135;-0.00072300807;0.047878888;0.11288516;-0.0027275826;0.00071556563;-0.043518;0.04659212;0.00087825983;0.006040753;0.018313708;-0.10053537;0.1269397;-0.12818617;-0.04374619;0.119095795;0.13662876;-0.01426204;0.029931491;0.14741722;0.030987548;0.041418664;0.092514314;0.049626574;-0.16659576;-0.14181688;-0.08080838;0.07986428;-0.1795569;0.036721632;0.19664915;-0.19163276;-0.010057244;-0.022156514;0.030378344;0.011230042;0.26070628;0.021046216;-0.11218805;0.06258722;0.13281213;0.083458155;-0.25066674;-0.07710223;0.107367545;-0.021432724;0.15300964;-0.09378222;-0.059075788;-0.0077281045;-0.013587774;-0.09124342;-0.16014731;0.34048784;-0.069750175;0.15455335;-0.13064446;-0.20340411;-0.10890595;0.0012107831;0.063975774;-0.09483677;0.17228867;-0.091299586;0.04975953;0.08485984;-0.26750514;-0.10553133;-0.32158446;-0.18221034;0.14167398;-0.008330697;0.20434336;0.052800473;-0.038774047;-0.060821686;0.042166397;-0.06844303;-0.040815666;0.16955629;0.06448392;-0.15114243;-0.0335305;0.06521866;-0.06744655;0.2578688;-0.054078516;0.14764035;0.094863616;-0.11538595;-0.039404813;-0.13101523;0.042996593;0.14356;-0.06600702;0.006327633;-0.040823463;0.19307348;-0.073031664;-0.02560211;-0.089277364;0.15684268;-0.077682205;0.11613832;-0.04884785;-0.06380836;0.040489823;-0.0860441;-0.01422019;-0.070375405;-0.06366747;-0.051444065;0.060769442;-0.035786845;0.06471527;-0.2056542;-0.057067625;0.051527306;0.02629722;-0.053155527;0.06941587;0.040096946;0.01843218;-0.056798834;0.06573813;-0.1709994;-0.13351353;0.11272423;-0.14782296;-0.076347135;0.06747447;-0.0029128373;0.10728155;-0.15282933;0.048888925;-0.0044678594;0.025615733;0.07553467;-0.049453266;-0.09696748;0.13758412;0.027095044;-0.0916596;-0.1547466;0.03963151;0.01707474;0.08248452;-0.025917606;0.0059588985;-0.09735433;-0.07337619;0.018139564;-0.020419294;-0.024834968;-0.26721418;0.097019315;0.026701955;-0.026528055;0.12579641;-0.14516659;-0.18014462;-0.18808682;-0.047004223;0.013202779;0.1362265;-0.012822094;-0.23670666;-0.06314526;0.11970436;-0.027187282;0.10828383;-0.2508754;-0.03572119;-0.2517389;0.01924261;-0.10173786;-0.18019943;-0.21774344;-0.047211394;0.13362613;0.05490961;0.11841456;-0.22702271;0.09738332;-0.114621736;0.0009081686;-0.004585957;0.059832312;0.021325419;-0.0076580252;-0.054863255;0.12577803;0.22321065;-0.157594;0.12187614;0.0075201024;-0.020292843;-0.001797903;-0.14214508;-0.05012435;-0.050521318;0.14553878;0.06421385;-0.10108979;-0.068460755;0.093338676;-0.1412294;0.012086952;0.081484675;0.22590737;-0.06991322;-0.04148791;-0.017663425;-0.032306563;0.06450012;0.15995744;0.12487361;-0.14170049;0.0017712213;0.21701379;0.10002398;-0.32736802;0.036935993;0.12224357;0.36576656;0.10401676;-0.050249532;-0.1015469;-0.015438624;0.06880297;0.06873266;-0.12775251;-0.04874983;-0.020805398;0.08916516;0.041082066;-0.15591697;-0.14120184;-0.13024761;0.02459819;0.07759102;-0.08254934;-0.20580873;-0.11558142;0.20534234;-0.15393935;-0.1054899;-0.021763682;-0.051069383;0.062201496;0.18640739;0.059948307;-0.014750262;0.0025520963;0.059635136;0.072896995;0.078937605;-0.037918493;0.0840949;0.23027341;0.09621349;-0.046453428;0.13592683;0.0038197702;-0.14467093;0.04085521;-0.23441137;-0.010220233;-0.15180251;-0.054157536;0.07551964;-0.011506267;-0.15969014;-0.10332955;-0.12355173;0.09025854;-0.010550273;-0.051523913;-0.06406083;0.065379515;0.04736107;-0.082235254;0.05957638;0.085469306;0.076646745;0.013560251;-0.14698845;-0.081815936;0.10377011;0.037814915;-0.07784469;0.066088416;0.055173974;0.16140601;-0.36886337;0.1396914;0.004721161;-0.00072158047;-0.14080769;0.10093314;0.115772694;-0.0048589124;0.07703836;-0.04486979;-0.013081193;0.10673211;0.050857916;-0.03304598;0.42197222;0.10210971;0.10170136;-0.081585556;-0.100144714;-0.002855727;0.008193936;-0.13353083;0.014937652;0.020960782;-0.058185354;-0.046891175;0.11576778;-0.090683304;0.054200888;-0.046563573;-0.14125971;0.04022783;-0.04936578;-0.13455178;0.0797672;0.035540484;0.18671584;-0.14762351;-0.038803626;-0.13130495;-0.08718053;0.15624481;-0.12369923;0.0014353318;-0.007587627;-0.06740602;-0.17831814;0.08016662;-0.12120007;-0.038462263;0.0049151806;0.021840446;-0.094922;-0.013357822;-0.03918196;-0.0136004025;-0.067088;0.2663665;0.1015507;-0.25364715;-0.093601085;-0.020915471;-0.029742943;0.019959604;-0.07355896;-0.013299947;0.023807002;-0.13154931;-0.16802149;0.05223178;0.0056232233;-0.009840094;0.014297059;0.048299503;0.11284543;-0.124978326;0.046706658;0.081490666;-0.041447796;0.042508103;0.1936521;-0.16100197;0.19383425;0.015313491;-0.004497881;0.032403663;-0.026778555;-0.053967766;-0.087588824;0.054723848;-0.07998201;0.017900245;0.01630308;-0.017141035;0.057990618;0.0851613;-0.028391996;0.051179294;0.075080715;-0.19734158;0.17291574;0.30340323;-0.11320708;0.12555249;-0.014549669;-0.13762277;-0.05966413;0.07485237;-0.11820336;0.040514633;-0.110656604;-0.20965649;-0.19811152;-0.2507502;-0.24494596;-0.07118265;-0.22736354;0.19640246;0.18061675;0.10681577;0.065742254;0.0385576;-0.050305802;0.022177145;-0.05809049;-0.015878057;0.10668669;-0.09990293;0.11075824;0.16924301;-0.15281627;0.08385532;0.048210606;0.24616587;-0.12366918;-0.013657912;0.26144078;0.031094491;-0.01203598;-0.15996686;0.004136319;0.030571677;-0.02961856;-0.13406476;0.08080426;0.060777117;-0.11008743;0.044135913;-0.13737464;0.022442868;0.06814771;-0.084753826;0.22400817;-0.00058354874;0.07665519;0.02682347;0.023516411;0.21781494;-0.16592342;0.05037842;-0.09192334;-0.13672541;-0.11438092
0.00082837703;0.013524717;0.14763565;0.1301485;0.03660586;-0.26044858;-0.03505953;0.11598495;-0.13407966;0.2358415;0.031606354;-0.08416823;0.22011292;-0.09428127;0.1739792;-0.060276505;0.037952725;0.028306719;0.05684212;-0.159838;-0.19807552;-0.26009318;-0.059903838;0.13932589;-0.07316733;-0.071515866;0.016321357;0.068002716;-0.014825003;-0.11508969;-0.003458156;-0.3441696;-0.0916458;-0.06749717;0.06124849;-0.010867757;0.029276537;0.008166808;-0.05022692;0.02993401;0.038386986;-0.104533665;-0.040338393;0.21623763;-0.2567289;-0.13274735;-0.26825795;-0.1734318;0.03371557;0.08650864;-0.13511395;0.07209422;0.10131775;0.2617317;-0.042282153;0.1489526;0.056760073;-0.25409985;-0.001287954;-0.11337611;0.048344992;-0.1375013;-0.092705406;-0.19901766;-0.0785011;-0.0155674005;-0.12779832;0.07941215;-0.20471829;0.069678895;0.11160865;0.0071033738;0.045854565;0.094461575;0.24048547;0.108809374;0.13220045;0.032703772;0.09099014;0.019824203;-0.027184946;0.041490287;0.011709586;0.16952413;-0.084856704;0.30850506;0.04740583;-0.03217897;-0.04391238;0.07578904;-0.08202125;-0.227861;-0.020453345;-0.0727057;0.025098844;0.053653255;0.2150837;0.24243216;-0.10989226;0.12216557;-0.07431922;0.057345018;-0.15591621;-0.016879901;0.032402012;0.12089829;-0.11322235;0.087161064;-0.005614644;0.017674398;-0.0077758427;-0.09648077;0.09349116;-0.037917998;-0.19046886;0.0069898907;0.08891499;0.07775842;0.13259266;-0.10910773;0.04277256;0.13296336;0.11443256;-0.045884997;0.034921438;0.09947762;0.030364323;-0.110547565;0.020443909;0.057152692;-0.035310123;0.057626113;0.063909255;0.007097718;0.066502795;0.014087329;0.028481042;0.0009344597;0.030447053;-0.038832482;-0.014070891;0.1908953;-0.022905871;-0.046905562;0.07495608;-0.016384004;-0.029363329;-0.04211608;0.014324529;0.18726404;-0.18363564;0.050600607;0.015966551;0.18616574;0.057114724;0.083965324;0.046971627;-0.082192674;0.04283419;0.044352457;-0.08149346;-0.05678445;0.006976703;0.026286049;0.034555648;0.19997214;-0.31397915;-0.037131604;-0.10275477;-0.058180865;-0.038934343;-0.11267824;0.14738041;-0.18685436;0.076134056;-0.26107112;-0.19150677;0.00022959134;0.04484717;-0.017585691;-0.064009875;-0.013582185;-0.08536625;-0.055867407;-0.078973554;-0.19769534;-0.093333356;-0.21638009;0.06902096;0.10199533;0.004212615;0.039721344;0.15551755;0.16663033;-0.19047906;-0.06416189;-0.013584651;-0.03766383;0.052120924;-0.016920596;-0.15941253;-0.09812163;-0.12883066;0.035426572;0.31967524;0.03926589;0.117661424;0.121142834;0.14414929;-0.11868224;-0.07655501;0.024128899;0.10315886;-0.0025506222;0.0909983;-0.095509544;0.07956874;0.021668173;0.10306778;0.08957126;0.12363838;0.021679373;0.10084329;-0.104403354;-0.14056319;-0.08044862;-0.22950889;0.117421456;-0.033294816;-0.14305836;-0.15174681;0.032168314;0.019234343;0.020324811;-0.089884184;0.008092968;-0.0023779816;0.10532283;-0.2529806;0.01441453;-0.0054756063;-0.014135053;-0.13478364;-0.00026876733;-0.16774766;-0.05678738;0.14968961;-0.11310704;0.057356864;0.20029156;0.10726538;0.08946452;-0.12523152;0.0059210644;0.002238689;0.08549959;0.039928213;-0.16347699;-0.035978694;0.11865111;-0.05656182;-0.11554547;-0.076634146;-0.09372904;0.016853888;0.024773056;0.089562856;0.06298862;-0.066029064;0.06007666;0.1657076;-0.1016724;0.024225628;-0.06269498;-0.04272289;0.08049878;0.00144482;0.052023925;-0.09091079;-0.051490407;-0.17248537;-0.15624782;-0.061035696;0.12452741;0.09259511;-0.034197226;-0.22973779;0.023152987;-0.08692653;0.16040732;-0.20403361;-0.19342789;-0.17447768;-0.007565163;-0.199745;-0.06480085;0.08272684;-0.15406404;0.062185846;0.047381837;0.043337323;-0.014813141;0.164105;0.029008066;0.0890702;-0.09071398;0.19737528;0.040613677;0.11419037;-0.1459409;0.050238654;0.23635304;-0.26565427;-0.020035844;-0.09724518;0.041584678;0.041033566;-0.027548652;-0.10077004;0.03582271;-0.00408247;0.06673011;-0.008781713;-0.0006324552;0.06526706;0.021744903;0.15226312;0.06307148;0.10602368;0.041038226;-0.037227627;0.0051875236;0.13232435;0.07564464;0.26698306;0.11125402;-0.17139167;0.20102273;0.15067457;0.0257924;-0.18735653;-0.011258388;0.1509471;0.40649095;-0.047984857;0.092737295;-0.20639244;-0.10062866;-0.061128773;0.24752136;-0.1731455;-0.12211525;0.021369912;0.08634071;0.06263478;0.13075252;-0.0470897;0.05417062;-0.018052302;0.01195762;-0.041502118;-0.14395887;-0.052538045;-0.07850323;-0.0040460867;-0.11479135;0.062749475;-0.02413162;0.12926963;0.07508748;-0.114415415;-0.014960347;0.11135872;-0.06271474;0.1020098;0.14407119;0.027005447;0.056992877;0.032842234;0.04515248;0.032675546;0.040890902;0.00514945;-0.1180783;0.16159384;-0.16614492;0.06103859;0.05436063;0.032578483;0.0017840802;-0.14230222;-0.07976297;-0.11572111;-0.024712969;0.024842832;-0.050855592;-0.078792125;-0.06681572;0.050616287;0.14064212;-0.2619225;0.11278915;-0.042149965;-0.18937847;0.10169951;-0.30173633;0.04101494;-0.0055617196;0.15163863;-0.03920507;-0.08299939;0.17075747;0.08581582;-0.2528423;0.08309077;-0.14242786;-0.124391824;-0.09923815;-0.15662391;0.098976575;0.0503122;0.042848833;-0.12489881;0.0808304;0.06949978;-0.098917715;0.029918933;0.24887975;0.04524001;0.08868131;-0.06423887;-0.16590872;-0.008505722;-0.06555587;-0.12148045;0.0091001615;-0.1568842;-0.17920476;-0.14083166;0.15387098;0.06918613;-0.0026776157;-0.0134928385;-0.192972;0.16716518;-0.05922841;-0.18636629;0.13097508;-0.094515905;0.25264233;-0.18944554;-0.11592119;-0.14375617;-0.07394693;0.255035;-0.0008427741;0.13350186;-0.06807354;-0.08143791;-0.03608986;0.054499723;-0.2551907;-0.07862887;0.03062202;0.073516674;0.018134138;0.023764677;-0.026439294;0.037331216;-0.19039592;0.115889855;0.08050472;-0.14395943;-0.009584617;-0.01386936;-0.13154103;-0.038066693;-0.06110247;-0.09382187;-0.08288228;0.06850648;-0.06667377;0.16756691;0.13993616;-0.013998286;0.15613213;0.07413936;0.052965;-0.109061636;0.05035425;-0.041126076;-0.13042645;-0.03363678;0.023411088;0.0030560582;0.12523529;-0.092068925;0.00781946;0.0512572;0.002138889;-0.10453281;-0.04136455;0.03512223;-0.24453206;-0.0077230623;0.16145784;-0.070775434;0.07241739;-0.08043169;0.12751448;-0.08062182;0.046001483;-0.23356134;0.055605344;0.014014483;0.13101596;-0.015002468;0.028245129;-0.16735904;-0.234097;-0.007263468;-0.14180318;0.1617282;-0.07299753;-0.23040985;-0.09729543;-0.17217165;-0.1346579;0.062446978;-0.12889552;0.07587692;0.26952887;-0.091854125;0.020253707;-0.18688513;0.002826014;0.042148635;0.1074778;-0.08254184;-0.12519498;-0.08605659;0.099205;0.3087196;0.022680357;-0.02199762;0.06948182;0.16546564;-0.07891052;-0.054037634;0.24506788;-0.09829566;0.10528966;-0.10605235;-0.006271474;0.065028496;0.09078878;-0.007337879;-0.0070092133;0.057120424;0.09243827;0.039995287;-0.12519774;0.088079266;0.08241499;-0.07999259;0.08030007;0.1198277;0.09511673;0.08703388;-0.039414227;0.081205875;0.026166286;0.029433649;-0.06260873;0.0016528221;-0.1888134
-0.0010414975;0.085464545;0.015789175;0.16799377;0.13222393;-0.20206952;-0.1584358;0.1029646;-0.12650076;0.168973;-0.026530165;-0.19251838;0.13828252;-0.07851743;0.13052759;-0.10486968;-0.08675213;0.12025268;0.040368546;-0.21408401;-0.22503507;-0.2624809;-0.08331507;0.13769053;-0.07203035;-0.031596567;-0.151219;0.14973962;0.07737771;-0.012767912;-0.027141979;-0.37986484;-0.08949034;0.01795083;0.020171857;0.19165131;0.07915752;-0.0070159817;-0.09106692;-0.0147191845;0.039893627;-0.11764228;-0.18670724;0.13588092;-0.14719854;-0.020148357;-0.265067;-0.09033281;0.039700937;0.08348416;-0.07951343;-0.1142714;0.122618675;0.2512685;-0.04790848;0.03487939;0.054736402;-0.2017484;-0.099501066;0.0012161251;0.054868527;-0.13834605;-0.13393572;0.042188518;-0.025828268;-0.10886517;-0.25019276;0.11939513;-0.1983794;0.023898495;-0.038395166;-0.006911763;-0.033663474;0.22415827;0.10630331;-0.062455866;0.17873606;0.03755643;0.06785952;0.09147653;-0.10082861;0.12084488;-0.07987591;0.12107716;-0.10454534;0.113712735;0.03016959;-0.29169968;-0.10479772;0.18409605;0.118048735;-0.06266606;-0.17118545;0.09200353;0.02742213;0.013986766;0.15732801;0.096470036;-0.12378338;0.07680653;-0.06750116;0.08824039;-0.2585988;-0.17469358;0.083391495;0.16714808;-0.13029025;0.054367207;0.082138345;0.040217184;-0.29788494;-0.005315099;-0.13234936;0.0071968385;-0.15931179;0.11583471;0.008384707;0.1687969;0.17575432;-0.04789055;-0.14033496;0.20397437;0.019604415;0.013021361;-0.00087459135;0.08997693;-0.0031919102;0.06386987;-0.046427127;0.02146514;0.21887596;0.11326934;-0.12861098;0.096424855;-0.001280422;-0.043348715;-0.11432084;0.062405337;-0.1422535;0.00076976244;0.07277208;0.19674113;0.14072046;0.01881132;0.06549682;-0.00874619;-0.13880558;-0.20825104;0.06498705;-0.0055025113;-0.22635846;0.16363584;0.114468634;0.030052787;0.11234309;0.13249196;-0.081549354;-0.17302726;-0.16864851;-0.00029861773;0.01518125;0.11303282;-0.009042156;-0.06376183;0.066010915;0.14536536;-0.23373787;-0.00033904737;-0.03211037;-0.14235166;-0.14288847;-0.16147618;0.04325264;-0.1457938;-0.016530845;-0.28684554;-0.18560018;-0.13054472;0.22798531;-0.05498991;-0.18142372;-0.007266472;-0.06473845;-0.15423262;-0.020454222;-0.16028492;0.10592475;-0.095843144;0.096421614;-0.14809854;0.040823676;0.11404553;0.019901212;0.04274178;-0.029321209;0.021363003;-0.034719575;0.0060327495;-0.062765956;0.17774054;-0.16882966;-0.031833716;-0.04516027;-0.09862633;0.25393972;-0.03495339;0.06618877;0.19090122;-0.03858542;-0.13703662;0.046889577;0.05877012;-0.028026016;0.06110492;-0.080104694;-0.07659144;-0.10301259;0.042197272;-0.027961774;0.070274964;0.12081427;0.10217929;0.03466596;0.017816732;-0.32843494;0.05417299;-0.099610284;0.085988805;-0.081881076;-0.024447957;0.014559663;-0.065822996;-0.08680317;0.040716615;-0.14085394;-0.03658734;-0.00971318;0.017820138;-0.06074513;-0.010492329;-0.03492976;0.13209738;-0.06656902;0.0047117;-0.15337637;-0.09210773;0.07969712;-0.093169585;0.0764108;0.15545344;0.04844723;0.118402414;0.13223189;-0.12676103;-0.02667486;0.12544411;0.03335384;-0.15147309;-0.030611297;-0.050175045;-0.032946754;0.074424565;-0.14393806;-0.007238175;0.097544074;0.04515857;0.12672523;-0.024892619;-0.028794564;-0.031007921;0.16439588;-0.16467789;-0.030862696;0.028507827;0.007028564;-0.039437804;-0.028224958;-0.10689574;-0.094921805;-0.0019288504;0.030948997;-0.16979688;0.06948945;0.0075976155;-0.036778715;-0.058203533;-0.25988665;0.008565324;0.06666462;0.14932887;-0.046896398;-0.11013217;-0.03868915;-0.061964948;-0.21295376;-0.12233622;0.0721083;-0.019903256;0.11201605;0.13965824;0.006605559;-0.08598214;-0.020668605;-0.08533453;-0.0025383271;0.06639442;0.10671704;-0.046341963;0.13540463;-0.16040733;0.022294711;0.061037697;-0.31143457;-0.029826228;0.037539396;0.08907126;0.030049033;-0.042756137;-0.15968132;0.037851546;0.047928836;0.07766591;-0.030667612;-0.01685827;0.091745906;0.015473757;0.13230237;0.027352126;0.0041409587;-0.027121926;-0.13618247;-0.10370444;0.09781754;0.11591757;0.21320096;0.26778102;-0.18362008;0.29423058;0.036912885;0.015539019;-0.024955476;0.15999675;0.2515684;0.3171486;0.00025279608;0.022630194;-0.012327888;-0.23074427;-0.049637087;0.1765952;-0.06801711;-0.11291817;-0.031965774;-0.049495757;-0.08579552;0.10981717;0.019402483;0.08020154;0.09206436;0.07573116;0.1454903;0.030788444;-0.08258178;-0.08871594;0.05349523;-0.106666274;-0.055786476;-0.09887333;0.2574195;0.09168018;-0.022921689;0.031451464;0.07302391;-0.09550835;0.063582554;0.13375284;-0.05709682;0.089347;-0.00071401283;0.14186028;-0.051154647;0.18555638;0.06036468;-0.079081506;0.20169085;-0.07559583;0.10916318;-0.01910076;0.12030316;-0.025729254;-0.07741117;-0.08668556;-0.13046567;-0.005999526;-0.16064717;-0.1496986;-0.0052933916;-0.035277613;0.03257429;0.18066134;-0.16726981;0.075144604;0.01417299;-0.19276248;0.13815689;-0.11192409;0.004833929;-0.099852175;0.038449146;0.0629058;-0.08217725;-0.08343332;0.11581003;-0.17737472;0.052465502;-0.05945383;-0.061637256;-0.20635617;-0.17773633;-0.10817631;0.09796035;-0.04390405;-0.014043664;0.055603918;-0.0870815;-0.030341234;0.05651021;0.15998384;0.12968408;0.089457795;-0.09043584;-0.13823418;-0.13326979;-0.18775038;-0.111920685;-0.134979;-0.16084161;-0.17748377;0.0013477488;0.08002663;0.036708593;-0.11152293;-0.025468418;-0.23076692;0.051660348;-0.0513776;-0.14995259;0.12156882;-0.04559308;0.19761036;-0.25109506;0.020417355;0.041622303;-0.124502905;0.22473547;-0.078021586;-0.018255455;0.080068596;0.06807644;-0.016296906;0.016653908;-0.23445462;-0.18230288;-0.04953672;0.041027498;0.25368732;-0.046820726;-0.04285219;-0.11590109;-0.21454404;0.12610784;-0.0048775054;-0.040320057;-0.01655031;-0.0050779195;-0.08008158;-0.024959417;-0.22053008;0.04371818;-0.085830785;0.099165715;0.093603745;0.13412823;0.19208698;-0.20972666;0.20316136;-0.02227038;0.05086396;-0.015869124;-0.032754757;0.058701884;-0.010711657;0.007036174;0.11908235;0.17226534;0.16523662;0.07964061;-0.06212741;0.02527345;0.084502526;-0.050873626;0.03091708;0.048739873;-0.22637022;-0.077474765;0.011931163;-0.104672186;0.027242195;0.02668522;0.04207324;-0.030716244;-0.11265935;-0.1601806;0.0084626945;0.05907205;-0.017828377;-0.017586185;-0.22545248;-0.15189229;0.039577354;-0.16493271;0.067152396;0.15981431;-0.10334794;-0.019886317;0.026514633;0.06790574;-0.1505739;-0.031558987;0.03074565;0.1885172;0.25023457;-0.18824667;-0.047567494;-0.06847559;0.11623041;0.08289823;0.17026082;-0.04308725;-0.1053948;-0.11556785;0.11077406;0.2398185;0.18563493;0.0752152;0.118471414;0.21407364;0.07024601;-0.033305377;0.28162253;-0.086059175;0.06402423;-0.052970763;-0.11718562;-0.0046840566;0.09449173;-0.010846285;0.03231116;-0.15970546;0.045581345;-0.09624114;-0.07359152;-0.022340575;0.08063944;0.020785257;-0.119756386;0.13564226;0.11365367;0.13295466;0.029397031;0.16208832;0.19373688;-0.17094532;-0.05281332;-0.0741424;-0.05280498
-0.0506903;0.1416626;0.18961778;0.015543762;0.09528902;-0.09997782;-0.12344279;0.00085120735;-0.1883223;0.20371482;0.00092601596;-0.13770261;0.12223747;0.0055913627;0.13686931;-0.07884565;0.10432848;0.040058263;0.09286262;-0.1415343;-0.37035623;-0.27141684;0.08039412;0.14519818;-0.060295325;0.04490012;-0.05598754;0.1260464;-0.013886335;-0.00088552525;0.03380406;-0.3303659;0.015099633;0.122374766;0.0981564;0.08996111;0.038127203;0.06902716;-0.027941782;0.006127215;0.15481342;-0.099495016;-0.16916323;0.0027954704;0.08412808;0.033945043;-0.38297057;-0.26077697;0.012244496;0.05782847;0.018282976;-0.029585283;-0.018307125;0.10716142;0.020231744;0.09365546;-0.050926868;-0.1673527;-0.04079789;0.06466536;0.019114785;-0.27937293;-0.15922982;-0.109467715;-0.16689749;-0.15266347;-0.048244044;0.012599354;-0.016335571;-0.04726651;0.0184002;0.13802208;-0.0018399832;0.09633707;-0.010737206;-0.040518347;0.09133627;0.012908044;-0.09904348;0.0051249075;-0.10185879;0.043138016;-0.10325191;0.12407234;-0.14764109;0.09973031;0.1387126;-0.16727985;-0.12842324;0.027369635;0.021589024;0.04760316;-0.0672963;0.07011247;0.013672617;0.030169511;0.12528521;0.072017916;-0.052587226;0.057933744;0.0046142014;0.14311646;-0.18500789;-0.29384443;0.027763305;0.049913224;-0.09653568;0.03405912;0.08232221;0.23292048;-0.04600021;-0.23248546;-0.08555735;0.015262321;-0.122145884;0.14912148;0.018447567;-0.008527251;0.048654187;0.11612897;0.1687019;0.08240939;-0.034175634;0.01721657;0.22945037;-0.098333776;-0.21675313;0.19251487;0.0055470667;-0.1566856;-0.13362078;0.066268966;-0.05172419;0.1351656;0.068992265;0.1741282;0.099866696;0.07718269;-0.03389012;0.08383719;0.12084091;-0.010054627;0.064983964;-0.10239083;0.094608344;0.07961473;-0.142369;-0.2781864;0.018736769;0.038766112;-0.093516484;-0.0021713534;-0.015658885;0.074520946;0.15632032;0.18735744;0.047965392;-0.12674503;-0.18846984;0.027183173;-0.08483596;0.021769626;-0.16571309;-0.088465996;-0.012129843;0.06991082;-0.21776815;0.0133658;0.021041932;-0.05877436;-0.1287064;-0.15062037;0.25212026;-0.30868936;-0.07950348;-0.25001168;-0.05754977;-0.10476173;-0.009825492;0.027606081;-0.04477403;0.047595944;-2.4973648e-05;-0.08026115;-0.01234881;-0.15108153;0.030268962;-0.10392718;0.060762156;-0.053750116;0.052767735;0.15368971;-0.031537496;-0.051591445;0.04560875;-0.18787852;-0.112289734;-0.018145515;0.060272876;0.1761462;-0.29587147;0.03929633;-0.080545865;0.006124662;0.190955;0.03516242;0.09000712;0.048316818;0.16325644;-0.12283263;-0.15304467;0.18333597;-0.025719829;0.14992747;-0.11005352;0.03345517;-0.082063265;0.0491896;0.10450018;0.04554063;0.15979664;0.0647737;0.10992275;-0.0293446;-0.342313;-0.05024862;-0.08923941;0.07641755;0.079058446;-0.09703177;0.053027112;-0.024217151;-0.24871083;0.09147761;-0.24393651;0.046450604;0.105305806;0.14416973;0.12050693;0.042307615;-0.052474305;0.06735868;-0.12021255;0.06329657;0.0009776943;0.012065766;-0.07772533;-0.3140705;0.022857703;-0.03472615;0.07214513;0.1071781;0.097843885;-0.082402855;-0.10676538;0.19050603;0.018820273;-0.17940842;0.07584465;-0.0650169;-0.011924763;0.09134541;-0.018356636;0.06809503;0.09424843;0.10969694;0.18793926;0.009847499;0.0024144219;0.012286996;0.20222181;0.106934406;-0.029327214;0.05183206;-0.055158217;0.12336812;0.16433151;-0.14762953;0.070349276;-0.048457533;0.016141884;-0.120641224;0.058647033;0.06952531;0.042523433;-0.0049810763;-0.23685774;0.0141463615;0.049788248;-0.09347699;-0.14784904;-0.094348446;-0.112230696;-0.016017305;-0.08993786;-0.032504316;0.031891853;-0.08922454;-0.081239246;-0.014649825;0.068160065;-0.048272986;0.10727641;0.048395183;-0.06634735;0.097263485;0.15157834;-0.0067871637;0.011297477;-0.17021942;-0.06533873;0.08585873;-0.38983953;0.048233327;-0.010472063;0.046726093;0.055368446;0.11850053;-0.06445813;-0.05541438;0.044956304;0.16070782;-0.045781374;0.020080978;0.13978958;-0.15161796;0.15266295;-0.017217306;0.025076004;-0.032214668;0.06928874;-0.036662;0.053956795;0.1696631;0.102599725;0.33528453;-0.2143097;0.076072484;-0.093987;-0.14518306;-0.11586239;0.0890025;0.15561067;0.40224832;0.04052223;-0.0038608056;-0.0032473116;-0.10969305;-0.016371114;0.12535216;0.007378772;-0.21276845;-0.05361847;0.03653727;0.05274465;0.03494207;0.050791644;0.052881453;-0.010150603;0.11043577;0.17782526;0.0027467785;-0.07789045;-0.20598574;-0.07280774;-0.094870634;-0.105849735;-0.024103144;0.2231093;0.18379407;-0.06487451;0.09918192;0.14031935;0.03765311;-0.08554544;0.08272479;-0.038750246;0.10233092;0.105050035;0.02282402;0.026687048;0.14379898;0.07510588;-0.012819995;0.16040365;-0.06961157;0.059057128;-0.05343841;0.12891234;-0.09796015;-0.16090812;-0.059403565;-0.019701753;-0.08500607;-0.0059306826;-0.14390036;-0.02587567;-0.021058336;-0.079361096;0.066655315;-0.2051573;0.2753635;0.08418287;-0.075520694;-0.04291063;-0.06731168;-0.022106517;-0.12914635;0.015094238;0.037019376;-0.11670701;0.028268445;0.06754045;-0.08435108;0.034305982;-0.1320508;-0.089720376;-0.053655975;-0.067777686;-0.06397624;0.095032334;0.07527165;0.029851569;-0.10387948;0.036254846;0.008223804;-0.015954569;0.2278701;0.15309548;-0.06747585;0.03218518;-0.2126372;-0.0419699;0.08941259;-0.11615373;0.08481271;0.03259914;-0.18004015;-0.0058119954;0.015138432;0.0758572;0.018952277;0.07313167;-0.03879229;0.193828;-0.22451186;-0.072808154;0.049730983;-0.03436325;0.20585798;-0.12878916;-0.08748638;-0.017883634;0.07265489;0.1266413;-0.16226436;0.07091469;0.1429266;-0.27792063;-0.075881675;0.07607848;-0.10854313;-0.04512113;-0.030603366;-0.08158499;0.11443667;0.099865295;-0.051191878;-0.1312478;-0.21006489;0.064924836;0.04955281;-0.07548955;-0.00087567663;0.044577483;-0.07882757;-0.041123997;-0.2660907;0.03668033;-0.081233725;0.03881871;-0.020465858;-0.0659835;0.08471387;-0.059402287;0.16499145;0.1583282;0.08860745;-0.09108773;-0.028904209;-0.107779;-0.051102236;-0.06134968;0.20831817;0.030135266;-0.13112228;0.06372452;-0.18050113;0.025605286;0.08558276;0.0024377422;-0.009996034;0.10033304;-0.09075403;-0.015381562;0.026003107;-0.13399203;0.059735205;0.12641124;0.22272792;-0.03458517;-0.056773614;-0.090562806;-0.016285622;0.03366839;0.107474364;-0.045923255;-0.09946278;0.030165933;0.045213357;-0.061652433;-0.21485917;0.11722272;-0.074602194;0.035050545;-0.23737407;0.0706691;0.019757936;-0.10973082;0.006744163;0.015558217;0.24869342;-0.10937232;0.109350555;-0.13689715;0.031171411;0.18628176;-0.10219717;-0.21493928;-0.09527807;-0.068800844;0.031077078;0.2050225;-0.10101945;0.07874801;0.07183666;0.13649496;-0.02589311;-0.036413167;0.17571634;0.13188612;0.10577787;-0.052184463;-0.085352555;-0.0105622;0.11745894;-0.01572399;0.08387189;-0.14479737;-0.041067086;-0.102746926;-0.005804912;0.24564354;0.051222518;-0.10817448;0.0060601067;0.06980466;-0.0085410485;0.07496956;-0.0077680466;-0.037815694;-0.13581084;-0.040604644;-0.08244727;-0.048958816;-0.09263252
0.057796516;0.038095996;0.16628772;0.15587486;0.017374797;0.0042357533;-0.06068016;-0.06489517;-0.092732705;0.23118512;-0.14610063;-0.05308724;0.05779475;0.005540297;0.16324092;-0.08542695;0.26842147;0.074721605;0.006402375;-0.1656279;-0.3097741;-0.09333779;0.028488314;0.10530299;0.032055337;0.18519555;-0.083349876;0.14914072;0.06909336;0.004297655;-0.012953278;-0.23035352;-0.08930276;0.00096354116;0.12487258;0.013642056;-0.030577403;0.014091383;-0.032915056;0.081157856;0.02682089;-0.042634238;-0.15691225;-0.1044823;0.05970685;-0.026759146;-0.33645093;-0.24074279;-0.0073797563;0.13627274;-0.11348011;-0.019849593;0.23266749;0.0694064;0.05356522;0.17919293;0.05047251;-0.27847728;-0.114356205;0.024031483;0.04349656;-0.12998773;-0.10459356;-0.031967722;-0.04080069;-0.17317873;0.023692477;0.07585782;0.02409099;-0.09712502;0.002684154;0.12537184;0.2770982;-0.070449114;0.00828655;0.039280884;0.23284023;0.060959302;-0.066541195;0.0651852;-0.122205496;0.021753509;-0.022911754;0.087350965;-0.15564862;0.086559266;0.13068333;-0.054589313;-0.10968736;0.004340636;0.025373766;0.009485003;-0.074996576;0.10580881;0.008827042;-0.09113625;0.08335647;0.11748294;-0.053305093;0.070212744;-0.065825984;0.018952869;-0.091060884;-0.00044553014;-0.11100514;0.30443463;-0.03750225;0.011507626;0.0011722377;0.19668482;-0.056288652;-0.11215039;-0.04282335;-0.11710873;-0.117315516;0.08114936;0.04004545;0.01376126;0.06473845;0.015578732;0.073544055;-0.014774075;0.025522055;-0.014473471;0.064044006;-0.009132391;-0.20361762;0.120639615;0.068046;-0.107448615;0.11162492;0.06873616;0.08325973;0.066867866;-0.1438164;0.12498278;0.013700977;0.19166876;0.027089369;-0.031125516;-0.013645959;-0.12449361;0.018669816;0.001834713;0.018384768;-0.0092796115;-0.22829494;-0.13747285;0.09166684;-0.057493877;-0.09847453;-0.05983353;-0.08594975;-0.09176039;0.0758508;0.14342707;-0.065772414;-0.17297246;-0.2333603;-0.061946455;0.045510154;-0.03913001;-0.07870358;-0.02372251;0.026375873;0.07351007;-0.1909914;-0.12100262;0.090972975;0.09074043;0.031928975;0.03337716;0.122920714;-0.23913653;-0.23190306;-0.10838444;-0.009188149;0.011656629;0.09316376;-0.055321723;-0.01164169;0.15343247;0.034123648;-0.078991294;-0.04725281;0.1272928;-0.03653671;-0.022293758;0.23061164;-0.120323665;-0.08956839;-0.08330984;-0.033008955;-0.11591981;-0.20219928;-0.059280433;-0.09783325;-0.036503132;0.019602638;0.03607088;-0.096057095;-0.023643315;-0.03407753;0.06018319;0.11620732;0.0020101268;0.13261819;0.13290304;0.12018196;-0.19505087;0.016027253;0.21034199;0.14123195;-0.05752157;-0.09968873;0.004256221;-0.05816717;-0.032757718;0.024490455;0.009639314;0.18650256;0.13936523;0.10413913;-0.08999237;-0.21933919;0.12033767;0.009615687;0.01695538;0.116943255;0.024688588;0.016916603;-0.064960934;-0.109221846;0.05350373;-0.21673156;0.07233753;0.12762089;0.15148802;0.08028927;-0.034710314;0.09874713;0.044549774;-0.10536901;-0.06011164;-0.018397508;-0.14413944;0.024397144;-0.23705782;-0.15008943;-0.084006734;-0.07922628;0.2747501;-0.06883073;-0.076880865;-0.10106508;0.024216432;0.076032765;-0.11358684;0.10150628;-0.09085323;0.06067088;0.057298794;-0.045827724;0.05174541;0.21490705;0.063830614;-0.07256172;-0.07233169;0.07100091;-0.09740324;0.02705592;-0.052518297;-0.019119663;0.05338649;-0.033370655;0.07804091;-0.017666308;-0.11459267;-0.073818564;-0.046188403;-0.14822641;0.009670733;-0.06490009;0.091112226;-0.08535606;-0.08177598;-0.046093524;0.14679842;-0.1426591;0.035233755;-0.042560812;-0.121286675;0.01997111;-0.07524016;-0.037076853;-0.14170629;-0.06846027;-0.08385064;0.0011876147;-0.09426085;0.07853869;-0.08958221;0.09501433;0.12454357;-0.11640026;0.1258213;0.08728103;-0.070075884;-0.107186526;-0.18559395;-0.023141092;0.04281886;-0.13902923;0.16159901;-0.0943451;0.05160754;-0.010540024;0.037572544;-0.039653067;0.042887513;0.06197567;-0.012437586;0.055037636;-0.15775852;0.1377697;-0.34688547;0.029062793;-0.036139708;0.03273027;0.02282525;0.020490555;0.029250361;0.04148421;0.005865097;0.080493905;0.22142851;-0.23719054;0.17637761;-0.12034998;-0.225034;-0.034984905;-0.039798025;0.130964;0.3109581;-0.0826402;-0.122006826;0.032841045;-0.14671813;-0.049553294;0.16387622;0.08593409;-0.13553455;-0.05471956;0.023966912;0.018916424;0.0017536961;-0.07137602;0.115332015;0.106357835;0.039081417;0.13028401;-0.013519816;-0.091164224;-0.047693644;-0.1259704;-0.09772521;-0.2616904;-0.18639034;0.23098633;0.123826526;-0.06148405;-0.027631313;0.064716846;0.07804704;-0.08063388;0.04389322;0.05701235;-0.111063614;0.04958282;0.044335123;0.08732302;0.12681831;-0.106082186;-0.033417657;0.0910369;-0.13225622;0.011084712;-0.08151564;0.024381423;-0.14164537;-0.09237599;0.04996295;-0.06163764;-0.097649634;0.027747335;0.09884952;0.004229546;0.100046344;-0.0010848098;0.075407445;0.033559162;0.12500544;0.059772518;-0.11827017;0.027146576;-0.07319224;0.0074242377;-0.07250521;0.070874065;0.075023964;-0.118554;0.13790879;-0.0011401287;-0.1899988;0.028165812;-0.006591677;-0.14621074;-0.091731675;-0.06935495;-0.04120022;-0.018685086;0.11019115;-0.010855871;-0.033402856;0.049470413;-0.077800505;-0.040629856;0.2251184;-0.013956632;-0.035882395;0.064559184;-0.09615767;-0.084968165;0.12194241;-0.15050265;0.0012372069;0.117515214;-0.17028968;-0.07620089;0.0055755144;0.1286948;0.02305938;-0.1036753;0.018796908;0.026673738;-0.12712853;-0.24138682;0.09992134;0.05988186;0.14976142;-0.045710772;0.029209016;0.1937626;-0.0021039846;0.15772721;-0.25811622;-0.06235619;0.04484859;-0.11169237;-0.087292835;0.066926174;-0.18491136;0.03712749;0.050249863;0.0836311;0.1415553;-0.037040785;0.0778269;-0.06278867;-0.14933473;0.24779417;0.022796018;-0.17684944;-0.035417084;-0.0001339523;-0.009917253;-0.09916955;-0.08746593;0.051667143;-0.12838556;-0.089619;-0.113931;-0.05733097;0.02543293;-0.015499642;0.17525455;0.123372346;-0.067393996;-0.15527304;-0.02434529;-0.06410163;0.050950307;0.029966163;0.21467784;0.099485315;-0.018387428;0.085848205;-0.10065047;0.12509318;0.05084689;0.11279294;0.019368345;0.11273487;0.023888333;-0.009277554;0.06817498;0.0019209747;0.16871752;0.030834168;0.007658669;-0.07322567;-0.10040298;-0.20144495;0.16015145;-0.014474847;0.114923775;0.0612638;-0.013863;-0.13066308;-0.037262697;0.07384321;-0.14623113;0.13971676;-0.21171333;-0.050195023;-0.13526976;0.08938049;0.02048481;-0.08163951;-0.12637945;0.09245318;0.22283602;-0.10681675;0.00825609;-0.014658697;0.15775172;0.06459417;-0.15471756;-0.08281455;-0.109931596;-0.02916947;-0.058787722;0.110303245;0.060530763;-0.03905268;0.073193625;0.14005107;0.02593262;-0.10800998;0.24809611;0.04987147;0.0043636938;-0.05753545;-0.07118842;-0.10513388;0.09880239;-0.13578841;0.217598;-0.09235112;-0.00024705048;0.03303923;0.10166428;0.18796809;-0.03200236;0.06215742;0.0796358;0.14707251;0.06777827;0.087702066;-0.07897324;0.10972999;-0.088048235;0.063477136;-0.12640606;-0.09345432;-0.21642457
-0.04184531;-0.021462915;0.04562933;0.11245049;0.16481094;0.08949574;-0.14543848;-0.042718697;-0.086415336;0.17846078;0.03376603;-0.017730119;0.10606482;-0.0031864294;0.24455525;-0.056099974;0.050398976;-0.05330018;0.042552482;-0.12440944;-0.37400985;-0.0637212;0.030062744;0.09400272;-0.1923921;0.19208972;-0.086372465;0.23614243;-0.018508444;0.08505178;0.063579336;-0.29385394;0.030935818;0.017927367;0.123848334;-0.019621994;-0.03113781;-0.15935317;0.13556373;-0.08432004;0.11498407;0.07637652;-0.062209576;-0.07465075;0.04933471;-0.27032894;-0.33500084;-0.23906781;-0.19399892;0.24558002;-0.14591455;0.08165508;0.23810986;0.08435878;0.032518595;0.17647395;0.098199144;-0.23419455;-0.15899865;0.11130867;-0.04180763;-0.16337903;-0.16699077;-0.23084152;0.023039764;-0.2939826;-0.12068906;0.16123919;0.10413323;-0.14476794;-0.044351045;0.076557875;0.12559274;-0.00431602;-0.08220773;0.02145099;0.13426858;0.06456699;-0.07076767;0.015069522;-0.19901362;-0.04674586;0.05375083;0.199456;-0.1849139;0.06403551;0.20243517;0.01436136;-0.04339137;0.2109547;-0.08928133;-0.076246955;-0.10795991;0.13906047;-0.13755235;-0.07638849;0.032184973;0.057083175;-0.09652189;-0.02319299;0.050981153;-0.045775753;-0.110284604;-0.12693201;0.091268376;0.19977745;-0.09613563;0.071383625;0.07301188;0.12518303;-0.20088315;-0.24596776;-0.057016034;-0.005961237;-0.11753168;0.10252261;-0.09137407;-0.015155401;-0.15143885;0.13549583;0.113325216;0.0875603;0.030364398;-0.008821653;0.119715735;0.0021888174;-0.09095668;-0.012262787;0.14110363;-0.059197746;-0.07047941;-0.061844725;0.030281132;-0.01780998;-0.0818969;0.06576944;-0.062642105;0.20632473;-0.025866468;-0.12484923;-0.07151124;-0.089169905;-0.06596223;0.16994554;0.079573825;0.09349186;-0.1604514;-0.11605079;0.032283556;-0.042432245;-0.06558614;-0.011105401;-0.029415324;-0.16488501;0.16617532;0.07133852;0.01717341;-0.15944026;-0.01641078;0.0862989;-0.038128074;0.02148321;-0.12074836;-0.16265517;-0.05242902;0.026465042;-0.059680395;0.08246606;-0.09238997;-0.04006625;-0.04315938;0.02210799;0.112251095;-0.24372518;-0.028579906;-0.25590497;0.049974866;0.028690461;0.13327534;0.0009929476;-0.063555375;0.12780157;-0.013556265;-0.015015702;-0.024710773;0.10804492;-0.023645304;0.15799561;0.091658786;-0.08326734;-0.13180666;0.01082641;0.07951247;-0.18347341;-0.07378261;-0.0015836568;-0.17085516;-0.14470476;-0.08738649;-0.02946931;-0.08845192;-0.16310112;0.02003113;0.10826188;0.21618022;0.13361344;-0.041649796;-0.027356315;0.11754335;-0.035601977;-0.08332568;0.08659555;0.1567957;-0.17200129;-0.1005863;0.08854309;-0.09359053;-0.051546562;-0.037592784;-0.037747405;0.17987897;0.1365995;0.064280935;0.033039086;-0.19144988;-0.07215177;-0.06877019;-0.085025504;-0.045726817;-0.115105666;-0.07344406;-0.17767753;-0.02721777;0.23277457;-0.16407692;0.072943516;0.0978963;0.13976131;0.16175063;0.10434568;0.13159302;0.21590665;0.09544434;0.1298387;-0.08862146;-0.08254689;-0.12264434;-0.224087;-0.16830052;-0.1653458;-0.004177835;0.06867909;-0.13750343;-0.061767925;0.10155361;-0.11107673;0.019529039;0.07109193;0.2128866;-0.14439908;0.08204251;-0.14531346;-0.10514109;0.10470335;0.06567024;-0.05057659;0.04830253;-0.18414365;0.011525534;-0.05690126;0.17386577;-0.15452497;-0.0036283883;0.081986934;-0.12351209;0.093522884;0.044887744;-0.038397312;-0.11934626;-0.042112205;-0.0137961805;0.1852275;0.07051875;-0.012288407;-0.11254275;0.038379807;-0.09536467;0.099926695;-0.14799699;-0.06728279;-0.12687166;-0.02562825;0.026285622;0.008321202;-0.09189753;-0.11285998;-0.110478796;-0.06234798;0.09554739;-0.012350755;-0.00021858049;-0.19625393;0.11014349;0.06632517;-5.8154295e-05;0.067516506;0.20528159;-0.17340368;-0.061403297;-0.022370726;0.043766245;0.05649997;0.021072643;0.08041836;0.0031294539;0.13333541;-0.08886831;0.2518169;-0.045606893;0.020335535;-0.049729805;-0.04509936;-0.07233569;-0.0038053486;0.08217541;-0.2163657;-0.056948714;-0.08182077;0.095391326;0.10153172;0.053259622;-0.05915658;0.03724139;-0.05070193;0.0764199;0.07342546;-0.08647667;0.19896542;0.021918627;-0.18920694;-0.13752715;0.11677615;0.047069084;0.19261254;0.057968803;-0.050707415;-0.08902565;-0.17652832;-0.003851902;0.14874728;-0.052847568;-0.185841;0.08562841;0.15229267;-0.12027063;-0.056628376;0.083349615;0.1291041;0.08884524;-0.17366412;0.09377389;-0.047637593;-0.026143884;-0.06410097;0.005851596;-0.175777;-0.21183331;-0.064267315;0.39864674;-0.14396164;0.062685564;-0.052301485;0.10938639;0.10362812;0.008218711;0.12959595;0.042770423;0.0015485139;-0.024716746;0.01360627;-0.07539248;-0.029920625;-0.06405103;0.011794472;0.111610174;-0.11808496;0.04159433;0.13890633;0.18004689;-0.04582685;-0.0937795;0.039341975;-0.07447538;-0.0054978332;0.090166055;0.028808195;0.09620293;0.029559104;0.08890333;-0.023381814;0.04067164;0.16073157;0.0128414165;-0.06596211;0.037647195;-0.054529715;-0.0046411604;-0.015074216;0.024937764;-0.037495725;-0.027355215;-0.07693013;0.10303332;-0.10458913;-0.027926061;-0.107585184;-0.061009932;-0.1041967;-0.06543126;-0.10875259;-0.09803279;-0.057432014;-0.10629132;0.10530512;-0.030683685;-0.058145195;-0.026362367;0.098301545;-0.11130158;-0.09756085;-0.056762267;0.08956249;-0.07858171;0.054720037;-0.002904817;0.1185137;0.08504196;-0.21297605;0.016655428;0.0013885159;0.1418409;0.08451595;-0.062294915;-0.12926282;0.19810882;-0.15547474;-0.27524513;0.13637455;0.10016323;-0.02807233;0.054321777;-0.029048527;0.058662117;-0.04561443;0.2659665;-0.15685047;-0.045192335;0.14645888;0.0042589763;0.10204728;-0.010206875;-0.083319455;0.14658476;0.13245778;0.04453995;0.19983508;0.03993784;-0.012133937;-0.20482267;-0.16895732;0.27185297;0.14113167;-0.11359641;0.031400766;-0.0015350623;0.008198904;0.13173789;-0.12591761;0.07474971;-0.11216199;0.03426184;-0.0072703254;-0.15139385;-0.014697122;-0.10577575;0.1261756;-0.024220634;0.014551977;-0.19513425;0.08484403;0.093889;-0.07880544;0.0063032475;0.17633928;0.13549514;-0.06505371;0.09566252;0.0039335764;0.016964829;0.12525332;0.013542271;0.031407077;0.012842033;-0.0031537989;0.022077478;0.12873419;-0.076422654;0.15664794;0.043421812;0.1445855;-0.008847048;-0.020951288;-0.15625785;0.13756745;-0.06343204;0.092314444;-0.0034553246;-0.1008537;-0.090174936;-0.040280487;-0.1679718;-0.11930283;0.14996299;-0.056164384;0.16473782;-0.20748843;0.078502044;-0.0353305;-0.025169741;-0.11492099;0.07562283;0.19569908;0.035848383;0.094452254;-0.06245739;0.1891944;-0.03728452;-0.108928315;-0.13163154;-0.04264312;-0.0694963;-0.1453408;0.022884993;-0.0010999964;0.04665776;0.08098473;0.14089967;0.03303818;-0.05572679;0.13718294;0.009652292;-0.04110411;-0.055738505;0.009047311;-0.09660488;0.070979886;-0.02204264;0.14611728;-0.06370445;0.040624063;-0.09575737;0.22689962;0.13053182;-0.025693042;0.069726415;0.12675568;-0.022350559;0.06925733;0.10767078;-0.023740124;0.041169737;0.012855694;0.025352005;0.04187045;-0.090302944;-0.1387085
-0.10446902;-0.01817981;0.06962391;-0.022091154;-0.007321077;-0.005726947;-0.10531334;0.06762479;-0.07130784;0.17859034;-0.027743012;-0.008709866;-0.05020537;-0.04346798;0.20584846;-0.042966433;0.14985503;-0.047342315;-0.014160411;-0.14769146;-0.32270247;-0.08386565;0.022507064;0.1463002;-0.1311122;0.08492604;0.00983503;0.10491095;-0.030771084;0.016833493;-0.013029796;-0.11910843;0.028088126;0.14991814;0.07688883;-0.030354021;-0.13408203;-0.14295405;0.16216812;0.17209697;0.1613584;0.09679153;-0.049806498;-0.024944851;-0.004876049;0.040186744;-0.18794751;-0.19425452;0.014590144;0.21040422;-0.1160097;-0.035710577;0.18826185;0.10525835;-0.015898569;0.14663187;0.124579065;-0.0448822;-0.03919236;0.099216215;-0.14774649;-0.080687314;-0.037865873;-0.102761246;0.04302177;0.016320964;-0.123607956;0.15521345;0.031523388;-0.009851163;0.027684739;0.060571738;0.056979217;-0.044629935;-0.051636845;0.12676851;0.13322166;0.047156956;-0.054907363;-0.11929543;-0.08184557;-0.046002563;-0.11797839;0.049794503;-0.07647758;-0.113573134;0.17378907;-0.119215034;0.06363739;0.17461543;-0.04760488;0.07497667;-0.06305053;0.014307524;-0.030812552;-0.04319946;0.075935595;-0.06168907;0.018607529;0.04524177;0.17731634;-0.09071223;-0.03900733;-0.18706872;-0.0030029162;0.16439426;-0.020744985;0.014315796;-0.043705177;0.05771909;-0.09347131;-0.17421104;0.015935697;0.08704914;-0.10665489;-0.037610225;-0.061211694;0.063507974;0.011933717;0.05471481;0.10587383;0.028444963;0.01895481;0.02298384;0.07951831;-0.0051843184;-0.04165322;0.043936428;0.0033499273;-0.00040908717;0.10190992;0.15228021;-0.1462195;-0.030285168;-0.07360415;0.17662299;0.1257187;0.03133807;-0.05764887;-0.03731108;-0.012569923;-0.15740216;-0.09212226;0.12081002;0.030830912;-0.09430221;-0.23524594;-0.1968669;-0.038849335;-0.026780648;-0.0028229859;-0.14181817;0.017868606;-0.17207636;0.15430479;0.08442786;0.09691004;-0.08375612;0.07220009;0.13723162;-0.030561361;-0.007339115;0.039793167;-0.0615263;-0.06079316;0.1632406;-0.22780442;-0.05863036;-0.016323427;0.016264068;0.049500182;-0.08354136;0.1779859;-0.14625722;-0.10835971;-0.084179014;-0.082567;0.019785337;-0.029132482;-0.0019262696;-0.04300732;0.20561565;-0.03735568;0.07218592;0.05704129;0.1128244;-0.0546032;0.07928842;-0.015752302;-0.004651262;-0.09986527;0.0754446;-0.09131625;-0.114315815;-0.14678581;-0.16480353;-0.15693456;-0.06533381;0.031091955;-0.100962006;-0.071062855;-0.30042377;-0.0426103;0.13487984;0.058200363;0.034469526;0.1513486;0.09398293;-0.0147123765;-0.10223769;-0.057621226;0.16643102;0.13159439;-0.122829914;-0.14321281;0.038170252;0.057911042;0.03044045;0.10739451;-0.067208596;0.06602958;0.039902676;0.083687745;-0.042077;-0.08836529;-0.022968277;-0.03874874;-0.136414;-0.0052222046;-0.10192354;0.02859567;-0.08927504;0.02510633;0.109749354;-0.17013061;0.18443385;-0.00051787664;0.022957213;0.09803348;0.052906536;0.03049547;0.115633704;-0.0107629625;0.04854551;0.06744124;-0.10483972;-0.029559735;-0.31563094;-0.11218321;-0.014132235;-0.13007033;0.16111091;-0.10595961;-0.094272576;0.072916724;-0.088527896;-0.05576795;0.1046251;0.26529625;-0.0772016;-0.11117398;-0.16892332;-0.045356818;0.0986782;0.18136422;0.07856574;0.15999609;-0.09384164;0.0496658;0.011216873;0.12440269;-0.03491105;0.1205482;0.008815815;-0.038651634;0.06259799;-0.019390594;-0.15779133;-0.030978397;0.06714404;-0.0772695;0.009602576;-0.036225483;-0.18541229;-0.0054661185;0.13148001;-0.0045176805;-0.08760221;-0.0030367991;0.03747181;-0.16075313;0.037909366;-0.06038878;0.10582755;-0.13665196;-0.1482149;0.036018535;-0.019026343;0.12388206;0.09154352;-0.020079607;-0.306386;0.12648793;-0.0026328256;-0.03659378;0.14542478;0.07748596;-0.1521395;-0.11651766;0.06827262;0.11824609;0.012416243;0.06858733;0.011632123;-0.025885014;0.07061599;0.050485242;0.011888535;0.047740873;0.022697128;0.035721358;0.16203898;-0.06830944;-0.055405214;0.19205146;-0.23738155;-0.11192094;-0.111622944;0.058352683;0.2120236;-0.0089673605;0.0555253;0.014108823;0.030438306;0.11281437;-0.008814097;-0.14669403;0.064582646;0.106787235;-0.16511394;-0.041008856;0.036635168;0.16369647;0.10903382;0.02688265;-0.10230379;-0.026063882;0.04953503;-0.0029946093;0.05816415;0.027793268;-0.027220653;-0.08141018;0.079204574;-0.025708167;-0.040747404;0.024416918;0.010195797;0.08282603;-0.16803329;-0.025893377;-0.13595726;-0.050812118;-0.114392735;-0.12386195;-0.04829529;-0.14344683;0.08019252;0.26837054;0.055609938;0.0895669;-0.023900868;0.1031526;0.023573237;-0.01417507;0.14408696;0.032076497;-0.018391045;0.051147513;0.11974492;-0.012580869;0.063065335;0.031174256;0.046606474;-0.0076334;-0.06891675;-0.11363082;0.08904115;0.10203091;-0.030943634;0.0040573347;0.12914702;-0.0031193784;-0.14471367;0.08036719;0.16232131;0.02379501;0.047419365;0.11720158;0.022404127;-0.07569703;0.22810331;0.091981485;-0.06189261;0.14723168;-0.09347081;0.065281436;0.033845317;0.10859751;0.10355771;0.0015936529;-0.043207057;0.03147494;-0.048124813;0.11751324;-0.037156988;-0.108032845;-0.15063766;0.04378968;0.08218043;0.02154064;-0.008610614;0.039100166;-0.11866612;0.070364036;0.0049825646;-0.04806722;0.14639355;0.095918484;-0.17903475;-0.13916136;-0.16815129;0.024021987;0.0014808942;0.07753939;-0.005996034;0.098345794;-0.1372437;0.015782697;-0.093654886;0.043153897;-0.08807917;0.068361245;-0.07253885;0.117910184;-0.09922677;-0.16141932;-0.026605356;0.042791493;0.049796794;-0.12240652;-0.08702403;0.16079219;0.019959643;0.21555601;-0.20106608;-0.03075893;0.0018462503;-0.16080344;0.03173115;0.13936667;-0.09692892;0.021635024;0.101122424;0.13027503;0.21236236;-0.04260897;-0.0795418;-0.22884813;-0.06299227;0.19944216;0.17457214;-0.066189885;-0.15883833;0.076367766;0.0654999;-0.07479845;-0.07580198;-0.14361358;0.061951846;0.106967494;-0.046719622;-0.15996371;0.18266127;-0.04484301;0.02757985;-0.008676247;0.048147276;-0.13250226;0.042096313;0.088925526;0.047589343;0.04294694;0.13286382;0.17246005;0.015476476;-0.09811541;0.032850724;0.085589506;0.15728979;-0.031453934;0.03387566;-0.15995884;-0.116784;-0.072313026;0.08396682;-0.05071235;0.22298163;0.14650494;-0.0034544838;-0.012791505;-0.12820758;-0.01685077;-0.017449558;-0.1497137;-0.051752977;-0.08314856;0.09894555;-0.057505026;-0.08701981;-0.1264642;-0.02996493;0.001641003;0.09126152;0.036127307;-0.16820583;0.009960255;-0.05382392;0.13914001;-0.046900667;-0.057247926;0.16587414;-0.073573895;0.008490915;-0.0563205;0.019704092;0.11188633;-0.18150856;-0.0467466;-0.03430606;-0.07544416;-0.15808672;0.11703645;0.038182143;0.2034234;-0.019206192;0.06554873;-0.068724945;-0.15123501;0.11509936;0.20095374;0.010568545;0.008598455;0.07407885;0.036218446;0.007505935;-0.081799075;-0.055284593;-0.12259951;-0.06263392;0.054549772;0.1318521;0.061016798;5.4186512e-05;0.27816188;0.17975274;-0.0098500205;0.082987234;0.106608205;-0.08349392;-0.0013742452;0.01382814;-0.04063178;0.015199986;-0.12953554;-0.17123623
-0.15438223;-0.07183847;-0.09977307;-0.0058521247;0.103513256;0.027213909;-0.120322816;0.039887283;-0.026841624;0.13193268;0.00758158;-0.05908821;-0.16671467;-0.032681078;0.11187431;0.053283967;0.13487945;0.052244175;0.111310765;-0.04801353;-0.3359877;-0.079689816;0.015611146;0.06975054;-0.060850542;-0.05565081;0.07537104;0.00087366014;-0.20689835;0.010447111;-0.06883143;-0.16303098;0.066538386;-0.04249942;-0.042023286;0.1174822;-0.04443107;-0.077932216;0.15279296;0.238676;0.09843587;0.0071400325;0.07653709;-0.14467748;0.0038686174;-0.02868413;-0.11097298;-0.08281966;-0.032046013;0.20770906;0.05457999;-0.01101859;0.11918679;-0.013569181;-0.017041989;-0.039136186;0.1262381;0.036492325;-0.069311514;-0.040576547;-0.14758737;-0.20313773;-0.07844999;-0.17979257;0.118076146;-0.123814054;-0.036488418;0.075778596;0.028802358;0.037080053;0.06447198;-0.11855339;0.09925194;0.036545184;-0.022865213;0.22456697;0.025198;0.012384589;0.055505652;-0.123891585;-0.04160354;0.05736816;0.013790946;0.035573512;-0.09701315;-0.07153584;-0.0469423;0.007113948;0.04737389;0.17045137;-0.018760147;0.013870545;-0.022957116;0.0917722;-0.007309619;0.032065712;0.083952904;-0.0054175495;-0.032519173;-0.0068169395;-0.011650453;-0.19725305;-0.13136116;-0.34748614;0.07980402;-0.012619584;-0.015192061;0.20783487;0.031623665;0.014289948;-0.01878299;-0.26816517;0.09277818;0.1446068;-0.1963656;0.13668057;-0.06884802;0.107166275;-0.063924424;-0.111935586;0.060043015;0.08882826;0.0011072009;0.015059175;0.073969185;0.038495157;-0.1519978;-0.09834095;0.16235928;0.14605767;-0.005991383;0.096258596;-0.0495479;-0.07240656;-0.038628254;0.101612315;0.03553157;-0.14474921;-0.08678118;-0.08308023;-0.035094846;-0.07324481;-0.1497905;0.00015510566;-0.089544475;0.0029819186;0.019415822;-0.24511093;-0.079817526;-0.12888332;-0.10995041;-0.10545662;-0.0016776955;-0.0764641;0.16004558;-0.008983024;-0.034451738;-0.10314988;-0.0078065335;0.14427564;0.057737343;-0.07553782;-0.032053992;-0.13687445;0.04509453;0.0047363383;-0.21997246;0.04003774;0.08959749;0.059887312;0.17518626;0.0022055686;0.11063199;-0.09398047;-0.011099832;0.0068640145;-0.18748194;-0.02853409;0.046715334;-0.12947483;0.09306142;0.16826043;0.03085419;-0.03602795;-0.0053679915;0.051808536;0.022879912;0.107108034;-0.0068308455;0.07727874;0.06835294;0.22860666;0.0955654;-0.015831195;-0.06310087;-0.2273239;-0.112045385;0.005000887;-0.08305198;-0.08074599;-0.2481968;-0.029264918;-0.08818226;0.070504285;0.045432728;0.10591089;-0.005221562;-0.06900069;-0.17509684;-0.06367479;-0.051492594;0.033602685;0.06007828;-0.03766933;-0.24109833;0.012277213;-0.018296726;-0.03669627;0.115734726;-0.09796597;0.07111116;0.03347254;0.11750969;-0.11089714;-0.14439584;0.13500012;-0.028145777;-0.19995525;-0.12888627;-0.12698711;-0.13095911;-0.010123751;-0.11392503;0.1342211;-0.14287049;0.1294008;0.15898998;-0.0045417887;0.007727511;0.06109275;-0.061414175;0.056065008;0.15169115;0.1316362;0.0195565;-0.07473192;-0.049231734;-0.24953811;-0.22352077;-0.04388607;-0.04843493;0.09851493;-0.06117165;-0.10594617;-0.048704572;0.044101857;-0.07159177;0.116654314;0.33715257;-0.021828156;-0.09165627;-0.04980063;0.039280925;-0.012922453;0.02935073;-0.060251027;0.2095169;-0.084736064;0.050919857;0.091082565;0.07028804;-0.12817404;-0.021479897;-0.054282304;-0.08841419;0.12894273;-0.054018516;-0.14826214;-0.06428044;0.03424855;-0.06636308;0.068807214;-0.066139966;-0.1755217;-0.12021333;0.09424386;0.017165087;-0.082478106;-0.011092721;-0.17642868;-0.12818359;-0.04298241;-0.1226361;-0.15930624;-0.05009607;-0.12676188;-0.03568798;0.016261373;0.15351436;0.12505917;-0.056013837;-0.25056478;0.09782299;0.11580952;-0.16165873;0.0510611;0.0027148784;-0.034839585;-0.13109013;-0.070093326;-0.007504125;-0.07563046;0.12652981;-0.07504269;0.087246075;0.059690043;0.041646753;0.08332127;-0.03586122;-0.07220389;0.06261215;0.048706364;-0.05340895;-0.11220689;0.12662369;-0.11489964;-0.17631239;-0.02357426;0.15307862;0.19276647;-0.035687063;-0.0072513316;0.14849016;0.042352933;0.136044;-0.010157624;-0.17046411;0.18002859;0.2734712;-0.08795519;-0.029736873;0.073299326;0.120076746;0.22384107;0.048664775;-0.042701047;-0.083259374;-0.048698686;-0.026929118;0.089413196;-0.03934187;-0.10343371;-0.089522876;0.00030931254;0.003549629;0.065064214;0.12611373;0.051407613;0.058186684;-0.0010654615;0.08925254;-0.18510014;-0.1007791;-0.002746813;-0.15677582;-0.01872107;-0.04407531;0.03534069;0.34229025;-0.036634177;-0.05773019;0.018774465;-0.03716738;0.12168095;-0.11347487;0.22416078;0.090463474;0.005238214;0.050424557;0.03566616;0.099179216;0.0011286553;-0.051185977;0.032904185;0.05751304;-0.015621595;-0.011124759;0.18033302;0.17005597;0.05213055;0.018994007;-0.08971855;0.09474906;-0.05386337;0.018354867;0.00346942;0.14813673;0.09852814;0.019858198;0.13946436;-0.08404631;0.08949349;0.0006359593;-0.046410732;0.08453801;-0.056080546;0.0834436;-0.0049256478;-0.12466553;0.049027298;0.057116114;-0.11577341;0.10304689;-0.05095987;0.08280803;-0.0015592256;0.07646971;-0.10966859;-0.12072607;-0.06266583;-0.09142715;-0.117729045;0.0930201;-0.0045566945;0.06917937;0.029588904;0.087325074;0.030911066;0.051221736;-0.12956786;-0.15534359;-0.22579738;0.040514376;0.0059697526;-0.029574545;-0.054476846;-0.074587055;0.019131456;-0.018038401;-0.20818551;0.15534787;-0.0224532;0.01833103;0.045389354;0.11948825;-0.036460944;-0.118483424;0.02578565;-0.016903743;-0.06082904;0.071616754;0.015313326;0.15427946;0.042179815;0.08204343;-0.15424562;-0.14450175;0.009315925;-0.06292757;-0.053304683;0.015546327;-0.053515553;0.11771512;-0.074164815;0.082411945;0.17825918;-0.04124345;-0.029455736;-0.06400218;-0.07139797;0.23301141;0.21835582;-0.02515851;-0.09927701;0.03939061;0.121153384;0.09903901;-0.15532266;-0.06839669;-0.014932404;0.06503445;0.020895472;-0.17099883;0.088207595;-0.08244645;-0.095512986;0.060601406;0.046966717;-0.01250341;-0.10273533;0.08485573;0.07190003;0.17325777;0.11058867;0.23131256;0.023942249;0.023317888;-0.08457553;-0.1263956;0.14188308;0.05420876;0.03452902;-0.08652522;-0.005405699;-0.067915864;0.1479445;0.051816404;0.24724042;0.14612877;0.06382879;-0.046303682;-0.23998505;-0.03283905;0.15134682;0.017175565;0.05849084;-0.050058138;-0.03848385;-0.15488485;-0.12362645;0.015334556;-0.04322166;0.0021885452;-0.065510266;0.06267053;-0.23104358;0.057070926;-0.11583197;0.13506262;-0.020153048;0.03540578;0.15594068;-0.068406895;0.061482087;-0.08255407;0.10885265;0.10292979;0.0642009;0.113901265;-0.066042274;-0.026399596;-0.07426245;0.15412813;0.12891334;0.27976486;0.10996119;-0.036092263;0.034746695;-0.19282235;0.06495844;0.18511634;0.047320884;0.17577559;0.040284246;0.014250461;0.06470443;0.10903501;0.075853154;-0.010754963;-0.00119679;-0.08060686;0.09098214;0.00024196671;-0.038176626;0.1766187;0.014965301;0.04424513;0.12857054;0.088933595;0.04673236;0.025786635;0.058723945;-0.11428354;0.13074264;-0.21715078;-0.0831225
-0.045660254;0.13453382;0.032177415;0.023738407;-0.05902406;0.043445744;-0.13969457;-0.03768499;0.0070690587;-0.03546272;0.030151453;0.20173831;-0.04474041;0.13215825;-0.025929539;0.16250664;0.17702617;-0.11202799;-0.13653947;-0.025213066;-0.23116425;-0.0122061595;0.073355466;-0.0494826;-0.041923504;-0.030205555;0.1308964;-0.074731685;-0.27499533;0.16582571;-0.11440307;-0.14058991;0.021837015;0.027642542;0.04635948;0.16405423;-0.15225077;-0.10334056;-0.06938615;0.20793176;0.054130603;-0.02264789;-0.12946644;-0.063438945;0.07741732;-0.0016009308;-0.09075559;-0.22218154;-0.12318828;0.105907165;-0.07445475;0.22657472;-0.009400406;-0.1000408;-0.07719992;-0.06186093;0.17249316;0.1173881;-0.07178079;-0.014990844;-0.1815957;-0.11104956;-0.10578207;-0.22839671;0.14387824;-0.06750277;0.10717594;0.15893392;0.015370181;0.087044805;0.07161225;-0.030515844;0.034696843;0.15171415;-0.13258982;0.14300214;0.1937175;0.090004236;-0.08018926;-0.17140335;0.10170225;-0.011457958;-0.03885926;0.04494049;-0.054114096;-0.13772438;-0.15601744;-0.10275338;-0.13873452;0.14698112;-0.068213485;0.049767487;-0.09334321;0.054497313;-0.0077381274;-0.025500888;0.20995434;-0.009151622;0.03549998;-0.052822128;0.005807246;-0.060638838;0.0061865957;-0.21752837;0.010357142;0.040457483;-0.06277345;0.14136311;-0.12068644;0.25797525;-0.013798908;-0.17349486;0.020406934;0.16426139;-0.27350822;0.15744728;-0.061321445;0.04498749;-0.015140081;-0.04235721;0.1141797;-0.19944909;0.13322093;-0.00048457875;0.06329457;0.04662106;-0.16912965;-0.116037406;0.06496476;0.014838574;-0.13250153;0.059377003;-0.01921188;0.034032922;-0.09746446;0.09815552;0.02942673;-0.047589008;-0.11822135;0.082169555;-0.07219837;0.088487476;-0.17298912;-0.05961068;-0.014335844;-0.048338022;-0.017369684;-0.24064;-0.17461787;0.0039729266;-0.024803808;-0.11738168;0.04805541;0.0089634545;0.07710986;0.15359274;-0.013245251;-0.05535708;-0.08646827;0.001604696;0.054295555;-0.02309688;0.04548129;-0.04364756;0.036187146;0.10344905;-0.26880562;0.10300206;-0.0070242016;0.024511268;0.1227665;-0.061898973;0.10491203;-0.055708863;-0.014182955;-0.055944826;-0.11253738;-0.025351262;-0.092852965;-0.11258466;-0.021349411;0.032904338;0.06934092;0.07756399;0.16996944;-0.096651256;-0.14428923;0.063386284;0.11959184;0.047692765;-0.093345165;0.26802725;0.00930382;-0.15023871;-0.27816048;-0.3034507;-0.23315258;-0.09095785;-0.05179635;0.041585147;-0.16764975;-0.075602025;0.029750861;0.078240626;-0.14210454;-0.05693216;0.015852952;-0.13766325;-0.19795127;0.02735374;-0.05132416;0.14372897;0.072742864;-0.02881772;-0.19733219;0.09342134;0.1468738;-0.0930567;0.17077887;-0.18507625;-0.040894214;0.10268734;-0.01849955;-0.18423814;-0.045395717;0.021857979;0.08774293;-0.07852474;0.0528804;-0.24010621;-0.0039104843;-0.15867297;-0.1639144;0.16426082;0.13641185;0.17951322;0.11775109;0.04613402;0.06383989;0.048268337;-0.011849612;0.066910274;0.006026697;-0.016776798;0.047257204;0.18293463;0.09995261;-0.19659987;-0.07947541;-0.21410146;-0.011343286;0.10299663;-0.058543373;-0.16687588;-0.08861579;0.16499686;-0.121078834;0.030279811;0.2455607;-0.097034775;-0.119080745;-0.09363321;-0.058945403;-0.10339005;0.1442174;-0.00982768;0.013717077;0.12622707;0.17672352;-0.025522893;0.08087003;-0.012973933;-0.057545256;-0.08703469;-0.031726453;0.05340075;0.12593503;-0.23637761;-0.047877505;-0.03268689;-0.05679979;0.1314825;-0.20510031;-0.2690149;0.12958845;0.1916592;-0.030422674;-0.04887313;-0.007785502;-0.101294726;0.00184076;-0.04628081;-0.08825978;-0.061359502;-0.075929865;-0.07100849;-0.105343;-0.021953395;0.08790651;-0.06659391;0.026102897;-0.18474497;0.027512524;0.22188072;-0.20768686;0.04227315;-0.07209358;0.11064033;-0.06564739;-0.097155176;0.16080804;-0.10119198;0.099758156;0.022099487;-0.15011594;-0.004696426;0.14256795;0.12818053;-0.13514249;0.05943954;0.049728666;-0.051433813;-0.15134326;-0.09782451;0.03479707;-0.24517836;-0.31981695;0.008567397;0.10480778;0.10418846;-0.112690486;-0.006780926;0.09844584;0.02509183;-0.0030738087;0.10299674;-0.07338761;0.030604707;0.20396435;-0.017296549;-0.16293639;0.16495514;-0.047122926;0.13001877;-0.08090003;-0.0684616;0.08222169;-0.020041298;0.058614828;-0.036578264;0.04150653;0.03739201;-0.1276083;-0.11103961;-0.058195435;0.14767528;0.079000376;0.057460703;0.08762895;0.12216362;0.08727683;-0.07238138;-0.09204776;-0.016181512;-0.018954707;0.041918598;-0.0092472015;-0.047398962;0.21575877;0.077225976;0.0762698;0.122344896;-0.0020721306;0.018595794;-0.063232504;0.21412046;-0.0773794;0.019673575;0.009234686;0.18744881;0.18479912;0.041318286;-0.013822271;-0.059861142;-0.01670439;-0.016355757;0.031787395;-0.025671449;0.011947418;0.16885467;0.14182208;-0.07584648;-0.012034559;0.10764669;0.019226272;0.0914227;-0.041013997;0.10446299;0.115387835;0.2201242;-0.035645127;0.11150753;0.008917756;-0.092792906;0.034726378;-0.0919954;0.03826613;0.07236078;0.015197785;0.24283162;0.06339965;-0.027642544;0.065367885;-0.08670374;0.063521035;-0.002771075;-0.11893449;0.064815305;-0.06240075;-0.0528135;-0.13555536;0.11453759;-0.0030186423;-0.19965382;0.024661757;0.073666945;0.006537797;0.11165592;0.19324917;-0.1466611;-0.05905906;-0.15158367;-0.11006784;-0.10108313;0.12507182;-0.017708397;-0.10726769;-0.070527755;-0.21511105;0.072499506;0.05108688;0.0679587;-0.1117383;-0.03535873;0.055669595;0.020726563;-0.20837377;0.090005234;0.25576;0.112250514;-0.012642208;0.022713106;0.065746844;-0.014264407;0.06440858;-0.11757018;0.017541159;-0.012654736;-0.18434803;0.013224492;-0.07695725;-0.09042943;0.029806716;-0.21296111;0.085699044;0.11443839;0.18081334;0.07565613;-0.1760442;0.0017492498;0.12771219;0.118672766;-0.11516787;-0.15162018;-0.09344044;0.23221755;-0.06932843;-0.08133794;-0.12178755;0.09717034;0.11036811;0.062661394;-0.07332586;0.032887105;-0.07273343;-0.004465158;0.0798702;0.004408417;-0.17048049;-0.3451958;0.112865105;-0.048064902;0.17647292;0.18321571;0.14067854;0.09335287;0.06375327;-0.13250566;0.03723055;-0.00021474787;-0.13368681;0.08434979;0.012402036;0.047630597;-0.10802343;0.29891467;-0.0077861;0.1545783;0.13757567;-0.07433939;-0.026329119;-0.11632015;-0.20547846;0.01403549;-0.015360621;0.03138313;-0.1077272;0.03895816;-0.055018663;-0.007526218;0.005581996;-0.13610384;-0.011063218;-0.089707;-0.09160206;-0.12266817;-0.1730675;-0.11123212;0.1357469;-0.051265012;-0.1131645;0.07307001;-0.033056874;0.026088018;0.0041840835;0.15572013;0.10970958;0.0470861;-0.04011324;-0.02668576;-0.14105281;-0.056961983;0.19534907;0.03839548;0.16178724;0.1824984;0.11935682;-0.1458614;-0.1639765;0.10640751;0.21259305;-0.06883294;0.14889048;0.005362609;0.12862809;-0.117140755;0.051464133;0.050107952;0.120301;0.18271251;-0.13941678;-0.0051284195;0.07380483;0.067969106;-0.012052595;-0.013676018;-0.11775817;0.06635682;0.027680982;-0.12293234;-0.06380498;0.21012448;-0.16445993;0.02330969;-0.03044337;-0.07326034
-0.1264972;0.16412152;-0.14218202;0.12814991;0.11846842;-0.069001004;-0.20290317;0.13900346;-0.1349778;0.056725703;0.1415663;-0.0875443;-0.008262675;0.09297415;0.075609945;0.19182323;0.066203766;-0.09109304;-0.12504967;0.08396814;-0.12049602;-0.22062428;-0.02654767;-0.16326417;-0.094709806;-0.23718746;-0.020823294;-0.17520465;-0.17131324;0.08064016;0.101065315;-0.25103974;-0.011538206;-0.16490437;-0.10959894;0.20210408;0.079466216;0.049021747;-0.07072883;-0.10860219;0.080260456;-0.13796188;-0.18528028;-0.2481029;0.112070575;-0.18223312;-0.123418294;-0.2026121;-0.06531472;-0.08836457;0.19426636;0.19851577;0.20683634;0.09356744;0.04834766;-0.17470391;0.009637452;7.829226e-05;-0.06372239;-0.051600438;-0.19395928;-0.24483737;-0.22691466;-0.09786399;0.06685264;0.024648312;0.021174707;-0.037141856;-0.00025822967;0.030502427;0.032859698;-0.1788287;0.122819595;0.16368714;-0.19781257;0.047606457;0.05472534;-0.02769498;-0.035250105;-0.017647913;0.17963386;9.2893344e-05;0.006276859;0.0020134805;-0.10537115;-0.2265788;-0.13465323;-0.13795462;-0.10297131;0.057179395;0.09068184;-0.012938927;-0.17658105;0.06890749;-0.044810023;0.12754126;0.048696112;-0.035358716;0.006204923;0.012527427;0.019167187;0.024278043;-0.105700135;-0.20540607;-0.06382174;-0.061872363;-0.08246005;0.13750744;0.15769339;0.10229969;-0.14575012;-0.18688433;-0.091689736;0.057639908;-0.0705934;0.062729836;0.03014286;0.15618722;-0.25892106;0.06444142;0.026397422;-0.008672642;-0.009157345;-0.054092214;0.1601923;0.004030756;-0.06316017;-0.0484356;0.002655705;0.060224038;-0.057954907;0.057775475;0.16025293;0.121779114;-0.019814264;0.072196364;0.05562493;-0.018016325;-0.22613695;0.115712464;-0.25268447;0.105853245;0.03966127;0.0035685415;-0.027935872;-0.12365476;-0.05027824;-0.091629654;-0.0904096;0.1268794;0.08818652;-0.06534245;0.15706474;0.09696775;0.018855873;0.14863348;-0.04742595;0.019103197;0.020886093;0.13613641;0.04108277;-0.0045073973;0.1034432;-0.093061574;-0.025889706;0.034724027;-0.12471633;0.10927565;0.028195292;-0.16694322;0.08639318;0.0068115564;0.05711688;-0.10119721;0.056412593;-0.046488106;0.0064759995;0.038225338;-0.05435258;-0.08391573;0.07387251;0.07808009;-0.05065729;-0.15432659;0.13493294;-0.08245567;0.14083058;0.2347339;-0.049465977;-0.0062314114;0.0002152294;0.08934137;0.0073773903;-0.008206766;-0.08095158;-0.11064622;-0.091411725;-0.042271476;-0.18611763;-0.035306256;-0.178917;-0.058505453;0.03289481;0.030431429;-0.16320473;0.010073757;0.082147084;-0.059036605;-0.22058725;-0.08473224;0.042082373;-0.034681544;0.050967187;-0.01074996;-0.03244072;0.058280345;0.0052211373;-0.05748984;0.12511328;-0.052115545;-0.021792246;0.0051533123;0.037569948;-0.08248538;-0.19627419;0.045120455;0.122353695;-0.14330876;-0.10553471;-0.25687894;-0.07461179;-0.044727735;-0.17225076;-0.020993372;0.0011408555;0.20678452;0.19237025;0.011780078;-0.014232503;0.08039917;-0.10569078;0.08887993;-0.03441671;0.104486674;0.07824334;0.14830446;-0.112237625;-0.14553134;-0.090266354;-0.11730384;-0.067629024;0.016275832;0.13441463;-0.1768487;-0.2880894;0.21471815;-0.12606047;-0.09632558;0.2445248;0.047319856;-0.13566223;-0.194846;-0.0482556;-0.022671523;0.09352977;0.0792862;0.0059693493;0.07831013;0.24955966;-0.061570127;0.1566731;-0.10774825;-0.060859226;0.045827325;-0.16192172;0.17981847;0.1053628;-0.025511578;-0.03293725;0.15938401;-0.066753015;-0.0012051963;-0.06506009;-0.28259948;0.072605796;0.25584468;-0.091408156;-0.060645808;-0.13776362;-0.187616;-0.034631193;-0.07680292;0.08515932;0.0122686485;-0.2355758;0.0007057825;0.09875108;-0.10288161;0.045866355;0.036661997;-0.0110837;-0.19708578;0.06369458;0.012990004;-0.14801586;0.08553627;0.056251287;0.008825814;0.0844637;-0.048324548;-0.1456452;-0.05425604;0.021557972;-0.100712605;0.07228486;-0.050674178;0.15615886;0.03553207;-0.030328136;-0.055097606;-0.117334194;-0.08499939;-0.026291251;0.020543475;0.01581518;-0.07750944;-0.096296705;-0.07531634;0.17242391;0.026641393;-0.19421777;-0.02357884;0.15801762;0.030441193;0.10185388;-0.03723957;-0.07006459;0.13347642;0.00046831506;0.16873373;-0.0036336544;0.20184325;0.024491515;0.012811426;-0.03255917;-0.17773323;-0.08541679;-0.046832733;-0.08660903;-0.14643049;0.03870781;0.049017355;0.07016187;-0.08177117;-0.045047324;0.05330288;0.10283829;-0.1288616;-0.015564052;0.033350382;-0.018570224;-0.11950282;-0.067355715;0.024344863;-0.03346966;-0.03998572;-0.045796663;0.03692235;0.2346165;-0.11955043;-0.03422171;0.07482679;-0.029580837;0.1369392;-0.1349032;0.077271335;0.1260399;-0.02641168;0.023462405;0.090376645;0.08380708;0.0844845;-0.014260421;0.15867591;0.2849064;-0.0028351478;0.16811949;0.03567416;0.10074287;0.033115406;0.11587285;-0.050066795;-0.082410544;-0.0010817798;-0.06753281;0.17813404;0.009992157;0.0734817;-0.04953064;0.11433217;-0.048595227;0.019224245;0.041198846;-0.115793765;-0.046026047;-0.015320223;-0.007459098;0.0842533;-0.11161262;0.1328846;-0.079749934;-0.1703613;0.05946611;0.100190975;-0.020257145;-0.04564864;0.016965847;-0.21661198;-0.107072346;-0.17658964;-0.072005235;-0.056167636;0.031293377;-0.24988097;0.039486423;-0.052553106;0.10697361;0.04084;0.18120566;-0.07270301;0.04943054;-0.189211;0.06706831;-0.030113732;0.007950338;-0.04027112;-0.10421213;-0.13080063;-0.0058099753;-0.06815937;0.11374478;0.029069409;0.039168026;0.048664793;0.029682655;0.08740402;-0.08183396;-0.029488605;0.13220973;0.017023042;0.12987691;-0.016462015;-0.1349169;0.108994775;0.13286239;-0.054705217;-0.12337068;0.15179242;-0.066320546;-0.08438425;0.017099457;-0.0287678;-0.16668563;0.023688655;0.12851776;0.16728537;0.028473599;0.047539983;-0.17087051;0.069483384;0.075291514;0.105399385;-0.10222805;0.019278973;0.12448795;0.19435121;0.056969594;-0.14272164;0.05531788;0.015754826;0.08720266;0.09344787;-0.04714748;0.13935393;-0.050396368;-0.01539379;0.015562419;0.0045416225;-0.20361246;-0.11169466;0.26618114;0.0036185912;0.03303286;0.10983807;0.2927309;-0.0074117216;-0.0040465877;-0.01955762;0.1054612;0.017249588;0.12305009;-0.095177986;-0.05619826;0.0018356129;0.012551684;0.175326;-0.06217064;0.33986905;0.12394515;0.09976391;-0.032586653;-0.20923162;0.075954065;-0.010110831;-0.07424984;0.035119645;-0.12556139;-0.15731966;0.056497723;0.15546443;-0.20077653;0.14101423;0.04441736;-0.13477147;0.2159005;-0.12204771;-0.028327882;-0.08887637;-0.01364581;0.061030902;0.03958365;-0.042855002;0.075159736;-0.1681433;-0.041425835;0.2592604;-0.015530204;0.031830344;0.14151435;0.060450934;-0.052463323;0.035293043;-0.0782116;0.1533111;0.12851907;0.18919007;0.24339704;-0.020820756;-0.28773978;0.28938618;0.12067464;0.13406606;0.037965663;0.18648356;-0.15179022;0.07967205;-0.060665734;0.16144092;-0.14119814;0.07328278;0.06288922;0.027924862;0.055628512;0.07781016;-0.10149522;-0.14268489;0.052440375;0.011120218;-0.10230295;-0.10919284;0.00341267;0.2829695;-0.116783544;0.25908962;-0.19406442;-0.038397234
-0.12568869;0.038594734;0.0032084342;0.01659858;0.16037993;0.024461823;-0.17894112;-0.080423295;-0.08127245;0.098608114;0.16373341;-0.060118914;0.03254018;0.097020544;0.038864423;0.050783537;0.035944853;0.049646515;-0.1292648;0.09781073;-0.06261091;-0.09300198;-0.13280877;-0.14195305;0.008419555;-0.18587944;-0.043882284;-0.18054508;-0.36668023;0.090425484;0.08018116;-0.057511747;-0.06576478;-0.28182155;-0.111275494;0.10487805;-0.062210895;-0.06758484;-0.08963009;0.078773975;-0.0036815149;-0.058646817;-0.18685736;-0.2203373;0.07526347;-0.081837475;-0.0037196574;-0.23379286;-0.07454173;0.0034946147;-0.09134801;0.27751195;0.06493217;-0.013864796;-0.057180524;-0.13946706;0.19162136;0.13152756;-0.11051784;0.20455642;-0.07779713;-0.25462267;-0.13077825;-0.21494187;-0.045382477;-0.067327596;0.027070832;0.14441681;-0.022584;-0.06671007;0.051664647;-0.08849551;0.082026616;-0.0022564144;-0.18294647;0.2270703;0.14872243;-0.10430948;0.004188968;-0.094612695;-0.024468152;-0.039460674;-0.024148297;0.024225028;0.073824376;-0.16897054;-0.14447577;-0.0849096;-0.113080755;0.1942626;0.029784586;-0.1352157;-0.1343201;-0.12277767;0.036566637;0.12955347;0.16137747;-0.095009424;0.011457477;0.06204775;0.04104151;0.05548055;-0.05927301;-0.28547722;-0.08149601;-0.2063497;-0.012856134;-0.0493998;-0.05748083;-0.058935083;-0.104583986;-0.14598931;-0.02009341;0.061598312;-0.20016953;0.071062066;-0.005560845;0.041604303;0.007212683;-0.043149658;0.13606356;-0.046230964;0.08125286;0.06624972;0.011622974;0.23131809;-0.09356459;0.040066235;0.015343897;0.0701826;-0.045222115;0.13228117;0.15000877;0.12652114;-0.046088655;-0.10676443;-0.027575037;-0.14008111;-0.095417075;-0.09298298;-0.08758067;0.108813755;0.078401916;0.032281652;-0.034935094;-0.039755788;-0.008901392;-0.056099396;0.022439502;0.19140385;0.039199714;-0.16562365;0.074178554;-0.0033030321;0.031177554;-0.051394295;0.033460617;0.084356785;0.052440017;0.02446806;0.017969763;-0.0028042851;0.004614517;-0.021467755;-0.014625504;-0.064723626;-0.16642505;0.035479378;-0.022037635;-0.16356811;0.14511912;-0.08745645;0.16487738;0.074111335;-0.030952938;0.057450466;-0.070851445;0.08137505;-0.061146032;-0.054862887;0.081278265;0.110843845;-0.016695464;-0.067407355;0.006982219;0.042545896;0.022079334;-0.048723035;0.045818638;0.12506528;-0.01641415;0.029616432;0.05576558;0.049153022;-0.07365761;-0.17477824;-0.05098493;0.049006432;-0.09546624;0.062316235;-0.068576254;-0.16224258;-0.015744483;0.0020219064;-0.081743844;-0.0006681089;-0.05296856;-0.07364912;-0.037948962;-0.012344747;-0.011561558;0.0722897;0.030215763;0.008514778;-0.02000578;0.107271686;-0.056756653;-0.03490561;0.18909311;-0.0033993786;0.023216948;-0.01778026;-0.06938197;-0.14404516;-0.17888895;0.006889968;0.078155436;0.0010502196;-0.12231203;-0.029548194;0.04269166;-0.1241913;-0.1488083;0.1278168;0.025711434;0.17353769;0.05102279;0.16260742;0.051084746;-0.0009669371;-0.047150474;0.08403255;0.10389178;0.004576244;-0.035677467;0.12811735;0.082781345;-0.13391127;-0.022885084;-0.14011687;-0.024141805;0.09702858;-0.05461677;-0.1349092;-0.13058884;0.23978946;-0.13308524;0.023591787;0.050663147;0.045576297;-0.013137371;0.0022748301;0.0688651;-0.04637048;0.057494655;-0.10062561;0.24375108;-0.003477947;0.025462756;-0.1280278;0.1180955;-0.043664765;-0.0846347;0.110478185;-0.05989386;0.12942441;0.02189612;-0.11410349;0.007353963;-0.021974742;-0.25881392;-0.07596254;-0.12328252;-0.27782577;0.031154921;0.19948758;-0.08697446;-0.14410797;-0.045873713;-0.023354935;-0.07987913;-0.14725955;-0.08869028;-0.041771676;-0.054947935;0.041232616;0.034359895;-0.11743228;0.068366565;0.016415667;0.049894325;-0.23494646;0.17916718;-0.07352526;-0.036893878;-0.036336895;-0.074947275;0.068580456;-0.06508605;-0.08587517;0.14475898;0.01283872;-0.018235968;-0.16137008;0.014607955;0.06385439;0.07653679;0.044451695;-0.05975511;0.09901107;0.036175124;0.036420148;-0.02075102;-0.05513225;0.027956132;-0.14651218;-0.24809594;0.04391166;0.096661024;0.027419444;-0.08591193;-0.040462423;0.035469808;0.1383614;0.071800254;-0.03694466;0.0015949879;-0.020939263;-0.13321432;0.05829377;-0.119216114;0.15254061;0.009704554;0.06509252;-0.12871054;-0.13339594;-0.021385688;0.00045269215;-0.04484197;-0.14290605;0.03896368;-0.17155339;0.0058711693;-0.12648697;-0.10571763;0.10099877;0.17738098;-0.119038016;-0.04740354;-0.012156195;-0.007965174;-0.13410383;-0.11472295;-0.003392076;-0.04860557;0.03729657;0.02123753;-0.020982785;0.10668384;-0.060412627;0.022853924;0.112312585;-0.06284952;0.04256613;-0.11550047;0.13057005;0.0521433;0.0049715587;0.026596338;0.05844005;0.090833545;0.047841504;-0.048028357;-0.009336451;0.123149216;-0.046228193;0.13289376;0.11100698;0.108299114;0.111108944;-0.01330044;0.0038549686;-0.014920797;0.080612;-0.0073489156;0.17016031;-0.052990977;0.09741007;-0.031591732;0.014079905;-0.10835859;0.034515746;0.09945019;0.001272954;-0.0562504;0.05723209;0.13677272;-0.05521868;-0.036048014;-0.054236382;-0.15317422;-0.10983137;0.11561903;0.041483767;0.069979794;-0.16053294;0.05034753;-0.2620219;-0.22308582;-0.12886587;0.014143308;0.11539095;-0.12110597;-0.15776734;0.12054668;-0.095579214;0.10126003;0.07815481;0.09836447;0.06609996;-0.055625893;-0.14854567;0.020404143;0.061730515;-0.035655025;0.03043979;-0.04808851;-0.10657602;-0.0469646;-0.14458753;-0.026937252;0.08389784;-0.09858271;-0.08937257;-0.09595497;-0.032744538;-0.22119047;0.005930403;0.033076115;0.042561755;0.019894913;-0.08685763;-0.0017773177;-0.014134007;0.072646946;-0.11419215;-0.12419105;-0.117717244;-0.1076721;0.080526665;0.055719946;-0.10983315;-0.12193362;0.049620856;0.00037585117;0.1902038;0.14489672;0.061132323;-0.22989647;0.09066169;0.06774878;0.18811427;-0.22059928;-0.094016545;0.023656812;0.10783507;-0.055392046;-0.0732869;-0.03480794;0.053550985;0.06196498;0.089519136;0.033830836;0.22637081;-0.08508502;-0.004881844;-0.03149177;-0.02694629;-0.18179101;-0.10313544;-0.037577078;0.09657365;0.078458205;0.029539993;0.066450685;-0.03668874;0.11772394;-0.10161482;0.03494497;0.05840025;0.013088398;0.034057807;-0.08276082;-0.038215622;0.04868087;0.22900183;-0.024127563;0.19463846;0.25009686;0.072765626;-0.031252127;-0.014814021;0.02487888;-0.049559772;-0.06831163;0.09885203;-0.025658913;-0.13369063;-0.03857547;-0.11837482;-0.15656011;0.043441184;0.068312466;-0.08617482;-0.06308705;-0.20158185;-0.1402842;-0.049455397;0.08907541;0.11158766;-0.06307341;-0.17251629;-0.017573858;-0.17515923;-0.09081503;0.07284069;-0.01835991;-0.022452531;-0.07498878;0.0033031842;-0.040090173;0.015449822;0.040958434;0.18893516;0.16493332;-0.037432924;0.034093868;-0.15817058;-0.094898395;0.14990458;0.052483678;-0.028477222;-0.05736504;0.17874083;-0.09491219;0.08115904;-0.117608786;0.15352492;-0.026673263;0.09090491;-0.066438936;-0.045813363;0.06562002;-0.0732461;0.0679903;0.069451176;0.06427646;0.07870717;0.062636785;-0.05136137;0.14348155;0.21216701;-0.14170378;0.2266779;-0.12134049;-0.115925856
-0.0129892295;0.07422813;0.04006751;0.04008327;-0.096941285;-0.015912777;-0.12984172;-0.040178467;0.060493816;0.20470682;0.13556522;-0.16403413;0.08386311;0.11955446;0.03374425;0.12220868;0.061678994;0.0047989124;-0.09957225;0.09006346;-0.14034937;-0.108181655;0.03471445;0.03130627;0.09811933;-0.13456209;-0.002825799;-0.0835082;-0.23048848;-0.043693606;0.043881908;-0.0666594;-0.0061222636;-0.084948495;-0.16140038;0.11429136;-0.055305738;-0.018674267;0.018412711;0.22549085;-0.18228103;-0.035845507;-0.20910878;-0.37976864;0.07287674;-0.03716937;-0.043009195;-0.16309553;-0.1774077;0.025568357;0.06022873;0.14682063;-0.08852133;-0.12601548;0.026101667;-0.20448323;0.033409417;0.123753354;-0.117515504;0.14023232;-0.07572574;-0.2337397;-0.047465276;-0.2176053;0.003383609;-0.14083125;0.07860267;0.083658256;0.030335743;-0.07610559;-0.006985655;-0.19443512;0.23144381;-0.061888203;-0.20691527;0.20732667;0.18055138;0.10262786;-0.021183612;-0.034426235;0.10034863;0.035138775;0.12839687;0.07127841;0.013186761;-0.07341859;-0.13852349;0.024472663;-0.080475606;0.19155338;-0.030839713;-0.21089989;-0.061305784;-0.022857597;-0.049284473;0.0058395476;0.22035961;-0.04464282;-0.031219007;0.16715115;0.14759122;0.0022496101;-0.093423896;-0.24155308;-0.13390444;-0.26967773;-0.10613542;0.056988187;-0.07475793;0.17389469;-0.15888524;0.037878666;0.038726885;-0.032664888;-0.12081017;0.059945956;-0.03484256;0.19233908;-0.059198562;0.009170323;0.1851594;-0.17679179;-0.013308904;0.020076083;-0.053079434;0.043168828;-0.10959895;0.046307363;0.13785239;0.021439584;0.049839757;0.13148919;0.038063083;0.18953057;-0.21343021;0.08700702;0.0853121;-0.21795936;-0.10959596;0.0154453255;-0.033485465;0.3328184;0.08791769;-0.049992885;-0.0979887;-0.08561934;0.05274636;-0.07410976;-0.14860769;0.09281368;-0.09675921;-0.18075338;0.030438503;-0.016304905;0.09876036;-0.018412964;0.06660083;0.011606586;0.11416863;-0.05048805;0.12047361;0.016756354;-0.105768874;-0.012836115;0.039473373;0.035829812;-0.21261084;0.0022981872;-0.058213897;-0.15563004;-0.07221117;-0.07078286;0.11896165;0.07466909;0.025143156;-0.07522489;-0.07452223;0.07051139;0.06074727;-0.2246378;0.12781481;0.031083044;-0.05163127;-0.1172747;-0.038040824;0.046299405;-0.03012151;0.002334888;0.1072473;0.060402654;0.10185579;0.08617141;-0.046407256;0.057926416;-0.018408481;-0.2592143;-0.20721285;0.11431779;-0.071738616;-0.15130825;0.04784478;-0.19095355;-0.0912238;-0.14061274;-0.018552527;0.14771336;-0.08370011;-0.059787393;0.0014644013;0.24971075;0.073237486;0.17280327;0.10882485;-0.103451155;-0.10584924;0.15925203;-0.053290594;0.06947074;0.18256624;-0.06238992;-0.124734506;0.06726341;0.027880147;-0.099315226;-0.041266914;-0.14441685;0.31828025;-0.06715584;0.011196162;-0.057480026;0.15784612;-0.18557343;-0.21192335;0.20818721;0.030835569;0.30443296;-0.010809739;-0.006294287;-0.022237815;0.10426455;-0.036664218;0.1650366;0.10201887;0.10950541;-0.020856239;0.16674793;-0.030909978;-0.17890641;-0.0024367773;0.012719042;0.09535946;0.14923862;-0.045571372;-0.067764;-0.11381315;0.06666039;-0.06691402;0.055017028;0.13052626;0.09007179;0.05383363;-0.15357096;0.15479192;-0.25699592;0.018448936;-0.030609896;0.15125392;0.060679164;-0.02032997;0.06272235;0.03356922;-0.008675611;-0.17118125;0.19272153;-0.032780185;0.23298396;0.06243899;-0.15854058;-0.15636872;0.11802755;-0.15522619;-0.07470789;-0.03535938;-0.18959843;0.0930538;0.157557;-0.10858727;-0.01791636;-0.17107224;-0.03294956;-0.073721685;-0.057746645;0.023006488;0.058010735;0.030944558;-0.10483014;-0.044669546;-0.11938826;0.1658958;-0.035518203;-0.0064105033;-0.19348373;0.17998093;-0.057467524;-0.10128658;0.17323212;-0.09396266;-0.0658993;0.06808878;0.078818865;0.22268267;0.033064906;-0.05386861;-0.034905396;-0.059193246;0.07442635;-0.08026004;-0.024265517;-0.20368874;0.13500993;0.0720711;0.0961184;-0.09874565;-0.17177342;0.14598562;-0.22961639;-0.30621323;-0.083494015;0.14196916;0.17266841;0.06541603;-0.13725734;0.0705327;0.12786691;0.011910752;0.16156;0.12162328;0.08987871;-0.1412397;0.012683261;-0.13530384;-0.021414828;0.12557365;0.102296494;-0.043432247;-0.07864311;0.03424638;0.04406715;0.018384984;-0.069227934;-0.17241131;0.056280676;-0.07779381;0.0891383;-0.11926122;-0.0039879964;0.02607615;-0.10162792;-0.07401413;-0.10696174;0.0014332433;-0.28459328;-0.025599174;-0.009029904;-0.24500017;0.02018647;0.025443641;-0.039244715;0.054697696;0.07060189;0.23756993;0.04470659;-0.1450334;-0.022071006;-0.13248377;0.1028746;-0.071251065;-0.16286127;0.08613848;0.03188768;0.022521645;-0.014034587;0.058344163;0.04100261;0.04241299;-0.3108307;0.010465987;0.033956666;-0.07123944;0.037265114;0.026750218;-0.13203254;0.03064085;0.018356932;0.08784688;0.12223543;-0.04715398;-0.07256649;0.039665252;-0.13005401;0.16752364;0.045714907;0.027507747;-0.010004442;-0.07246809;0.1080534;0.1573227;-0.06797929;0.039593246;-0.11641467;-0.07237659;-0.051242247;-0.0012240278;0.03077782;0.05238435;-0.030834973;0.062175192;-0.14331886;-0.14950569;-0.03728908;-0.03509902;-0.015878366;0.07887308;-0.09314393;0.037405025;-0.0691494;-0.040310342;0.13714962;0.17209184;0.11454637;0.12743497;-0.19680595;-0.108481474;0.09740621;-0.047103353;-0.020391282;-0.21472132;-0.29342225;-0.052189127;0.002131329;0.091577776;0.2500138;-0.052011237;-0.11089809;-0.07928005;0.121511444;-0.1913606;0.07116488;0.075831294;0.16157192;-0.0005159905;-0.0140335215;0.022650981;0.17510201;0.018708618;-0.19444105;-0.010400347;0.033943485;-0.17118664;0.051720902;-0.044739857;0.09441071;-0.1502134;0.063351035;0.089419045;0.17222792;0.0476725;0.10777386;-0.1587137;-0.029222373;0.09754476;0.2084128;-0.19572623;-0.0071673626;-0.046718493;0.054861464;-0.003522836;0.02515192;0.08169387;0.09584305;0.11427776;0.054147933;-0.066999055;-0.105900675;0.03717699;-0.15416689;-0.07116616;-0.0038883954;-0.14817628;-0.11197901;0.0120258005;0.037441883;0.17696305;0.10736783;0.17543507;-0.0483845;0.045539696;-0.017163424;0.07588749;0.07952502;0.052306402;0.099316835;0.09396587;0.03012694;-0.06894924;0.1903592;0.012389303;0.21384886;0.12444029;-0.13535677;0.00753293;-0.07026239;0.08136073;-0.014240029;-0.09605294;0.0694396;0.124402784;-0.049867883;-0.0028350109;-0.0533662;-0.12063716;-0.03294841;-0.11358528;0.013172986;0.036784574;-0.10308347;-0.15240727;-0.028680801;-0.019146405;-0.019973224;-0.10498199;0.043263495;-0.014113451;-0.12645636;-0.057082534;0.13769375;-0.08707781;0.05558842;0.038759246;-0.017935082;0.085625865;0.105021454;0.053395055;0.20302661;0.11552897;-0.0060483245;-0.0019928773;-0.047350574;-0.11179099;0.03527966;0.17209151;-0.054789472;-0.025543422;0.037257873;-0.13307741;0.019379044;-0.015631942;0.107634656;0.064422354;-0.015483187;-0.02556892;-0.12334115;0.066395454;-0.1494142;0.03682984;-0.028416345;0.18016423;-0.02927608;0.15414183;0.01912541;-0.04430065;0.096978895;0.0319398;0.21848759;-0.06035861;-0.15140465
0.035936296;-0.060919978;0.13296151;0.09420546;0.13645932;-0.06883804;-0.16287589;-0.20380066;0.001171185;0.0726586;0.11280599;-0.10699191;0.083054036;0.13062252;-0.033435255;0.10278383;-0.0124154715;-0.025230475;-0.16228695;0.13047014;-0.23198505;-0.24557096;-0.15675429;0.00089745584;0.09321785;-0.01241194;-0.13131924;-0.0999939;-0.25937647;-0.21574849;0.14503616;-0.13476093;-0.029886952;-0.13018501;-0.06229422;0.16327581;-0.051112212;0.06913869;-0.10874292;0.15095125;-0.0755451;0.08555939;-0.16178432;-0.22785807;0.18366303;-0.043239675;-0.11922149;-0.21066819;-0.008769933;-0.086721346;0.101852916;0.11269273;-0.01976535;-0.10698933;-0.12858972;0.015535;-0.0049299262;0.11831504;0.01859584;-0.018405395;-0.07484868;-0.13069326;0.064535834;-0.066682376;0.024265632;-0.10895769;0.12228377;0.19855943;0.091844104;0.011784598;-0.011662811;-0.18091004;0.19684458;0.0055108545;-0.025685135;0.10012691;0.062637255;-0.14765343;-0.04635745;-0.12094179;-0.0049362523;0.042959355;-0.041975565;-0.16757266;-0.052934095;-0.27085215;-0.024324387;0.025899613;-0.079253905;0.18811873;8.8262525e-05;-0.2214652;-0.0155211445;-0.017460946;0.07513427;-0.10605874;0.16509746;-0.03687277;-0.11158657;0.119930536;-0.0063544195;0.11386672;-0.021801507;-0.29662293;-0.049328;-0.2942526;-0.11529363;0.07217975;-0.058613773;0.17067999;-0.09974647;0.018739078;0.01608471;0.09336442;-0.027654735;0.118342355;-0.015123158;-0.025564538;0.05880725;0.099419296;0.21152397;-0.127998;-0.03435302;-0.019823639;0.049668282;0.08823416;-0.14672688;-0.044606734;0.05450224;-0.05245604;-0.02396772;0.078105494;0.022333657;0.11138708;-0.04671424;-0.04653526;0.0913887;-0.08216755;-0.16954397;-0.09394244;-0.11803786;0.0813417;0.118937716;0.12895696;-0.0400639;0.08849449;-0.20166774;0.038080625;-0.08407425;0.1664387;0.01849662;-0.02921407;0.070933275;-0.116948634;-0.08741361;-0.07422056;-0.014106162;-0.040249486;0.07313072;-0.029447706;0.11314058;0.034776688;0.04510279;-0.030080684;0.08408146;-0.10867695;-0.16322559;-0.04012988;0.0831812;-0.17489295;-0.03856534;-0.19465762;0.111645184;-0.025088105;0.04245104;-0.065926924;-0.056145303;-0.028530039;0.01249081;-0.17722559;-0.028536117;-0.023728374;-0.058116045;0.07892659;0.091459975;-0.10481605;0.022411387;0.15966621;-0.059114303;-0.024039034;0.18806273;0.13994323;0.110913895;0.055227283;-0.111541174;-0.01866156;-0.14677157;0.063275285;-0.123293586;-0.029687716;0.019792443;-0.089859284;-0.049433958;-0.083026156;-0.056673355;0.07358644;-0.027840104;0.07256234;0.008417244;0.24401519;0.13206531;0.24156208;-0.034916185;-0.0623648;0.07474462;0.11811516;0.048835892;0.0115369735;0.01681928;-0.0831749;-0.027489651;0.06740237;0.017078508;-0.10591951;-0.29797748;-0.0988783;0.24262306;-0.012440019;0.052418277;-0.14710805;-0.0416148;-0.104927875;-0.17526603;0.16700445;-0.028798161;0.16369843;0.07723034;0.09203954;-0.008843648;0.027744213;0.025415817;0.18948652;-0.0822126;-0.027147088;0.0076937047;0.23512164;-0.014455222;-0.10396425;0.03150317;0.10172326;-0.024345871;-0.0008683246;-0.00333416;-0.21934111;-0.1096251;0.06639264;-0.032528047;-0.077100776;-0.04475719;0.14891355;0.065605246;-0.14371574;0.04489498;-0.24429469;0.089781165;-0.11477378;0.2717799;-0.13646029;-0.062446296;0.007153028;0.11308225;0.11158745;-0.07188091;0.021306267;-0.1518062;0.12223882;0.009402789;0.0525185;-0.07433256;0.1459719;-0.012472077;-0.17624925;-0.15672414;-0.34021875;-0.04936601;0.12738349;-0.18440408;-0.16403267;-0.07290876;-0.025555324;-0.0340462;-0.041291833;0.01868309;0.020953422;-0.024253458;-0.047750622;0.11506226;-0.21035159;0.017112337;0.21627128;0.028233053;-0.16215046;0.18883638;-0.11876312;-0.07200336;0.06116118;-0.06318176;0.057783782;-0.07729174;0.05151387;0.11952713;0.11606249;-0.0890949;-0.04422242;-0.0057278336;-0.024178416;-0.04567283;-0.008818462;-0.09708016;0.2007161;0.08465948;0.026411135;-0.117802225;-0.062810056;0.12690629;-0.14923237;-0.12295836;-0.09591764;0.106204644;0.12937644;0.04632497;-0.096852;0.1027809;0.056852195;0.13301612;-0.14374053;-0.02088632;0.017840581;-0.14996476;-0.14021394;0.07826019;0.09072671;0.12843254;0.06756953;0.09435002;-0.04784691;-0.025003381;-0.15052913;-0.09823384;0.025621794;0.110621795;-0.059596676;-0.17021011;0.010397601;-0.16592585;0.11997746;0.07184837;-0.033071753;0.026905889;-0.16359824;0.04169347;-0.07521879;-0.06905003;-0.020648934;-0.11538413;0.004983569;-0.15375823;-0.04523854;0.04591565;-0.12375482;0.14775224;0.06303974;-0.07449258;-0.13190247;-0.026949732;0.011721797;-0.111350864;-0.11271378;0.2185765;-0.02721474;-0.046829622;0.032367285;0.03890949;-0.029786726;-0.039005216;-0.009771382;-0.046195716;0.014790071;-0.02040158;0.048417676;0.025709126;-0.06398169;0.022558706;0.1007635;0.013973208;0.07297342;-0.030587863;0.059853144;0.13276277;0.0240343;0.08789298;0.12665705;0.032726202;-0.12296605;0.10233177;0.094952144;0.0017303489;-0.015041783;0.07474211;0.07601247;-0.1636146;-0.022773366;0.14370488;0.007180479;0.028050773;-0.09838094;0.0425134;-0.2420352;-0.10107772;-0.015716992;-0.15817325;-0.06834464;0.06416193;-0.15995742;0.019124348;-0.19802973;0.09519759;0.19721484;-0.010300419;0.10950503;0.036156464;-0.10870249;0.045063376;-0.028227676;-0.05522047;-0.11602531;-0.2464188;-0.22756453;-0.059369154;-0.059647843;-0.07385467;0.108856834;-0.071565315;-0.07296578;-0.09545056;-0.029862031;-0.1025433;-0.004360672;-0.05327621;0.053112466;-0.12729138;0.14059263;-0.06479897;0.12208185;-0.15474647;0.029141774;-0.15201339;-0.034523483;-0.09896497;-0.12144296;-0.14364421;0.10961634;-0.24262233;0.15482499;0.12424072;0.08112448;-0.1780225;0.029089862;-0.23212533;0.023618583;0.033318166;0.16348304;-0.21882583;-0.12889883;-0.026880411;-0.06854721;-0.027150141;-0.11175844;0.11423183;0.0036083353;0.123712;0.034007713;-0.00285239;0.122054;-0.05613707;-0.07994084;-0.0017676597;-0.1273424;-0.21902142;0.060006708;0.022621522;-0.023182072;0.05777144;-0.073444255;0.14485383;0.0029297592;-0.080046125;-0.019053817;0.08165488;0.10583171;0.08747321;0.15220472;-0.07203172;-0.09274289;-0.005873874;0.0884803;-0.06232618;0.1386221;0.13054389;-0.061518244;-0.021835705;0.020716494;0.03294546;0.01686711;-0.118893124;0.14188135;0.04682718;-0.17422707;0.020637648;0.06163793;-0.16595489;-0.04804428;0.06291614;-0.020285062;0.15682474;-0.01942468;-0.18156248;-0.11549093;-0.039639484;0.106376976;-0.045162793;-0.051529918;-0.08763014;-0.13311973;-0.046644296;0.20307565;0.056415193;0.070486575;0.0071738753;-0.13368827;0.12234617;-0.052545354;0.17820235;0.09378713;0.21722476;-0.06468598;-0.056853168;-0.026549831;-0.088686705;0.06309268;0.12887605;-0.041030865;-0.066650644;-0.060078423;-0.13357697;0.14162119;0.0350207;0.074042104;-0.055404015;0.15454912;-0.12633032;0.03370944;0.19224933;-0.061342306;-0.06863093;0.090969644;0.09866547;-0.03767805;0.019467307;0.028928008;-0.027302159;0.22518031;-0.035953704;0.112725854;-0.10207443;-0.10763522
-0.11727383;-0.035803128;0.11301945;0.12849241;0.048966926;0.096299864;-0.15954459;-0.15054853;0.010011431;0.13445103;0.17895772;-0.10687135;-0.058924865;0.11330613;0.008490563;0.0750319;0.06545622;-0.118905194;-0.1386771;0.12889868;-0.12336979;-0.33978176;-0.022455862;-0.030747041;0.06204032;-0.15994777;-0.19092198;-0.07904931;-0.26175457;-0.17678866;0.10062891;-0.00342307;-0.011864843;-0.17815085;-0.14646924;0.028333118;-0.18375619;0.0740314;0.06199324;0.20444986;-0.078164995;-0.06963757;-0.25284207;-0.13055614;0.14278394;-0.1298078;0.035884757;-0.30400446;0.017745437;-0.1862322;-0.044720016;0.06197465;0.094061345;-0.09536801;-0.07229213;-0.061529517;0.02069031;0.12797049;-0.037034784;0.12688632;-0.09406929;-0.06795611;0.025486967;-0.10286049;-0.10574519;-0.0306091;-0.051957164;0.024653928;0.039211314;0.048269317;0.023532024;-0.10208163;0.18182284;-0.10389684;-0.20780957;-0.05805669;-0.13128458;0.015769374;-0.13024954;0.013660283;-0.08218399;0.07851823;0.053092554;-0.050495937;-0.12913984;-0.23562351;0.08142781;0.11432244;-0.071254425;-0.027059155;0.029202487;-0.0809991;-0.099591255;-0.018301697;-0.1410142;0.021841047;0.1662742;0.00020804864;-0.075481124;0.07442782;0.0020644467;-0.11628562;-0.09448936;-0.15969455;-0.013496824;-0.123835646;0.0033177347;0.015310056;0.056378257;0.17251572;-0.20544493;0.045151547;0.061897118;0.09047787;-0.13031207;0.020410672;0.08907494;0.014608946;0.0023692397;0.047058396;0.157292;-0.16592553;-0.040224824;-0.007813485;-0.072158836;0.08739782;-0.1654267;-0.027830914;0.01604749;-0.082630284;-0.001035936;0.16637936;-0.07072872;0.15247461;-0.024432093;-0.010590102;0.053248048;-0.18005592;-0.33703676;-0.09806474;-0.14234433;0.14222142;-0.026950391;0.115873404;-0.025576811;-0.03488962;0.026904542;0.10166497;-0.045898907;0.117605105;-0.15156166;-0.19494864;0.108034045;0.030512722;-0.10525256;-0.09130563;-0.0038563032;0.096854694;0.031688623;-0.0589915;0.113655254;0.12920012;-0.12690848;-0.16169909;0.090613134;0.008608128;-0.11563169;-0.055762094;0.1721541;-0.110638306;0.030659616;-0.118219025;0.022202726;0.009184205;-0.10743777;-0.089691795;-0.07780322;0.14285098;-0.072475925;-0.16719039;-0.11454229;-0.07372349;-0.14488946;-0.01932832;0.07956787;-0.10254247;-0.09369658;0.14630531;-0.034236364;0.016980642;-0.038688816;-0.037904553;0.0093255695;0.01177298;-0.15644625;-0.037941594;-0.16998518;0.0033329257;0.0063437093;0.009708136;-0.04025958;-0.13236843;-0.064404674;-0.07265539;-0.039763924;0.11005728;0.095600575;0.034708105;-0.02422395;0.17686808;-0.05077201;0.060392343;0.074601516;0.05919717;0.11435147;-0.002753475;-0.03803124;-0.15176739;0.0852116;-0.034152556;-0.03996099;-0.021619255;0.13012224;-0.18368258;-0.14465445;-0.06442807;0.018677229;0.089326724;-0.09452415;-0.0733266;0.0087466715;-0.14625736;-0.056814376;0.15054213;0.020647181;0.26086578;0.07161489;0.14410125;0.042095706;0.093543924;-0.045489855;0.0056824298;-0.16835167;-0.2130997;-0.053965077;0.10089727;-0.023028782;0.08691238;-0.00016019652;-0.09538703;-0.09657301;-0.076707855;-0.056164145;-0.103769936;0.01064575;0.14184144;-0.0064665414;-0.122734986;-0.044283688;0.07953767;0.047438923;-0.03464106;-0.059894513;-0.25789323;0.082089335;-0.02638988;0.218426;-0.06737792;0.06382093;-0.06628552;0.04196178;-0.0073717004;-0.03677429;-0.057969134;-0.17054898;-0.077480055;0.046255607;0.06934516;-0.11709831;0.0619528;0.046333235;-0.08951265;-0.074191734;-0.13316503;-0.12840743;0.038145985;-0.0820801;0.04554509;-0.08557027;-0.15669447;0.10808011;-0.118818484;0.078513525;0.028299062;-0.080178425;-0.024208004;0.13115373;-0.17475834;-0.050546195;0.14869478;-0.002008298;-0.18156137;0.18985403;0.036375392;-0.038975548;0.011086028;-0.044679593;-0.09707241;0.09369665;-0.026712446;0.18942645;-0.0013876394;-0.1389959;0.0026531671;-0.04947203;-0.04636772;-0.06360148;0.007924683;0.026571207;0.124297045;0.017774077;-0.0021717574;0.10094863;-0.000797403;0.05905985;-0.040752202;-0.22425409;-0.10447454;0.08770014;0.20614083;0.11763465;-0.15092728;0.14129913;-0.040715516;0.20174137;-0.1187415;0.08090176;-0.013494902;-0.08732929;-0.19658792;0.065802366;0.024537334;0.020672493;0.0932243;0.1273048;0.06310427;-0.003458584;-0.07944548;-0.052777622;-0.108450964;0.12679057;-0.0759331;-0.12274829;0.09367048;-0.03962421;0.036276292;0.119765796;-0.015192817;-0.082483985;0.03502617;-0.053851366;-0.046072826;0.01137968;-0.030639201;-0.14029056;-0.10513685;-0.1363443;-0.13328995;0.103625976;-0.07759387;0.10201631;0.07264445;-0.054208882;-0.11867827;0.037472077;0.14760311;0.114129;-0.09557587;0.18504462;0.062711194;-0.055896737;-0.11495666;-0.061511945;0.04100519;0.02012844;-0.04932679;-0.020926561;0.079801634;0.021488708;0.008289417;0.043226257;0.04292134;0.043745767;0.04779932;-0.016676016;0.08325042;0.10801907;0.16520858;-0.07430726;-0.025104202;0.16477968;0.1786557;0.06137761;-0.15177315;0.01740329;0.097283125;-0.03064836;0.010833236;-0.046066385;-0.06361014;-0.1219997;0.06038296;0.16492596;0.0878157;-0.02281164;-0.15780997;0.039196618;-0.21366405;-0.13498779;-0.18485613;0.0071703754;-0.047522705;0.1041153;-0.19902144;-0.02645998;-0.1716695;0.0037091686;-0.045513015;0.06890779;-0.00437453;-0.012716456;0.06810592;-0.09698488;0.13183774;0.00074195286;0.007891763;-0.2143844;-0.26695153;0.055518538;-0.01656884;0.11102137;0.07975669;-0.009056028;0.07191286;-0.10507092;-0.055810668;-0.18286793;0.13707383;-0.046236448;0.1321209;-0.041793715;0.07212602;-0.030367145;0.03524316;0.05616251;-0.14149061;-0.093177125;-0.07701316;-0.044737015;-0.035645682;-0.13636374;0.21808647;-0.15434308;0.13479786;0.18878753;0.122846566;-0.18755195;-0.014727514;-0.32607606;0.027432492;0.11060451;-0.026885984;-0.09475084;-0.12267142;-0.0855383;0.00411384;0.00091370626;0.008603972;0.04149936;-0.03196986;0.01636392;0.09491152;-0.07797929;0.026638644;-0.17171691;-0.058358863;0.029164486;-0.050453305;-0.22465938;0.10148384;-0.003402738;-0.07725489;0.16811962;0.06273171;0.17200673;-0.051534858;0.12197637;0.003948844;-0.0055915737;0.023084983;0.039178256;0.20201603;0.009588194;0.029364998;0.054368924;0.12110252;-0.041269884;0.007662976;0.14821441;0.006903899;-0.022700647;0.014166608;-0.026349097;0.07956141;0.005710274;0.118215665;-0.0566498;-0.05355878;-0.002457035;0.046001546;-0.27175173;-0.026572758;-0.116758846;-0.10035011;-0.04863074;-0.107858695;-0.29679018;-0.04572468;0.021035109;0.014313348;-0.19839509;0.102215596;0.03884078;-0.18043934;-0.21744779;0.13133591;0.00319586;-0.15865496;0.11239436;-0.05414534;0.03828374;-0.12944025;0.06869639;0.057254925;0.100979455;-0.017218783;-0.11779819;-0.14541566;-0.14231655;0.080508605;0.07343031;-0.035363298;0.07481289;-0.0076418137;-0.2548062;0.022068167;-0.027464364;0.033256777;-0.11444235;0.05006395;0.00090594025;0.036232553;0.1673396;-0.015325812;0.073822245;0.04751372;0.0675788;-0.05844656;0.15419757;0.029371792;-0.06647469;0.064738534;0.048678502;0.1676873;0.025208494;-0.30375218
0.08249141;0.027463233;-0.03616567;-0.0877707;-0.13989682;-0.10307598;-0.15674372;-0.23969623;0.08570185;-0.01938713;0.23279995;-0.17014039;-0.028308498;0.19387572;0.0666205;0.0028321377;0.059991818;-0.09450672;-0.21624695;0.043421417;-0.22108449;-0.13279952;-0.066577144;0.07209932;0.08567474;-0.099777654;-0.09170705;-0.07583404;-0.15876114;-0.123957686;-0.14641853;-0.004338827;0.05983221;-0.2673897;0.018459665;0.05471043;-0.070970535;0.08579815;0.12688881;0.026706958;0.00318187;0.18285574;-0.12653232;-0.10385441;0.009592947;-0.13865428;0.0012219185;-0.17989764;0.14390779;-0.13376608;0.09410351;0.17146273;0.02891398;-0.07822921;-0.01980012;-0.044220537;-0.06635213;-0.04253188;0.033058796;0.09092715;-0.12495329;-0.23883158;0.053691346;-0.059438303;-0.027859943;-0.09420444;-0.075377285;-0.0670042;0.13398851;0.16168669;-0.012376725;-0.18358961;-0.04810632;-0.11999273;-0.117834784;0.09135286;-0.12025665;-0.08646716;-0.24064682;-0.017789826;0.013730531;-0.053641353;-0.0024377608;-0.2295347;-0.032948762;-0.123965405;0.038583294;0.0827476;-0.1311174;0.05746691;-0.10995367;0.0689322;-0.031243626;0.021559533;-0.034261927;0.030706884;-0.026033077;-0.037595987;-0.07586755;-0.050550982;-0.06344333;-0.13625135;-0.1237571;-0.13875097;0.09552747;-0.20812593;0.12481127;-0.07541582;-0.07387093;0.13370967;-0.1278166;-0.044849787;0.055057097;0.27985162;-0.11700909;0.050317388;0.062275212;0.005345981;0.047934245;0.033673637;0.115602;0.030668374;-0.049729925;-0.0070726075;-0.08263361;0.024671074;-0.24168302;0.051860265;-0.047961056;-0.01887929;0.04843618;0.1643407;0.13379645;0.11366799;0.052276958;-0.12145141;0.04853459;-0.22061531;-0.15795447;0.050000742;-0.17942524;0.11246373;-0.022127828;0.16899621;-0.21036209;-0.039685287;-0.12671988;-0.06735024;0.06777349;0.20069996;-0.21749942;-0.27996174;0.037140086;-0.13894646;0.0229878;-0.1518642;-0.04426366;0.1128691;0.09020675;-0.0059981677;0.071226925;-0.05083259;-0.057560924;-0.16170906;-0.10635678;-0.09844018;-0.14952365;-0.034635894;0.15413627;-0.09886228;0.05694326;-0.08696723;0.14113897;0.074910805;0.06794311;-0.03341315;-0.11652319;0.058700364;-0.14246699;-0.07341155;0.04360525;-0.00069126167;-0.09484643;0.117852055;0.0570942;-0.062881514;0.01864029;0.016817182;0.023932762;0.053333618;-0.022424972;0.13089749;0.08917721;-0.00032415634;-0.048225347;0.08287146;-0.10581522;0.13007462;0.09081187;0.045929417;-0.06317163;-0.079763204;0.10427863;-0.07920896;-0.072457746;0.08507553;-0.08721743;0.03384124;-0.019961266;0.14296201;0.064128116;0.14424412;0.009727136;-0.07529852;0.11242627;0.10442767;0.08757539;-0.06045328;-0.015985683;0.038316764;0.0790394;0.012563204;0.104909375;-0.054222662;-0.0588567;0.006276787;0.09402982;-0.011197281;-0.05981768;0.08742327;0.062637635;-0.04797832;-0.049450595;0.12807067;0.114746004;0.20909432;0.018943595;-0.020469736;-0.05150068;-0.0843454;0.018018203;-0.112757795;-0.12388742;-0.059935335;0.06518156;0.036004227;0.029295309;0.07897146;0.11753987;-0.022936422;-0.049395766;0.019703258;-0.076769866;0.19873606;0.09969475;0.045401253;-0.06410629;0.013363191;-0.17981587;0.040132735;-0.018620182;-0.050906118;-0.02157823;-0.3202881;0.1589919;-0.113879465;0.12708509;-0.0059657646;0.012717976;-0.009327984;0.06882529;-0.09226221;-0.045172893;-0.112575755;-0.07205084;0.03190727;-0.16760418;0.08263058;-0.13253047;0.107518286;-0.1331344;-0.08376893;-0.093710266;-0.25080132;0.086107604;0.03318481;0.03874794;-0.13520645;-0.014331038;0.06296169;0.021996742;-0.054069865;0.03673976;0.15037936;-0.04836363;0.056059547;0.06556194;-0.114118524;-0.0564968;0.1425634;0.12646182;-0.15091969;0.18572204;0.026709896;0.1613368;-0.13758013;-0.061152074;0.06857776;-0.0040593883;0.04330924;0.020859502;0.08574379;-0.06879887;0.08143617;0.035280365;0.026149308;-0.012776104;-0.111080065;-0.09778219;-0.026723377;0.05477371;-0.08011702;-0.095824376;-0.1434146;0.17724286;0.04504073;-0.20079006;0.07418762;0.081112646;0.2661427;0.1181039;-0.030276472;0.09721378;0.11829978;0.24664252;-0.0749424;0.046867825;-0.11122023;-0.19488686;-0.25701827;-0.027737813;-0.054282002;0.19809899;0.14612934;0.24102187;0.012650931;0.0943751;-0.0855209;0.036346085;-0.025890848;0.134586;-0.0006197823;-0.08800592;0.09192952;-0.068363965;0.020537326;0.10286555;0.033964787;0.13329813;-0.017540611;-0.18737032;-0.08580813;0.032453053;-0.050556954;-0.1769881;-0.16293256;-0.20495673;-0.002832199;0.024206437;-0.070497796;0.08914728;0.03419433;-0.08316291;-0.050739072;-0.057086565;0.107724525;0.069416925;-0.043149315;0.22656065;-0.025781963;-0.17019239;-0.08885105;0.035310775;-0.24328196;-0.061339874;-0.15917774;-0.11301108;0.025868773;-0.15027177;0.026731202;0.13028088;-0.035833687;-0.037847675;0.059882328;-0.012004758;0.18995214;0.011250828;0.1536964;-0.0049611167;-0.07252314;0.0734142;0.16314463;0.03551432;-0.02999129;0.040670134;0.12979628;-0.017191013;-0.10171712;0.036639683;0.0036468592;-0.062157944;0.061640717;0.13011457;0.012633521;0.06979709;0.08502511;0.19258961;-0.16247216;-0.10341704;0.054602593;-0.07453612;-0.056003254;0.05099775;-0.071255036;-0.08763717;-0.12552299;0.048741788;0.055630535;0.1338346;0.027045418;-0.0067106397;-0.019886835;-0.009860843;0.18039668;-0.08637925;-0.004551344;-0.118194416;-0.08221044;-0.15395579;0.037207596;0.11265611;0.27881885;-0.17147249;0.06472831;-0.024345282;-0.0358968;-0.15243381;0.12401911;-0.10674904;0.11074444;-0.100696705;0.0049101776;0.028564632;0.06799442;-0.0062743383;0.034770705;-0.03279813;-0.12699232;-0.10918631;-0.2706377;-0.019378114;0.17014857;-0.2641626;0.06564111;0.10129284;0.096737795;-0.03568192;-0.037692554;-0.08990686;-0.07948729;-0.15984932;-0.0044511897;-0.1050081;-0.06952488;-0.018503835;0.05279397;0.0018628802;0.08058617;0.009247955;0.026432503;0.06560611;-0.0043209777;-0.03873325;0.100500286;0.04902153;-0.0015209848;-0.003925489;0.032641176;-0.18900187;0.043104246;-0.102892004;-0.099650614;0.06494926;-0.12120742;-0.01691427;-0.16900147;0.085631564;-0.00015177934;-0.12076688;0.0065206815;0.13101006;0.18074891;-0.08284105;-0.080488905;0.016372472;0.0019676443;-0.013139941;-0.11063515;0.10840757;-0.09807831;0.03582293;0.07017766;-0.009782608;0.008906506;-0.101160005;0.07324965;-0.043012004;-0.09212085;0.08033754;-0.0038172866;-0.18717054;0.017177355;-0.07866181;-0.097802535;-0.065534495;0.030751236;-0.31569716;0.063638546;0.03945462;0.03783944;-0.0020498794;0.03231457;-0.07101414;0.017811876;-0.02947148;0.07584869;0.07297326;-0.040139932;0.051770747;-0.023291798;-0.03139052;-0.14632614;0.22103786;0.00869241;0.12700528;0.08565317;-0.007594522;-0.1511564;-0.21630387;0.16252045;0.041759368;-0.07202423;0.0536481;-0.01672701;-0.17945781;0.028996164;0.15762565;0.019524094;0.09481555;0.0742693;-0.032102905;-0.047740366;0.107185856;-0.0087769395;-0.0029191163;0.09291537;0.04111394;0.09603666;0.12179341;0.23004375;-0.03178576;0.08859629;0.07562852;0.14444645;-0.04164238;-0.293726
0.15352058;-0.080108285;-0.12948447;-0.13284412;-0.06820954;-0.16823334;0.033147074;-0.18338947;-0.018801356;0.098194756;0.083805606;-0.25109905;0.025219265;0.13063593;-0.017615408;-0.07468352;-0.07791171;-0.1603481;0.0043168953;-0.055115424;-0.18350682;-0.21206045;0.075807266;0.017330846;-0.025530463;0.03855998;-0.22630605;-0.22260997;-0.2097268;-0.06627671;-0.15196641;0.011206305;0.043106828;-0.17603324;0.22795081;-0.010499148;0.05562969;-0.05045603;-0.017030332;0.07187159;-0.08764418;0.031439994;-0.0019659428;-0.06541798;0.0025012698;0.010970644;0.027232261;-0.21039201;0.23943964;-0.23183908;0.05842373;-0.019204507;-0.004646759;-0.0959646;-0.041780315;-0.025910368;-0.059483048;-0.1091655;0.12157777;-0.032996092;-0.15364811;-0.0998198;0.12877281;-0.018085005;0.11591276;0.013477332;-0.19967031;0.057427764;0.040575683;0.048352946;-0.018753486;-0.20206602;-0.12429583;-0.068430446;-0.10795876;-0.015826266;-0.13233729;-0.018417867;-0.07692853;0.03842757;0.044436987;-0.10544754;0.037641887;-0.16910255;-0.050044864;-0.19228642;-0.061335642;0.0967885;-0.15310785;0.114642024;0.13135737;-0.004910525;0.061433595;-0.0869937;-0.1559503;-0.01459153;-0.043654725;-0.014365282;-0.051929988;-0.0148825515;0.0043636663;-0.16661033;-0.044340074;-0.06555069;0.0021334463;-0.22214893;0.017515512;-0.053596266;-0.10194925;0.108176954;-0.057666678;0.07131738;0.061041333;0.15687402;-0.033483867;0.052138757;-0.0067053623;-0.07901349;0.04647574;-0.047118064;0.03631055;0.03861454;-0.11218078;0.0017010068;0.004072034;0.02830965;-0.2557354;-0.09769707;0.070945375;0.08715812;-0.0066535906;0.07514759;0.021123752;0.09509153;0.11602399;0.058053926;0.1535627;-0.23190577;0.039845727;0.10931177;-0.082805;0.24022296;-0.09235284;0.015591987;-0.21015313;0.16223726;0.09627626;0.009167258;0.1263433;0.11439169;-0.2334795;-0.24667123;-0.014383548;-0.18077685;-0.018723885;-0.08369691;0.05931871;-0.08405438;-0.1191775;0.0023794028;0.09442191;0.040598992;0.08682104;0.019533873;0.0046016453;-0.16643904;-0.3099002;-0.05063908;0.095819995;-0.036194544;-0.16561736;-0.121697806;0.014129029;-0.05223825;-0.03840045;0.12638722;-0.180176;-0.10150285;-0.08127747;0.060510553;0.19072069;0.026920669;0.06043796;0.13957056;0.0285267;-0.18612772;-0.05041362;0.08689867;-0.05316789;-0.0015918356;-0.14841081;0.12549831;0.055203453;-0.038066924;-0.053738106;-0.13719273;-0.14710294;0.17231832;0.009870024;0.09961385;0.080037065;-0.0992426;0.117361896;-0.07326945;-0.0909123;-0.0062095826;-0.08863771;0.081573755;0.033083156;0.136201;0.09301757;0.0070705963;-0.009007258;-0.10585275;0.061384477;-0.03394367;0.13635357;-0.12300819;-0.04501907;-0.12833612;0.13384941;0.24582456;-0.011414308;0.053302504;-0.104834296;-0.059367295;0.010219532;-0.048413888;0.0755685;0.085421845;0.12680815;0.073329784;-0.022665326;-0.014395647;0.047396634;0.07020178;0.012970506;0.013036536;-0.17620896;-0.0027370886;0.050021857;-0.05454988;-0.044809673;0.015073445;-0.15191923;0.25696102;0.15950274;0.012310547;0.15568419;-0.009722624;0.018793391;-0.1941707;-0.045868404;-0.028684849;0.113900535;0.014047992;0.03500823;0.051456627;-0.036143247;0.035250317;0.019524723;0.03160127;0.047554858;-0.4207594;0.113579765;-0.05705087;0.25902587;0.056561448;0.019184215;-0.0634854;0.05830509;-0.052871846;-0.0176994;-0.11429266;0.010706729;0.08462322;-0.071691595;0.1627308;-0.016330685;-0.047415737;0.050389256;-0.083358206;-0.06500079;-0.204159;0.117804505;-0.12937228;0.06659276;-0.11303616;-0.033341225;-0.14030051;-0.084829524;0.029387502;0.049028706;0.14001034;-0.019546995;-0.052623488;0.16741207;-0.08053741;-0.004268567;0.2273012;0.005709198;-0.21276535;0.13453767;0.02553811;0.16329525;-0.11835576;-0.04021272;0.018160362;0.028883655;0.106859766;0.19910829;0.008010968;-0.040397044;0.14902028;-0.17740169;-0.104955524;0.08155532;-0.071554445;-0.07518848;0.19002831;0.12890309;0.053573236;-0.07704194;-0.039577547;0.21308047;0.055545334;-0.04936074;0.08309936;0.061640784;0.20699069;-0.05024356;-0.22638778;0.17917746;0.15202959;0.017520152;-0.036310468;0.13263912;-0.123415895;-0.12199507;-0.2664016;-0.10424329;0.1341386;0.07938013;0.115761586;0.12936841;0.20096987;0.12498572;-0.0828306;-0.052720994;0.010701333;0.10797332;0.015969638;-0.08865828;0.23233862;-0.117392026;-0.017957842;0.027827753;0.07672986;0.10035833;0.07216095;-0.0034059584;0.07484893;-0.028022625;-0.06808773;-0.057960104;-0.1401949;-0.29086047;0.0044658924;0.011404315;0.056203257;0.09793834;0.070154496;-0.11435229;0.076554805;-0.119130366;0.24443953;0.040519327;-0.07811921;0.16259667;0.07748764;-0.22229147;-0.17385088;0.05220764;-0.07831616;-0.087052174;-0.22594601;-0.18678498;0.043300852;-0.17449865;-0.035050683;0.0730176;-0.039579004;0.11297341;-0.016086586;0.015218796;0.10474687;0.12060647;0.1485045;0.13687591;-0.08476211;0.012679707;0.2421853;0.03424357;-0.09002684;0.025073946;-0.023576152;0.006646274;0.031042699;-0.0076823975;0.14416853;-0.08683827;-0.0003737825;0.010216186;0.0063016647;0.09048127;0.07816628;0.14772287;-0.17267027;-0.0060974094;-0.14777872;0.04880023;0.046560206;0.111948386;-0.05951406;-0.046991523;-0.07119004;0.015029987;0.095230214;0.130556;-0.04451781;-0.006509593;-0.15204217;-0.07052828;0.012292034;0.039377406;0.06552076;-0.055592827;-0.0072366353;-0.17660505;-0.05668063;-0.031739805;0.13386665;-0.14103347;0.26510862;0.020756127;0.03921298;-0.18559767;0.024352893;-0.06721241;0.05098147;-0.24111004;-0.078379415;0.12363217;0.0959952;-0.187528;-0.034209706;-0.03445957;-0.1579055;-0.07681668;-0.21351352;-0.12058568;0.10124114;-0.10317678;0.057692576;0.012771674;-0.030963352;0.02976541;0.10948561;-0.20275988;0.07578023;-0.16957062;-0.10996713;-0.07270193;-0.10383868;-0.039492972;-0.07769102;-0.0040950906;0.029840693;-0.10456907;0.08661341;0.07650711;0.016291529;0.067578934;0.02357869;0.08229922;-0.09005829;-0.011404089;0.17248672;-0.064764455;-0.08068168;-0.052388694;-0.18792725;0.017078979;0.025778128;0.107189186;-0.013157286;0.01905295;0.033227526;0.004648196;-0.07182191;0.07108597;0.12798904;-0.17251147;-0.07686958;0.09526866;0.2028044;-0.07311227;-0.12037093;0.16568542;-0.11756746;0.15723088;0.12925546;-0.11475791;-0.06599278;-0.034269784;-0.08066731;-0.13072462;0.045888186;0.0025210353;-0.022012807;-0.16343509;0.10975944;-0.09702895;0.00033728065;-0.12689184;-0.024806637;-0.20683812;-0.112097695;-0.016195178;0.19977592;-0.010516562;-0.023927396;0.019087464;-0.08332734;0.019816022;0.04315494;0.12765607;-0.101962246;0.060402438;-0.013856146;0.07291683;-0.07324579;0.20744847;-0.087516986;0.09593448;0.1441363;-0.01941009;-0.031518307;-0.15118147;0.04196098;0.16372228;-0.13536394;-0.003701744;0.06200843;-0.11132406;0.061088543;-0.041093633;0.035060976;0.07880066;0.043939393;0.023948435;-0.027391985;0.11911853;0.06901335;0.13723554;0.07433606;0.07978891;0.10205294;0.14357334;0.25691476;-0.06937218;0.08183929;0.07181566;0.056055352;0.10377193;-0.092980646
0.15745604;-0.10303513;-0.10085391;-0.066156864;-0.14116013;0.03566311;0.046188243;-0.12474693;0.0430224;0.043229353;0.16551308;-0.28298634;-0.033235066;0.04915834;0.17460142;-0.06359749;-0.09698298;-0.11150362;0.011209989;-0.12764597;-0.17185222;-0.31052524;0.11281926;0.15995094;-0.08284818;0.10934722;-0.02667647;-0.058853664;-0.25053826;-0.018493755;-0.10555807;-0.04853164;-0.084242776;-0.23203643;0.044961724;0.19884963;-0.008825479;-0.038484488;0.08133836;0.11654887;-0.01998443;0.04476987;-0.083371826;0.06694729;-0.11499026;-0.046793636;-0.016272796;-0.17677897;0.19694902;-0.2200738;0.0979181;0.14299096;0.010769813;0.021939637;-0.08180088;-0.004915928;-0.08797851;-0.05185189;0.11885727;-0.09161055;-0.1478345;-0.11645149;0.021738324;0.049016602;-0.13077661;-0.017405957;-0.004383389;-0.047220174;-0.026150716;0.17054565;-0.07003586;-0.18646204;-0.0920762;0.031724334;-0.11948567;-0.16573203;-0.1408303;-0.18857221;-0.19557294;-0.0030846347;0.07481662;0.030032031;-0.13016559;-0.10326706;0.10786498;-0.040409386;-0.058943678;-0.016951801;-0.09407215;0.05233153;-0.0120387515;0.07691361;0.044731624;-0.011984802;-0.015229431;-0.07703844;0.09131912;0.024166884;-0.112369806;0.05378667;0.12772866;0.015811557;-0.052853934;-0.16084513;0.09100654;-0.20624849;0.05683893;-0.12487813;-0.04343587;0.02290338;-0.17695184;0.12793465;0.0072557977;-0.049555864;-0.056513816;0.04927339;0.07969884;0.046886053;0.08013845;-0.0043235817;-0.29848802;-0.0049918303;0.07237041;0.043041196;-0.06625799;0.15668274;-0.044409484;-0.10989082;-0.053471964;-0.24570735;0.2425313;0.016069267;0.015898341;0.044672888;0.06648751;-0.21258284;0.05545381;-0.09152752;-0.101166315;0.10651826;-0.14438646;0.082470275;0.08917175;0.20572719;-0.06295792;0.10697946;0.05354967;0.020606214;0.13885647;-0.011832569;-0.16621237;-0.14596654;0.03242378;-0.1071085;-0.17231214;-0.2057609;0.011795704;-0.010705013;0.009398473;-0.03392501;0.07094925;0.094971515;0.02722829;-0.13759677;-0.041335933;-0.09905475;-0.1790054;0.06764912;-0.15696213;0.034452766;-0.11398678;-0.027813705;0.040348552;0.01758106;-0.1481433;0.026769102;-0.1402698;-0.09096853;-0.031851117;0.14298871;0.19087692;0.005277803;-0.051541872;0.07465892;0.08371612;-0.22236167;-0.07127122;0.14235154;-0.11901842;-0.0041196267;0.058794074;0.16193967;-0.0027445916;-0.06398665;-0.11736992;-0.010807514;-0.15209867;0.13593248;-0.06106626;0.099796854;0.027669255;-0.11102879;0.13539812;0.033656303;-0.16922195;-0.01594005;-0.009501973;0.29195514;0.09432469;-0.00066030346;0.016623294;0.10437412;-0.06781081;-0.04061579;-0.014935248;-0.10294876;0.07922436;-0.098838225;-0.044544797;0.019011391;0.04174185;0.1897033;0.065454654;-0.038336426;0.002931583;-0.1594798;0.10490014;-0.10438764;-0.13510972;0.04264338;0.060656823;0.026089054;0.04011311;-0.04683263;0.057859715;0.11852605;0.18829016;0.061071564;-0.06680608;0.04776077;-0.036971834;-0.09491523;-0.20937043;-0.066482745;0.070432045;0.17425816;0.13033466;0.093219005;0.050183464;0.12142893;0.08317575;-0.039847992;0.07281799;-0.05036505;0.05755876;0.013896653;0.0056006904;-0.10291203;-0.04280439;-0.05512026;-0.034639966;-0.0645708;-0.061834656;-0.18842499;0.19538067;0.010005536;0.26766375;-0.15052877;0.19574696;-0.15224582;0.10545541;-0.07528358;-0.019781975;0.020651124;-0.021309698;-0.014164509;-0.05209351;0.21469615;0.067134365;0.040218398;0.007626777;-0.106423534;-0.070149854;-0.13241196;0.16199493;0.06361122;0.024923887;-0.0773726;0.0025066563;0.12570149;0.0002520385;-0.091280855;0.026548252;0.062150486;-0.097807586;0.10882517;0.1803664;-0.07100939;-0.007658553;0.06876453;0.050803836;-0.044253036;0.1545644;-0.13301179;0.25069156;0.04229347;0.07296661;-0.042163126;0.16155756;0.047080778;0.02506854;-0.06213817;-0.079074964;0.11643054;-0.044719115;-0.035731725;0.0943848;-0.09169864;0.007633832;0.042337894;0.0066688736;-0.046305675;-0.067453556;0.09247126;0.08045906;0.19913347;-0.018507678;0.17282872;0.085704885;0.12666564;0.061745837;-0.17433307;0.14925718;0.090355806;0.18326536;-0.07316573;-0.006990284;-0.12398248;-0.1819492;-0.17467596;-0.003671355;0.04409175;0.08603148;0.09543166;0.060635556;0.14131385;0.050639108;0.03236705;-0.11680858;-0.0117577305;0.024893599;-0.043296028;-0.021895666;0.06641603;-0.061367884;-0.096655004;-0.040555183;-0.050976254;-0.02068138;-0.056596402;0.093228824;-0.08810271;-0.008886009;0.2202875;-0.028278418;-0.14279152;-0.29311454;-0.07297207;0.015331315;-0.027914925;0.0027305728;0.082272746;-0.07583819;0.029877923;-0.13069886;0.17871808;0.12830012;-0.062249552;0.1140772;0.049021583;-0.17007592;-0.17669246;-0.0059135654;-0.050753783;-0.21635897;0.029048378;-0.035969026;-0.10212162;-0.20712158;-0.09448934;0.089794226;0.049734134;-0.10734166;0.06038018;-0.0134878745;0.15004604;0.173894;0.25733337;0.082753114;-0.051445853;-0.19239336;0.090598434;0.0063166004;-0.16499278;0.14686209;-0.0795363;0.073629506;-0.09854813;0.03959437;-0.10914705;-0.0039797206;0.09683981;-0.014591059;0.02184761;-0.052244656;-0.062659174;0.12807682;-0.2123305;-0.035375062;-0.18762948;-0.08567515;-0.033199407;0.041048985;-0.113759145;-0.04286268;-0.07334482;-0.09552157;0.066616304;0.1533623;-0.095270135;-0.05294263;-0.058623545;-0.108683586;0.044049025;0.09931114;0.15365934;-0.12186558;-0.1487283;-0.11732542;-0.14514497;0.0224883;0.13750213;-0.14002074;0.29682463;-0.007831887;0.005335822;-0.07727562;-0.01033989;-0.06498413;0.11320788;-0.10376111;-0.0074764173;0.020183055;0.047764093;-0.05298961;0.12982321;-0.099315554;-0.059880435;0.077358045;-0.20637865;-0.14730139;0.07221912;-0.30273288;-0.0052230624;0.03856815;-0.023501901;-0.095991895;0.067929044;-0.1805305;-0.038302157;-0.22898805;-0.2124556;-0.036210213;-0.15210748;-0.03463441;0.050837696;-0.0018303263;-0.085919335;-0.05361984;0.08324909;0.11513125;0.17576355;0.114546664;-0.11575783;0.033089533;0.030230273;-0.07466572;0.06205806;-0.118063726;0.102768175;0.029466443;-0.20939085;0.0053865854;0.076055266;0.18410444;0.04196905;0.062518254;-0.093298726;-0.060994245;-0.04461818;0.13382451;0.11790443;-0.056267396;-0.013444046;0.044701505;-0.062232275;-0.16886528;0.0013886188;-0.053400617;-0.0056454665;0.1661552;0.20814899;-0.022864617;-0.019381046;0.08963496;-0.041132804;-0.22217074;-0.050279316;0.11377508;0.043177985;-0.29889044;0.011302423;0.01469272;-0.010329986;-0.03149717;-0.11221845;-0.15308118;0.028404124;0.06617443;0.12293458;0.06863643;-0.15192756;0.06615252;-0.079560064;-0.08495825;0.038545534;0.07291538;-0.10300943;0.034367032;-0.14008589;-0.02463391;-0.08056231;0.13966942;0.024275737;0.2119948;0.17170839;-0.048635453;0.01734761;-0.08607616;0.15236393;-0.022661947;-0.2059786;0.054836188;0.092056505;0.0024893717;0.03806899;-0.16584319;-0.053928316;0.043838426;-0.014693671;0.1256065;0.06585264;0.06482151;0.014294989;0.10197449;0.00795478;0.0527441;-0.011819087;0.0011357068;0.17513917;-0.08025429;0.2136048;-0.0016119293;0.12948824;-0.034754463;-0.17490588
0.059571587;0.081130765;-0.16038726;-0.2624416;-0.015414722;0.010367517;0.12642723;-0.17531978;-0.039066426;0.10281782;0.18778253;-0.22098005;0.0937493;0.23743376;0.055580635;-0.11952033;0.0069813034;-0.10118141;0.018552635;-0.18133253;-0.115608424;-0.2573686;-0.060962975;0.04782079;0.08042751;0.08693277;-0.11671347;-0.04999822;-0.101978324;-0.08917799;-0.03135477;-0.059964266;-0.020336421;-0.2243818;0.0018689067;0.020855328;0.088849366;-0.024095697;0.07466421;-0.08145782;-0.12092641;0.00037114334;-0.076443516;0.13785596;-0.045836125;0.00811633;-0.05060784;-0.26077336;0.1564727;-0.16267237;0.008436091;0.08981602;0.13267054;0.10383353;0.07751797;-0.00426272;0.08463912;-0.041290827;0.009155629;-0.082197666;0.048358783;-0.12982385;0.06482151;-0.018960053;-0.059808;0.0030103703;-0.02619165;0.023109647;-0.016967507;0.16843486;-0.16380332;-0.14908198;0.14517476;0.050200727;-0.16821828;-0.08605772;-0.03397506;-0.06557083;-0.14828272;0.07687906;0.09436063;-0.058031876;-0.123403706;-0.18017331;0.13215065;-0.1501088;-0.06974195;-0.011708497;-0.096001625;0.030153178;0.033878643;0.13970798;-0.08837723;-0.04916519;0.08804271;-0.15104367;-0.07188333;0.1832241;-0.07489417;0.029110355;0.14962044;0.03297538;-0.06145259;-0.14571384;0.12970302;-0.077249184;-0.033986874;-0.06453544;0.050769117;0.01009675;-0.09088057;-0.074508384;0.05502165;-0.14659257;-0.064064495;-0.0785624;0.058764104;0.04719319;-0.04733248;-0.27452406;-0.06982878;0.02081315;-0.01971629;0.053120524;-0.12873748;0.06620119;0.036203366;-0.11572348;-0.010629503;-0.11249252;0.115692005;0.1251379;-0.058112387;0.1299047;0.037358392;-0.2884751;0.17726506;-0.057489984;-0.09896959;0.14001429;-0.14538325;0.32011175;0.2023202;0.0013589682;-0.07920433;-0.015222114;0.038937584;-0.03059443;0.19670257;0.06767613;-0.0931432;-0.1901319;0.09515688;-0.025353156;-0.15918778;-0.2170481;-0.103818245;0.12601745;-0.08181686;0.030790497;0.1510714;-0.060694944;-0.11146499;0.028941907;0.047022037;-0.035372972;-0.1241121;-0.1460223;0.05371516;-0.05852154;-0.07199106;0.09861526;-0.076343596;0.168647;-0.09918688;-0.03076942;0.057371423;0.15960062;-0.0927941;0.22128028;0.13084072;0.087943256;0.014267735;-0.037771452;0.0368759;-0.08629529;0.06209231;0.0042789965;0.02561458;-0.050764617;-0.07258323;0.12152969;-0.041080005;-0.000768252;0.052812774;0.032683726;-0.045530554;0.27018932;-0.06603233;-0.016835913;0.021552542;-0.042409256;0.08323207;-0.10453474;-0.0936438;0.03294343;-0.12104835;0.22003794;0.004935015;0.1261891;0.16137762;-0.037778594;0.00574634;0.11510029;0.0360046;-0.10070638;-0.09646307;-0.18734919;0.042193092;-0.017657014;-0.07882694;0.032207437;0.099540524;0.13586572;-0.045556694;-0.056003682;0.07655384;-0.17362425;0.010724989;0.045016084;0.14628045;-0.14937592;-0.030821687;-0.02064075;0.13622774;0.021591837;0.17213432;-0.059350032;0.0051191524;0.09063972;-0.010971542;-0.026176987;-0.20384382;-0.036401007;0.1337127;0.15180077;0.16766939;0.17657092;0.08963313;-0.052861065;0.07429058;0.058708034;-0.038363446;-0.00031741557;0.029109785;0.1015909;-0.03302189;-0.08685682;-0.084319755;-0.043741506;0.057528462;0.075728804;0.07313777;-0.27734622;0.11689769;0.07079771;0.1065837;-0.1291946;0.24352169;-0.11177981;-0.072368376;-0.047736526;-0.22737353;0.051568218;-0.017221408;-0.010252883;-0.03804262;0.12652561;0.10568534;0.095491335;-0.17449027;-0.053102627;-0.083851926;-0.15975444;0.06975272;-0.07461638;0.079094075;0.0028786615;-0.096477;0.044129618;-0.016050082;-0.055594634;-0.05501303;0.14119335;-0.11088904;-0.022814455;0.09036524;-0.09513497;0.009102092;0.056742687;0.2447084;0.03517848;0.008801273;-0.05734503;0.031143688;-0.063249126;-0.11836627;-0.042362247;-0.030100282;0.13671742;-0.11029034;-0.08770743;-0.19460562;0.13075612;-0.015417767;-0.056782287;-0.036522407;-0.1844162;-0.0788617;0.0832476;-0.039635967;-0.14002298;-0.09601775;-0.0020656614;0.19145969;0.25058904;-0.14321172;0.11532312;0.11722651;0.023554355;-0.031561095;-0.103115655;0.03480007;0.17993598;0.116419315;-0.117924735;0.07726851;0.005759525;-0.11376847;-0.08931323;-0.008331443;0.14375073;-0.012571292;0.11125341;0.092341;0.082230754;-0.13719131;-0.043056052;-0.03933767;-0.116245516;0.038247626;0.01726077;-0.039719418;-0.02010126;-0.07507138;-0.24442847;0.00069321675;0.022886708;0.10783438;0.13264814;0.11117445;0.069919914;-0.084099226;0.099347614;0.16644658;-0.15305658;-0.20379822;-0.07488506;0.14648221;-0.036256984;-0.07480342;0.11112178;-0.09891431;0.039291505;-0.053705737;0.07985357;-0.0062923958;-0.16567677;0.08212227;0.102349356;-0.23155348;-0.07032662;-0.110467285;-0.13316122;-0.10644054;-0.12930487;-0.090219125;-0.12506728;-0.13658231;-0.042966228;0.15520015;-0.0075262347;0.06686233;-0.06640609;0.07083155;0.17703891;0.23473261;0.28842863;0.06528473;0.04118317;-0.04850058;0.29148152;0.016850807;-0.05566816;0.10619826;0.008312144;0.0033024158;-0.019418506;0.05669658;-0.0856826;-0.07890191;0.1732868;0.08576209;-0.0436341;-0.08667774;0.022972079;0.08275669;-0.121873416;-0.09238997;-0.052267022;-0.067644596;-0.102195494;-0.049842272;-0.24653788;-0.060161933;-0.19610074;-0.039815936;-0.060263403;0.08418841;0.1635474;-0.005939439;-0.019621098;0.028636688;0.0049051135;0.05518235;0.036056083;-0.08048697;-0.15065171;-0.035000823;-0.013381818;0.14001925;0.13341707;-0.22139153;0.19896303;-0.027337687;-0.006620193;-0.009873915;0.14083451;0.0060957856;0.06312429;0.02899127;0.033623062;0.0058757174;-0.014009747;-0.066943996;0.16970426;-0.2460174;-0.11257694;0.11396065;-0.19292419;-0.01975806;0.033589702;-0.17341927;0.07624226;0.16193269;0.027859487;7.7535646e-05;0.10148162;0.01053171;-0.14946106;0.007994645;-0.21439083;-0.08575879;-0.0038030618;0.00735437;-0.02557953;0.01604432;-0.040959317;0.06343585;0.08539711;0.017947638;-0.008370301;0.07822756;-0.12709504;0.0073190467;-0.1314659;0.08708037;0.06784285;-0.13868307;0.0468703;0.056916602;-0.062182955;-0.19558157;0.09540317;0.21428742;0.01721442;0.108968124;-0.15739794;-0.077050455;-0.11281636;0.14274554;-0.0019862005;-0.06548523;0.19613136;0.08270269;-0.08203081;-0.09143246;0.020345677;-0.2320218;-0.033606507;0.11104874;0.14668852;-0.03990526;0.00875117;0.08046404;-0.07012788;-0.03838991;-0.14731234;0.11906368;0.15224366;-0.18164675;0.15871477;-0.14371864;-0.11297211;0.06763618;0.03614605;-0.2547933;0.09790351;-0.0075257407;0.129688;0.004461564;-0.14224653;0.057444677;0.03441825;0.0040224325;-0.06568396;0.12381124;-0.14702229;-0.06202212;-0.23588288;0.04612863;-0.17330912;0.19273704;0.009775942;0.033376694;0.25106087;0.14856383;-0.023408541;-0.010804864;0.22299337;0.12898427;-0.15089865;0.13001826;0.078287214;-0.1692109;0.116149135;-0.24809612;0.06421804;-0.008002902;-0.067801274;-0.0028896711;0.018311046;0.0053622085;-0.0247118;0.13754134;-0.052057005;0.0371525;-0.1147547;-0.036879823;0.12374156;0.110614784;0.099376656;-0.08277106;0.23989001;0.14485233;-0.083325855
0.090687834;-0.04847229;0.012835296;-0.2210669;0.0071131103;0.06415468;0.038945366;-0.06534882;-0.085147224;0.05116671;0.23026067;-0.23255321;0.17257886;0.15289313;0.10824666;-0.030691104;0.056411292;-0.08381632;0.22634381;-0.17616089;-0.09390299;-0.13445479;0.033428594;0.057556275;0.034728084;0.17942163;-0.13792415;-0.06893865;-0.14614338;0.02760427;0.02139497;-0.024482848;0.031863168;-0.13148002;0.23322183;-0.055174652;0.05207832;-0.14630473;0.02126508;-0.056129403;-0.27435517;0.13777412;0.037348486;-0.123415805;-0.06012176;0.09215234;-0.030103656;-0.21533664;0.08258601;-0.13891947;0.048261184;-0.11408897;0.11226234;0.026417645;-0.0739541;-0.18143007;0.08084592;-0.055274807;0.15081796;0.11993585;-0.15675655;-0.117485546;-0.053513367;-0.04931756;-0.09827416;0.046031337;-0.025394063;0.047607724;0.11170482;0.19271848;-0.1130015;-0.25640488;0.06981668;-0.03186413;-0.09810982;-0.0022155396;-0.04576492;0.005827384;-0.06866093;0.21581484;0.14156681;-0.053641103;-0.006160436;-0.03605695;0.16039537;-0.18506937;-0.0556176;0.0052391393;0.03677015;-0.051565673;0.045861192;0.12492924;-0.030342884;0.027966604;0.034962296;-0.14378959;-0.098940454;-0.059516337;-0.09097964;0.112064995;0.0854575;-0.071873;-0.019186351;-0.1085716;-0.011373519;-0.11131363;-0.05770208;-0.013393019;0.0064581283;-0.07809111;0.045679364;-0.15209423;-0.09121579;-0.19205059;-0.0007466052;-0.15855199;-0.014444827;0.20430882;-0.06585224;-0.29120556;-0.03209071;0.10123502;-0.16074127;-0.0031719096;-0.16807708;-0.03297224;-0.14277904;-0.07680859;0.047595043;-0.21667081;0.04138648;-0.0778079;0.13640459;-0.02458297;0.08519906;-0.15371901;0.20816344;-0.06450792;-0.04679237;-0.004980612;0.04483312;0.27060857;-0.0095438855;0.040573087;-0.06859254;-0.021028575;-0.0661136;-0.054623302;0.06352897;0.13044581;-0.0854243;-0.15068468;-0.103737265;-0.10162731;-0.016746886;-0.0459647;0.0041227494;0.09848694;-0.081024826;0.06493473;0.004884664;-0.053539317;0.09324421;-0.08173254;-0.07979445;-0.027202303;-0.16451153;0.09199391;-0.040517744;-0.073138;-0.31211883;0.08031795;-0.07778176;0.1583701;0.056149714;0.054382354;-0.027997449;0.06264613;-0.00048071973;0.016949601;0.1828354;0.079631716;0.03572886;0.024512434;-0.13723005;-0.05836113;0.049580473;-0.07720513;-0.026249852;0.011018408;-0.010865219;0.06716761;0.028695103;-0.11291225;-0.04642014;0.1131405;-0.21899584;0.17615598;-0.22598392;-0.1251603;0.22649975;-0.060175408;-0.003442467;-0.06535533;-0.1537829;0.02365579;-0.09790315;0.081505045;0.15312374;0.24895865;0.03395521;0.03948411;-0.014448722;0.046110015;-0.1008962;0.016368961;-0.16320883;-0.04220581;0.09411807;-0.029294714;0.00039651289;0.13815135;0.040369473;0.066142574;0.024256142;-0.06474048;0.071771026;-0.118958145;0.15654607;-0.07050405;-0.011064509;-0.053135026;-0.046792448;0.04569707;0.18251224;0.042673726;0.09332591;-0.09147747;-0.1270793;0.13350742;0.011177562;0.07101014;-0.12810823;-0.103811525;-0.0010743503;0.16509625;0.07478406;0.028555404;0.09594376;-0.107859686;-0.030646617;-0.0765901;-0.09480401;-0.037814815;0.19348817;-0.14912325;0.13412158;-0.07407339;-0.07649871;-0.10698771;0.028420197;0.15922816;-0.0038020785;-0.2635367;0.065157376;-0.059781995;0.070811085;0.045516804;0.21713774;-0.013536;0.17672892;-0.09305554;-0.07724084;-0.018639274;-0.023358066;-0.0966245;-0.11122551;0.20832376;0.064507805;0.054986507;-0.042330343;-0.12521727;-0.2740541;-0.009583024;0.22323354;0.06125577;0.21138437;0.108987756;-0.009655593;-0.12505014;-0.21586305;-0.019854667;0.0012210213;0.07325712;-0.05388062;-0.011087288;0.04279302;-0.050774526;0.11572242;0.045563847;0.18955252;-0.18987288;0.18498841;-0.2800854;0.022703817;-0.034343015;-0.11170649;-0.010535841;-0.0031485434;0.045854762;-0.0076513146;-0.06658328;-0.09627433;0.06311917;-0.035761036;-0.11380511;0.028109238;-0.043828692;0.08057947;0.056370053;-0.12962373;0.07728543;0.029228145;0.01013719;0.15957354;-0.03631508;-0.08497203;0.16965915;0.028884958;0.11254417;-0.011215886;-0.07976898;0.05724289;0.08917902;0.040810816;-0.06518096;0.0565277;0.011612385;-0.021351928;-0.08394335;-0.21908092;0.012560059;-0.08349766;0.043394305;0.15272702;-0.059306633;-0.02058958;0.01191102;-0.09879752;0.041889124;-0.1143911;0.096044384;-0.07831655;0.07566486;-0.15622677;-0.12624878;-0.09397342;-0.089728124;0.054350946;0.14438927;-0.01901214;-0.096621014;-0.041846752;0.015648238;0.04133162;-0.06833328;-0.052016508;0.03372216;0.13818935;0.029528616;0.10109791;0.019088892;0.016602714;0.14261381;-0.0571095;0.11332437;-0.0012497025;0.14053197;0.13817376;-0.021815613;-0.2390247;-0.001958393;0.014093214;-0.055140298;0.028939001;-0.1980964;-0.094958;-0.116316274;-0.0014016556;0.054911442;0.0051551578;-0.18814458;0.13940015;-0.04951797;0.074935526;0.18154933;0.14719847;0.23940818;0.033127848;-0.2264037;0.073797904;0.059016418;-0.05595914;-0.08510444;0.27055228;-0.18615066;0.02222822;-0.15668188;0.12727109;0.03370996;0.00936108;-0.0059898645;0.03493039;0.03055393;-0.048122842;-0.048022013;0.0095108505;-0.118460834;-0.09034785;-0.22961338;0.119598836;-0.14779484;0.02249996;-0.18758239;0.12043176;-0.107544206;-0.034015927;0.14492212;0.14946684;0.05657432;-0.12490485;0.08682311;0.08534637;0.16707888;0.030271439;-0.066687025;-0.12570581;-0.106186196;-0.0816463;0.09935867;0.12685901;0.14954457;-0.1845074;0.11049074;0.1285116;-0.0029515154;-0.0563642;0.04083761;0.007735079;0.26938373;-0.09474259;0.0028143656;-0.10545945;-0.036712065;-0.11194241;0.02927233;0.024821645;-0.08810331;0.12342022;-0.15920004;-0.122036725;-0.14155954;-0.052555475;0.06265903;0.07272602;0.030380864;0.078020014;0.10374745;-0.1955683;0.061647438;0.053901356;-0.090066776;-0.12915374;-0.0732857;-0.0053581796;0.09531739;0.18594368;-0.05935051;-0.057160303;-0.03184511;-0.15450545;0.05359076;0.18395688;-0.151407;-0.017253712;-0.07706789;-0.021926822;0.04966261;-0.07219666;-0.048865724;-0.14902368;-0.14872612;-0.054972623;0.042259585;0.17082621;-0.022087347;0.04815105;0.07471893;-0.054688197;-0.08766037;0.1157809;0.18663663;-0.04990017;-0.055115838;0.06365102;0.07585881;0.041412942;0.0740874;-0.10919105;-0.11314435;0.02464221;0.0030283474;-0.06164099;-0.102747545;-0.05344838;0.09372677;-0.04534602;-0.038726;-0.058280546;0.09814906;-0.12724862;0.094769485;-0.11899927;0.040597375;-0.05253301;-0.14362492;-0.23918827;0.05841245;-0.0052456735;0.17191452;0.010880466;-0.023734028;0.036510546;-0.071467385;0.08705181;-0.032427914;-0.0058748154;-0.10162074;-0.051564872;-0.12002274;0.015916662;-0.042508654;0.17764586;-0.1643708;0.13418268;0.15776767;-0.01725686;-0.13112131;0.048528485;0.059350684;0.10708876;-0.1219365;-0.054509405;-0.11584879;-0.018343795;0.096670575;0.017353501;-0.09710258;0.05669865;-0.11218732;0.13128898;0.08154238;-0.17660773;-0.056620818;0.23322754;0.030976538;0.02289541;0.068739854;0.114638016;0.12556231;0.11185025;-0.0367251;0.028140357;0.14431322;0.22450429;-0.072219975
-0.010826703;0.037833683;0.018400446;-0.08071291;0.025056118;-0.01911495;0.05154021;-0.017358394;-0.055146087;0.16041389;0.21992448;-0.1454561;0.111275144;0.13982469;-0.031869534;0.12024246;-0.06449436;-0.12675057;0.13720398;-0.1843512;-0.109712906;-0.17428586;0.082615055;-0.04135952;-0.13174061;0.07440911;-0.21887073;0.16771409;-0.14085965;0.020107578;-0.028246514;-0.03314367;0.028167417;0.06466658;0.03901409;0.09662383;0.12256964;-0.0645362;-0.02074989;0.05495674;0.009735672;0.07575463;0.12635857;-0.081512675;-0.035070423;-0.034779083;-0.049476296;-0.2586903;0.14416589;-0.025292428;0.056321688;-0.095171966;0.11971307;0.063559316;-0.044961795;-0.16506806;0.060358364;-0.16761291;0.086035386;-0.011428442;0.056053735;-0.035619624;-0.06835248;-0.07340296;-0.16234078;-0.09613937;-0.22496039;0.04190775;0.024866182;0.12926097;-0.13619196;-0.028338745;0.05073406;-0.016809948;0.0671827;-0.034952797;-0.023584755;0.029754821;-0.0814525;0.076947756;0.07496448;-0.11309477;-0.104783125;0.023282384;0.030259978;0.011562739;-0.16051306;0.056178667;0.06701788;-0.10785126;0.0002769351;0.12660514;-0.16496143;0.08616484;0.07191769;-0.1648733;-0.0014091918;0.00037618034;-0.112699896;0.07528404;0.0942256;-0.1013512;-0.16901772;-0.17825867;-0.03355946;0.018331625;0.078336656;0.00336429;0.09094979;-0.11440356;-0.027529545;-0.01822745;-0.021859996;-0.07936477;-0.07260525;-0.0025963841;0.08718883;0.06941494;-0.0811733;-0.1531255;-0.028222838;0.031038107;-0.22730623;-0.009305243;-0.09421156;-0.034295525;-0.044131517;-0.06946545;0.0550848;-0.14977066;0.033532456;-0.19736098;0.063297875;-0.08285336;-0.011025953;-0.07546511;0.10814352;-0.1494083;-0.10459833;-0.008283755;0.0046775406;0.1442636;0.120044515;0.09400778;-0.042460673;0.0700546;-0.03334945;-0.02162269;0.06181292;0.018677237;-0.037807792;-0.0029495964;0.003431916;0.05874874;-0.005544792;-0.154354;-0.07703115;0.056478605;0.016395422;-0.012947451;0.19324751;-0.076951325;0.011287016;-0.11843155;-0.007527103;-0.0023170875;-0.1429822;-0.06996823;-0.0052918694;0.03736081;-0.24382865;-0.11368737;-0.14398459;0.06439747;0.08875785;-0.012081693;0.011433559;0.25450334;0.063744664;0.15104549;0.005585856;0.057634093;0.050307833;0.0604613;0.022133252;-0.018369671;0.01659782;-0.0025657858;-0.08582714;-0.088559814;0.041241214;0.059797436;0.0885749;0.040488966;0.02845498;0.2501981;-0.008637183;0.22659428;-0.23869683;-0.07146866;0.035097424;0.0132112065;-0.049863447;-0.1138573;0.041069385;0.11450239;-0.08808622;0.13133475;0.03169126;0.06364053;0.10563131;-0.04001899;0.10832755;0.048287302;-0.06988819;-0.014448903;-0.18610954;-0.20505305;0.10036377;-0.04180015;-0.02391036;-0.0256672;0.047171984;0.033897363;-0.060243253;-0.050532658;0.22199175;-0.04504745;0.265574;-0.2060049;0.06347999;-0.12196772;-0.058958597;-0.080014266;0.15673305;0.04466346;0.2577531;-0.10804048;-0.08977995;0.1341224;0.03535576;0.21243094;-0.030823682;-0.06430579;0.097642526;0.08006924;0.23625983;0.07948285;0.049289074;-0.08754217;-0.02416949;-0.060025778;-0.0694063;-0.14058492;0.060405206;-0.17159648;0.13478172;-0.009393039;-0.07042998;-0.00673196;-0.026554912;0.07365058;-0.031053104;-0.16357346;-0.028445099;-0.11979905;0.059056;-0.0605922;0.1991509;-0.13453636;0.057636783;-0.09765876;-0.20826581;-0.10967582;0.077232435;0.051279042;-0.051072795;0.059600875;-0.024400424;0.20458974;0.03539244;-0.12910914;-0.2106234;-0.026504299;0.16496202;0.092594005;0.03663882;-0.016154539;-0.088530235;-0.21037506;-0.20309375;0.0024890108;0.048515905;0.12770575;0.07398746;0.07180776;0.17526804;-0.068680905;-0.13249359;-0.0031509653;0.22504592;-0.03712544;0.016966863;-0.13427764;0.18356942;0.10152202;0.01276976;-0.008045639;0.025140233;0.06346838;-0.020292433;-0.036317375;-0.101689905;-0.0824982;0.11717202;0.092894785;-0.028748728;-0.02658409;-0.11080683;0.07093969;-0.15069593;0.10599777;-0.014913004;-0.063436136;0.17867039;0.044187866;0.05600513;0.11745001;0.20277359;0.08109097;-0.08371133;-0.09947677;-0.001878811;0.080458164;-0.10057023;-0.039890837;0.13536419;0.04621302;-0.0009721454;0.18142875;-0.112755865;0.043185204;0.025447581;-0.02876267;0.1456376;-0.11142842;0.0021821468;-0.17386664;-0.06649871;-0.06524023;-0.22319195;-0.097039595;0.09150701;0.05139824;-0.20012131;0.07097718;-0.00607694;-0.23509972;-0.12283466;0.09246685;0.025039485;-0.14414078;0.12205622;0.10320464;-0.06270119;-0.19268082;0.03399101;-0.06590446;0.17093524;0.119802885;-0.037857044;0.021270636;-0.09888128;0.076025024;0.013835645;0.17331497;-0.07116396;0.038708284;0.07638704;0.11008298;-0.253767;-0.0316816;-0.105835624;-0.1016152;0.021546314;-0.1869122;-0.023175498;-0.07789713;-0.0030456595;0.03154123;0.081461325;-0.07550669;0.12099266;0.11849786;-0.045174554;-0.117761455;0.3653353;0.19755413;-0.06770676;-0.111232005;0.037187926;0.26884022;0.013474739;-0.15054011;0.05503283;-0.09178646;0.109119795;0.006450866;0.08505194;0.05482938;-0.04513243;0.077633165;0.18777083;-0.14108293;0.06268877;-0.21399355;0.06525911;-0.3124809;-0.036684714;-0.14327754;0.057407632;-0.067776136;-0.13489881;-0.052211568;0.06713057;-0.26786578;-0.1592061;0.057020847;0.26019064;0.11998228;-0.028667115;-0.01495173;0.048963338;0.034970347;0.033182874;-0.08189969;-0.015491262;-0.03577265;0.071121655;0.03494766;0.121421926;-0.087804064;-0.1817188;0.032987956;0.0012220332;0.045303226;0.21303666;0.042028885;0.05729934;0.12945491;0.08303528;0.067356445;0.02810233;0.030554926;-0.14136907;0.07455673;-0.14061442;-0.14285146;0.036793966;-0.12919927;-0.08234033;-0.104839206;-0.0017236224;0.1708406;0.0064571444;-0.16364175;0.106537364;-0.0050214287;-0.1911315;-0.1537285;0.07833945;0.045821346;0.023069875;-0.05926996;-0.026841227;-0.097373135;0.11310752;-0.18215238;0.09673858;-0.03820515;-0.027751105;0.0729334;0.15283556;-0.16397443;0.043455508;0.12561217;0.07202125;-0.092456974;0.0043125055;0.0010895286;0.0035741478;-0.05685779;-0.034953646;0.065502465;0.25157046;-0.14519432;0.106161244;0.096347965;-0.051740363;-0.0692577;0.04739023;0.060524043;-0.0011387258;0.09482571;0.14915143;0.067203365;-0.090736516;0.15455317;-0.16646819;-0.050070398;-0.04916039;0.13776733;-0.13731064;0.027234547;-0.016100118;-0.0014500557;-0.018720854;-0.12485314;0.05809534;0.17840415;-0.02150047;0.114132814;-0.048235778;0.036546823;0.050842036;0.012017608;-0.23237392;0.018932128;0.09450779;0.1973959;-0.051394768;-0.059425455;-0.027165659;-0.15897827;-0.1466978;-0.0061087897;-0.062177997;0.037103433;0.03428917;-0.077677794;-0.024054302;0.0074385847;0.049779072;0.05138254;0.116795875;-0.011204747;-0.042002216;-0.20243989;0.0116254175;0.067880504;0.056302387;-0.036725838;0.08649291;-0.1440196;-0.067553125;-0.09350425;0.05479209;-0.08303146;0.060004327;-0.14870453;0.020749323;-0.14609887;-0.104643956;-0.18193816;0.074992895;-0.06407142;0.06129749;0.072609246;0.16693112;-0.0052092453;0.046949755;-0.04427811;0.11027184;0.09078653;0.18188171;-0.04956424
0.14726035;0.01636699;0.04585577;-0.14595978;0.038472503;-0.039149962;0.08561101;-0.037925627;-0.1527082;0.06642141;0.19605407;-0.022073952;0.03980186;0.18057586;0.093264475;0.040508866;-0.0027941305;-0.09900589;0.2101742;0.0017914311;-0.20302275;-0.07280025;0.2539693;-0.07560265;-0.017296981;0.012324736;-0.12136753;0.049948785;0.02669158;-0.009473347;0.19377013;0.010719541;-0.014976907;0.056720506;0.13033117;0.07939532;0.10780916;0.021526685;0.0003490672;-0.1166267;-0.08965703;0.24802177;0.051355027;-0.08953923;0.10363255;-0.065294;-0.0038237402;-0.24488176;0.009683677;-0.055516656;0.049383268;0.023150431;0.13574977;0.066873476;0.009695791;-0.031423625;0.010694098;-0.0825336;0.14998138;0.12435396;0.04583982;-0.011644014;-0.12270581;-0.07084817;-0.039385524;0.13856252;-0.10729253;-0.033527534;0.030766005;0.08827574;-0.049724605;-0.1537769;-0.049356207;-0.027590513;-0.007213402;0.0065397234;-0.15354276;0.21495968;-0.09053477;0.11563596;0.19985257;-0.09157936;-0.024655236;-0.029626533;0.15758085;-0.03873598;-0.2978357;-0.042243242;0.15737754;0.013446455;-0.08279583;0.22327366;-0.11682742;-0.022179987;-0.13246731;0.050657433;0.012995533;-0.124271765;-0.082025096;-0.025701847;0.032102466;-0.1421848;-0.20904554;-0.036095377;0.04416566;-0.016243497;0.061140247;0.058117643;0.029394202;0.052857593;0.025709143;-0.14049459;-0.0476833;0.030119242;0.026730746;0.01864498;0.055880662;0.20355518;-0.25380093;-0.17271566;0.09539095;0.040191155;-0.20511445;0.008220699;-0.09605933;-0.052242603;-0.17688933;0.002328613;0.034729578;-0.10265285;-0.06382066;-0.04130482;0.15621953;-0.09251474;0.019506237;-0.10353294;0.085049435;-0.115669526;-0.041129436;-0.0681815;-0.10710887;0.13968381;0.031210847;-0.016687157;-0.037278585;0.026610704;0.005184298;-0.0684104;-0.026064185;0.10641925;0.099914916;-0.11307408;0.07903882;0.0024015117;-0.11533439;0.015933374;0.0081071155;0.18449299;-0.09295423;0.053759884;0.16172428;-0.028705014;0.1489056;0.032919668;-0.045589466;0.026032524;-0.25832558;-0.060208175;0.16388799;0.09628185;-0.24588472;-0.17428486;-0.11962382;-0.011695954;-0.083410576;0.0008815711;0.13463663;0.2029405;-0.027800294;0.0692244;0.031354554;0.029815052;0.076308;0.09314802;0.059140693;-0.075510055;-0.17978866;-0.067835934;-0.037105676;0.016796945;0.1178425;0.08079091;-0.043947227;0.066019826;-0.048864495;0.21540396;-0.06372347;0.060327504;-0.1622794;-0.054953102;0.05300988;0.04423474;-0.035616193;-0.066552565;-0.16026503;-0.04846607;0.027375363;0.15215181;0.07183083;0.123998575;-0.10224046;0.004257864;0.039524302;0.08938414;-0.13340743;-0.027796973;-0.18566795;-0.048861675;0.082022145;0.086444564;0.061486427;-0.1109356;-0.027379697;-0.0272622;-0.06493782;0.018027717;0.05191816;-0.047066562;0.083434135;-0.058768325;0.020764405;-0.12100951;-0.14907368;-0.049204983;0.037051603;-0.116049625;0.08776675;0.016637728;-0.036152318;0.2005539;0.1259307;0.12852326;-0.17239168;-0.21233284;0.20537163;0.038911317;-0.003943451;0.06556976;0.06243022;-0.08053656;-0.020575467;-0.093392625;-0.16306995;-0.09697032;0.198213;0.036094658;0.02339776;-0.0025692298;-0.075682774;0.03043928;0.003653526;0.09610251;-0.16829641;-0.12451529;-0.035077885;-0.034853928;-0.0071787755;-0.06421017;0.14599639;-0.023461264;0.09123428;-0.25048763;-0.12234861;-0.16475393;0.10670809;-0.2401166;-0.053471655;0.026396131;-0.0327339;0.1906528;0.012859604;-0.23202512;-0.10530503;0.0115135;0.07248445;0.06762529;0.1483886;0.013532062;0.06912446;-0.2959459;-0.10432947;0.005350418;0.082471244;0.1612625;0.10974645;-0.014972721;0.02965736;-0.0059407167;-0.09271451;0.023392968;0.26947254;-0.034225155;0.002702317;-0.1507784;-0.030814545;0.04737259;-0.027748898;0.017629314;-0.02395978;0.025725089;0.030400725;-0.08416445;-0.25957182;-0.073655136;0.0669276;0.073871166;0.040993962;-0.059556022;0.0012209843;-0.0043862537;-0.08854942;0.12545502;0.020079328;-0.08133497;-0.02099633;0.1399803;0.006043833;0.14191826;0.24260116;-0.12312259;-0.0017677522;-0.011850278;0.038079616;-0.01336665;0.10070703;-0.18379018;0.034909863;-0.16444887;0.13295086;0.05424186;-0.159655;0.00931859;-0.10246876;0.10021625;0.1785876;-0.07370282;0.12585688;-0.06968101;-0.05169666;-0.01178783;-0.057757363;-0.10563147;0.03789036;0.11118906;-0.116523005;0.02013709;-0.013443107;-0.14000194;-0.01996167;0.028279478;-0.070582494;0.032825403;0.14826207;0.17229396;-0.0019244638;-0.12360632;-0.094245695;0.025026174;0.15673536;0.039705463;0.073075995;0.0040412066;0.029522745;0.06362912;0.13124068;0.043849334;-0.082529016;0.09377411;0.16378433;0.16850007;-0.14388399;0.052983154;0.028056685;0.034198783;-0.08567823;0.00082735636;-0.024377747;-0.04446885;0.03330457;0.037598398;0.19282131;-0.024596311;0.014065703;-0.06410117;0.03331709;-0.0061709955;0.30699435;0.11296178;-0.017771365;-0.080964;0.098342635;0.16138096;0.11037157;-0.102281496;0.09106703;-0.02841603;0.100369856;-0.025603544;0.1286349;0.15970516;0.010687042;0.20415114;0.19135305;-0.08315758;-0.032187242;-0.114681154;-0.09859447;-0.18365528;-0.03616001;-0.05650816;0.1187065;0.0719558;0.017111303;-0.07143634;0.14811634;-0.22669566;-0.06719385;-0.0032326002;0.28535432;0.082859844;-0.090633035;0.013404267;0.13015312;-0.011402027;-0.0910578;-0.0018395894;-0.07468652;-0.053466644;-0.05416144;0.05599427;0.13153508;0.095584005;-0.26512963;0.030998453;0.01137158;0.031599145;0.06518293;0.047888387;-0.026833251;0.12103822;0.014062845;0.0014323787;-0.0772368;-0.029173804;-0.116722815;0.20691365;-0.11675239;-0.19191946;0.1860168;-0.18792607;-0.0013106227;-0.21332994;-0.03908979;0.16809902;0.10372378;-0.10499943;-0.054115552;0.024721626;-0.028185362;-0.03566934;-0.023311714;-0.01193033;-0.08880254;-0.096226744;-0.04707659;-0.17482251;-0.06356849;3.53696e-05;0.007591949;-0.012875271;-0.18126124;0.08301089;0.103234045;0.04608126;-0.044574298;0.050152846;0.066938214;0.08684391;-0.0051220134;0.07353484;-0.13456337;-0.1267082;0.066195786;0.13668908;0.03446555;-0.13369235;-0.032458592;-0.160121;-0.065337956;-0.04176681;-0.019572746;0.086278975;0.007975644;0.012311484;0.055860415;-0.014124198;0.016487807;-0.0037431964;-0.081434265;-0.13510762;0.09882432;0.0010248538;-0.07749589;0.022001907;-0.016044287;-0.03152897;-0.0144802;-0.057094682;0.07698685;0.05069708;-0.03761946;0.039061695;-0.023118036;-0.11409574;-0.037599567;-0.07557801;-0.32974875;-0.068520054;0.0041975845;0.22591095;-0.027236106;0.015852004;0.117833845;-0.1893938;-0.023022598;-0.16013895;-0.10294258;-0.058469564;-0.1672168;-0.2464505;-0.15456721;0.07277862;0.11353543;0.06762568;0.19024132;0.041155662;0.14917874;-0.14925501;-0.0104569495;-0.031654105;0.13815032;0.07788436;0.10301026;-0.0819368;-0.15952215;-0.11432911;-0.008683903;0.09791779;0.034365747;-0.049192164;0.11188343;-0.27690995;-0.14777954;-0.06753268;0.01871866;0.14312296;0.0832363;0.0034739831;0.20213237;0.08305852;0.016706344;-0.0722311;-0.081771195;0.17501827;0.15108186;-0.07290188
0.060729176;0.05302623;-0.025091318;-0.11908968;0.17160705;-0.015356699;0.17898734;-0.014188791;0.018361941;0.11372381;0.11170547;-0.14043085;0.09483927;0.1492061;-0.055813104;0.21810019;-0.09781631;-0.07559822;0.11768672;-0.16415317;-0.09878586;-0.019107876;0.09994731;0.03498463;0.10962838;-0.012721514;-0.07369505;0.021282898;-0.1943431;0.03577795;0.05903625;0.063061945;-0.06875205;-0.014157878;0.21999274;0.07868606;0.10340048;0.05449788;-0.10114623;-0.026911024;-0.20450237;0.14645126;0.0034171485;-0.01321822;-0.017120458;-0.06784092;-0.0063412064;-0.31053993;0.038927983;-0.05592699;0.11302667;-0.13135783;-0.03443691;0.15403455;-0.109377414;0.09893528;-0.057423387;-0.055242572;0.20266089;-0.0006739276;0.06591734;-0.033052526;0.03271378;-0.023082832;-0.031660855;0.08961654;-0.08769741;0.06733812;0.107847154;0.18966827;0.010168121;-0.13668509;-0.023247272;-0.14396878;0.047692657;-0.098431274;-0.082712606;0.087390795;-0.11555071;0.06639816;0.18148065;-0.085350044;0.071466304;0.025238892;0.10051052;0.08301952;-0.098248124;0.06409939;0.082567796;0.1208487;-0.11562136;0.25118762;-0.15603799;0.067632295;-0.13518682;0.018583095;-0.112093836;-0.017833129;-0.11606139;0.082726456;0.018647475;-0.08351884;-0.083298475;0.15955983;0.09469151;-0.021310236;0.14722688;-0.011126545;-0.079555474;-0.05972447;-0.018830989;-0.16900992;-0.07194972;-0.05564231;-0.08572584;0.0058519426;0.02873055;0.1401434;-0.23741554;-0.2516976;0.14774354;0.08449316;-0.123223245;-0.05139235;-0.020191323;-0.059751563;-0.22792202;0.07496592;0.21196173;-0.10026093;-0.26159608;0.032554932;0.19525732;-0.12303085;0.08672492;0.106558755;-0.04209725;-0.2069702;-0.0047773067;-0.06474029;0.05274701;0.07895879;-0.046394728;-0.04255562;-0.017390747;-0.018106572;0.007816256;0.06791307;-0.086203806;0.0508853;0.07212749;0.08229231;-0.018604523;0.032175977;-0.0031963645;0.031344388;-0.049552;0.1569196;0.039696716;-0.021773629;0.05984807;-0.14297405;0.18183157;0.056306776;-0.069350384;0.108551845;-0.16664578;-0.06834373;0.20518138;0.04728729;-0.19878376;-0.058884505;0.03768142;0.06370622;-0.08268495;0.008055473;-0.04540206;0.09712196;-0.09032781;0.008087303;-0.011990028;0.10974991;0.0756714;0.12295049;-0.045668323;0.009088389;-0.23759055;-0.09795858;-0.16873828;-0.025001593;-0.010609898;-0.020387042;-0.05936803;0.051559407;0.10781683;0.12814301;-0.083574004;0.068311214;-0.16109426;0.023717437;0.102697305;0.05406468;0.115732834;-0.09602518;-0.1977961;0.01676321;0.06427189;0.16774212;0.10925784;0.13502428;0.07405033;0.03510288;0.09018175;0.03123994;-0.11588508;-0.10335692;-0.074452996;-0.11596549;-0.019632434;-0.011979874;-0.08565845;0.06988585;0.08310247;-0.067314796;0.04701182;0.0065378635;-0.032096144;0.018815404;0.1305189;-0.0307998;-0.07475002;-0.1172796;-0.12317314;-0.1473377;0.048752468;-0.1082209;0.004063624;0.009853078;0.08385412;0.19659357;0.0517158;0.10419343;-0.13954233;-0.07481648;0.18127124;0.069738604;-0.018859887;-0.015613732;0.11402554;-0.18107253;0.12863892;-0.108836;-0.038924962;-0.007967686;0.24258974;-0.113348484;0.12928568;-0.122030094;-0.12229563;-0.033555385;0.0760038;0.13370188;-0.12498576;-0.06048062;0.02128279;-0.07881508;-0.025953384;-0.050047554;0.06347748;0.01834089;0.21638261;-0.27294153;0.055783413;0.05455141;0.02567888;-0.18393105;0.00012353699;0.092900395;0.009238493;-0.00017018414;0.022848995;-0.082335055;-0.21755418;-0.0050478913;0.110965006;-0.067194425;0.056357034;0.09206953;0.09545887;-0.27062166;-0.099730745;0.05680042;0.09173157;0.06529259;0.12360157;0.019202584;0.022563856;-0.060489554;0.0258438;0.16066861;0.1805226;0.0035720218;-0.06367587;-0.18073583;0.079588965;0.110220715;-0.12596557;0.158813;-0.109180026;-0.13579087;0.00918487;-0.015012199;-0.007929993;0.086262845;0.03801697;0.054100465;0.022783652;0.014309294;0.056552168;-0.025246317;-0.037320934;0.10677011;0.03720063;-0.0020372919;0.0835595;0.044881392;-0.14975256;0.08244071;0.103273146;0.030918237;0.044450898;0.025890466;-0.0058570825;-0.027227212;0.09475713;-0.12435313;0.024830028;-0.11193736;0.020247415;0.042800646;-0.04469048;0.019553298;-0.07955995;0.23830733;-0.02378104;-0.020763615;0.16537143;-0.07434296;-0.15469809;0.04876752;0.12519078;-0.054971315;-0.110866845;-0.03747649;-0.065363266;0.034111824;-0.124690525;-0.18146183;-0.012077558;-0.030806499;-0.032847628;0.0051524276;0.09979809;0.16510591;-0.015005446;-0.037242066;-0.06851918;0.043397333;-0.007528877;0.121975794;-0.03596193;-0.043997124;0.0850414;0.06741255;0.06899335;0.2509958;-0.06326869;0.022810569;0.057093993;0.076615945;-0.095846474;0.16622408;0.09035914;0.047210325;0.013341504;-0.05906391;-0.02475774;-0.055373732;-0.013286111;-0.0002794631;0.16203208;0.06674983;-0.08122121;-0.10427064;0.17884493;0.05481027;0.2202784;0.12579206;0.03260427;-0.11245636;0.25220758;0.17360482;0.040534563;-0.05464638;0.118272774;-0.02955856;0.016543016;-0.060889274;0.01887532;0.11223978;0.17309986;0.14286251;0.01805031;-0.06892019;-0.07601884;-0.053935673;-0.057104327;-0.054750875;-0.061811466;-0.13336362;0.2720393;-0.00090754067;0.002764299;-0.025371572;0.10470156;-0.10352058;0.10247656;0.06892641;0.29037195;0.1445072;-0.119760595;0.17830883;0.07506997;-0.08979655;-0.046725627;-0.06870158;-0.06741289;-0.15984325;-0.05945208;0.18875144;0.14109167;0.10021447;-0.13583568;0.022291375;0.059023183;-0.028445644;0.028875412;-0.06452425;-0.069691114;0.17758788;0.02110678;0.06055566;0.0014210984;-0.10073819;0.0370666;0.037624273;0.007894706;-0.0136563685;0.11064922;-0.06802905;0.08698168;-0.2766519;0.05348327;-0.021411099;-0.07752345;-0.2532485;0.036110125;0.14813752;-0.06684633;-0.08372425;-0.101246916;-0.12598826;0.014086445;-0.008883963;0.048608255;-0.019981643;0.096464075;0.102807276;0.077615224;-0.058993082;0.01774367;0.023030918;0.16803417;0.08583353;0.06519633;0.11368332;0.124903016;0.0706115;-0.00045399912;-0.13973995;-0.07823418;-0.18069063;0.059469122;-0.040378224;0.015320238;0.014638019;-0.015038964;-0.07487135;-0.03828023;-0.02734214;-0.054004848;0.24699959;-0.012773123;0.07127178;0.075720586;0.009247655;-0.088327155;-0.048641402;-0.12703264;-0.25178555;0.057737276;0.09846038;-0.10172916;0.12989089;0.025127707;-0.04558161;0.0108688045;-0.028507613;-0.023613578;0.09895126;-0.1799384;0.010550692;0.1330115;-0.09591017;-0.15356597;0.027987467;-0.2699795;-0.13451062;0.15316494;0.027600115;-0.04116722;0.08969119;0.055576224;-0.21891643;-0.11342138;-0.11331024;0.055446666;0.004715635;-0.04693941;-0.2197539;-0.12184057;0.16650772;0.11163325;-0.08247555;0.19189057;0.08554937;0.05543028;-0.14566174;0.05289157;-0.059916317;0.08621611;0.0880951;0.04430932;-0.15407892;-0.044770177;-0.049987026;0.12047235;-0.121551275;-0.02065285;-0.085426934;0.018289508;-0.15235904;0.01899486;-0.1663133;-0.011066588;0.06853222;0.13277264;0.068487234;0.1428485;0.2707163;-0.12380167;0.023039557;-0.011678811;0.02038131;0.15132444;-0.03265094
-0.0025071271;0.11868607;-0.012402251;-0.19747522;0.25931454;0.04344338;0.06349379;0.0273054;-0.014043299;0.052748624;0.1127283;-0.19259194;0.05410961;0.03780707;-0.025559904;0.028961077;-0.13147077;-0.13590041;0.092843525;-0.15153225;-0.007884936;-0.15997274;0.106138065;-0.006773819;-0.07091818;-0.07726683;-0.0929351;-0.021753585;-0.23840351;0.041213136;0.030252736;-0.06540011;0.03249569;0.052430335;-0.050849143;0.04740302;0.118705735;0.049197823;-0.038832523;-0.12143585;0.045438644;0.064219505;-0.16445431;0.03663491;0.14709364;-0.19617167;-0.08697603;-0.18409479;0.13556075;0.17655002;0.07375309;-0.22532874;0.11324483;0.28183004;0.0861987;0.011573286;0.070555024;-0.07877577;-0.003955141;-0.12826054;0.004103898;0.20134555;-0.013719577;-0.066216014;-0.1505794;0.10066843;-0.13640058;0.20318286;-0.022168687;0.12601736;0.029643847;-0.063580975;-0.0644273;-0.06760872;0.05738089;-0.07928006;-0.17052007;0.08537194;-0.09386121;0.09344547;0.07945624;-0.1293624;-0.024527349;0.19284752;-0.0011831278;-0.001620862;-0.070240855;0.02845062;-0.022418182;0.052632265;-0.15099722;0.20884646;-0.06884974;0.052958354;0.06855631;0.080247864;-0.029098852;-0.06364144;-0.09757926;-0.05142113;0.10223447;-0.06335755;-0.22342135;0.21245553;0.06271103;0.12014016;0.13465525;0.07718443;-0.081458874;-0.09996306;-0.19692793;-0.073658004;-0.1575418;-0.0018528542;-0.05240834;-0.11440589;-0.032141197;0.158497;-0.12668775;-0.14682898;0.028357398;0.1457661;-0.18055983;-0.05946109;-0.12545167;0.035669945;-0.09408771;0.04445236;0.11581809;-0.035483267;-0.20078655;0.016017566;0.25808084;-0.21803732;0.14612907;-0.036431547;-0.10383391;-0.13886425;0.100386545;-0.020431839;-0.024462912;-0.10575135;0.030378947;0.036363278;-0.021590095;0.0041497843;-0.07231339;0.018269187;-0.0036146182;0.027272267;-0.059072863;0.030137857;-0.0075575714;0.025296358;-0.14190225;-0.045660805;-0.12916811;0.111602895;0.09665681;0.05792194;0.1641853;-0.19303188;0.0006257801;0.01735922;0.012883299;-0.035711657;0.0006840957;-0.1446819;-0.02486295;0.17207246;-0.12987049;-0.17558618;-0.019272635;-0.07932495;-0.025784794;-0.023180617;-0.027923502;0.061227996;-0.10754775;0.052599825;0.018371463;-0.026281135;-0.06410745;0.04806628;0.095304;0.021188311;-0.31583822;-0.019164113;-0.10192641;-0.17808922;-0.14187597;-0.008856743;0.0058300504;0.13994871;0.09899193;0.12876397;-0.089242786;0.121824466;-0.1712404;-0.13227671;-0.09632426;0.012161493;0.06878349;-0.060517546;-0.19558406;0.035577126;-0.010012863;0.22924973;0.028075444;0.09593344;0.009263408;-0.039783552;0.10446221;0.01389776;-0.09819577;-0.062372316;-0.1182978;-0.10484252;0.06579062;0.058497585;-0.1687492;0.0046062726;0.025857612;0.0452197;0.051820222;-0.17301847;0.1384391;0.16468227;0.18444893;-0.12547295;-0.12781556;-0.04618305;-0.03194974;0.024389721;-0.021361507;-0.09633228;0.025350146;-0.010780872;0.062991835;0.18701424;0.030152975;0.11043699;-0.14630634;-0.13479695;0.051721904;0.056630608;-0.1518655;0.021522723;0.11390729;0.025667539;0.046344765;0.07146386;0.005638566;-0.046419;0.1399273;-0.1979219;0.12521514;-0.11365332;-0.0961705;-0.0016899962;0.067236476;-0.040651225;-0.1369423;-0.015077709;-0.1275922;0.039511263;-0.028878927;-0.08996399;0.057872806;-0.121386215;0.24675459;-0.14743602;0.03492079;0.08694136;-0.025128007;-0.15400903;-0.09090312;0.09209457;-0.023852047;0.014026718;0.021866983;-0.053394277;-0.029770968;0.080859356;-0.064725704;0.071408756;0.019375406;0.07223384;0.076597095;-0.26767135;-0.026122984;-0.06269658;0.04898169;0.08649926;0.25382635;-0.0367086;0.13519979;-0.12898411;-0.06721342;0.097780466;0.06831354;0.06574876;-0.013077775;-0.043103307;0.12802039;0.16786645;-0.22075753;-0.05699907;0.003799644;-0.113657795;0.021061666;-0.008603662;-0.04713251;0.061971672;0.057343923;0.06477092;0.016899066;0.0059554237;-0.13646547;0.14435917;-0.17054515;-0.01918777;0.017109813;0.02258335;0.053666435;0.06009303;0.06508622;0.053997997;0.07651168;0.040601365;-0.00069163396;-0.0125670945;0.105090044;-0.14890915;0.1100941;-0.2473764;-0.006210418;-0.022808816;0.1676502;0.1454478;-0.12396781;-0.040930834;0.15771264;0.29425567;-0.12925938;-0.007310635;0.15378603;-0.112664334;-0.04362376;0.053514574;-0.012218043;-0.18244281;-0.11463367;0.015819082;0.07670931;0.009894611;0.10250423;0.0038514636;-0.009407892;-0.12401135;0.06451129;-0.025626913;0.13914673;0.053601965;0.079841435;0.0020561572;-0.03396218;-0.068448044;0.1421052;0.11717622;-0.07200602;-0.036019597;0.07602677;-0.16736981;0.13796085;0.019449122;-0.075842924;0.052143887;0.082838796;0.20202012;-0.10801608;0.08150914;-0.04886521;0.048445184;-0.093903;-0.07786115;0.044768654;-0.14147303;0.097036794;-0.10001161;0.103284836;0.030760245;-0.12394909;-0.18728201;0.12834544;-0.1754826;0.2579109;0.17723787;0.06692296;0.053719;0.012025996;0.23876595;-0.032760296;-0.07737963;0.21256344;0.07440013;0.12844744;-0.12812437;0.053512968;0.12083586;0.18272701;0.0443354;0.045219447;-0.11144421;-0.012218038;-0.14893048;-0.063057214;-0.242353;-0.1590227;-0.14225665;0.24739276;-0.04267385;-0.16135299;-0.031924326;0.129807;-0.22301725;0.067252226;0.07271686;0.17295142;0.16826268;-0.041043732;0.09639838;0.036709998;-0.09699922;-0.08783133;-0.023951609;-0.072816886;-0.016900154;-0.009576845;0.15702266;-0.031328585;-0.026262714;-0.046873104;-0.01471881;-0.023415836;-0.02175985;0.0133807035;0.009236097;-0.09599331;0.19602898;-0.01516515;0.056794718;-0.06557742;-0.10150722;-0.1527915;0.009679527;-0.13620837;-0.044567566;0.24325761;0.16456163;-0.04139973;-0.18605697;0.13730763;0.06987282;-0.039176643;-0.09670824;0.056755986;0.056215763;-0.09091755;-0.08043305;-0.02079242;-0.06283269;-0.02468222;0.03516248;-0.023778072;0.007864855;0.13723798;0.06344156;0.092103325;-0.021639686;-0.1193365;-0.043242276;0.048936635;-0.053219546;-0.053973075;0.09967042;-0.031258713;-0.024055026;0.05131792;-0.03624497;-0.14373142;-0.09549732;-0.0056264936;0.004681966;0.08085136;-0.026990216;-0.049358293;0.04682905;-0.02793401;0.03545349;0.024194753;0.18756466;-0.06777371;-0.08565706;0.17595519;-0.044005774;-0.14730234;0.03783526;-0.17243592;-0.21436821;0.03341266;-0.038830828;-0.011570488;0.21636908;-0.050340973;-0.088330716;0.078145355;-0.050011877;-0.14095971;0.20584579;-0.22513248;0.06446338;0.17417306;0.18693155;0.111595005;0.14945683;-0.18789928;-0.05077512;0.09349347;0.21092683;-0.071418725;0.011588325;-0.0103039155;-0.2169139;-0.052355167;-0.043540597;0.120682955;0.036424417;-0.17164394;-0.096794136;-0.14309162;0.07791271;0.062025573;0.04705956;0.079112336;0.13038975;0.13623767;-0.17422095;0.26023245;0.030378474;0.0007539287;-0.009171094;0.24680142;-0.0008319456;0.03431582;-0.0028588686;0.09245214;0.075243175;0.030841066;0.06424794;0.22231285;-0.12325679;-0.06274673;-0.16816308;0.028813792;0.14962979;0.15448299;-0.0026821622;0.18116693;0.24840084;0.05927414;-0.008429627;0.0062744124;0.10890303;0.18892029;-0.03611974
-0.029990193;0.12164084;-0.10516714;-0.110868275;0.1807278;0.06280242;0.12077096;0.0067881253;-0.056854606;-0.0017429909;0.13071594;-0.008733814;0.01747811;0.17139317;-0.10797405;-0.034596473;-0.056624696;-0.19681354;0.17791615;-0.20429973;-0.06614184;-0.021786736;0.23379284;0.09819284;-0.020330202;-0.07323471;0.08734595;-0.008085301;-0.06503063;-0.023647433;-0.17192006;-0.02987865;-0.015683131;0.10258979;0.09326183;0.012021905;-0.022466753;-0.057681933;0.07635523;-0.32822904;-0.24593872;0.11116567;0.06314674;0.009217218;0.06286638;-0.20283806;0.16182388;6.37465e-05;-0.012878636;0.048335362;0.17586976;-0.031483952;0.17913973;0.22435836;-0.028820032;-0.021567158;0.09815012;-0.054491784;0.0032721905;0.021914255;-0.086503945;0.11508113;-0.13485666;0.25147972;0.03508555;-0.017181506;-0.04340596;0.12528756;-0.11938685;0.30846182;0.038074248;-0.07499514;0.0038637694;-0.07048631;0.034692124;-0.23049298;0.08636466;0.050227176;-0.16876027;0.020232102;0.07262337;0.037307777;0.019271338;0.11629205;-0.16768311;0.032999765;-0.210148;0.05812157;-0.09283903;-0.043169174;-0.09947319;0.20060878;-0.10374006;0.1018943;0.05771016;0.14380343;-0.08036889;0.02096116;-0.07777345;0.07388963;0.08538539;0.048954185;0.05520009;0.07027392;0.0042712023;0.006846033;0.028092252;-0.051425885;-0.08687301;0.089412645;-0.038826905;-0.16244274;0.014811293;-0.21893056;-0.015418794;-0.03626111;0.07524395;0.031980067;-0.113091685;-0.2866533;0.06023954;0.23564729;-0.15858997;0.0014908694;0.05671786;-0.13715197;-0.22339174;0.11089555;0.10741105;0.0523207;-0.11412377;0.062528595;0.23693587;-0.018448234;-0.006581693;-0.116080046;-0.109967;-0.1311973;-1.8526382e-05;-0.041033667;-0.13466159;-0.084152326;0.06188165;-0.110164106;-0.1368083;-0.042795934;0.10690576;0.08919432;0.04673068;0.1031541;-0.10736774;-0.07199901;-0.07161973;-0.07972201;0.009079453;0.014494222;-0.12727913;-0.0013781572;-0.037113663;0.019451836;0.040269546;-0.078087315;0.13559027;-0.053467814;0.07097556;0.06997728;-0.11992037;-0.114444986;0.03529976;0.1226224;0.051403727;-0.1420174;-0.10381996;0.1666675;-0.01504994;-0.044061974;0.019081745;0.15658149;0.05624494;-0.018678118;-0.020935185;-0.00580916;-0.0005844864;0.17359892;0.015198249;0.13278864;-0.42568576;0.043273214;0.0074544107;-0.0053505087;-0.036634546;-0.056213234;-0.020009872;0.0030088765;0.056741297;0.16611572;-0.24597465;0.11243858;0.009644161;-0.0606411;0.04797767;0.11592426;0.0577432;-0.1005453;-0.25184503;0.007990621;0.049539242;0.21057406;0.030935492;0.03070679;0.098052695;-0.2043832;0.0039325384;0.066307604;-0.030585822;-0.06920903;-0.047024976;-0.09039511;0.36370242;0.085325494;-0.20960492;0.033955585;0.075885355;0.108789764;-0.013241197;-0.05555957;0.1423567;0.11547301;-0.008435896;0.011361281;-0.034770235;0.004816682;-0.06082156;-0.004747297;-0.12826796;-0.13125814;0.039096247;0.06762375;-0.051001605;0.04548559;0.045475803;0.10781374;-0.11559946;-0.023465287;0.0154660195;-0.07742509;0.017820805;-0.04204207;0.15060571;-0.105862595;0.13561852;-0.11914671;0.17131236;0.022015063;0.11862598;-0.07411395;0.11861002;0.013194433;-0.1603879;0.15474269;0.038029216;0.14985263;-0.02871503;0.028800722;0.071143754;0.09057038;-0.07701753;0.027854074;0.18253483;0.012832525;0.20084298;-0.24942857;0.06078848;0.07620304;-0.13986516;-0.07133252;-0.11095681;-0.034876548;0.10178338;-0.04707405;-0.3541111;-0.10483881;-0.041068237;0.21572176;0.1428879;-0.036466293;0.084522605;0.018896729;0.03924382;-0.13166511;-0.13815622;0.02681084;-0.004684046;-0.050627317;0.251085;-0.10298698;-0.04016232;0.055186085;-0.026536172;0.12713027;0.039411765;-0.053663008;-0.040916394;-0.061212674;0.14525189;0.059708726;-0.108383164;0.0783226;-0.05716601;-0.112577744;0.10995257;0.007546738;-0.21687025;0.22882767;0.10113694;-0.053863067;0.015904238;0.006484496;-0.12899269;-0.0019364494;0.024883311;0.19525407;0.09414041;-0.11354552;-0.0030264182;0.10594951;-0.10239363;-0.10634737;-0.050994657;-0.21423462;0.086984314;-0.14984797;-0.019788068;-0.13425578;0.16192564;-0.26849145;0.13315979;0.04591263;0.043922517;0.08829276;-0.1680467;0.028016606;0.111509435;0.21901958;-0.039315246;-0.043687865;0.02480208;-0.07652763;-0.05772593;0.18444128;-0.015915228;-0.09976296;-0.008770805;0.03956937;0.08312293;-0.010886087;-0.00702093;0.055320293;0.031817555;-0.06820766;-0.04808821;-0.08414394;0.14972334;-0.115543395;-0.016677286;-0.06207871;0.023353022;0.08764189;0.14195925;0.22135775;0.0302989;-0.011952027;0.092606336;0.035449002;0.029057443;0.0035200233;-0.12526076;0.086313434;0.0019108846;0.02270692;-0.17401454;0.02184903;0.0085896235;0.25935954;-0.10888742;-0.09699828;-0.044798743;-0.16631563;-0.093810305;-0.09241913;-0.041174304;-0.0656456;-0.058240555;-0.25552738;0.042039778;-0.07952143;0.24111702;0.07010805;-0.01459847;0.002701985;0.029307814;0.123747885;0.11910433;-0.11291502;0.20816877;0.008377431;0.12027399;0.06980769;0.10825135;0.07857636;0.1965422;0.09737484;0.03422342;-0.14647566;0.05822356;-0.025952423;-0.01972397;-0.09503475;-0.16386065;-0.04801255;0.2592299;-0.0061786994;0.11179385;-0.028063616;0.23765035;-0.10517996;0.07528775;0.18888263;0.160632;0.09672832;0.1569435;0.16608131;-0.03707987;-0.028258935;-0.07575833;0.03773481;0.031720545;0.051348016;-0.061760444;-0.06303798;-0.029700184;0.060231324;-0.061233215;0.027411427;-0.04939748;-0.06734993;0.09938079;0.0127874585;-0.13729998;0.12574315;0.064790055;0.10349334;-0.03375354;0.03566025;-0.17146981;0.05704135;-0.1602803;-0.067260556;0.23741063;-0.07431513;0.049526844;-0.23215045;0.051012397;0.121531375;-0.041874092;-0.060317047;0.019105917;-0.042917095;0.009111185;-0.041080393;-0.0083327005;-0.10677984;0.1779433;-0.1229112;-0.07552085;0.027279852;0.016063834;0.004838067;0.026577273;0.10803063;-0.083602905;-0.13520049;0.054663602;-0.00255233;-0.026891315;0.123509526;0.04657933;-0.0750584;-0.047667556;-0.0042459685;-0.08828112;0.103153236;0.013403987;0.07768362;0.038641125;0.099636674;0.020472892;0.061246835;0.072219595;0.052329805;0.018272601;0.11556483;0.020862877;0.08569894;0.11734441;-0.05646116;-0.08807945;0.01971421;0.065407164;-0.06188579;0.16688913;-0.10078373;-0.0058271172;-0.015502292;-0.0884457;-0.0015579698;-0.062246077;-0.033251394;-0.032259528;0.1405867;0.07813263;0.049264003;0.19778082;0.040500958;0.09937766;0.07076674;-0.06433894;-0.103282675;-0.084612034;0.08338014;0.010922928;-0.004235347;0.03270888;-0.23891503;-0.16302727;0.030350663;0.052192852;0.11255889;-0.05164251;-0.1530953;-0.17283471;0.024176436;0.14785552;-0.16880248;0.00578794;0.036111396;0.06409939;-0.05331446;0.22589786;0.10364181;0.10175701;0.0837112;0.23818512;0.018600397;9.564413e-05;-0.050255276;0.050975326;0.100683294;-0.0026397677;-0.00053044345;0.11546688;-0.14179699;-0.13385795;-0.24695227;-0.011052399;0.14023055;0.07047979;0.016418673;0.11614802;0.15402468;-0.06058769;-0.010548242;-0.028313838;0.12640117;0.2126209;0.014691914
0.18434784;-0.09178;-0.1571142;0.047356535;0.105940506;-0.01206931;0.22486143;-0.0023658727;-0.050426748;0.04907946;0.0060047526;-0.02843858;0.10780623;0.057518225;-0.03228075;-0.1226182;-0.0675602;-0.1569063;0.33525148;-0.12118354;-0.059990298;-0.022234347;0.1274126;-0.10599158;0.024066985;0.10459928;0.034519143;-0.083339885;-0.05149912;-0.051725417;-0.23800537;0.14284968;0.047081385;-0.09281491;0.013072462;-0.04191871;0.08298141;-0.15948142;0.014645494;-0.16355586;-0.13688351;0.104550965;0.044586293;0.066393;0.15981174;-0.15203153;0.10194389;-0.022073932;-0.08191092;0.07358358;0.08246115;-0.14355871;0.1503336;0.23932554;-0.13085014;0.037680138;-0.1407399;0.05551482;-0.024104564;-0.066677555;-0.062214233;-0.045841362;0.028858325;0.18947849;0.09967354;-0.058669165;-0.027475491;0.11786131;-0.0029013052;0.26635846;0.07652412;-0.06110475;-0.10865954;0.059397828;-0.14691538;-0.20050341;-0.054539915;0.11646754;0.033472683;0.25569618;0.22767122;-0.0307648;0.1402288;0.0035972875;-0.09536793;0.005530547;-0.08135101;0.060052242;-0.12285828;0.0008992115;-0.013473686;0.0780084;0.0039768093;-0.042257983;0.027069362;0.11839692;-0.023124034;-0.05452098;-0.09029101;0.08125758;0.08014951;-0.13265583;-0.036770828;-0.100376226;0.10421327;-0.057396878;0.022093365;-0.0328523;-0.06083463;0.086226314;0.049876194;-0.12608626;0.12669867;-0.05464939;-0.009295129;-0.044210177;-0.06381186;-0.12233425;-0.054853957;-0.2305666;0.14675267;0.12254866;-0.21664234;0.0072246473;0.12782846;-0.23185134;-0.16729741;0.22023366;0.09018089;0.02586041;-0.024762763;0.05462978;0.25948313;-0.044284403;0.0737526;-0.020669162;-0.09405006;-0.15243174;-0.016917456;-0.08666155;-0.026584322;0.046778508;0.05556779;-0.12076166;-0.20424949;0.07143915;0.118555404;-0.000620795;-0.046079744;-0.012082693;-0.020352373;0.05272331;-0.005109344;0.037390478;0.02064238;0.1841147;-0.06859827;0.021197401;-0.07596689;-0.015166261;0.026549576;-0.16616099;0.053085156;0.067061625;0.042620227;0.100314185;-0.060555924;-0.09705097;-0.0007038142;0.049567193;-0.033800807;-0.07817249;0.031368908;-0.0005209719;-0.013906038;-0.0062241913;-0.13046981;-0.037565142;-0.09198528;-0.07186837;0.00593624;-0.17015162;0.09881308;0.22607085;0.053807963;0.12922338;-0.31090942;0.07903085;0.113177955;0.08481775;-0.05331668;0.05961343;-0.072691634;-0.010564446;-0.036947545;-0.0059382715;-0.13616875;0.19358273;0.016997185;-0.04262676;-0.076715685;0.10991687;-0.09521176;0.08151787;-0.039535645;0.10738228;-0.074419625;0.0072282758;0.18109491;-0.011556237;0.044150714;-0.13241011;-0.011642571;0.1380166;-0.12282437;-0.02151193;-0.035338;0.065985985;0.227444;0.075225815;-0.051641617;0.06905387;0.067978725;0.037653495;-0.25345296;0.031824183;0.027178762;0.19304597;-0.060955577;-0.105703026;-0.1501385;0.037857916;-0.1502006;-0.023332542;0.015543651;-0.26673526;-0.017150218;-0.017362291;-0.11867095;0.09342424;0.1421751;0.14731874;-0.12816402;-0.1759538;0.025698017;0.07247872;0.075574964;0.079598196;0.10408447;0.09628537;0.019677315;-0.21802366;0.106663845;-0.114782035;0.10645709;-0.081664085;-0.010270377;0.06601543;-0.023170866;0.290657;0.081733614;0.12796172;0.08148434;0.014219585;0.020607436;0.116557226;0.019787934;0.14055711;0.06807971;0.04765218;0.04718224;-0.23512143;-0.09308243;0.05080848;-0.041818187;-0.087920226;-0.15556352;-0.048650827;0.153883;-0.14051877;-0.26596683;-0.26454806;-0.024961697;0.3183795;-0.011440685;-0.06673386;-0.025922878;0.09289373;0.16924211;-0.17924847;-0.15758009;0.13152482;-0.017475408;-0.032598775;0.22190695;-0.10910244;-0.102338925;0.16809116;0.033861343;0.07128044;-0.032165013;-0.02649251;0.033255875;-0.1936704;0.02785844;-0.03789858;0.016189083;0.016149445;-0.019066323;-0.12222572;0.07545608;-0.022637779;-0.19748494;-0.005209513;0.1418216;-0.0032952593;-0.02517042;0.110391624;-0.10970111;-0.020650698;0.037415225;0.18393621;-0.023854135;-0.13840379;0.078390345;-0.034900844;-0.13898441;-0.091438435;0.030010173;-0.2311369;0.13357343;-0.21968658;0.1599335;-0.12264825;0.08899067;-0.1686891;0.04707057;-0.0037090047;0.018650059;0.1717712;-0.18149583;-0.16414438;0.09038272;0.3160243;-0.056598134;-0.09514441;-0.016664492;-0.2193707;0.030118663;0.11952071;0.017735612;-0.19454269;0.09489861;0.026995655;0.012594122;-0.06644215;0.008298084;-0.0519256;-0.12148809;-0.03106443;0.14165626;-0.019449145;0.073700584;0.015253846;-0.072494;0.014738058;-0.10450807;0.10467711;0.059085045;0.11859096;-0.050909635;0.022985373;0.20163848;0.03963939;0.13707015;0.0070661926;-0.11641327;0.011084491;0.12817737;-0.027792865;-0.34171683;0.01457999;-0.116934426;0.21945488;-0.017119724;0.051247094;-0.052545875;0.064274095;0.0646359;-0.17597282;-0.07703348;0.0117051415;-0.06346015;-0.07838052;0.06401171;-0.10737207;-0.023446195;-0.07252518;0.014694527;-0.042272486;0.08157052;-0.002374695;0.022977173;-0.16817786;0.2085307;0.23038961;0.11874821;0.09253178;-0.029039692;0.15524682;0.025891274;0.059329618;0.017671026;-0.21686918;0.1521015;-0.10854712;-0.11624962;-0.20106183;-0.1669278;0.039852276;0.2738234;-0.15474722;0.118571945;0.098752655;0.2305813;-0.06799263;-0.0766108;0.35573047;0.12936793;-0.14803676;-0.038490124;0.09311278;0.140638;-0.047131263;-0.16097344;0.17635061;0.08440535;0.11942267;0.03729955;-0.11517684;0.047668785;0.010180049;0.11610533;-0.03855029;-0.055994853;0.019217936;0.039241835;-0.0065658987;-0.23113029;0.15595351;0.21260518;-0.08658763;0.057882186;-0.110581346;-0.16558796;-0.023151157;-0.01088525;0.008148733;0.34587407;-0.044227466;-0.030581856;-0.042820442;0.018413747;-0.027013365;-0.04766641;-0.07409541;-0.12492189;0.035770107;-0.09957635;0.02413909;-0.058860112;-0.10537937;0.05785649;-0.17522871;0.057076927;-0.002923867;-0.08544784;0.05413406;0.2524035;0.032324478;-0.23128395;-0.020040672;0.13681279;-0.048079345;-0.08126325;0.056061897;0.040429123;-0.17639486;0.0134695135;-0.19079185;0.05274393;0.011863373;-0.011415188;0.09291262;0.014701321;0.092079625;0.070982;0.19007853;-0.07366754;-0.050905626;0.08533825;0.19507714;0.09956883;-0.1153328;0.026401404;-0.00049088453;-0.19426791;0.13962695;0.11874758;-0.10051886;0.09489015;-0.04784614;0.052169412;-0.0032656435;-0.13657305;0.06837858;-0.05932338;-0.07671217;0.013418776;0.20265034;0.0948548;0.18773748;0.06478339;0.037361864;0.050777286;0.1921441;-0.04640799;-0.2638771;-0.14050837;0.18540342;-0.137166;-0.02823217;0.200146;-0.069776766;-0.075916186;0.031364087;-0.005641482;0.09246297;0.11238452;0.027997686;0.028011415;0.16437842;0.18855208;-0.21936171;-0.08932356;0.048155405;-0.025762295;-0.09371735;0.10949536;0.08691502;0.07912878;0.054022443;0.050983828;0.06559923;0.09498611;0.028476141;0.024308253;0.0018633895;-0.11814158;-0.20527937;0.114256665;-0.014706926;-0.25277448;-0.1712037;0.11328569;0.15115131;0.0645591;0.10858943;0.16743805;0.2313896;-0.22263968;-0.094363675;0.11439474;-0.07493211;0.17468625;0.10176844
0.1934242;0.046623867;-0.008670397;-0.17519706;0.020291882;-0.095064774;0.31542516;-0.105013736;0.03372502;0.09990909;0.017639592;0.07889637;0.25741145;0.008694495;0.060915206;-0.06799647;-0.26025575;-0.09547492;0.26095963;-0.13028185;-0.070525825;-0.020691343;0.1642308;-0.16806583;-0.08876419;0.082786895;0.055172253;0.070659734;-0.008821088;-0.029632341;-0.19481647;0.013594031;0.01491205;-0.12735727;0.014237065;0.009658223;-0.0034024112;0.01406991;0.054981768;-0.29916298;-0.15570648;0.0506691;-0.02183656;0.09913477;-0.05615586;-0.078259856;0.13369672;-0.11723345;0.046270013;-0.029754415;0.028850483;-0.11485392;0.24193859;0.19812442;0.04305874;0.080430456;-0.08037729;0.05242973;0.0799971;-0.07623049;0.06248712;0.13023926;-0.0040187896;0.12987353;0.056322563;-0.0950014;0.107166894;0.027238697;-0.10729273;0.015859049;0.06441368;0.017145261;0.032406412;0.024277443;-0.059329774;-0.13167556;-0.078292966;-0.078606606;0.055769954;0.017746804;0.071979225;-0.2835182;0.06562366;0.21651553;-0.11416296;0.09497232;-0.0746888;0.20412248;-0.33875272;0.017178701;-0.076290905;0.10183076;-0.05235371;0.033554077;-0.011185361;0.019319696;0.10737484;0.09273027;0.0043169744;0.13975498;0.010532713;0.1237572;0.07030327;-0.07027702;-0.04882744;-0.026713269;0.08816172;-0.04201721;-0.11033986;0.094451524;0.013143668;-0.20897429;-0.04558041;-0.102427006;0.0010653902;-0.10334662;-0.0027904771;0.012095785;-0.07734552;-0.21241781;0.09315068;0.022159798;-0.060702816;-0.05739044;0.015350361;-0.1916276;-0.1426667;0.05349567;0.041175738;0.07758634;-0.1115591;0.116533056;0.08832694;0.039863106;-0.048002545;-0.067861;-0.16636606;0.103266366;-0.011895261;-0.0076984004;-0.10109719;-0.010335259;-0.024902811;-0.034713432;-0.083343185;-0.007342594;0.07104689;0.17194016;0.061655328;0.025377376;-0.030900836;-0.0051118773;0.07169038;0.030615466;-0.04625769;0.047313012;-0.09471984;0.09465001;0.120103754;-0.07185967;0.066498265;-0.15708117;0.054737255;-0.021254985;-0.038998242;0.12270857;-0.015894797;-0.10114225;0.03807937;0.044554874;0.08299128;0.021473287;-0.0007406444;-0.058732025;-0.14387803;0.047087975;-0.0017625004;0.1983815;-0.07305164;0.22539115;-0.10526485;-0.1002601;-0.0546537;0.030794585;0.0647882;-0.04901085;-0.26999483;0.015768075;0.0663482;-0.030262703;0.022552917;0.020570004;0.04268509;0.096438564;0.02468374;0.089460745;-0.095254906;0.07939667;0.13388291;-0.05578892;-0.077395014;0.078889266;-0.0009940797;0.04828843;-0.1092306;0.11676775;0.12192405;0.18172608;0.21293502;0.043336365;0.08712282;-0.015262671;0.15639545;0.11648163;-0.08150257;0.05005779;-0.111618005;0.0026523736;0.33629206;-0.09199916;-0.17974918;0.046807367;0.15000555;0.0072818743;-0.18689334;-0.15613215;0.04226328;0.0008054525;-0.14164464;0.043101292;-0.045228176;-0.051473107;-0.10114827;-0.084808804;0.018182244;-0.12711394;-0.0061600115;0.13324334;-0.011295938;0.095224686;0.1964281;0.21573992;-0.1890545;-0.17464016;0.038466364;-0.009547088;-0.071047686;-0.021589676;-0.038390048;-0.07832661;0.088071905;-0.10361472;-0.0014899834;0.058707014;0.11595064;-0.030283442;-0.013804874;-0.04462754;-0.16676578;0.14572585;0.004305419;0.14723702;0.09422541;0.12142873;0.14970572;0.030380683;0.05133824;0.051916346;0.18773818;-0.022043834;0.087291814;-0.14552176;-0.297058;-0.013101223;-0.086131044;-0.18112008;0.0121472385;0.0015890078;-0.014383805;-0.03244314;-0.16464567;-0.1912657;0.006877124;0.32090217;0.016614437;-0.0814335;-0.029994793;0.18472499;0.09011858;-0.097160146;-0.003375791;-0.07369931;0.07245508;-0.046819847;0.028179886;0.026757129;-0.13851368;0.14821573;-0.059938144;0.089695804;-0.005530578;0.15774642;0.1792025;-0.084005624;0.13191152;-0.029357117;-0.14032775;-0.03401487;0.17791468;-0.11869052;-0.03863128;-0.03829988;-0.42548862;-0.0047269547;-0.05819885;0.06700656;-0.012573136;0.07115191;-0.033713426;-0.116313376;-0.046029933;0.19793235;0.008948897;-0.15944903;0.0210128;0.13078885;-0.09608136;-0.12586612;0.15146717;-0.17150582;0.10632301;-0.099217296;0.07974849;-0.044067618;0.04805474;-0.25499082;0.030607425;-0.080441624;-0.009579968;0.09234457;-0.013744566;-0.08005355;0.19067366;0.29102063;-0.055387963;-0.086735964;-0.14407799;-0.20683368;-0.09163823;0.09648325;-0.18232624;-0.09763081;0.0700175;0.0408086;0.10390669;-0.121880576;-0.048820633;-0.07712025;-0.014345443;-0.12290054;0.09535597;0.021626968;0.22248712;0.057132553;-0.032652188;0.037485328;-0.10106424;0.010032907;0.06258972;0.114584416;-0.102308154;0.070915826;0.124944456;-0.019064127;0.16964442;-0.08200272;0.013358588;0.083999425;-0.03993297;-0.025886185;-0.22776996;-0.14041352;-0.00918155;0.21159466;-0.0720519;0.055551864;0.043202642;0.028465718;-0.02883777;-0.20223892;0.055005066;0.09125173;-0.24251042;-0.12571311;0.053545825;-0.13019104;0.26564252;0.117605135;-0.12677553;-0.13350524;0.014605168;0.054524794;0.0743018;-0.06691547;0.09873804;0.10697721;0.23086886;0.1941471;0.0793667;-0.03676693;0.01059033;0.01275024;0.08945913;-0.33793297;0.13250035;-0.11397958;-0.11820268;-0.047916595;-0.0972371;-0.06243311;0.25704077;0.06601438;0.0029627467;-0.023835856;0.14232688;-0.1214874;-0.087984465;0.14739804;-0.01874268;0.031461;-0.07672882;0.18125185;-0.068883;0.15123215;-0.26918384;0.28491884;0.010446102;-0.07287909;0.041200086;-0.22102365;-0.040584788;0.120236896;0.12707232;-0.08211108;-0.0141378455;0.059868086;-0.017049147;0.10926592;-0.12139231;0.12354846;0.21345474;-0.062270537;0.082337424;-0.042075764;-0.16220336;0.06155729;0.030161297;-0.12771781;0.22005208;0.102638334;-0.12822337;-0.12791964;-0.1128669;0.14656058;0.06194272;0.014518869;-0.08652024;-0.055221707;-0.11501812;0.008578791;-0.041279625;-0.11468281;0.12344774;-0.04245078;-0.15945384;0.043572;-0.09644959;-0.027192079;0.08618682;0.0477094;-0.23002301;0.024169968;0.20286806;-0.08089277;-0.020636978;0.33871374;0.03460543;-0.02605785;-0.12112584;-0.1051359;0.03876816;0.076105915;-0.0363151;0.13784541;0.23214097;0.015219214;0.080059946;0.13815767;0.011035772;-0.09969932;0.09024554;0.035719488;0.18224597;0.11438873;0.18307033;-0.031295516;-0.07280878;0.07165058;0.07737373;-0.055314492;0.017071238;-0.008901292;0.18176438;0.09762823;-0.044193085;0.08853978;0.07499827;-0.11128809;0.033417787;0.1406336;-0.0013314901;0.28637436;0.05424131;-0.002532027;0.037604608;0.11207096;-0.05811997;-0.083712496;0.0022997442;0.035927337;-0.13658337;0.16619721;-0.014963475;0.071904175;-0.045846727;0.16850479;-0.06904336;-0.13037547;0.030046156;-0.028859599;0.07299821;0.1029478;0.020126082;-0.086967826;-0.11551122;-0.0024836285;-0.013807911;-0.06284018;0.2514885;0.17624351;-0.052244913;0.044966765;-0.026298197;0.11927895;0.026288712;-0.10323113;0.014867308;0.04600922;-0.10555724;-0.07687684;0.24662152;-0.07466411;-0.065036185;-0.0729525;0.01837949;0.12319835;0.118897445;0.075595744;0.24104083;0.2380693;-0.09552302;0.06560548;0.0054664817;-0.1630314;0.20948851;0.06290396
0.14439097;0.06798746;-0.11281341;-0.046490587;-0.055457443;-0.09586604;0.25515518;-0.043685045;0.06428946;0.09667712;-0.02897586;0.07262292;0.23381455;-0.07763097;-0.017392013;-0.11114321;-0.14597115;-0.084972635;0.20104383;-0.1371664;-0.024761751;-0.024364572;0.15253021;-0.09913669;0.049626462;0.013002892;-0.09989131;0.21082199;0.05297386;0.015576826;-0.17020173;0.1209709;-0.028368058;-0.10664561;0.079462655;0.019420078;-0.03749781;-0.06751523;-0.014721358;-0.1097598;-0.18588077;0.15760411;0.0476259;0.15699266;-0.13880467;0.043467436;0.08880202;-0.11993785;-0.004513376;-0.04476425;-0.10943335;-0.09866281;0.24284495;0.13572678;-0.015647758;0.016999219;-0.08510015;0.13518572;0.06214502;-0.056215066;0.027197728;-0.0031434242;-0.04474789;0.25732043;0.025893552;0.032033928;0.2106115;-0.023433926;-0.19820493;-0.004815596;-0.07201634;-0.055896845;0.069246955;-0.0077595343;-0.15681541;-0.2484391;-0.12797718;0.13484162;-0.056457017;-0.020447563;0.057369668;-0.24925667;0.081116505;0.20951131;0.016914342;0.00080608076;0.07330054;0.09929214;-0.39313826;-0.056194767;0.026103878;0.044572014;-0.106916316;-0.041752316;-0.05084864;-0.0028504645;0.05268288;-0.09456934;-0.08339247;0.044995584;0.02281588;0.09872419;0.060762294;-0.029966224;-0.03988309;-0.26187167;-0.057449948;-0.009821884;-0.14800207;-0.06951306;0.06858186;-0.2779967;-0.023448939;-0.13163581;0.19122657;-0.05442466;-0.0334746;-0.01888836;-0.041299563;-0.18832292;0.03299632;0.09717141;0.0055557997;0.094513796;0.03150184;-0.023474319;-0.09048586;-0.15576084;-0.015140638;0.051835716;-0.118257515;0.104758956;-0.007180159;0.12517577;-0.041478693;0.017034687;-0.058007095;-0.06540468;0.06444634;0.008306425;0.05688264;-0.07049261;-0.12754746;-0.08981768;-0.11693007;-0.031018512;0.14500026;0.112092204;-0.010147512;-0.1576616;0.058792226;0.06407567;0.07203454;0.11616595;0.06490673;0.09101219;-0.008647561;0.091754265;0.12106967;-0.05471013;0.1456671;-0.09435452;0.0006993901;-0.024126088;-0.010279854;0.009595696;0.050857507;-0.0281948;0.11362678;-0.062017538;-0.059363134;-0.084433906;-0.08660489;-0.024595248;-0.069121115;0.06359826;0.045561917;0.16140422;0.05255199;0.2754661;0.019095082;-0.07547874;0.01349872;-0.029987063;-0.043079652;-0.078755915;-0.30542108;0.031252462;-0.00022936454;-0.08181284;0.064413495;0.07811629;-0.015976153;0.11459884;-0.085398465;0.08440127;0.0072599337;0.08498281;-0.026269233;-0.040708724;0.15959458;-0.021184942;-0.07677248;0.03168683;-0.1077018;0.059291393;0.2657988;0.046694126;0.24879403;-0.100064814;0.0326189;0.05158591;0.043466523;0.1996594;0.11794414;0.001908495;-0.1401097;0.028641574;0.21282871;0.0067680306;-0.15951005;0.004473698;0.10771154;-0.079979375;-0.18287352;-0.05830981;0.09348565;-0.012975409;-0.0134502165;-0.0066207335;0.082043365;-0.050051574;0.029535247;-0.03351381;0.086467944;-0.11669252;-0.082643256;0.08757035;0.1341934;0.1745011;0.20491815;0.13720073;-0.12445466;-0.09666329;0.110338025;-0.035595827;0.008333671;0.07091936;-0.08739037;-0.027102813;0.08265947;-0.00932999;-0.12179332;0.045172885;0.018959582;-0.076080196;0.07888448;-0.025189636;-0.06330456;0.040038202;0.086807415;0.16528666;0.14769351;-0.07691301;-0.00583273;0.16869704;-0.049676087;0.006950617;0.096570775;-0.0845564;0.10254525;-0.122546755;-0.15876593;0.09052361;0.03382382;-0.13196255;0.0702629;-0.03201322;-0.08180725;-0.052839387;-0.12555845;-0.2281781;-0.09009065;0.23485447;-0.017219895;-0.013897322;-0.08801737;0.15305631;0.05161108;-0.13959053;0.035345305;-0.031509034;0.09030235;-0.020637918;0.022271603;0.050376315;0.02051856;0.15712342;0.06570566;0.045776438;-0.043057736;0.12553078;0.1511258;0.0230907;0.060766503;0.096443556;0.010966535;0.068233386;0.07185957;0.010252171;-0.042766687;0.14112201;-0.4194687;-0.11150708;-0.14983194;0.088465855;-0.12123948;-0.023204945;-0.008532366;-0.064557485;-0.047692884;0.116176136;0.052400284;-0.12596282;-0.00030563417;-0.14121775;-0.08124534;-0.09187933;0.15690987;-0.19198506;0.16142602;-0.24520758;0.012669303;0.06623854;0.038635775;-0.18751751;-0.0683798;-0.090051085;-0.10962571;-0.041889932;-0.10445682;-0.111214206;0.091732584;0.17394346;0.014995815;-0.07922095;-0.16286089;-0.1783809;-0.18044157;0.08832362;-0.14365496;-0.1312804;0.16196571;-0.1033953;0.054690517;-0.04709312;-0.04319685;-0.016289921;0.042677682;-0.10325095;0.06376152;-0.06780425;0.090928346;0.09540619;-0.004208015;-0.011400353;0.015965357;0.03843728;0.06990562;0.11972147;-0.019424137;0.002190851;0.058080416;-0.030368255;0.19589539;0.022012163;-0.038547035;0.15354185;0.004290843;0.13099127;-0.20396994;-0.009119997;-0.047467973;0.03737491;-0.09786384;-0.029310443;0.10000949;0.008143691;-0.017291058;-0.13735522;0.1340491;-0.07573872;-0.1418724;-0.091790564;-0.022494528;-0.115038425;0.11455193;0.097345464;-0.04634046;-0.1304719;0.1279663;-0.005021088;0.16308774;-0.01100243;0.032574125;0.15024476;0.082397096;0.10987947;0.12251413;-0.102983125;0.05073448;0.123472;-0.02090868;-0.3071388;0.0748458;-0.058563977;-0.08040244;-0.10641182;0.0015686589;-0.09607083;0.19757676;0.009411289;0.026579782;0.050140683;0.047249615;-0.13250747;-0.11698298;0.21654674;0.050316196;0.13015975;-0.012748005;0.19726713;-0.013665952;0.017435579;-0.1354755;0.06251173;0.06481085;0.0119941635;-0.0012484891;-0.12853129;-0.033666067;0.15057787;-0.031603828;-0.09225109;-0.095229745;0.073431656;-0.031016283;0.05886766;-0.23354091;0.19697225;0.16982737;-0.07015761;0.06024357;-0.09999423;-0.20034222;-0.18565181;0.016268305;-0.13551357;0.13556969;0.10719627;-0.09314308;-0.040853687;-0.1857551;0.11460033;-0.0072229947;0.054421768;-0.18990313;-0.0026383658;-0.17426081;-0.040982526;-0.04671846;-0.0020618455;0.1579456;-0.069600485;-0.006815913;-0.07305187;-0.1318136;-0.069702916;0.12332824;-0.041905887;-0.09121995;-0.117339455;0.12996666;0.00422159;0.088360235;0.27564803;0.09277344;-0.1212146;-0.031658955;-0.08188086;0.15879585;0.11279499;0.05192656;0.113530435;0.17908281;0.12139553;0.08587385;0.11033526;0.12216914;-0.17701824;0.022028975;0.00011146621;0.15381312;-0.024350107;0.07101868;0.035020743;-0.073374815;0.17484541;0.10721021;-0.061086345;0.082290955;0.013382609;0.21523122;0.091924824;-0.009866925;0.10221851;-0.030682849;-0.0708238;-0.022662451;0.021497034;0.01910376;0.24097253;0.092335775;0.043179527;0.07890868;0.11413936;-0.038176335;-0.1685594;-0.059423856;-0.007863277;-0.10964302;0.15698543;-0.10212731;-0.053464517;-0.09241522;0.18495259;-0.10465757;0.04732888;-0.021535251;-0.0030198996;-0.010151678;0.0548677;0.084472306;0.043790918;-0.11017756;0.108986765;0.015127671;0.034381244;0.2008454;0.10557665;0.004001271;-0.11127933;-0.014973385;0.008533593;0.030269373;0.061574593;0.0024270853;0.13066864;-0.121534385;-0.039295316;0.17626284;-0.067967325;-0.019497251;-0.06080404;0.12610023;0.05812197;0.033094827;0.042653047;0.2339493;0.035427026;-0.22574365;0.017218892;-0.005876696;-0.19086832;0.21475255;0.044991095
0.017401053;-0.016213018;-0.21122527;0.049161814;0.046718027;0.0579201;0.1305011;-0.014313213;-0.069051564;0.029842922;-0.056577384;-0.023138857;0.23452751;0.06650115;0.07429063;-0.0881508;-0.15634334;0.01875473;0.2999935;-0.22766374;0.020288441;-0.04009749;0.15350959;-0.2580808;0.028890884;0.13083817;-0.10834087;0.21886957;-0.039882503;-0.036323074;-0.09909274;0.10274385;-0.05752885;-0.07520008;-0.0026861043;0.018259425;0.0437971;-0.19019565;0.06494932;-0.052540466;-0.14022201;0.05510539;0.025263041;-0.0030570326;-0.076077744;-0.16163518;0.06075415;0.060643427;0.08019108;-0.06379039;-0.18140337;-0.16232383;0.20169002;0.105527036;0.044522833;-0.043355167;-0.12910564;0.16145495;-0.13990964;-0.15735392;0.061622255;-0.035026763;0.007709734;0.065830015;0.07401009;0.011201816;0.1303302;-0.058430117;-0.060285714;0.09852003;-0.08056143;-0.22908196;0.072246194;-0.017974196;-0.024198733;-0.20614633;-0.13401474;0.07400101;0.026574971;-0.06459019;0.097942255;-0.2563274;0.08280381;0.10568809;-0.1573246;0.12627362;0.03142881;0.0016593974;-0.14021264;-0.07647358;0.0885323;-0.04679683;-0.025464617;-0.13346753;0.040261537;-0.059144728;-0.12787862;-0.045523696;-0.06647916;0.10166377;0.016321909;-0.044720624;0.11585862;0.033239193;-0.09855759;-0.23699622;-0.13247345;-0.0012455437;0.018215103;0.0047896192;-0.1130355;-0.06273399;0.07667693;0.022681272;0.058019437;-0.047669094;-0.043948524;-0.14615464;-0.041303433;-0.11995003;0.057634156;0.20073184;-0.28952092;0.06377198;0.052536204;0.057588022;-0.07210935;-0.050291426;-0.0045192586;-0.028842932;-0.051164217;0.05364186;0.034590393;0.06045519;-0.108618185;-0.053350013;0.036704727;0.116848744;-0.034254156;-0.04779334;0.05756946;-0.02368307;0.009660567;-0.1067401;-0.054925933;0.03257121;-0.08632991;0.30747136;-0.068851024;-0.086719975;-0.019909227;-0.023553414;0.04268673;-0.01164987;-0.11494063;0.0028965962;0.00714269;-0.12575758;-0.02361896;0.13498576;0.029901352;0.11701454;0.0856959;-0.03920211;-0.024046661;0.17400521;0.07002851;-0.09227813;-0.0608131;0.018117372;-0.20211934;-0.11255214;0.06956465;-0.060180817;-0.08327424;0.15119754;-0.020307353;0.10362896;0.13809477;0.22837521;0.01689769;0.022898942;0.08621578;0.0797711;0.14456391;-0.12700692;-0.21081826;-0.1457513;-0.16523919;-0.07738118;0.056488123;-0.003932194;0.07135614;0.060530365;0.08232151;0.030211594;0.15357737;0.06176941;-0.18926182;-0.08135834;0.10865978;0.09278108;-0.09659795;-0.04820569;0.037743352;-0.035482053;0.20246732;-0.05868873;0.27203387;-0.06470751;0.095623106;-0.07241804;0.0723729;0.14139602;0.05713505;0.065283515;-0.029696524;0.101103;0.15865615;0.007206994;-0.02377134;0.07126366;0.0010401652;-0.21871348;-0.012560984;-0.05007049;0.1970049;-0.026328627;-0.0039482466;0.08775437;0.082456544;-0.036973845;0.024001231;-0.11540708;-0.08492188;-0.14052045;-0.121757455;0.106927685;0.030963866;0.10357398;0.13969105;0.04753852;0.028753418;-0.11501154;-0.033499565;0.16485193;0.09901043;0.07559363;-0.0542863;-0.08976185;-0.10904753;-0.06417258;-0.005821895;-0.079737976;-0.00669434;-0.047058955;0.10948422;-0.016606443;-0.0006516802;0.06303622;0.065603174;0.14941847;-0.016314767;-0.054084133;0.04852726;0.003462279;-0.042200647;0.03307782;0.15385653;0.06434566;0.1103405;-0.036113467;-0.31712502;0.15254465;-0.004993709;-0.106159605;-0.075432196;-0.06696642;-0.01567323;0.017192375;-0.1724519;-0.29108554;-0.024062697;0.11434146;-0.0439741;-0.07930944;-0.007129762;0.1493817;0.09682088;-0.09128113;-0.09883969;-0.002559388;0.074249215;-0.16219914;0.08073742;-0.011441153;-0.0369004;0.13639921;0.030322129;0.10324948;-0.024504103;0.031370237;0.06914911;0.13990548;0.056887046;0.11153063;-0.04850863;-0.01025874;0.1732177;0.07740961;-0.03889507;0.18578692;-0.38947263;-0.061801083;-0.16609785;-0.06764544;0.026444547;0.04998271;0.1520652;0.04874184;-0.015874231;0.043186072;-0.11612781;-0.08778624;0.023114294;-0.13652235;0.0056218724;-0.1124084;0.15503712;-0.23238769;0.03162467;-0.3467968;-0.034565687;0.0466931;-0.013086033;-0.23550466;0.057084095;0.017281752;-0.066600315;0.0037275737;-0.15207681;-0.05991316;0.047751185;0.27015814;-0.04998716;-0.10476835;0.02312913;-0.07613349;-0.08497449;0.108155034;-0.11681424;0.0014978922;-0.01374564;0.0010565569;-0.07771211;-0.009632741;-0.039791252;-0.0036042326;0.03803968;0.044176843;0.116208345;-0.03721572;-0.0048483666;-0.06265878;0.06693591;0.1485667;0.0010472632;-0.04361242;0.11643342;0.1120246;-0.06639164;0.021308994;0.06844233;0.13844515;0.09135356;0.06823687;-0.06480061;0.24069007;-0.038104415;0.1580323;-0.14313376;-0.101745486;-0.024447914;0.022663161;-0.11709357;-0.07501078;0.1282276;0.12710802;-0.10957877;-0.100428894;0.08743334;-0.082182854;-0.056001555;-0.02312916;0.038956176;-0.25322196;0.019357584;0.093272924;-0.096861646;0.0108864065;0.11734091;-0.0037856668;0.18129864;-0.13184413;0.08099976;0.15385021;0.090681516;0.04798307;0.015023223;-0.19075634;-0.026524844;0.06228652;-0.026386803;-0.2990249;-0.00417859;-0.004033912;0.04024238;-0.20705324;-0.020639775;-0.19761787;0.23356366;-0.23670702;0.07852295;0.048492942;0.038654063;0.004268075;0.07494696;0.24230996;0.080491714;0.06708466;-0.102299586;0.17585431;-0.034387518;-0.004429909;-0.0392351;-0.031060522;-0.048762217;0.12445176;0.12606929;-0.124157935;0.08839201;0.13010669;0.036491524;-0.06340941;-0.055769186;-0.057775974;-0.0922896;0.088018514;-0.24537121;0.122519955;0.22575891;0.014466941;0.10725191;-0.093053706;-0.30132902;-0.12892546;-0.06364923;-0.018911196;0.056026615;0.048422877;-0.1399816;-0.022575116;-0.11359184;0.04477369;-0.021652265;0.06461235;-0.10860292;-0.124830626;-0.10147481;-0.103216104;-0.036545005;0.111571;0.13200377;0.08355649;-0.09124132;-0.015791554;-0.08379662;-0.14691935;0.059003573;-0.006709285;-0.04840837;-0.049558338;-0.015494715;0.18393487;0.049384028;0.16613363;0.02692113;-0.0022331178;0.0003942572;-0.000681669;0.19760351;-0.009999209;-0.07794615;0.09851146;0.17307691;0.13803989;-0.003685092;-0.029660346;0.051688146;0.110908486;-0.056029905;-0.025478408;0.03637898;-0.013196577;0.040691555;0.005123895;-0.029994786;0.15688293;0.1515019;-0.18019955;0.05825062;-0.016010668;-0.026375104;0.1890042;-0.011366878;0.19167227;-0.027815325;-0.14778998;0.12399865;0.20019639;-0.032839566;0.031196808;-0.005104891;0.03735651;0.09011838;0.25386345;0.10319766;-0.13871518;0.028241882;0.14249137;0.050031494;0.11747211;-0.08176699;-0.0009504058;0.0351556;0.23263034;0.06412177;0.017880296;-0.03367693;0.06884543;0.19711867;0.062493555;0.037078734;-0.026921332;-0.06555696;0.23730703;0.08825279;0.14496486;-0.037329957;0.16604105;-0.011758996;-0.13679902;0.101611875;0.02153802;-0.022013856;-0.03544292;-0.009845167;0.17081876;-0.010112197;-0.063336134;0.12716839;-0.03315799;-0.035061672;0.103668585;0.10613497;-0.13131484;0.073445454;-0.011377575;0.18113048;0.07667911;-0.24844511;0.055531;0.13366848;-0.20459396;0.06452644;0.2460361
0.027090415;0.031239923;-0.11885279;-0.10200674;-0.109330416;-0.024966253;0.0919819;-0.100769185;0.034621645;0.025733797;0.007309026;0.11805869;0.18658496;-0.01470585;-0.11016888;-0.19492716;-0.0038007179;-0.016293354;0.20285533;-0.2457014;0.053512484;0.02442218;0.08662798;-0.09069757;0.10030563;0.07035202;0.016622286;0.07047424;0.077804536;0.0331876;-0.22291848;-0.000601274;0.008424942;0.09594745;-0.014738738;-0.064982;-0.15788625;-0.09681226;0.07435876;0.013967119;-0.17135385;0.16048057;0.083178796;-0.09544399;-0.15507147;-0.10938473;0.05915225;-0.018614596;-0.002681143;-0.27363288;-0.26129615;0.051412404;0.12005475;0.02137486;-0.0050120936;0.12549984;-0.09953992;0.18847767;-0.041917842;0.07143988;0.05429958;0.0631474;-0.07507475;0.019158078;0.05462489;0.020891797;0.06781034;-0.07212106;0.0514556;-0.02466736;0.039250877;-0.045308527;0.0069604707;-0.09238338;-0.23023309;-0.15612435;0.011124775;0.18961886;-0.20966618;-0.09542698;-0.016782206;-0.3229237;0.19864076;0.19232138;0.06883588;0.15559432;0.08059765;0.036424387;-0.23036888;-0.16165708;-0.05174574;-0.054571114;0.11130489;-0.16635565;-0.03650923;-0.048475195;-0.07525923;-0.051424067;-0.13376597;0.180764;0.11134415;-0.09553051;0.25663492;0.118074246;-0.16455857;-0.27708295;0.02074698;-0.1068834;-0.09541983;0.24433206;0.057680566;-0.16505344;0.11288369;0.029189128;-0.024929844;-0.040482398;-0.034928884;-0.20356844;0.027593;-0.16349846;0.06838989;0.061840255;-0.10971821;-0.03334037;0.04229347;-0.009437303;-0.028807435;-0.19390158;0.12716796;0.09383966;-0.1443652;0.194687;0.042316247;0.16712973;-0.18052334;0.16676693;-0.051512882;0.03959688;-0.14046451;0.063044176;0.11841504;0.0667396;-0.22250304;-0.19343145;-0.13147773;0.0041802316;0.2296779;0.2506574;-0.123226166;-0.18915445;0.095817074;-0.000970625;-0.012442871;0.12706207;0.037111703;0.0155034205;-0.0056581264;-0.1634199;0.20138182;0.098011546;0.059176978;-0.05634169;0.03103103;0.058886077;-0.007608724;0.084606506;0.08180619;-0.14344682;0.0704224;0.0030900955;-0.014225435;0.09064979;0.10062037;0.15081981;-0.12614828;0.042559672;0.1448078;0.06718952;0.118885376;0.17026392;0.12775587;-0.028815683;0.03820531;-0.0019494039;0.11813094;0.101022504;-0.24986558;-0.0495386;0.046761014;-0.008819915;-0.17224678;0.1316331;0.03198345;0.15071315;-0.13954286;0.06834101;-0.0146915065;0.013023389;-0.1712575;-0.14871538;0.16885424;0.025431357;-0.1326556;-0.003344979;-0.087744415;-0.00035044402;0.10928854;-0.0014648046;0.20624399;-0.054347202;0.05227662;-0.08788123;0.11053481;0.14138944;-0.052414287;0.086078964;0.12137952;0.11785477;0.020593533;-0.0071872678;0.104514375;0.051217984;0.084471054;-0.13996856;0.05250678;-0.008261504;0.10065248;0.016943311;-0.0018784556;0.043729417;0.15870498;-0.08171177;0.045222327;0.058865927;0.10520145;-0.05794817;-0.061761998;0.1363576;0.1011246;0.036486007;0.31630445;0.018533407;-0.081405714;-0.16180316;-0.025261005;0.06327566;0.22765833;0.103592016;-0.055172015;-0.14697017;0.08728458;-0.034082398;-0.13045359;-0.031177217;0.130771;0.1031321;0.13367005;-0.046034843;-0.1333084;-0.054677065;0.22319686;0.09732493;0.060597852;-0.06599731;0.11233066;-0.020444397;-0.04017694;-0.030063631;0.048937302;-0.12451818;0.061181683;0.037080724;-0.11479732;0.2223657;0.07610054;0.08359657;-0.05145451;-0.234178;0.047438715;-0.011880836;-0.10017265;-0.22944699;-0.11742867;0.08070767;-0.12017967;-0.12837896;0.121416464;0.1077335;0.12112318;-0.044683337;0.04588269;0.13965523;-0.032885354;-0.013852104;-0.0068013277;-0.014953706;-0.10475129;0.20314826;-0.049013972;0.07159273;0.020844413;0.040203597;0.07603925;0.07088965;-0.028762793;0.20232564;0.04133575;0.07176878;0.11365428;0.13400374;-0.036494594;0.111394145;-0.24283227;0.0602373;-0.120622784;-0.013301906;-0.027041495;0.0088505745;0.08582641;0.040479004;0.092528395;0.22264312;-0.042604238;-0.17795964;0.13118564;-0.26979274;0.08713501;-0.030721523;0.28920272;-0.23183762;0.020253377;-0.22744761;-0.04568795;0.17761911;-0.05393803;-0.14037368;0.07535944;-0.03999215;-0.09366592;-0.11632038;-0.06457495;-0.07587845;0.02786647;0.28475988;-0.07764113;-0.10647739;-0.08001188;-0.024794113;-0.11689194;0.0396188;0.11058001;-0.16894247;0.049901273;-0.03607083;-0.052064534;0.016173244;0.058826834;0.14302999;0.062611885;0.032758873;-0.11178658;0.067440696;0.038548972;-0.045857545;0.015346873;-0.022403724;-0.08964018;0.013555352;-0.08629739;0.20783599;0.016320338;-0.077569105;0.009049326;0.027043235;-0.0070096143;0.1759305;-0.1388771;0.16609097;0.08572009;0.14552698;-0.21858746;0.041613515;-0.06400254;0.13510524;-0.18518242;-0.06935126;-0.038505193;0.15976702;-0.25337234;-0.14269103;0.110772654;-0.10756248;0.041242328;0.011194954;0.1063345;-0.13478166;0.11042811;0.1323163;0.04172383;-0.10386729;0.17863339;0.09887459;0.11471774;-0.13243102;0.028738435;0.061974008;0.027003264;0.0724645;-0.008761095;-0.08276754;0.006130231;0.19722545;-0.15972723;-0.24934581;0.10449744;-0.03397496;0.12260125;-0.014512409;-0.008653961;-0.027347703;-0.05280672;-0.21296053;0.042384207;-0.05022465;0.22707707;-0.107680924;0.09707206;0.3358186;0.16578878;0.023969116;-0.01412817;0.120363206;-0.16218615;-0.057245005;-0.0024201823;0.103858314;0.08549102;-0.017765269;-0.011475656;-0.09396297;-4.316533e-05;0.13201296;-0.098521516;-0.106567845;0.004585799;0.064663954;-0.13084617;-0.0006732553;-0.16491678;0.30199054;0.13580306;-0.20629618;0.22265266;0.012031223;-0.27342245;-0.18937844;0.046936784;-0.06521397;0.077958316;-0.114325434;-0.0460408;-0.17235856;-0.134206;-0.06751731;0.055961937;0.03845186;-0.16007121;-0.10618492;0.062112957;-0.096947335;-0.027761096;-0.039559953;0.07361465;-0.03761381;-0.01681963;0.05494984;-0.19038522;-0.06619097;-0.002836956;-0.015110783;-0.1795211;-0.052837297;-0.053484432;0.027016329;0.039189048;0.15179846;0.007965832;-0.09495863;-0.011561606;-0.04431721;0.07680686;0.11224264;-0.005442288;0.21492924;0.09652043;-0.0065030563;-0.005746549;0.002710676;0.14113003;0.0770909;-0.12730385;-0.012832299;0.09559191;0.07139531;0.03217386;0.11148713;-0.08964687;0.1596366;0.31083024;-0.16441388;0.08858081;-0.13020684;0.11813927;0.043575726;-0.009303435;0.1211295;0.117033735;0.042430103;0.14325488;0.20761871;0.040130813;0.09818419;0.030747281;-0.11395877;-0.029471587;0.025963284;-0.1249523;-0.17146288;-0.027299799;-0.017027272;-0.017438814;0.08684324;0.099251054;0.13723236;-0.077692725;0.14889616;0.12629758;-0.1513495;0.04512255;-0.096457414;0.18452805;-0.028109295;0.14914025;-0.04219006;-0.06662467;0.08445619;0.015640363;0.047439355;0.0351216;0.10826238;0.1097433;-0.07691688;-0.11718847;-0.022882927;-0.10544454;-0.114631414;0.054011352;0.15576872;0.06872233;-0.13126825;-0.07538259;-0.03422018;-0.13802844;0.023492837;0.1370321;0.04594933;0.10704353;0.03286676;0.17265056;0.067096874;-0.20244831;0.07914668;0.07540545;-0.19319475;0.14009629;-0.020897806
0.05401833;0.10640665;-0.2558131;0.04614392;-0.047026046;0.0738567;-0.053063728;0.13407554;0.13894175;-0.022659177;0.10581988;0.12190495;-0.03655886;0.078462854;0.047477648;-0.1804301;0.017854584;-0.081323214;0.23899777;-0.10088528;-0.0529085;-0.013068702;0.15916507;-0.038878575;0.060953327;0.012880875;0.08765481;0.15480599;-0.01353459;0.08422379;-0.08641686;-0.029995961;-0.048881687;-0.052447315;-0.1916279;-0.05139236;-0.046496153;-0.15105624;0.20411624;0.026935749;0.036252793;0.036586195;0.2571161;-0.14704166;0.053870417;0.03776473;0.04088878;0.11644441;-0.10493495;-0.12963478;-0.0675518;-0.14837748;0.31058085;0.051997654;-0.09850465;0.025148207;-0.13397466;0.26166907;-0.017514622;0.0122920545;0.096504845;-0.09123281;-0.031816963;0.029898092;0.005023308;0.100599416;0.05364588;0.034877043;0.11061972;0.13885292;-0.060501236;-0.09409632;-0.051515874;-0.09827303;-0.1487611;-0.1535409;0.027973967;0.0017198736;-0.11707935;0.07759256;0.027448202;-0.17950118;0.17112249;0.08061318;-0.1416859;0.050977796;0.047333375;-0.017220067;-0.13261677;-0.0027419;-0.008519639;-0.008080152;-0.025036855;-0.012825852;0.06972479;-0.09203977;-0.068023585;-0.08704345;-0.17160028;0.13182116;0.072983734;0.07156967;-0.0020106253;-0.1558416;-0.08880479;-0.08981561;-0.199589;-0.05831685;-0.028472587;0.15631236;0.08277963;-0.08560663;-0.015488748;0.06704959;0.014250345;-0.0425407;-0.080444075;-0.24488162;-0.05464744;-0.110197514;0.030096032;0.16545625;-0.12439572;-0.08265969;0.031959422;0.075212955;0.061213087;-0.06885637;-0.06992777;-0.060925666;-0.027539836;0.07620062;-0.014693631;-0.024239717;0.03116948;0.0029861317;-0.18251619;0.024922494;-0.037659388;0.040322278;-0.06044968;-0.06671848;-0.14891681;-0.032545835;-0.12870538;0.06808968;0.031059848;0.24814753;-0.2056037;-0.21372044;0.076649696;0.020885805;0.012595741;0.16818054;-0.12931833;0.061113942;0.15676835;-0.24335207;0.19026412;0.13582042;0.07567672;-0.020138044;0.06330428;-0.011957894;-0.069139466;0.08666705;-0.12099806;-0.0933119;-0.022716135;0.08122923;0.107835695;0.041568562;0.018156689;0.10019149;-0.056803323;0.07969999;0.079197116;0.11080509;0.078928396;0.034365706;0.0029435838;-0.031127091;0.021946158;0.015454777;0.23294106;-0.021125518;-0.040954422;-0.111210324;-0.18282034;-0.06663501;0.09589468;0.026026241;-0.014500178;0.008171167;0.111983255;0.09408864;0.08596171;0.10636923;-0.100659974;-0.09571625;0.17892426;0.04907816;-0.25956103;0.010783207;-0.060419943;0.030482441;0.11480758;0.056311574;0.16596566;-0.08420517;0.19817662;-0.14103344;0.06698051;0.15702645;0.07542549;0.012480782;0.079371944;0.05214816;-0.092172675;0.10625462;0.05624022;0.066327624;-0.0851967;-0.041743945;-0.04026168;0.09418833;0.01267767;-0.057192244;0.15386118;-0.023520708;0.046637014;-0.04576595;0.16171879;-0.010213684;-0.011597615;0.021830339;-0.10517586;-0.11455436;0.17541908;0.057342347;0.18273585;0.14936078;-0.07730074;-0.10278102;-0.0014249266;0.12813988;0.065835744;0.10479996;0.07999031;-0.028956605;0.13343313;-0.01716356;0.047995415;-0.097687595;-0.056436133;-0.124375835;0.08937548;-0.063811235;-0.14875245;-0.19279744;0.0709434;0.1842342;0.11172133;-0.11672366;0.12907;0.045869764;-0.061733313;-0.031900816;0.10115934;-0.1319484;0.056507133;0.12220287;0.038482077;0.13227405;0.031832658;0.04241564;-0.058805723;-0.34201247;0.09947735;0.06393064;0.034580477;-0.14203903;0.039507095;-0.0034433585;-0.055342115;0.07329304;0.09885861;0.10727087;0.103740655;-0.08283338;-0.054236744;0.06381933;0.14833975;-0.18607031;0.08744275;0.0067754835;-0.08762227;0.19083613;0.00799364;0.06941492;-0.033703372;-0.13573697;0.055229463;-0.06451812;-0.07162983;0.07940594;0.07271639;-0.034212857;0.08771981;0.0865183;-0.121794105;0.025174173;-0.2797063;-0.01783866;-0.008100204;-0.03870215;-0.06855095;0.09026214;0.036498573;0.1299026;0.076118626;0.19638431;-0.11717707;-0.17763045;0.09401999;-0.023542395;-0.06402247;0.061412934;0.09043186;-0.11469086;-0.13809058;-0.18675424;-0.10327808;0.21480317;0.09464024;-0.12682194;-0.12630141;0.23071902;-0.0321845;-0.06297762;-0.13781476;0.06099057;0.08920325;0.22206044;-0.024269503;-0.14436649;0.02658909;-0.007200882;-0.028867655;0.020047659;0.11391801;-0.06373776;0.17390247;-0.0710415;-0.20031543;-0.0071491245;0.018309087;0.072834104;-0.02428135;-0.035305347;-0.19482157;0.17278838;-0.1462621;-0.15774994;0.031140685;0.0007312147;-0.028598353;0.21667637;0.1760183;0.0031802838;-0.016972033;-0.054457743;0.08179164;0.021082161;0.07877237;0.08832274;-0.01565048;0.07764862;0.006694243;0.11586415;-0.22743875;-0.09342314;-0.022077432;0.052949782;-0.02399975;-0.14263792;0.028882155;-0.005645979;-0.12679262;-0.19157031;0.08829382;0.0027611544;0.02907059;-0.05138219;-0.10745834;-0.22142239;-0.0029047704;0.21204877;-0.11678964;0.034084525;0.14747864;-0.062438168;-0.009783572;-0.10602455;0.16882356;0.12397446;0.044613503;0.0113677;-0.05694383;-0.037998132;-0.14176029;-0.091340736;-0.19852163;-0.17186527;0.04127788;-0.006533742;0.08160321;0.08764422;0.085708335;-0.13979417;0.12696274;-0.27372798;0.013445704;-0.09289911;0.12339156;-0.075385295;0.02631585;0.10703823;-0.07472801;-0.033421837;-0.052905735;0.09620216;0.009700724;-0.05288294;0.0011258649;0.15074934;0.05822841;0.08909565;0.18878832;-0.19923766;0.015302223;-0.050052736;0.07203856;-0.054538228;0.051447492;-0.13254578;-0.1546483;0.010598021;-0.16075939;0.0034793105;0.07194522;-0.090430826;0.15234837;0.016517574;-0.21354552;-0.12681529;-0.021131806;-0.03900215;0.072492234;0.08494135;-0.012553467;-0.22907935;-0.07303839;-0.06819807;0.071286865;0.06498443;-0.09185016;-0.09470476;-0.042430032;-0.021629779;-0.052613005;-0.19008707;0.14897728;0.14800613;-0.038043976;0.09390391;-0.18040608;-0.15532537;0.008252986;-0.08204099;-0.032190684;0.04743358;-0.12420221;0.10571494;-0.004015617;0.036092836;0.01743109;-0.060638607;-0.04717484;-0.056943007;-0.008703092;0.03517587;-0.121928856;0.14408189;0.27574268;0.017768225;-0.111316524;0.1424328;0.05564784;0.019352725;-0.04667068;0.043644097;0.07544897;0.11853596;-0.060109217;-0.01358668;0.0038148547;0.24597102;0.14180197;0.05593327;0.12848659;-0.18932918;0.058604836;0.025521856;-0.09834456;0.048229676;-0.042898312;0.010729214;0.1600552;0.14144552;0.061167162;0.27287358;0.061778467;0.05871307;0.07569175;0.18093501;0.12300839;-0.102884844;-0.08230825;0.021021098;0.054486144;0.005561003;0.15222912;0.026137607;0.06077555;0.15227704;0.10392153;-0.13306159;-0.0116325645;-0.17584084;0.19089933;0.020296292;0.08577438;-0.050277803;-0.14035717;0.03041412;0.12754487;0.09816161;0.07017697;-0.017696615;0.12312289;-0.06389772;-0.1568692;0.024587603;0.14815433;-0.1697085;0.071798466;0.14807528;0.013596119;0.036123417;0.09989594;-0.09242765;-0.10886044;0.124113664;0.10275635;0.0075239516;0.05226968;0.10835467;0.14814539;0.10882549;-0.18420006;0.23664536;-0.013950271;0.07787881;0.031917233;0.026597481
0.08085478;0.16932526;-0.0035392693;0.084806085;-0.09834673;0.11827567;-0.0021594558;0.028345123;0.07388811;0.07128661;0.25981373;0.12303562;-0.07788679;0.06385712;-0.0022016324;-0.22627588;0.034351278;-0.015799908;0.13244705;-0.20963499;-0.09598561;-0.1328559;0.09260744;-0.031009946;-0.038516194;0.024691572;-0.16159041;0.11525557;0.10672037;0.013740231;-0.05053612;0.06628891;-0.058132146;-0.12863018;-0.18851309;0.13113631;-0.14522134;0.05306592;-0.0250547;-0.03540351;0.05868736;-0.008751337;0.1265956;0.035387706;0.114677876;0.019003088;0.098708384;0.15364328;-0.03625816;-0.22931604;-0.28948298;-0.0925199;0.34266248;0.17455728;-0.08265866;0.061320975;0.021571897;0.26706097;-0.013349475;-0.08946148;0.13120086;0.17431052;-0.053935513;-0.045203425;0.0067509036;0.19479175;0.053846575;0.024254039;0.095710896;0.09177167;-0.03672511;-0.03773994;-0.033258807;0.02919239;-0.13053112;-0.23037419;-0.017402923;0.26692224;0.016030135;0.09384529;-0.15858106;-0.122443885;0.025444796;0.08197378;-0.071261756;0.12644677;0.086657085;-0.22662485;-0.19327664;0.011842122;0.01733395;0.17741677;-0.08793169;-0.14567211;0.22360538;-0.012319449;-0.038941093;-0.11507369;-0.108527996;0.14553866;0.050907418;0.12844764;0.01577702;-0.16904953;0.05297942;-0.1644602;-0.05440959;-0.11749918;-0.17782973;0.036521073;0.006890656;-0.12434587;0.050082833;0.0909932;0.010852453;-0.13467948;0.010425328;-0.01223476;0.06508392;-0.2634027;0.09884394;0.18863837;-0.0130518945;-0.02974736;-0.0347782;0.18549198;0.09355467;-0.08058185;-0.122092694;-0.05340954;0.00231483;0.0020745504;-0.019200005;-0.06864886;-0.028755846;-0.13173443;-0.11533571;-0.06621322;-0.16948722;-0.024987806;0.14576985;-0.055623144;-0.22753188;0.06848383;0.04956449;0.044039685;0.0137850875;0.23355995;-0.040565398;-0.09024966;0.15466699;0.026760262;0.13578798;0.096715294;-0.20419776;-0.15078472;0.08429793;-0.25465488;0.24102725;0.061969522;0.12170327;-0.09696316;-0.021647878;-0.0502953;0.10797775;0.0987022;-0.19783215;-0.007074324;-0.054170795;-0.014610859;0.04990963;0.0040880344;-0.07812065;0.1436398;-0.17160611;-0.06053497;0.14458315;0.160478;-0.022580449;-0.03640281;0.097240254;-0.08765018;-0.14731595;-0.0071978522;0.12496235;-0.0037139112;-0.077457435;-0.0085543245;-0.08831112;-0.11914027;0.023199895;-0.13486996;-0.026835576;0.11927806;-0.048907835;0.25160357;-0.05913655;0.09611676;0.0030621288;0.0061788815;0.21686606;-0.045507703;-0.041300897;0.005227863;0.10391145;0.03421746;0.036636848;0.102891594;0.08863234;-0.13470279;0.09850505;-0.19308594;0.14389126;0.122826904;0.05877449;0.06923721;0.094774;0.09904098;0.06749406;0.16002534;-0.00698158;0.055477526;-0.05801458;-0.04627137;-0.062350824;0.0040462306;0.10894334;0.02233349;0.08540986;0.03353651;0.10976851;0.0139480885;0.06291229;0.10695094;0.011919932;-0.12852031;0.010559058;0.05332344;0.079190314;0.10583881;0.047811396;0.062979914;-0.11318824;0.02575933;-0.05773621;0.05454741;0.09204737;-0.0054918593;-0.049128402;-0.06723602;-0.068208344;-0.06349675;0.0028477008;-0.11527664;0.07053151;-0.2179466;0.08045535;-0.08069056;-0.14740768;-0.22581609;0.07910274;0.07434668;0.071183376;0.027769554;0.030068394;-0.09507931;0.09296402;-0.14834473;0.021175733;-0.16324025;0.14496085;0.085809544;-0.041854;0.13211645;0.17915569;-0.15979497;-0.0041799755;-0.16083124;0.057259575;-0.0227673;-0.038991205;-0.21205908;0.17470421;-0.14506215;-0.1453257;-0.041505896;0.099209286;0.08728322;-0.018711869;-0.13808669;0.03141255;-0.09163615;0.16831715;-0.065224715;0.07182116;-0.048238177;-0.039886393;0.23030104;-0.010010148;-0.0667862;-0.005884477;0.06550929;0.16313997;0.026833108;0.18073778;0.1980153;-0.046790287;-0.03204182;-0.057831313;0.1121834;-0.08981699;0.14145099;-0.27924192;-0.09736869;-0.06593206;0.17341228;-0.1454759;0.17382021;0.106136255;0.07237409;0.00321697;0.061568134;-0.14306097;-0.016978182;0.105243586;-0.0062290886;0.098158784;0.041209362;-0.045444593;0.00028367306;-0.011737084;-0.20857494;-0.06755661;0.11328896;0.17695907;-0.14457834;-0.15161772;0.21655942;-0.06095563;-0.041296516;0.012283327;0.044675015;0.09396231;0.1327258;0.10014525;-0.030250192;-0.12728709;0.009950683;-0.15061316;0.016233172;0.13904516;-0.13318767;0.06054611;-0.059605904;-0.08871391;-0.08248;0.13344818;0.053688172;-0.03704444;-0.12218158;-0.104597785;0.06805767;0.028475005;-0.18634604;0.09298261;0.08339056;-0.16373374;-0.008359584;0.12766707;-0.04127399;-0.10683391;-0.009597984;0.063759774;-0.09469589;0.17313093;-0.06950703;0.010249985;0.13670903;-0.017917393;0.10065602;-0.100747384;-0.04659102;0.08849899;0.06451706;-0.02168742;-0.072716795;-0.05722165;0.053470444;-0.084328495;-0.10491619;0.13175769;0.025660204;-0.013484933;0.0072747874;-0.10566288;-0.19743773;0.09459432;0.24440537;-0.05841642;-0.008767753;0.11533925;0.10935037;-0.059410557;-0.027180247;0.28322205;0.17517053;0.12199228;-0.13198611;-0.018322881;-0.06347342;0.021143284;-0.08421731;-0.081305824;-0.05344298;0.060817234;-0.053836424;0.068212084;0.3177433;-0.029854326;-0.13827786;0.14527182;-0.043743793;-0.011745231;-0.14153644;-0.026091678;-0.060772765;-0.0066026184;0.033309974;-0.045393266;-0.031837706;-0.028801044;-0.112050034;-0.14748088;-0.19743508;0.030356452;-0.054672413;-0.026144221;0.02156697;0.17472744;-0.07261193;0.0021567515;-0.1723107;-0.012793573;0.08114305;-0.07696256;-0.07080017;-0.14247608;0.10973314;-0.07349038;-0.03514657;0.021328423;0.024431812;0.124027066;-0.02714698;-0.19278477;-0.15033759;-0.12387377;0.087609045;-0.041901942;0.009182122;0.06670969;-0.2131321;-0.17055306;-0.019003721;0.22615585;0.07411297;-0.20602469;-0.16749802;-0.16945082;-0.078661636;0.05296539;-0.12182494;-0.18802892;0.03320918;-0.016268222;0.13988435;-0.29511067;-0.095933296;-0.0353187;-0.053868193;0.037069462;-0.04315767;-0.087389156;-0.10781374;0.15736267;0.12918855;-0.058077816;-0.0656801;-0.05979336;-0.03794719;-0.07567207;0.13987064;-0.07119358;-0.15221596;0.29041946;-0.0038686632;-0.09248608;0.12113206;-0.0110701155;0.036116634;0.07137959;0.051704183;0.08246475;0.023970166;0.027257742;-0.056961413;-0.14940901;0.234358;0.08892638;0.058593705;-0.06516999;-0.14591993;0.088491425;0.028669555;-0.05455132;0.06433157;0.054588124;0.090954505;0.07835847;0.09211615;0.14109208;0.046569042;0.24989814;-0.020473607;0.14982656;0.08094363;0.036030404;-0.019101782;-0.0020385133;-0.019804578;-0.02575519;-0.04182848;0.11894368;-0.09096199;0.026586773;-0.006670319;0.12994742;0.004607953;0.010401413;-0.28119215;0.07612216;-0.071613245;0.009849088;0.20428708;0.0566707;0.12841865;0.05452784;-0.11959867;-0.038561784;0.021843942;0.042757917;0.09756811;0.039850682;0.12026541;0.048921764;-0.11266074;0.097146995;0.12716572;0.10782068;0.13320242;0.014641173;0.079776935;0.11752452;0.1501369;-0.0112125315;0.0031963268;0.14396292;0.13763463;0.031637672;0.13303973;0.046641547;0.23680946;0.025206055;0.047828864;-0.008242193;-0.09484505
-0.026058504;-0.026446534;-0.025154976;-0.05809436;-0.1446813;0.15106294;0.08711475;0.12003325;0.14332199;0.04675346;0.22633073;0.19577102;0.019514956;-0.07743095;0.052476;-0.11478554;-0.13466272;0.036694776;0.05002078;-0.28834152;-0.07106888;-0.042371884;-0.031025305;-0.118036136;-0.08792667;0.17548236;0.050403424;0.14048024;0.057413828;0.018248841;-0.01726438;-0.040032446;0.05894158;-0.026346538;0.058889546;0.024303425;-0.10151354;-0.11751582;0.22006536;-0.024120055;0.007007834;0.068009466;0.06308037;0.015295527;0.048434135;0.10713224;0.11098248;0.17134108;-0.15101038;-0.077399015;-0.28077903;0.015140056;0.17124654;0.13372576;-0.020887462;0.19275273;-0.1527211;0.26290414;-0.14808118;-0.08506637;0.08188017;0.15933041;-0.082708426;-0.09939424;-0.07846969;0.053791363;0.18356661;0.2279157;0.041516628;0.2246058;-0.06254173;-0.09332987;-0.033581212;-0.03702764;-0.17431474;-0.1355417;0.078237586;0.29480934;0.11060803;-0.0016198738;-0.04629456;-0.03513326;0.049748093;0.15075707;-0.030669646;0.2301971;-0.0015342411;-0.021661747;-0.122021675;-0.049176127;-0.09642571;0.089734994;-0.014347532;-0.15459216;-0.08442928;0.153472;-0.16755512;-0.15739994;-0.20039636;0.05765243;0.0046847085;0.019522345;0.13218263;-0.16640009;0.01377394;-0.21907318;-0.080752745;-0.13309726;-0.20141774;-0.07636818;-0.04578607;-0.031011274;0.14079742;-0.020137573;0.08248;-0.10912794;0.03408339;-0.21428812;0.18207607;-0.20113586;0.1575081;0.1953112;0.08411732;0.013350866;0.05535957;-0.042594258;-0.12755959;-0.1732687;0.124293864;-0.011353469;-0.22207482;-0.033497415;0.045078676;0.07036101;0.03543871;0.11915958;-0.082503475;-0.11289045;-0.06268125;-0.042652924;0.17307018;0.11966686;-0.17297228;-0.069698535;-0.11911971;-0.049875043;0.071649544;-0.053190477;-0.12365483;-0.13270894;0.11461401;-0.046140738;-0.016235424;0.12887007;-0.09452176;-0.021495866;-0.022076802;-0.2239584;0.32090282;-0.024566142;0.053925972;-0.29824528;0.100209735;-0.053098965;-0.0969773;0.13924274;-0.12134169;0.10098721;-0.04991647;-0.08470089;0.11747624;0.05009398;0.020331455;0.05778271;0.081982024;0.04990429;0.10001962;0.025316374;0.03886503;-0.009777629;0.10947623;-0.072924644;0.12647888;0.10086062;0.2562544;0.094053574;-0.151308;-0.16555196;-0.09838377;-0.10526088;-0.004468594;-0.07848899;0.019965794;0.1167377;0.009293494;0.04077209;0.12958284;0.1379497;-0.009532307;-0.11915506;0.24179204;-0.05315352;-0.11478044;-0.10378402;0.022923158;0.11551555;0.07960651;0.10791664;0.031120481;-0.011116236;0.046222273;-0.0058473027;0.053639214;-0.043171596;0.0009536033;0.056401223;0.13027804;0.17129919;0.060140256;-0.07376667;0.05288099;0.1478798;-0.05157984;-0.14468536;0.023787815;0.036234323;0.032227937;0.052956745;0.079170235;0.0717257;0.03780798;-0.0093695875;0.24094054;0.10302975;0.18393601;-0.15989782;-0.12599066;-0.0014600813;0.105879985;-0.045472305;0.2316251;-0.043446735;-0.048651148;-0.034783386;0.03554448;0.03729073;0.08306828;-0.21690035;-0.02182815;-0.20059729;0.07537292;-0.24026383;-0.08384175;-0.04065313;0.1785885;-0.22038363;0.019898517;-0.07064926;0.0011098855;-0.2078004;0.10726116;0.06841747;0.27715418;0.07772183;0.029094046;0.13861232;-0.05019887;0.081064045;-0.009477895;0.009684844;-0.030969884;0.10374179;-0.08167427;0.11261383;0.08381652;-0.099112794;-0.120050944;-0.1827471;0.0043939585;-0.19856673;0.09083196;-0.22093554;0.14276898;0.067646705;0.013597062;0.041381378;0.11228384;0.088544846;0.06561147;0.1978903;0.013153954;0.087853014;0.07596737;-0.1588875;0.06032821;0.063077144;-0.035463;0.15216622;0.18522409;-0.14499415;0.052978195;-0.06726776;0.16579679;0.12995893;0.011703516;0.057677038;-0.039124273;0.061407574;0.11462468;0.10667277;-0.1696803;0.21848036;-0.16565837;-0.2845137;-0.0005018881;-0.06293949;-0.16379449;0.05289532;0.05739222;0.23346959;-0.008726397;0.24541979;-0.067209;-0.25706983;0.20055333;-0.08057429;-0.1045859;0.10468678;0.15238427;0.026463443;-0.08535757;-0.37522;-0.020313518;0.13051951;0.05081312;-0.047534812;-0.033072848;0.08608524;0.08507315;0.031124683;-0.053194053;-0.014422725;-0.0321666;0.26000184;0.11299197;0.11862417;-0.021772921;0.018538201;0.077968545;-0.09143574;0.15678516;-0.13068901;-0.06827484;0.04030835;-0.15757261;-0.17797421;0.058994573;0.044911988;0.22683635;-0.081115305;-0.096414454;0.16940276;-0.06135811;-0.15161034;-0.11594914;-0.013737242;-0.03542652;0.051777564;0.26264414;0.008738783;0.0504157;0.14855492;0.10312696;-0.12077614;-0.013376865;0.12289162;-0.1202623;0.13402723;0.10160729;0.06603463;-0.08640273;-0.08916201;0.033654105;0.08541542;0.10638875;-0.06622037;0.0024996514;-0.003257554;-0.13725942;-0.02194121;0.040419776;-0.003449774;0.06248411;-0.08518838;-0.078393094;-0.2754283;0.072512574;0.13040186;0.038013022;-0.08627232;0.058315117;-0.077664055;0.03536073;-0.007846299;0.2077627;0.13271801;0.1328524;0.07061386;-0.06604336;-0.18338701;0.19086099;-0.008909943;0.0001897378;-0.09890578;0.15620221;-0.010660091;0.05845484;0.14490332;0.06317641;-0.12686874;-0.0040082578;-0.21077722;-0.011983919;-0.054466277;0.12735182;0.089939125;-0.0050517283;0.2655221;-0.15691867;-0.039527595;0.09574906;-0.12420155;-0.20493218;-0.05603023;0.11300788;0.17736676;0.08534711;-0.007047563;0.097138464;-0.20388044;0.12247269;0.00042189765;-0.005226616;0.038867548;0.033741783;-0.032541856;-0.21562251;0.054325037;-0.18507488;-0.051574904;-0.13158162;-0.080596514;0.36022216;0.02913377;-0.07630468;-0.20628057;-0.00073069485;0.037287965;-0.12231342;0.11830005;0.024102526;-0.15619372;0.10237784;-0.032362405;0.06612043;-0.05136076;-0.023626145;-0.2519986;-0.18636902;0.08831775;-0.042648654;-0.07461284;-0.16445127;0.070387244;-0.030655699;0.27685422;-0.22307476;-0.03508924;-0.09311326;-0.023721928;-0.20515487;-0.082355686;-0.2347375;0.1292813;0.14397466;0.099862166;-0.14494349;0.04914669;0.0903279;-0.06491377;-0.038708903;0.0737341;-0.10119359;0.1736447;0.1609657;-0.011555436;-0.030272167;0.21214674;0.10350811;-0.0055038994;-0.100736625;0.22389954;0.07452407;0.21366394;-0.035686113;0.028827712;0.024370266;0.14665726;0.15250751;0.07525229;-0.041609816;-0.17772503;0.09445062;-0.09039962;-0.09930917;0.15615441;0.13946524;-0.072130516;0.062689684;0.007223809;-0.030691333;0.033887558;-0.04281622;0.009521569;0.1119057;0.019129578;-0.078254156;-0.06808958;-0.06312774;-0.09180409;0.025191724;-0.13575721;0.0901491;-0.0055608945;0.072393976;0.11541737;0.0026435826;0.019797266;0.07408579;-0.05986471;0.13575795;-0.12083451;0.12828104;-0.2126165;0.05637565;0.040612843;-0.048633352;-0.11483377;-0.056775264;0.021772726;-0.075453654;0.058752466;-0.16186897;0.0062934407;0.23915875;-0.2595874;-0.011684192;0.122217216;0.13392466;-0.08459556;0.1414104;0.0050902236;-0.10905402;-0.035039447;0.17448865;-0.05218374;0.010909725;0.114763446;0.21370566;0.19411421;-0.08564028;0.1545484;0.0152147245;0.036253817;0.12370749;-0.060752675
0.03280079;0.1412254;0.0704127;-0.08112764;0.05772143;0.050555423;0.10416474;0.16789784;-0.021194179;0.17397164;0.14358273;0.084714614;0.043282304;-0.047126345;0.07786164;-0.24545637;-0.05389039;0.016981354;-0.03537065;-0.09734992;-0.17417157;-0.05831344;-0.04597846;0.07289285;0.010806708;0.048629098;-0.01114239;0.12462926;-0.045059208;0.021296844;0.058470912;-0.09602084;-0.049267817;-0.17941459;0.086030476;0.044624507;-0.13509905;-0.06858928;-0.0067133512;-0.012063956;0.030524468;0.011154364;-0.058126245;0.007486382;0.06257674;0.20070262;0.05498722;0.08325008;-0.034857865;-0.16511485;-0.16962402;0.10864417;0.26168856;0.1303251;0.12141065;0.06910615;0.046512026;0.1942625;0.08141042;-0.06455002;0.10392742;0.050548397;-0.1785491;-0.17221211;-0.014345389;0.15041898;0.14646721;0.117436774;0.12367307;-0.019508218;-0.11307362;0.02333243;0.1747295;-0.08047307;-0.08380529;-0.08797598;0.10222002;0.21021219;0.039646942;-0.15445474;-0.13576965;-0.09977715;0.014986759;0.17540176;0.013534349;0.17397802;-0.0032547994;-0.2645884;-0.17122427;-0.17014113;-0.12301512;-0.0020908099;-0.2000907;-0.121981815;0.20653172;0.073610656;-0.119134635;-0.11247485;0.07063855;0.16279735;-0.043876406;0.22961809;0.24807231;-0.20719805;-0.11422864;-0.23480196;-0.04000912;-0.08710332;-0.17238232;-0.19822122;0.032905158;0.05184708;-0.038224936;-0.11755553;0.1731034;-0.11376059;0.120950535;-0.042560283;0.147872;-0.23947695;0.0741715;0.12325429;0.003851464;0.11630362;0.01792379;0.17848788;0.01758378;-0.003984844;-0.10136645;-0.009021069;-0.107684076;-0.024014793;0.02281558;0.07989183;-0.029667838;0.002262569;-0.1068056;0.07284198;-0.19515331;-0.14791544;0.12993953;0.035599444;-0.14739898;0.08759293;-0.13047995;-0.086836845;-0.036879912;0.18346903;0.09682426;-0.2240625;0.2240363;-0.14850493;0.18189962;0.25284478;-0.11393341;-0.14388059;-0.07232577;-0.21812913;0.26312727;0.017788248;0.09711622;-0.08664081;0.073617145;-0.09217061;-0.019284187;0.2529923;-0.27486008;-0.13104317;-0.18907188;-0.0853547;-0.050151806;0.09097101;-0.019832129;0.08559198;-0.020558765;-0.15993586;0.069235794;0.018883388;0.099928774;0.08223403;0.008307645;-0.13920225;0.050763544;-0.07853181;0.15607363;-0.070724435;-0.039723296;-0.06542905;-0.14271313;-0.13585486;-0.04486249;0.0014110599;0.16782615;0.1296639;0.033184838;0.099527895;-0.008604155;0.13812162;-0.048528284;0.007251968;0.012649571;-0.07348034;-0.10322654;-0.10892512;0.15940915;0.13795145;0.073476106;0.13810156;-0.28784436;0.120659284;0.16016689;-0.036701094;0.16656941;-0.07733807;0.052793372;0.018616218;0.12556942;0.0034652753;0.20302735;-0.022489496;-0.06623661;-0.008659358;0.0874807;-0.062285583;-0.009849362;-0.20285076;0.22006017;0.07973345;0.03733599;-0.112060115;0.10562578;-0.12784123;0.13690025;0.15261643;0.027521707;0.109326;0.033933844;0.06252451;-0.03523179;0.12613305;-0.073986776;-0.039147943;-0.20078127;0.014067148;-0.022454845;-0.018911427;0.07302258;-0.021421304;-0.32170364;-0.12085642;-0.0658856;0.009760568;-0.052856818;-0.13003659;-0.0053504957;-0.12496738;-0.06970892;-0.15582225;-0.09080741;-0.101831965;0.058927793;0.03180226;0.16075708;-0.043996546;0.07353205;0.15302518;-0.105972506;-0.17501797;0.17028041;0.012434561;0.08078683;-0.008601429;-0.066738136;0.12495853;0.10439094;0.10314543;0.06359985;-0.03663872;-0.04191395;0.0328945;-0.07857727;-0.34040093;0.058875788;0.029990831;-0.07031281;0.18997371;0.02821065;0.16611493;-0.00934209;0.11874992;-0.1303591;-0.018663287;0.15392043;-0.17088123;-0.04199391;0.10162217;-0.062502444;0.029761797;0.073777735;-0.19008264;-0.02195316;-0.03139274;0.08251597;0.21804334;0.06423317;0.019884696;-0.22435983;-0.059554093;0.25563517;0.03829672;-0.28857598;0.089411505;-0.30542728;-0.21061228;-0.07036729;0.0014475764;-0.08180028;0.065664254;0.16843347;0.0020044695;-0.003913067;0.008574899;0.058491163;-0.18874678;-0.06905903;-0.057805117;0.020865424;-0.025129028;0.08359284;0.09827192;0.03291265;-0.31187066;-0.016139159;-0.011315335;0.05279142;0.07017547;0.11886275;0.25191274;-0.20915136;0.07443035;-0.12220619;0.014394934;0.10910078;0.13713773;-0.0041268137;0.0454162;-0.10755675;0.05206287;-0.05056461;-0.06429948;0.23474665;-0.06165143;-0.086419985;-0.14794087;0.09339878;-0.053344894;-0.075137645;0.061899684;0.1538789;-0.050786514;-0.1663644;0.0379716;0.124298714;-0.0145529285;0.15398987;0.010181702;-0.13210514;-0.10052061;0.25341052;-0.08870591;-0.014662226;0.11608074;0.14798552;-0.25210893;0.07559734;-0.026582515;-0.031962786;0.046822045;-0.103913754;0.19004712;-0.05478975;0.058716156;0.047001068;0.10401927;0.075769216;-0.12584428;0.14627384;-0.07816372;-0.07816255;-0.086171955;0.17217933;-0.084157966;-0.088938646;-0.107973814;0.0580888;-0.15175;0.13896197;0.12287788;-0.021812456;0.09921325;0.16758735;0.059976503;-0.23463756;7.185479e-05;0.2289388;0.18199646;0.2282904;-0.033531345;-0.007051691;-0.13405721;0.13722174;-0.23956162;0.042889744;-0.16996118;0.1865728;0.07456557;-0.15872248;0.2253733;0.04352279;0.080050096;0.08865167;-0.07812233;-0.27330056;-0.003761299;0.0016163983;0.11409887;0.08853569;0.15147091;-0.22660807;0.1509667;0.29663563;-0.22020636;-0.2864628;0.0009947644;0.08689596;0.01509524;-0.019531773;0.06387804;0.044917107;-0.10816717;0.14144877;-0.18616961;0.01261923;-0.117362306;-0.14203236;0.08903124;-0.11414082;0.1573022;-0.027831681;0.037104502;0.04928926;-0.09630028;0.11370883;0.20824546;-0.051830508;-0.1535737;-0.32062018;0.051100746;0.09237116;0.0769955;-0.038338345;-0.12921134;-0.18218224;-0.027193947;0.22993709;0.0064983037;-0.11157161;-0.115905985;-0.096198596;0.23360997;0.16213009;-0.05826165;-0.109861426;0.092498526;-0.090981215;0.14895509;-0.09788419;-0.061756905;-0.093803965;0.08897395;4.6978977e-05;-0.04875171;-0.102577776;0.035183657;0.15102084;0.077270955;-0.037739668;-0.11384961;0.017480105;0.036905114;-0.1046282;0.19267999;0.011904538;-0.01707004;0.28329313;-0.011931332;-0.04159074;0.10434819;0.18888897;-0.08333886;0.02756996;0.03698855;0.106886655;0.2437274;0.0103563;0.12942357;0.046876073;0.20842147;-0.049973067;-0.082444884;-0.11623101;-0.16474152;0.13411702;-0.013679274;-0.09093237;0.20190881;0.19714433;0.03099611;0.08148515;0.12226137;-0.020009683;0.104062594;0.042610824;0.02023194;0.0017762427;0.19349378;0.15248749;0.0024899882;0.031144917;-0.015458997;0.14622897;-0.2064099;0.06577084;0.06504552;-0.087158635;0.09527204;-0.11311819;0.06588103;-0.048021104;-0.2325834;0.13123687;-0.07998971;-0.10065771;0.04409519;-0.16350129;0.048545618;0.07328341;0.1253387;-0.097019814;0.13498063;-0.18986437;-0.0067357705;-0.067315795;0.18827921;-0.022494506;-0.20699196;-0.13618152;0.13350318;0.12596564;0.0787807;0.1659644;0.05776449;-0.07145976;0.13570517;0.026783248;-0.22973737;0.07063624;-0.044287436;0.17242092;0.054855112;0.027916964;0.20734522;0.009693842;-0.07246784;0.064045265;-0.07211024
-0.003284752;0.25051796;-0.0074984604;-0.08725824;-0.06710556;0.17320774;0.021701748;0.16227837;0.00921575;0.04843317;0.18179488;0.10004143;-0.033205584;-0.056050178;0.12935406;-0.2575245;0.0748136;0.0838186;-0.010841744;-0.21151555;-0.023247596;0.040001184;-0.05141471;0.16218665;0.04320138;0.12153073;-0.060059253;-0.11922887;-0.11777595;-0.028236449;0.044619843;-0.123834215;0.04815881;0.004343866;0.119892515;-0.005709388;-0.2213433;-0.03650291;0.035403855;0.021711698;-0.003833679;-0.021490894;-0.036193993;-0.1974727;0.016896946;0.076342374;0.098227665;-0.053255405;-0.18291274;0.089522526;-0.07410578;-0.028512113;0.14158079;0.058300924;0.0155265285;0.09991374;0.07611631;0.12022195;-0.11424503;0.00030901146;0.18787302;0.078618646;0.006815105;-0.15785185;0.090567224;0.042393275;0.035669662;0.13665098;0.20419902;0.114440545;-0.03064994;-0.03408961;0.08733388;-0.13310869;-0.11981945;-0.0106958;0.057233926;0.07253238;0.001823474;-0.04318648;-0.12725584;0.014240813;0.057866193;0.109910324;0.08794661;0.022797551;-0.1006527;-0.07539585;-0.027546963;0.037450723;-0.09349126;0.030702082;-0.0053898073;0.0078024557;-0.0494356;0.13488682;-0.23897877;-0.10802387;-0.12994026;0.074570395;0.07475635;0.12885489;0.12705001;-0.10583005;-0.10361849;-0.20047121;-0.11037959;0.08599745;-0.115591854;-0.20168817;-0.04210009;-0.0075973575;-0.08048765;0.019363822;0.11506501;-0.056719128;-0.028588213;-0.18378077;0.19021851;-0.1778574;0.116741866;0.10141484;0.07318651;-0.04421154;0.1267276;0.048377465;0.0500734;-0.08581908;0.027200261;0.12641352;-0.19358133;-0.025501728;0.11432619;-0.046925325;-0.03641946;-0.09388997;-0.019971559;0.095622115;-0.12224809;0.010962015;0.07594709;0.05184288;-0.11149076;-0.068342954;-0.19417123;0.048561327;0.11493023;0.093406565;-0.09184559;-0.25555936;0.10490722;-0.12633428;0.066664524;0.22514197;-0.010312965;-0.16830122;0.057012044;-0.009802064;0.33841875;0.07137886;-0.06584145;-0.08819336;0.1624883;-0.030577995;-0.003195659;0.21950766;-0.104240194;-0.024443598;-0.07777729;-0.08901976;-0.027392164;-0.005155884;-0.14594041;0.09887241;-0.12321644;-0.011181542;0.102811076;0.17478658;0.13873768;0.1052256;0.19716401;-0.07990767;0.06390947;0.05639572;-0.046288297;-0.05036026;-0.0030868382;-0.2507709;-0.16266553;0.013968982;-0.072846174;-0.12594447;0.034515865;0.18254478;0.028400809;0.109609134;0.096108384;0.16721733;-0.017526692;0.057771493;0.083864026;-0.024386285;-0.05749997;-0.22082324;0.20267217;0.048266247;0.13794903;0.11226004;-0.09922781;0.15716642;0.14947759;0.0021951143;0.10529756;-0.07583031;0.0143724615;0.120070525;0.21540354;0.16172643;0.2330571;-0.07482708;-0.08356265;0.012154207;0.077403985;-0.1476574;0.018255576;0.058707207;-0.030723803;0.10605816;0.0042543705;-0.07913996;-0.038823072;0.04929539;0.21203914;0.07819973;0.005392171;0.017835207;-0.10250686;0.037259225;0.078344524;0.07928727;-0.05383084;-0.09938688;-0.08335852;-0.04956638;-0.02591819;0.078360975;-0.061243925;-0.063754365;-0.1602625;-0.12080928;0.13635209;-0.037967212;-0.17281386;-0.10152947;0.0073310826;-0.2649969;-0.024911236;-0.050400004;-0.09971019;-0.09630711;-0.017068598;0.042873833;0.11537892;-0.09762266;0.015739528;0.09926848;0.028995221;-0.083249964;0.13978085;-0.01635135;0.15308166;0.12994835;-0.1817697;-0.019266915;0.16053218;0.04813742;-0.067881875;-0.03885005;0.0011322685;-0.073787406;0.12987724;-0.2760191;-0.03229211;0.10978908;-0.02405295;0.27486762;0.1851773;0.19117828;-0.02770234;0.18857837;-0.102789104;0.10587535;0.25222707;-0.27604234;-0.002809436;0.06223973;0.06538501;0.11016108;0.15791029;-0.04909945;0.061205376;-0.058528744;0.13862252;-0.027839355;-0.0019609814;0.0060409345;-0.22934428;0.024338817;0.1486462;0.06884835;-0.13095823;0.059891615;-0.19585632;-0.18282743;-0.04319493;-0.022275936;0.038244214;0.05646316;0.07589565;0.053987388;-0.021778835;0.13458587;-0.09750813;-0.20516121;0.029083978;0.18465196;-0.044441205;0.070558794;-0.05602978;-0.104218684;0.01880807;-0.37227648;-0.00043764192;0.034447756;0.014929145;-0.015338259;0.09106986;0.09438608;-0.08056459;-0.033871796;-0.082491465;0.07934079;0.13644321;0.041770715;-0.11185984;0.0051942556;0.10481386;0.14341736;0.102284536;0.02812039;-0.08189495;-0.0060103233;-0.023279915;0.0020457616;0.092337534;-0.16417813;0.013683678;-0.11214167;0.15283486;-0.12164781;-0.11746248;0.11760522;-0.040411208;-0.19014491;-0.06465118;0.08026886;0.09733845;-0.00924338;0.109829925;-0.02502768;0.021866562;-0.031892538;-0.043087278;-0.07889844;-0.066227876;-0.037659857;-0.0359192;0.1579795;0.07681556;0.19148646;-0.253019;-0.075150214;0.073940665;-0.114414506;0.19578347;-0.22192445;0.17446324;-0.13334765;-0.0828983;-0.02524614;0.030362181;-0.042134117;-0.07022887;-0.011557841;0.12633388;-0.07177329;0.14042062;0.1430626;0.008146142;-0.051270988;0.051720705;-0.08922534;0.006066973;0.092478655;0.18536952;-0.08957262;0.13590047;0.13091192;0.018621061;-0.20319748;0.2194892;-0.115856186;-0.03309795;-0.12694798;0.14947572;-0.03647742;0.037142035;0.088863686;-0.007453518;-0.051661972;0.035160836;-0.040231735;-0.30781856;-0.0033958722;-0.044100855;0.19547221;0.06565738;0.08719461;-0.310193;0.035765328;0.15836744;-0.101213485;-0.13727362;0.018789785;0.0012790307;0.01243115;0.044136632;0.13318343;0.049317393;-0.06494925;0.16261041;-0.26136547;-0.11153399;-0.106476866;-0.09046904;-0.08775846;-0.16690911;0.10984817;-0.10762223;0.06639518;-0.091798395;-0.06661095;0.09462729;0.11857078;-0.13917054;0.015074721;-0.21331058;0.030880813;-0.0027994367;-0.022866895;-0.037291035;-0.008933714;-0.19553192;0.032503776;0.23682003;-0.12780255;0.08576934;-0.2686024;0.06270963;0.07860923;0.015878474;0.029009845;-0.10592092;0.08260024;-0.020540679;0.13196525;0.013483822;0.026413789;-0.080018096;0.08533171;-0.19169351;0.013735906;-0.04122819;0.15446258;0.2327809;0.015351354;-0.15324983;0.1385811;0.034655113;0.076398045;-0.10086393;0.12518059;0.0022921148;0.03203689;0.28366166;0.025612576;-0.06958563;0.13536897;0.19991773;0.03557673;-0.027312817;0.1643462;0.057201527;0.12227811;0.09904163;0.033209365;0.062725574;0.17562944;0.16494258;-0.16845329;0.025321517;-0.29999337;-0.02957593;0.0037936268;-0.19669925;0.08137362;0.11353395;0.0010179329;0.047187783;0.044425998;-0.15982899;0.16952905;0.16121861;0.022522777;0.044909492;0.10192525;0.08911855;0.106793135;-0.09748182;-0.028777212;-0.09977488;-0.06946799;0.04935638;-0.035426732;0.028931756;0.06759556;-0.13570486;-0.045621816;-0.14161213;-0.19321838;0.05158187;-0.11156499;-0.0046901526;-0.117656276;-0.06103676;-0.07015727;-0.0201304;0.034151953;-0.07878089;0.10341954;-0.05454046;-0.014879083;-0.32777798;0.10260485;0.0072516566;-0.09476741;-0.13409717;-0.006723393;0.27235603;0.1521261;0.04548098;-0.13727508;-0.16485508;0.053249754;-0.005751405;-0.1305798;0.06529181;0.019430622;-0.059500836;0.11706274;0.013692845;0.09037953;-0.082203805;-0.15525055;0.02537943;0.1147216
-0.097377;0.28754604;0.0037997128;-0.03230494;-0.006470465;0.03525639;-6.532327e-05;0.11444877;0.045788847;0.046751052;0.28147885;0.0449228;0.06735123;0.16709507;-0.037680354;-0.19967696;0.08722719;0.050632004;0.07610878;0.0071969614;-0.16653347;0.06965377;-0.017359477;0.11618425;0.04688696;0.0436001;-0.14707313;-0.021387197;0.055541445;-0.056474127;0.033535015;-0.07301095;-0.027060235;-0.021227907;0.03122515;-0.032813083;0.0030229895;-0.008415146;-0.13737293;-0.030922843;-0.056851923;-0.042287573;0.051563162;-0.24885269;0.087575056;0.159068;0.037917882;0.071699664;-0.09087903;-0.010002705;-0.18563752;0.038652025;0.21048476;0.015726458;-0.023682313;0.012514992;0.040988054;0.0662457;0.002934864;-0.14402135;0.19967905;0.008987917;0.0348959;-0.10009135;-0.09934326;0.06830479;0.017723143;0.041805916;0.15726452;0.25448796;-0.06147176;0.092260145;0.009273125;0.034798216;-0.014844567;-0.08620271;-0.08097905;0.0004192119;-0.059507374;-0.08633029;-0.29786107;0.102671616;0.020409163;0.026570769;-0.03584027;0.09962681;-0.12610357;-0.17181256;-0.15618838;0.032077253;-0.024338458;0.08163557;-0.08571809;-0.04064955;-0.056431085;0.027950026;-0.11471686;-0.036331795;0.07036178;-0.025420347;0.09107875;-0.022556262;0.22427686;-0.09573116;-0.07883256;-0.3459225;-0.0036853384;0.12727861;-0.020825142;-0.2264765;-0.02771986;0.031538866;-0.053027518;-0.033922393;0.053252727;0.024654103;-0.029512063;-0.19880728;0.1807025;-0.24578133;0.040200744;0.07511328;0.057981607;0.016906695;0.09259578;0.15392023;0.161612;-0.24538197;-0.13338052;0.035546813;-0.069339216;0.07872098;0.043392286;0.006288386;0.07210519;-0.073098436;-0.07532025;0.18613492;-0.12467552;-0.016757866;0.08027214;-0.07028278;0.007634858;0.025146678;-0.02742966;-0.034492236;0.0055324463;0.1083098;-0.11467224;-0.048246793;0.0008507312;-0.120823205;0.179074;0.26680958;-0.06950529;-0.24214725;-0.058905732;-0.09949039;0.16919684;0.09122071;0.04150286;-0.04352176;0.025474763;-0.00826789;0.0057181553;0.2345409;-0.11327482;-0.0042827274;-0.10526352;-0.15416043;-0.103515774;0.0063271294;-0.19843462;0.08770837;-0.019162381;-0.013763452;0.07946084;0.1180219;0.12712033;-0.040339883;0.04504816;-0.10979605;-0.14796197;-0.024823505;0.008831892;-0.07542192;-0.025703242;-0.16196012;-0.22947098;-0.07083237;0.053319063;-0.03189969;-0.00564547;0.018581463;0.13945173;0.025592005;0.18592094;0.15360264;-0.048186623;0.094260365;0.070326455;-0.07499655;-0.121705994;-0.14044704;-0.01305754;-0.022632325;0.012931595;0.15266398;-0.13734059;-0.00122566;0.1683512;-0.024520585;0.2401897;-0.06673415;0.11498072;0.0001795464;0.1420523;0.12287605;0.19676399;-0.031046368;-0.09891685;0.028356366;-0.061759092;0.062100623;-0.05893616;0.015045051;-0.030666007;-0.080965504;-0.11801527;0.0063158805;0.021634145;-0.059521586;0.01281897;-0.06329355;-0.051341694;0.0617544;-0.08864474;0.0489884;0.0385844;0.076034315;-0.046729628;-0.08507925;-0.19814937;0.023774056;-0.18406099;0.017074455;-0.002341173;-0.033078853;-0.20692456;0.05389301;0.09478456;-0.06387879;0.011591759;-0.12346804;-0.10979511;-0.0010236326;0.09057558;-0.15288119;-0.21979296;-0.11854244;0.0002281919;0.02303141;0.038115922;-0.25885025;-0.062519334;0.04627389;0.08237969;-0.17838192;0.13512418;0.043540362;0.2144976;0.16772848;-0.10973824;0.057608627;0.024487551;-0.10515672;0.08949489;-0.13877061;-0.03438416;0.013355325;-0.028258095;-0.2967715;0.015318042;-0.013980337;-0.023573246;0.25820833;0.13387173;0.25049317;0.010680015;0.09489504;-0.11964696;0.1471619;0.20816414;-0.1471179;-0.0057221525;0.01124728;0.01396917;0.012411614;0.07447664;-0.08600152;0.0313242;-0.17026716;0.07128891;-0.063234;0.13824248;0.04388797;-0.08139398;-0.13441359;0.1338041;0.15853989;-0.2969031;-0.0010403916;-0.30575004;-0.108926125;0.04314608;-0.0141102895;-0.014526558;0.029007645;0.1758592;0.07013102;0.041737173;0.17414299;0.056567673;-0.11270054;0.038694922;0.102102526;-0.075179644;0.15094674;-0.20204864;0.018891228;-0.08107333;-0.122253776;-0.1314285;-0.080768414;0.16361284;0.052738413;0.14442609;0.18119499;-0.12629765;-0.035271306;-0.021561125;-0.03648481;0.15158972;0.038227316;0.01650495;0.037543815;0.1420147;-0.00088396005;0.07981366;0.14092126;0.099615194;-0.050799172;0.10963837;-0.116531946;0.17402817;-0.08011867;0.0838756;-0.15447192;-0.0023490062;-0.09354748;-0.18783922;0.08942541;-0.051442537;-0.0813739;0.09344081;0.033402465;-0.05206529;0.046888396;0.12750152;-0.08581231;-0.08576579;0.12645303;0.06444501;-0.15150143;0.055972427;-0.027903384;0.11501896;0.09337676;-0.14668407;0.20145085;-0.2181317;-0.046433076;-0.03080566;-0.017929597;0.21186791;-0.21637909;0.19601732;-0.1364001;0.003853554;-0.07152044;0.053956214;-0.03201562;-0.085942164;-0.13214082;-0.03126251;-0.06101817;4.5343288e-05;0.16666728;-0.11699484;-0.1195307;0.18228112;-0.14312312;-0.0076572984;0.057434045;0.32651195;0.2048589;0.18310836;0.04133548;0.07385053;-0.12444335;0.13190767;-0.06348379;0.11421856;-0.12172739;0.11563914;-0.014147929;0.10730683;0.0289948;-0.15107968;0.08236092;0.12473478;-0.083043545;-0.13467662;-0.0040077986;-0.11023928;0.05222707;-0.035876974;0.16710526;-0.24255306;-0.039844047;0.07006458;-0.11270419;-0.11561585;0.008731955;-0.017759103;-0.08977706;-0.18412839;0.12253791;0.0762288;-0.21464112;-0.01974959;-0.23444134;-0.058869787;-0.09464525;0.018709991;-0.015837671;-0.2288249;0.08206642;-0.08997332;0.062486384;-0.09469514;-0.018433569;0.15224537;0.18765531;-0.033426065;-0.06811484;-0.27842608;0.006172005;0.015543844;-0.04650068;-0.057074815;0.0029395404;-0.38005644;0.06096982;0.13627103;-0.17320548;-0.007010553;-0.28475648;0.1636078;-0.06534006;-0.08505531;-0.13718389;-0.11863791;0.14838642;0.026047114;0.079004556;-0.0742636;0.069993936;0.094308734;0.07940715;-0.10205427;0.034899652;0.03556008;0.08298574;0.10775581;0.106106766;-0.16461399;-0.012296165;-0.09406273;-0.054618817;-0.14729056;0.1224207;0.042088944;-0.15879816;0.19075644;0.06647096;-0.14809667;0.050632175;0.15700684;0.03090344;0.11228053;0.17605396;-0.054044057;0.041825898;0.12507789;-0.07318697;-0.08237322;0.10947538;0.14234251;-0.105299234;-0.043284282;-0.21840382;0.086064935;-0.17304735;-0.22738215;-0.035852022;0.040032897;-0.10867587;0.26453924;0.016015803;-0.11814647;0.1294359;-0.071126826;0.04137312;0.038104888;0.23986916;-0.029527197;-0.037832536;-0.12737651;0.12238774;0.014689601;-0.048170812;0.25575116;-0.1336786;-0.004420747;0.092658855;0.014993692;0.01078394;0.027544346;-0.26096782;-0.02590612;-0.11495079;0.084386155;0.1365325;0.10920516;0.043091975;0.06187713;-0.1080439;-0.10748684;-0.03840429;-0.062984556;0.0061468007;-0.096330434;0.14029263;0.035229728;-0.033806235;-0.06664619;-0.017518163;0.06760314;0.24247333;0.14811184;-0.075913444;-0.14766373;0.19080657;-0.06869404;-0.15867317;-0.014272541;0.060255222;-0.117134154;0.19220883;-0.007948349;0.08723501;-0.1159734;-0.08612089;-0.061278205;-0.050217323
-0.065418616;0.28862825;-0.014837197;-0.22879468;-0.14288591;0.0370362;-0.07834218;0.09502632;-0.0095585855;0.071264826;0.24360779;0.021680435;-0.056082077;0.12573576;-0.053118378;0.007104332;-0.035995025;0.14289564;-0.11756304;0.03146992;-0.111796066;0.015922982;0.016551757;-0.041823626;0.15061587;0.15313458;0.0420394;0.03311945;0.070818655;-0.16974963;0.008723217;0.028415749;-0.008215373;-0.113556325;-0.009712656;0.01978721;-0.07717439;0.02364212;-0.10421801;-0.066867076;-0.103289895;0.040025398;0.024652759;-0.3289131;0.14180297;0.08807354;-0.01330244;0.02173921;-0.06047807;-0.1601292;-0.11873299;0.023997366;0.20612589;-0.012479161;-0.1201859;-0.089833386;-0.12531017;0.1315603;-0.034059454;-0.15304562;0.025461147;-0.0037402853;0.046036452;-0.023695927;0.04517723;-0.1245617;0.0067822807;0.1512044;0.10386599;0.15942645;-0.18178484;-0.0016608645;0.0060929256;0.031135038;-0.1354951;-0.16917111;-0.022961292;0.061790857;0.110411346;0.013334767;-0.09085808;0.18598938;0.16333362;0.0130647095;-0.024992682;-0.09788694;-0.07632239;0.008301787;-0.10541746;0.0013830137;-0.07432472;0.0072443862;-0.023805624;-0.026205182;-0.14943035;0.021391958;-0.15376309;0.07853028;0.041994236;0.0531978;0.074937694;0.006008401;0.2292014;-0.01540595;-0.05328025;-0.34352663;-0.03582124;0.15820158;-0.17282431;-0.082248;-0.02100681;0.16415183;0.14089829;-0.031699184;0.022704212;-0.0024113401;-0.06871494;-0.019343454;0.12633964;-0.22409868;0.10589659;0.0038854512;-0.0048525147;-0.04281117;0.11973661;0.09066808;0.12303898;-0.27759802;0.011339728;0.0047773262;-0.2245532;0.09193234;-0.055866666;-0.061214045;0.100164816;0.025109317;-0.019407082;0.12837592;0.022429867;0.07437962;0.0976472;-0.11664571;-0.02467489;-0.09163273;-0.18353753;-0.044188034;-0.047155082;0.08255712;-0.27210462;-0.05937157;0.09114034;-0.050403457;0.17735808;0.30869272;0.10502238;-0.09375095;0.08254887;-0.0012696692;0.11012057;-0.0052784793;0.053836368;-0.07529302;0.059994467;0.013284448;0.019861974;0.071526945;-0.082047045;0.0789699;0.0025225403;-0.06477823;-0.013348365;0.078106314;-0.04111719;-0.023288867;-0.085132;0.09032368;0.03600518;0.08797144;0.039886117;0.07211561;0.10862092;-0.0936255;-0.13858424;-0.10774534;-0.012925899;0.051965866;-0.020392293;-0.18295413;-0.17457347;0.007677543;0.092724346;-0.11094845;0.15486972;0.1148349;-0.044654015;-0.09690063;0.11193206;0.19988978;0.07493474;-0.023936009;0.007996675;0.1935607;-0.14546221;-0.07708539;0.048697654;0.084542625;0.008552087;-0.09301556;-0.0023289567;0.03016665;0.17071955;0.063495435;0.06565925;-0.10423045;0.051522024;0.031204915;0.08396409;0.040034495;0.23935705;-0.1056489;-0.11045227;0.08023689;-0.09255976;-0.075263314;0.026397225;0.0031042756;-0.034707583;-0.04985982;-0.060534067;0.0072031072;-0.17137547;0.044733282;-0.022713445;-0.051368825;-0.008804477;0.18553829;-0.061686333;0.03230271;0.11949348;0.1058425;0.077033155;-0.055435915;0.10232933;0.020914016;-0.08301029;0.022652289;0.022034246;-0.1272017;-0.039586786;-0.06575204;0.11034127;-0.06195369;-0.06832331;-0.090433255;0.15846801;-0.10184386;0.04567897;0.105143316;-0.15229036;-0.13139325;-0.09990849;-0.08230856;-0.07083306;-0.23775122;-0.18804432;-0.08340537;-0.091363646;0.033923306;0.08574256;0.044365097;0.2235941;0.13153362;-0.17357476;0.034428127;0.017384533;0.0012187229;0.09513791;-0.15361507;0.03061423;0.016287372;0.13943468;-0.20364466;0.0014711127;-0.087782085;0.105618946;0.22410351;0.029586209;0.22774546;0.09377167;0.15177652;-0.022301763;0.1367949;0.18139206;-0.13470346;0.11260595;0.07983341;0.025535783;-0.019838216;0.069043055;-0.09837302;-0.01708578;-0.085558236;0.074174605;0.10304222;-0.022640435;-0.040499315;-0.04642605;-0.12010182;0.22126232;0.17601904;-0.07335754;-0.00012945972;-0.12461268;-0.15545811;0.052777078;-0.057457995;-0.11093716;0.08104543;0.21178211;0.0787725;0.055586558;0.13793488;-0.110602975;-0.12231878;0.081728935;0.0424985;-0.22171535;0.08110598;-0.21906228;-0.019018453;0.10682944;-0.17616162;-0.06813393;-0.03101235;0.12066023;0.04021581;0.16507226;0.026809372;0.078255974;-0.040995706;-0.15242724;-0.036719713;0.11093875;-0.00831051;0.1292696;0.044674557;0.19212477;0.062929966;0.0380095;0.18315826;-0.028954683;-0.11068717;0.13826017;-0.083627604;0.119158745;-0.09823362;0.015101137;-0.20149083;0.14024797;-0.005508484;-0.23273209;0.18760574;-0.029224683;-0.041957367;-0.0031589216;0.03334984;-0.042406805;0.027852766;0.010708802;-0.09065294;-0.097912036;0.18959828;0.1598406;-0.24335116;-0.08441914;-0.063443765;0.0075360727;0.005212186;-0.0032960596;0.09143659;-0.26088113;-0.048493817;0.06856526;-0.0670472;0.22273235;-0.28832415;0.020604258;0.026780589;0.016070947;-0.04180372;-0.0617573;-0.05219128;-0.10524114;0.006704966;0.11950608;-0.01672573;-0.092538595;0.158236;-0.053340465;-0.11073214;0.17100866;-0.03708397;-0.028249238;0.039142013;0.26289225;0.043343667;0.022835942;-0.096646;0.0058681294;0.04515561;0.09216361;-0.0200912;0.0972393;-0.22180225;0.047506567;0.014189954;0.08388455;0.1147248;-4.240352e-05;-0.0857639;0.067326196;-0.031527553;0.04749727;0.00063329923;0.030441506;0.1540063;-0.11616135;0.06195592;-0.19441009;-0.04711516;0.056592662;-0.117368534;-0.020605978;0.18817334;-0.036366988;-0.16483067;-0.06453767;0.21207441;0.16571322;-0.15207753;-0.00037343873;0.10934448;-0.051662486;-0.047941577;-0.007915205;-0.024286982;-0.22833826;0.07951509;-0.19632572;0.14826064;-0.15609004;0.03295243;-0.06438778;0.086435564;-0.07993586;0.02173416;0.0035652744;-0.012053369;-0.0046607237;-0.044897746;-0.062603645;-0.09856048;-0.30191544;0.058238372;0.18991262;-0.15265092;0.14976324;-0.16716644;0.15237428;0.057556063;-0.072852656;-0.15183681;-0.053197194;0.2438358;-0.10489349;0.051946785;-0.058874417;0.08562323;-0.12394675;0.052300196;-0.11415935;0.09193771;0.020342596;0.03762562;0.16109057;0.023245122;-0.049623627;0.07283411;-0.0057950863;-0.08048929;-0.18915106;0.079734944;-0.076930314;-0.009364788;0.11476685;-0.105765015;-0.20747986;0.07657855;0.06297087;-0.01145078;0.10781697;0.11855226;-0.042744976;-0.026407197;0.052620213;0.16961546;-0.20989408;0.20424564;0.12477618;-0.104373254;0.062051598;-0.18499056;0.072610155;-0.027282998;-0.16082959;0.08997303;-0.075520255;-0.022147797;0.1879495;0.09798546;-0.12221205;0.16603741;-0.16946514;0.2023272;-0.074295;-0.034468543;-0.14497001;0.024653982;-0.20869853;-0.14876634;-0.1239381;-0.041775182;0.16680342;-0.06513745;0.029297998;-0.046712987;0.035657156;0.1295544;0.11303701;-0.0227266;-0.05700569;0.032800417;-0.07700867;0.25901678;0.026070165;-0.08137284;-0.11722155;-0.079890214;0.06030816;-0.13126254;-0.008483179;-0.007336026;-0.059694186;0.013373954;0.09716901;-0.19913791;0.009218531;0.013147521;0.07790101;0.16522178;0.15312159;-0.16265512;-0.064648315;0.16883448;0.026564054;-0.061532628;0.015339483;0.10450034;0.018937552;0.23384829;-0.0060297707;0.1703793;-0.02943433;0.04822949;-0.20314553;0.008009243
-0.30282652;0.2986319;0.015960723;-0.09852963;-0.10920955;0.12309335;-0.06822628;-0.032869007;-0.028236099;0.021892443;0.10952641;-0.050118107;-0.11844179;0.07685341;0.11881152;-0.026272953;0.020726556;0.19127728;-0.24116643;0.08239527;-0.07239034;0.1437639;-0.0053335684;0.20354688;0.25246444;0.037643917;-0.1868292;0.14435577;-0.032489978;-0.034941018;0.01015423;-0.059939735;0.077026956;-0.091043115;-0.007120144;0.023198994;0.052997902;-0.059878934;-0.13739853;0.052813753;-0.11990493;-0.1148689;-0.073883206;-0.32710764;-0.03115471;-0.03886953;0.091691956;-0.08286772;-0.09774227;-0.17674512;-0.15321544;0.106773056;0.21030296;-0.1234411;-0.14151393;-0.07045759;-0.022207163;0.17522086;-0.12905186;-0.087256454;0.11998978;0.030186404;-0.065356486;-0.035070494;-0.059113342;-0.09426449;-0.056385744;-0.024641562;0.0858351;0.06259778;-0.114426136;0.03185215;0.19889838;0.028494097;-0.08792456;-0.26904786;0.19067857;0.13522728;-0.0911134;-0.08731387;-0.06693591;0.20133011;0.018368907;0.04103108;-0.15185542;-0.0036192737;-0.015275787;-0.05030512;-0.22654116;-0.08317295;-0.13043371;0.21399613;-0.10452578;0.015360805;-0.18794763;-0.09445256;0.08516728;0.00854264;-0.008309093;0.025352389;0.04124021;0.01638332;0.12209245;-0.03613175;-0.06748482;-0.44287235;-0.07654115;0.13342512;-0.13151674;0.003470911;0.020615587;0.23108481;0.099261895;-0.0400179;-0.04305796;0.0054749614;-0.035015725;-0.12131857;0.22556573;-0.21132472;0.16426647;-0.055674497;-0.030324716;-0.0034552678;0.17362535;0.22147997;0.041582998;-0.18834217;0.09352264;-0.0550617;-0.08725789;0.08244358;-0.13522664;-0.024536092;0.057372317;0.112139694;-0.14645198;0.075478576;-0.043636356;0.16097133;0.049678624;-0.03285478;-0.036769938;-0.023487862;-0.14880279;-0.0837058;0.029302519;0.058779955;-0.20404403;-0.0058078947;0.06741544;-0.0719778;0.23263225;0.21899456;0.017602233;-0.07628719;-0.05232547;0.0662529;0.064548925;-0.042908743;0.13479336;0.09839464;-0.030442905;-0.017845562;0.05675469;0.07070062;-0.04158342;0.06746861;0.007997722;-0.19283901;0.023019938;0.040760867;0.01939625;0.10220603;-0.13685839;-0.046727292;0.15604039;0.26183277;-0.010314166;0.09805096;-0.08537913;-0.1364965;-0.13736776;-0.109633505;0.065764114;0.22893064;-0.050198693;-0.1160378;-0.07539068;-0.109522074;0.020166593;-0.23823878;0.14709584;-0.015004412;0.19431038;0.059946876;0.024151001;0.04382769;0.11020926;-0.062223583;0.07980379;0.10580928;-0.0945386;0.027866546;0.073991984;0.12877038;0.09860771;0.05079181;-0.024711395;0.10365924;0.11626229;0.13421908;0.1856584;-0.011523239;-0.0023773212;-0.1219442;0.07971728;0.022616614;0.32338765;-0.03740715;-0.10330405;-0.03334926;-0.009524162;0.043033488;-0.0655334;-0.0878762;0.022723898;0.089457184;-0.10179115;-0.13361034;0.096005045;-0.13985789;-0.081308916;0.008605626;0.12523668;0.11868683;-0.06976876;0.09260252;0.124123156;0.052519232;-0.1276032;-0.046897255;0.014176927;0.093547;-0.08281974;0.043591697;-0.07047188;0.07839909;-0.031414654;-0.022124082;0.12516409;-0.113244504;-0.0855712;-0.134981;0.029829938;-0.05624468;0.03746304;-0.07448308;-0.23553304;-0.025058497;0.028875409;-0.105448745;0.03768888;-0.2150888;-0.00937517;-0.18262823;-0.009723048;-0.12796953;0.029592643;-0.04645498;0.076428205;0.05425902;0.025283407;0.0786951;-0.12670082;0.09937483;-0.035726264;-0.10146037;0.009946796;-0.07069286;0.099761024;-0.2958226;0.027685126;-0.0922735;0.062176798;0.15967962;0.032340895;0.32372004;0.027654303;0.10634301;0.05038951;0.034671646;0.14882675;-0.10479176;0.049534358;0.09227005;0.05886025;0.102977954;0.013272285;0.037731558;0.029946884;-0.06439005;-0.007357299;0.06265847;-0.09603711;0.18044148;-0.12385398;0.07675042;0.14803828;0.13894422;-0.115771905;0.029716088;-0.021987865;-0.060951162;0.0584045;-0.11506612;0.06797241;0.045664486;0.08315331;0.0552246;-0.096513905;0.07717671;-0.049697172;-0.19926827;-0.07633678;0.10350155;-0.04486733;-0.11449562;-0.09080451;0.03894629;0.11870224;-0.056997288;-0.15900727;-0.029082362;-0.0061592297;0.13492002;0.12659568;0.02476995;-0.07591785;0.026925983;-0.0961483;-0.01406848;0.021006577;-0.011161966;0.13259889;-0.0762562;0.16426508;-0.04799749;0.1243523;-0.0093453685;-0.049800225;-0.09846292;0.11189076;-0.07479911;0.14616573;-0.05003988;0.03646965;-0.17314802;0.010474445;0.10065541;-0.15378718;0.062219117;-0.020976989;-0.059150208;0.05491039;-0.01810208;-0.1149074;-0.06526841;0.053248204;-0.1239971;-0.019908354;0.2592785;0.18152447;-0.092758104;0.11492805;-0.04080845;-0.031944457;-0.13571861;-0.119481176;0.19694962;-0.19131023;-0.017864788;-0.061004132;0.05116055;0.062307138;-0.30995935;0.11403889;-0.02558162;-0.056664824;-0.07592836;0.020059198;0.14156766;-0.2858252;-0.106988326;0.04810716;-0.08134319;-0.10882264;0.20981917;0.05450845;0.06664315;0.12958924;-0.000932566;-0.08712296;-0.065038614;0.072289065;0.14119682;0.13710877;-0.16303867;-0.052706655;-0.015985535;0.012253311;-0.013914579;0.08312816;-0.116016306;0.02774916;-0.040936362;0.111671895;-0.103112645;-0.14482276;0.021469615;0.09158737;0.07008538;-0.03681007;-0.07559688;-0.037703447;0.05842982;-0.12739587;0.047355216;-0.20139997;0.002764167;0.20378314;-0.008163042;-0.1063514;0.027999498;-0.22930995;-0.2750587;-0.036421973;0.17312193;-0.035429887;-0.31775337;0.06626469;-0.014490541;0.085819274;0.043495905;-0.031795982;-0.01180877;-0.11040041;0.12418935;-0.21024637;0.15898854;-0.0027702863;0.0014820701;0.04711036;0.14127599;-0.103305824;0.15195325;-0.2106581;0.029754031;0.011129822;-0.1533737;-0.048670415;0.027416905;-0.3031639;0.0724035;0.1688076;-0.004122894;0.01373281;-0.173243;0.12683634;-0.086646564;0.044285607;-0.20529531;0.06370887;0.28603363;-0.10065583;0.024847943;0.000107454565;-0.009864583;-0.054472968;0.017383287;-0.07666438;0.004004691;0.024605324;0.016079567;0.08124144;0.123320825;-0.07094722;0.124084204;-0.12238405;0.1131875;-0.1315877;0.10800702;0.026210882;0.09468212;0.06950839;0.14940819;-0.098234616;-0.036944095;0.2801906;-0.01845782;-0.025772678;0.019919379;-0.011811264;0.15278974;0.056182966;0.10178286;-0.26348183;0.22199695;0.08304197;-0.06412564;0.02941432;-0.21951109;0.11913851;-0.15774365;-0.14600456;0.06871743;0.07519588;-0.17584997;0.07424583;0.07173809;-0.06836665;0.056285385;-0.05083093;0.09993917;-0.1222322;0.05045666;-0.14023374;-0.028893068;-0.19474627;-0.123089485;0.04123605;-0.09505736;0.17125176;-0.07714245;0.07326136;-0.13447791;-0.026342196;-0.11332973;-0.12343621;-0.07837697;0.025326276;-0.07251176;0.047803286;0.19128856;0.023268271;-0.09420893;-0.064750224;-0.08052028;-0.07544891;0.0056893188;-0.053796746;-0.08471545;0.0053025153;-0.0066448497;0.035963133;-0.1446218;-0.04796517;-0.01043616;-0.010851829;0.096167974;0.009966966;-0.07080619;-0.123806514;0.027235666;-0.12762862;-0.19274826;0.0035412514;0.01564572;0.001093465;0.043322876;0.044979163;0.050381914;-0.043407;0.030264722;-0.05504921;-0.037027482
-0.2517983;0.18830955;0.11058873;-0.25486854;0.0054091024;-0.011515719;0.06856026;-0.0710075;-0.019697135;0.029345455;0.20488037;-0.032006763;-0.11438026;0.06360455;0.049591925;-0.0024336327;0.14485599;0.08067934;-0.33526504;0.079987906;0.12778427;-0.019690646;0.11033845;0.120232455;0.30993634;0.014463488;0.019421998;0.01805523;-0.007966192;-0.115261704;0.031526517;-0.04520511;0.028141059;-0.08987246;0.022015331;-0.11906691;-0.044034828;-0.00072536286;-0.082423694;0.09337451;-0.030485854;0.03801266;-0.25331408;-0.24201524;-0.034787748;0.060350418;0.087445535;-0.076838695;-0.034954876;-0.21110676;-0.04395588;0.22151014;0.16989659;-0.085277855;-0.25979143;-0.19860801;0.049787324;0.022386529;0.029984033;-0.11627081;0.16889752;0.0039159334;0.110744596;-0.22134392;-0.101161756;-0.01585749;0.01951493;0.04635664;0.13943027;0.1334304;0.053248465;-0.009493677;-0.036172405;-0.0076825027;0.029590184;-0.27750805;0.117951706;0.18168582;0.01763483;-0.12302821;0.05884521;0.12354904;0.17485957;-0.018579073;-0.15578468;0.0012903115;-0.017954413;-0.03248689;-0.16827223;0.0042537577;-0.07358356;0.21531044;0.0010168505;0.083139695;-0.122301966;-0.07020317;0.06965519;-0.036055505;-0.08411214;0.10808966;0.0906855;0.020506348;0.14101125;-0.059126478;-0.1618049;-0.38454613;0.084105454;0.10004234;-0.14831698;0.10414856;-0.024218647;0.07226877;0.13119915;0.019279089;-0.0042837174;-0.057965703;0.044253156;-0.071980566;0.17540467;-0.08055621;0.11691996;-0.18270649;0.042577498;-0.010091584;-0.001862493;0.0732318;0.13656004;-0.12157794;0.11829099;0.02328944;-0.010981576;0.1412439;-0.087346256;0.013127734;0.077738315;0.10761156;0.048505116;0.009126945;0.016190005;0.2137058;-0.10334403;0.028258523;0.08409938;0.031752005;-0.19980444;0.13194458;-0.07569298;0.1429595;-0.23734774;0.118976206;0.16172957;0.12975626;0.21241935;0.19284259;0.06632443;-0.05236353;-0.17475232;0.0042049205;0.047127295;-0.03172917;0.15212013;-0.018065568;-0.0011420844;-0.050153263;0.040311504;0.19429152;0.02728238;0.17715965;-0.11702832;-0.23440541;-0.0505494;0.0471399;-0.042832047;-0.12106083;-0.15279368;0.015515329;0.09432383;0.16545661;-0.1546948;0.10992795;-0.035431053;0.0012195153;-0.014311067;-0.044231597;-0.0061483267;0.28716284;0.099794805;-0.2222994;-0.07157021;-0.13274904;-0.044533245;-0.047760803;0.03188225;0.029951654;0.07967835;0.13554175;0.109063044;-0.07101932;0.06012307;-0.061562635;-0.015210636;-0.10481323;-0.0016712011;-0.14687483;-0.12455742;0.10604492;0.08885885;0.05025893;-0.13704138;0.12565018;-0.24633585;0.021039741;0.11694063;0.033517808;0.1049723;-0.08304564;0.13182712;-0.015505383;0.13921855;-0.0260743;0.012835739;0.12608173;0.10087873;-0.019093802;0.06064969;0.08128565;-0.12514201;0.04700056;-0.21712294;0.01885875;-0.092261195;-0.090352856;0.015462012;-0.10603074;0.02293449;-0.07817574;-0.12583888;-0.016794808;0.25460026;0.100675404;0.053054456;-0.12300127;-0.12925082;0.07802504;-0.077022985;-0.003649991;0.028651102;0.03537125;-0.00034266667;0.09044109;0.107415766;-0.06974257;-0.13077872;-0.14483614;0.09238274;-0.112471536;0.14376426;-0.09481991;-0.22341433;0.006234811;-0.022753308;0.10728998;-0.022526382;-0.18948115;-0.02104495;-0.10696155;-0.040897448;0.0003633895;-0.02946393;0.028094271;0.01925383;0.11426969;-0.0797826;0.014335093;-0.14649639;-0.007093589;0.046784688;-0.18177184;0.044798896;-0.09443307;-0.0162555;-0.2594291;0.124544844;0.04330798;-0.03161178;0.21008869;-0.035112858;0.18666247;0.0506298;0.16381636;0.080242425;-0.07968658;0.20862463;-0.06913677;-0.024894014;0.17068908;-0.032671098;0.17735732;0.11461286;-0.015478904;0.090234235;0.014030398;0.07654046;0.05211674;-0.1234959;0.04926477;-0.016420087;0.035617467;0.039457325;0.1926905;0.023202315;-0.005732013;-0.15502994;0.066212535;-0.026584933;-0.15512444;0.0018726924;0.060165253;0.27465788;-0.0028858357;0.013485499;0.1984295;-0.033836663;-0.07396576;-0.04704838;0.027774643;-0.05725421;-0.052672815;-0.10508679;0.01923498;0.028636811;-0.12174068;-0.19674325;-0.07176428;0.0030784677;0.1738472;0.2326904;-0.089054346;0.11612807;0.012821522;-0.17279789;0.10150729;-0.05537975;-0.024598446;0.17964208;0.08174889;0.0003357576;-0.012950408;0.01540091;0.12612025;-0.0066006435;-0.2040851;0.121323474;0.07571633;0.083778985;0.037553962;0.15871459;-0.10634925;0.08954526;0.0035748668;-0.0568231;0.028523408;0.011532962;-0.19110571;0.11201558;-0.020457644;0.00025921795;-0.1019362;-0.09746562;0.036596138;0.073009335;0.264635;-0.056549445;-0.050525244;0.039454345;0.070569865;0.09332182;-0.12010214;0.007792082;0.18767712;-0.12418962;-0.09831459;0.059474196;-0.07786248;-0.00045149674;-0.068439595;0.1954617;0.008173078;-0.057706714;0.031121928;-0.031700872;0.097807944;-0.26085892;-0.09776858;0.11869096;-0.1966867;-0.107552;0.12865108;0.092875265;0.14693171;0.053273313;0.1162237;-0.040364917;0.017854733;0.03854732;0.17962742;0.04230945;-0.008758633;0.06461478;0.071773686;0.01947757;0.053323682;0.14259438;-0.078323185;0.01905369;-0.1570564;0.1736153;-0.0672977;0.02829574;0.052102797;-0.05658715;0.008456175;-0.03672299;-0.15792505;0.03184787;0.19116099;-0.1492698;0.11362421;-0.03596378;-0.07508073;0.16963568;0.009387338;-0.18298255;0.11225875;-0.23413481;-0.10072454;0.0035902057;0.056645475;0.14463978;-0.1698397;0.12528148;-0.057823367;0.023784788;0.12085967;0.14286244;0.062197212;-0.12831576;0.118534625;-0.045795664;0.20996629;-0.014541495;0.06689611;0.07016161;0.24755663;0.004334977;0.14034331;0.0449139;0.15385087;0.033825453;-0.09679715;-0.10430452;0.117399104;-0.17978565;0.050109282;0.07638141;-0.01377334;0.14359617;-0.12795094;0.0472621;0.019022001;-0.13919798;-0.10111146;0.05329335;0.20625342;-0.17816429;0.1308895;0.08622539;0.19179744;-0.04348294;0.07298347;-0.001990663;0.0020776328;-0.011235496;0.07510305;0.2053723;0.19726153;-0.060048778;0.10318252;-0.11883462;0.0707516;-0.030959992;0.11330296;0.14613421;0.15847786;0.1052315;0.06567688;0.11061851;-0.0383697;0.11974097;-0.017633913;-0.08629832;0.117613874;-0.009826963;0.19892412;-0.14623924;0.105414085;-0.24083671;0.08460915;0.12877786;-0.002731337;0.02515085;-0.16377299;0.12100036;-0.15775155;-0.20203447;0.039322276;0.08394429;-0.16223682;0.1191567;0.29047742;-0.21103911;-0.024980027;-0.23256005;0.182912;0.000120001;0.06087706;-0.13656946;-0.074868724;-0.10709091;-0.11524279;-0.08177382;-0.04349228;0.13243164;0.09765519;0.027915094;-0.07023535;-0.047939125;-0.13407159;0.041782867;-0.13306275;0.019186448;-0.11591708;0.06686489;-0.0002908295;0.1701676;-0.0939556;-0.038559068;-0.087112084;0.012273416;-0.058669843;-0.071635;0.0053091836;-0.08554548;0.0328272;-0.032983672;-0.12071424;-0.10848855;0.0928333;0.12191718;0.07608354;0.10120709;-0.17525247;-0.115494326;0.09100651;-0.109714665;-0.07153183;0.06285764;-0.0042587384;0.110790916;0.20106696;0.026393607;-0.04196381;-0.13644098;0.048013978;0.09758828;-0.09639927
-0.026649218;0.2027253;-0.029162884;-0.09609994;-0.0060991934;-0.09006075;0.09786043;0.079300255;0.034816217;0.0749644;0.07999983;-0.118088864;0.02476079;0.0054057534;0.057414513;0.11171492;0.010521452;0.09350529;-0.39914677;0.017275633;0.050285704;-0.061022606;0.02355361;0.14399032;0.2353127;-0.17864186;-0.1546009;0.1447676;-0.15701322;0.07535189;0.027466249;0.0040825587;-0.04786386;-0.17033389;0.08307935;-0.14939988;0.10118241;-0.0006038829;-0.16812693;-0.00697272;0.11809023;0.10368971;-0.27088436;-0.18229468;0.12810579;-0.09047995;-0.049701132;-0.037945036;-0.091429085;-0.26601812;0.112457074;0.11627021;0.3425548;-0.13942283;-0.25700498;-0.093784526;0.050177485;0.10503022;-0.022243144;-0.088124305;0.2369463;-0.039294515;0.14120507;-0.30205557;0.09044647;-0.11525076;-0.0794111;0.04161085;0.16062638;0.102804594;-0.029071502;0.11019558;0.009687098;0.063879296;0.14222065;-0.23217934;0.018165339;0.14760357;0.009702509;0.04492324;-0.030403387;0.14157456;0.056414194;-0.00050035946;-0.17262518;0.035343096;0.012874811;-0.06002815;-0.24447998;-0.07323171;-0.00595819;0.1187547;-0.072050236;-0.049917296;-0.040367994;-0.20317061;0.013717856;0.016664192;0.048209388;0.18188588;-0.03877959;0.14147797;0.079117164;-0.08718674;-0.088936284;-0.2137437;0.057482105;-0.057287414;0.0014188936;-0.12897708;-0.12522663;0.15662843;-0.05150785;-0.023837915;-0.11899729;-0.06740694;-0.04279719;0.09456385;0.0068708425;-0.030490993;0.12331936;-0.086239114;-0.027130483;0.028669836;0.06779646;0.08322107;-0.00020543349;-0.09581862;0.119203694;0.09417193;-0.0094494615;0.1423074;-0.21218096;0.036867686;-0.06000808;-0.13713075;-0.03991634;0.10254479;-0.07224725;0.07959248;-0.031214008;0.008052073;0.07430865;0.006773088;-0.149725;0.17034186;-0.031446587;0.121343575;-0.047038343;0.20770088;0.015493375;0.100653626;0.05728224;0.08283985;0.19050322;-0.15504827;-0.194435;-0.03181203;-0.031604532;0.06261628;0.054443747;0.037631962;-0.038517516;-0.008649441;-0.0063671973;0.015346493;0.04308276;0.04812642;-0.14420952;-0.21268032;-0.06778283;0.031029645;-0.01992045;-0.111199446;-0.13254458;-0.043872938;0.0316411;0.107223965;-0.1287512;0.028730355;-0.01601176;-0.09490521;0.09637392;0.012520386;-0.0901824;0.20521288;0.058734495;-0.09622944;-0.04700868;-0.1543522;-0.13388129;-0.26987064;0.0008838652;0.009341034;0.21798046;0.30205938;0.089409314;0.13268737;0.054456763;-0.10514271;0.015792768;0.0062862486;-0.053570513;0.04263892;-0.11415538;-0.00090639584;0.062407773;0.030999344;-0.12266707;0.096230775;-0.1058819;0.1559671;0.045707252;-0.083151534;0.15875833;-0.14516124;0.09605959;-0.12325386;0.1843711;0.10408162;0.019304818;0.087108634;0.14739735;0.0004129989;-0.00297977;0.030039694;-0.034833618;0.1471765;-0.15463819;-0.2210036;-0.06880485;-0.033812195;0.06444134;-0.11325369;0.10537936;-0.029593535;-0.062267814;-0.027189774;0.08146411;0.15367806;0.044466387;-0.17362656;-0.27190694;0.21870847;-0.15137729;-0.025216788;0.011199225;-0.018609814;0.11438207;0.16195962;0.026544021;-0.030951746;-0.034548428;-0.2623373;0.008643625;-0.12945512;0.13792993;-0.16087711;-0.17746979;-0.05247032;-0.03841489;0.19654056;-0.014339535;-0.26548195;-0.010761599;-0.1839992;0.0067688683;-0.09436396;0.03891292;0.041656386;0.09326791;0.10806464;-0.08676084;-0.036544684;0.085784584;-0.0062848283;-0.06366808;-0.046683084;0.052772645;-0.07311892;0.076003745;-0.3381584;0.22267346;0.022961132;-0.08405858;0.04635036;0.017408643;0.2640716;-0.034954008;-0.021756068;0.058887452;-0.13427502;0.12866746;0.0755148;0.11586575;0.12360503;-0.13520128;0.05176044;-0.038720492;0.12830888;0.036050964;-0.012423691;0.103525236;-0.014854176;0.026472704;0.11419203;0.0005624383;-0.05198363;0.0058962284;0.072252646;-0.09058777;-0.123897165;-0.15487662;-0.08551774;0.009185178;-0.10663102;0.026156735;0.14777601;0.25322673;-0.05583807;-0.1298173;0.03560234;-0.07613323;-0.075631365;-0.10573499;-0.028340848;0.029749842;-0.024958761;-0.21605003;0.058354214;0.11051629;0.0007106794;-0.08724379;-0.023234911;0.06847984;0.09942757;0.2536408;0.012444424;-0.09170555;0.08470275;-0.06685989;-0.10138172;0.06995863;-0.090308264;0.10342877;0.06277657;-0.05630366;-0.056127533;-0.0037205718;0.06464517;0.14226379;-0.1505822;0.21161166;0.04456065;0.020584468;-0.013112259;0.14390768;-0.04852713;0.13356958;0.039285;0.008244277;0.10014377;-0.05422866;-0.05042957;0.09642466;-0.081289165;-0.086896256;-0.0067163864;0.14925903;-0.11897611;-0.030467773;0.19586134;0.013415715;-0.044780046;-0.010638781;-0.15772645;0.059555616;-0.075649835;-0.10247807;0.121934555;-0.034823038;-0.15891643;-0.0016226532;0.025064865;0.07067943;-0.037650265;0.066418804;0.0043838625;-0.14273171;-0.13551174;0.03482935;0.0004461529;-0.2742044;-0.1750115;0.031111717;-0.10643296;-0.011983173;0.12975219;0.05724871;0.15478978;0.11789824;0.120243505;0.01919233;-0.10874272;-0.021877762;0.16338779;0.08402069;0.13297732;0.12337087;0.034554802;-0.19054413;-0.07670508;0.16660778;-0.010620993;-0.14551699;-0.11169918;0.20840257;-0.28752264;0.024237515;-0.04849122;-0.031961948;0.04791553;-0.25472268;-0.0370769;-0.021188203;0.1451373;-0.12196516;-0.043356683;-0.20969272;-0.0055725975;0.023981249;-0.10647382;0.08831468;-0.055573165;-0.25458658;-0.1799338;-0.052525114;0.03480887;0.106385365;-0.12270831;0.07749407;-0.04974123;0.17010222;0.11960529;-0.01084517;0.10303602;-0.2116107;0.018692968;-0.10815235;0.069789395;-0.13216625;0.06497408;0.18876065;0.12292737;0.1153227;0.17067544;0.028409656;0.18798359;0.109727405;-0.06959154;-0.12087854;0.073386215;-0.18392342;0.07584887;0.1699971;0.029284475;-0.008957643;-0.0033117554;0.09139985;0.044467103;-0.0832296;-0.06420576;0.20975144;0.2589339;-0.1880528;0.10292205;0.12658596;0.11452546;0.18282759;-0.037529714;0.0021423928;0.029050374;0.12575938;0.010236157;0.042309087;0.10884341;-0.056456;0.08223788;-0.10579472;0.16221349;0.036003232;0.14706118;0.11847904;0.15860218;0.14136103;0.110111125;0.11664789;-0.084396616;0.21063274;-0.16900131;0.034269977;0.09620579;-0.0708957;-0.00874685;0.013082842;0.16218434;-0.1926992;0.12091775;-0.0030694618;0.015831368;0.13519667;-0.020292595;-0.016254682;-0.111505955;-0.14013062;-0.05027892;0.0921349;-0.08676126;0.062771305;0.2411599;-0.2881384;0.016271936;-0.1716789;0.29554942;-0.030402916;0.11543744;0.08211402;0.052602857;-0.08091974;-0.07697538;0.065334715;-0.15220284;0.07594111;0.026951944;0.043273784;0.017176814;0.102774;-0.0072030206;-0.0081099225;-0.16128233;0.1401544;-0.28731593;0.013075388;0.15964611;0.044567794;0.033544853;0.018130245;-0.052068084;0.18517603;-0.119389355;-0.0790008;0.06838552;-0.060474228;-0.015776519;0.013042244;-0.020747261;0.030742755;0.082043566;-0.04732607;0.076447025;0.22151837;-0.16933784;-0.18323247;-0.017021308;0.041255098;-0.3431083;0.0046948018;-0.00084533484;0.17471656;0.28498626;-0.046931926;0.013475899;-0.08491729;-0.085960425;0.13777845;-0.029424293
0.13176185;0.0978212;0.03168436;-0.2339512;-0.049117047;-0.10558861;0.09451907;-0.06708899;0.2080605;0.032199424;0.14437446;-0.01772705;0.12159098;-0.0076259314;0.19900276;0.024323717;0.019120663;0.32512584;-0.3206075;-0.020042997;0.10240757;0.023530873;-0.00031025603;0.035855494;0.1863346;-0.062295195;-0.015533445;0.053387977;-0.19069976;0.016895989;-0.08010506;0.021532571;0.04004032;-0.011469219;0.124087974;-0.10080838;0.024206221;-0.15660071;0.095601626;0.1449244;-0.01102634;0.20628722;-0.15492189;-0.30276388;-0.08408078;0.011861277;-0.06518577;-0.10970952;-0.020360263;-0.1769716;-0.034209277;0.22934942;0.05793416;-0.113560796;-0.21967733;-0.05370846;-0.013786365;0.090054505;0.020457704;-0.040926438;0.206091;-0.17661116;0.13616659;-0.17382923;0.1379536;-0.11276559;-0.08662449;0.069663204;0.115333766;0.08623237;0.035185654;0.039307103;0.0075327293;-0.014129523;0.05034738;-0.0733403;-0.03336055;0.28005573;0.15547383;0.048702575;-0.014737311;-0.026006069;0.108506404;-0.101943195;0.048062976;0.05744922;0.06483328;0.09174166;-0.15488355;0.024900634;-0.082446516;-0.023682384;0.04982192;-0.13558733;-0.16559798;0.019584876;0.14098704;-0.045838036;0.017474085;0.1362826;-0.07932782;0.0074648103;0.04233305;-0.14036012;-0.21003248;-0.2275654;0.04309738;-0.23244293;-0.060413577;-0.05047927;-0.13029893;0.052169066;0.15181485;-0.16277556;0.009704914;-0.10946782;0.004452669;0.03657401;0.06160411;0.06944131;0.009673601;-0.09545043;-0.06735002;-0.021465188;-0.038203042;0.11176605;0.07175464;-0.13293983;0.2355331;0.036597054;-0.086436205;0.06294523;-0.13501355;0.13381936;-0.154935;0.22821109;-0.029868534;0.038414262;0.04048605;0.11579454;0.021499973;0.031960417;-0.0096811205;0.07357214;-0.17001107;0.018626176;-0.09514586;0.06382432;-0.2688802;0.06101383;0.06022065;0.07028751;0.011057668;0.12099098;0.11076402;0.13179033;-0.1308778;0.019671164;0.04199937;0.06952695;-0.062204015;0.03805202;-0.010373697;0.08519921;-0.003039043;-0.11418081;0.09790209;0.040942572;-0.03710295;-0.16121644;-0.03986123;0.087682806;0.022622805;0.004676059;-0.1854566;0.021950088;0.10062849;-0.08617137;-0.07044522;0.06353587;-0.011155655;-0.10082641;0.14615831;0.038231436;-0.094066486;0.23659413;-0.02653673;-0.31202093;-0.040216565;0.04309178;-0.10804048;-0.24730696;-0.07100573;0.11309693;0.1258259;0.1225078;0.11953704;-0.08269885;0.025284287;-0.19445722;0.13607925;-0.029128443;-0.1270002;-0.00088986865;-0.14673911;0.11622523;0.0235779;0.006072343;0.0625955;0.008728054;-0.0013443198;0.21396548;-0.036417324;-0.07718243;0.06742746;-0.0083926665;0.059233654;0.1305152;0.1053308;0.059864312;0.005226115;-0.01060365;0.052618723;-0.13740396;0.0637893;0.0878349;-0.07955463;0.2066947;-0.00472903;-0.2172077;0.10008266;-0.06771538;0.145204;0.053138033;0.1960462;-0.017309252;-0.07139602;-0.11694155;0.21686776;-0.021605616;0.097229026;-0.25110462;-0.11487259;0.18045075;-0.063300714;-0.0073493947;0.19471231;-0.21249709;0.13212189;0.068916075;0.07265404;-0.011307977;-0.036505885;-0.09624892;-0.004375776;-0.06481955;0.15702987;-0.16734241;-0.09912295;-0.12297204;0.01337726;0.2232004;0.103010856;-0.05549844;-0.14849278;-0.1466416;0.11166786;0.062802136;-0.07839527;0.13485767;-0.030342853;0.028771184;0.07335266;0.09902643;-0.09619879;0.011217291;-0.16216289;-0.04739335;0.11596961;0.14701754;0.073140144;-0.26271078;0.117727496;0.18074316;0.14669134;0.11038814;0.05048376;0.25531566;0.12217903;0.09922299;0.035930727;-0.009460651;0.050296508;0.05894951;-0.00047154585;0.191838;0.081397615;0.0014870666;-0.033016857;-0.11113481;-0.023347931;0.04965124;0.043573335;-0.07683978;-0.07885889;0.17226195;0.05949156;-0.019724594;0.09875888;0.06263298;0.056328654;-0.08149378;-0.1085825;0.04696265;-0.07527657;-0.032400176;-0.101318024;0.12934305;0.2081698;0.0052490486;-0.12404754;0.15752168;-0.11114705;0.015909502;0.07321689;0.16899526;0.066012025;0.07829748;-0.12075562;-0.0328701;0.16025035;-0.099636875;0.009135623;0.026672099;0.05499659;0.26030767;0.23574673;0.00013532884;-0.09167762;-0.15292566;-0.070935816;-0.030934015;-0.041253295;-0.045473788;-0.01426104;0.09274126;-0.043217223;-0.0083578015;0.109598674;0.17563535;-0.04258493;-0.09765096;0.21048959;0.19195867;0.13387232;-0.043200225;-0.020098997;-0.026992047;0.11878504;0.025820991;-0.06058462;0.08852363;-0.009041139;0.039525792;0.024864811;-0.24462003;-0.01980055;0.052668728;-0.0101254815;0.014657622;0.0734505;0.045035508;0.16561827;0.09996488;0.029723639;0.064959764;-0.03378667;-0.19080076;0.11423903;0.0056522666;-0.06694871;-0.14083666;0.03927041;-0.108314775;0.07023961;-0.12653933;-0.089522086;0.011366851;-0.07936829;-0.023120586;-0.091957405;-0.09876059;-0.09785041;-0.09040574;0.040395763;-0.00646906;0.039829902;-0.015868723;0.16696446;-0.029966982;0.025767054;0.1537406;0.054869663;0.026411824;0.13279416;-0.025293915;-0.052493814;0.10198596;-0.0163292;-0.21773829;-0.01940348;0.006528968;0.07201223;-0.030840766;0.06823504;0.13065764;0.085561104;-0.2766251;0.08202184;0.009316703;-0.17643148;0.10244486;-0.1577112;0.12613122;-0.010537734;0.0851036;-0.19275916;0.021516232;-0.034983553;-0.122468576;0.034219526;-0.14283617;0.07440725;-0.12343795;0.03622548;-0.017749738;0.021631986;-0.06745697;-0.16373956;-0.30007657;0.18590187;-0.08202541;0.09270721;-0.007163292;0.08148044;0.115769334;-0.19520745;-0.016223595;-0.046285305;0.20922238;-0.18625265;0.07170578;0.19786346;0.12298597;0.17269105;-0.0019976415;0.094667904;-0.044552628;-0.014524073;-0.12292608;-0.1878527;0.00020038847;-0.3021029;0.0007456473;0.06102834;0.07429026;0.020739062;-0.21309172;0.043968987;0.033004656;-0.1860676;-0.0369841;0.015615296;0.15802741;-0.053026896;-0.080720775;0.097566955;0.032059014;0.1411159;0.027605496;-0.17160675;0.037985213;0.060332622;-0.17948872;0.108891584;-0.052262776;-0.12343168;0.15067504;0.11145365;0.15399952;0.19025587;0.17440161;0.21199535;0.23841353;0.021461317;-0.052497383;0.15999141;0.11722874;0.027144618;-0.0028967077;-0.09077909;0.14367685;-0.018219652;0.018523231;-0.01361327;0.052103855;-0.15375626;-0.0016766692;0.09283126;0.0758337;0.15235958;-0.051433943;-0.032262187;-0.26109838;-0.18643364;-0.0018265519;-0.035221454;-0.10733863;0.12305298;0.20609674;-0.27585572;-0.13281474;-0.18318062;0.13911259;-0.147201;0.1341617;-0.04509239;0.23262689;0.03550207;-0.06123151;0.09592137;-0.2331919;0.099610895;0.014357739;0.020620508;0.032777;0.04705755;0.0104449475;-0.0013965644;-0.029931074;0.16352548;-0.40729958;0.15270633;-0.052878562;-0.065542385;-0.049040474;-0.056282993;-0.26765868;0.114193976;-0.20230792;0.014187437;0.05191556;-0.035478406;0.06601492;-0.073545806;-0.078665614;-0.14384647;-0.0913303;0.049560297;-0.08691523;0.15471356;-0.14048158;-0.17980653;0.0065268115;0.08047337;-0.041977316;0.16378272;-0.0047383574;0.18184191;0.20409745;-0.072340176;-0.14360447;-0.011876286;-0.06734293;0.014045755;-0.06435599
0.034678593;0.03673122;0.015964169;-0.2971992;0.010596268;-0.18540588;0.030290246;-0.071054146;0.19193724;0.18911864;0.18672024;0.035363767;0.03731688;-0.03422813;0.23953581;0.07619438;-0.0066721104;0.2349747;-0.28344783;-0.11873259;-0.015732614;-0.06678455;0.061542973;0.033417292;0.09836804;-0.019506143;0.03260068;-0.09649851;-0.06944172;0.09928279;-0.07971261;-0.07435815;0.058110222;-0.14198992;0.07776989;-0.056754764;-0.015435389;-0.002424546;-0.11886817;0.15194626;-0.03015436;0.17972559;-0.14115886;-0.1760894;-0.087180145;-0.09906176;0.094435036;-0.06613047;-0.051638294;-0.21990684;-0.016589107;0.20436387;0.28729993;0.0805364;-0.31816384;0.014204604;-0.07125254;-0.04363631;-0.10704198;-0.006442998;0.06290343;-0.19027221;0.20169903;-0.23244858;0.22878398;-0.17576332;-0.10571245;0.1324498;0.16392307;-0.02601712;0.026090099;0.33176196;0.05890116;0.041942354;0.16398264;-0.094126634;0.14938214;0.24270158;0.13405414;-0.0103782965;0.049809046;-0.029183527;-0.031135231;-0.017915746;0.024875142;0.22237623;-0.2024339;0.047327757;-0.16048345;0.13288766;-0.20691384;0.19495112;0.016737377;-0.033892214;-0.18320967;0.019322366;0.15966734;0.10189734;0.048417073;0.1248166;0.12774637;0.10005123;0.23957925;-0.10878407;-0.006696729;-0.10396105;0.04589928;-0.076259084;-0.034924697;0.06939001;0.11935998;0.14222768;0.005307419;-0.097269714;0.018798448;-0.031070264;-0.09102645;-0.024196694;0.076465935;-0.015532789;-0.098170295;-0.08757174;-0.11982554;0.00014177753;-0.23056534;0.025352815;0.17161706;-0.09474505;0.022124672;0.07303576;-0.05448658;0.051843293;-0.19308183;0.14067854;-0.12720901;0.062097993;-0.08394543;0.0588202;-0.006290817;0.05102719;0.14890571;-0.11519697;0.035483588;0.099988185;-0.21251145;-0.087641366;0.06325364;0.13453193;-0.010053102;0.019422345;-0.04109714;-0.001758308;-0.0130267115;-0.102541246;0.10590232;-0.00067166175;-0.24095005;-0.18146224;-0.084535375;0.11652733;-0.0149458535;0.12653995;0.016427452;-0.005364896;-0.04259291;0.034893796;-0.093733996;0.02141204;0.1392961;-0.031259116;-0.061224192;0.0017214766;-0.011821892;0.06727209;-0.26088157;0.07222863;0.06874603;-0.05923322;-0.07998563;0.037365258;-0.004638538;-0.10174831;0.17999938;-0.12357047;0.0063876067;0.328395;0.0050014392;-0.222696;-0.07505235;0.0057335743;-0.21599384;-0.17519937;-0.054633845;0.058443036;0.21210574;0.13080834;0.18088388;-0.16135333;0.07795248;-0.052595496;0.16054165;0.07613475;-0.104554676;0.0022366773;-0.2168681;0.06624817;0.022921285;-0.124930166;0.12309171;0.045441557;-0.10217119;0.22376278;-0.028372046;-0.052803792;0.16088995;-0.13400571;0.124376796;0.055305444;0.042915497;-0.023888241;-0.018657746;-0.081062116;-0.0066933483;-0.17626959;0.00560627;0.09798964;-0.14054951;0.21200195;-0.060183577;-0.079098985;0.005460224;-0.057514306;-0.13019438;0.09317734;0.21892788;-0.0698913;-0.11514746;-0.047991935;0.23990977;0.15725511;-0.01910738;-0.24985738;-0.17100175;0.14361504;-0.08295032;-0.10299741;0.18209517;-0.022107158;0.16019769;-0.13531855;-0.0316542;-0.09298101;0.012087206;-0.18330193;0.11609842;-0.082209356;0.19455118;-0.17522754;0.12933375;-0.1637512;0.111715816;0.259925;-0.035508342;-0.073406145;0.011667029;-0.28150937;0.0017355451;-0.021936849;-0.02179153;-0.076882325;-0.08024127;0.06233754;-0.046013884;-0.08505439;-0.04251898;-0.07016724;-0.12222603;-0.020714551;0.14366207;-0.039901547;0.03745553;-0.3752138;0.10774566;-0.043184813;0.10575849;0.0074000736;0.0842226;0.21277203;0.032377753;-0.0069795963;-0.10553925;0.040177833;0.06186616;0.051193006;0.025532708;0.06669135;-0.028949201;0.15074109;-0.08493661;-0.031337015;0.031083938;0.036443304;0.14465407;0.11946091;0.010519935;0.034314994;0.121127434;-0.048280396;-0.091326766;-0.12344596;-0.06567917;-0.096284784;-0.061357874;0.04599953;-0.12249742;-0.004338259;-0.014272686;0.043303143;-0.052195895;-0.062167257;-0.045832746;-0.052968152;0.0092894435;-0.026732486;0.041575395;0.2107224;0.052089255;0.07288288;-0.1859778;0.015984677;0.13077666;-0.010661664;0.06752968;0.17239161;0.02849991;0.22305557;0.18018211;-0.049447365;-0.08123882;-0.0075734435;-0.1188372;0.0932861;-0.06267197;-0.004351313;0.0003800564;0.13056684;0.15839837;0.12645216;0.01897873;0.057603583;0.20007606;-0.0026548316;0.19740738;0.16625595;-0.072436415;0.23348132;0.15497941;-0.022116497;0.21673456;0.008527172;-0.27582484;0.10853241;0.03376175;0.059797022;0.20527394;-0.07303908;-0.11408643;0.06611156;0.03948484;0.09230754;-0.030377662;0.02569566;0.09940338;0.12897302;-0.032917205;0.0060629593;0.010778545;-0.3173898;-0.06026844;0.03929698;0.0246502;-0.27136365;0.0525475;-0.1416852;-0.018745089;-0.12780027;-0.105791636;0.033168737;-0.10889747;0.04731074;-0.10163829;-0.07306026;-0.040108033;-0.056096558;-0.017208083;0.18119374;0.047456734;-0.042559158;0.14379063;-0.007815545;0.13240574;0.11722327;0.023834553;-0.008616338;0.18364494;0.013782422;0.052019138;0.023782145;0.08060311;-0.31584108;-0.16033527;0.007060994;-0.04209584;0.0031210028;0.15425155;0.121910304;0.017602095;-0.14020905;0.0067945635;0.25884402;-0.22576316;0.042034104;-0.18324722;-0.050868742;-0.09017046;0.11022077;-0.16210839;0.022121506;-0.014600793;-0.20386715;-0.11090006;-0.1324993;0.070565;-0.18299949;0.031106997;-0.057566002;0.024425246;0.08050398;-0.15414788;-0.22973284;0.04868262;-0.053859532;-0.063278094;0.22098516;0.12507567;0.0218991;-0.21142668;-0.04439662;-0.06967276;0.16467087;0.03881429;-0.00061270857;0.32765257;-0.003877723;0.045351118;0.05844619;-0.014719026;-0.12305405;-0.11389591;-0.08205154;0.054368213;0.028053548;-0.13758473;-0.041693024;0.18182318;-0.13247192;0.027553046;0.0012500292;0.07134879;-0.0544476;-0.03800993;-0.21285287;-0.116062894;0.13205092;0.060453817;-0.12246566;-0.046614025;0.07302789;0.08753397;-0.042643238;-0.022263741;-0.03117662;0.09751837;-0.1632185;0.26301998;-0.06800089;-0.06504813;0.1627515;-0.028896578;0.09465149;0.02746464;0.1422323;0.13899186;0.107517235;0.06778695;0.12297927;0.08445844;0.008514435;0.16332918;-0.12372674;-0.097915016;0.044825505;0.00092993473;0.1253352;-0.012944524;0.19869877;-0.10605526;0.15315829;-0.05542279;-0.0370959;0.2074561;-0.101389594;-0.07900353;-0.08464922;-0.08530055;0.14419076;-0.008293747;0.06275491;0.10165272;0.110947795;0.098267384;-0.04777526;-0.2849314;-0.10090459;-0.19261374;0.17555155;-0.117851965;-0.043075252;-0.06971875;-0.19385026;0.11406053;-0.32729957;0.0974119;0.16204122;0.0563277;-0.22904058;0.017859116;-0.06146232;0.0062478413;-0.13896053;0.083237365;-0.3406988;0.20943631;0.07071752;-0.029978445;0.05380592;-0.059235137;-0.2603338;0.16355313;-0.061114125;-0.12585877;0.11593619;0.02400541;0.06265178;-0.036282364;0.06800492;-0.17044593;0.02023066;-0.10508275;0.026592074;0.049564876;-0.15378778;-0.122046925;0.0511049;0.017197851;-0.04213806;0.06978276;0.062367268;0.22147149;0.21205328;-0.08637131;-0.14280474;-0.10559978;-0.09096529;-0.04066378;-0.03359772
0.09322972;-0.01151471;0.03428958;-0.32409033;0.0347676;-0.14130159;-0.0013186015;-0.120555356;0.15622906;0.083064206;0.24347197;-0.0577483;0.081928745;0.07832631;0.2759649;0.06410397;-0.19056907;0.1363562;-0.17494534;-0.059683584;-0.031324357;-0.12058692;0.16477108;0.060666516;0.1667668;0.0962607;-0.00957777;0.13647817;-0.13871396;0.12807246;-0.036372107;0.03735986;-0.004576811;-0.040539175;0.009383049;-0.048690926;0.17489712;-0.034878567;-0.09800272;0.027081309;0.14598437;-0.046592116;-0.09388696;-0.2015394;0.055115953;0.0078113102;-0.030576352;-0.03782322;0.01705215;-0.21348457;0.0627938;0.11837685;0.06116857;0.068278015;-0.23587947;-0.04507472;-0.023506727;-0.023665387;0.050709456;-0.032704927;-0.074053906;-0.053735014;0.19704106;-0.11711067;0.15079664;-0.21481062;0.029834868;-0.049303427;0.26373473;0.14542034;-0.1014988;0.11847202;-0.08737595;-0.00906823;0.11789822;-0.02476907;0.15222175;0.11725402;0.13851191;0.022165028;-0.02144819;-0.0871369;-0.08325056;-0.070327744;-0.13226937;0.06544228;-0.22713704;0.106142014;0.012711471;0.064904824;-0.07878841;0.15749215;0.007177057;-0.07072145;0.0017967545;-0.25631517;0.14936608;0.06349646;-0.074206315;0.059732582;0.015806708;0.094172776;0.14965424;-0.1603152;-0.114718676;-0.121077426;-0.08674835;-0.050784424;0.106783144;0.10694835;-0.01176737;0.13105874;-0.016860835;-0.2148003;0.19270867;-0.0683869;0.061700854;-0.04377482;0.19039086;0.01337318;0.019287873;-0.027505737;-0.13077182;0.010110061;-0.13878158;-0.04413506;0.2034755;-0.039296933;0.13085869;0.071585044;0.11291057;0.072156385;-0.1412258;-0.10171369;-0.0358963;0.13785043;-0.15493757;0.07721212;-0.18763734;0.07316153;0.05230238;-0.08694101;0.05878553;0.21395665;-0.19730791;0.027093604;-0.07337416;0.16970865;0.008096409;0.04716291;-0.12446689;0.12578034;0.014860919;-0.0031888783;0.11701564;0.06975864;-0.1671023;-0.21868709;-0.12369955;0.031336255;-0.029809339;-0.008649719;-0.04258878;0.07412118;0.0028191057;-0.047631133;-0.1453323;0.018099105;0.091394514;0.0029848467;-0.4873522;-0.093614794;0.16592419;0.0027677359;-0.25011924;0.14249977;0.09596784;0.12925926;-0.022765975;0.06647668;0.060746692;-0.21044898;0.17331606;-0.04261461;0.014307558;0.23334607;0.06667946;-0.09551055;-0.16477713;-0.045105543;-0.07273862;-0.110045336;0.019091874;0.22161804;0.15804914;0.06800003;0.19306584;-0.11044534;0.091762565;-0.14379314;0.14218806;0.049005125;-0.10908214;-0.018094318;-0.21702737;0.06500429;-0.04027942;-0.15951751;0.20246974;-0.087727055;-0.16349629;0.19162478;0.034176264;-0.044113655;0.13637507;-0.12331984;0.08771235;0.03521362;-0.04195227;0.10157239;-0.010247152;0.036728688;-0.10236767;0.029379167;-0.15186273;0.025726875;-0.0015143509;0.19642809;-0.050552744;-0.02879449;0.0468934;-0.012168235;-0.18555675;0.075971425;0.1478429;0.039008755;-0.018443769;-0.11046722;0.31681907;0.021709798;0.110987686;-0.013624683;-0.2813797;0.25836164;-0.18547608;0.009547387;0.1746473;0.032477647;0.15977792;0.023094732;-0.033952907;-0.036226217;0.009872474;-0.13633688;-0.063885644;-0.16873918;0.26100147;-0.19212803;0.23320735;-0.07439245;0.12869751;0.23355053;0.069875784;-0.0059473123;-0.059158783;-0.07822381;-0.04703719;0.087045714;0.0045831655;-0.06021405;-0.06945904;0.19590452;-0.07971589;-0.15898043;-0.018756911;-0.07893994;0.020336052;0.104351915;0.110656805;0.05245926;0.104936376;-0.38846675;0.2949807;-0.03525595;0.118385375;-0.07028558;0.14446327;0.12804249;0.06390463;-0.084262155;-0.027439158;-0.032407355;0.18544985;0.06289734;0.12118637;0.039745595;0.12008526;0.17557763;-0.029287685;-0.005918549;-0.082087815;-0.017812476;0.1461527;0.063756466;0.16803871;0.17979875;0.15662144;-0.043663327;-0.2417589;0.14428377;0.06563809;-0.08452145;-0.07187689;0.0036382952;-0.030390538;-0.12243046;-0.08578363;0.16114128;0.021359678;-0.072001696;-0.14349692;0.082004115;0.011039076;0.08838055;0.18785298;0.20377152;0.18223828;0.072106354;-0.069456905;-0.23525955;0.08768927;-0.2394606;0.08758706;0.06367347;0.050220773;0.14377485;0.03329063;0.042946104;0.007975154;0.053657997;-0.088872634;0.12803511;-0.0400958;-0.052852552;0.09495471;0.13784675;-0.00857587;0.03165303;0.053327087;0.23390903;0.1230872;0.09648283;0.025463186;0.13091555;0.022249162;0.08462571;0.03469052;-0.11528084;0.13232763;-0.017176943;-0.056468062;0.08734063;0.046102975;0.12760375;0.24867916;-0.057957005;-0.27006862;-0.115340784;-0.0021051487;-0.028642574;0.037441563;0.08715724;0.1722522;0.066046;0.15075459;-0.048899524;0.022828816;-0.35087898;-0.007450383;0.10333114;-0.11531339;-0.13588342;0.080700144;-0.0930544;0.01619875;-0.09663115;-0.07350113;0.088730045;-0.110394225;-0.08067043;-0.0835767;-0.055627465;-0.041192207;-0.07470173;0.010014977;-0.018765684;0.14814295;-0.042077746;0.00036082024;-0.05618967;0.03945297;0.090116926;-0.07611611;-0.20416059;0.30296808;0.16910627;-0.020428933;0.0929822;0.10166254;-0.020869058;-0.03171002;-0.08701473;-0.0022537936;-0.075259514;0.20924926;0.013130219;-0.0140793;-0.17136648;0.17780147;0.07094127;-0.08591707;0.103327066;-0.032759137;0.010654196;-0.023800528;0.09708922;-0.15143348;0.12066305;-0.03392898;-0.18233927;-0.081441574;-0.3588489;0.034540113;-0.102439396;0.05237541;-0.123605244;0.1538798;0.01439991;0.07661312;-0.17049028;0.08688174;-0.14645945;0.16085139;0.109143674;0.13349198;-0.008827776;-0.11459426;0.046164475;-0.12436854;0.12577508;-0.055096116;-0.14371437;0.33149388;-0.13514604;0.017728856;0.05713611;0.029887622;-0.1876809;0.0004554027;-0.041650746;-0.097274356;0.055871207;-0.13743454;0.030957382;0.106535316;-0.14699809;-0.025136366;-0.0022052368;-0.028641317;0.04497447;-0.12592186;-0.14341594;-0.04336437;0.18374975;0.08905782;-0.14044625;-0.065933466;-0.052304;-0.013329269;-0.025799775;0.009649088;0.10443137;0.14625314;-0.0040353965;0.184564;-0.23268063;-0.06534391;0.14152397;-0.026879214;0.054580357;-0.039180994;-0.057061397;0.004847641;0.24933152;0.0071625737;0.009760409;0.13547862;0.024009138;-0.020432351;0.120384894;0.04516811;0.032757506;0.046156056;0.119342;0.011275575;0.11591338;0.004259268;0.08156133;-0.09937431;0.15922993;0.15739962;-0.08139481;-0.17119107;-0.22079356;-0.0069154357;0.060523022;-0.09533536;-0.039027397;0.2205254;0.103583425;-0.07045203;0.10850121;-0.22595645;0.065241314;-0.03631858;0.22113171;0.039186165;-0.02197262;-0.14504239;-0.10654107;0.11458634;-0.25319627;0.12749827;-0.04332325;-0.12563406;-0.13318829;-0.0008303456;0.06051898;0.022708807;-0.30458114;0.022232652;-0.1663029;-0.0008310994;0.039013017;0.042333376;0.019081984;-0.15420337;-0.09674895;0.046729263;0.0013847194;1.47516075e-05;0.13126346;0.055948757;0.17938435;0.012815181;0.01417176;-0.058880907;0.015061431;-0.10038945;-0.1203025;0.14091459;-0.0823365;-0.14858687;0.19898418;0.11213999;0.013218149;0.053536147;0.0035330402;0.25169104;0.19952966;-0.08124203;-0.027326003;0.082820386;-0.0722127;-0.08434407;-0.10015436
0.07077732;0.100717455;0.07108804;-0.28302062;-0.07311956;-0.2050484;0.11630711;-0.016332194;0.25029108;0.1431463;0.29109797;0.13291502;-0.06112735;0.005410202;0.23329774;0.054048374;-0.16809519;0.14004964;-0.20630203;0.019668307;0.08757819;-0.047185414;0.10600011;-0.11469764;0.07848511;0.13505577;-0.0062564127;0.014609309;-0.1699024;0.20609303;-0.23799933;0.073445655;-0.025860135;-0.30469865;-0.111887574;-0.17990893;0.012270445;-0.07467832;0.10418118;0.09173814;0.07718067;-0.037354182;-0.10557005;-0.038223434;-0.010701319;-0.07007002;0.08555778;-0.049642928;0.12572655;-0.26207277;0.09655883;0.10692577;0.10138207;0.07216805;0.037986875;-0.14505264;0.073926255;-0.077563204;0.0026255497;0.05699203;-0.09522375;0.044905376;0.2246375;-0.15826003;0.11489677;-0.14480627;0.06577803;-0.16396146;0.12573753;0.19410563;0.014090371;-0.013571958;0.050355986;0.011830823;0.07565701;-0.09055471;0.12772849;0.117561206;0.09905617;0.08939776;0.049697492;-0.07733238;0.05373864;-0.12245952;-0.091920905;-0.101451226;-0.35635176;0.04769022;-0.039046906;-0.017702408;-0.0490153;0.21808058;0.06297685;0.16273564;-0.1670134;-0.30201107;0.04962152;0.08258253;0.036725026;0.14738588;-0.009470541;-0.03678657;0.17586868;-0.0093074115;0.020835819;-0.00061192433;-0.121576704;0.027916921;0.100539364;-0.0044329674;0.11900138;-0.070492834;0.013178593;-0.12833937;0.07928942;-0.027568389;-0.014201437;-0.1961779;0.12083426;-0.059614897;0.13640562;0.018314654;-0.09674044;0.01630618;-0.109079294;0.06215844;0.085139334;-0.0059641595;0.15949804;0.11184793;-0.017873783;0.016038414;-0.15730523;-0.13364078;-0.03465065;0.12591834;-0.20456895;0.095522314;-0.12672918;-0.0066304356;0.19702987;0.10304218;-0.022135094;0.11747439;-0.13735704;0.10973576;0.13254169;0.015594866;-0.14719851;0.084778026;0.023220768;0.0056071356;0.016828695;0.06453713;0.03565827;-0.110198505;-0.082779735;-0.18268625;-0.016872356;0.13146737;-0.06882994;0.027013231;-0.07270969;-0.0061129117;0.008662652;0.003199189;-0.23142967;0.07154841;0.13826708;-0.012446549;-0.51816785;0.0769563;0.074234195;0.015080134;-0.20775911;0.22308895;0.071063146;0.17272198;-0.12032766;0.09455441;0.16602476;-0.14568408;0.23707213;0.058935184;0.019571142;0.23888454;0.07167257;-0.07873648;-0.054505736;-0.072274216;-0.1662958;0.06995003;0.0950671;0.02728546;0.10494715;0.13637072;0.11112136;-0.07422487;-0.03159666;-0.11038489;0.11506408;-0.08570453;-0.05269203;0.13040388;-0.0984516;-0.028872527;-0.039743196;-0.08667836;0.19566861;-0.010478784;-0.07542205;0.18332341;0.0433143;0.017812673;-0.047879115;-0.07210612;0.07673052;-0.006885009;-0.017133385;0.11442122;0.09985364;-0.15610223;-0.18790935;0.050464846;-0.0553266;0.07447298;-0.051548682;0.14446269;-0.08221247;-0.03905896;-0.087305754;-0.10826605;-0.23658155;-0.023507202;0.2256989;-0.012354524;0.05170917;0.0060759285;0.28170824;0.08862672;0.17696494;-0.108719766;-0.11454155;0.21660058;0.09461827;-0.1730957;0.24104095;0.04898392;0.07825408;0.08889244;-0.092937775;0.12571271;0.003244863;-0.1467503;0.15752932;-0.2549052;0.22593504;-0.20480694;0.16114658;-0.0798779;0.12609677;0.16843043;0.035445236;0.11089047;-0.115667805;-0.14605413;-0.0598339;0.007156883;0.038736057;-0.04494124;-0.05522341;0.080009565;-0.045816485;-0.039480492;-0.11430985;0.041720927;-0.12932578;0.116331995;-0.002526867;0.11244431;0.15998827;-0.36766562;0.24196614;-0.031619187;0.043825943;0.07403999;0.060086887;0.22838448;0.12602565;-0.001454497;-0.04033881;0.058659162;0.08302896;0.033213776;0.24096403;-0.054355085;0.023627864;0.11397526;-0.042239625;0.1268779;0.00045492305;-0.04918884;0.12728538;0.07316809;0.028448671;0.20069988;0.055423513;-0.02897683;-0.17267288;0.16135663;0.09850852;-0.1751314;0.0030476016;-0.087741375;-0.034684893;-0.19411798;-0.032971207;0.12789208;-0.026023554;-0.010470403;-0.032715634;0.14617354;-0.018278562;-0.10081865;0.15466897;-0.10073339;0.18145925;0.019908112;-0.24421741;-0.31684762;0.18550351;-0.11159738;0.13867004;0.15316215;-0.005271053;0.11073226;0.031007221;0.0144458;0.06999384;0.080802895;-0.0048972643;0.17331149;0.06051801;-0.09957037;0.19271767;-0.046941187;-0.03563944;0.09255816;-0.008124251;0.0309549;0.2734152;-0.056621768;0.035805807;0.030930594;-0.05636721;0.14168766;0.02994966;-0.12720385;0.18717323;-0.11395974;-0.07813902;0.18688212;-0.029917225;0.08343274;0.16575994;0.0057996395;-0.23635133;-0.1067194;0.13502038;0.13793258;0.09692331;0.08882274;0.010917121;0.043469865;0.0047275815;0.10820836;-0.058458813;-0.12246855;0.013788674;0.18307912;-0.014650943;-0.25331402;-0.0393232;-0.14944777;-0.029756615;-0.07531101;-0.13405982;0.19944434;-0.10635954;-0.0832505;-0.0947562;-0.25303325;0.02866467;-0.05890882;-0.0028674977;0.18777148;0.117379524;0.087038584;0.081864305;-0.06353888;0.032504935;0.082153015;0.05386793;-0.24602044;0.2100719;-0.060352825;0.05309261;0.04691469;0.09723746;-0.0073329485;-0.033001103;0.043234657;-0.09441664;-0.09556682;0.10754804;0.11222523;-0.023399653;-0.13871919;0.022939093;-0.027886948;-0.19177198;0.07413986;-0.13028695;0.0076559098;0.10980978;0.04463761;-0.07902055;0.22312438;0.12146962;-0.18960886;0.051554773;-0.34652865;0.038241904;-0.21312237;0.02220714;-0.13894258;0.014631426;-0.049266;-0.05753216;0.09359082;0.036148652;-0.024166917;0.09194223;0.15987293;0.05645457;-0.08158528;-0.10862907;0.07047817;0.03235992;0.23475492;0.025185762;-0.02669956;0.19117668;-0.0021074223;-0.026842449;0.17066275;0.061318755;-0.210303;0.06167871;-0.0007623988;-0.043148853;-0.061398156;-0.1402417;-0.023386473;0.15466599;-0.0039630453;-0.19366534;0.058848593;-0.06032965;0.1314775;-0.08557053;-0.10635656;0.06164048;0.16630688;-0.06869497;-0.08313056;0.040623285;0.054845024;-0.06858256;0.029299766;-0.0113991285;0.12413126;0.18613459;0.0061575607;0.19012317;-0.22348972;0.02235158;0.09482162;0.104489885;-0.014420944;-0.07753639;0.055007666;0.0367466;0.3650872;-0.016224105;0.14784835;0.30239683;0.043310806;0.07864835;-0.13605653;0.019131823;-0.0029887862;-0.08403367;0.17019466;0.02472746;0.18428001;-0.0011878383;0.1538214;-0.26742256;0.10858052;0.056894608;-0.15168995;-0.08102972;-0.11554818;-0.061709344;0.05783828;-0.06128915;-0.14048855;0.24841289;0.040586166;-0.09648168;-0.024039034;0.014664737;0.0065565566;-0.12287304;0.25998867;0.19926214;0.06591827;-0.13513033;-0.12034009;0.058789294;0.005098091;0.23507851;0.029036777;-0.07245691;-0.22973053;0.039976023;-0.033658374;0.19020739;-0.35452318;0.01918527;-0.23865533;0.104124665;0.14586414;-0.06375896;0.08974599;0.10592291;-0.09350378;-0.017638983;-0.023636714;0.11631017;-0.008176072;0.03401936;0.13753535;-0.029121332;-0.032045603;-0.04140252;0.14090228;-0.2474073;-0.07473441;0.21654762;-0.020091552;-0.043411635;0.18566233;-0.044807468;0.15131907;0.06512582;0.0015125688;0.08257319;0.30738184;0.12690584;0.080679245;0.10231648;-0.074105725;-0.0017355108;-0.09444424
0.109592296;0.14159618;0.195076;-0.21481732;-0.04355318;-0.16936702;0.13625783;-0.021204125;0.14541204;0.14225028;0.266172;0.1334898;0.019677386;0.038227182;0.2827945;-0.0039416826;-0.2025132;0.21625304;-0.24126524;0.09752279;0.082182206;0.0008528345;0.0697827;-0.05251716;0.3214214;0.19641224;-0.0032649005;0.18660128;-0.26158756;0.26764247;-0.10315213;0.124389224;-0.018246183;-0.087192826;-0.09530016;-0.1533905;0.016622629;-0.11703831;0.039724726;0.0020954884;0.042163674;0.018284414;-0.13982242;-0.13160378;-0.054289974;-0.121658154;-0.004558041;0.063757695;0.027333818;-0.11661919;0.02580718;0.10399965;0.14544721;0.14437565;-0.0015521856;-0.15067595;0.08043059;-0.2403949;-0.08254899;-0.013654883;-0.16567118;0.13683122;0.08846546;-0.04946445;0.12548305;-0.13477626;0.14922386;-0.073487416;0.19234069;0.06588968;0.07728726;0.039281566;0.028895414;-0.004441913;0.08242957;-0.064506575;0.1329348;0.11883118;0.11792996;0.15399516;0.17572951;-0.018125677;0.13254878;0.033830117;-0.122301035;-0.122855775;-0.3712402;0.15872203;0.015078314;-0.054190304;0.034486253;0.14752986;0.010151992;0.10058806;-0.07137869;-0.30584925;0.015450975;0.12837891;-0.015675887;0.0950619;0.019994011;-0.06436128;0.17207123;-0.08660001;-0.036748067;-0.064063355;-0.10043239;-0.055473898;0.061766278;0.07189047;0.13558324;-0.046546012;-0.18410687;-0.08809873;0.046332408;-0.109612375;-0.048111867;-0.2955165;0.05027201;-0.022819323;0.06445823;0.08487142;-0.22480766;0.054071043;-0.14618663;0.07677768;0.28725052;-0.045713928;0.032206446;-0.030060638;-0.010506537;0.03986454;-0.2706463;-0.17125341;-0.13387573;0.0917741;-0.20681337;0.05236926;-0.099758565;0.12823968;0.06430502;0.0882366;-0.16191967;0.036779888;-0.13129722;-0.025953647;0.12059166;0.099840306;-0.016921045;0.13932998;-0.032142892;0.0039612525;0.1966754;0.033695955;0.06772343;0.026041947;-0.09994832;-0.10677379;0.048457332;0.08940381;-0.0258939;0.04603865;-0.12710671;0.0007420413;0.014496231;-0.15936033;-0.31437057;0.18475035;0.17421487;-0.035922002;-0.52656394;0.05007988;0.19196323;0.2096945;-0.24875903;0.14765255;0.112362295;0.18026294;-0.065917365;0.15056302;0.030880779;-0.2277888;0.2601104;-0.04754429;0.07750797;0.10212287;0.0025888425;-0.0367968;-0.085452005;-0.07156008;-0.13705298;-0.013698814;0.045272425;0.21721365;0.16239497;0.12227319;0.0983279;-0.10103463;0.08016909;0.0023590182;0.08686504;0.040747803;-0.122715846;0.15170763;0.02164655;0.074835576;-0.033846684;-0.030609673;0.15061174;-0.06490755;0.016767172;0.28077537;0.026370792;-0.0780548;-0.017604256;-0.14075197;0.072162695;0.11884703;0.097587004;0.13845953;0.059252962;-0.0071843634;-0.073633455;0.005882773;-0.108570166;0.0033140501;0.0011692169;0.30525395;-0.048907362;-0.024070784;-0.108387955;-0.03315761;-0.39961356;-0.04505709;0.17417303;0.0060344334;-0.038509075;-0.08569729;0.33307093;0.09180823;0.21416616;-0.112357415;-0.058486834;0.19930097;0.088064194;-0.08539385;0.290137;-0.15017985;0.13708267;0.10386883;-0.030084206;0.23372018;0.09200766;-0.14806351;0.19946866;-0.29531354;0.22081831;-0.012237538;0.17919557;-0.22866265;0.15728311;0.21034306;0.008713157;-0.009547852;-0.12752166;-0.17284736;-0.15333804;0.009812744;0.08191023;-0.053273287;0.04377445;0.18341227;0.008305389;-0.069186375;-0.18829195;-0.023297561;0.022551134;0.06711887;0.04995211;0.117161766;0.16539426;-0.33363268;0.279965;0.060622178;-0.07256253;0.008064461;0.07928873;0.34804988;0.07461588;-0.15077808;-0.018397678;0.101484306;0.14031816;0.048584674;0.15191264;-0.11779694;0.16871336;0.20976858;-0.029279735;0.051565316;-0.02695027;-0.11335447;0.023815678;0.18038757;0.15834737;0.16361235;0.052669875;0.09715273;-0.21406327;0.15407033;0.056341622;-0.040143467;0.12736484;0.0016445412;-0.10103549;-0.06622699;-0.12806895;0.009298097;-0.1356352;-0.05873505;-0.043193035;0.06929079;0.012436508;0.02085548;0.15878041;-0.019943157;0.13787068;-0.008428599;-0.00867158;-0.23925;0.22729963;-0.20191221;-0.1337466;0.13445519;-0.025218247;0.08642958;0.027799875;0.066036016;-0.05455904;0.12625836;0.051870756;0.10217239;-0.10589099;-0.19894958;0.103381805;0.022995004;-0.07065754;0.027677415;0.06356775;0.031637553;0.2324724;-0.25581458;0.08765853;0.19488977;-0.01845823;0.10317918;-0.032088064;-0.06814274;0.13474834;-0.0441454;-0.17597434;0.31437358;0.041050535;0.0861287;-0.0015163784;0.09536717;-0.103728466;0.020604255;0.105909616;0.102352925;0.15269898;-0.016282003;0.13963152;0.11058636;0.15769547;0.13311066;-0.028153095;-0.21596555;-0.04416575;0.13200618;-0.11593902;-0.3906934;-0.04245136;-0.15935045;-0.060867786;0.05964543;-0.16146271;0.14322054;-0.12801732;-0.057642527;-0.14069083;-0.2475132;-0.0015118009;-0.14551032;-0.17279115;0.07676465;0.18544285;-0.014187394;0.035988398;-0.08587788;-0.019935401;0.07147278;-0.040729262;-0.15468101;0.12643805;0.13717434;0.13350545;0.17366518;0.099873975;-0.07819486;-0.17923461;0.054696243;-0.13263719;0.12009145;0.11301248;0.038168997;0.010830889;-0.22103617;0.16405162;0.030330207;-0.15401334;0.1464447;0.07147718;-0.043042317;0.15036735;0.03796229;0.12976144;0.23306595;0.14738138;-0.07112729;0.114826836;-0.3307141;0.09798277;0.005937376;-0.055928666;-0.226492;0.110855564;-0.031339116;-0.095291086;0.025561148;0.09353244;0.071300454;0.14430685;0.27058896;0.025211327;0.035737533;-0.16986395;0.10358707;-0.031865682;0.28489643;0.20775388;-0.17978857;0.20220217;-0.0098256115;0.07158267;0.17038192;0.09697765;-0.24807641;0.10015288;-0.13773029;0.033755835;0.066792615;0.081865735;0.025923144;0.22839971;0.023821479;-0.14649014;0.11173017;-0.056343567;0.02305164;0.019513732;-0.19968392;0.15052962;0.28598243;-0.0021830867;-0.029547866;-0.12945175;0.015736146;0.03814728;-0.0818207;0.0022007863;0.15621835;0.20475735;-0.10243077;0.32274732;-0.062394384;0.039784048;0.006366072;0.14908446;-0.10950621;-0.048499618;0.17840761;0.14323321;0.34549713;-0.08711807;0.22482947;0.21560216;0.0043656947;0.107544325;-0.19935311;0.03911136;0.04898853;0.10730319;0.18421125;0.19255926;0.135767;0.048906494;0.16016822;-0.23452932;-0.00082176784;0.23062937;-0.16254833;-0.08360499;-0.11994315;-0.013500104;0.12289453;-0.060332954;-0.0663744;0.16239169;0.09505887;0.009119434;-0.015520072;-0.11007787;0.017195767;-0.09975976;0.19222328;0.21324882;0.010217157;-0.1585197;-0.18546641;0.15900366;-0.024465248;0.26089796;-0.02176133;0.022099907;-0.14927794;-0.008451219;-0.017980084;0.118823394;-0.32172942;-0.07310126;-0.29787132;0.04572803;0.103856266;-0.18779323;0.03501735;-0.0030313737;0.0430417;0.047983374;0.041467458;0.22589691;0.062665954;0.17169142;0.07342214;-0.07252201;0.07186666;0.059903473;0.15890808;-0.13336204;0.006969377;0.23164824;-0.021339819;-0.11856388;0.002969102;0.010933488;0.18703854;0.13346091;0.06678761;0.2036257;0.17533287;0.11361588;0.07886947;0.004655463;0.020344011;-0.05469578;-0.036665417
0.021584975;0.011870684;0.062200535;0.044198908;0.13059737;-0.1140036;0.11926812;-0.06951276;0.2516355;0.01415111;0.2269065;-0.05288665;-0.08095464;-0.103217855;0.1971282;0.071518295;-0.13051555;0.06395579;-0.22843185;0.18567097;0.19160694;-0.053705692;0.12553893;0.03405353;0.09000699;0.22127567;-0.0454046;0.08466608;-0.32052845;0.23052509;-0.04885803;0.17454311;-0.005097225;-0.20316504;-0.036015723;-0.086194806;0.13034561;-0.03317541;-0.03826635;0.0012194073;0.12205341;0.094845995;-0.09387996;-0.06941967;0.0020505262;-0.24833922;0.020307826;0.084803335;0.2019479;-0.21840233;0.07402418;-0.011330841;0.28014502;0.10205221;0.11387501;-0.26855358;0.090255134;-0.124452166;-0.016321562;-0.03933845;-0.13820545;-0.001248109;0.06681358;-0.24916574;0.13903129;-0.12552384;0.08767781;0.027094861;0.15979277;0.1831757;0.066210344;-0.080823906;0.16744885;-0.053397097;0.25293142;-0.01895376;0.111968555;0.18803848;0.091352634;0.015224684;0.072684675;0.011201616;-0.0012199437;-0.024421863;-0.18520834;-0.015430382;-0.4639475;0.024490586;0.093058445;-0.14035322;0.08638139;0.09761493;-0.103921734;0.06252636;-0.09490021;-0.25279376;-0.034935907;0.10451913;-0.10670978;0.10637935;-0.053697657;0.027136138;0.12089704;0.0012857296;0.0064167334;0.10034021;-0.14305627;-0.081920356;0.015442314;-0.021749588;-0.029038668;-0.072326235;-0.1910548;-0.058600806;0.07865497;0.012037927;0.024713885;-0.28930926;0.18627568;0.11443333;0.047201116;0.08323931;-0.2922253;-0.05585677;-0.27085766;0.048310433;0.29958528;0.15185651;0.045058113;-0.086697064;-0.004377795;-0.12059064;-0.19798467;-0.10503084;-0.06018909;-0.045870516;-0.110989735;0.12468494;-0.08339513;-0.0010860813;0.12418579;0.0960107;-0.0087195225;0.17241055;-0.027464096;-0.10178296;0.0018555807;0.10644864;-0.06593428;0.23591611;-0.05585483;0.13406523;0.11743635;0.000671549;0.024031524;-0.09728244;0.02460776;-0.07193235;-0.047636837;0.12073092;-0.07564764;0.048771925;-0.112712465;-0.005991936;0.00045862282;0.007892411;-0.35033447;0.2904268;0.24044313;0.09974322;-0.5532241;0.045155525;0.05163771;0.16074231;-0.15171492;0.107758366;-0.022057926;0.046969548;-0.019451957;0.07681716;0.04819692;-0.17393646;0.15833685;0.083028026;0.1363934;0.07139038;0.14087868;-0.07969577;-0.21842149;-0.17938305;-0.028201306;-0.051659133;-0.035726618;0.08064345;0.14685757;0.19153541;0.056367684;-0.22088581;0.0061548604;-0.026947986;0.27133507;0.15370616;0.06366407;0.1446769;-0.04274983;0.12985928;-0.091874085;0.07914289;0.23297943;-0.16712528;0.1913009;0.127302;-0.07774608;0.03388076;0.0027317118;-0.011307882;0.008907879;0.09546932;-0.11566749;0.17977056;0.07752579;-0.011821091;-0.049117822;-0.00054246595;-0.2003384;-0.19767055;-0.11839046;0.34679613;-0.043944813;-0.051537637;-0.059665363;-0.062612005;-0.38465914;0.07191347;0.16937687;-0.04094296;0.099493995;-0.05293847;0.34307665;0.17394306;0.17396113;-0.06561611;-0.1210525;0.17228064;0.03359323;-0.020657573;0.28254053;-0.006619097;0.08651376;0.10528101;0.022577465;0.18881482;0.0022310195;-0.14687306;0.1432265;-0.23882198;0.17727597;0.021971555;0.19747107;-0.13613288;0.20661506;0.21757896;0.03553597;0.17689776;-0.28333536;-0.12061413;-0.20003046;-0.015879055;0.029647075;-0.040968206;0.04207773;0.086411946;-0.13101768;-0.060998004;-0.3462348;-0.076154925;-0.11043327;0.11656765;-0.0002621148;0.107702;0.2669498;-0.36700323;0.15288123;0.073362865;-0.07928234;-0.062204096;0.050049115;0.46215028;0.20387638;-0.14056182;-0.07262819;-0.092371784;0.09632059;-0.106932096;0.2887648;-0.14112324;0.07367744;0.1794907;0.028169982;-0.0006816364;-0.09893836;-0.096236914;0.04421832;0.092685305;0.034023963;0.022565529;-0.040267315;-0.11735865;-0.22225678;0.11624796;0.07019786;-0.16547014;-0.017903939;0.07495668;0.056549948;-0.058527604;-0.15711147;0.09292073;-0.18799677;0.07098727;0.09229806;-0.05758767;-0.11438687;0.05779575;0.09842166;-0.014434045;0.09793066;0.12049249;-0.017135633;-0.27006245;-0.11045957;-0.23546953;-0.11301896;0.2997585;0.034417793;0.15523314;-0.0960397;0.16624305;0.076128;0.21972965;-0.05254663;0.16989239;-0.02036766;-0.17505369;0.11243425;0.06236592;0.17512085;0.16581064;0.13679771;0.022825925;0.2997358;-0.25067115;-0.022033235;0.10042103;0.12620291;0.05234801;-0.010867937;-0.08607981;0.26331025;-0.05080743;-0.07437216;0.13346282;-0.042303216;0.07066685;-0.05902752;-0.0708229;-0.0061911056;-0.037367765;0.21508737;0.10152429;0.058996275;-0.2120329;0.042348836;-0.030449037;0.13489634;0.035716813;-0.0876065;-0.14303647;0.09021763;0.03330545;-0.15106465;-0.26355842;0.11543506;-0.20060126;-0.17809628;-0.08471091;-0.17086631;0.27508798;0.03500487;-0.23528221;-0.133066;-0.24150528;-0.06667033;-0.12789853;-0.2464001;0.030531239;0.12534724;0.057612177;0.029273352;-0.0803414;0.23596078;0.09191737;0.018864391;-0.20443448;0.20305024;0.18607788;0.032946;0.07013225;0.08525999;-0.13557345;0.004285906;0.15778905;-0.24716774;0.029695509;0.11817718;0.0034265444;-0.0011275097;-0.30917355;0.19165139;-0.10906052;-0.13965026;0.05725325;-0.25098473;0.05321504;0.007859149;-0.08248543;-0.10246735;0.20652705;-0.067258626;-0.04165588;-0.055743914;-0.43717268;0.0365279;-0.013992584;-0.0019637374;-0.37780905;0.12547587;-0.011760625;0.008677639;0.008293141;0.16885482;-0.059850916;0.08923159;0.23853125;-0.07845867;-0.017668765;-0.13912581;-0.01193551;0.102422684;0.13065772;0.09691504;-0.004700219;0.30253592;-0.20048532;-0.13217084;0.11652907;-0.03411644;-0.05236579;0.27358466;-0.056733362;-0.093314394;0.09741308;0.06834448;-0.05586841;0.2293463;0.10890086;-0.061280217;0.010493894;-0.119348206;-0.060957987;0.04681238;-0.16261123;0.06510931;0.38069436;0.0099341385;-0.097222805;-0.20668025;0.006258557;0.09565238;-0.18683417;0.04323521;0.018720033;0.14109309;-0.050782897;0.28104624;-0.06888738;-0.028490962;-0.010373054;0.06270668;-0.09937911;-0.11056458;-0.03574856;0.15678538;0.17538053;-0.030995438;0.14694208;0.025512937;-0.08740032;0.055779465;-0.03034091;0.14524469;-0.029207977;0.18421718;0.16872627;0.032222442;0.2144424;0.031856474;0.26928023;-0.09009221;-0.019441372;0.16408145;-0.1652613;-0.29663536;0.030201076;-0.035045054;0.21070936;-0.1478797;-0.22272515;0.20264353;-0.05971611;-0.18479176;0.0025150122;0.06834881;0.054454662;-0.13377374;0.33507508;0.2764096;0.18860991;-0.1272571;-0.0697201;0.08152416;-0.12621407;0.20086774;0.035461873;0.28565776;-0.016256534;0.059808537;-0.015370317;0.12095907;-0.3228819;-0.13909297;-0.2773032;0.08670364;0.20327848;-0.2124528;-0.07984644;0.09398904;-0.014263138;0.04678226;0.08999976;0.20313843;0.0767049;0.22619382;-0.01838438;0.050835676;0.0627814;0.11314129;0.21299902;-0.1634773;-0.09307868;0.24193776;0.12737338;-0.032186285;0.11709939;0.049700025;0.16630901;0.11264087;0.119406015;0.109501086;0.26987848;0.112149306;0.11915408;-0.04902964;-0.038978968;-0.060732648;0.059302665
0.4709815;0.048752878;-0.14626467;0.0715523;0.120575376;-0.421504;-0.0580775;0.093237005;-0.24485114;0.18417893;0.29652315;0.16381016;0.06623406;-0.14024094;-0.07240635;-0.28674692;-0.028255833;-0.05651018;0.024470821;-0.18088733;-0.05646818;0.03281268;0.37898278;0.09034113;-0.115967244;0.18065117;-0.034337625;0.18665259;-0.11784444;-0.25576568;-0.3909632;-0.12975807;0.044107717;-0.15722719;0.08713779;-0.2074963;0.12448069;-0.03337127;0.03781605;-0.27436972;0.10690636;-0.17520897;-0.28942874;-0.0015513425;-0.13384153;0.043172393;-0.17963816;0.01011377;0.055935215;0.14784886;-0.24479544;-0.18117158;-0.19678096;0.08600539;-0.37243193;0.39414865;-0.09827399;0.23788631;0.29162934;0.016362041;0.1445779;0.24379797;0.39601943;-0.7677892;0.18322466;-0.19654034;-0.14961433;-0.21740048;-0.080410525;0.07034981;-0.18751878;0.41163307;-0.23232648;0.13393715;0.2281125;0.050213724;-0.14997002;0.01923369;-0.026665622;-0.13107257;0.07755169;-0.10296723;-0.1896067;-0.123677544;0.14207765;0.14846978;0.50298965;0.5095823;-0.1633415;0.08910485;-0.044242904;-0.014449447;-0.36034513;0.33878204;0.40189087;0.26731873;0.09515273;0.2156949;0.18877928;-0.15677038;0.14747696;-0.1831932;-0.13696933;0.0069358274;-0.06898358;0.013611155;0.18628326;0.123371884;0.065120295;-0.10917242;-0.14169842;0.016869258;0.47363746;-0.27420977;-0.1166512;-0.049950987;-0.036856834;-0.02560582;-0.36314353;-0.027544836;-0.29263702;0.44181877;-0.13308117;0.019096967;0.14711642;-0.56278175;-0.29906854;-0.25496492;-0.11566932;0.048083782;-0.79189456;0.13753998;0.18241502;0.29124573;0.09530732;-0.7330526;0.027340986;-0.28268453;-0.39480296;-0.14358757;0.36184406;-0.23106627;0.14137347;-0.25561926;0.16222219;-0.12870707;0.26846966;-0.031725284;-0.24745558;-0.27698833;-0.0660822;0.11854619;0.11047199;-0.15911853;0.009412256;0.119390264;-0.45084736;0.07474642;-0.081843205;-0.0060876245;0.042808358;-0.20488894;-0.026599774;-0.1305553;0.050743304;0.19955657;0.020675015;-0.3275083;-0.041966923;0.10550568;0.04253544;0.22503208;0.014818623;0.38422978;0.0544418;0.32288322;-0.13179368;0.26009557;0.14045496;0.09600454;-0.22058627;0.024155177;0.14534172;-0.06322716;0.17404616;-0.38938874;-0.025771067;0.07644571;-0.021227384;0.47869498;-0.0697854;0.13256197;-0.1120416;0.23338498;0.024986453;-0.56213015;0.2723826;0.28805563;-0.13038388;-0.10660318;0.35803562;-0.14968888;-0.524239;-0.09227466;0.7038546;-0.21401191;0.362577;-0.115757994;-0.0039115474;-0.059127904;-0.055095285;-0.20091659;-0.3407468;-0.07778177;0.13467506;0.24630377;0.23052493;0.03887656;-0.24887921;-0.001222643;-0.23225415;-0.18336533;-0.16729783;0.1584323;0.2857641;-0.2517538;-0.025947964;-0.17307696;0.07377876;0.05729483;0.43162948;-0.158851;-0.004830282;-0.03604113;0.13462803;-0.0011975694;-0.3713689;-0.11625906;0.21694605;-0.11661673;-0.05833242;0.2478944;-0.051485367;0.032809235;0.21412636;0.0330671;0.066597655;-0.14418122;-0.4816678;-0.1741685;-0.09125598;-0.15010124;-0.23706168;-0.010135761;0.035297953;0.030541057;-0.21162017;-0.062073156;0.01002051;0.0012069446;-0.4426264;0.29854605;-0.3019062;0.09920548;0.18896733;0.01130996;0.079426706;-0.015188384;-0.16436175;0.024960918;-0.11588624;-0.2549573;-0.25707546;0.12386965;0.42505544;-0.3719845;0.23874132;-0.26589248;-0.245151;0.05936877;-0.13927934;-0.0026391747;-0.012137102;-0.23834391;-0.38276806;-0.089891024;-0.10647032;-0.18418233;-0.20946139;0.06313731;-0.10516539;-0.014434259;-0.0022777943;-0.033661462;0.005918103;0.047238436;0.014981726;0.07156989;-0.23170772;-0.08118249;-0.101263925;0.22475867;-0.21350767;-0.25978416;0.034691185;0.08138128;0.2061449;-0.0479851;0.20727476;0.25455704;-0.0931271;0.060722142;0.08417447;-0.1910462;0.31973252;-0.004933067;-0.13020898;0.003026131;-0.052900065;-0.18203355;0.26752955;0.28516063;0.15897873;-0.12533778;-0.17071025;-0.0292384;-0.0077730254;-0.03746981;-0.04734923;0.4271419;0.07572249;-0.17575377;0.018060833;-0.08864561;-0.105887845;-0.15439767;-0.07081458;-0.3221901;0.23860185;-0.06632472;0.14912441;-0.028815795;0.20514296;0.1466664;-0.31710514;-0.114320286;-0.24979934;-0.049809813;0.18117788;-0.17464769;0.5126928;0.19967042;0.036736757;-0.12871903;0.15395749;-0.20736824;0.057812862;-0.15255235;-0.18208341;0.30449963;0.00083554164;0.016600547;0.22318804;-0.16076945;0.04381453;0.4391715;-0.0888222;-0.17170748;-0.018267466;-0.39733127;0.10704328;-0.2017994;-0.10521771;-0.12643103;0.087433085;-0.07970407;0.221075;0.32167816;-0.15055701;-0.2374416;0.003341504;0.1086662;-0.010112083;-0.09073294;0.13618599;0.043112144;0.0034191385;0.021576399;-0.06745412;0.04277308;-0.03763136;0.19921754;0.087161444;-0.3895748;0.20401308;0.123973966;-0.45116073;-0.48584494;-0.091040336;-0.062957644;0.052283388;0.0833661;0.03416688;0.1619917;0.28789017;-0.28376645;-0.052438114;0.23639849;-0.19940074;-0.12270474;-0.0055176173;0.12296922;0.103144705;-0.018107876;0.33603162;0.22294627;0.053507786;-0.051716477;0.12634236;0.15340805;0.009956811;0.14012437;-0.017811915;-0.028504485;0.087157734;-0.26871437;0.068141416;-0.33463883;-0.0035779036;-0.3323168;0.367082;-0.09928189;-0.21453045;-0.19651036;0.03138159;0.2513577;-0.3412345;-0.3004506;0.22447006;-0.104493335;-0.60728896;0.0671191;0.32084063;0.026294338;-0.20024252;-0.23506947;0.30931196;0.011953534;0.066171795;0.06889907;0.07570371;-0.18873574;0.3559139;-0.03569175;-0.40039933;-0.37333348;-0.3253417;0.1944276;-0.25313228;-0.4231173;0.28053358;-0.39784116;-0.16650662;-0.43080986;0.0180455;0.2149447;0.019692844;0.14745712;-0.13647304;-0.12137858;-0.13044031;0.0800585;-0.35390827;-0.043249562;-0.23647588;0.042618927;0.029933292;-0.020702638;-0.119689435;0.22984053;0.1953934;-0.45171368;-0.190936;0.25656983;-0.26301125;0.2644905;-0.050374202;-0.02401613;0.08908742;0.47857776;0.4223656;0.050769158;0.01053965;-0.080937594;0.5543387;0.19714358;-0.23230371;0.17356785;-0.3228672;-0.17503104;-0.016047945;-0.27041984;0.3283779;-0.6964182;-0.2448729;-0.011871643;0.14461774;0.101659544;0.08690927;0.18993142;-0.23271398;-0.21523628;0.14502895;0.24827716;-0.41331097;0.07812135;0.12805545;-0.047867723;-0.064344905;0.004634003;-0.030478097;-0.16803083;-0.033691835;0.021827482;0.30644757;0.12963891;-0.05180907;0.02591448;-0.25115654;-0.43052095;0.070778765;-0.15189554;-0.05104874;0.024823263;-0.14111142;0.19197635;-0.068523645;-0.1632634;0.1778911;0.06414258;-0.32540482;0.30901095;-0.38992786;0.16645637;0.32652083;-0.13074225;-0.052115668;-0.12883309;0.58402586;-0.16780715;0.11162025;0.2581726;-0.03136245;0.09720492;0.16023263;-0.110113785;0.19691445;-0.4556758;0.15855959;-0.06569236;0.20821841;-0.45945394;0.13682632;-0.2204386;0.007830584;-0.26797554;0.03769842;-0.17243616;0.088333234;-0.028260449;-0.5876644;-0.11484837;-0.16278982;-0.47744465;0.030203694;0.20906857
0.20265241;-0.0622715;0.018711787;0.1335931;0.050157882;-0.1502471;0.14010812;0.1391653;-0.09166369;0.2169813;-0.0870698;-0.010147455;0.05056731;0.1253972;0.06566125;-0.08352674;-0.16681251;-0.12716603;-0.05399025;-0.3015839;0.028089996;0.15066873;0.37240556;0.15201041;0.12934923;0.053911556;-0.250172;0.22431101;-0.15304603;-0.20395073;-0.25664195;-0.039825417;-0.048696596;-0.5005812;0.18251117;-0.190396;0.045770995;-0.07829422;0.042889547;-0.47170913;0.18900077;-0.07336365;-0.0769528;0.06571502;-0.02755091;0.0675376;0.13689078;0.10584547;-0.01444849;0.044131458;0.15533239;-0.4765161;-0.29481885;-0.104249895;-0.43961334;0.19565314;-0.18800968;0.15364219;0.27739775;-0.21322581;0.03786547;0.057441488;0.18207258;-0.45976076;0.27353448;-0.11071585;0.026420504;0.050970536;0.20074514;-0.10077549;-0.26277864;0.08320969;0.23782252;0.0014140818;0.29425657;0.025306728;0.28011134;-0.080013365;0.12882325;-0.17157345;-0.14657278;0.18063928;-0.16717738;0.02209094;-0.007777444;0.00030277658;0.36789832;0.2843518;-0.25603974;-0.13540107;-0.029358307;-0.2119308;-0.2718613;0.24772483;0.054697923;0.2550147;-0.23283392;0.2747523;0.27273712;0.12991479;-0.34018874;-0.23548973;-0.27116078;-0.14195034;-0.12055537;-0.037015453;0.087338835;0.02453147;0.072216034;-0.18031119;-0.24018143;0.04812365;0.1256805;-0.079454936;-0.13966522;0.14739585;0.06576322;-0.0011017289;-0.31534174;0.09265639;-0.2028393;0.15930341;-0.019178892;-0.011248624;-0.32687968;-0.366273;-0.36344025;-0.014749686;-0.19279279;-0.045070358;-0.14490046;0.103364974;0.07414551;0.11023005;-0.042259704;-0.68384755;0.07880772;-0.019598203;-0.34742388;-0.044824414;-0.011078421;-0.12566131;0.16357137;-0.13050829;0.1080772;0.007195633;0.42541844;-0.22132553;-0.35505238;-0.2515864;-0.42609406;0.18638375;-0.00022906357;-0.17566176;-0.14470722;-0.24386291;-0.18047921;-0.10016737;-0.042271722;-0.16409774;0.10834749;-0.15896101;0.078588374;0.12294043;-0.028845463;-0.1624524;0.1357647;-0.10891172;0.22740011;-0.013669019;0.023842728;0.37243417;-0.14951277;0.54309124;0.056294214;0.15190448;-0.11595417;0.14137067;-0.088155076;-0.3182263;-0.038734656;0.22677708;0.23198375;-0.02459263;0.2312051;-0.29596937;-0.00093270803;-0.11297267;0.17383923;0.3377167;0.06163924;0.1427393;-0.09091578;0.122939706;-0.12504068;-0.3340274;0.08795677;0.038704783;-0.18877465;-0.15035905;0.23446035;-0.23706563;-0.21821584;-0.25668252;0.4207577;-0.19861758;0.26916605;-0.048523054;-0.22417615;0.211867;0.032237213;-0.2735458;-0.10079133;-0.07271422;-0.24461026;0.20320775;0.024836197;-0.008188429;-0.05217182;-0.2596741;-0.034035992;-0.23225942;-0.072038196;-0.04418382;0.5522479;-0.13567427;0.12991598;-0.38482568;0.26629388;-0.043625828;0.44645953;-0.07453482;0.0772489;0.045405377;0.17247148;-0.15496385;0.04347242;0.012555027;0.36862913;-0.055263996;-0.24770007;0.32943714;0.08156275;0.033526763;0.31176376;-0.050817337;0.41004622;-0.04224616;-0.6664153;0.039009497;-0.31154227;-0.11010815;-0.17025079;-0.049861573;-0.11365315;-0.16187021;-0.34924513;0.1640706;-0.093414165;0.043522947;-0.0051585776;0.07325383;-0.15515406;0.0944985;0.14802371;-0.10165282;0.03460619;0.096503794;-0.1039403;-0.028725982;-0.22191633;0.10947248;-0.10657227;0.1341449;0.42881468;-0.17445312;0.11023629;-0.016908955;0.016147358;0.07799065;0.11808679;-0.12004924;0.06786104;-0.007970557;-0.15412295;-0.16871141;-0.0262229;0.0215785;-0.21691479;0.0796294;-0.19291796;0.053230766;0.025716003;0.061261147;-0.12317729;0.20569903;0.15506215;-0.14918149;-0.15628906;-0.024849683;0.009793061;0.29637814;-0.22309886;-0.22767356;-0.2552745;0.10767617;0.11944704;-0.025561102;0.15833972;-0.10619417;-0.18874724;0.05738474;-0.11708336;-0.018871676;-0.012262756;-0.09489369;0.023023747;0.0076341038;-0.17612004;-0.33189794;0.14815898;-0.12994997;0.266717;-0.19228156;-0.21999797;-0.021809557;-0.13849016;-0.10450354;0.014423831;0.42395574;0.11430519;-0.055781692;0.28702238;-0.12800094;-0.24724434;0.026935741;0.109162726;-0.03414699;-0.05866826;0.096303895;0.041567508;-0.04770101;0.051778074;-0.19989502;-0.025225522;-0.24899405;-0.06731346;0.014687812;0.09110875;-0.2744976;0.5197788;0.17972308;0.3089156;-0.1077596;0.24682784;0.13797015;0.26987293;0.08659529;0.008101397;0.3015111;0.03537467;-0.13561735;0.13495551;-0.17294556;0.051655404;0.24025993;-0.0394829;-0.24847949;-0.17088637;-0.75832134;0.12552112;-0.13357466;-0.27588102;0.31660658;0.01773959;-0.25625482;0.29975536;0.44559684;0.061695777;-0.049535993;-0.18056229;0.08949943;0.06986798;-0.13835734;0.08230571;-0.07539027;0.13058604;-0.07198941;0.0039963163;-0.009348391;-0.08103328;0.10403145;0.140273;-0.17430802;0.35418874;0.53639835;-0.08052571;-0.2529223;-0.123140335;-0.13962485;0.06302734;0.0051798336;0.0034285826;0.049349118;0.12231075;-0.06539491;-0.014340174;0.06981356;0.013520243;-0.03218523;0.044270396;0.12237692;-0.22445573;0.1374041;-0.010797361;0.26291066;0.11326206;0.031517547;0.21141103;0.12743106;0.06775001;0.28908747;-0.21517327;0.014536656;-0.16208026;-0.08924863;0.044267133;-0.5780005;-0.30257624;-0.313447;0.12645161;0.097344;-0.18762755;-0.13536969;0.193166;0.31292042;-0.14686395;-0.2316469;0.12513773;0.22164448;-0.30865672;0.24193023;0.0964321;0.23355405;-0.21498717;-0.13058566;0.14563698;0.14659892;0.033131417;-0.22619224;0.079593115;-0.21323451;0.3557376;-0.11932823;-0.42289513;-0.010552584;-0.3463869;-0.08696991;0.12619147;-0.115706764;-0.03885786;-0.26186365;-0.18429089;-0.61104196;-0.19557963;0.2206478;-0.0035159423;0.1725697;-0.04812568;0.13946447;-0.064299256;0.2984053;-0.32668516;-0.21390222;-0.055412564;-0.39833447;0.046275318;0.16685;-0.18091871;0.13192849;-0.028885903;0.017862607;-0.09377069;0.11080022;-0.36825755;0.29611444;-0.06412477;0.16881013;0.021702828;0.16432805;0.02293158;-0.29222065;-0.15901938;0.022527313;0.7237027;0.19247328;-0.086751826;0.115267694;0.21928674;-0.036173686;0.061244406;-0.1431489;0.20176181;-0.51170856;0.1075738;0.39396578;0.24490075;0.1721428;0.11038583;-0.085724644;-0.05911559;-0.0998778;0.18400899;0.3482723;-0.40470773;0.12887497;0.2589812;0.044024337;-0.09026316;0.11526862;-0.09497832;-0.1485504;-0.004863585;-0.008950512;0.29285893;0.17251574;-0.032822005;0.12328038;-0.18665004;-0.038703892;0.037920654;-0.39444813;-0.15293145;-0.011003124;0.008970232;0.08583999;-0.33261135;0.09680422;0.26134598;0.046061736;-0.09915853;0.14919567;-0.25314572;0.22650146;0.14469853;0.32730535;0.12634555;-0.10667422;0.58801085;0.108402684;0.1474025;0.277409;0.15745316;-0.2157288;0.1623278;0.0007029489;0.20598885;-0.19608766;0.20075391;0.15545613;0.14438258;-0.16255948;-0.012023155;-0.32588717;0.066140264;-0.03550894;-0.03658138;-0.152735;0.1643697;0.005762976;-0.32871905;0.12763007;-0.29169157;-0.13916832;0.15106732;0.35224304
0.17772494;0.02770693;-0.06967034;-0.118324935;0.13786127;-0.35750294;0.15248162;0.06420821;-0.034371834;0.23435806;0.026770208;-0.2105742;0.16386856;-0.18090521;0.10911273;-0.40276772;0.05781933;0.049866732;-0.24549402;0.026810069;0.046292625;0.21381141;0.3369616;0.02381361;0.13589059;-0.049503557;-0.040984936;0.27849162;-0.11279057;-0.026507005;-0.0857751;-0.13587259;-0.0002865345;-0.24181896;-0.17694463;-0.10403986;0.19693623;0.08591236;0.045056377;-0.39235333;0.20105442;0.046998724;-0.0049603614;-0.13999116;-0.020767193;-0.15370826;-0.032570224;0.21678576;-0.08077892;0.058506105;-0.026190756;-0.4762582;-0.0018902229;-0.11363642;-0.46042565;0.023190392;-0.30865887;-0.09450327;0.2064359;0.15197966;0.040279604;-0.24220704;-0.07490848;-0.0062275436;0.057684537;-0.15944442;-0.13470468;-0.058311973;0.3297441;-0.08038392;-0.22814573;-0.016455414;0.17806573;-0.01760319;0.12565063;0.10816126;-0.0584089;-0.015043889;0.12453173;-0.16997959;-0.1765353;0.014967516;0.21863292;-0.07342569;0.058205783;-0.10070708;0.25376436;0.16212341;-0.16275798;-0.24293008;-0.04201319;-0.105461285;-0.30645105;0.28232569;0.34683925;-0.043214962;-0.08438961;0.26018545;0.29238155;0.27320856;0.06524878;-0.10335768;-0.19458267;-0.11524067;-0.06781126;0.26371774;0.07943486;0.2134168;0.14887977;-0.08545442;-0.0812816;-0.13173708;0.08208866;0.045892913;-0.026149612;0.056422878;0.026508635;0.058191705;-0.6665626;0.17031668;0.016183482;0.26845348;-0.026062632;0.065934025;0.12604386;-0.41258782;-0.23294684;0.0010716714;-0.11978758;-0.04094489;0.04569673;0.061184444;-0.07377669;0.44903484;0.050891113;-0.107755944;0.1867078;0.06458579;-0.17210384;-0.04347708;0.3286272;0.09975737;0.1598004;-0.0049747396;0.02234961;-0.06378071;0.28001824;-0.14173852;-0.3514158;0.20619863;-0.15773605;0.1791097;0.021857854;-0.078480735;-0.3510376;-0.49802214;0.17085221;-0.08427329;-0.09850457;-0.20808686;0.20000236;-0.105846;-0.042040616;-0.14684549;-0.030602183;-0.18919478;0.122336306;-0.4347673;0.48171163;-0.13335222;0.11510338;0.19390921;0.22949046;0.35267028;0.13496259;0.01515012;0.11446648;0.041970603;-0.0584855;-0.24075925;0.17298464;0.37624303;0.21072212;0.053034384;0.010539678;0.033359263;0.21709213;-0.06283985;0.24083237;0.19987705;0.41381133;0.080241844;0.12159631;0.31465966;0.1389558;-0.33897296;0.18700695;-0.24603303;-0.37894303;-0.10198851;0.05288702;-0.07132234;-0.21028475;-0.3304323;0.09562124;0.018847756;0.2625532;-0.05814853;0.18198259;0.08125835;-0.1022236;-0.35955623;-0.19735676;0.010062702;-0.0616364;0.1626218;-0.14715792;-0.16541624;-0.11065106;-0.15454051;0.14443593;0.08220807;-0.12393959;0.008995325;0.29503465;-0.088440776;0.22264466;-0.19342287;0.1489432;0.0030129112;0.4541079;-0.095347874;-0.22340244;0.15059763;0.3300022;0.08791613;-0.23462437;0.1266612;0.13957842;-0.091375135;-0.12987268;0.16684614;0.034084562;-0.0913122;0.28663322;-0.15495117;0.5028357;-0.38979766;-0.4910779;0.13666044;-0.08952084;0.058158547;-0.17135589;-0.084173284;0.07783358;-0.41454023;-0.092257924;-0.1980343;0.02580992;0.058147658;-0.27574217;0.14782616;-0.1397937;0.28834236;0.19119549;-0.13750884;-0.12858851;-0.23639865;-0.39416158;-0.17531915;-0.42427686;0.04388682;0.013699316;0.22186749;0.26901156;-0.013667125;-0.012333592;-0.046725288;0.21621558;0.04465398;0.14074363;-0.40281224;0.10731296;0.030985815;-0.32427678;-0.24145187;-0.069961116;0.109818004;-0.108361155;0.13388652;-0.13244148;0.2336155;0.22020887;-0.05863312;-0.15374428;0.15174595;0.29387647;-0.10047526;-0.005817323;-0.14371979;0.01988438;0.052522875;-0.34864715;0.0531982;-0.013751981;0.09293126;0.15614589;0.15089862;0.18052694;-0.11663289;-0.18204866;-0.028538529;0.016809162;0.1742416;0.15449701;0.030643309;0.15907934;0.06889177;-0.034485262;-0.31327668;0.17964837;-0.12120188;0.38724646;-0.343442;-0.096032746;0.096952975;-0.040566612;0.06094421;0.46034014;0.2369727;0.015807439;0.09158431;-0.07521814;-0.088384986;-0.36197725;-0.3261107;0.23875707;-0.057003945;-0.13229088;-0.08422162;0.16654967;-0.20377319;0.26149577;0.04949245;0.2086955;0.08166482;-0.22995323;0.16738781;-0.15163428;-0.45986176;0.48698908;0.073790774;-0.12873714;-0.13477497;-0.0035238136;-0.08245492;0.1944399;0.27114362;0.27177972;0.06810361;0.03654301;0.057168946;0.14545313;-0.20684361;-0.12583114;0.31461504;0.18594491;-0.22404666;0.094836205;-0.37210754;0.015125168;-0.259075;-0.2165501;0.18606542;0.15596938;-0.22980638;0.0115832165;0.3074065;-0.15137435;-0.20524177;-0.43995476;-0.51186323;-0.01114566;0.05259404;-0.1753636;-0.04971615;-0.046002913;-0.24547383;-0.16095287;-0.25558206;-0.296316;0.28880814;0.01732792;-0.07913945;0.22619502;0.43901318;-0.23570374;-0.38837925;0.075347155;-0.2156862;-0.096242964;-0.21035613;-0.21675122;-0.079227775;0.03667356;-0.12154997;0.0838914;-0.12353805;-0.22740917;0.17206246;-0.257242;0.32661274;0.07438009;0.28659275;0.08805802;0.27949023;0.12438016;0.07343736;-0.06794098;0.16457716;0.17113891;-0.07391316;0.25691715;-0.07197345;0.07513231;-0.20533153;0.015436121;-0.25026256;-0.22021848;-0.0017391568;0.043486882;-0.015045144;-0.3584054;-0.23286459;0.34650588;0.086782835;-0.23053604;-0.26276883;0.31097838;0.021106584;0.030643193;0.20086114;0.084227875;0.42878678;-0.018847337;-0.06915679;0.12230476;0.2081308;-0.10326197;-0.47991744;-0.08147865;-0.17836678;0.084490985;0.068750255;-0.52656275;0.33208182;-0.6818855;-0.03747311;0.17868821;-0.23136967;0.16724977;0.01692009;-0.13125005;0.03766274;-0.19733524;0.26833075;-0.3952179;-0.108636715;-0.020257924;-0.16739815;0.034682214;0.075968415;0.14346097;-0.18702471;-0.05003409;-0.3223651;0.084074974;0.06682725;0.042208318;0.087734506;0.1634691;0.23620422;-0.30814773;-0.07228799;-0.1924348;0.35692158;-0.08167435;0.027143948;0.27794412;0.21765365;-0.02409704;-0.095023245;0.12951455;0.4689452;0.31995806;-0.2278115;-0.4594138;0.041435476;0.050350126;-0.066007376;0.18259399;0.196013;0.08823079;-0.32817596;0.0013286954;-0.057859253;0.22990403;0.15500501;-0.0021126173;-0.07716136;-0.20510726;-0.18712597;0.14599518;0.31714395;-0.47893462;0.2510052;0.30192992;0.01896888;0.061902795;0.3424627;-0.035694078;0.0045632515;-0.10817768;-0.053747304;0.37843308;0.2699072;0.09102905;-0.07220779;-0.07703341;-0.27924964;0.12676968;-0.067895055;0.036692932;0.20808755;-0.013046623;-0.044327706;0.04482995;-0.09373785;0.15987153;-0.068459645;-0.26515234;0.14153676;-0.16357191;0.051539365;0.23580647;-0.06796594;-0.071957566;-0.02614897;0.27153242;0.0039050998;0.12434317;-0.07921007;0.2951962;-0.21205801;-0.015578234;0.06869287;0.1827655;0.0031790275;0.26537833;-0.20602673;0.09792505;0.22367108;0.07891688;-0.1493211;0.11585148;-0.35669875;0.059399363;-0.02616261;0.091326594;-0.018279547;-0.3613892;0.17251602;-0.1156868;0.04327605;0.035068583;0.057065822
0.07795628;-0.01753094;-0.021930618;-0.13778816;-0.043737773;-0.12769714;-0.013222707;0.3326588;-0.2543443;0.24114205;0.15231492;-0.17435455;0.049091488;-0.11628084;0.07543377;-0.28997514;0.31261367;0.027968919;0.10052216;0.08843759;-0.034927376;0.098840475;0.079437606;-0.3795338;0.037654307;0.21656659;-0.11244109;-0.02709212;-0.23118623;-0.10153956;0.12395321;-0.29016626;-0.021710433;-0.35185596;-0.1369715;-0.2650786;0.1771425;0.022386778;0.14871497;-0.58747077;0.235659;0.0066589224;-0.019106481;-0.023872932;0.17169647;-0.16372523;0.020291375;0.17168838;-0.23461075;0.22118667;0.02506655;-0.23308311;0.029415328;-0.13307488;-0.5625375;-0.22109385;-0.19620663;-0.037580844;0.17002995;0.1842802;0.30501938;-0.10939812;-0.106349036;0.1352948;-0.03413158;-0.004249719;-0.22485593;-0.036254644;0.299929;-0.09396167;-0.35199186;-0.04185382;-0.0182752;-0.026039962;0.014496151;-0.11195796;0.023480225;-0.013243164;0.049678907;-0.438789;-0.30100596;0.011615932;-0.103008494;-0.13519289;0.20161092;-0.4044361;0.31607273;-0.22046041;0.17944828;-0.13333178;-0.32423428;-0.19569425;-0.24014999;0.3311295;-0.094557;0.06454525;-0.13627477;0.26263174;0.121534504;0.1629297;0.019190773;-0.4556358;0.11574507;-0.025603307;-0.15655437;0.09905128;-0.0066128154;0.26603898;0.32025892;-0.039942376;0.079548724;-0.27975142;-0.06882842;-0.12511244;0.08426847;0.2305795;0.006181642;0.10095949;-0.42379618;0.22264226;-0.14936905;-0.031837534;0.0041044657;-0.049670912;0.1547975;-0.4882942;-0.09277022;0.034571946;0.038275853;0.09697747;-0.13339894;0.25892377;0.011837082;0.049417183;0.10674068;-0.22018285;-0.012948696;-0.08287621;0.03629571;0.039696857;0.22029534;0.0058264807;0.097152926;-0.13627513;-0.005477676;0.04542743;0.13758607;0.12076527;-0.42111;0.4286079;-0.12474238;0.16735318;0.20597617;0.14288276;0.062170196;-0.28379837;0.25224712;0.023052566;-0.157587;-0.15409859;0.2078632;0.10932089;-0.032358225;-0.0856132;0.033853147;-0.050273307;0.13552646;-0.2119752;0.26099208;-0.25923163;-0.10422067;0.14894386;0.035877418;0.17035879;0.114942856;0.079266325;0.081198886;0.3097722;-0.0034383205;-0.13206036;0.42164487;0.123037815;0.1693424;0.2018288;0.14094944;0.27188218;0.06927272;-0.075867414;0.2435825;0.06645138;0.06981863;-0.47483715;0.030856228;0.12815975;0.06264327;-0.115347676;0.3711288;-0.44306183;-0.41591153;-0.17768106;-0.12873076;-0.13190562;-0.19317864;-0.11513663;0.13640538;-0.017466513;0.0626639;-0.07011443;0.15921089;-0.12944627;0.04372824;-0.16617268;-0.04523972;-0.028787054;0.07348501;-0.008754361;0.14727665;-0.14344922;-0.12665352;-0.09872892;0.07894873;-0.03559683;-0.05636794;-0.08569983;0.13819328;0.0013349899;0.25186637;-0.10490243;0.22820649;0.058941692;0.27547035;-0.014341025;-0.12124819;0.058897097;0.1732913;-0.20060173;0.115451194;0.037363205;0.20751274;0.009540633;-0.04490136;0.43488446;-0.00024390462;0.1833225;0.12567653;-0.22901861;0.18663189;-0.44254777;-0.30002597;0.13440207;0.1147723;-0.01965359;-0.10698828;0.003997694;0.028466903;-0.277736;-0.19572313;0.03908367;0.20102276;0.13142456;-0.26397866;-0.22790767;0.07767397;0.3767532;0.13645063;-0.024295282;0.40433735;-0.2680963;-0.09255946;-0.2656073;-0.44640017;-0.21317971;-0.09106843;0.0012176271;0.36696073;-0.06289259;-0.12551521;0.012940731;0.051876944;0.009187444;0.13232993;-0.26244676;0.16019258;-0.040527955;-0.30566442;-0.20358478;0.1394268;0.11554393;-0.1063014;0.04158162;-0.10024181;0.3138384;0.112018466;-0.06709027;-0.008871965;0.24416672;0.008290327;-0.34798902;0.0027966548;0.042707283;0.038752157;0.02288134;-0.09114851;-0.17588143;-0.15578835;0.16882053;-0.36517552;0.11445099;0.12493699;-0.26308563;-0.20370878;-0.13809806;-0.058261525;0.15806982;0.07914682;0.018194204;-0.007630724;0.23515722;0.22835113;0.053532597;-0.005169784;-0.2355673;0.28773564;-0.2748627;0.052659504;-0.17599256;-0.13434653;0.20126519;0.4245338;0.1121017;-0.030205077;-0.11993846;0.114044495;0.057788588;-0.2256686;0.118545316;-0.24431314;-0.17274436;0.24425046;-0.046707798;0.13959235;-0.19875778;0.27022642;0.12644218;-0.047490664;0.09676552;-0.12178544;0.028816614;-0.12604229;-0.298866;0.2985623;-0.08983115;0.2658117;-0.14027935;0.30747366;-0.33752546;0.18494819;0.26928774;0.14924653;0.11324783;0.34306824;-0.2728073;0.03567142;-0.22271068;-0.17080297;0.33663154;0.0018483808;-0.0579991;-0.114125006;-0.24716936;0.056858964;-0.13310315;-0.22759089;0.054016665;0.19835849;-0.21900988;-0.14638065;0.14916927;-0.185025;-0.2016447;-0.38077635;0.10194213;0.06198754;0.17489654;-0.118244685;-0.11073314;0.1846934;-0.32125056;0.023532998;-0.32158095;-0.13388307;0.4293982;0.19047768;0.18612626;0.0012588013;0.1684849;0.23185714;-0.2786908;0.14416257;-0.799433;0.0060792905;-0.10175081;-0.12800083;-0.15535574;0.39908668;-0.046174668;0.09265307;-0.018511908;-0.27776283;-0.11995822;-0.030995512;-0.09163224;0.14055571;0.3318358;-0.12048225;0.016837684;0.0012686957;-0.021287639;-0.33275488;0.1671144;0.10420083;0.13177612;0.6104627;0.03763276;-0.13670778;-0.10591742;-0.26102558;0.17461707;-0.12961574;-0.050141588;0.043341316;-0.013634762;-0.532687;0.27552143;-0.042612545;0.13066015;-0.13070811;-0.14924634;0.23998839;0.27782336;0.016500216;-0.03053213;0.4217645;0.2575183;-0.23130982;-0.13544285;0.28054202;0.1636376;0.052967876;-0.18348983;-0.13205767;0.032211106;0.09202288;0.15122841;-0.28264675;-0.12694214;-0.41060513;0.018810645;-0.12990232;-0.2893225;0.10983059;-0.06678704;-0.22531544;-0.009671382;-0.080029525;0.1787626;-0.21488869;-0.035536077;-0.07342539;0.15491544;-0.046435513;-0.068437375;0.064131774;-0.038048003;0.01262182;0.0010358674;-0.043856457;-0.14318728;-0.09444344;-0.18298429;-0.20298834;0.29553238;-0.0724868;0.26239175;-0.17097443;0.2567802;-0.0009197291;-0.2200591;-0.46356678;0.17974596;-0.29395977;0.044273548;0.08864744;0.26980338;0.45593935;-0.29658365;-0.14108104;-0.023054238;0.047253653;0.18360782;0.2545829;0.1870397;-0.0063441126;0.23716307;0.19892022;-0.14201203;0.2550771;0.16162604;-0.0780063;-0.11434265;-0.26322564;-0.12292336;0.15100753;-0.0015187727;-0.2194485;0.1563667;0.2703172;0.041332416;0.2625323;0.117124595;0.05525755;0.28690574;-0.22172761;0.111805096;0.24298942;0.08281019;0.16547449;0.23112422;-0.116208225;-0.49531138;0.078615114;0.0015442059;0.21763991;0.0703441;-0.08036026;0.09550002;0.07105782;-0.14347714;0.10152042;0.0626012;-0.05397119;0.28472376;-0.13090591;-0.09651732;0.66096663;-0.15900244;-0.16141473;-0.12450907;0.22555014;0.043778624;0.31810516;0.14977331;0.15760814;-0.034913365;0.29932776;-0.055489767;-0.09552183;0.08677102;-0.08511174;-0.680053;0.3199664;0.14658426;-0.10424979;-0.10966267;0.13069618;-0.018068492;-0.00832821;-0.11969548;0.24675874;-0.1395415;-0.17144363;-0.17538439;-0.09444897;0.32804832;0.0203427;0.12212064
-0.10804229;0.017608041;0.008215552;-0.30696642;0.17671283;-0.20834127;0.43889585;0.21909319;-0.10993619;0.43425414;0.0038460863;0.080342576;0.13444279;0.05516486;0.0014879154;-0.26921004;-0.09151777;-0.021927597;0.42840394;0.033650752;-0.18414445;-0.0152360005;0.20591477;-0.16893294;0.21029875;0.093656294;0.22630088;0.22509328;-0.17935091;-0.25329745;-0.014027234;-0.311713;0.05979629;-0.06335687;-0.063495874;-0.008454058;0.22047517;0.09013138;0.0715841;-0.39335957;0.3609906;0.12054669;0.10411781;0.04912352;0.06403369;-0.17035237;-0.20263302;0.19432776;-0.049494147;0.2740153;-0.15329939;-0.3067661;-0.03414434;-0.025121495;-0.08003999;0.20548095;-0.06327962;-0.084144;0.22390541;0.19057289;0.04849726;-0.022397373;0.015323181;-0.03560925;0.02473851;-0.19370389;-0.21540721;-0.035354998;0.09715133;-0.14320327;-0.2362599;0.3072792;0.1248237;-0.041220196;0.25116178;0.09370294;0.11538375;0.17223234;0.13957033;-0.23474532;-0.117216274;-0.11663682;-0.2720211;-0.20914066;0.074556634;-0.08267879;0.09047908;-0.6471668;0.09238283;-0.05660546;-0.4237779;-0.15063629;-0.07882878;0.27476314;-0.6863901;-0.35369378;-0.15812156;0.38681695;0.07269148;0.13677235;0.053554833;0.001415391;0.18398327;0.34494713;-0.37891445;0.11292596;0.08164909;0.19231114;0.2033241;0.31164274;0.08411017;-0.4119589;-0.15077421;0.12180741;0.37791577;0.40678552;0.08713241;0.47007325;-0.058325626;0.07826509;-0.18472856;-0.23083048;0.053604823;-0.049077958;-0.045720283;-0.68270767;-0.009982202;0.08718113;-0.15327625;0.18208176;-0.27382633;0.10445614;-0.06557857;0.24259305;-0.13667312;0.07346466;0.112313494;-0.1435818;0.0039669224;0.24797663;-0.009434676;0.33250597;0.17077427;-0.37808827;0.05783885;0.025232682;0.21879314;-0.5947233;-0.20147069;0.13461116;-0.10702256;0.15033515;0.3225489;0.093999796;0.039324254;-0.2781465;0.23772126;0.5048156;-0.122719176;0.0064898874;0.10371397;0.08141333;0.041430887;0.017452575;0.051892582;-0.24733528;0.09143517;-0.16077329;0.15788232;-0.15830941;-0.034285598;0.2697554;0.05491249;0.4825691;0.016415333;-0.1284519;0.20987907;-0.15147428;0.056376424;0.024836179;0.1696997;0.0791972;0.12748386;-0.02859876;0.0992616;0.2021399;0.059611417;0.050648414;0.11007476;-0.002657912;-0.30885777;-0.6245339;0.040093657;0.2064055;0.007529287;-0.16249646;0.25816903;-0.09169302;0.056836307;-0.15513162;0.11485816;-0.0017252682;-0.058904026;0.20599726;0.020638907;0.020418057;-0.18461922;-0.087324746;-0.118052654;0.18154566;-0.34854767;0.086932816;0.2237823;-0.018156923;-0.07844949;0.17969295;0.080581345;-0.18596597;0.4054714;-0.19172548;0.12725788;-0.013460715;0.16609468;-0.16302429;0.09183248;-0.20992333;0.06584765;-0.016452847;0.084010355;-0.051465858;0.1593174;-0.028221117;-0.12154746;0.13683273;-0.118292145;-0.23553547;-0.15386946;-0.03009169;-0.06376138;0.1412911;0.0015783923;0.1931718;-0.11911057;0.23926885;0.3491259;-0.05378642;0.5107527;-0.31103182;0.073782474;-0.29459167;0.3503489;-0.16379583;0.08858045;-0.06893538;0.028427804;-0.20605461;-0.24263933;-0.124231376;0.40391183;0.14307445;0.30797276;-0.045293488;0.16815278;-0.0011180106;0.22338663;-0.64228934;0.20648462;-0.34122726;0.07901046;-0.09948705;-0.057628475;-0.049029086;0.003484043;-0.14669903;0.20067571;-0.03668542;0.094007485;-0.40819153;-0.12967928;-0.12883641;-0.020451233;-0.07087379;-0.24707781;-0.049660787;0.009376959;0.04910308;0.17075902;-0.010693987;-0.20408015;0.10012166;-0.015520873;0.26399472;0.096791305;0.20487499;0.01867318;0.17520657;-0.29674032;-0.051397316;0.11301259;-0.07129083;-0.098518424;-0.06647198;-0.1048256;-0.074589744;-0.39985386;0.01227794;-0.22075987;0.22144464;0.09973144;-0.42169064;0.050192114;0.08002147;0.05972691;0.18475005;-0.016610157;0.030959552;0.23233834;0.33366254;0.02744867;0.090333655;0.14396304;-0.1672023;0.106367;-0.18690501;-0.15931234;-0.3608751;-0.28805768;-0.05385421;0.056517124;0.11687996;0.0643129;-0.111254156;-0.1893155;0.2744934;-0.055204768;-0.15524004;0.32090068;-0.037850365;0.2366902;0.17389718;-0.045017205;-0.27019086;0.100677654;-0.104463935;-0.18801902;0.25850084;0.03391505;0.03914869;-0.021622527;-0.24639785;0.3486508;0.10367753;-0.23562191;-0.065795496;0.32656145;0.25216207;-0.05759079;0.03563934;0.08556844;0.101757586;0.23257166;0.1203884;0.1292286;-0.044597294;0.28587005;0.45912728;-0.037736177;-0.083631486;0.055517484;-0.38273442;-0.00023581056;0.011371887;-0.22422235;-0.02632257;-0.044624187;0.07613346;-0.13427985;0.03629677;-0.119822204;-0.0070521166;-0.35762885;0.1644984;0.0425048;0.28215757;0.01640275;0.14468361;0.3196542;-0.15451828;0.24209031;-0.06566538;-0.24172448;0.41458452;0.15939695;-0.014965894;0.009611145;0.09635499;0.029417751;-0.0418542;0.25673693;-0.22424819;0.1553965;-0.0002552295;-0.1940256;-0.06322301;0.28204998;0.00057322177;0.08245991;-0.38157606;-0.19256566;-0.11255679;-0.071730934;0.09550389;0.14628053;0.24182576;-0.13987625;0.14121978;-0.068626955;0.15082009;-0.030601874;0.34427652;0.34749466;0.08798257;-0.07035014;-0.011464839;-0.124523245;0.04299786;0.03741644;-0.21561173;0.039798643;-0.0863568;0.2387987;-0.04365445;-0.44773266;-0.19337061;0.23359072;-0.4303395;-0.1780314;-0.16201824;0.177707;0.5996626;-0.065510385;0.28599915;0.33334756;0.3053115;0.114981204;-0.15031336;0.02253154;0.32613593;-0.14516759;-0.11490407;0.1426988;0.0571058;0.2263099;0.11267108;0.13168927;0.045608748;-0.23811804;0.1434104;0.023999467;-0.14751412;0.21406765;-0.039184775;-0.45399782;0.12691452;-0.0855889;-0.111615494;-0.047946222;0.06076829;0.20064282;0.05213712;-0.09175901;0.22874862;0.0017758998;-0.04303524;0.14562999;-0.08904136;0.036372315;-0.009302183;0.10412275;-0.10134032;-0.16935587;-0.027289338;0.030528067;0.08009923;-0.05702783;0.23043238;-0.07112984;-0.19456185;-0.15875684;-0.045109;0.025753774;0.06978364;-0.09123716;-0.315876;0.07805853;0.0056289877;-0.3943175;0.029941546;0.18612315;0.1288743;-0.106411695;0.107505105;-0.056723047;0.11960254;0.13673514;0.022993349;0.045703806;-0.06962142;-0.10567898;0.16595863;-0.28192475;0.020694317;0.1695748;0.22386725;-0.1046216;0.061191846;-0.0060140546;0.14934804;0.14809287;0.32273176;0.026306197;-0.03581993;-0.059143394;-0.042362466;0.07797899;-0.13409562;0.15659393;0.26902154;-0.117926806;-0.31762818;0.11458578;0.2539068;0.034364812;0.007189179;0.028575245;0.18408848;0.13189825;0.20975837;0.14495789;-0.07569378;-0.12193609;0.19111925;-0.007408688;-0.036234833;0.36558822;-0.080894105;-0.08812009;-0.09234355;0.093745805;-0.20247549;0.082503505;-0.15548997;-0.035608076;-0.060202528;-0.011570307;0.032704063;0.44813535;-0.11819472;-0.1629306;0.16404314;0.08729541;0.08814882;0.1873352;-0.24656527;0.20610371;-0.034569714;0.12717502;-0.098508604;0.21743518;-0.0538036;-0.06903153;0.23797062;-0.22156137;-0.08333179;0.2267616;0.23333018
0.09289873;0.15406545;0.06894029;-0.25093213;0.11833308;-0.0060521415;-0.08637839;0.037339162;0.11301798;0.20220998;0.0026837757;0.0042638835;0.2581597;0.12776516;0.21671903;-0.25350437;-0.14734323;-0.12327075;-0.29364666;0.47205266;-0.24582879;0.13870342;-0.050450165;-0.5213323;0.25554037;-0.03412744;0.36090818;0.0986391;-0.08677084;-0.19062105;0.15161772;-0.2882648;-0.009124588;-0.04918723;-0.052320816;0.114051774;-0.04227875;0.057658084;-0.074097246;-0.51142764;0.39069957;-0.0055000037;-0.06965145;0.090499446;-0.118298635;-0.08927773;-0.36623442;-0.08305878;0.3060029;0.447276;-0.5519212;-0.48299083;0.20866328;0.07458499;-0.13834223;0.18502443;-0.21748845;0.12440337;0.04757102;0.10777729;0.014484696;-0.07472661;-0.18635878;0.44607338;0.08507638;-0.13288671;-0.06551918;0.041295562;-0.07164968;0.08193601;0.068775974;0.06273842;0.14225832;0.16904147;-0.043742627;0.2092307;0.08223599;0.09636007;0.05960403;0.025043413;-0.16323617;0.022676125;-0.046028182;-0.33114022;0.12090429;-0.09139244;0.10951272;-0.08565188;0.010650609;0.16149925;0.0047140815;-0.17846434;-0.20005746;0.3411636;-0.25549516;-0.10492446;0.0067307106;0.24021333;0.23924668;-0.12675759;0.05839625;0.102193974;0.2851364;0.22358291;-0.20228198;0.03728924;-0.01796207;0.008441556;0.26731884;-0.054743405;0.097819045;-0.23367175;-0.02126911;-0.22061147;0.42363486;-0.064125486;-0.035563093;0.14361581;-0.06749899;-0.02838453;0.20480168;-0.34603423;0.26316616;0.044900827;0.22055592;-0.42863756;-0.08806995;-0.090194166;-0.38358647;-0.029004456;-0.27510855;0.00314097;-0.42753896;0.11510457;0.1430721;0.3480844;0.16564807;-0.17881863;0.005986571;-0.171827;-0.036047794;0.12207871;-0.21473949;0.065453105;-0.08721589;-0.32408538;-0.24452254;-0.5770813;-0.09178419;0.3918425;0.011368973;-0.02846476;0.49699795;0.32016668;-0.00081918115;-0.22335336;0.050913613;0.2883979;0.11340022;-0.052826505;0.075727746;0.2212926;-0.021104245;-0.12516542;-0.008460921;-0.12149591;0.15084806;-0.10114776;0.27579117;0.0903542;0.15053298;-0.037815128;0.3213681;0.049269926;-0.02997601;-0.32989538;0.097499326;-0.17023946;-0.029630998;0.07461022;-0.21689597;0.22865579;-0.05904113;-0.16535869;0.13852325;0.054753724;0.16315605;-0.027478434;0.15771511;0.13118196;-0.26608542;-0.091846414;-0.05296093;0.21597533;-0.27116054;-0.1335498;0.3831857;-0.18328671;0.09984262;-0.018833604;0.17181732;-0.16607378;0.058440078;0.18594195;-0.09067484;0.0073683173;-0.021934148;0.1574256;0.17141497;0.20676003;0.17080571;0.117429905;0.06293803;0.0321082;0.069571145;-0.16491999;-0.003761973;0.072393715;0.5926469;-0.01539837;-0.0011460512;-0.5903838;0.053760618;-0.11075221;0.13997889;-0.19757445;0.09834654;0.14813665;0.104;-0.079742;-0.0059366627;-0.08386368;-0.12795003;0.2722029;-0.21058264;-0.39260185;0.039709743;0.12566656;-0.11796649;0.14956875;0.21910937;0.009818185;-0.2108209;0.12541391;0.47681782;-0.3296621;0.22418508;-0.19929121;0.06443655;-0.04499339;0.057281144;-0.12100868;0.011642557;-0.070121616;-0.054443322;-0.34593475;0.08555518;-0.16882005;0.0270471;0.028324196;0.30317006;-0.08868744;0.14744125;0.034313932;0.21522534;-0.062220115;0.4056206;-0.22581606;0.062555104;-0.08545582;-0.641794;0.0129701635;-0.19638935;0.014381475;0.24104318;-0.20326968;0.17341697;-0.30706275;-0.021149388;-0.1782835;0.050078835;0.22157837;-0.12673217;-0.062299423;-0.1386479;0.14362223;-0.06743844;-0.00017742453;-0.17033812;0.13517286;-0.053805888;0.30228582;0.10578398;0.28396633;0.053223517;0.07835772;-0.27861804;-0.13402829;-0.13630703;0.2595966;-0.01021568;-0.042074904;-0.12909232;-0.14671734;-0.23199104;0.29462728;-0.07974459;-0.0032705779;0.19762065;-0.35233217;-0.056067858;0.33658728;0.019227609;-0.11593754;0.005387394;-0.038728453;-0.07070514;0.2090275;0.11605984;-0.07493132;0.041920904;-0.10259105;0.15303686;-0.16100758;-0.20415904;-0.09061287;-0.27261326;0.06325367;-0.08333516;0.0972631;-0.03195125;-0.11460478;-0.04633625;0.089422174;-0.04170874;-0.11187967;0.0065553384;-0.45989817;-0.019927328;-0.19320428;0.009524941;0.1298563;-0.20015734;-0.03079357;-0.0064254752;0.09080299;-0.02064615;0.19135329;-0.009373067;-0.29404166;0.124137565;0.063187525;-0.11395406;-0.17412579;0.32334593;-0.43793705;0.083499365;0.02758121;-0.08730211;-0.019678134;0.28653896;0.37576503;0.24565084;-0.076716594;0.080734506;0.1635005;0.114630215;0.010575819;0.26952985;-0.18394072;-0.22029756;0.06260802;0.0852869;-0.08099094;-0.07548036;0.25721025;0.19202037;0.18297453;0.39418927;-0.04471625;-0.0944366;-0.042566054;-0.052174184;0.24248561;0.22194052;-0.06677967;-0.06648019;-0.060992893;0.15460062;0.048053965;-0.102800384;0.36945128;0.24582596;0.019183693;-0.013266892;0.34301668;0.24947172;-0.0057723885;0.1769969;-0.11290881;-0.33898205;0.2615351;-0.18174273;0.012746391;-0.059755083;-0.21905941;0.22953872;-0.21787842;-0.1039879;0.07490055;0.25369367;0.16044182;0.18415257;0.39500985;-0.14887734;0.21903071;-0.44848442;0.20026322;0.16106704;0.31436208;0.3577264;0.21136664;0.17176804;-0.0518406;-0.037528563;-0.10419737;-0.028245667;0.2187801;-0.150269;-0.16853257;0.11916402;-0.03713628;-0.2621637;-0.18982244;-0.074699886;-0.2763366;-0.36474678;-0.13747135;0.022365775;0.42223328;-0.12817018;-0.08747377;0.26783672;0.12315205;0.042442515;-0.28962;0.19509646;0.26831058;-0.23990072;-0.16102043;0.027058596;0.06951851;-0.06552826;0.2389846;0.083755285;-0.22954802;-0.23808408;0.08369146;-0.21924004;0.21421988;0.16973612;0.06301815;-0.4960124;0.373024;0.12678036;0.023505853;-0.045614243;-0.012156823;0.09635176;-0.003892269;-0.0669939;0.25956443;-0.006740937;0.041833263;-0.012289482;-0.28603396;0.06751932;0.16143121;-0.14422643;-0.26231065;-0.24356996;-0.05024072;-0.036961466;-0.014643629;0.10642995;0.050272953;0.021652658;-0.045150056;0.18599239;0.24841683;-0.11227272;-0.36410573;0.0009471424;-0.0680491;-0.17467901;-0.13263632;-0.40418193;0.054166067;0.0106042875;-0.117777385;0.025247328;-0.054517213;-0.13362154;0.013377787;0.31183052;0.036631696;0.14557888;-0.2097903;0.01608234;0.001725496;-0.12287367;0.018798543;0.26375237;-0.049168162;0.013137118;0.0686099;0.041967638;0.13316797;-0.06731386;-0.013258874;0.15868446;-0.05849448;-0.42886615;0.09495211;-0.30662015;-0.037971538;-0.033101853;0.20363636;-0.04665423;-0.1630839;0.11750721;0.44102696;0.2502;0.123879;0.060488734;0.021754732;0.029967073;-0.075056784;-0.081901796;0.06213984;-0.21607769;0.17418414;0.14228667;-0.37036678;0.26650083;-0.0026705186;0.22899742;-0.30167118;-0.21283254;-0.04404425;0.02392983;-0.109828405;-0.13030982;0.02734287;0.07623976;-0.004403593;0.29277083;-0.11607859;-0.031121304;0.003175013;-0.19783926;0.3823699;0.08300658;0.05911695;0.017558338;0.13443941;0.0029731237;-0.12304163;-0.04545909;-0.06629996;-0.071735844;0.01732453;-0.325141;0.21553096;0.0014781905;0.21381025
0.13882509;0.24182649;0.07342693;-0.13442874;0.20797126;-0.054067742;0.103293516;0.13948122;-0.005215263;0.061516527;0.00034856735;-0.13302352;0.13318105;0.1493656;-0.068831466;-0.25463992;0.04722291;-0.12880677;-0.35108685;0.6027275;-0.26183832;0.08514764;0.27057654;-0.066123515;-0.018321246;-0.33673784;-0.08347702;-0.12015742;-0.073308595;-0.18689534;0.32158765;-0.10995321;0.007754123;0.16383126;-0.11105725;0.02040376;0.059710704;0.07263728;0.15787901;0.12447607;0.36654043;-0.1107601;-0.42194015;-0.03584218;0.037187673;-0.04185731;-0.2904146;0.039734736;0.18803306;0.13623972;-0.054108597;-0.45035008;0.17356591;0.22372608;-0.0138839325;0.13444363;-0.32581455;0.10725443;0.09331154;0.17047226;-0.10666967;0.06964414;0.008043696;0.21789844;0.330574;0.04400145;-0.2282841;0.017675824;0.0030752155;0.20339352;-0.069195256;0.059447035;0.051655624;0.14152531;0.03878509;0.15038608;0.017224943;0.10503116;0.14462072;0.08538566;-0.333972;0.070205785;-0.22076268;-0.2887659;0.088205345;-0.05639857;-0.092394955;-0.01985719;0.07238643;0.17730711;-0.09793565;-0.19194667;-0.22453023;-0.024659116;0.006176465;0.082073994;-0.13884276;-0.16855364;0.027427692;-0.15899995;0.12457107;-0.13072129;0.14522855;0.148024;-0.25906333;0.03403164;-0.06917287;0.0960621;0.31781083;0.06714746;-0.025965055;-0.21806996;0.2347615;-0.03412061;0.3615668;-0.04453592;-0.022676324;0.112370506;-0.0659767;-0.1260648;0.05661488;-0.54166955;0.28042597;-0.0024555183;-0.14303023;-0.69822145;0.10271867;0.12397079;-0.18774189;-0.09556804;0.0034326846;0.037426416;0.06689082;0.17159714;0.16099769;0.068648875;0.14692783;0.056377973;-0.39066395;-0.073996045;-0.25368816;-0.1245988;-0.038483676;0.14690304;-0.16523291;-0.17730987;-0.56761616;-0.095943876;-0.06632995;0.14194435;-0.1648962;0.09340356;0.34596762;0.15546665;-0.18225393;0.25474456;0.015945815;0.42036375;-0.015198758;-0.21919848;0.004530338;0.001059163;0.15915981;-0.070297785;-0.03553829;0.053414725;0.04019583;0.31142086;0.08540955;0.062058322;0.036904417;-0.20863846;-0.11065306;-0.068456806;0.16215497;-0.010513905;0.013266748;-0.2516444;0.048411414;-0.3174044;-0.121428564;-0.09354965;0.26348484;0.070460565;-0.06394831;0.16165102;0.11448779;0.13407494;0.12826332;-0.009673832;-0.013589252;-0.39772657;-0.035994995;0.059735436;0.16342875;-0.11616047;0.42258224;-0.016023155;-0.06569786;0.16535084;0.3652003;-0.12526584;-0.07945577;0.05120664;0.013650975;0.055732626;-0.08589161;-0.013898923;0.17037529;0.23116998;0.15810606;0.0142857665;0.04821347;0.007224988;0.2684532;-0.23178;0.27006063;0.069012515;0.5431057;0.12771024;0.11446477;-0.32449713;0.1323963;0.06257707;-0.017162168;0.19491608;-0.1340528;-0.035904247;0.10054205;0.06619761;-0.08027117;-0.010626421;-0.39603895;0.05570112;-0.1611184;-0.3660689;0.23802076;-0.033319708;-0.088762164;0.030715583;0.026400205;0.02822925;-0.20705235;0.18515801;0.26151526;-0.20825021;-0.00816635;-0.10838217;0.027320685;0.13662046;0.1774845;-0.3756978;0.1217709;0.23727033;-0.27975044;-0.086088285;-0.043209095;-0.1241502;-0.025830293;0.0440518;0.21821171;-0.285011;0.06712098;0.07712518;0.15545154;0.013334829;0.087698705;-0.0894488;0.08367717;-0.07585355;-0.6553825;0.23932132;-0.13550259;-0.13479175;0.32696828;-0.008820563;0.011979618;-0.38013768;-0.15376744;-0.41515824;0.09800672;0.06112364;0.14088039;-0.016543843;-0.3387041;-0.18983299;0.04573311;-0.16611348;0.054645833;-0.11824861;0.2606994;0.07130821;0.19097506;0.040058717;-0.037138898;0.2858619;-0.26088446;-0.33503488;-0.14489798;0.20820454;-0.07267537;0.049368627;-0.17669703;-0.2885342;-0.28099686;0.43955198;0.0659332;0.13772824;0.019179393;-0.023640573;-0.10194441;0.2482348;0.0011528196;-0.11206345;-0.11392233;-0.11176653;-0.12843806;0.04683128;0.066127956;0.13432856;0.16327249;0.21061474;0.3172282;0.003909836;0.05454584;0.1352136;-0.26717347;0.12224576;-0.11920233;0.055102568;0.11048836;-0.07366902;0.15165107;-0.09651474;-0.441154;-0.19462886;0.16533424;-0.40273973;0.059202865;-0.0054702586;0.12901096;0.12559512;0.13819334;0.06747321;-0.012266668;0.00765868;-0.23704551;0.17782737;0.043741513;-0.3344548;0.12371917;-0.24905454;0.036628775;0.08702466;0.3812315;-0.15690911;0.11930361;0.2905566;-0.23564704;0.004696296;0.28520975;0.087120146;0.26285776;-0.4706216;0.31229633;-0.0062028137;0.14278974;0.23101525;0.20815574;-0.122275144;-0.1260476;-0.20129763;0.21392979;-0.42150798;-0.05800752;0.23331861;0.1164849;-0.12118152;0.1998417;0.07861729;-0.4695001;0.04317106;0.14136755;0.12799841;0.16531885;0.22528602;-0.09550806;-0.17117614;0.13444616;0.10721516;-0.19187969;0.537099;0.104849525;0.11087171;0.05772589;0.093960054;0.2191053;0.020386983;-0.020902524;-0.26927182;0.06876071;0.07210125;-0.08774231;-0.035973642;-0.12232771;0.18094581;-0.03923379;0.14898449;-0.057076205;0.12983425;0.30116904;0.3034229;0.37369847;0.17439732;0.07909385;0.058456767;-0.2429744;0.19785807;0.02289755;0.054424737;0.037547365;0.03909019;0.14274962;-0.16390757;0.047286686;0.107005194;0.0115243355;-0.2335152;0.23787522;-0.12320374;0.1076525;0.0068256515;0.14107832;0.12517603;-0.2970513;-0.09483086;-0.5361206;-0.1440093;0.13369165;0.22084117;-0.22333272;0.019386161;0.36200824;-0.06279022;0.025790049;-0.27636138;0.16189638;0.16672374;-0.60330576;0.05503117;-0.33588797;-0.024487793;-0.0080324095;-0.10866278;-0.08432357;-0.10936352;-0.1459751;0.06474876;-0.5350684;0.15089886;0.21376999;0.13628407;-0.23679309;0.40103164;0.296925;-0.16973989;-0.18033355;0.053833432;-0.10260063;-0.11912094;-0.320862;0.13679521;-0.03173613;0.107366845;-0.066533946;-0.08174573;0.21753496;-0.09900915;0.15976943;-0.14568307;-0.09900014;-0.11128059;-0.05202055;-0.3439105;-0.10599864;0.16928688;0.14381272;-0.042876747;0.19793524;0.013605533;-0.17047492;-0.18207943;0.20005488;-0.026824716;-0.1579452;-0.11486827;-0.4736599;0.0981689;0.14956911;-0.19096422;-0.05850449;-0.17765974;-0.28129438;-0.11557807;0.2820623;-0.032059267;-0.08693901;-0.25648573;-0.011659713;0.1210338;0.017191991;-0.18696804;0.107418;0.027214674;0.053126305;0.0041506565;0.040208798;0.011148231;-0.12390694;-0.10407814;0.08543637;0.24492857;-0.114173785;0.011592826;0.015648356;0.003078067;0.13251679;0.086489394;-0.1086048;-0.1373707;0.105712496;0.41627902;0.157091;0.08442072;0.15725133;0.10364228;0.0948522;0.07607649;-0.08026277;-0.15295169;-0.21677068;0.29547063;0.20838001;-0.005643969;0.28684312;-0.22431569;0.05935167;-0.3758337;-0.36650985;-0.24113777;0.12583688;0.12737636;-0.13050708;0.09771361;-0.05968681;0.059862737;-0.2398344;0.26127875;0.032608982;-0.45921093;0.09485577;0.15654281;0.10277778;0.039520394;-0.1216585;0.02514383;-0.17465053;-0.16136593;-0.109644346;0.084378034;-0.40178013;-0.5045254;-0.28054515;0.21205537;0.16091374;0.14878123
0.12065028;0.04025074;0.20728792;0.11125347;0.13670193;-0.14411499;-0.04351281;-0.12147978;-0.0017077707;-0.10585646;-0.10766003;0.1476037;0.26306143;0.0926184;-0.095351;-0.10464089;0.06824962;0.10668332;-0.20774467;0.16009033;-0.22222994;0.051946994;0.22845262;-0.120752476;-0.003097545;0.02199921;-0.22324345;-0.05384615;-0.113489494;-0.4453322;0.32379594;0.15762064;-0.039264947;-0.11704524;0.028648827;-0.0106618125;0.17723158;0.093955874;-0.10371944;0.202182;0.12989567;-0.383634;-0.29077736;0.27579463;0.054575507;-0.015662132;-0.024196422;0.09615263;-0.05554999;0.45649952;-0.07486373;0.0058319047;0.05360102;-0.07238963;-0.15501715;-0.14226568;0.0478924;0.25171673;-0.12292725;0.093416736;-0.05007717;0.16838042;0.3364599;-0.39638516;0.28333735;0.009874787;0.15171456;0.25972122;-0.10685907;0.015889369;-0.07154355;0.256244;0.051915187;0.17447454;0.03329617;0.07106634;0.21117452;0.026899507;0.029728217;-0.049062032;-0.43275893;0.09175395;-0.14709763;-0.41109025;0.13251431;0.07593717;-0.19344708;-0.100682065;-0.06171802;0.07118523;-0.21377164;-0.07978803;-0.19053654;0.23712987;-0.029294921;0.19668959;-0.12917946;-0.16503966;0.21818836;-0.17196678;0.188195;0.043998346;0.25066945;0.24674419;-0.09006934;0.24880248;-0.18392308;-0.04716805;0.06406775;0.053150795;0.03823271;-0.029575242;0.25634098;0.039643366;0.27093184;-0.012033479;-0.026283335;0.020833202;0.1244017;-0.10055043;-0.36096305;-0.37324536;0.18553644;0.0056574573;-0.30576983;-0.37772748;0.2721875;0.032548916;-0.10851336;0.006348891;-0.00026810126;0.17444554;0.19986948;0.12003341;0.16033661;-0.18497823;0.19519235;0.29066595;-0.42164403;-0.046574436;-0.14520684;-0.1331026;0.10718921;0.2533541;0.093186386;-0.10265253;-0.37659147;-0.4202619;0.27666834;-0.10492837;-0.2145393;0.18934813;0.13842165;0.0041777543;-0.0060829394;-0.07679647;-0.09759112;0.39877352;0.13597335;-0.16466779;-0.21671818;0.11507878;0.059268188;-0.16776559;-0.016233204;0.082850285;-0.058565933;0.29331622;-0.33670485;0.11705189;0.08559744;0.012234644;0.06584002;0.1531524;-0.039860435;-0.1391475;0.26075867;-0.18094009;-0.15711826;-0.13148847;-0.085977115;-0.11102241;0.051205102;0.048618592;-0.028068556;-0.10602845;0.0318125;0.31284866;0.054840073;0.1498074;-0.080012;-0.37617582;-0.06419452;0.15594889;0.27887174;-0.122652605;0.22725435;0.026789414;0.07485396;0.19283022;0.3790227;0.071468;0.2958801;-0.061089043;0.21606453;0.10664196;-0.08143053;0.01905922;0.26208174;0.048171323;0.35109013;0.15226221;0.0034115796;-0.048128635;-0.07597192;0.08074162;0.38821343;0.09055267;0.40736052;0.2652862;0.32739538;-0.14201123;0.099878505;-0.11657199;0.09494749;0.09993667;-0.46296924;0.22651629;-0.12816888;-0.0020823153;-0.4784495;0.0037509557;-0.3389969;-0.2305259;0.055580527;-0.43755302;0.19060719;0.09106101;-0.15701783;0.14796032;0.060497764;-0.06309054;0.05267047;0.24263977;0.22885205;-0.07256741;0.01800793;0.10005274;0.012876305;0.15316093;0.24772626;-0.32049596;0.2919495;-0.03737017;-0.35801685;-0.04060629;-0.29782066;-0.08442817;0.026697004;0.1713386;0.15831192;-0.014021026;0.19455293;0.26079318;0.22878729;0.09964212;-0.04586758;-0.14268461;0.14932153;-0.055376824;-0.57240987;0.20172319;-0.09471141;-0.46708423;-0.06324701;0.13789286;0.091779456;0.13840488;-0.15685564;-0.37403005;0.12020613;0.127694;0.03711866;0.0056547495;-0.46447623;-0.21249142;0.1278958;-0.10264284;0.13567835;0.024903677;0.06847191;-0.21134882;0.19059925;0.21169376;-0.10317613;0.12753989;0.01094539;-0.09452467;0.022938598;0.25303417;-0.12789047;0.17008752;-0.50668216;-0.18022367;-0.16268854;-0.060525473;0.07457822;0.010592677;-0.004948102;0.016142718;0.2737384;0.06232198;-0.29092038;0.23154406;0.15276866;-0.066635616;0.045955684;0.082384996;0.0016180847;0.11684276;0.25964803;-0.3325088;0.23314348;0.021432504;-0.067808904;0.16877204;-0.23525985;-0.017576633;-0.12210654;0.17722185;0.29893044;0.13837515;0.18841055;-0.029527975;-0.1288054;-0.18529987;0.14949936;0.04993235;-0.027555242;0.13191575;0.23125894;-0.0047323285;0.073790796;0.20194069;-0.13426673;0.06756643;-0.05354547;0.108771324;0.30110556;-0.41197476;0.17248392;-0.023271767;0.06692519;-0.09478494;0.24211615;-0.39151376;-0.0752753;0.23915496;-0.06228953;-0.07826085;0.027678773;-0.0876079;0.18690868;-0.01830026;0.32178542;-0.09157361;0.18868572;0.10180095;0.17046799;-0.057186265;-0.16894622;-0.06797987;0.010689784;-0.30540806;0.029353602;0.13498944;0.23008566;-0.4076409;0.24225304;0.11364845;-0.48497373;-0.27399972;-0.063694805;0.12632312;0.1401293;0.18028224;-0.1276996;-0.24645284;-0.009523794;0.08706206;0.14165954;0.29017738;0.045984123;-0.09704314;-0.046037525;0.13400963;0.22431345;0.14263631;0.037765156;0.054056503;-0.14518334;-0.09709266;-0.091944784;0.09447541;-0.048885614;-0.0003578024;0.096682;-0.2474875;-0.21814246;0.007826648;0.3421151;0.2647151;-0.1276916;-0.13449535;0.16549912;0.37217516;-0.27080765;0.3513725;-0.13994254;-0.0030006666;-0.09391842;0.088886045;-0.19431666;-0.041371834;-0.090180814;0.088856965;0.03682211;-0.009917041;0.2648802;-0.16346692;0.030082319;-0.11700757;-0.21219172;0.14087835;-0.047066346;0.20117702;-0.6037319;0.11110602;0.1122125;0.2535148;-0.25344908;0.007915375;0.0598447;0.05182709;-0.06430579;-0.10640054;0.1287904;0.06122881;-0.39302066;-0.053207718;-0.13872685;-0.071444444;0.1887619;-0.1552982;0.05089759;0.07485752;-0.31277224;0.0662917;0.08211577;-0.039076835;-0.016185539;0.16415969;-0.4287258;0.32380992;0.3811395;-0.3258767;-0.28199574;0.22816275;0.04803047;0.100861154;0.1531368;-0.008086037;0.07402831;-0.04342903;-0.2215205;0.32358366;0.21303698;0.023805501;0.20367126;-0.059655268;-0.13016;-0.15695044;0.16640066;-0.10872437;-0.12695539;0.19261317;0.11755353;-0.29589537;-0.19296923;-0.009953055;-0.086842775;-0.041993175;-0.16389793;0.1851079;-0.032527264;0.016038945;-0.38432604;-0.26411933;0.12598175;0.07706223;0.234038;-0.22130072;-0.20311186;-0.063075155;0.23161452;0.06558209;-0.08704677;0.026102692;-0.11202508;-0.04740119;-0.025599757;0.12949559;-0.07944936;0.31479055;0.119082786;-0.1632552;-0.03518274;-0.07202786;-0.16352178;-0.27963045;0.20099008;0.23861487;0.1461973;0.020675762;-0.049559493;-0.06395114;0.12197082;0.108084545;0.042692624;-0.115222774;0.13334335;0.3414446;0.16609965;-0.117478706;0.27637336;0.12259787;0.037943732;0.123500824;-0.21379298;-0.11080985;-0.26538813;0.4570525;0.050553907;0.025931459;0.12937504;-0.013759975;0.10347594;-0.21496297;-0.084121354;-0.13942681;0.07075284;-0.08236231;-0.30523998;-0.026543928;0.2997727;0.1339577;-0.01686339;0.38887128;0.12432252;0.03340187;0.10993528;0.031989045;-0.28391218;0.015725557;-0.27634323;0.034398086;-0.10953562;-0.18421383;-0.19539331;0.36072055;-0.04283251;-0.23284963;-0.3296544;0.16714741;0.002976273;0.22217017
0.08848437;0.07402152;0.055571303;0.19154517;-0.18765882;-0.19073571;0.0093738055;-0.15758686;0.064944625;-0.010582443;-0.10254928;0.17376807;0.15237665;0.22299306;0.05152729;-0.16800198;0.3359231;0.09983314;0.068630934;0.0033943024;-0.12161436;0.21375285;0.4598057;0.17800616;-0.3471844;-0.04801339;0.13142376;0.07683141;-0.3580476;-0.40600657;0.045634083;0.19596988;0.028263342;-0.17406438;-0.15194191;0.057990134;0.13681084;0.21807581;0.026263943;0.26935995;-0.09029304;-0.14209016;0.08051823;0.047698554;0.19549996;-0.16927862;-0.113146886;0.21968333;-0.020192128;0.5070501;-0.05684937;0.34816772;-0.1367442;0.100586176;-0.04640751;-0.23354903;-0.20930667;0.27119023;0.006493316;-0.0018448691;0.092528954;-0.18255188;0.27166453;-0.32746798;-0.04819188;0.038760386;0.20933162;0.06133309;-0.062266164;-0.05786336;-0.22863433;0.023487473;0.010011492;0.05525;-0.116068386;0.14933582;0.3711019;0.06616752;0.124451354;0.017285256;-0.4831076;0.19509111;-0.06180148;-0.24898207;0.16579641;-0.033151045;-0.25964278;0.07477317;-0.095864005;-0.15681005;-0.18881172;-0.18169408;-0.09505839;0.08778359;0.0075357864;0.41233853;-0.10944673;-0.38072345;0.307101;-0.23770803;-0.20772514;0.14529654;0.04602933;0.16425635;0.12652835;0.26351157;-0.009094079;0.115380436;-0.026673626;0.17171271;0.09825612;-0.102403596;0.162512;-0.04905782;0.5584757;0.07070818;-0.032694463;0.28796235;-0.17984319;-0.19945389;-0.29108393;-0.10990885;0.14032951;-0.024495263;0.121208;-0.1578057;0.26229733;0.12930416;0.0797913;0.09648908;0.14547849;0.15914932;0.010216352;0.091205195;-0.16327949;-0.103270866;0.3860473;0.26416102;-0.05918412;-0.056774583;-0.20238765;-0.018115807;0.105548196;0.0771922;-0.2612529;-0.10844976;-0.20583439;-0.08706111;-0.043213915;-0.1490142;0.014464045;-0.10179273;0.107614145;0.2860878;0.0820851;-0.055016465;-0.05199538;0.36787695;0.121895954;-0.10656819;-0.16584899;0.074390605;-0.10262118;0.08393923;-0.008844919;0.2349173;-0.100972064;0.21136326;-0.2659966;-0.027115341;-0.070765056;0.12177204;0.01973765;0.03385359;-0.058625616;-0.1376973;0.074423574;-0.13609853;-0.030564075;-0.5068384;-0.05578545;-0.40999392;-0.073512495;0.012487373;0.2032232;-0.16732939;0.20765905;0.011610351;0.025443515;0.14968558;-0.07616729;-0.07720035;-0.18502375;-0.1818231;0.22839849;-0.09775719;0.12732397;0.24509813;-0.0698121;0.12587397;0.32529652;-0.059120756;0.18354951;0.1305808;0.24289075;0.11347704;-0.14712743;0.18087086;0.045352004;-0.062368896;0.095217615;0.34511286;0.19701615;0.03991893;-0.12626323;0.27292204;0.43679476;0.15179713;0.2541939;-0.054437228;0.23005138;0.05867703;0.16483049;-0.10551705;0.28714994;-0.005912372;-0.11766408;0.11501335;0.2014036;0.06317227;-0.18018644;-0.14906637;-0.21195531;-0.091325335;0.0768005;-0.33210674;0.4522892;0.08590595;-0.2427666;0.053679377;0.14006677;-0.02825797;0.19834;-0.037311323;0.0741213;0.092105485;-0.22299415;0.47758752;0.25397545;0.09262121;0.07079636;0.0061472845;-0.07097018;0.18685974;-0.10519728;-0.072205484;-0.14547269;0.20639353;0.03434344;0.13463354;-0.10437865;-0.16521193;0.11639914;0.16183722;0.372434;0.10105256;-0.016300552;0.06398967;0.10023869;0.2221032;-0.08625747;0.19029409;-0.06698243;-0.38685864;-0.080179855;0.06737881;0.10729032;-0.045989126;-0.15744875;-0.25592634;-0.2018154;0.1163651;0.03831469;-0.23101662;-0.17572026;0.118017174;-0.018606257;-0.24464792;0.25245395;-0.005800207;-0.25203565;-0.03055965;0.12943633;0.11805776;0.036902852;-0.08506297;0.06407006;-0.20711952;0.030900909;0.010198823;-0.014573344;-0.18498135;-0.5001924;-0.08947751;0.015960766;-0.05985067;0.20545961;0.29563594;0.053534806;0.0059883767;0.28777388;0.068410724;-0.2125045;-0.27351883;-0.13125373;-0.03299311;0.11888402;0.048087195;-0.22467235;-0.05139742;0.22266948;0.12450543;0.12202959;-0.037936784;-0.057599224;0.33529025;-0.22549656;-0.2094126;-0.08409495;-0.013492184;0.12290447;-0.0923264;0.2883715;-0.033631034;-0.08652087;0.021298258;-0.0588056;-0.19753842;0.101682566;-0.067593366;-0.16070718;-0.075864345;0.15923025;-0.22861041;-0.20341781;-0.048160635;0.20843601;0.3210214;0.3476474;-0.08037935;0.16634299;0.14798026;-0.09493167;-0.101468556;0.40460336;-0.5393442;0.09343653;0.19756655;0.029081007;-0.1725405;0.12686464;-0.14585873;0.12736532;0.27910993;0.17431793;0.12097604;0.1812499;0.1283515;0.18558256;0.01928629;-0.029373433;0.20757037;0.020543005;-0.16289803;-0.010334175;0.085687496;-0.124777116;-0.20583132;-0.0036385003;-0.10910279;-0.45135581;-0.12920351;-0.22868216;-0.115383446;0.18773602;0.017174989;-0.05699566;0.026160017;0.0601916;0.26974183;0.040240414;0.38884228;0.1984802;-0.14365043;-0.28614572;0.068115756;0.112117365;0.0972119;0.16978721;-0.39707455;0.053975325;-0.12664099;0.01055963;0.07690421;-0.056094248;0.034144804;0.15381193;-0.124126785;-0.06385743;-0.025219066;0.11375165;0.18646897;0.09231526;-0.09270767;0.2904118;0.117673226;0.061559174;0.1414066;0.064011544;-0.07991371;-0.14966986;-0.10235865;-0.0029240104;-0.08501019;-0.028329872;0.15733647;0.10527796;0.12866333;0.49016872;-0.18777364;0.48597497;0.11736667;-0.19228476;-0.031772044;0.08574727;0.4194285;-0.39456433;-0.0715883;0.2828852;-0.06087862;-0.18703735;0.034631256;0.059339203;-0.040502824;0.009227571;0.1392319;-0.106328435;0.084046714;-0.6019231;0.030147776;-0.15845357;-0.14904204;-0.08944314;0.33431095;-0.13895494;0.2871342;-0.11653817;-0.13033901;-0.08110151;0.17216656;-0.06304388;0.23998117;-0.13801198;0.19297642;0.3053482;-0.06392799;-0.06520424;0.24555703;-0.25815952;0.2240924;-0.0616984;0.21733995;-0.029479861;0.09387131;-0.11418891;-0.11615332;0.33591536;0.22633703;0.22168769;0.07011486;-0.008997949;0.23011482;0.17650338;-0.21390907;0.10583792;0.23173532;-0.034081355;-0.049847748;-0.15047091;-0.09628214;0.07246123;-0.0687239;-0.10403205;-0.13068563;-0.16480182;0.032885313;-0.07466472;-0.1426544;0.18300347;-0.05946973;0.042257298;-0.092489265;0.10856814;0.0150872655;-0.124441385;0.07852668;0.18717304;-0.18691133;-0.18105444;-0.26877522;-0.22184744;-0.18336126;0.049572766;0.17980409;0.18220842;-0.19618075;-0.1071673;0.21570615;-0.10641992;-0.22478454;0.24814877;0.22704574;0.24306943;0.21904063;0.14097266;0.24747863;0.09229188;-0.018232875;-0.023279015;-0.16757211;-0.072875135;0.12361503;0.195422;0.08861162;0.11614487;0.008747695;-0.0043193353;0.2628835;-0.10847097;0.14256273;-0.11039309;0.55240047;-0.05646075;-0.27212158;0.2387485;-0.024236044;-0.026236456;-0.21603012;-0.061545152;-0.12378751;0.23859994;0.104370326;-0.0028158748;0.06250425;0.18783277;-0.034146413;-0.5028112;0.06266974;0.29982015;-0.027733013;-0.13976313;0.21385986;-0.16453683;-0.19724189;-0.4161032;0.06330698;-0.08761233;-0.019343924;-0.32785085;-0.15673769;0.067891784;-0.27048475;0.0075307377;0.14910941;0.0046740673;0.048483834
-0.117215134;0.106082484;0.20247911;0.26079527;-0.19608921;-0.03897538;0.029798776;-0.048596125;0.083017364;-0.053622574;-0.26699135;0.13701656;0.18730618;0.17324726;0.27781042;-0.28216442;0.089153446;0.25967887;-0.24942946;0.06478674;-0.06093598;-0.04099759;0.14778878;0.0029351944;-0.30607468;0.046205945;0.10563004;-0.025243038;-0.26700386;-0.16544873;0.1420987;0.16423629;0.017626058;0.001346289;-0.09207733;0.270899;0.06734288;0.07755665;0.15571932;0.0843486;-0.031267226;-0.1127221;-0.24823569;0.09595181;0.095929064;-0.0254289;-0.42479518;0.28984258;-0.07316244;0.43244475;0.23285909;0.21485648;-0.5364914;0.1310146;0.19021304;-0.05540269;-0.3546785;0.32650578;0.07922985;0.10772483;-0.021862876;-0.101094685;-0.059403792;-0.14848423;-0.3099619;0.2278783;0.3298497;0.019513372;-0.25299686;-0.09430712;-0.15479504;-0.08864095;-0.031121688;0.07940774;-0.034249235;0.174985;0.08268238;-0.48918706;0.012676752;0.041490365;-0.17205906;0.22368078;-0.0103959795;-0.15595758;-0.048411924;-0.07459061;-0.24944045;-0.15584809;0.024300663;-0.16534536;-0.086402014;0.054506525;-0.1489169;0.2227649;0.06773778;0.27686572;-0.37868452;-0.14344482;0.054646228;-0.09407423;-0.11187719;0.004956378;0.058007047;0.19999737;0.006368839;-0.23641214;0.057382513;0.048521712;0.013211811;0.02389161;0.18603358;0.12995744;0.028167369;-0.094418526;0.14592241;-0.08144936;0.09822336;0.11005045;-0.06600579;-0.2244575;-0.19397226;0.020997195;0.24699068;-0.016178554;0.22986633;-0.19854708;0.36048397;0.09528168;-0.26275477;-0.09815024;0.32353532;0.19350688;-0.12642395;0.029996468;-0.4460411;-0.31186274;0.18320492;0.2108573;-0.14467427;-0.054606944;0.11697731;0.31751195;0.14560431;-0.04553376;0.15995501;-0.031126887;0.08109304;-0.5713701;-0.051321674;0.1446888;-0.14077261;0.2008417;0.21829522;0.2663409;-0.09868126;-0.08091443;-0.056035746;0.037052777;-0.029691722;-0.14378157;-0.054304793;0.011471951;-0.1895082;-0.03175755;0.003087051;0.29905105;-0.012112227;0.27438456;-0.078674264;0.10592861;-0.2803973;0.14409533;-0.2666642;0.21258336;-0.0844648;-0.27961034;-0.1436657;-0.029487424;-0.08107796;-0.14970842;-0.058891565;-0.042387795;0.005017186;-0.1530578;0.07091104;0.41338548;0.18755594;0.08236677;-0.18529114;0.16306444;-0.06538961;0.012484595;-0.21136157;0.08107529;-0.0017442671;-0.32057613;-0.08184895;0.25584292;-0.22821516;-0.01081888;0.12166211;-0.03645339;0.32096976;0.03751439;0.39350218;0.17532358;-0.12109646;0.26414728;0.13766414;0.098120734;0.14567022;0.27032027;0.29608503;-0.21677357;-0.33375636;0.08867564;0.025175396;0.012465507;0.04744331;0.3921903;0.16931407;-0.09066363;0.09077187;0.2562952;0.18965916;-0.03603375;-0.13024358;-0.1412431;0.11360765;-0.2661545;-0.22059149;-0.16789813;-0.19722742;-0.010834904;-0.093176596;-0.056298777;0.12278572;0.14351435;-0.17691043;0.1824008;-0.04046076;0.052624434;0.06291444;-0.06385466;-0.100865856;0.062049247;0.124837026;0.3377101;0.0074824514;0.052211575;0.07553541;0.34641713;0.06330474;-0.04071748;-0.119500786;-0.017304646;-0.24381582;0.06610858;-0.008398472;0.30260572;0.17428873;-0.3994022;-0.039082646;0.13454436;0.42443267;-0.27344438;0.10740097;-0.008799634;0.12463369;0.13364065;0.031326585;0.15334396;-0.08245912;-0.27990606;-0.011410131;0.25914264;0.1554169;0.012099876;0.119700596;-0.13141868;-0.19702053;0.0047564576;-0.012955214;-0.45731658;-0.06546741;-0.17738144;-0.29276857;-0.3583221;0.110558465;0.24424525;-0.03569766;-0.10685941;0.2452285;-0.23184949;0.105952844;-0.026779987;0.18498205;-0.2280909;0.08883212;0.26966047;0.011322875;0.19248103;-0.13558146;0.20995352;-0.30082417;-0.3015054;0.10693489;0.09863396;-0.080919035;-0.007960111;0.20031387;0.2092187;-0.38873938;-0.071450606;0.12639335;0.20709883;0.18606232;-0.19893962;-0.17881411;0.044714734;-0.089692704;0.08621209;0.26351783;-0.15949498;-0.07595304;0.32436463;-0.17413373;-0.06692045;0.0286307;-0.029465964;0.067179546;-0.19851643;-0.025775807;0.2791264;-0.019791277;-0.3483881;-0.060392734;-0.04555192;-0.17194353;-0.016303314;0.06566758;0.073775426;0.26073903;-0.19188672;-0.016451573;-0.16038275;-0.03987209;0.36452818;0.117158815;6.829089e-05;-0.097088926;0.21954498;-0.2538827;-0.23455662;0.1410341;-0.37508407;0.2903185;0.23645666;-0.36039665;0.07280899;-0.02944221;0.15137212;0.21814725;0.2313725;-0.07757958;-0.09595144;0.17425346;-0.09397208;0.10401495;-0.121097;0.041445486;-0.058056455;-0.03896908;-0.04280461;0.1520379;0.10251439;-0.4420437;-0.10386655;0.032453872;-0.10626871;-0.3526449;0.20510702;-0.21235158;0.03654284;0.17103307;0.3636964;0.11955719;0.2726793;-0.00062529754;0.1170709;-0.13619664;0.33179528;0.12368405;-0.119237214;-0.1117915;-0.08191208;-0.20052028;-0.17456768;0.14586027;-0.021322891;0.040336385;-0.00437672;-0.103459895;0.07429169;-0.086360075;0.074502304;0.35937324;-0.054991063;-0.039795846;0.10179597;-0.11736578;0.002485682;-0.32216084;-0.059552304;-0.4732293;0.2556011;0.13458104;0.034142755;-0.017411377;-0.17863233;0.0071162353;0.023495253;0.2650461;-0.007885503;0.01169702;0.031294584;0.19515403;-0.35928774;0.40928277;-0.24173796;0.2561762;0.23841967;-0.18963887;-0.004832344;0.044335485;0.17955948;-0.5545257;-0.09314106;0.08947264;0.1964059;-0.16440926;-0.057838082;0.035908554;-0.1639695;-0.0138405375;0.1521941;0.13255565;0.11954869;-0.06524024;0.20780896;0.251484;0.15864182;-0.19289315;-0.022673912;-0.26715654;0.16439275;0.17646466;0.2052281;0.18290825;0.17433885;-0.055432;0.47481358;-0.13839059;0.0256807;-0.1702198;-0.047892105;-0.025420891;0.2651488;-0.112307526;0.114242695;0.08947192;0.07644026;0.096900105;0.082072824;-0.1329782;-0.15310064;0.42369872;0.29982796;0.06929373;-0.039205473;0.14607581;0.122546874;0.16218518;0.14424178;0.22049211;-0.047427762;-0.1274068;-0.061802827;-0.001774313;0.17489964;-0.038605575;0.078056574;0.24473204;-0.21840432;-0.46206114;0.24578556;0.022288997;-0.04994722;0.02202985;-0.038826685;-0.08538495;0.16085656;-0.09374747;-0.06230966;0.117843576;0.14904216;-0.13734955;0.01843882;-0.37953532;-0.22564057;-0.17606992;-0.12978692;-0.18034482;0.21868739;0.09538717;0.034089826;-0.06631799;0.20027982;0.20990932;-0.35982138;0.20444812;0.26739934;0.11060598;0.3449883;0.007828463;0.19309919;0.22741516;-0.05765162;0.035925135;0.0095431665;0.13029395;0.1416873;0.15325798;0.13812216;0.041521735;-0.08363078;-0.10603186;0.23241249;-0.27504036;-0.057727832;0.126938;0.37198865;-0.035167795;-0.45891422;0.150544;-0.22023647;-0.20493077;0.086731926;-0.14879519;0.02050785;-0.14792469;-0.16763203;0.23455095;-0.0684142;0.3381814;0.055038862;-0.47372347;-0.035813723;0.19494842;-0.09121524;-0.22962768;0.28126138;-0.11615285;-0.01778301;-0.4657633;0.094980516;-0.13805509;-0.0936497;-0.29343763;0.041811362;-0.099241085;-0.01475803;-0.0019736113;0.20477298;0.017572088;0.022666246
0.0602174;-0.10298582;0.0066237417;0.059647124;0.037979927;0.058878437;-0.31725886;-0.071659625;-0.04333593;-0.2174708;-0.30831847;0.044962354;0.28278258;0.3366633;0.16675211;0.018244192;-0.24012339;0.22437854;-0.078089915;0.054338854;0.16982931;-0.042570796;-0.26430136;0.017549109;-0.22233002;0.076240085;-0.26976165;0.1317073;-0.30860308;-0.12407389;0.085311435;0.06150377;0.0042074122;-0.106896766;-0.0626775;0.1671614;-0.11135389;0.15411228;-0.26138282;0.13938187;-0.010991704;-0.11748767;-0.30818108;0.17931403;0.14497694;-0.04576788;-0.29048365;-0.07210301;0.016633518;0.15165925;0.18247049;0.2747062;-0.3131331;-0.09718162;0.1396799;0.28327233;-0.070502535;0.12567773;-0.11688802;0.030370146;0.21721485;0.046834774;-0.14824134;-0.018542929;-0.17205213;0.21536759;0.20111582;0.20600966;-0.054723945;-0.015430067;-0.028866258;-0.2829872;0.014297886;-0.032555982;-0.0012599486;0.04668133;0.13395377;0.08344434;0.028852362;-0.015791724;-0.28958002;0.14818536;0.1068103;-0.41463313;0.28975147;0.24440281;-0.09588319;-0.10744947;-0.10161801;0.027463418;-0.060309865;0.02223569;-0.09069187;0.1497151;0.047851786;0.07471729;0.0057709734;-0.24888055;-0.04230499;-0.19587657;-0.20054096;-0.12247225;-0.031957906;0.09358454;0.11531315;-0.46754918;0.08524949;-0.25956064;0.03510222;-0.019061383;0.22042532;-0.011957823;0.31766424;-0.39942852;-0.0801561;-0.080273144;-0.1075629;0.20177144;-0.16027437;-0.18152536;0.071688876;-0.110464275;0.21273105;0.010993407;0.3362195;-0.22164707;0.5118109;-0.05117575;0.011828217;0.057064444;0.15646292;0.015305391;-0.07025959;-0.20590782;-0.395641;-0.030216325;0.14599606;0.0016244694;0.13211675;0.03391453;-0.010559013;-0.08694338;-0.06084527;-0.006377153;0.07396155;0.12822898;-0.39315954;-0.20701785;0.10287712;-0.12415646;0.074561484;-0.08888335;0.021891955;-0.077115744;0.08411857;-0.46702656;0.11684206;0.30712757;0.0035210669;-0.057314027;-0.09376885;-0.034875825;-0.4699462;0.0557569;-0.06565227;0.3153939;0.2793473;0.14023745;0.014938172;0.20976458;-0.05692847;-0.10700255;-0.081652924;-0.1666447;0.12639162;-0.0076208618;-0.106570266;-0.19649209;0.12350015;-0.07474844;0.018320693;-0.007885073;-0.21937478;-0.17362742;-0.092573866;0.17207225;0.10620252;0.027041178;-0.0642725;0.008670878;-0.056495205;0.23553759;-0.17876104;0.25821206;0.072979346;-0.32276177;0.058625825;0.053376626;-0.0778702;0.08441853;-0.17227826;-0.11304692;0.35509363;0.087855026;0.39483908;0.018327922;-0.32640213;0.15599456;0.026712123;-0.055795297;0.29805657;0.30899513;0.050371066;-0.13275598;-0.006528915;0.38941807;-0.22725615;-0.22341815;-0.04202544;0.07861018;-0.18024354;-0.052572355;-0.05739288;0.111669995;0.34692922;-0.14403807;-0.09943951;0.090043575;0.020065768;-0.08903158;-0.19179797;-0.077154055;0.04699527;-0.22126435;-0.112854935;-0.10782584;0.04350272;-0.17272465;-0.31225088;0.12021833;-0.059586246;0.37971327;0.22671011;0.19674787;0.22836913;-0.015960474;-0.018063953;-0.034586936;0.017923757;-0.1336176;0.014333684;0.4317627;0.21466957;0.017406289;-0.04746653;0.053807218;-0.21349533;0.2102681;-0.14415541;-0.026354823;-0.10846575;-0.26071733;-0.40628994;-0.05381557;0.29532695;-0.70898664;-0.06719444;0.023217732;0.14082949;0.32528085;-0.028543493;0.27341613;0.25948736;0.07494289;0.31768483;0.22732651;0.029723937;-0.10714175;0.14864889;-0.10894317;0.060627203;0.07083978;0.1070237;-0.49940294;0.15202922;-0.035340853;-0.24955982;-0.46779668;-0.22751419;0.09309354;0.09839646;0.037072487;0.13737471;-0.03926779;0.031612407;-0.033680584;0.15899646;-0.32437098;-0.09482081;-0.18606177;-0.078977816;-0.14937909;-0.15080182;0.07672308;-0.4118894;-0.44222543;0.16198266;0.0015427377;0.23608619;0.021960394;0.16221194;0.22842588;-0.16153948;0.02914156;0.20220634;-0.05094739;0.15190254;0.05949877;-0.027620949;0.03665691;-0.1569113;-0.22601254;0.09686916;-0.103614606;0.042683247;-0.08701755;-0.078100525;0.021794688;0.25417146;0.01611308;0.08815165;0.017459905;-0.024669738;0.29914162;-0.075901344;-0.18290628;-0.07597872;-0.13160788;0.11462351;-0.11832037;-0.032613717;-0.0032274507;0.002559616;-0.20523787;0.2119378;-0.21884689;0.06935143;0.12804376;0.17147925;0.027388405;0.22303227;0.17213465;-0.1516588;-0.31215575;0.1148228;-0.3577066;0.36758047;-0.089337595;-0.18874365;0.037694015;0.37889314;0.018709073;0.23050739;0.2572255;0.0141216265;0.07252815;0.123345;-0.05816387;-0.13169496;0.26018736;-0.025337076;-0.017962536;0.063032605;0.3036207;0.022031218;0.20579393;-0.26441485;-0.22412454;-0.028433932;-0.20644554;-0.076351516;0.32971933;-0.2911203;-0.0906311;0.18452713;-0.02058149;0.14254935;0.2354946;-0.037705626;0.40210587;0.03416886;0.1815665;0.1890062;-0.121731766;0.010597637;0.14536057;0.018862266;0.2219967;0.1557781;-0.039134465;0.027578318;-0.16840243;0.1064401;-0.14554437;-0.24087144;0.12871847;0.101547144;0.0343243;-0.07203812;0.120353684;0.12203923;-0.06283951;0.0857106;0.14146112;-0.42411876;0.28269598;0.4629317;0.018087534;-0.103181906;-0.1651493;0.12218606;-0.11275067;0.17387821;-0.12724338;0.13915746;-0.25897527;0.017418357;0.16928285;0.5391679;-0.2969913;0.44886413;0.22544633;-0.0511319;0.016441569;-0.10751306;0.03688582;-0.5255118;-0.037374582;0.09702556;0.2085872;-0.10402624;0.04365525;0.06098148;-0.11426601;-0.06379816;0.1398593;-0.105528235;-0.012104478;-0.24309751;0.31017452;0.18847102;0.16290678;-0.2767206;0.13003474;0.08141577;-0.04036765;0.120624736;0.12854326;0.27452862;0.17258897;-0.11929856;0.24273282;-0.11931228;0.32272872;0.07818395;0.13513495;0.28869972;0.3944193;-0.11918209;0.27865064;0.0016257121;0.11242629;-0.32118177;0.10049248;-0.09343141;-0.47200742;0.43251613;0.34386492;0.03271039;-0.10988084;-0.1774347;0.040480077;0.08068796;0.01169801;0.2855982;-0.076341465;-0.061291546;0.031864643;-0.09432596;-0.003265346;-0.2685711;0.17350599;-0.14560656;-0.17544244;-0.55694747;0.025824001;0.057616986;0.023201315;0.011370493;0.017212262;-0.11113928;-0.29399163;0.013853155;-0.16527858;0.26807752;0.24534835;0.094349615;-0.07320582;-0.46739095;0.07988749;-0.18688463;-0.11788555;-0.045810096;0.09361945;0.1812187;-0.15045172;-0.037389718;0.023555277;0.33523193;-0.30441418;0.0039804545;0.06985901;0.17322005;0.25532323;0.03838858;-0.24909082;0.01211169;-0.11202576;0.0779532;-0.2491824;0.16305463;0.0929255;0.22337972;-0.11426767;-0.14090152;-0.08350503;0.060523186;-0.003826831;-0.2135365;-0.02318313;0.017400308;0.09590647;-0.20775583;-0.40552813;-0.04258398;0.06887765;-0.1440305;-0.017470729;0.049041554;-0.019232541;0.13128914;-0.29795024;0.043262262;0.17558412;-0.12160458;-0.14064516;-0.35922068;0.06748125;0.2995585;-0.5329457;-0.32082236;0.32127467;-0.04332753;0.07726109;-0.2550996;0.3193264;-0.3249838;-0.16424029;-0.47317362;-0.01371653;0.093523696;-0.46802312;0.075154774;0.05753266;-0.2533769;-0.101205826
0.14927708;-0.23485869;-0.076416746;-0.0019393351;-0.14816743;0.002067153;-0.23218702;0.028120188;-0.05641516;-0.22971947;-0.015121385;0.18655267;0.23060213;0.16713765;0.14280948;0.06762882;0.053046387;0.34941953;0.034531582;-0.060919702;0.12415381;-0.11110624;0.01898129;0.27411255;0.012301025;0.20017332;-0.3822246;-0.10705267;-0.0019604247;-0.32298538;0.24505559;0.18204479;-0.06118421;0.28557867;-0.069163725;0.08588801;-0.12977587;-0.23849301;-0.0038285954;-0.0772641;-0.2160045;0.054057904;-0.020360116;0.033256415;0.2607388;-0.10497362;-0.062955625;0.03651356;-0.09114642;-0.08662956;-0.025772046;0.10346581;-0.079777375;0.01050423;-0.3732022;0.16269992;-0.27265915;0.019917404;-0.04363337;-0.0031729287;-0.14391865;0.25868943;-0.457038;0.11251974;-0.26427418;0.121354826;0.042428672;0.32983664;0.2566589;0.11017154;-0.19762838;-0.02216849;0.02893908;-0.11168534;-0.14422177;-0.15787472;-0.013956043;-0.44273147;-0.015779724;-0.1340917;-0.21939209;0.0607562;-0.18743019;-0.40695882;0.13230684;0.34224865;-0.15772781;-0.3790956;-0.367531;0.5861708;0.1509766;-0.09031551;-0.15061136;0.11915686;-0.08784432;0.07470408;0.21268009;-0.12735732;0.03227799;-0.20069414;-0.40248778;-0.07253701;-0.2286408;-0.21149696;0.064294964;-0.6283744;-0.0063794563;-0.10130188;-0.11484188;0.047407087;0.31955194;0.1130389;0.2557304;0.01979591;-0.019738186;-0.35651702;-0.0014378275;0.14662424;0.20937203;-0.16194513;-0.23948115;0.27911657;0.19945413;0.0057485923;-0.00851673;0.099568464;0.27126035;-0.0906953;-0.038620926;-0.016436497;0.2248079;0.025314687;-0.11362949;-0.027502503;-0.125411;-0.26370642;0.14775361;0.19906172;-0.17756441;0.022942921;0.098322175;-0.08327285;0.0045368816;0.1221809;-0.20264095;0.07298968;-0.5851131;0.07905684;0.098070815;0.046239693;-0.0016546827;-0.1378922;-0.25052315;-0.17065483;0.067489155;-0.54796034;0.046187323;0.23067926;0.00839752;0.050957546;-0.15969308;-0.093200065;-0.20464109;0.20980126;0.050815273;-0.070985906;0.17769887;0.2703269;0.10878912;0.2917762;0.19712396;0.054078393;-0.21539035;0.03465409;0.014096436;-0.032178424;-0.03194228;-0.4148515;0.32685357;-0.1986028;-0.29138348;-0.017777957;-0.26965025;-0.10087579;-0.07654499;0.23682494;-0.056440905;0.18224935;-0.06785091;0.019149791;0.2468182;0.10430744;-0.00050112326;0.4687475;-0.20209342;-0.0232902;-0.12033898;-0.009403918;0.00086487073;0.025854742;-0.1477007;-0.04552518;0.42391413;0.05608765;0.25921464;-0.07202;-0.2963505;0.26492658;0.19840479;-0.11455872;0.05517955;-0.019729745;-0.035677124;-0.024397196;-0.13827595;0.25764915;-0.16666456;0.028221158;0.015667958;0.10257721;-0.09468363;0.016829245;-0.32327968;0.24224442;0.2505038;-0.11294459;-0.203298;0.038965024;-0.06048731;-0.15384655;-0.21119317;-0.004709343;0.13070069;-0.108124465;0.011574897;0.30191386;0.11328693;-0.17538345;0.03319931;0.16942734;0.09055872;0.20221376;0.1656253;-0.24161994;0.042604923;0.12480091;0.23083264;0.08967864;0.3304696;0.092315674;-0.24671423;-0.5203931;0.30319658;0.20223868;-0.07280373;0.11003957;-0.20005737;0.077376544;-0.36342946;-0.10236113;-0.16119601;-0.30193976;-0.1801321;-0.3058257;0.18992247;-0.44007704;0.11067999;-0.11003196;0.088622294;0.08930416;-0.0190835;0.21322031;0.26152375;-0.13416545;0.2557729;0.1440297;-0.015098796;-0.120653994;-0.010955487;-0.33588085;0.25663692;0.2149466;0.21611436;-0.41791677;0.14605024;-0.13207321;-0.12996346;-0.47189635;0.008730457;-0.050707854;0.13067819;-0.15036608;0.081712015;0.027474588;0.15856877;-0.0023215627;0.1348725;-0.2568449;-0.0020107657;0.11666429;-0.18714477;0.0046080975;0.025418708;0.10287128;-0.17363454;-0.24153073;0.31238768;0.17747203;0.22373286;0.14805667;0.07962297;0.42802075;-0.041510083;0.0470755;0.26806954;0.10267366;0.020922916;-0.03378873;0.25701484;0.027719533;-0.13727775;0.09077235;-0.049604207;0.07196584;0.14823839;0.20657423;0.00015202873;0.05848395;0.12669703;0.31419647;0.22563528;0.26131004;-0.034590382;0.20798065;0.09275868;-0.020086547;0.07648394;-0.13930395;0.48708564;-0.14902861;0.21462277;-0.013078636;0.09949558;-0.22721447;0.2800732;0.009064905;0.056748364;-0.040220723;0.030898921;0.11084645;0.20118138;-0.20101269;0.0717526;-0.23242605;0.039295446;-0.082094826;0.24010916;-0.042837683;-0.10493982;-0.112610206;0.05223559;-0.17587005;0.035854936;0.28248796;0.40804356;0.00808138;0.06508861;-0.00851603;0.022739489;-0.07751455;-0.13577998;-0.079206854;0.19891146;0.1598004;-0.03675419;-0.21964763;-0.051798098;0.00796963;-0.15925632;-0.2506162;0.0794022;0.2921782;0.01066989;0.021828542;-0.107415244;0.18589678;-0.08371851;0.39429206;-0.055230644;0.14393592;0.13558203;0.1795994;-0.074096985;-0.105060615;-0.035936613;0.15062979;0.18005115;0.23836939;0.10771808;-0.022788152;0.22182195;-0.17716466;0.047573593;-0.18636699;0.15546305;0.2218717;-0.034704298;-0.08242913;-0.26447618;0.3724529;-0.15229331;0.11542947;0.07034314;0.44635102;-0.28822055;-0.056481194;0.25287005;0.33223945;-0.12672748;-0.31509867;0.045560196;0.03278508;0.10855855;-0.07431375;0.19022366;-0.27954412;-0.096522495;-0.2840688;0.491362;-0.4286772;0.16845633;0.04769106;0.01641823;-0.16176513;-0.061201356;0.06578648;-0.28634837;-0.15458423;0.3048692;0.044385836;-0.24159968;0.27183348;0.033288084;-0.14871962;0.100474656;0.11982076;-0.077662684;-0.17263189;-0.36931837;0.050096314;0.17619075;-0.14555569;-0.07220093;0.0021180834;0.23278883;0.045251157;0.1863414;0.18354547;0.19746353;0.08046103;0.12339859;0.23916385;0.045503773;0.34786642;0.11142795;-0.13289508;0.15325888;0.2666779;-0.07848037;0.29144907;-0.17801401;-0.17036761;-0.30400056;0.14327528;-0.06773477;-0.13651583;0.033630144;0.214832;-0.085464835;0.12023301;-0.00071702304;0.017746894;-0.01759866;0.10089457;-0.123201326;0.11213683;0.11575698;0.17301662;-0.34997353;0.22186337;0.124451675;-0.038301643;-0.002746956;-0.19606407;-0.32586792;-0.0021089937;-0.17245756;0.10398301;-0.05479581;-0.0030667942;-0.120652705;-0.18731073;0.0303996;-0.29582986;0.346406;-0.020153027;0.19472714;-0.067192875;-0.23392521;0.029117145;0.034603223;-0.014814038;0.13573973;0.06504331;0.12559593;-0.114318624;-0.18804516;0.10138217;0.15844412;-0.092719704;0.21975347;0.0047096834;0.12402997;0.066432744;0.06640364;-0.1525053;0.006455005;-0.25852194;0.08986502;0.16802068;-0.011017865;-0.08956536;0.08215291;0.073259644;-0.27516973;-0.015027023;0.10684983;-0.33687696;-0.05827164;0.0033248314;0.0022390112;0.11127851;-0.2598384;-0.2538149;-0.11493631;0.11594572;-0.115601346;-0.061390672;0.06282709;-0.13653842;0.17089312;-0.10692864;-0.07501271;0.16892588;-0.1557112;0.15431209;-0.26572877;-0.14935471;-0.03490419;-0.2619718;0.11257476;0.042534117;-0.01587581;0.08075828;-0.18761459;0.32621196;-0.29152158;-0.016460571;-0.33004624;0.1476738;-0.21945493;-0.13617334;-0.041226108;0.19978428;-0.11144029;-0.25288633
-0.091581285;0.09292042;-0.16862921;0.10142203;-0.1197266;0.23854819;-0.13937408;-0.00623997;0.0007232456;-0.075335905;0.063799344;0.16999316;0.33881438;0.06327753;0.43107554;-0.099053554;0.18788052;0.43975022;-0.3454204;-0.15977179;0.09020665;-0.3389571;-0.05017377;-0.11837764;0.10055844;0.03186647;-0.30669498;-0.10220673;-0.073774114;-0.14942768;0.0481825;0.020844946;-0.01053539;0.2363585;-0.30312815;-0.11745425;0.016245412;-0.14388911;-0.10523529;0.350599;-0.17725469;-0.030779261;-0.003891344;-0.3423529;0.14374863;0.009347584;-0.04747318;0.0013036499;0.083344094;-0.09299089;0.12605108;0.21489045;-0.01785387;-0.036109105;-0.19959788;0.025871128;-0.08720398;0.02645094;-0.035662137;0.26046893;0.023057697;0.068433955;-0.31886682;0.31828946;-0.15043414;0.12027248;-0.2421508;-0.04512803;0.28533968;0.18999252;0.054218326;0.082880855;0.3110256;-0.11568061;-0.18745112;0.02641707;0.2508315;-0.08308057;-0.19053854;-0.050089307;-0.14686117;0.10536451;0.059131976;-0.28307235;0.14923304;0.18351537;-0.27166408;-0.11812484;-0.24032263;0.20037276;0.22584192;-0.049275447;0.058984257;0.023385013;-0.34578004;0.042549264;0.057615273;0.06059734;0.013225503;-0.21219908;-0.10020828;0.21151595;0.032015927;-0.4246547;-0.21241301;-0.26806334;-0.046555508;-0.058001954;-0.10052303;0.10935292;0.2696915;0.056530185;0.42261112;-0.5061374;-0.018836685;-0.37371382;-0.05978856;-0.12332192;0.049138445;-0.103601724;-0.031191833;0.19806781;0.16498163;0.038215946;0.008570438;0.0010400936;0.3400913;-0.08927674;0.1236439;0.2054015;0.21276161;-0.06010802;-0.04682419;-0.13859464;-0.22858539;-0.14528705;0.0952257;0.17209016;-0.022552555;0.042400345;-0.2388908;0.25790194;0.16857117;0.04609278;9.9874414e-05;-0.14171657;-0.39072934;0.15714242;0.093814515;-0.29491612;0.10109748;-0.15573417;-0.0897082;-0.07687501;0.00478719;-0.41958314;0.28882948;0.051510777;0.17594211;-0.077122025;-0.120004594;-0.04922211;-0.18738508;0.07588845;-0.047940884;-0.11193677;0.3128484;0.042029135;0.097591065;0.2110265;0.20859608;0.29548216;-0.18875231;-0.05218169;0.38527188;-0.096689686;-0.24043761;-0.07169887;0.18735169;-0.0747649;0.02918877;-0.090287976;0.024113744;0.09051138;-0.13481905;0.29807508;0.019185683;0.021840937;0.23659442;-0.23537482;0.1849855;-0.18490036;-0.17286427;0.22852534;-0.14818014;0.13813645;-0.3567984;0.007344766;0.08287066;0.06670327;0.00018729681;-0.064052604;0.21781857;-0.06621404;0.24374166;-0.22130704;0.104199745;0.4217017;0.361816;-0.012621854;0.12754773;-0.1257988;0.09857833;0.01773379;-0.00818909;0.41695526;-0.015168878;-0.16179132;-0.002397814;0.09009677;-0.52818143;0.111218914;-0.13820775;0.19453311;0.4778325;0.069027215;-0.07759786;-0.027479047;0.33127066;-0.07093521;-0.01024197;0.03317491;0.12453719;-0.14993316;0.11516331;0.06293416;0.17938864;-0.13399471;0.1338762;-0.058117684;-0.0009913463;0.30624592;0.14713368;-0.13163084;-0.028538786;0.2935349;0.09412544;0.1261604;0.19911124;0.022837846;-0.050916094;-0.35194948;0.39200115;-0.039429;-0.0580891;0.08382795;-0.25488237;0.15615992;-0.36751172;-0.14439435;-0.11785575;-0.27427617;-0.09458376;-0.101065226;0.0153595675;0.028471429;-0.15665074;0.09791476;0.011465982;0.13520107;-0.53192335;0.26683605;-0.010588402;-0.14779513;0.14169134;0.31770504;-0.061256226;0.09875622;-0.07462459;-0.46218905;0.3856619;0.2103126;0.29792646;-0.41913375;-0.048284374;-0.22255535;-0.22739638;-0.2265814;-0.27272108;-0.048176717;0.022977162;-0.007016461;-0.01326236;0.02649779;0.27018654;-0.045540985;0.33443317;-0.18194811;0.0449417;-0.3282758;-0.2745393;-0.31952208;0.05522058;0.102580115;0.32498458;-0.12592858;0.27646106;-0.17289191;0.0883199;-0.036470465;-0.07464241;0.37078318;-0.16272902;0.00845463;0.43601042;0.09658413;-0.11927761;-0.13279212;0.03834136;0.17579076;-0.05624367;0.051391542;-0.19775718;0.07237988;0.21660776;0.2057507;-0.3490527;0.044724584;0.36404234;0.5041654;0.04618347;0.16351923;-0.08437948;-0.04353899;-0.1859799;-0.18350708;-0.0033663267;-0.087004654;0.4827678;0.14433521;0.1631612;0.09784271;0.07019321;-0.08628846;0.2213053;-0.02612647;-0.14518084;-0.071696706;-0.20095906;0.16961251;0.02426494;-0.32440418;0.101152964;-0.14307912;0.005708888;-0.17532879;0.0054924497;0.07369437;0.040295243;-0.27581516;-0.085935645;0.086204;-0.042967007;0.291067;-0.20118664;0.12082404;0.204725;-0.048369974;0.05086667;0.08273691;-0.030461928;-0.041565094;-0.04366471;0.105450496;-0.009817323;0.036372643;0.08194076;-0.24778666;-0.46568304;-0.20042515;0.12307687;0.060628947;-0.0446031;0.0009753444;-0.021780089;-0.19057828;0.04670481;0.05133349;-0.24847595;0.19815773;0.24395359;0.091952786;0.078404896;-0.13717745;0.042246558;0.21154103;0.22634163;0.2250601;-0.07301222;-0.28937238;0.23094639;-0.2717201;-0.09957626;-0.31723684;-0.07363866;0.099686384;0.039257165;0.30338392;-0.24237013;0.2385676;-0.14922589;-0.1315912;0.12201309;0.17854123;-0.2188671;-0.33864704;0.27283698;0.09642789;-0.24648024;-0.18774664;0.06930699;-0.03758307;0.21472207;-0.07426319;0.13375682;-0.26929578;-0.33703116;0.06256524;0.3414517;-0.26842564;-0.092734195;0.083411194;0.27237886;-0.038167275;0.3166831;0.09948308;-0.27066255;-0.10800273;0.1917456;-0.050355643;-0.38660944;0.29735726;-0.05724616;-0.2488955;0.14883034;0.014377312;-0.18012035;-0.14314316;-0.14091174;0.2387131;0.05359686;-0.022797646;-0.23059806;-0.049630765;0.09921369;0.17890005;0.21479592;0.3579401;-0.05791304;-0.0797252;-0.03814492;0.10327836;0.13457526;0.32717627;0.26163206;-0.3378499;0.09930977;0.2629056;0.01745244;0.15472868;0.031245584;-0.11810623;0.0018855302;0.16670157;-0.029832572;0.058625963;0.14925902;0.2118037;-0.25701538;0.14915219;-0.07530866;-0.13920587;-0.030800346;0.0427185;-0.09994266;-0.11721078;0.033027835;0.017377023;-0.16268823;0.105329566;0.16941613;0.31060818;0.07708719;0.021909202;-0.44050407;-0.04574849;-0.020935776;0.18127353;0.43153718;0.031552795;-0.0870743;-0.08560305;0.07727598;-0.02480943;0.25792474;0.29725444;0.141028;-0.06880618;-0.37185135;0.07305266;-0.021212878;-0.17981274;-0.11662429;0.025316106;0.12923299;-0.055736102;-0.0691446;-0.1960022;0.04941636;0.050423022;0.06297493;0.07638152;-0.24670431;0.11038822;0.3461508;0.14823884;-0.23152134;-0.031028524;-0.013439142;-0.05751305;0.09920807;-0.16551262;-0.006164156;0.3660516;-0.2857306;-0.11069713;-0.005141471;-0.2846612;0.09164995;-0.023681212;0.014964221;0.010003028;-0.2998613;-0.3287663;-0.28426358;0.109453164;0.044791196;-0.015159811;-0.024837509;-0.19071127;0.45696127;-0.04801067;-0.06853724;-0.08432515;-0.19162104;-0.035082802;-0.47213244;-0.18321666;0.06176561;-0.39568827;-0.025254903;-0.07434338;0.0043558744;0.10390969;-0.114739105;0.4968646;-0.26278427;-0.21143262;-0.2856653;-0.0667891;-0.11734881;-0.17993337;-0.26165166;0.02042384;-0.30165413;-0.097526774
0.09118686;-0.044721782;-0.092262946;0.3787919;-0.08153042;0.05341237;-0.15205394;-0.20573908;-0.023381388;0.119595654;-0.06504492;0.13462216;0.062674396;0.122536786;0.37130672;-0.12484762;-0.046144996;0.19699281;-0.25398827;0.13494137;-0.13549508;-0.054460134;0.06449402;-0.04015876;0.2534569;0.21370243;-0.15656836;-0.1213803;-0.1065121;-0.0635028;0.12801433;0.15556934;-0.0465789;0.09892275;-0.024524562;-0.27434647;0.007855878;-0.14501712;-0.032360595;0.12567526;0.01856556;0.28627202;0.12339836;0.041101057;0.117345475;0.12348588;-0.22588031;-0.003107017;-0.011979709;-0.31759238;0.17536208;0.16738816;0.04463675;-0.337643;-0.2500443;0.38681576;0.11232323;-0.063346915;0.1637417;0.19555078;0.21923903;-0.22868207;-0.40922624;0.179626;-0.1312368;-0.15736003;-0.2827047;-0.17354402;0.03926626;-0.06525962;-0.0014261667;-0.22227831;0.10459851;-0.19961052;-0.22316386;0.35718015;0.16952284;0.14890373;-0.22354755;-0.041061297;-0.109276645;0.26342192;0.21869673;-0.112611346;-0.14253016;0.39958146;-0.14179322;-0.11854764;-0.19490992;0.10153178;0.0858553;-0.27171293;0.018868614;0.10229005;0.06085917;-0.23216327;-0.22401452;-0.20579755;0.19923936;-0.06821948;0.17219928;-0.034784444;-0.18772368;-0.2583806;0.084751666;-0.3944764;0.10734669;0.009207751;0.30419627;-0.13390747;0.20552757;0.13939786;0.20359781;0.051144373;-0.15113536;-0.49803886;-0.010725022;-0.3878145;0.17725846;-0.16360998;-0.1406137;0.15381138;-0.051867574;-0.055082567;-0.12342791;0.15944794;0.1744923;0.25394753;0.15839285;0.084033445;0.3816136;0.22735584;-0.3108338;-0.13839786;0.03668588;0.19838105;0.06887903;-0.07101449;0.08249018;0.045299307;-0.13187924;0.28159246;0.08283852;0.011356369;-0.0809451;-0.039490867;-0.39453256;-0.11919878;-0.030094726;-0.29183298;0.016993849;-0.25131014;-0.2184354;-0.050032802;0.33988658;-0.07041259;0.22285707;-0.055713348;0.21393931;-0.044589806;0.15667649;0.053291395;-0.27016124;0.19651918;0.054520972;-0.22510126;0.23186156;0.24067615;0.04563925;0.16385308;-0.06488605;-0.062175162;0.07742255;-0.02492085;0.34003896;-0.1294698;-0.16601567;0.06424497;0.11202464;0.03888914;-0.23082681;-0.119619295;0.12538262;-0.035118587;-0.15118927;0.23512992;0.17914736;0.019965762;-0.0688291;-0.2967363;-0.0085577695;-0.51084673;-0.17537828;0.44115728;-0.09782301;0.14941572;-0.10659046;0.029447949;0.057598345;-0.07095522;0.11744754;-0.054542806;0.22219457;0.16710123;0.17171584;-0.13339989;-0.002660767;0.39638776;0.15102369;0.10582237;0.033324633;0.028165411;0.024357056;0.056114465;0.09413818;0.119062245;0.07212789;-0.14508408;-0.19159041;-0.05566386;-0.4687691;-0.16071439;-0.040794592;0.12433802;0.113704994;0.29293296;0.032408822;-0.026285103;0.3073022;-0.015183848;0.030526623;0.026356066;0.17466679;-0.26213259;-0.3013027;0.10384945;0.07904327;0.081343286;-0.13946947;0.17215817;-0.091786586;0.06618468;0.028713198;0.04379889;-0.011692303;0.27442384;0.18799068;0.017479882;0.018524632;-0.1508334;-0.10510552;-0.3296983;-0.018591452;-0.15125825;0.22854172;-0.024928771;-0.033496946;0.030623762;-0.20749602;-0.15177405;-0.16296291;-0.16500154;-0.26782283;-0.14563194;-0.081231445;-0.30798662;0.027489038;0.05198848;0.1038197;0.09549469;-0.19514753;0.3277497;-0.08370991;-0.16434775;-0.03525011;0.15264411;0.089085236;0.31167457;-0.1381424;-0.48929358;0.12019937;-0.064597845;0.30370662;-0.22372977;0.07542306;-0.21701954;-0.04439284;-0.038621593;-0.14881712;0.13504219;-0.16054566;0.015838914;0.0026918803;0.21050395;0.33500126;-0.11696273;0.05603281;-0.026165659;0.032661427;-0.3929598;0.06102409;-0.21453805;0.0062607066;0.34829295;0.43405193;0.33071938;0.1920074;0.13042971;0.11632942;-0.03979165;-0.010696415;-0.028416285;-0.025256783;-0.18287018;0.3537862;0.094553895;0.044358157;-0.19893496;0.10200074;0.0809045;-0.1551803;-0.022974918;0.021986866;0.13557205;0.2885705;-0.090387225;-0.021623725;-0.019081725;0.2457346;0.32395193;0.11533138;0.045059588;-0.1955172;-0.15580967;-0.16588487;0.123265624;0.13379113;0.18765245;0.28030458;0.02358082;-0.011189133;0.02463301;-0.28464627;0.20708042;-0.19340779;-0.11020446;-0.040610835;0.044245727;-0.21904953;0.10855711;0.21233492;-0.07249286;0.091213085;-0.1703437;0.10976624;0.17315808;-0.14334221;0.0839022;-0.016719019;-0.103322625;0.035418276;0.1574348;0.010786977;0.18279138;-0.3523926;-0.07723127;0.25028592;0.10974149;0.099793024;0.047455046;-0.19307655;-0.117799506;-0.008703491;0.087028556;0.15610741;0.083153464;-0.0053911326;0.12568647;-0.32676196;-0.0040169023;-0.12800977;0.16175939;-0.07713109;-0.0010725803;0.05431315;-0.16903673;-0.038605135;0.098174974;-0.1270676;0.059421416;0.17667691;0.23025073;0.1788862;-0.3014079;0.23038504;0.13396858;0.24836157;0.01816812;0.10574825;0.0664282;0.38792825;-0.12130876;-0.22435208;-0.1238857;-0.004479526;-0.030052517;-0.0142948795;0.18498626;-0.14675385;0.027853195;-0.2260249;0.007299479;0.01601206;-0.05666682;0.13782725;-0.068619214;-0.038740344;-0.02264821;-0.0985467;-0.08580137;0.18979782;0.1352637;0.11908118;-0.08681419;0.17065074;-0.21196735;-0.18689182;0.20403428;0.47379535;-0.24318948;-0.2792168;0.11459788;0.2541123;-0.081033126;-0.023374246;-0.17287566;-0.038142115;0.052921098;0.043669213;-0.15259872;3.4627847e-05;-0.13012362;-0.08107777;0.015143002;0.1084927;-0.08399222;0.0008302394;0.065946676;-0.21092643;0.2642225;0.12078176;0.04975474;-0.30784905;-0.27245456;0.015330234;0.31487742;0.0358323;0.30772915;0.085446924;-0.15261379;-0.15736593;0.5163513;0.1307859;0.16656518;0.17580454;-0.122232124;0.305963;0.34966165;0.23721169;-0.16967551;0.1575769;0.12719965;0.040088795;0.15978424;0.2996796;0.15070204;0.021488694;0.056661893;-0.12865739;0.18698542;-0.03571309;-0.52555346;-0.25431144;-0.07623034;-0.0394584;-0.044653997;-0.0033871734;-0.069268554;-0.16612281;0.5014081;0.039440297;-0.13607492;0.13736282;-0.029467855;-0.1522125;-0.12106989;0.21013345;0.049456302;0.22867176;-0.012598523;-0.11543291;0.2084047;0.04463208;-0.14516777;0.16046847;0.15559818;0.18101853;-0.3387661;-0.30348292;0.069587685;-0.22629072;-0.22780769;-0.0037700722;0.11626742;0.19448148;-0.046445448;0.08245947;-0.16656478;0.10894466;-0.10123847;0.1635454;-0.050206542;0.2678887;0.17447707;0.38705608;0.032508608;0.024457512;-0.18029176;0.06259193;0.020347964;0.017047234;-0.11832222;0.13420059;0.25695378;0.02770663;-0.12920596;0.15094298;-0.12611185;-0.09725567;-0.16786961;-0.09574311;0.120467104;-0.060266044;-0.7359141;-0.017441606;0.20955916;-0.09163607;0.33167163;-0.19175613;-0.0077021136;0.3632306;0.10813741;-0.049116254;0.12156641;-0.16091122;0.14815915;0.34646612;-0.3422006;-0.10250085;0.27150285;-0.10815102;-0.17037122;0.13008803;-0.13312149;-0.0602505;0.2909049;-0.15444739;-0.18415734;-0.13649026;-0.44945735;0.010328328;-0.3126649;-0.31283072;0.02518481;-0.17281234;-0.05971696
-0.10958188;-0.23582491;-7.685486e-05;0.1572818;-0.115310445;0.1767232;-0.1150493;-0.16185309;-0.024081694;0.017993702;0.23353761;0.4293364;0.09381969;0.18654099;0.15458417;-0.1521289;-0.15683961;0.22508866;-0.0052867886;0.14645505;-0.0034705596;-0.14567114;0.040828984;-0.16505048;0.20478888;-0.20960397;-0.1977566;-0.06746918;-0.013667818;-0.12371766;0.07948216;-0.008793476;0.042083044;0.15240042;-0.18954204;0.06298468;-0.25122824;-0.13932261;-0.1276077;0.26444393;-0.03157818;0.24352401;0.081979975;0.031346366;0.061361797;0.21666028;0.095722914;-0.14368527;-0.14079669;-0.15544347;0.45911404;0.004270905;-0.14756358;-0.20927694;-0.14902197;0.25938147;-0.02259631;0.025867598;0.2247846;0.10200237;0.08277482;-0.03877921;-0.17741345;0.21631706;0.05310162;0.09334982;-0.085162036;-0.24382125;-0.11619722;0.19630295;-0.22922096;0.060346905;-0.1484827;-0.27329084;0.057418108;0.13586362;-0.3989129;-0.24784793;-0.37635586;-0.033880122;0.107593805;0.20933467;0.038053475;0.038136147;-0.056488797;0.24802655;0.08239681;-0.0010309465;0.010649598;-0.1776552;0.07478747;-0.04920201;0.1030625;0.073715225;-0.045599286;0.03675711;-0.39664012;-0.353824;0.06564729;-0.11421296;0.05630043;-0.24988928;-0.10869365;-0.09976732;0.33232775;-0.34159657;0.008190794;-0.061473504;0.20909378;-0.07670092;0.36574182;0.028023507;-0.16300927;0.14993477;-0.1022269;-0.31170845;0.03207241;0.0037375593;0.1161541;0.06350646;-0.15330562;0.25356254;0.039524052;0.0050870245;0.08368554;-0.0850129;0.3513967;0.15301172;0.30004418;-0.074836306;0.122977234;0.07482692;-0.08466433;-0.0997061;-0.16171807;0.07484109;-0.018054917;0.030384757;-0.026057815;-0.016689366;0.06168878;-0.07083321;-0.06892507;0.08546783;-0.03744805;0.095358156;-0.34099326;-0.1590634;0.037519783;-0.25478682;-0.03350081;-0.03978798;-0.33215052;-0.18016234;0.28019407;0.016416587;0.34909835;0.15597391;0.0370851;0.01937755;-0.11474549;0.072601624;-0.19472419;0.20183705;-0.08858101;-0.15027636;0.5467774;-0.29257914;0.24883077;0.13907245;0.09835584;-0.031148903;-0.17168632;-0.19028638;0.25180182;0.26297614;-0.15977463;-0.16219543;0.123643726;-0.11967047;0.02247384;-0.13826485;0.15654303;0.17386812;-0.14230086;-0.102153264;0.056202743;-0.007718679;-0.0040519643;-0.20076779;-0.3606944;-0.65246356;-0.4053598;0.04422675;0.014723092;-0.028266598;0.02634562;0.03136159;0.009011528;-0.05323934;-0.011071084;-0.028373586;0.11681081;0.2934396;0.14478013;0.0078357905;0.062037878;0.047938474;-0.15046221;-0.12252633;-0.1858253;0.03432862;-0.05970589;0.06539502;-0.0069636484;-0.012092934;-0.18471123;-0.08598365;-0.22377853;-0.09916937;-0.102999486;-0.28138623;-0.18939649;-0.10329323;0.20035942;-0.12131114;-0.06999238;-0.17422274;0.17018493;0.14376242;-0.036129344;-0.07474232;0.17187141;-0.07258965;0.14834999;0.08202968;-0.035981108;0.20247349;0.13916811;0.2057051;-0.11308321;0.12917046;-0.067946695;0.24615707;0.2359647;0.10909873;-0.14308558;0.06990823;0.1830959;-0.3445755;0.07843196;-0.68013734;-0.0420356;0.00680352;0.40074277;-0.03044247;0.15008308;0.033844184;-0.18324846;-0.07110354;-0.58463836;0.27425754;-0.20856339;-0.07375286;-0.18445025;0.029539807;0.12900099;0.16833279;0.15246095;-0.013715314;-0.028871024;0.061535463;-0.024034448;-0.2232942;0.0038070225;-0.3806425;-0.022916965;0.11732622;0.056654595;-0.18325076;-0.35546476;0.24499515;0.42014697;-0.054784168;0.17472395;-0.008504101;0.0164052;-0.052487966;0.10823361;0.1463687;-0.4074909;-0.11084046;0.015426967;0.33898583;0.21653777;-0.008873838;-0.046986017;0.085773595;-0.018435214;-0.3620067;-0.047671836;-0.32511464;0.22768357;0.3045516;0.21208766;-0.046960436;0.122665614;0.18551384;0.22502199;-0.07543101;0.044784985;-0.015274837;0.19079942;-0.26822618;0.23937744;0.10287857;0.032257877;-0.059730045;-0.10465261;0.020387989;-0.19443434;0.19181402;0.025374824;-0.03173968;0.06893489;-0.005927616;-0.080127575;0.013548994;0.0494337;0.09827683;0.069774576;0.14648697;-0.3074647;-0.1022175;-0.068612985;0.31834248;-0.014984287;0.01886132;-0.038971934;-0.16973025;-0.18258843;0.13461743;-0.3139571;0.18305029;-0.14469129;0.18485434;-0.18439214;0.11992862;-0.11281619;0.12253427;0.1568482;0.2172375;-0.12516768;-0.049585786;0.16120505;-0.025402725;-0.16963533;0.04085927;0.20952445;-0.30099067;0.10889117;0.1977585;-0.009777846;0.110724896;0.09289382;-0.1720713;0.26449096;0.09172969;0.08829878;0.1087812;-0.06697844;-0.14781938;-0.1531245;-0.17550641;0.24288979;-0.06740096;-0.15971366;0.32378194;-0.10123275;-0.097134605;-0.026107669;-0.086389706;-0.030397622;0.1123046;-0.16395073;-0.13195038;-0.1430588;-0.008346895;-0.21770279;0.25690758;0.036472984;0.20142281;0.30228543;-0.25158453;0.09872244;0.17021102;-0.015081633;0.08442245;0.2030822;-0.10167707;0.15195844;-0.07287266;-0.015450404;-0.19636658;-0.08830932;0.11283889;0.17004791;0.18213855;-0.05675738;0.21530059;-0.05646245;-0.06658816;0.038464557;-0.0142097855;-0.1545994;0.054423537;-0.052141484;0.036515128;-0.011977686;0.17802374;0.07309486;0.2511413;-0.07303057;-0.13326107;0.20061268;-0.10046551;-0.031388316;0.004154853;0.50077975;-0.35665968;-0.5929223;0.24523133;0.103283376;-0.41171646;0.15412903;-0.023880258;0.019728722;0.018460112;0.10196374;-0.109055795;-0.012271008;-0.23507816;-0.015485131;-0.10552755;0.15318494;-0.08291749;0.014080683;-0.049176823;-0.019143092;0.1923798;0.08363898;-0.03986663;-0.117740154;-0.31361732;0.10705651;0.38640356;-0.007883045;0.22353731;0.24263498;-0.43700022;0.058630977;0.42090145;0.102779485;0.02144603;0.10577415;-0.17866962;0.40962115;0.22348367;0.025482247;0.04096485;0.20647067;-0.15065122;0.08190408;0.100564554;0.41459775;-0.03430384;0.07567478;0.06436887;-0.11656556;-0.11763181;-0.15181881;0.19676736;-0.091684066;0.22207142;-0.089911155;0.16577259;0.078811675;0.3886087;0.124145314;0.46991703;0.1594838;-0.3362365;0.14651154;-0.058741163;-0.1221254;0.043380007;0.25659078;0.099570304;0.01813688;-0.0052995556;0.08578313;-0.08030912;0.10814302;-0.066186756;0.1627835;-0.015324171;0.31095716;-0.15212134;-0.016633209;0.3380931;-0.011025768;-0.06917905;0.03676993;-0.106006935;0.13127957;-0.101248965;0.13918802;0.06490793;-0.02553098;-0.027387505;-0.03927463;0.011353464;0.18353374;0.22261143;0.32794797;-0.06997858;-0.06777857;-0.19637173;0.28133005;0.13097805;0.24311368;-0.041037325;0.23146261;0.030698048;-0.15103228;-0.06571323;0.4068029;-0.2516244;-0.20313859;-0.118565865;-0.40093604;-0.19211338;-0.2040529;-0.573451;0.056760892;0.058729358;0.07029773;0.14548787;-0.20763303;-0.16658793;0.4385808;-0.1918582;-0.005969257;0.32268873;-0.13909397;-0.16287574;0.32283834;-0.53486377;-0.102143966;0.16069978;0.15029287;-0.0818425;0.02908574;-0.12620458;-0.17442413;0.12939951;-0.035762303;-0.19074322;-0.15586719;-0.4493553;-0.12802137;-0.14523411;-0.32857856;0.18000501;-0.20947231;-0.10079606
-0.05564221;-0.09761308;0.02215375;0.11656505;-0.075260036;0.1652369;-0.0838026;0.10850725;-0.056213234;0.01489653;0.06482636;0.09991321;-0.035006974;0.22279952;-0.212933;-0.1687323;0.14727065;0.23497237;-0.25727078;-0.017571943;0.13129237;-0.08661318;-0.01277586;0.20666821;0.07598733;-0.3087087;-0.20572188;-0.32601807;-0.120537825;-0.07622318;-0.13528329;-0.026629923;-0.005744268;0.19849738;-0.23429635;-0.062411826;-0.19117294;-0.06916209;0.012814629;0.16862404;0.01830285;-0.15368049;-0.14057636;0.10305059;0.18899776;0.0024881824;-0.07871472;-0.25230956;0.289374;-0.15297502;0.12862082;0.14260456;0.06346505;-0.009109289;-0.017058572;0.17299357;0.1358978;-0.046712838;0.0930892;0.16526902;-0.18724744;0.110891834;-0.14703432;-0.04022724;-0.063804254;-0.07477794;-0.3241884;-0.12066677;0.041388072;0.09014423;-0.31815988;-0.034902558;-0.07790441;-0.06925335;-0.054678664;-0.031629402;-0.2903636;-0.079655245;-0.23983325;0.0028785504;-0.19572225;-0.14812577;-0.13729382;0.060894333;0.04514715;0.16164681;-0.06841767;-0.096602954;0.03668281;-0.26189837;0.010712088;-0.09700701;0.05185799;-0.032336283;0.4271459;0.00013872402;-0.1348599;0.13678122;-0.091938905;-0.0048450856;0.1697416;-0.0883349;0.08635736;-0.113282554;0.020873044;-0.11287625;0.07588218;-0.40677428;0.16368873;0.22926074;0.2706343;0.002590956;-0.09979749;-0.129037;-0.40871337;0.097203456;0.11588944;-0.1937607;-0.30080152;0.06780618;-0.14670111;-0.12356654;0.15180965;5.1650124e-05;-0.03337627;0.030354831;0.15190761;0.036320895;0.12665722;0.16311696;-0.14051111;0.14236538;0.16069654;-0.2162407;-0.08985394;0.029016923;0.015499117;-0.22838819;0.15503667;-0.11489215;-0.06847103;0.13238803;-0.019916145;-0.08741639;-0.08780705;0.2260492;-0.37103266;0.14224507;0.41608426;-0.15313455;-0.042863663;-0.1497723;-0.24989074;-0.06633227;-0.20104988;-0.09411122;0.2134453;0.11935019;-0.18885916;-0.10580384;-0.07405604;-0.048435465;-0.2714779;-0.09950472;0.12649293;-0.19013944;0.34741196;-0.39814204;-0.33463952;0.15426335;-0.07958178;-0.20046154;-0.13144554;-0.06489957;0.15601598;0.0767193;0.008373559;0.009472102;-0.07992077;-0.15836905;0.051858947;-0.065448046;0.24843848;0.16261849;0.13193308;0.14054988;-0.09218886;-0.022859748;0.23774041;-0.14879218;-0.21647623;-0.6885444;-0.38985834;0.07198792;0.16135147;-0.062104445;-0.08222743;0.17900957;0.14928313;-0.093563706;-0.0066997474;-0.15895602;0.17995828;-0.020689651;0.045924105;0.06258207;-0.07228253;0.17317171;-0.05300504;-0.10088905;-0.13926828;-0.016357066;0.0041365465;0.08978109;-0.024366671;-0.22545682;-0.18822703;-0.116131455;-0.18118373;-0.100249335;-0.02570348;-0.08987184;-0.01823485;-0.052439455;0.30395615;-0.08680779;-0.26653987;-0.32719636;0.2532511;0.19086458;-0.0010949766;-0.26094574;0.23907623;-0.00603854;0.41788706;0.16611275;0.016700026;0.028431654;0.035214357;0.10181029;-0.008179183;0.049393386;0.08100415;0.39918086;-0.028145203;-0.043275997;-0.18870007;0.119258784;-0.26296183;0.11429462;0.36147046;-0.25660393;0.08748709;0.27861488;0.1644025;0.04772043;0.12660061;-0.038309738;-0.1932042;-0.04257575;-0.6233314;0.5318173;-0.24707687;0.05809493;0.02996805;0.38760462;-0.22634052;0.17244297;0.0040756543;0.026221903;-0.14637162;-0.18776843;0.09986289;-0.2957149;-0.17842652;-0.4024855;-0.0029815123;0.12741894;-0.24850981;-0.018813815;-0.10078228;0.1036183;0.18894897;-0.051229585;-0.00029531668;-0.34263366;-0.0041715386;-0.15297508;-0.17307626;0.19129737;-0.31689402;-0.12512271;0.025694104;0.1568359;0.20586757;0.023034932;-0.08219286;-0.13929258;-0.067009255;0.1365288;-0.13489774;-0.2313588;-0.008224399;0.27432394;0.5334058;-0.12066568;-0.1711102;0.2083917;0.18204443;-0.13816184;-0.11191168;-0.08821335;0.15819362;-0.19077349;0.172849;0.239286;-0.10940127;-0.063672766;-0.2685297;-0.05591492;0.058323804;0.04678501;0.06044496;0.12972783;0.09910684;0.11489376;0.1336472;-0.011721545;-0.009286725;-0.15391836;-0.123598546;0.0027149215;-0.2726572;-0.21471216;-0.11485452;0.21256362;-0.18115011;0.2046343;-0.26700425;0.055868525;-0.16244742;0.03070445;-0.040360916;-0.12824129;-0.5721864;0.12635075;-0.13567443;0.0053070295;0.15960605;-0.12291504;0.047970045;-0.02723551;0.14998934;0.07193918;0.080766484;-0.15096797;-0.04744386;0.08140437;0.23152876;-0.11544;0.029447678;0.12722294;-0.19686466;0.11183467;0.086151786;0.040157247;0.40929264;-0.007719787;-0.09538925;0.08923983;-0.17802908;-0.21321341;-0.0049300776;-0.37365583;0.36017698;0.20791371;0.106873795;-0.07005153;0.02855641;0.07352635;0.025430376;-0.27032855;-0.114006035;-0.017807463;0.085242964;-0.10573204;-0.066703275;-0.18149251;-0.32377183;0.07166441;-0.04813986;0.14274365;0.13234432;-0.42781824;-0.07476096;0.06294885;-0.08900799;0.018051615;0.17215864;0.12421613;0.043072388;0.054978926;-0.17062907;-0.104894675;-0.50486094;0.30726346;0.11692192;0.031120943;0.09263134;-0.061141297;-0.07489392;-0.09441176;-0.38734016;-0.059976652;-0.04076923;-0.18963331;0.003037759;0.027319254;0.03289256;0.19566023;0.09023372;0.11631147;0.17279026;-0.14355665;0.22649835;-0.14826106;0.033934478;0.2981011;0.35310715;-0.27885747;-0.5157466;0.24048014;0.046416044;-0.23312034;-0.045710627;0.036630824;0.17612492;-0.060153823;0.17764926;-0.019517759;0.114763334;-0.09563316;-0.12494233;-0.11408133;0.02419407;-0.13121878;-0.045875337;-0.03314406;0.34340507;0.10282173;0.059180018;-0.05784169;0.1891834;-0.26760232;0.26621747;0.07525174;-0.040797263;0.33756483;0.34693906;-0.5868113;0.12492748;0.14514014;-0.007271121;-0.39770773;-0.06392673;0.08527658;0.047810208;0.06883817;-0.02454557;0.041295;0.29005137;-0.07479869;0.11409504;0.09796492;0.27244228;-0.16523045;0.017159222;-0.010682483;-0.006403665;-0.15123402;0.11843703;-0.25502133;0.29652;0.17110041;-0.2386237;-0.16288987;-0.10653113;0.27105853;0.0684168;0.20990989;-0.058868207;-0.33148164;0.12083894;0.11186898;0.044522855;-0.24352303;0.20181401;0.21250916;-0.15622316;-0.057040296;0.01573307;-0.51444095;0.15118179;0.15529434;0.13205434;0.1260514;0.12090526;0.13010891;0.060963742;-0.045169383;0.120065145;-0.017744709;-0.08121756;-0.16474898;0.16322304;-0.12602346;0.076406844;-0.17288628;0.09669735;-0.0880262;-0.13940442;-0.053776905;0.22973615;0.21862686;0.33318028;0.3065231;-0.08762977;0.0751575;0.25080296;0.088412166;0.118660495;0.1534266;0.003442538;-0.24281794;0.13316888;-0.06806416;0.119837716;-0.2581975;-0.04425812;-0.16865881;-0.49540347;-0.1685992;-0.25943968;-0.20681518;-0.13445728;0.081502385;0.09328631;0.10602292;-0.441859;0.19510701;0.43188748;0.23171459;-0.015471678;0.3414856;-0.2594627;-0.2403711;0.0019547767;0.11910772;0.14109163;-0.021792574;0.33130887;0.0078658955;0.13962306;-0.2958372;-0.25352702;0.1173751;0.07796267;-0.032527283;0.10716441;-0.19517519;0.26903567;-0.20774934;-0.17991517;0.02447901;-0.19842827;-0.19649677
-0.066571616;-0.04931271;-0.15799925;0.35403368;-0.10565309;0.030047096;0.27369964;0.11281125;0.08754897;0.14657347;-0.08304078;0.013204478;0.060624707;0.1923471;-0.01981765;-0.051111273;0.07594606;0.14959115;0.08257422;-0.017508553;-0.014058144;-0.20618282;0.07765508;-0.034397703;0.09540344;-0.17021061;0.038699817;-0.5498133;0.053873684;0.08560518;0.06736114;-0.02264401;-0.020023968;-0.041416693;0.098736644;0.010683696;-0.24318457;-0.11943763;0.19032076;0.16988815;-0.09514838;-0.072517894;0.5435195;-0.12899129;0.2418801;-0.059121564;-0.048050225;-0.1145136;-0.018148122;-0.05433889;0.2098918;0.28183308;0.003160482;-0.49601215;-0.29057053;-0.039272137;0.038592305;0.06456581;0.026701927;0.105934955;-0.24463952;-0.1457724;-0.14457698;0.22200444;-0.2044423;-0.31521252;-0.22060892;-0.07033559;-0.14943716;-0.1269905;-0.34127384;-0.15819225;-0.03659479;-0.0390654;0.04723186;0.02058908;-0.35752556;-0.027041042;0.17874812;-0.17297056;-0.13136904;-0.22082008;-0.12901849;0.14335746;-0.074677;0.009747468;-0.047360756;-0.15840776;-0.056339297;-0.089651026;-0.12789655;0.0035955627;0.13415287;0.13067082;0.13718984;-0.18634154;-0.16399921;0.09823811;0.05884584;0.075027086;-0.044147663;-0.4488623;0.28749323;0.036833033;0.14177935;-0.094574764;-0.060941614;-0.082748346;0.16896382;0.068373844;0.05820013;-0.07212009;-0.018002788;0.14909942;-0.37258545;0.40439376;-0.08648893;-0.12217809;-0.08816448;-0.05413201;-0.2941969;-0.07898469;0.015247271;0.0063005765;0.117523745;-0.026967196;-0.079780355;0.03184683;0.29870299;0.17740406;-0.113425694;-0.061367355;0.37213576;-0.017674364;0.11056546;0.07035885;0.09039594;-0.22084415;0.28855297;-0.14260504;0.17456995;-0.09334785;0.2024528;0.11346541;-0.072294496;0.20632985;-0.13780321;0.01196177;0.009678014;-0.14715134;0.06457681;0.13709879;-0.20994665;0.027175987;0.06272561;0.074549146;0.16037093;0.07190338;0.067556605;-0.028571878;-0.042445086;0.033400416;0.08617185;-0.08000562;-0.032159194;0.029698517;0.09286921;0.09217754;0.0017351586;0.18812278;-0.25064275;-0.39206606;0.03470804;-0.066376574;0.28486323;0.23603925;-0.01367936;0.10123971;-0.09455711;-0.07727234;0.07946269;0.056017283;0.18594088;0.16141385;0.08181643;0.28240246;-0.15058966;-0.004857967;0.255178;-0.03514499;0.13189825;-0.40145886;-0.38966936;0.01120491;0.34191105;-0.12879126;-0.49104366;0.037033793;0.16282725;-0.018208183;-0.032810904;0.117017366;0.10505641;0.050217733;-0.14222176;0.0214809;-0.21691653;-0.12269751;-0.02976897;-0.07543581;-0.117744595;-0.11118555;-0.038551353;0.107328065;-0.13670617;-0.047992785;0.0065965364;-0.17236559;0.15203415;0.025492754;0.08507398;-0.097379655;0.12362868;-0.18489295;-0.04004395;0.22466175;-0.3122188;-0.32384747;-0.26746798;0.15939659;-0.2127411;-0.16569108;-0.029149834;-0.18621941;-0.0491244;-0.061544355;-0.1523648;-0.012640851;-0.16723889;0.1804516;-0.013920158;-0.09098606;-0.00652656;0.30026633;-0.24694249;-0.10744945;-0.17011797;-0.09002646;-0.3460635;0.0433962;0.20192736;-0.5595411;-0.13468976;0.19196482;0.13603014;0.09399172;0.3179479;0.03857269;0.14494777;0.078668475;-0.45100176;0.3811257;-0.14262502;0.017027289;-0.10625248;0.24540813;-0.17415917;0.4627757;0.0731505;-0.042891182;0.10599993;0.019524515;-0.057112258;-0.25932238;-0.04622154;-0.43382615;-0.111662604;0.13533174;-0.3057361;-0.009480643;0.06383911;0.02970204;0.41748115;-0.2497924;0.062231194;-0.23900096;0.027008293;-0.4350713;0.1095252;0.34878302;-0.30963793;0.19216427;0.029873012;0.30564094;0.25937176;-0.022330735;-0.24161613;-0.13581438;-0.10756368;-0.057059307;-0.1169405;-0.19045319;0.17607984;0.25165838;0.113629475;-0.14849651;-0.450456;0.39925984;0.28001553;0.27682942;0.3047531;-0.12972613;-0.24899319;-0.18568689;0.14743914;0.09553387;-0.07694906;-0.27401033;-0.16002393;-0.024500672;-0.073341765;0.02095343;-0.021470996;-0.025352903;0.13855636;-0.24836965;0.07185278;-0.33396852;0.07350191;-0.14661437;0.22040097;0.059333377;0.12387105;0.035497263;-0.13215943;0.15459846;-0.10053736;0.18656695;-0.20949592;-0.16305257;-0.08854081;0.2717044;0.18207294;-0.1469238;-0.41483778;-0.3410716;0.20843677;-0.019239731;-0.07505346;0.20300816;0.09192774;0.012677025;-0.13492557;0.09281987;-0.063959025;-0.12335438;0.014275338;-0.079571985;0.12729657;-0.13809977;0.23580894;-0.20434366;-0.17101744;0.20401232;-0.060801465;0.15527928;0.19317603;0.24895936;-0.1552753;0.3332362;-0.12166973;0.04356697;-0.37968165;-0.20517452;0.194457;-0.009710674;-0.15107556;-0.024224265;-0.14768024;0.052498166;0.002533666;-0.14290328;0.21000057;0.0077388347;-0.04679105;-0.011918338;-0.04392348;0.01305316;-0.10168567;0.21922912;-0.1343932;0.15965341;0.091873005;0.026509702;0.031536404;-0.07359756;-0.3570917;-0.012003767;0.13120598;-0.00115808;0.19177133;0.015668482;0.009416743;-0.06937794;-0.5179033;0.33252022;-0.017048994;-0.093313806;0.12684368;-0.036552772;-0.093368806;-0.018748442;-0.30396035;-0.16345252;0.24427557;-0.23108433;0.07396959;-0.18916129;0.13466218;0.075413376;-0.14157338;0.1812726;0.2626772;-0.13268404;0.374415;-0.11898564;0.06073229;0.35528913;0.14169167;-0.30086234;-0.4099256;0.023320008;0.120471306;-0.31209332;-0.29703593;-0.20674187;0.08622826;-0.04738704;0.31613597;0.2104794;0.05459999;0.045769963;-0.0141911935;-0.09437444;-0.03140793;-0.10509417;-0.022236006;0.005535253;0.27179825;0.026525352;0.039966393;0.16415001;0.04126912;-0.17683132;0.24041435;0.015441735;0.13616493;0.3621332;0.056339867;-0.6603369;-0.006091235;0.1283525;-0.22949599;-0.31377518;-0.10334323;0.036620114;0.007100003;0.14861946;0.048426077;-0.16268082;0.23131424;0.14574847;0.25430515;0.27148494;0.23488124;-0.07995917;0.13459732;-0.13823786;0.014576176;-0.12723483;-0.12388919;-0.15007947;0.20413306;0.14450347;0.107846186;0.035283297;-0.03218454;0.32988662;-0.065573454;0.15406133;-0.36723918;-0.29273444;0.16399047;-0.0012182763;0.048911046;-0.06964819;0.24987769;0.08192923;0.20852539;0.009469525;-0.065411024;-0.24346668;0.15520242;0.10677813;0.24719448;0.48646373;0.19952478;0.0045117135;0.13589305;-0.02734065;0.022580612;-0.013227294;0.06708415;-0.08962741;-0.042294983;-0.14367147;-0.14949872;-0.017622247;0.039593674;0.21386386;-0.16371737;0.0707371;0.2613829;0.074952066;0.4274905;0.019663144;0.22664674;0.21823464;0.21579222;0.037472572;0.1539938;0.073476695;0.027909428;-0.27024332;0.00520183;0.04765106;-0.3277839;-0.07981448;-0.081110016;0.08915215;-0.30895728;-0.12472318;-0.3940493;0.053883478;-0.14268953;-0.05130689;-0.11527333;0.22686522;-0.3028707;0.09753824;0.39804387;-0.30570492;-0.26075318;-0.10797242;-0.122219004;-0.15121235;0.0897477;-0.15455033;0.08045116;0.26730463;-0.023772875;-0.06135756;-0.10514454;-0.3367986;-0.07162865;0.28068882;0.28129768;-0.09747969;0.21659477;-0.18631878;0.07402572;-0.44045123;-0.17992944;0.14184542;0.23322007;-0.07815142
-0.040306296;-0.19010863;-0.0015514647;0.14062661;0.046927974;0.15900965;0.11479346;-0.12108221;0.074288025;0.13688691;-0.01422354;0.014150102;0.028993333;0.06897779;0.15981951;0.015396999;-0.051633023;0.03539986;0.16611366;-0.06948653;0.009707717;-0.045487307;0.23052573;0.17047305;0.14682706;-0.11018195;0.034482062;-0.1259118;-0.15007076;0.20645118;0.31715024;0.10533253;0.049362596;0.15838517;-0.1087315;0.006662242;-0.20283084;-0.02426757;0.020314107;0.036297526;-0.11459808;-0.24322025;0.537618;-0.1055311;0.35897312;0.3897211;-0.2569617;-0.2532279;0.08444302;-0.114845134;0.08229312;0.06873224;0.04508387;-0.3208387;-0.45246083;-0.00021423241;0.21334836;0.11516371;0.14130908;0.31866223;0.16247533;-0.17185958;-0.19899903;-0.045882836;-0.06856434;0.13424501;0.28190568;-0.023670275;-0.25523728;-0.052539203;-0.3229246;-0.13714205;-0.2904832;-0.10856884;-0.1852089;0.06427746;-0.2559251;-0.016963685;-0.24144293;-0.013567655;-0.012993968;0.12634179;-0.14393361;0.0180639;-0.0008876122;0.07761486;-0.14529341;0.04318583;0.21554367;-0.09195424;-0.2558722;0.14701231;0.011175624;0.018070204;-0.02169811;-0.2122893;0.055759758;-0.14368533;-0.08867844;-0.03558508;0.19490664;0.058981035;-0.1770259;0.08301459;0.14993048;0.12626708;-0.16068155;-0.12393596;0.03995604;-0.1850856;0.2146747;-0.12506206;-0.07274768;-0.05647103;-0.051361088;0.44002116;-0.07132757;-0.16394217;-0.34477162;-0.0040132753;-0.096294165;-0.21919481;0.095209874;-0.011839567;-0.10223991;0.003643652;-0.10699635;-0.10759212;0.09385039;0.027834373;-0.058975544;-0.07726376;0.26364604;-0.34362465;0.06693566;0.027807632;0.16770348;-0.03098933;0.21824169;-0.019260157;0.07617627;0.011421012;0.13241196;0.06540961;-0.0019940923;0.104836434;-0.10477342;0.049641255;-0.12600583;-0.20440954;-0.15119538;0.009777445;-0.058530565;-0.0013666371;0.20219044;-0.0474578;0.07385001;0.16203603;0.13036998;-0.16073532;-0.045138437;0.09147418;-0.010707737;-0.015561174;-0.01679919;-0.31307563;0.107908025;-0.04644479;-0.025283042;0.19808985;-0.10537892;0.06594216;0.10500813;0.17548987;0.045173377;0.39206856;0.19136988;-0.092012726;-0.10754072;-0.09260632;0.18033072;-0.294559;0.13386397;0.062701635;0.10334615;0.32078522;-0.07890883;0.14892268;0.050532043;0.04017754;0.10857968;-0.2946147;-0.08173994;0.03487188;0.261602;-0.1730694;-0.082579516;-0.14299989;0.26199645;0.08471528;-0.13746744;-0.021018852;0.17742594;0.37016597;-0.07686287;-0.030866446;-0.031745564;0.059041247;-0.05625198;-0.26202843;-0.13958889;-0.031632006;-0.025387026;-0.09656529;-0.22303177;-0.10375541;-0.12118835;-0.17725752;-0.14263332;0.036106467;-0.031066984;-0.11174467;0.075059436;-0.055369183;0.13729885;0.09680805;-0.0058720503;-0.2500008;-0.04790916;0.22164704;-0.11010367;0.0048986734;-0.019648723;-0.043446083;0.05514647;-0.30946746;-0.14225793;-0.10539506;0.016633188;-0.0073310887;-0.042298716;-0.1264673;-0.019638734;-0.082405895;-0.28244594;-0.059046973;-0.22140743;-0.011181808;-0.16680615;0.2234729;0.14316812;-0.37650636;-0.2511698;0.14997189;0.2825992;0.08988613;0.28867838;-0.12281546;-0.24104781;-0.16647853;-0.18540122;0.46054068;-0.02135025;0.16691747;0.09252304;0.3494964;-0.1258249;0.14560035;0.0031586231;-0.04525052;0.24174602;0.048049524;-0.036405616;-0.20705993;-0.038859326;-0.2798108;0.08155475;0.10100429;-0.31928265;-0.45421863;-0.1082293;0.05309988;0.19916256;-0.027717086;0.12236868;-0.22564334;0.024193708;-0.36699325;-0.26958048;0.29897153;-0.25042284;0.009917692;-0.09486189;0.3437731;0.3394717;0.12257781;-0.0808377;-0.31926447;-0.037263095;0.12226457;-0.1991345;0.114907265;0.118954845;0.21080309;-0.23725003;0.20345517;-0.29305208;0.28338188;0.13694622;0.13317603;0.12156156;-0.29654104;0.00295186;-0.17630036;0.0005235197;0.17215608;-0.009024585;-0.16556497;6.0325874e-05;-0.09631899;0.04958147;-0.15452908;0.003006355;-0.10738196;0.15045106;0.015158158;0.22767429;-0.01816953;0.13804968;-0.16595739;-0.2713447;0.01517827;-0.036496792;-0.0013693663;-0.11926801;0.14839658;-0.335489;0.4377116;-0.37547848;-0.1963887;-0.14151363;0.1516921;0.0057746163;-0.066958964;-0.08484381;-0.45038223;0.28302535;-0.0432849;0.050986286;0.10521998;0.14660968;0.19742694;-0.08571279;0.19819675;-0.27918395;-0.0069544143;0.07905972;-0.33525005;0.21428931;-0.052907135;-0.07913328;-0.21461383;-0.052924685;0.28815567;0.028947731;-0.014044592;0.281098;0.039589085;0.010185411;0.3503769;0.049874447;-0.007113559;-0.22139496;-0.24435283;0.16789877;-0.46962652;-0.3161755;-0.08924115;0.15255179;-0.0057491716;0.06784667;-0.04903538;-0.037583463;-0.10280629;-0.052071266;0.12954503;0.05937137;-0.23519684;-0.18880552;0.20982872;0.1899471;-0.14322823;0.23645632;-0.09379997;-0.085432224;-0.059310436;-0.26428688;-0.029720383;0.033505123;0.3695386;-0.30358765;0.14848979;-0.06877801;0.038981516;-0.23575063;0.08652783;0.003910252;0.002699093;0.011383904;-0.15217766;0.0143929655;-0.102924414;-0.42832807;-0.03314616;0.14058094;0.16176811;0.2706108;0.24691667;-0.034067005;-0.11332547;-0.27433595;0.066173576;-0.08594;-0.0023276852;0.3145202;-0.07714727;0.37345207;0.26197848;0.037645712;-0.09220236;-0.43743798;0.2111002;-0.055212714;-0.10275142;-0.18278833;-0.08635917;0.1944498;-0.19459549;0.2959231;0.098975755;0.20092602;-0.05822882;-0.32962212;0.029947639;0.09568278;-0.18748099;-0.029074568;-0.07024879;0.4236432;-0.16171788;0.36667603;0.010376286;0.08327376;-0.26558173;0.3037176;-0.18281618;-0.05327852;0.3578879;0.21474518;-0.3344423;-0.106816396;-0.17094718;-0.29734635;-0.39427122;-0.15342765;0.09757148;0.110284135;0.017501343;0.12176327;-0.26440775;0.10719834;0.07529296;0.3085491;0.16858947;0.263589;-0.062418073;0.24673754;-0.09807844;-0.052384347;-0.13982742;0.10122938;0.048481196;0.30202213;-0.05696532;0.014557775;0.1466109;0.112903304;0.23572892;0.14438616;-0.021898488;-0.34751785;-0.2634932;0.13619669;0.028761007;0.20118923;-0.379024;-0.0285312;-0.061359234;-0.3427252;0.081849724;-0.2833264;-0.08854949;0.22746582;0.051346466;-0.02277943;0.2809207;-0.008649901;0.363237;-0.048978366;-0.31966186;-0.099585384;0.05132715;-0.08489364;-0.13297175;-0.0046019577;0.07925281;-0.12590393;0.13857864;0.033093207;-0.027747137;0.068711504;0.044339024;0.11668083;-0.08646549;0.29755473;-0.023400728;0.19611402;0.2855947;0.30497527;0.15201199;0.19235258;0.08643387;-0.0017265962;-0.067998424;0.107902;0.031107003;-0.14294489;0.12791812;0.063474044;-0.22250487;-0.28321478;0.04739747;-0.4163557;0.28299925;0.10713474;-0.0031587833;-0.02156287;0.063246295;-0.06656466;0.095084734;0.27812198;-0.18128455;0.02184354;-0.18671253;0.077240616;0.12951893;-0.01613762;-0.19181499;0.1710712;0.11125953;-0.016795276;0.06645168;0.25516117;0.06264504;-0.03943735;0.032623574;0.1675865;-0.12692003;-0.0070273364;-0.15321334;0.26115426;-0.27050954;-0.21173303;-0.0014477589;-0.00015296269;-0.2515307
-0.20011902;-0.14969683;0.11216332;0.16800466;0.059837434;0.0075104423;-0.0835164;-0.07442258;0.01677267;0.013806788;-0.20420334;0.08640654;-0.01437889;0.12734815;0.20381437;-0.15486677;-0.11844899;-0.037429873;0.12918252;-0.14983842;0.1825006;-0.09419303;0.07507116;0.14721563;0.06550888;0.15952578;-0.15172437;-0.0543858;0.049598627;-0.069104105;0.14048448;0.07961753;-0.07222499;-0.058920775;-0.078736246;-0.071022905;-0.062192377;0.09739503;0.017628748;-0.33829322;-0.12197521;-0.36146334;0.3572932;0.05720049;0.30187175;0.14088774;0.030238435;-0.06355681;-0.14409946;0.05549563;0.0016801973;0.14274733;-0.32944894;0.02553833;-0.39050862;0.09249162;0.21181157;0.101031885;-0.033751134;0.15843858;0.07632848;-0.13138895;-0.20770735;0.028308641;-0.11317752;0.14170882;-0.0066874735;-0.06920307;-0.014830112;0.10193242;-0.12430243;0.034581695;-0.10045631;-0.10895604;-0.23625073;-0.0009135987;-0.22849704;-0.10120874;0.031172922;-0.24479397;-0.08159528;0.29820624;-0.115047745;0.11871309;0.038768306;0.22545904;-0.20589271;-0.10342973;0.17223305;-0.3904739;-0.17492436;0.08700017;-0.028895425;-0.105379;-0.11577645;-0.08046605;0.008900766;-0.5617438;-0.045234963;-0.011988066;0.034870427;-0.04297543;-0.2274128;0.031390484;0.0013719803;0.22246449;-0.14294004;-0.5300367;0.06046941;0.19025984;0.2245577;0.06512605;-0.15731236;-0.110728495;0.054145437;0.40583095;-0.007719407;-0.13720405;-0.06971232;-0.15188247;0.1216116;-0.11514423;0.114984;-0.030111957;0.0953439;0.01648862;-0.59608895;0.061112743;-0.015292502;-0.17242411;-0.19816984;-0.08206869;0.42985296;-0.0729593;-0.2584956;-0.15291364;0.20533259;0.15878253;0.2703241;-0.019452112;-0.020636944;0.03455303;0.14829841;0.13777351;-0.06308824;0.08069905;-0.017138192;-0.083614945;-0.12810989;0.0012242541;-0.1568204;-0.0073561156;-0.07570999;-0.15247391;0.19412948;-0.13141087;0.07451647;0.023237452;0.008128756;-0.21956629;-0.11575292;0.042755917;0.32783085;-0.07012367;-0.0009160594;0.052520093;0.08160509;-0.11677694;0.09997735;0.15413478;0.032464612;-0.07530816;0.0004167557;0.0828572;0.18265587;0.28039825;0.19495821;-0.022419779;-0.10623192;-0.13337646;0.41782287;0.2903598;-0.34850758;-0.04504131;0.09958603;0.2754856;0.12341006;0.13196412;0.108234964;-0.12237496;0.30781865;-0.2770373;0.16167837;-0.6401327;0.00022567778;0.11618784;-0.22030611;-0.03418067;0.2410453;0.07255124;-0.03242022;0.01344236;-0.047887567;0.18800554;-0.25030965;-0.08604896;-0.06695956;0.17597212;-0.068929434;-0.30392256;-0.39101163;-0.044555318;-0.044626933;-0.03655342;-0.0871156;-0.1584846;-0.06332143;-0.10611179;-0.123139925;0.19248314;-0.1821068;0.07547478;-0.015410738;-0.091530025;0.0067121917;0.021644173;-0.23430072;0.16378205;-0.09324208;0.08107001;-0.37840098;0.11449247;0.08780262;0.07156958;-0.09497033;-0.1734699;0.0041108415;-0.0154995285;0.06549385;-0.11625993;-0.17736882;0.056519415;-0.01325319;-0.01197834;-0.3866308;-0.21470091;-0.17608137;-0.008504814;0.1569297;0.09696305;0.13333367;0.07511421;-0.16084026;0.027612539;0.20228118;0.22467074;0.0728489;-0.029263439;-0.046956055;0.05901819;-0.008137302;0.24138297;-0.029177504;0.17038806;-0.06445274;-0.009698922;0.16728535;-0.00086016743;-0.13149495;-0.026958374;0.26892653;0.025631435;-0.20344894;0.021372873;0.00982415;-0.17096499;-0.04068165;-0.028048169;-0.12245003;-0.34707594;-0.28878826;0.09817999;0.086192355;-0.093207754;0.010036937;-0.22784166;0.094771;-0.46033144;-0.12307727;0.051196538;0.03769081;0.061477754;-0.049832307;0.20493068;0.42525288;0.01776665;-0.12547593;-0.33404428;0.15734023;-0.01247949;-0.25166282;-0.10663904;0.10957948;0.1210475;-0.15100421;-0.15634613;-0.5254368;0.02670081;0.26821458;-0.03362342;-0.14065796;-0.11576604;-0.051718563;-0.035470273;0.017012171;0.017513288;-0.20691076;-0.19556372;-0.08170667;-0.06873081;0.014029444;0.002484242;0.01324314;-0.1505635;0.056519657;-0.10138972;0.22936597;0.08097311;0.073970966;0.008869289;-0.24013992;0.060714997;-0.037895642;-0.0825346;0.083478406;0.036694326;-0.42396533;0.37973458;-0.33828193;0.1291221;-0.15957524;0.19704653;-0.103062466;0.2623145;0.05114098;-0.28289682;-0.012018719;-0.32218033;-0.008574626;0.052281708;0.05490803;0.374663;0.36216277;0.10198696;-0.053130314;0.09728393;-0.0404494;-0.2326601;0.17744951;-0.30934852;-0.17280895;-0.00037993136;-0.016228464;0.12214949;-0.0074121202;0.035464693;0.09612635;0.109569095;0.13926259;0.21992521;-0.09728556;-0.052796047;-0.24415152;-0.26020575;-0.062395677;-0.4048947;0.027306464;-0.006538833;0.30569968;0.21469203;0.080560446;0.22557202;0.17806037;0.068014786;0.07387671;0.14516677;-0.04885074;-0.23451567;0.15371166;0.0067787566;-0.013546811;0.10080998;0.19758849;0.16200231;-0.28535795;-0.029914282;-0.2547699;-0.057078846;0.044308923;0.28920573;-0.06818732;-0.18989679;-0.049205333;0.041963186;-0.4509677;-0.084509276;-0.08347895;-0.17820902;0.16211043;0.17737071;0.16895647;-0.06297502;-0.30034274;-0.1459255;-0.012747529;0.0154121835;0.122522324;0.14275618;0.00010882653;0.16274892;-0.37862638;0.013447008;-0.031949896;0.041004457;0.2420035;-0.21988805;-0.006337478;0.21044607;0.11274777;-0.35118267;-0.19535811;0.09508188;-0.07789162;-0.014820983;-0.12160562;-0.015955832;0.14221343;-0.12906988;0.104149394;-0.17991924;-0.07169568;0.1387467;-0.37146628;-0.0906491;-0.1278614;-0.32361728;-0.084216975;-0.0068859505;0.25283295;-0.21838494;0.14813086;-0.14086655;0.20165938;-0.2821529;0.3705392;0.05435054;-0.108234376;0.25455278;0.20286508;-0.24852127;-0.01772969;-0.1040646;-0.26204318;-0.37527466;0.081073634;0.062140606;-0.08224613;0.098127246;0.20021297;-0.003343585;-0.042312205;0.20512249;0.07985359;-0.24888922;0.18182942;0.09675188;0.3396445;-0.093750305;-0.05673466;-0.31242839;-0.12944636;0.013343151;0.1059358;-0.13778664;-0.08304509;-0.12107033;-0.016150609;0.07828461;0.34133777;-0.040925194;-0.061646055;0.008725007;0.06521175;-0.08474819;0.00095965824;-0.29742876;0.05216258;-0.11007547;-0.050212987;0.07538375;-0.25837833;-0.0053126547;0.19177844;0.0010232888;0.05270258;-0.16464597;0.053882107;0.31720027;0.10130784;0.1630283;-0.087966286;-0.10780632;-0.19713792;-0.027700748;0.20026572;-0.08145579;-0.13897574;0.05168339;0.056076113;-0.17888683;0.115575165;-0.003101909;0.13185365;-0.07737832;0.24556802;-0.2727473;0.11935889;0.32748663;0.2105336;-0.1365136;0.30044755;0.31593737;-0.07763394;-0.32658863;0.045842893;0.037167422;-0.2652645;0.11646689;0.3796758;-0.003261463;-0.078498736;0.31156823;-0.4702554;0.2208496;0.10885049;-0.0008559866;-0.12205153;0.09117435;0.05724258;-0.033886652;0.311293;0.14010334;-0.21480453;0.0036783465;-0.044338845;0.17896798;-0.28247288;0.023596652;-0.11562521;0.011734867;-0.16277942;0.26472583;0.28520685;-0.10707405;-0.028055709;0.23952197;0.06177262;-0.054324474;-0.17402178;0.064618185;0.24729884;-0.36022156;-0.2105861;0.09496777;-0.09601813;-0.02869325
-0.06089308;-0.16725765;0.04006299;0.20888005;0.034701202;-0.07180958;-0.31536973;-0.10743699;0.053409226;-0.045002606;-0.16030014;-0.06942013;0.19479918;0.068365365;-0.11587516;0.04163576;-0.34062922;0.09209071;-0.032560702;-0.18996193;-0.03800541;-0.051848955;0.16123891;0.20190747;0.27645332;0.06640768;-0.41321343;0.19698407;0.14312962;0.102811195;0.09729719;0.08325227;0.056441765;-0.2538076;-0.16990861;-0.05144944;0.1389701;0.032110315;0.3166021;-0.29547173;0.14105514;-0.23379044;0.30607352;0.1088046;0.38639382;0.124903694;0.007292525;-0.022590702;-0.2591881;0.17325975;0.07865607;-0.024466325;-0.45802626;-0.12996286;-0.003302742;-0.18633428;0.16488093;-0.03825616;-0.03719894;0.06932611;0.3039738;-0.12726128;0.17300427;0.06659064;-0.17066595;0.15097825;0.18544902;-0.015158415;0.018666165;0.079604104;-0.13786715;0.24250759;-0.1608513;-0.047319554;-0.21408011;0.060691867;-0.21910544;0.32525024;-0.13572936;-0.073556624;-0.09250402;0.15074103;-0.061378136;0.07545396;0.14001484;0.10092635;-0.01933693;-0.22018191;0.43390384;-0.2089929;-0.057698876;0.06958938;-0.033414487;-0.16169001;-0.03521088;-0.044609044;0.1321015;-0.2910913;0.1345149;-0.13452949;0.18643637;-0.08630364;-0.21937397;0.26542464;0.06766002;0.20004594;-0.08763901;-0.07410413;-0.12430464;0.3035424;0.07946608;-0.29278994;0.00088609266;-0.5337041;-0.24319024;0.45226786;0.00047878132;-0.010897446;-0.3979813;-0.10381042;-0.027613193;-0.091772094;-0.06203559;0.048904855;0.08154897;0.031234737;-0.1974485;0.071063906;-0.02179142;-0.09821295;-0.17028135;-0.08782149;0.19231765;0.20556284;-0.016618256;-0.4772237;0.07507748;0.017312424;0.12857918;0.050110806;0.049637757;0.0042915135;0.09213671;0.19409154;0.14179875;0.103908904;-0.013504441;-0.11257246;-0.02410028;-0.038272224;0.2693598;0.18654996;0.09337758;-0.053634353;0.21492556;-0.10737016;-0.0037689954;0.039621115;0.048343644;-0.27948758;-0.04818228;0.055294313;0.20370357;0.030814024;-0.021148419;-0.23007427;-0.010436156;0.339018;0.31356207;0.119196005;0.11778222;-0.111595705;0.33577403;0.089142315;0.2750591;0.33541468;0.17069359;-0.0034411321;-0.09529196;-0.17738068;0.10219159;0.051603172;-0.21902369;0.020884393;0.019977095;0.3725791;-0.1564565;0.10844098;0.10200328;0.05374936;0.104117595;-0.16410759;0.23190778;-0.1148023;0.01470779;0.26871082;-0.3505946;-0.039992403;-0.040418092;0.064912066;-0.26122665;-0.06999711;0.11514135;0.06400923;-0.42456225;-0.0019341946;-0.0018576478;0.030716563;-0.01811621;-0.20065787;-0.12013948;0.021486739;-0.023972768;0.008560332;-0.15019685;-0.035805274;0.02793739;-0.17212608;-0.662126;0.13916092;-0.20714796;-0.13852878;-0.102731586;-0.13845153;0.21386833;-0.17206727;-0.082401104;0.24967289;-0.11980807;0.118827105;-0.0068373256;0.011216641;-0.052388795;-0.032236107;-0.16421437;-0.14684781;-0.26314995;0.08542523;0.22315042;-0.0028178268;-0.030152006;0.17438422;0.23014915;0.20552346;-0.23808655;-0.036701106;-0.15379782;0.3026069;-0.174244;0.17552166;0.21242417;-0.08173718;-0.24490148;0.191691;0.17334242;0.168179;-0.01768418;0.22362904;0.002464167;0.11790327;-0.34574696;0.054357402;-0.46103615;0.11299191;0.0023199148;0.14994974;-0.16741951;-0.110121116;0.03578197;0.03361826;0.29576555;0.0833268;-0.13901393;0.14818619;0.13575815;-0.21099368;-0.044574786;0.26716357;0.050549444;-0.028114794;0.13082689;0.2426305;0.0895046;-0.06723206;-0.055700406;0.03205168;0.008500993;-0.2341256;-0.10242867;0.29406908;0.07670879;0.10791739;0.009359169;0.2523451;0.20788719;0.1727714;-0.23389569;-0.14777155;-0.17236122;-0.0049142456;-0.21635137;0.028213473;0.06615249;-0.055250056;0.037865642;0.34745178;0.06855112;0.08686225;0.17380172;0.09412065;0.043958023;-0.049968682;0.0796894;-0.040877108;0.09544396;0.13839087;-0.18514973;-0.24177343;-0.08634581;0.15225767;0.21748471;-0.12666894;-0.10696855;0.0173102;0.033579044;-0.16238199;0.33432558;-0.03694585;0.008262405;0.38246623;-0.07372817;0.21049239;0.025541544;-0.09265857;0.34335938;0.24178693;-0.39116433;0.24414311;-0.101958625;0.3014282;0.034562536;0.07957615;-0.056899633;0.034871273;0.08433773;-0.20631659;-0.02340302;-0.13778064;-0.025799496;0.03914449;0.29322043;0.15434608;-0.010182736;0.08743999;0.016236208;0.077781044;-0.111954935;-0.32871595;0.1481479;-0.06426777;-0.13400878;0.14722882;0.0026245662;0.2807703;-0.18956676;0.039082933;0.01339083;0.0024768643;-0.34028545;0.25029713;-0.05874858;0.18378171;-0.0936862;-0.10608091;0.081354074;-0.2239959;-0.07170013;-0.29961896;0.035465516;0.22737859;0.15703298;0.15377879;0.17991722;0.03866383;-0.049617976;0.20239745;0.07400279;-0.30530494;0.18863909;0.24064687;0.121512845;0.07169232;-0.081686035;0.06998359;-0.15632065;0.035205714;-0.43077335;-0.21930537;0.164147;0.26180312;-0.026228901;-0.12687364;0.23029864;-0.11965283;-0.3215998;0.15448502;-0.27433592;0.01355021;0.24670038;-0.020342713;0.054427825;-0.18641709;-0.20984985;-0.22847165;0.10632048;0.1934885;0.17357188;0.062419154;0.027887441;0.06623343;-0.35672995;-0.075664416;0.07478762;-0.06448753;0.0767101;-0.11936172;0.06439358;0.21870746;0.040990587;-0.15873876;-0.29161787;-0.12570071;0.07341694;0.1765434;-0.2709888;0.28460705;-0.04700808;-0.17859472;0.37817898;-0.21052562;-0.069451645;0.1437658;-0.076697774;0.15900971;-0.12317442;-0.10175065;-0.003626311;-0.010305385;0.01613917;-0.025956897;0.007072246;-0.0427373;-0.04041197;-0.4101158;0.32036677;0.26958144;-0.3289032;0.22604576;-0.060629033;-0.32426646;0.17525953;-0.2020591;-0.061380528;-0.46903816;0.059902433;0.117213994;-0.03521196;-0.19461662;0.029254833;-0.0048658648;0.1188725;0.21033435;-0.15158524;0.05585927;-0.17819668;-0.2985981;0.34879813;-0.089103065;-0.07869413;-0.18126963;0.052291237;0.2597686;0.13430604;-0.26776567;0.16422753;-0.07723861;0.11129921;0.00848962;-0.1501879;-0.20321818;0.045479096;0.11217695;0.2823504;-0.044201497;-0.15848874;-0.35740525;-0.13526441;-0.07286189;-0.11776924;-0.06779247;-0.25872603;-0.32397783;0.11200542;-0.25603342;-0.03631038;0.103385106;0.04104454;0.15863593;0.25005224;0.024458496;-0.11039217;-0.07183432;-0.07821764;-0.19679646;-0.06088584;0.10050306;-0.1761606;0.09289142;0.037767716;0.17365533;0.21009563;-0.22220689;0.10371755;0.034269292;0.30321425;-0.121042766;0.03150681;0.2254606;0.22107923;-0.19753416;0.05885042;0.44375956;-0.19541061;-0.08337727;0.06599051;0.0049738013;-0.22620101;0.15236422;0.009075616;0.025472382;-0.28051144;0.19109786;-0.3791681;0.057009224;-0.06888285;0.010671349;0.049415994;0.06964001;-0.0956752;0.002507538;0.22411889;0.008104821;-0.3040955;-0.32571;-0.08996376;0.0077696037;-0.42738646;-0.043438632;-0.14520814;-0.25511408;0.056822117;0.27838674;0.09551647;-0.17114839;0.064353414;0.21252508;0.2399286;-0.17668745;-0.027451536;0.069541536;0.03498667;-0.4768705;-0.37873504;0.069470555;-0.26298475;0.11330395
-0.025236316;-0.3705382;0.020392958;0.1194711;0.09123358;-0.2892038;-0.1797258;0.12174633;0.069430925;-0.137684;-0.16099992;-0.046613496;0.12082271;0.028614486;0.11646502;0.3186629;-0.18107352;-0.014441584;0.2277047;0.010130787;-0.007012338;-0.1412028;0.08649336;0.13980508;-0.018363018;-0.11682966;-0.02914142;-0.22098488;0.061397467;0.0326382;0.2512775;0.1401669;0.006876892;-0.10151514;0.018806536;-0.008086838;-0.12150666;0.11633637;0.18837723;0.18668903;-0.055086993;0.012100127;0.22135516;0.0071744747;0.2817586;0.062028933;-0.042429347;-0.036554866;-0.18835364;-0.056446712;0.059957817;-0.06542627;-0.2711017;0.2192564;-0.35154086;0.054552123;-0.081699714;-0.09374351;0.039187193;0.10877726;-0.023183292;-0.03629066;0.112761535;0.11406283;-0.21501563;0.19198705;0.3353883;-0.10978294;-0.040909044;0.24579439;0.010284997;0.35873908;-0.10824455;-0.13963045;-0.28401873;0.07667401;0.03219737;0.30070668;0.16136985;0.030117659;-0.05642523;0.055696793;-0.22632125;0.042326476;-0.0799355;0.0745889;-0.06324634;-0.031219283;0.4638035;-0.1363301;-0.021309849;0.03902359;0.009877441;-0.1061833;-0.13740686;0.15267295;0.25157192;-0.20895569;0.2477355;-0.168952;-0.075950496;0.01825939;-0.33801222;0.03611027;-0.05770991;0.189979;-0.06554292;-0.10655801;-0.08180591;0.10126406;0.0028095439;-0.12435008;-0.13944772;-0.108959086;0.123569;0.5035865;0.09754213;-0.15435258;0.017694933;-0.10771678;-0.13846876;-0.011050231;0.18924312;-0.023482881;-0.052586123;0.023134708;-0.14596471;-0.07865117;-0.19551721;-0.14158379;0.050284114;0.06585095;0.13220577;0.18689501;-0.16215421;-0.11680971;-0.037818316;-0.09285426;0.21567394;-0.09174219;0.083829135;-0.09340151;-0.1396343;-0.074629165;-0.056110874;0.008912524;-0.1447773;-0.32168257;-0.36414945;0.2985856;-0.13361616;0.060844287;-0.07115024;0.07630273;-8.943763e-05;0.077004455;0.051419098;-0.018877544;0.05890922;-0.1645563;-0.12594804;-0.02545236;0.13810061;-0.112796135;0.035405323;-0.023992449;-0.2210767;0.36625764;0.30640253;-0.0010325571;-0.026009561;0.0010215479;0.15025869;-0.13103895;0.02506698;0.11066687;-0.10639939;-0.22749116;-0.21082453;0.034557134;0.06773857;0.038557477;-0.29418296;-0.055407338;0.15830547;-0.09613926;-0.29759213;0.115488805;-0.21907231;0.20062877;0.20301701;-0.29776675;0.1221118;-0.28312075;0.10595148;0.041776914;-0.33473915;-0.43467146;0.050848745;0.07562869;-0.11422178;0.08829367;0.11275594;0.2113888;-0.48678684;-0.047332373;0.108370766;-0.055134244;0.112244286;-0.017355775;-0.076080896;0.14519219;-0.0319855;-0.081802696;0.12538727;0.04760131;0.121800594;0.08645643;-0.2661386;-0.14917485;-0.14132124;-0.15378536;-0.092202075;-0.16688469;-0.024499409;0.021089833;-0.01239825;0.22744137;-0.24979252;0.015500733;0.06645009;-0.006591449;-0.25726348;0.016167104;0.0040573683;-0.2710035;-0.45791927;0.13269399;0.19528429;-0.07947352;0.07205667;0.19293459;0.1661503;-0.052921552;-0.34224287;-0.13869044;0.08327752;0.22421142;0.114815734;-0.06333008;-0.14530243;-0.024192259;-0.29997373;0.3350924;-0.00999884;0.33811936;0.045892138;0.025901152;0.043482453;0.052183397;-0.15169214;0.02228265;0.053725433;0.18137598;0.0850741;-0.013619883;-0.29305127;0.1256271;-0.10545319;0.18841918;0.19998726;0.09241328;-0.13731536;0.16761847;0.003659088;-0.10705732;0.09979621;0.092757374;0.26054475;-0.15110357;0.1528932;0.05433288;0.29020986;-0.1280473;0.15123664;-0.053156037;0.10538995;-0.11612614;0.0934568;0.17878552;0.12833996;0.010101219;-0.00886985;0.15549518;0.21953331;0.0739948;-0.41057616;-0.27812472;-0.06205041;0.33636478;-0.18010001;-0.074468665;0.049440574;-0.055595968;-0.22461636;0.22698356;-0.050437883;0.031648193;0.23346867;-0.11168675;-0.02866817;0.1126125;0.004167039;0.011413631;-0.12449803;-0.022088708;-0.20187989;-0.28496844;0.28783202;0.28565213;0.2317736;-0.08461905;-0.06326395;-0.09466764;-0.05246382;-0.21844523;0.45282924;-0.046578813;-0.12758398;0.33331075;-0.35028964;0.18489662;0.12785953;-0.020998983;0.082869664;0.15569918;-0.3309567;0.01909333;-0.18634099;0.036647253;-0.07014564;-0.15551205;0.0226847;0.1503234;0.07125563;-0.0011108824;0.07546089;-0.034706246;-0.122611545;0.16206694;0.23042521;0.2575325;-0.2617234;-0.020808399;0.023168022;0.4922323;-0.1805196;-0.23081876;0.17635001;-0.28511745;-0.24430746;-0.05419953;0.075103745;0.30606997;-0.27798364;0.027892824;-0.31780523;-0.01468376;-0.24885644;0.50618804;-0.03488706;-0.09987104;-0.109278485;0.03121546;0.03471171;-0.12830976;0.3209647;0.06669105;0.12030033;0.06035722;0.007883779;0.17460436;-0.03274888;0.10007183;0.0059832274;0.19474427;0.19179139;-0.25568154;0.44160262;0.106204055;0.12718302;0.23720601;-0.042592723;0.13875018;-0.13416177;-0.01753413;-0.5907518;-0.049505834;0.07103782;0.42037755;-0.33789986;0.0492306;0.27698207;-0.01657321;-0.14752361;0.24686347;-0.30451044;0.04594935;0.12634562;0.021464154;0.025324281;-0.10318248;-0.30320168;0.047366116;0.14095636;0.026344143;-0.317673;0.08230977;0.047057506;-0.036153816;-0.43952474;0.1951364;0.033772048;0.033533894;0.019171244;-0.037268136;-0.020051802;0.067706354;0.23201372;-0.2134674;-0.16383128;-0.3127632;0.21102339;-0.10045999;-0.10643877;0.22454219;0.053316813;-0.07781843;0.38510334;-0.39653042;-0.05184842;-0.041687515;-0.059161365;-0.12427889;-0.26655242;-0.21948807;-0.11072107;0.05216114;-0.09906185;0.17174259;-0.040289976;0.053713854;-0.121804155;-0.109386854;0.31614894;0.018713458;0.11451254;0.19213843;-0.10193814;-0.10353358;0.073727116;-0.24379192;-0.1377377;-0.30825296;0.08971562;-0.019145137;-0.075090274;-0.16363312;-0.08182448;-0.008852344;-0.13986959;-0.02164672;-0.24593137;-0.14003505;-0.20402099;-0.49032474;0.09587211;-0.0013212491;0.096632235;-0.114657715;0.14871451;-0.27681732;0.16860172;0.17902565;0.4350695;0.04852045;0.0018711976;0.06646927;-0.038113106;-0.019913042;-0.027442966;-0.14441992;0.2633908;0.06041248;0.028157307;0.066912785;-0.18397786;0.03170343;-0.10114;-0.1841161;-0.39364076;0.17009307;0.09691307;-0.17109743;-0.3205638;-0.29087242;0.0627789;-0.0552427;0.25935274;-0.011703854;0.016273895;-0.21423832;0.062417854;-0.36316928;-0.0975797;-0.029512778;-0.2612537;0.08753793;-0.05904274;0.047739536;0.1879225;-0.23495063;0.14030555;-0.102510035;0.018654002;0.13761383;0.026692338;0.3209722;-0.006007183;0.04323511;0.21278726;-0.10621597;-0.40730524;-0.21438055;-0.07035021;0.009408424;-0.09788495;0.0028749558;0.23390386;-0.01325158;-0.37560096;0.25187433;-0.08484039;-0.14810985;-0.01287992;-0.20209628;-0.12252502;0.007767853;0.015990395;-0.28216702;0.1031883;0.016279796;-0.23861709;-0.46234837;-0.12785348;0.08783194;0.060581867;-0.040762197;-0.016132617;-0.05023075;0.011877367;-0.010580216;-0.03015436;0.07981224;0.11410491;0.044230793;0.2506735;0.06592257;-0.07146351;-0.13586755;-0.0732189;-0.20265898;-0.21549441;-0.07618864;-0.010283396;-0.03234528
0.19570483;-0.35262614;-0.013001732;0.06991987;0.123699896;-0.09363077;-0.31096795;0.010952844;0.046606097;0.029056197;-0.0021536872;0.1141498;0.10281564;-0.058486197;0.11361682;0.07400429;0.21996725;-0.09240446;0.21899469;0.047820676;0.06572291;-0.28265563;0.2947963;-0.060915224;-0.07824616;0.053179137;-0.25056905;0.2254287;0.002765691;0.13749777;0.06888301;0.15859826;-0.012446274;0.13597585;0.00025336372;0.08304847;0.0151653355;0.021681285;-0.07990085;0.101802625;-0.016004873;0.012097252;0.099151656;0.055456717;0.27654412;0.11471339;0.057289444;-0.098722614;0.025611607;0.0022057926;0.002046032;0.28767988;0.07820934;0.07294618;-0.09171375;0.07842934;0.047231555;-0.075936176;-0.23291652;0.19965829;-0.031999752;-0.12223456;0.19369619;-0.2040224;0.19605549;0.22140731;0.18092676;-0.060881548;0.0063192784;0.13611196;-0.10070426;0.19519198;0.051927824;-0.0319227;-0.061144482;0.045811005;0.27972543;0.3840302;0.1141932;0.02582259;-0.094687924;0.43131816;-0.09048031;0.24527879;0.017591093;0.3309674;-0.1729744;-0.014031634;0.33441314;0.07213026;0.29561928;0.005417788;-0.19287501;-0.2977232;0.079905406;0.22876891;0.2738626;-0.3212441;0.00028901937;-0.04234484;-0.009389682;0.2884958;-0.1991857;-0.2117754;-0.054641556;-0.07496215;-0.1255685;0.066934764;-0.23665665;-0.11905386;0.30962852;-0.34194377;-0.043451358;0.016272305;0.07013945;0.37656924;-0.0076026707;-0.11432705;-0.2224257;-0.04024233;-0.28896257;-0.15207401;0.026242904;0.029095365;-0.04159809;0.06765747;0.024241854;0.12401442;0.061669435;-0.025137704;0.22537345;-0.09563763;-0.16778654;0.016263714;-0.18421522;-0.20331024;0.027513435;-0.032773975;0.17427804;-0.0864617;-0.032495074;-0.16338573;-0.027454866;-0.1269732;0.025461294;-0.11495193;-0.13140804;0.1900213;-0.013133933;0.22848971;-0.09385093;0.12992683;-0.034387827;-0.063145235;0.18649489;-0.22345181;-0.10931085;0.16167893;0.00050642266;-0.18177187;-0.13203833;0.17473803;-0.030091736;0.11643502;-0.013883414;0.005413421;0.13467704;0.38608798;-0.0570824;-0.009013942;-0.08984306;-0.21651022;0.1696677;-0.112876706;-0.0202131;0.13188931;0.051129706;-0.22509041;-0.14853743;0.360985;0.017425427;0.23738764;-0.08930821;-0.023309564;-0.08913972;0.15964192;-0.21389543;-0.035256386;-0.44005758;-0.11717903;0.2017539;-0.3137002;0.16489156;-0.17158937;-0.09225154;-0.021048533;-0.09821908;-0.21878144;0.25662628;0.020402877;-0.04888095;0.056357652;0.046808;0.48793867;-0.330116;0.024911532;0.10054171;-0.04734251;0.006503188;-0.25457442;0.089657165;0.17324457;-0.03435678;0.043799113;0.26796368;0.09580164;0.24871843;-0.10081057;0.07061167;-0.014282023;0.06624456;-0.42247456;-0.10951293;-0.11353642;0.057508036;-0.20324095;0.149001;0.21791191;-0.104784794;0.008544198;0.21526566;0.2128919;-0.09947606;-0.132608;-0.13535248;-0.31048584;-0.2631975;0.17270777;0.048902012;-0.09971238;-0.16502234;0.028540388;0.1529299;0.055208437;-0.24669744;-0.08120166;-0.26243675;0.0825246;-0.1292942;-0.007985919;0.11727481;-0.18923211;-0.13721876;0.29405406;0.09750745;0.09005445;-0.04352348;0.07752949;0.05655586;0.017070284;-0.46911657;-0.12436431;-0.23952477;0.003046251;0.13065872;0.26246437;-0.15274139;-0.18097861;-0.11579154;0.092703015;-0.0024051007;-0.07373883;-0.0196574;0.21303397;0.13672063;-0.008278835;0.13948263;0.23426476;0.022929482;-0.3133554;-0.15564793;-0.055232015;0.33931276;-0.10800145;-0.034171488;-0.014217369;0.14120413;-0.29067096;-0.17378564;0.19942118;0.15841238;-0.113817565;-0.06983892;0.318079;0.10536401;0.01944002;-0.36209875;-0.24034676;-0.25059593;0.3824948;-0.18366909;0.07087507;0.1286204;-0.2921668;-0.18031059;0.31419748;0.07770843;0.1598787;0.42582682;0.055755667;0.2691153;0.3228721;-0.14739804;-0.037926186;-0.037867792;0.055416033;-0.007503193;-0.1905356;0.053789005;0.38397297;0.23826315;-0.009479344;-0.196055;0.16307928;0.16523077;-0.21050452;0.27963313;0.015618951;-0.068115234;0.335179;-0.20253369;0.119421534;0.17808266;-0.127569;-0.018477963;0.3085112;-0.9272967;0.023907375;0.08362122;0.27950022;-0.15244244;-0.31494585;-0.096231446;0.29979396;0.0049446016;-0.08707652;0.03084614;0.052934587;0.034750033;0.00030065706;0.22537716;0.18928672;-0.15391451;-0.056231238;-0.032338914;0.41065913;-0.20833823;-0.14980432;0.07940166;-0.11282398;-0.18950984;0.035921272;-0.046012335;0.47599927;-0.4123698;-0.078363255;-0.22523747;-0.134168;0.21136457;0.040133134;-0.14206702;-0.028623564;-0.20881152;0.15884575;0.20556282;0.14743;0.35307232;0.17664619;-0.037165225;-0.16471937;-0.05927678;0.03663804;0.110013254;0.0443553;-0.11359126;0.22516184;-0.089439206;-0.06540633;0.120604925;0.025278699;0.12114249;0.04075027;0.09009354;0.22479273;-0.038047444;0.045048494;-0.48462963;0.16121514;0.19287634;0.1972673;-0.3727464;0.10033128;0.05253347;-0.16581191;-0.5517263;0.27526006;-0.14748847;-0.19375288;0.11364246;0.07622711;0.17813714;0.07581543;-0.3692728;0.0967438;0.09767502;-0.05112905;0.093626454;0.09192659;0.22386205;-0.0032096016;0.062773556;-0.01653531;0.13542101;-0.08763183;-0.14521867;-0.053990148;-0.17764427;-0.031091493;-0.059796978;0.15497741;0.06996227;-0.08026202;-0.078839615;-0.17828682;0.09524116;0.024382442;0.053887624;0.04250643;0.32032335;-0.25440693;-0.3353386;0.21254621;-0.05083897;0.103205316;-0.34569603;0.036467098;-0.14085767;-0.027753703;-0.2646789;-0.059907354;0.004334619;0.2092807;-0.038535655;0.03844482;0.36617425;0.012586768;-0.19674659;0.06014476;0.1635988;-0.02895455;-0.024002563;-0.21045391;-0.24359678;-0.33565557;-0.022546267;-0.07439582;-0.040835746;-0.25623456;-0.08858525;-0.23468867;-0.04401109;0.036416233;-0.09252853;-0.16753492;-0.12659855;-0.5079887;-0.098637015;-0.08878895;0.04792653;-0.28590712;-0.008977162;-0.13837273;-0.007788796;0.059851736;0.3828209;-0.18483835;-0.14647831;-0.011705501;0.08770708;-0.15402381;0.03128127;0.01996831;0.12561868;-0.015290898;-0.1118981;0.27140868;-0.23952298;0.12302541;-0.032674786;-0.099950746;-0.15573612;-0.16008092;0.025506726;-0.17333248;-0.23691082;-0.31545863;0.08571616;0.08109896;0.4410379;-0.043071207;-0.12323868;-0.07969087;-0.009872939;-0.043664448;-0.10797497;0.12349285;-0.17257962;-0.069193035;0.021316988;0.06986587;0.09529172;-0.22218847;0.0072696125;0.049063295;0.28718853;-0.0066167144;0.03682467;0.14358687;-0.059945703;0.23532605;0.15117596;-0.42669836;-0.29415905;-0.09346316;0.058952406;0.10890567;-0.1172355;0.11749659;0.25967714;0.09260164;-0.31761542;0.26343906;0.03168862;0.12966612;-0.10093926;-0.14426543;-0.05448853;-0.07060029;-0.0098239975;-0.018917613;-0.019054018;0.112356015;0.14983357;-0.15709381;-0.20239447;0.053905357;0.022486005;-0.0062990217;-0.19833118;-0.2166375;-0.04805108;-0.2456059;0.19801982;0.04258419;0.02735524;0.24932052;0.094783925;0.02647687;0.05670294;-0.040254362;0.12774205;-0.3182372;-0.1614495;0.15492855;-0.09972872;0.04547173
0.25915608;-0.042049244;-0.0732766;-0.2438924;0.010795961;-0.15521167;-0.2044006;-0.011478747;0.00861536;-0.13249554;-0.007015916;0.37619287;0.19864137;-0.02641927;0.25391784;-0.056205623;-0.21449824;0.07058938;0.18542573;-0.056890506;0.115555204;-0.22924997;0.18186408;0.19372801;-0.22172797;-0.055378735;-0.21851836;0.15968332;-0.07453089;-0.054378692;0.053445015;0.31696588;0.07053747;0.19145012;0.17564626;0.0008885505;0.2603068;0.05534712;-0.10807496;0.23252317;-0.030908085;0.13378726;0.20657215;-0.011035534;-0.099471495;0.19487256;0.026055304;-0.2248726;0.008529121;-0.2930343;0.1251138;0.2191624;0.0077315206;0.02137383;-0.17462282;-0.040375073;-0.38685733;0.011932014;-0.01441336;0.23831539;-0.08900116;-0.117301285;0.25096953;-0.05661415;0.053787034;0.16448697;0.23045403;0.029787956;-0.08732243;0.036863375;-0.004526975;0.11029119;-0.08679196;-0.15062377;0.27214512;0.04739562;0.17543761;0.23758668;0.20927121;0.16021907;0.19183858;0.3183778;0.010911368;0.08768628;-0.022212341;0.13737144;0.015377074;0.05604573;-0.039160073;0.20615946;0.06517187;0.05893713;0.016562827;0.084519155;-0.2018814;0.017525204;0.27731144;-0.041681666;-0.024907652;-0.035239264;-0.08753919;0.17636988;-0.24634251;0.0880847;-0.26472068;-0.15640154;0.041922547;0.08015618;-0.2065414;-0.107086286;0.18861283;-0.19537176;-0.077819005;0.007348556;-0.12520427;0.3166328;-0.010945728;0.06537196;0.14757378;0.094485134;-0.13245611;-0.13652512;0.09923128;-0.04202807;-0.25825927;-0.33889726;-0.16698864;0.0057223313;-0.15465344;0.15776975;0.30985063;0.12892869;-0.021183433;-0.20611374;-0.2799153;-0.25076744;-0.034105897;-0.2525031;0.09585872;0.020382456;0.13050129;-0.07752745;0.06270059;-0.06268413;0.09524041;-0.11483091;-0.455634;-0.07652183;-0.24861823;-0.032436818;-0.39394376;0.0997639;0.09429803;-0.1130987;0.078505374;-0.10140273;-0.09689947;-0.046735223;0.06256456;-0.08867448;-0.09111033;0.06520181;0.15496571;0.22233175;-0.059182223;-0.15343328;0.1694525;-0.23057516;-0.03400382;-0.25476083;0.18500564;0.06997303;0.34741595;-0.12956631;-0.02340519;0.1342246;0.054728862;-0.06083932;-0.09171819;0.34997147;0.03288603;-0.089777775;0.00071660767;0.11452367;0.020979138;-0.12537292;-0.07003041;0.21140409;-0.29729682;0.011470379;0.01593203;-0.18193391;-0.21648335;-0.26138294;-0.016368717;-0.37143543;-0.13954909;0.15703654;0.29329792;0.050332475;-0.04790413;0.041611806;-0.014788626;0.34270048;-0.23202609;-0.09785135;0.15616176;-0.36150584;0.014401266;-0.44365844;0.112071685;0.2214522;-0.17357045;0.085595116;-0.0024222077;0.09535417;0.05578799;-0.14221382;0.13995259;0.099062234;0.1766767;-0.096418396;-0.08111659;-0.04931888;0.044137422;-0.11936212;0.13750663;0.07213392;0.07587997;-0.020414978;0.16998;0.1804292;0.12293876;-0.18016878;0.17489962;-0.28713626;-0.24782526;-0.2407642;0.11684879;-0.15650098;0.018956868;0.07619024;0.118027486;0.019843325;0.07700207;0.09942222;-0.4122526;-0.02193715;0.11882061;-0.13266799;-0.02470773;0.039676566;-0.16574177;0.2838937;0.03908814;0.051559124;-0.23294908;0.23336476;-0.114989355;0.061121635;-0.09563181;0.14354548;-0.18711457;-0.13957208;0.26396593;0.3755253;-0.24424312;-0.101875074;-0.110601306;0.13495886;0.09687222;-0.30570862;0.29097217;0.1941185;0.06652609;0.09324172;0.2240969;-0.011802948;0.16353673;-0.18683021;0.24082047;0.055127226;0.35386628;0.17199625;0.1703623;0.13438267;-0.011095592;-0.12217756;-0.03537065;0.23388833;0.16725507;0.028302442;0.007536512;0.43821275;-0.049049325;0.030483846;-0.2484557;0.055161092;-0.25701874;0.21507676;-0.04157252;0.00561091;0.14241007;-0.0579969;-0.65709525;0.19633399;-0.0703283;0.18857293;0.20375535;0.087479115;0.13254288;0.33048543;-0.42497438;-0.032370917;-0.04965182;0.2009787;0.23999082;-0.007597863;-0.052499034;0.09927267;0.20191443;0.01493177;-0.070308164;0.033484723;0.40035984;-0.1524372;0.47534308;0.22419386;0.084652685;0.293509;-0.058764733;0.37382743;0.18968192;-0.21249929;-0.37667975;0.1576927;-0.69853604;-0.15842824;0.056593042;-0.030138258;-0.09175837;-0.2968764;0.08123746;0.13524804;-0.10317727;-0.037648123;0.046528105;-0.10581199;-0.016949547;-0.13591681;0.14165309;-0.17290758;-0.31483838;-0.083518334;0.21747757;0.11105376;0.067657724;-0.16692595;0.0708365;-0.1527839;0.004941517;0.17274629;-0.021330794;0.13908899;0.120690815;0.05545178;-0.054127537;-0.16600607;0.41134518;-6.86839e-05;-0.09162355;-0.26271382;-0.46326357;0.07630516;-0.15512106;0.06911412;0.0870034;-0.09689901;-0.039416153;-0.022328552;0.21446563;0.10701817;-0.025995921;0.13185135;-0.07647632;0.1166477;0.13013919;-0.010284622;0.10212445;0.07366736;-0.0034178814;0.25844538;0.086423784;-0.01166382;0.100208335;0.12373739;-0.636164;-0.083448015;0.14348167;-0.15842035;-0.14794944;0.045893744;0.17586958;-0.043972343;-0.27752966;0.18559529;-0.030912975;-0.13624312;0.082041994;0.14989516;0.25278276;0.07254269;-0.1668013;0.24421452;0.1608028;-0.13001834;0.07570419;0.2507491;0.09095857;0.07986808;-0.11864893;0.12629347;0.06990793;-0.11900425;-0.055052236;0.04184518;-0.048899338;-0.09098093;-0.2044621;0.14787717;0.03691284;-0.24294429;0.09001894;0.15256794;-0.22225986;-0.1729233;0.18342839;-0.033913296;0.14521699;0.109833345;-0.05317929;0.0761523;-0.031061636;0.20525415;-0.12437913;-0.0008801439;-0.058549535;-0.08815154;0.12839374;-0.0664265;0.09792448;0.04155876;-0.16292575;0.07637194;0.35902572;0.039903678;-0.0053778766;0.09209544;0.2103561;0.13334703;0.035815813;-0.07160941;-0.29771838;-0.3022778;0.07107901;-0.024261182;-0.0046938006;-0.23590603;-0.025386622;0.09279202;-0.27796626;-0.049075153;0.1338222;-0.22160055;-0.09134128;-0.18369961;-0.05086845;-0.25733912;0.17120895;-0.04971346;0.12914549;-0.0011268739;0.18834952;0.05114898;0.2906983;-0.10579197;-0.0039243894;0.0945323;0.2242067;-0.09618244;-0.048532832;-0.09428092;0.16595171;-0.11253812;-0.23353474;0.24123007;-0.06150188;0.16019522;-0.013474091;-0.017410858;-0.13967499;-0.10038539;-0.00987199;-0.040752795;-0.40526184;-0.41431135;0.16121988;-0.06108798;0.16099745;0.122623;-0.06338988;-0.12591423;0.17806414;-0.050564755;-0.21337175;-0.103263184;-0.3076551;-0.11268948;0.006376482;0.069732994;-0.032368574;0.05798736;0.018573908;0.15257943;0.12415703;-0.106162935;-0.36521924;-0.002978468;-0.035645425;-0.06331169;0.13681306;-0.31207785;-0.19081469;-0.1310249;-0.14098462;-0.16094546;0.3677428;-0.049027596;-0.08248958;-0.09311181;0.13070555;0.016482612;0.0550865;0.04566622;-0.17213245;-0.03128421;0.10435974;-0.1017282;0.19006275;-0.0051984373;-0.07429199;-0.03348765;0.13951138;-0.29808968;0.24981703;-0.08446045;-0.018061819;0.052560575;-0.06228846;-0.11682538;-0.013036909;-0.1180155;0.18874931;-0.07559084;0.1630246;0.040905297;0.03253042;-0.10227737;0.0055483277;0.2698391;-0.035945803;0.15857945;0.07850525;0.052030984;-0.2267226;-0.111390926
0.3979676;-0.10799604;0.0671339;0.09330683;-0.08510799;0.15586388;-0.31317228;-0.16570297;0.068921536;-0.15000881;-0.2846046;0.20519036;0.1609685;-0.02108005;0.11302762;0.015985986;0.0047530946;0.30345994;-0.08407122;0.08243947;0.18775;-0.13184485;0.25152376;0.17054601;-0.13555953;0.1274231;-0.27229837;0.1671866;-0.25752765;-0.07386235;-0.048969325;0.22987592;-0.07189504;0.086653434;-0.014402519;0.14465532;0.020395972;0.0030847148;-0.2797178;0.39421186;0.010101516;-0.08595402;0.054590095;0.30424157;-0.064922504;0.14830059;-0.05089974;-0.21230279;-0.25129518;-0.14439826;-0.05434417;-0.12826394;-0.28021273;-0.15993026;-0.4885717;0.04402468;-0.21272627;0.1434601;0.068848096;0.24167907;-0.0717981;0.077127405;0.4593438;-0.044894923;0.26007167;0.14233927;0.15668698;0.27716342;0.0034634974;0.10538356;0.1418495;0.1041308;-0.1874591;0.078325175;0.23041685;-0.08928169;0.13922113;0.21930288;0.13271263;0.43781787;-0.05888328;0.046979513;0.07359795;-0.085240945;-0.07336244;-0.020200282;0.10432633;0.011619718;-0.038805597;0.14250687;0.11820971;-0.00806094;0.061000973;0.19140112;0.1628275;-0.0028394042;0.0047266237;0.23620766;0.05126183;-0.09827854;-0.092508465;0.16323707;-0.11611821;-0.054467574;0.044713;-0.11828648;0.2544354;0.05800228;-0.20071788;-0.10721723;0.033884358;-0.17167254;-0.105849795;0.018452592;-0.15593122;0.13005403;-0.010974335;-0.3423664;0.2741518;0.077683404;-0.09626848;0.011027164;-0.002440531;0.05190093;-0.1180845;0.0011860128;0.012820337;-0.024917845;-0.094981804;0.14255469;0.11192559;0.023800582;-0.024985427;-0.38973832;-0.07518607;-0.13219722;-0.049496274;-0.23110284;-0.100519195;-0.09614049;0.0439702;-0.17451409;-0.08548588;-0.15670328;0.13910647;0.27062514;-0.41693896;-0.333916;0.048256777;-0.09435531;-0.1728146;0.196587;-0.03492853;-0.07525674;-0.028852485;-0.29328027;-0.20094907;0.023617974;0.1124144;-0.11768518;-0.061585784;0.11066209;-0.02804946;0.10125144;0.010181894;-0.13415371;0.33353722;-0.12411618;-0.14076284;-0.33791733;-0.104433805;-0.23591144;0.48098746;0.14241244;0.23812617;0.13328758;-0.017604802;-0.06372975;0.06534637;0.22678904;-0.0060558766;0.033742756;-0.24022797;0.053206764;0.029529393;0.11942989;-0.021465192;0.071967795;-0.09300309;-0.09051661;0.028197765;0.07849596;-0.20899558;-0.33572212;0.08247922;-0.79010373;0.025361026;0.25789502;-0.039695654;-0.11721443;0.167742;0.24345435;0.064345166;0.18145171;0.011119832;-0.064082876;0.09745075;-0.2918415;-0.10030186;-0.057224903;0.103509784;0.074651085;-0.34831077;0.16405413;-0.041292638;-0.06998148;0.008078614;-0.2074864;0.090317145;-0.21787149;0.31615138;-0.20151557;-0.071495384;-0.05163601;0.06503787;0.054205135;0.17835052;-0.0669767;0.29485032;-0.0050901934;0.06949348;0.24321765;0.19268237;0.0068312744;0.15596499;-0.21169059;-0.3863474;0.010370437;0.03306466;-0.12040013;-0.18462823;-0.21950394;0.24738389;0.048624124;0.024443204;-0.059144434;-0.22164315;-0.114461415;-0.058686983;-0.15980731;-0.17882362;0.085893735;-0.12661736;0.11088882;-0.032967888;0.07367397;-0.4917395;0.16422322;-0.23023103;0.1431058;0.14557329;0.184605;0.15392022;-0.12399338;0.24120101;0.122176446;-0.013862291;-0.26957875;0.086208895;-0.069262445;0.043617617;-0.2671006;0.033257686;0.1391804;-0.071252964;0.2517665;0.26087055;0.23497769;0.03290717;-0.41426528;0.32941;0.15721934;-0.020592377;-0.01237245;-0.105594985;-0.02127984;0.069356166;-0.33256066;-0.094082944;0.31360108;0.2357906;-0.09853253;0.10733798;0.05822057;-0.033670582;-0.1357197;0.045106363;0.19066626;-0.21169394;0.003290331;-0.14791091;0.040140312;0.190659;-0.09588162;-0.6136526;0.03879125;-0.09047211;0.037823014;0.18326397;0.1364641;0.08204341;0.34157854;-0.21607997;0.23711535;0.06202066;0.11260074;0.09448991;0.105297394;-0.12345426;-0.0023679556;0.14337483;-0.010350734;-0.0022776918;0.10216832;0.085926756;-0.38994184;0.3900196;0.16157867;0.15576212;0.12258872;0.11245507;-0.03614925;0.10075844;-0.23432249;-0.18829265;0.25721598;-0.24500598;0.19314969;0.04278655;-0.04863719;0.12299638;-0.23589453;0.25109613;0.050003152;0.081608035;-0.025297998;0.08092716;-0.34965956;0.093788765;-0.043801617;-0.06596866;-0.16303188;-0.08647442;-0.14185978;0.013127111;0.2174903;0.027324317;-0.035263065;-0.14665052;0.21886061;0.0658248;0.08122076;-0.100372225;0.09189436;-0.01511588;0.04196721;-0.07660404;-0.16892147;0.020692177;-0.029807527;0.025372067;0.025412116;-0.32830572;0.044130277;0.0658404;0.017940745;0.107285194;-0.1826703;-0.048270144;-0.15557991;-0.15867501;0.13920014;-0.07071181;0.25677982;-0.09394663;0.22221628;-0.0444004;0.10166502;-0.16656356;0.0067867506;-0.052857008;0.109605715;-0.049402166;0.2626003;-0.004884609;-0.082515605;-0.59456;0.030999009;0.19258104;0.20337346;-0.1757517;0.11284628;0.23767655;0.2156214;-0.007267904;-0.03555138;-0.052916225;-0.0045789303;0.10384275;-0.09726717;0.02771825;0.12330027;-0.3717872;0.049933888;0.25030503;-0.117933795;-0.058774527;0.04896935;-0.023496136;0.1152273;-0.015500334;0.13824008;-0.1694573;-0.026810369;-0.16378242;0.26801878;-0.21862464;0.023311967;-0.07259419;-0.025306918;-0.21101412;0.0017793061;0.18962616;0.22252758;-0.48132277;0.1593815;-0.051129825;-0.05722218;-0.19910179;0.13318394;-0.19012871;-0.1272987;-0.16895251;0.26671898;-0.35156235;-0.14965369;0.16541791;0.037200723;-0.25453597;0.26166162;0.10608815;0.32179302;0.016389783;-0.1500211;0.07895379;0.0042244676;-0.277913;0.32248867;0.26820436;-0.18834603;0.03760084;-0.13579942;-0.3737637;-0.07109765;-0.29249504;0.07402157;-0.24285123;-0.21429914;0.18450283;0.017398708;-0.20436858;-0.16383816;-0.2529681;0.038847584;-0.37756366;0.11574541;0.12637828;-0.12213425;0.15201974;0.0007130313;0.062739894;-0.024160065;0.085637055;-0.12700467;0.32548127;-0.008815876;-0.0034356064;0.03642665;0.27501333;-0.35404894;0.1341637;-0.003308179;0.20127562;-0.37051004;-0.03543376;0.25367522;0.18368645;0.04608961;-0.1571798;-0.026750864;-0.20876116;0.3116121;-0.07204316;-0.046162274;-0.32303113;-0.3054744;-0.0046449294;-0.2857376;0.06445968;0.1635222;-0.006366942;-0.11000291;0.2833025;-0.054894865;-0.17746451;-0.19023757;-0.16011749;-0.42114422;0.18447882;0.067499965;-0.15904073;-0.02347943;0.17419453;-0.10280274;-0.060320597;-0.112709954;-0.53038293;0.17280975;0.07947672;-0.12393562;0.08119993;-0.14259538;0.10480077;0.07619309;-0.06389172;-0.3794384;0.3829596;-0.16608265;-0.17891636;-0.10816404;-0.070360765;0.0821648;0.2842757;-0.10956716;-0.1465995;-0.12934512;0.0602116;-0.5022756;0.25672507;-0.12084625;-0.3054583;-0.1848709;0.37447217;-0.12629686;-0.010434632;-0.005654204;0.08382329;-0.2190929;0.014765567;0.33056334;-0.14184065;-0.04054479;0.2676383;0.006864977;0.11383985;-0.17297451;-0.08039596;-0.009004592;0.030284712;0.12802996;0.089922704;0.45526654;0.09901612;-0.109635085;-0.124877326;0.0203749
0.15482515;0.02348593;0.22440936;0.044165086;-0.09078611;-0.037978474;-0.22668211;0.029827852;0.03131104;0.08069636;-0.31010672;0.2006956;0.084083304;-0.034927797;-0.18166336;-0.19041632;-0.1410535;0.14102563;0.042854607;-0.057373933;0.10504164;0.02518749;-0.08215241;0.11984225;-0.18983686;0.21925549;-0.1450755;0.13047656;-0.15310383;-0.094854854;0.04180164;0.3049318;0.018525338;-0.032486644;0.03247749;0.23739213;-0.02778568;-0.1377328;-0.033884067;-0.20718922;-0.21746337;-0.00616594;0.077208325;0.059537333;-0.13532495;-0.010319664;0.059990067;-0.17632985;-0.025437603;0.012138211;0.02620603;0.050790254;0.06070661;-0.5796244;-0.35965765;0.024397079;-0.47471783;0.043990377;-0.11993437;0.3654439;0.12516452;-0.22007874;0.36720127;0.06547865;0.0055396887;0.026589738;-0.086349756;-0.28782386;-0.15263334;0.14410353;-0.010329726;-0.17881396;-0.18514761;0.16822737;0.09278822;-0.08705006;0.2084182;0.24831657;0.3757726;0.39969003;-0.0037197822;-0.15602766;0.25670725;-0.1241867;-0.010608943;-0.07563957;-0.063584745;-0.11376237;-0.27294123;-0.42286396;0.2795527;0.12548415;0.09368585;0.04251152;0.08391137;-0.06715019;0.08586869;0.055586435;-0.026830247;-0.0011351518;-0.2475038;0.029526377;0.0003244384;-0.05934226;0.001065671;-0.47079536;0.20084903;0.10717558;-0.25402355;-0.14965536;0.21792719;-0.052866526;0.048343707;-0.25750333;-0.14869037;0.3176337;-0.0068094796;-0.039652713;0.164836;0.06598971;-0.4722095;0.0058095735;0.12809516;-0.05432286;0.056478273;0.1863225;-0.21731885;0.13161598;-0.09611169;0.19295527;0.070946924;-0.012661838;0.01862829;0.02317604;-0.073097125;-0.32036003;0.010397529;-0.10601033;0.023954194;-0.11710435;0.16349283;-0.2833159;-0.08838501;-0.14819689;0.044247024;0.26036733;0.024370022;-0.06989706;-0.13805173;-0.08130597;-0.15251166;0.085579045;-0.07540652;0.29963982;-0.02111415;-0.40539655;0.014549967;-0.24189283;0.095429964;-0.090881854;0.09233596;0.26933104;-0.012743589;0.03664;0.025966154;-0.12608936;0.07968469;-0.00438384;-0.079192564;0.08396366;-0.052040536;0.19726829;0.14348234;0.21832587;-0.015692845;0.25375146;-0.0075563346;-0.023195513;0.27677053;0.12197922;-0.20446257;-0.034386676;-0.14340872;0.053670734;-0.15884522;-0.08283631;0.09068928;-0.01357218;-0.10895369;0.009899486;-0.1891185;-0.13334669;-0.026454352;-0.19982402;-0.1295402;-0.26486057;0.114175044;0.21339063;0.1894619;-0.0016572579;0.23922056;0.23608564;-0.18998015;0.36471784;-0.114214316;-0.12144842;-0.030539632;-0.38195208;0.23093732;-0.11722695;0.03316464;0.279995;-0.20075072;0.116706185;-0.011321709;0.12888333;-0.14040887;0.22265251;-0.020369226;0.042507187;0.031969503;-0.096174486;-0.29683286;-0.3112939;0.047062706;0.19540627;0.46211085;-0.076007;0.4955172;0.017670855;0.24545321;0.1397281;0.10710721;-0.10659914;0.10681554;0.13291068;-0.15488133;-0.12658203;0.26601237;0.08190208;-0.09512975;-0.06701204;0.22521354;-0.17637089;0.03467376;0.19504912;0.035707347;-0.029459802;-0.09937368;-0.1314015;-0.50145423;-0.007634127;0.051906504;-0.07393098;0.028036663;0.027069155;-0.41765618;0.17798144;0.21274409;0.17800534;0.08010612;-0.011749712;-0.020478453;-0.14806814;0.18460892;0.10641611;-0.03393743;0.0010164309;0.056238227;-0.09008766;-0.23829938;-0.18707356;0.003555015;0.2898907;0.020665798;0.28842825;0.19535811;-0.048701286;0.07885464;0.09583048;-0.18269299;-0.12024261;-0.03852749;-0.24909188;0.057159968;0.26658595;0.16807097;-0.21701565;-0.14962918;0.11057;0.03119374;-0.0011810719;0.22643727;0.28785604;-0.18888955;0.001646914;-0.17315306;0.14175916;0.16648777;-0.08407703;0.05120416;0.04588979;0.08063648;-0.0050687916;-0.31153283;0.3676087;0.06482965;-0.23863828;0.3277419;-0.017946271;-0.009416272;-0.29172456;-0.19971417;0.20677486;0.020102294;0.17932662;0.064633004;0.11075741;-0.10840185;0.1311217;-0.07972846;-0.22738016;-0.066957645;0.05478373;-0.028134232;-0.27983472;0.18980774;0.10177598;-0.15202068;-0.061834116;0.33776036;-0.0484203;0.053065974;-0.2791132;0.012800502;0.01976383;-0.2843471;0.08256946;-0.09213699;-0.0021411146;-0.18041636;-0.07127024;-0.058989514;-0.6227885;-0.10961921;-0.19335921;0.029293079;-0.10284756;-0.13960783;-0.14770998;-0.15116353;-0.26668745;0.22986044;-0.09193929;0.04881577;0.13594842;0.0025652829;-0.045543566;0.04433541;0.2930566;0.25148648;-0.10422552;0.056541737;-0.17111906;-0.07774985;0.06523864;0.04661118;-0.34046867;-0.15928213;-0.105524674;0.047131233;0.24914825;-0.21703398;0.029690234;-0.35795975;0.23127726;-0.17815025;-0.1599049;-0.09448925;0.06622013;-0.106244765;0.04880985;-0.17225482;0.21251884;0.3682123;0.04090772;-0.06017653;0.22735783;0.0419495;0.16790672;0.049358364;0.17024745;0.15814309;0.20590448;0.03308928;0.034520738;-0.32050583;0.19321927;-0.1479206;0.10540207;-0.15654196;-0.10316114;0.22392857;0.13522284;-0.001509092;0.027407857;-0.07294578;0.08626929;-0.0635657;-0.0879967;0.029253665;0.06916202;0.068822116;0.099640384;0.20824832;-0.41045985;0.0113512995;0.174205;-0.06151708;-0.061367992;-0.04530816;0.0419451;-0.061210047;0.09343134;-0.04854637;0.23211266;-0.08652393;-0.07212418;-0.24252461;-0.2525273;0.103828534;-0.06745152;0.09298785;0.19405401;-0.01159989;0.05875767;-0.02725281;0.08554792;-0.050970312;0.050208516;-0.29390576;-0.3029214;-0.06182584;0.13456966;-0.061748393;0.041593093;0.010325831;0.067663275;-0.44511288;0.14161858;0.048654594;0.043644063;-0.18416113;0.2865179;0.15953824;-0.05189205;-0.12103145;0.12492146;0.2385925;0.008223023;0.15923238;-0.14229414;-0.27850527;0.06617029;0.01671118;0.104100965;0.018977573;-0.033016995;0.04574067;0.033726882;-0.25526524;-0.035659984;-0.058398988;-0.017893735;-0.14063878;0.19037154;-0.06529287;-0.0496868;0.11426668;-0.072608024;0.18199567;0.06195466;0.08691393;-0.24478613;0.08360159;-0.004077071;0.120197706;0.049997475;0.25059983;-0.28945556;0.0951017;-0.17038085;0.14179866;-0.29325095;0.054059792;0.12230766;0.12518616;0.14539446;-0.057319902;-0.1815829;-0.08838755;-0.2050669;-0.08779382;-0.22390187;-0.2341644;-0.30585596;0.12350515;-0.025164543;-0.115501344;-0.02731891;0.06608997;-0.16252527;0.22580731;-0.06372243;-0.21692526;0.04253209;-0.25542837;-0.30604124;0.3392511;-0.055773597;-0.115037136;0.33496085;0.061596632;0.03218572;0.03817233;0.041104995;-0.13554141;0.17465536;-0.116779424;0.10608448;-0.1106356;-0.24799213;-0.004782716;0.10234821;-0.27507317;-0.34382683;0.073855974;0.0045577497;-0.044074498;-0.045961507;0.18920906;0.083705485;-0.06573866;0.12750828;-0.22743426;0.21483183;0.28170177;-0.06889666;0.2218957;0.050807606;-0.07538538;-0.09707124;-0.05185332;-0.006240303;-0.20880206;-0.18309037;-0.13127552;-0.085413516;0.13337296;0.03397684;-0.40431523;0.1725875;0.24152635;0.013718886;0.16288395;0.02405348;-0.030461023;0.17475592;-0.112707384;-0.17877433;-0.087451994;0.072782904;0.1871617;-0.19473636;-0.2742944;-0.14371721
0.15403396;0.103506796;0.17635605;0.025822332;0.02798896;0.12575215;0.0007974465;0.19748007;-0.023702636;0.00021585003;0.1445579;0.08248186;0.0065998174;-0.028766723;0.09140259;-0.22336173;-0.024667542;0.03382022;0.09257918;0.17985854;0.20678122;0.43677294;-0.014184885;0.33750322;0.0022923984;0.26025507;-0.039359897;-0.24688828;-0.26248935;0.067886904;0.25372666;0.35222042;0.041412037;0.011505006;0.28225935;-0.06736065;-0.09450233;-0.19722962;0.0025388275;-0.3443289;-0.004356337;0.1559164;0.34829077;-0.061130833;0.020119788;-0.08362838;0.17912419;-0.4229786;-0.0002754317;-0.24785025;-0.22178806;-0.07338113;0.29621375;-0.2168564;-0.18284713;-0.049252488;-0.25869858;0.053299796;0.11315989;0.17088978;-0.20500222;0.06557265;0.013912252;0.10043347;0.17324057;0.17704579;0.10986577;-0.12037015;0.03645065;0.10323336;-0.401875;-0.030965248;-0.3812652;-0.160168;-0.19208679;0.12407678;-0.05912958;0.16326657;0.16855703;-0.11643572;-0.4164863;-0.16871078;0.31945056;0.037913322;0.0134274475;-0.14738254;-0.016854912;-0.0005837612;-0.09430948;-0.3024401;-0.12125792;0.08454767;-0.04631934;-0.056545507;-0.013235174;0.07484631;0.15049997;-0.1275132;0.18591009;0.040058017;-0.058526803;-0.13600034;-0.09840111;-0.16321684;-0.014754896;-0.12848674;0.24823628;0.13443156;-0.20337349;-0.12575072;0.18048225;0.12492227;-0.039173447;-0.10215;-0.09586498;0.21774043;0.043858506;0.095390394;0.18083714;-0.016701851;-0.5709459;-0.06292833;0.23478214;0.060369335;0.10826576;0.10980212;-0.1466026;0.024303172;-0.21279803;0.053103637;-0.18994816;0.094146155;0.14936094;-0.089152;0.06474472;-0.35456622;0.13973735;-0.1581851;-0.03883764;-0.059876952;-0.1195554;0.12149386;-0.23906223;0.10012201;-0.03618255;0.116980135;0.07153585;-0.11021333;0.28473958;0.028979655;0.10574581;-0.00679857;-0.08920845;-0.050045308;0.009931659;-0.31299543;-0.017517818;-0.19076829;-0.08567567;-0.13849844;0.1737216;0.042822808;-0.042834867;0.00870463;0.037028562;0.011986001;0.21663108;-0.04394236;-0.23179238;0.1078209;0.18032926;0.08032915;-0.086622536;0.15588179;-0.096852176;0.2585582;-0.13118508;0.14116922;-0.012997829;-0.11292196;0.078046896;0.03495482;-0.23100954;-0.059077837;-0.12365699;-0.17205119;0.06646193;0.07881753;-0.12399941;0.2993884;-0.14131136;0.12578732;-0.013040447;-0.20774563;-0.19364038;-0.08031905;0.18171288;0.10197175;0.14708738;-0.08115852;0.15046367;0.045704156;0.23359115;-0.009119878;-0.28451476;-0.19444866;0.056681644;0.100087814;0.23942892;-0.2471374;0.12736557;0.11407234;-0.15839414;0.06709272;-0.037362084;0.08631995;-0.005534966;0.19615944;0.14447592;0.3258008;0.052532822;-0.05284573;-0.11771867;0.11421407;-0.12628905;0.019299712;0.09903949;0.16130966;0.066549204;0.100954615;0.039759733;0.1241544;0.22702889;-0.13563153;-0.35886937;0.20778683;0.14728989;-0.18319389;0.20200351;-0.087770075;-0.061883908;0.21991394;0.11774816;-0.16166309;0.06999705;-0.0056868345;0.1461618;-0.12553373;-0.24794531;-0.12778202;-0.54960823;0.13345768;-0.14212741;0.22744012;0.22108245;0.08764913;-0.35798565;0.06929331;-0.02350777;0.13555084;0.23176461;-0.13648699;0.02146487;-0.12163654;0.32402378;-0.07865809;-0.0010959557;-0.0682172;-0.0008519142;-0.0677146;-0.24381761;-0.11739798;0.13765903;0.41427478;0.119169146;0.054551538;-0.030252416;0.21588063;0.21945965;0.1916698;-0.07228905;0.16592869;-0.08782064;-0.37612957;0.14809543;0.26625398;0.2430214;-0.20572647;-0.09794619;0.20109633;-0.0137252975;0.09598557;0.18429208;0.2482569;-0.2254613;-0.08147242;-0.4256154;0.063576855;0.12922382;-0.021434134;0.16882563;0.046735175;0.14244664;0.1424807;-0.06157244;0.19373524;-0.07754739;-0.1989716;0.26185328;-0.11980875;-0.0076773344;-0.080092736;-0.10439552;0.09762657;-0.09284928;0.1657263;0.19157794;-0.04753851;0.13813446;0.07111391;-0.018328704;0.03376285;0.004148873;-0.13718893;-0.102552466;-0.20694876;0.24964797;0.14359713;-0.32315546;-0.10491738;0.15034685;0.0862257;-0.074333124;-0.33520997;-0.008820239;0.15594664;-0.021201778;-0.02772144;-0.2089102;-0.11640261;-0.2703222;-0.15636455;0.31970385;-0.4781237;-0.049729902;0.11604333;-0.1405665;0.026932977;0.16218778;0.25972968;0.0019124203;-0.24796711;0.3066637;-0.14116643;-0.102309324;0.08723898;-0.16356571;0.14062797;0.1416241;0.3962869;0.29536733;0.0590161;0.12855609;-0.25866032;-0.084659144;0.010264003;-0.03670105;-0.1284301;0.3001464;0.0702232;0.17643906;0.09364138;0.18445763;-0.11961023;-0.31053162;-0.20587684;-0.13044858;-0.10287571;0.008723907;0.053089175;0.07317008;0.1778236;-0.42057124;0.055442423;0.03222634;0.24495248;-0.12640256;0.05134746;-0.0045623495;0.017977742;-0.053499874;0.11419147;0.03236259;0.07505504;-0.0006809789;-0.24370551;-0.14261732;0.27728337;-0.18000986;0.23846768;-0.05487524;-0.114848055;0.30902666;0.44347405;0.14293694;-0.07582156;-0.20821536;0.03549313;-0.1451573;-0.23782083;0.11844701;0.06992352;0.035286646;0.2189927;0.1903788;-0.041585192;-0.20091656;0.33304152;-0.2586096;0.09174327;-0.04131686;0.029442491;-0.2302273;0.11147174;-0.15435569;0.14141044;0.04328013;-0.35352433;-0.28312546;-0.34432027;-0.16060221;-0.058988437;-0.04387327;0.114824295;-0.012960213;-0.102903545;0.120199524;0.022427585;-0.14419785;-0.2598683;-0.093413986;0.06586744;0.13851766;0.040262863;-0.15226576;0.1255369;0.00048002368;-0.044793993;-0.020791894;0.16306874;-0.0005915695;-0.17614627;-0.034020837;0.30259392;0.08267812;-0.28648242;-0.014799404;0.16589852;0.3024236;-0.011399157;0.17585196;0.13412844;-0.13170396;0.31612578;0.2668911;0.07998602;0.1664262;0.22567858;0.06346933;-0.123134345;-0.342412;-0.0996135;-0.21152912;-0.070147134;-0.12303447;0.026422346;-0.26139393;-0.34141213;-0.11652691;0.14240165;0.21151179;0.038319074;0.1107708;0.20303647;-0.0032756529;-0.19407295;0.07512522;0.15264618;-0.16944033;-0.049560387;-0.104898974;-0.09367223;0.1808893;-0.570037;0.04387929;-0.0440674;0.09332529;0.034518488;-0.0741851;-0.008508078;-0.09306309;-0.19437902;0.07992988;0.1049748;-0.06992613;-0.6457421;0.20896207;-0.4171722;0.120739415;-0.14047742;-0.1154035;-0.080174804;0.25493744;-0.27105698;-0.31280357;-0.038380094;-0.36981717;-0.022153622;0.22633928;-0.02451433;-0.008141624;-0.05089296;-0.17167494;-0.12948444;0.13668916;0.16843504;-0.16503353;0.14616342;0.27171862;-0.07936429;0.27182192;-0.20895018;0.0810531;-0.03670951;0.009686088;-0.1810998;0.2699909;-0.07855268;-0.060629543;-0.2421987;0.236698;0.045973524;-0.0804217;0.20023176;0.11726585;0.11535211;0.26593593;-0.19851789;-0.11618906;-0.06915363;-0.051187903;-0.09251589;0.09352546;0.33814427;-0.09949804;-0.15339807;-0.07942375;-0.091640815;0.31139186;0.109382905;-0.2826188;-0.09083216;0.021065967;-0.15015306;0.07680381;-0.14500083;-0.03377612;0.014723406;-0.017298378;0.21305978;-0.15305156;0.086874746;0.18700619;-0.124064006;-0.09454521;-0.10052587
-0.10558918;-0.12209035;-0.010946391;-0.093240716;-0.14258799;0.2076173;-0.0389758;0.023015037;-0.069601186;0.04270069;-0.0352533;0.08849948;0.23331328;0.045938358;-0.23897423;-0.023725303;0.029698402;0.1994923;0.18862846;0.19647354;0.14271334;0.24919815;0.034102887;0.26878825;-0.12258417;0.13576932;-0.011318938;-0.2571132;0.0074388525;-0.021947723;0.2174839;0.3257553;-0.05037067;0.2088104;0.02549953;0.061275262;0.1693925;-0.11090959;-0.06187081;0.1708345;0.15134156;0.07557333;0.086663224;-0.103702575;0.123205125;-0.031384885;0.045442794;-0.15853232;0.08718706;-0.312887;-0.055011038;0.020505734;-0.11790674;-0.48862088;-0.08126381;0.14258556;-0.38422713;-0.12672882;0.035271414;-0.14109145;-0.03819343;0.10735708;0.036840327;-0.1444563;0.07528079;0.17250685;0.10491486;-0.31449863;-0.1057703;-0.13402894;-0.32555485;-0.33856425;-0.1785399;-0.21564564;-0.3028843;-0.08653269;0.16655006;-0.16935988;0.08138308;-0.1291098;-0.33532855;0.00992983;0.057456926;0.043689508;-0.19114506;0.018258866;-0.07725787;-0.17720707;-0.06408882;-0.31041676;-0.16132496;0.10847521;0.07884639;-0.022186184;-0.15936555;-0.0026961397;0.1537196;-0.23999844;-0.10533434;-0.026304243;-0.06701783;-0.0055945176;0.14209014;-0.15561926;0.31445402;-0.14941995;0.18296778;0.32877502;-0.00976284;0.086852655;0.045704734;0.059747156;-0.12873395;0.11804979;-0.073929206;0.12293681;0.0035802268;0.23955715;0.32898784;-0.06294878;-0.5337189;-0.10543277;-0.12313058;-0.003980778;0.2457994;-0.061212733;-0.35870904;0.099107705;0.06610914;-0.22128664;-0.21200658;-0.059491657;0.29006618;-0.20387621;-0.23868756;-0.04272489;-0.1483468;0.1364047;-0.112918936;-0.06959598;-0.15370929;0.008492303;0.1145017;0.13078348;0.0076231407;-0.15135399;0.039332632;-0.025147159;-0.32765976;-0.318463;0.10607664;-0.112877764;-0.012247748;0.11942875;0.062629975;-0.3135104;0.2775824;-0.22019377;-0.17392042;0.008570085;0.21800943;-0.04783593;-0.07618317;-0.0401723;0.034132157;0.020056874;0.006399518;0.2588712;0.0376892;0.13605833;0.16109288;0.2172737;-0.32137117;0.02984958;-0.059834167;0.28318748;0.07252038;0.13055393;-0.18296905;-0.009582364;-0.083247855;0.16324806;-0.13497339;0.104542114;-0.38709205;-0.1730792;0.0058267247;0.22439647;-0.0031090248;-0.07587821;-0.119964756;0.068186924;-0.34470055;0.055853833;-0.12286352;-0.38453573;0.02277009;-0.09769385;0.20475878;-0.2673979;0.024965324;0.12374167;-0.06369229;-0.061394136;-0.30296776;-0.18051001;0.0155635495;-0.16143732;0.2667234;-0.30694282;0.16916989;-0.24921235;-0.13134794;0.063985206;-0.050010163;-0.008027499;-0.013563845;0.19446048;0.0548659;0.05392219;-0.11459108;0.355585;0.079517946;0.06544665;-0.21870887;0.22985879;0.2748347;0.069757245;0.12985662;0.30543298;0.20788005;0.23020917;0.113047324;0.06470634;-0.053627834;0.3189997;-0.12659964;-0.037192117;0.36005867;-0.1367781;-0.010716238;0.24856876;0.017585974;-0.2748389;0.05667152;0.107380815;-0.10818547;-0.09205314;-0.014704483;-0.33159706;-0.33855793;0.07479687;0.09968174;0.09878678;0.17460963;-0.019596126;0.044401105;-0.051216416;0.28211567;-0.13091953;0.2418388;-0.07447042;0.17380795;-0.018722914;0.046541777;0.19789131;-0.18763573;0.14259265;0.12024423;-0.119887166;-0.14744268;-0.057815135;0.27834153;0.33488083;0.09979802;-0.00782429;0.0843853;-0.055921335;0.088564284;0.19794402;0.27081087;0.089324534;0.011178772;-0.39044636;0.17587459;0.10899453;0.18242685;-0.2884991;-0.047631655;0.18514214;0.19306186;-0.15061025;0.324394;0.16732322;-0.088701226;-0.04349877;-0.2927701;0.02404769;-0.0224735;-0.08889966;0.051313497;0.23165002;0.2216181;0.032063883;-0.02362589;0.07354211;0.008829848;0.011971141;0.3278532;0.07400577;-0.0027805774;-0.34526694;-0.05181047;0.13659683;-0.09897962;0.034995936;0.14874536;0.05081285;0.19458829;0.22983654;-0.2031374;0.04143523;0.09930017;-0.0936115;0.17174408;-0.24025784;0.13594946;-0.02280562;0.089397445;0.05883379;0.0844195;0.07373856;-0.02869563;-0.20957522;-0.26429987;0.09396794;-0.1442881;-0.37102953;-0.28163406;0.08287076;0.016807426;-0.03807553;0.15601155;-0.58869547;0.25809062;0.2017099;0.02394547;0.03793956;-0.19603063;0.12904899;-0.059350066;-0.050276056;0.29929686;-0.23248693;-0.0053085214;0.066429585;-0.07146322;0.09575483;-0.048655685;0.14506903;0.17332216;0.29073521;0.14621444;-0.21358195;-0.0435102;0.016878145;0.09603939;-0.24050847;-0.14872523;0.20852326;0.18500552;0.019687245;-0.017074691;-0.037843388;-0.22549489;0.06450468;0.008368467;-0.10510802;-0.18311514;0.046977144;0.188705;-0.09690267;-0.14772698;0.14847107;-0.1125403;0.30403876;-0.002754079;0.09292582;-0.02579291;0.0621792;-0.0868999;0.105686605;0.17745924;0.0609063;-0.061321277;-0.10179327;-0.009253898;-0.02431699;0.02847588;0.05558988;-0.12792498;0.043153767;0.055987924;0.24616939;-0.2511774;0.0040624747;-0.1643411;0.26243448;-0.22661878;-0.47542584;0.12447489;0.083287425;0.12792513;0.015778666;0.0751735;-0.20310643;-0.2262283;0.24016005;-0.25518322;-0.30988854;0.117195345;-0.034508396;-0.22538331;0.007879106;0.10151434;0.28972864;0.25453657;-0.52796;-0.19520517;-0.02752355;0.15654714;-0.09262287;-0.016489835;0.16884154;-0.05779886;0.0800431;0.021626085;0.110757485;-0.22892281;-0.16405593;0.022578878;-0.26708347;0.34476778;0.23195638;-0.16799144;0.05953841;0.14144638;-0.14224648;-0.2397425;0.07701445;0.24570993;-0.001450463;0.059169896;0.25390136;0.08626477;-0.1173825;0.1393844;0.049093984;0.3743141;-0.050501145;0.19768016;0.095551565;-0.12914464;0.21672657;0.018109493;-0.113154426;0.07049952;0.06841119;0.024369143;-0.104424946;-0.34912732;-0.013875782;-0.028481051;0.19727875;-0.09392635;0.214107;-0.030902106;-0.34043404;0.0062977015;0.22418547;0.35787317;0.16234003;-0.10173303;-0.21139862;0.12514038;0.16028509;0.092386976;0.25419745;-0.09582424;-0.20244195;0.054787707;0.0023630797;-0.075725414;-0.43493205;0.16669162;0.056388535;0.23734692;0.08673366;0.086186714;-0.00827303;-0.01840045;-0.08287794;-0.08741589;-0.01559742;-0.10020601;-0.16338044;0.14543106;-0.6155879;0.230207;0.3476524;0.11555549;-0.1776763;0.27576557;-0.45419347;-0.3344005;-0.0972173;-0.3730715;-0.18512447;0.37228575;0.11087668;0.1338322;-0.12652569;-0.21083133;0.07351292;0.06650495;-0.036929842;0.15660483;0.1954576;-0.0060802517;-0.13526037;0.13243036;-0.27219376;-0.079684146;-0.016373191;-0.14529267;-0.09622302;0.21083723;-0.019587478;0.12983604;-0.1216086;0.022273477;-0.046044998;-0.28702372;0.05343921;-0.23051971;-0.058569897;-0.1629832;-0.089106195;0.10155749;-0.07992161;0.05644531;0.27150136;0.18170299;0.16408964;-0.30885717;-0.032987293;-0.072195135;-0.23940618;-0.06949023;-0.0684667;-0.37001035;-0.16670176;-0.1253483;-0.3797639;0.19937037;-0.17114727;0.0042637303;0.008941798;-0.026891466;0.09505055;-0.5969209;0.26600084;-0.001816831;0.0011618279;-0.0664537;-0.058293507
-0.1475523;-0.054823544;-0.05275609;-0.13399914;-0.027842818;0.34872517;-0.04482897;0.07017972;0.08363661;0.035392508;0.064972155;0.10259353;0.1614474;-0.018808173;-0.37786233;0.27542877;-0.04530396;0.31736752;0.17263298;0.10001998;0.006328353;0.16702855;0.23512065;0.007655854;0.25173882;0.11719507;-0.11929351;-0.035555396;-0.0025317674;-0.023935525;0.16611429;0.11953862;0.06723932;0.10200279;0.33666718;0.06696055;0.13464023;-0.22254637;-0.36678547;0.28428984;0.13475858;0.15605749;0.24159518;-0.04556421;0.17937702;0.18805598;-0.16264966;-0.10008269;0.2226934;-0.27289894;-0.08641221;-0.2132461;0.12830546;-0.5061399;0.25502133;-0.045405872;-0.028831339;-0.07067679;-0.066861585;0.15213633;-0.29438564;0.3785404;0.13312285;0.006620989;0.010697627;0.078692526;0.006125092;-0.1448741;-0.068245746;-0.028672226;-0.25289378;-0.16485974;-0.118809216;-0.17273232;-0.31581149;0.10440823;0.17345826;-0.17182367;0.13295648;0.18565227;-0.5190838;-0.19779243;0.1491509;-0.03111495;0.000322878;-0.22727837;-0.13976182;-0.030833146;-0.12241307;-0.43295875;0.103726484;0.13013911;0.070420526;-0.23824127;-0.10143043;-0.037641272;0.00024455978;-0.13631603;0.052977096;-0.054955155;-0.25638574;0.069851026;0.011001452;-0.12393398;0.32991293;0.075421646;0.1039077;0.02100593;-0.10575325;0.010971016;-0.021930322;-0.25483355;-0.17271297;-0.070176445;0.073185295;0.124892026;-0.019662008;-0.07878549;0.06716925;0.2639692;-0.30812505;0.05584908;-0.17412795;-0.037229434;0.2916211;0.15307878;-0.13725606;-0.041574225;0.04103199;-0.11745716;-0.07601131;-0.14642079;0.17185515;-0.018346613;-0.11275409;-0.19333793;0.019326579;-0.03427873;0.071518935;-0.095086604;0.11313826;0.09038798;-0.031195732;0.29542342;-0.17994069;0.19471662;-0.03633696;0.11190367;-0.121223815;-0.20714696;0.11150029;-0.07506028;-0.051492415;-0.18052825;0.16520931;-0.16470335;0.096642;-0.15570758;0.022387993;-0.005758197;0.15199837;0.030865485;-0.109388426;-0.07850995;-0.04671474;-0.20391749;0.05749765;0.15809633;0.31660405;0.04531099;0.056018975;0.33412355;-0.10206109;0.21197186;0.14522904;0.12979722;0.25720477;-0.03248361;-0.04014595;0.15813114;0.18920903;0.38343325;0.13168788;0.14559253;-0.13644455;0.005227572;0.0152635835;0.34452245;0.17432882;-0.1631844;-0.07123295;-0.23174204;-0.24798895;-0.0052506584;-0.0027046658;0.03641185;0.06446939;0.19238675;-0.0131794885;0.02016543;0.274004;-0.04810449;-0.17986584;0.04382817;-0.22381626;-0.17200811;-0.11553977;0.06861626;0.16507266;-0.21747947;0.24722633;-0.12092046;-0.11188223;0.03290276;0.07056889;-0.0067460914;-0.26240632;-0.10930313;0.014552283;-0.07948199;0.15461491;0.329337;0.009590577;0.016730169;-0.078472696;0.29165787;0.067073934;-0.04901438;0.17623292;0.20482208;0.07427088;0.23043308;0.0980345;-0.20864716;0.5548307;0.14216617;-0.05973836;-0.060898326;0.46261105;-0.13475117;0.022330128;-0.04166256;0.052480448;-0.094652265;0.040829867;0.2733688;-0.026537716;0.03216562;0.08992502;-0.22199383;-0.3476995;-0.0009308033;0.13518338;0.23556669;0.11759147;-0.21128625;0.05061522;0.16760306;0.2741711;-0.35220015;0.15211084;-0.1304948;-0.017003745;-0.14192785;0.05316199;0.085459724;-0.08113489;-0.11371159;-0.11234737;0.036468204;-0.01454414;-0.29461804;0.26923788;0.23541342;-0.07031609;-0.004552998;-0.043954246;0.025766892;0.19678083;0.32542482;0.1908473;0.101424776;-0.22161351;-0.5669384;0.05565343;0.09865064;0.057633553;-0.23159918;0.03736658;0.05067936;0.15088536;0.06439811;0.15635724;0.23854145;-0.19106407;-0.06650654;-0.22627896;0.09306091;0.12251823;0.03679008;0.049713515;-0.076511;0.060481053;0.22631577;0.20077385;-0.03451168;0.05170729;-0.0060502626;0.18733482;0.10109005;0.17195387;-0.12528095;0.005991187;0.020658791;0.093727656;0.018585466;-0.11266097;0.041655723;0.27136642;0.18271944;-0.15824018;-0.13941523;-0.025792917;0.08244628;-0.022731267;-0.039348163;-0.0036932598;-0.14602852;0.035797413;0.19555114;0.13311386;0.13794452;-0.069963664;-0.06900595;-0.18427742;-0.23039798;0.03171237;-0.50370204;-0.55074567;-0.17467672;0.12537332;0.034738958;0.0818201;-0.7808771;0.165672;0.027996248;-0.012695852;0.04236073;-0.18638007;-0.23729645;0.009555664;0.077838816;0.12197874;-0.18513304;0.05659727;0.2933516;-0.3269461;0.13421783;0.09176563;0.13999157;0.27722934;0.3799922;0.06661116;-0.16053438;0.1388753;-0.06344835;0.075434394;-0.12092538;-0.0045831082;-0.11248428;0.124329686;-0.070640504;-0.14523548;0.016186636;-0.053613555;-0.04250874;0.013819855;-0.5578936;-0.28229445;-0.027735068;0.105267756;-0.5331689;0.052137144;0.08290888;-0.17814703;0.119948134;-0.24390058;0.03673556;0.24795347;0.059077095;-0.124203674;-0.04652932;0.09411151;0.027656483;-0.10993704;0.19752306;-0.02448781;0.14559312;0.054854803;0.19130999;0.06813353;-0.17877363;0.07394086;-0.1000425;-0.3484353;0.12748429;-0.20313697;0.16205074;-0.09524406;-0.16977942;-0.09024452;-0.018227383;-0.026465857;0.16725998;0.0429219;0.13485776;0.17591234;0.039743844;-0.17469916;-0.15042637;0.13656089;-0.03105807;-0.36867616;0.019757386;-0.14708246;0.38357794;0.11892716;-0.4168129;-0.2178637;0.053309444;0.08927999;0.04141713;0.1727924;0.31617284;0.07035286;0.12504023;0.027315645;-0.10117138;-0.13541895;-0.28430897;-0.03954782;-0.08947235;0.16924092;0.18784378;-0.19672544;0.042887848;0.11301135;-0.08666686;-0.16777235;-0.24920627;0.4347692;0.19902489;0.08874028;0.19164614;0.36309573;-0.09915284;0.03679279;0.10844071;0.37488285;-0.07416341;0.39669877;0.091319576;-0.0055814637;-0.04207218;-0.0035151478;-0.16580132;0.1751281;-0.15984021;0.16541809;-0.1467278;-0.15779018;0.09130126;0.21435514;0.13183296;-0.13576011;-0.054627873;0.10735752;-0.23057427;-0.0060406723;0.13173285;0.06955374;-0.0642421;0.00023666817;-0.15015362;0.060881447;-0.21218581;-0.0048696087;-0.15018183;0.24857691;-0.16732319;-0.31762627;-0.009602042;-0.26427707;-0.15598588;-0.11227433;0.34286496;0.025270408;0.15553717;-0.016362518;-0.10036643;0.028187592;0.006608152;0.016566213;-0.31430182;-0.23652276;-0.14567913;0.12507251;-0.17785993;0.068408616;0.22631538;0.16779435;-0.035141204;0.26850018;-0.10436313;-0.16069885;-0.10982085;-0.29301998;-0.10271248;0.24860565;0.26398197;0.0471647;-0.035406467;-0.54583514;0.15403035;0.2097788;0.022561466;0.038811695;0.056261566;-0.09363779;0.07810393;-0.066446446;-0.22610115;-0.2042156;0.1400563;-0.095603324;0.05354514;0.10073651;-0.24551588;0.05803372;-0.11952688;-0.12680197;-0.16292593;-0.39481285;0.085551135;-0.3564226;0.0169327;-0.1302377;0.016606418;0.032438375;-0.05632079;0.008171461;0.15162002;0.2272098;0.025614131;-0.5214844;0.024567796;-0.14475743;-0.0187505;-0.09858256;-0.24050137;-0.10971697;0.07651104;-0.065948665;-0.2129512;0.20286405;-0.1837493;0.07110434;-0.083774604;0.014499699;0.03307458;-0.07902236;0.48993137;-0.20181887;-0.26737538;-0.04788366;0.05443943
-0.43586722;-0.030647783;-0.2775486;-0.07135927;-0.05997286;0.34504953;-0.05125322;0.059155624;-0.046338554;-0.21966764;0.06623514;0.07282994;0.21823797;0.1017344;-0.39867494;0.2701159;0.050034713;0.33086744;0.12154011;0.18763767;0.13628139;0.29933554;0.17202015;0.076799214;0.093020394;0.024825815;-0.12499114;0.21970108;0.018073801;0.0027454516;-0.01640269;0.11557049;-0.04227911;-0.028497074;0.16945532;0.066204816;0.17744845;-0.08631423;-0.13776086;0.2267632;0.107939765;0.051432315;0.05373209;-0.038119473;0.10011766;-0.12028912;-0.004688748;-0.27205306;-0.1650624;-0.05268085;-0.1529609;-0.29909176;0.16708674;-0.13374516;0.24420579;-0.16563237;-0.0028402745;-0.2870369;-0.023746507;0.16364747;-0.19526334;0.14635892;0.4440629;-0.06160801;0.089483716;0.07002036;0.07676399;0.13153033;-0.010690255;0.063928306;-0.040724058;-0.15310553;-0.11999636;0.030272875;-0.13260826;-0.04625798;-0.08120324;-0.21153039;0.09523814;0.020456405;-0.091307126;-0.0044903723;-0.13990365;0.04021137;-0.08252671;-0.07661301;-0.11161098;0.24714579;-0.10997367;-0.24039494;0.13894987;0.07847668;-0.053865872;0.13596858;-0.0438293;-0.10997579;-0.085331194;-0.1500373;0.06843422;0.070467025;0.1829363;-0.014379163;0.19495659;0.15920132;0.22555056;0.003863586;0.06346811;0.013292341;0.0338613;-0.050702892;-0.0010118063;-0.1521265;-0.3750229;-0.14584282;-0.046897985;0.07336322;0.010565541;-0.24311602;-0.10711708;0.16590212;0.09925324;0.03761047;-0.21190472;-0.0041687633;-0.15322225;-0.25675517;-0.1066028;0.10709217;-0.16080831;-0.10572561;-0.34798774;-0.0071886852;-0.06902815;-0.2763538;-0.05451143;-0.028976003;0.1092777;0.066175096;0.24273132;-0.034131907;0.38239497;0.024118485;0.03342388;0.19394962;-0.08995708;-0.0046309154;0.26178062;0.21419176;0.13128613;-0.24139914;0.08836317;-0.20969856;-0.024909982;-0.26776102;0.19166698;0.09691615;0.21169388;-0.21888822;0.3106231;0.07410735;0.12784216;0.037243735;-0.058687963;-0.15890145;0.057112675;-0.1687995;0.03755335;0.08934808;-0.013336833;-0.18454094;-0.019052016;-0.03120321;0.029624281;0.036677234;0.14195675;0.15335247;0.17303431;0.06477681;-0.07886813;0.05869982;0.22378017;0.15915766;0.053487945;0.059389714;-0.21472795;-0.015233787;-0.06766919;0.23439893;-0.17684805;-0.13249886;-0.08803118;-0.15277122;-0.2957131;-0.09822998;-0.010814821;0.17564924;0.24757501;0.12315883;-0.04163692;0.059484154;0.23627873;-0.068567626;0.09951845;0.1803342;-0.16311365;-0.111958615;-0.4671891;0.114266045;-0.52220094;-0.19460416;-0.0015464813;-0.12087359;0.02944587;-0.296145;0.1279001;0.028703958;-0.19983515;-0.12808366;0.0981871;-0.19680007;0.10216789;0.21459857;0.08829014;0.16543952;0.14989546;0.119117424;-0.0038800885;0.16325614;0.2820807;-0.06621117;-0.012077602;0.06334514;0.26138186;-0.19202098;0.12165531;0.04958266;-0.12404324;0.12986523;0.42765692;-0.009405835;0.100790255;-0.09469394;0.15469712;0.11065557;0.115691796;0.037886284;-0.30855045;-0.16800913;0.17212771;-0.2370108;-0.37273604;-0.015987214;-0.1931594;0.02713804;0.06182296;-0.18542245;-0.09242907;0.14714828;0.1799014;-0.14643686;0.18935011;0.17250583;0.16209722;0.08037439;-0.026097367;-0.07906344;-0.01737297;-0.28004178;0.05556906;0.111223586;0.13669722;-0.005422869;0.12721632;-0.13252316;-0.12350401;-0.10404608;0.0016843108;0.0349058;0.13117826;-0.120407924;0.004862321;0.04667551;-0.26188073;-0.3048487;0.0626053;0.028203484;0.07681411;-0.2720822;-0.21712491;-0.26160574;0.07578423;-0.19871071;0.32062292;0.2404449;0.033428397;-0.22315635;-0.1832171;0.20113593;0.020005329;-0.103415966;0.13945557;-0.04074731;-0.07892353;0.18231557;0.31630316;-0.15918793;0.2117415;0.09005475;0.079589374;0.078383036;0.18340743;-0.21970846;0.024056742;0.050392203;-0.023703568;0.15204296;-0.35504818;0.06315684;0.14113367;0.0109510375;-0.39792562;-0.34411144;0.19455534;-0.025376733;-0.29127917;-0.20505172;0.009531299;-0.008296897;0.09792465;0.105584145;0.06987703;0.09333528;-0.12585028;0.1471267;-0.083920054;-0.0038367398;-0.030859714;-0.2034965;0.022265306;0.018586768;0.12648614;0.02583658;0.008201616;-0.81076753;0.10992686;-0.014491512;0.15444131;0.16608009;0.12235551;-0.2396148;-0.025044907;0.04643388;-0.07161611;-0.11445878;0.07819422;0.20452055;-0.29584822;-0.023156049;-0.08975549;0.18327889;0.18701279;-0.11633814;0.26843536;0.16518888;0.14859428;-0.052127402;0.053501546;-0.033129346;0.29931268;0.02138403;0.219968;-0.057881407;-0.087786585;-0.005057623;0.04356808;0.10558844;-0.17528726;-0.36171272;-0.20920683;0.059049692;0.313411;-0.19313909;0.095737174;0.11011259;-0.046455998;0.12518473;0.12440375;-0.013285102;0.15744422;0.06742162;0.22045556;0.17768678;0.21356528;0.09590713;0.19843812;-0.112907216;-0.038394082;0.11158173;-0.05125222;0.27254137;0.2093092;-0.21408603;-0.04875485;0.13548464;-0.3819228;0.09294906;-0.21612117;-0.037850995;-0.1429245;-0.11468102;0.014013466;-0.31164354;0.19018117;0.021638056;-0.07893864;0.2721912;0.098176;0.010241171;0.22722675;-0.083105326;0.46298108;-0.080126785;-0.35687342;0.13446485;-0.34246245;0.09639554;0.055722713;-0.3544277;-0.09003069;0.16301206;-0.19412774;-0.0033471084;0.13140057;-0.24289271;0.2831823;-0.49150503;-0.013281978;0.07377341;-0.02891757;-0.29521835;-0.0948287;-0.30835027;0.2554233;0.042258713;0.018968299;0.066347435;0.08222692;-0.2318505;0.10727039;-0.34073693;0.5571346;0.076272696;0.18540509;0.012142976;0.23348334;-0.23918773;-0.048260983;0.20690016;0.0725992;-0.04368702;0.105865225;0.2555642;0.20520185;-0.062187724;0.043344688;0.035112627;0.075518996;0.040744692;-0.109521955;-0.050114166;0.24047278;0.16160995;-0.07673593;-0.20512089;-0.026124777;0.14663847;-0.06301173;-0.05157156;0.060381055;0.07626402;-0.0011532395;-0.25446495;-0.035925806;-0.14178957;0.1611175;-0.0836645;-0.114347786;-0.19188628;0.100831024;-0.036838226;-0.24626686;0.14201353;-0.19082892;0.0074722413;-0.37237954;0.109198116;-0.050300114;0.0975005;-0.122162364;0.09177376;-0.09770546;0.1337362;-0.20115854;-0.13861349;-0.2779151;-0.072559364;0.19462244;-0.079641834;0.06474907;0.03636598;-0.015082581;0.1412644;0.21958183;0.020930275;0.29282823;-0.0942698;-0.31776565;-0.06484748;0.056999676;0.28640553;0.008460572;0.2922058;-0.22305873;-0.3190381;0.086742945;-0.2802225;0.15510502;0.1086812;0.064494476;-0.016438816;0.023641286;-0.039004456;0.2143254;0.23916063;0.18741448;0.09324105;0.18437377;-0.1099845;-0.022957936;0.12311539;-0.11383089;-0.08493375;-0.011322449;-0.19931109;-0.2621712;0.13526489;-0.06829576;-0.041190635;-0.16711436;-0.17270567;0.025086189;0.034004357;0.16171443;0.098129794;-0.2847298;-0.15490206;-0.10636102;-0.29387295;0.10191644;-0.35787156;-0.16918822;0.16171771;-0.053790923;0.04003111;0.15082003;0.017066626;-0.032918114;0.034075644;-0.17296046;-0.16355544;0.019347603;-0.28724203;-0.1455929;-0.17865568;-0.03789562;0.21436633
-0.23098896;-0.108673155;-0.24554724;-0.09317172;-0.2352443;0.14667748;0.03082551;-0.016954353;-0.05904581;-0.25873098;-0.08392121;0.027864026;-0.027403975;-0.11600002;-0.08303352;0.21857445;0.33099037;0.08047405;0.1752587;0.19746599;0.18574029;-0.016945064;0.004367435;0.2042137;0.07061293;0.13575926;-0.08700332;0.14782625;0.07311039;-0.06784906;0.09732772;0.15849464;-0.0971886;-0.07762487;0.1475038;-0.015445183;0.03587657;-0.026189353;-0.0634144;0.3938974;0.11506378;-0.107119605;-0.16479659;0.2438692;-0.020769218;-0.15252298;0.048677325;-0.19430476;0.05155682;0.13843359;0.112689264;-0.3270265;0.09342439;0.27266788;0.18536507;0.12555718;0.15198009;-0.24022679;0.12588245;0.0062147137;0.022820566;0.14308074;0.330714;-0.55892205;-0.06991112;-0.017509488;0.12762481;0.22088754;0.05241332;-0.10103588;-0.02381228;-0.07466466;-0.13563517;-0.09026667;0.003987119;-0.10247033;-0.1909654;0.07469785;-0.037038885;-0.16142766;-0.10262835;-0.22447506;0.121531665;0.17311785;0.07172641;-0.07473841;-0.15796232;-0.1094829;0.05329774;-0.09806964;0.0019624447;-0.07584176;-0.059174128;0.015044856;0.1227848;0.10861871;-0.10033323;0.026201528;-0.020114118;0.02074902;0.22027767;-0.39052606;0.0016643672;0.29642347;0.17964132;-0.16220227;0.13712794;0.07267366;0.13054486;-0.1446938;0.16800871;-0.04134337;-0.361857;0.08032305;0.0893585;0.039361633;0.007343216;-0.28315094;-0.17195164;0.11085362;0.074403726;-0.08570651;-0.11187571;-0.001398429;-0.2710721;-0.13444117;0.37434077;0.01609684;0.11635111;0.21673477;-0.2573135;-0.017761273;0.026370348;-0.12878753;-0.10585289;-0.07790734;0.17380042;-0.042624388;0.062420495;-0.112899326;0.34786388;-0.41943443;-0.0018941098;0.18074743;-0.05085057;0.051281035;0.08635801;0.5114809;0.03323016;0.2638324;0.21694066;-0.12489131;-0.06823613;0.0060151746;-0.17165962;0.16392167;0.21531534;-0.22543009;0.2817391;0.09279957;0.044749092;-0.13105252;-0.15761544;-0.08118098;-0.0077200243;-0.019126674;0.009202213;0.0058203037;-0.066172734;-0.2653484;0.04004744;-0.047085527;0.53122777;0.10079275;0.06015707;0.24026744;0.18241733;0.23243915;-0.10960897;-0.17742915;0.24978213;-0.0551803;-0.08102772;0.11875692;-0.047388453;-0.11958741;-0.071435474;0.17327154;-0.02109684;0.053263873;0.019135388;-0.11764161;-0.14595419;0.17277446;0.13048013;0.13047878;-0.0041920664;0.23983929;0.08706827;-0.048462804;0.13261631;-0.095591396;0.0034366983;0.1362213;-0.03738905;-0.07168271;-0.119528845;-0.075964;-0.34512997;0.08531449;-0.14136215;-0.047027145;0.30301273;-0.17047386;0.00895634;0.30510005;0.0036443982;-0.049508184;-0.052455045;-0.27303833;0.13120781;0.043729592;0.2845135;0.24020137;0.17028344;-0.05649224;0.01632801;0.17048416;0.4084965;-0.12200937;-0.090706795;-0.0049462286;0.33044076;-0.08784252;0.100003704;0.16004288;-0.061526563;0.068998806;0.13767008;0.04587656;-0.012603341;0.14591774;-0.07625008;0.1112116;0.077899314;0.020227352;-0.119452775;0.3403402;-0.06726358;-0.35623586;-0.432177;-0.19019167;-0.23162037;-0.031824537;0.07243016;-0.07742719;-0.15360616;0.013777395;0.2958935;0.06474398;0.1500125;-0.21738455;0.04286141;-0.018428313;-0.10902163;-0.09885632;-0.21521245;-0.12252149;0.17519812;0.050623447;-0.0031718083;-0.0015234109;0.24566495;0.04456263;-0.08055303;-0.28841677;-0.104960516;0.23299703;0.030732444;-0.04770053;-0.14402495;0.18001847;0.037151378;-0.07476913;-0.11225314;0.15582572;0.11232522;-0.060357682;-0.3029605;-0.14494167;0.17541309;-0.12207454;0.15276569;0.29266456;0.16808212;-0.11185522;0.010238701;0.23514423;0.0514698;-0.34347603;0.16452087;0.1229995;0.058659974;-0.036515865;0.4718228;-0.14590225;-0.034526322;0.04914273;0.21145123;0.067396596;-0.062503904;0.022201994;0.21703537;-0.19172378;0.07199568;-0.044159904;-0.27010316;0.014841186;0.13798143;0.23977524;-0.046680868;-0.3872139;0.2376196;0.31708416;0.10489338;0.08829353;0.0075729187;0.064689435;-0.052592687;0.012888278;0.02220808;0.28056994;-0.10909417;0.11715988;-0.17778857;-0.068313085;-0.13213164;-0.79559976;0.022397084;0.16179481;0.13444518;0.053468376;-0.29331672;-0.67252994;-0.010072777;0.17307538;0.07095176;0.12646295;-0.36060515;-0.035772454;-0.108789004;-0.04012992;-0.23663801;-0.046661034;0.0685991;-0.0026524237;-0.28108594;-0.14796531;-0.1101639;0.10202529;-0.034796327;-0.28482148;0.14227007;0.15949926;0.11043715;0.15656593;0.06888177;-0.18500164;-0.20370278;0.01883353;0.023663068;0.14180672;-0.16686505;0.012676029;0.080775775;-0.12985046;0.029938249;-0.17164329;0.34240967;-0.018595554;0.048174474;-0.20916058;0.2004675;0.2013343;-0.093872085;0.111169934;0.13471998;-0.07518611;0.0030948648;0.06765119;0.12464911;0.047906294;0.31528866;0.15336135;0.0890984;0.09670533;0.03753942;0.062215284;0.14688778;0.16375084;0.006710503;-0.1945503;0.033796173;0.12800126;0.1531744;0.28601596;-0.07914571;0.10888887;-0.16543354;0.036170237;0.13190278;0.09090126;0.16540389;0.119674474;0.076045364;-0.011658859;-0.07129331;-0.03501071;0.2822873;0.07375706;0.1696618;-0.04860541;-0.55928093;0.028546315;-0.13201429;0.073817514;-0.07423523;0.002547673;-0.32575768;0.20183161;-0.2292993;-0.105473235;0.47546962;-0.06789973;0.34058985;-0.08293923;0.15563658;0.034226533;-0.2116515;-0.12960227;-0.12393195;-0.1317528;0.16647229;0.1816759;-0.051935527;0.07113905;-0.113358006;-0.21216053;0.019292234;-0.27836376;0.15601845;-0.0821068;0.14766519;-0.07545326;0.27594772;-0.12916607;-0.05630903;-0.039857607;-0.18041413;-0.02145208;0.32632473;0.30873397;0.29734364;0.15562595;-0.102519706;-0.24996889;-0.17423536;0.2828638;-0.110461436;-0.163039;-0.16217022;0.2672209;-0.32210085;-0.20771833;0.045777336;0.19812232;-0.0829173;0.15966341;0.06937199;0.04865722;0.03653838;-0.2073525;-0.039168816;-0.3546795;0.2808941;0.001228879;-0.0351154;-0.16514508;0.015541024;-0.1662329;-0.22869349;-0.055990834;-0.20586044;-0.35078487;-0.4906775;0.090440266;-0.15264843;0.18037255;-0.36471814;0.23149593;0.06274494;0.13266982;-0.17739992;-0.025661519;-0.03668533;-0.16041167;-0.052199326;-0.25645435;0.16911882;0.041061584;0.0012632088;0.15727627;0.39643726;0.19391666;0.23878138;-0.12078355;-0.0017072816;-0.071125254;-0.007482514;0.17270465;0.16389824;0.23098958;-0.27219254;-0.04471754;0.01885727;0.087526895;-0.07463178;-0.028430566;0.18486616;0.4278735;0.21661434;0.0062736347;0.20984145;-0.105142705;-0.13544877;0.0924111;0.34063017;-0.41258496;0.35591665;-0.052077793;0.10353103;-0.08262003;-0.08743559;-0.76356333;-0.23178624;-0.12870634;0.0019065302;-0.12945071;-0.12934367;-0.20431639;0.07771786;0.16854653;0.21459334;0.06682801;-0.024413489;0.016920783;-0.2543504;-0.25766554;0.10182883;-0.40799287;0.12154526;0.11366954;0.0013880383;-0.016292974;0.14788847;0.27931982;0.017932732;0.11273826;-0.031696234;-0.19843362;-0.09793263;-0.41712987;0.11681653;-0.16401626;0.074871995;0.015617913
-0.00012698896;-0.052448265;-0.33910885;-0.019262258;-0.20285155;0.2919171;-0.09979822;0.017060159;0.14743534;-0.16499896;-0.10855443;-0.018015433;0.19281109;0.035391897;-0.3260203;0.167409;0.25228968;-0.19754311;-0.009234334;0.19906089;0.17285238;-0.010446708;-0.0965352;0.16421156;0.10086344;-0.15023433;0.26278615;-0.017555684;-0.021831112;-0.08480214;-0.17408058;0.25668594;0.034604624;0.0031529644;0.05272081;-0.14281312;0.009219558;-0.010859798;0.11731387;0.15922444;0.013416945;0.08529439;-0.049639788;-0.0007557201;0.14771548;-0.12914696;0.23788716;0.034045924;0.24825597;-0.056627467;-0.1785678;-0.39580095;0.18527637;0.040887184;0.026586244;-0.2982884;-0.14319858;0.026019769;-0.010905125;-0.008999857;-0.11118108;0.18014398;0.23186089;-0.11290115;0.24701689;0.12538049;-0.043706514;0.20826717;0.021137016;0.100793034;0.17358832;-0.17725223;-0.31677783;0.015765931;0.1498651;0.17019984;-0.28650907;0.17595862;-0.0741187;-0.0565442;0.5271678;-0.11758323;0.038521383;0.13886334;-0.1035771;-0.51129717;-0.09421651;0.12896872;0.2229378;-0.1297995;0.15643932;-0.17329758;0.019690355;-0.22177087;0.06483589;0.0369133;0.029824752;0.1861979;-0.14470875;-0.047331054;0.24513933;-0.12716782;0.10327686;0.043071855;0.11858856;-0.08743536;0.07977915;0.28099513;-0.13340287;-0.2641467;0.15387285;-0.019604532;-0.22559991;-0.30380493;0.123248346;0.0060439114;-0.08408854;0.034454115;-0.10641518;-0.066411056;-0.120363615;-0.08846529;-0.15543032;0.008579179;-0.42224002;-0.25751644;0.22305334;0.1903866;0.09389875;0.25789988;-0.012666867;0.0697354;-0.029271066;-0.16703881;-0.27955228;-0.16954131;0.055058207;-0.25035858;0.27588513;0.14891113;-0.020124067;0.32585242;0.034700703;0.045270186;-0.19958612;-0.061064195;0.30352533;0.49232477;-0.19489013;-0.16602524;0.15486322;-0.053875457;0.13601114;0.039093167;-0.2802175;0.44405702;0.049080793;-0.12909576;0.16505775;0.014432332;0.2401585;-0.12113517;-0.17051724;0.08645998;-0.05255859;-0.04106155;-0.11837349;-0.49574348;-0.059914082;-0.20947835;0.15502237;0.1368727;0.23113182;0.27638608;0.11045772;0.14907107;-0.016411602;0.27073753;-0.072969064;-0.10586063;0.23557954;0.027497662;0.17539836;0.1423546;0.044307068;-0.30600345;-0.11223598;-0.01045682;0.023209287;0.042933382;0.0037641388;-0.032613747;-0.006743814;0.07617901;-0.004060573;0.18422583;0.09083196;-0.09819184;-0.13506399;-0.01826782;0.22104673;0.04919238;-0.02927626;-0.15827663;-0.10823239;-0.006977426;-0.21263982;-0.1236028;-0.39174858;0.18979481;-0.019309642;-0.32537064;-0.05768476;-0.17229322;0.042826384;-0.033878464;-0.08819827;-0.026801145;-0.13358891;-0.18574959;-0.23331264;0.045302175;-0.06800031;0.037946913;0.05832405;-0.23317692;0.06997587;0.0760887;0.2585348;-0.13637884;-0.10322991;0.07103919;0.4107932;0.010425559;0.37292758;0.15989919;-0.34218875;-0.028525565;-0.14693521;-0.100540526;-0.11438915;0.052665744;-0.053059433;-0.113717765;0.14002049;0.25750902;0.16908649;0.32195705;-0.0078035034;0.0012189877;-0.02160875;-0.14515184;-0.23459028;0.017559007;0.17337579;-0.23686336;-0.04800951;0.05346662;0.26411954;0.12828213;0.055629633;-0.23465048;-0.029074812;-0.09986932;-0.21964903;0.019776132;-0.07464615;0.067632996;0.021274269;0.250811;-0.51687145;-0.13587824;0.28436902;0.252777;0.003559635;-0.21402852;-0.037728786;0.0403391;-0.04404672;0.15279149;-0.2720621;0.080925055;0.16753346;-0.10577487;0.041161567;-0.024027444;-0.0019729428;-0.0785588;-0.063292146;-0.13918668;0.20979916;0.047412615;0.2230322;0.13097517;0.226817;-0.044210505;0.08695509;0.20595682;0.30347356;0.060477022;0.13658777;0.1358911;0.121920094;-0.26197258;0.37303305;-0.041404158;-0.22794285;0.25300705;0.36274925;-0.026444547;0.18428886;0.023102572;0.31486288;-0.10003456;0.19825387;-0.07412322;-0.056908824;-0.27922308;0.17232497;0.13995185;0.0406137;-0.09963262;0.16627279;-0.029237587;0.086630926;0.2718425;-0.09227275;-0.18496896;-0.12337247;-0.1010909;-0.1386189;0.08324642;-0.06558902;-0.0939146;-0.34266898;-0.36816508;0.0029663872;-0.59859174;-0.1011524;0.21061595;0.07081718;0.06554548;-0.23788479;-0.48905376;-0.28980735;0.123701945;-0.12871534;0.25471738;-0.113978475;-0.11712495;-0.2860183;0.21425587;-0.105357565;0.008841237;0.22569083;-0.13878654;-0.18750224;-0.24297936;-0.110160805;0.042409573;0.007024522;-0.38503215;0.040254813;0.05747688;0.09686161;0.13807592;0.044123527;0.30288693;-0.044922948;-0.21456592;0.03572433;-0.12684979;-0.29281244;-0.044195637;-0.0765289;-0.028998084;0.1628784;-0.16500463;0.08960089;-0.0468661;-0.009313833;-0.011135383;0.032959945;0.20274706;0.026661817;0.11214334;0.122813106;-0.04804942;0.16531165;0.026791286;0.06384645;0.03741481;0.3285522;0.20872222;0.3020432;0.09210202;-0.16223398;-0.23785676;0.019349884;0.047300123;-0.03624481;-0.10755769;-0.08268438;0.14721718;-0.00075156905;0.23452255;-0.2589492;0.2400976;-0.39284086;0.31630772;0.08845618;-0.014111693;-0.21541195;0.05160586;0.04205031;0.1363276;-0.11089298;-0.010502458;0.3526252;0.0709466;-0.026080215;0.09590193;-0.2569603;0.060026396;-0.011872234;-0.007938609;0.13843784;0.28490224;-0.20541884;-0.015377521;-0.08398821;0.08374251;0.14292397;-0.17286357;0.3367377;-0.59500635;0.21771975;0.01592313;0.14930451;-0.025016867;-0.34043866;0.016065482;-0.007226458;0.13264881;-0.19277973;0.26785085;0.11641698;-0.1911667;0.14364168;-0.21059567;0.07868009;-0.16959535;0.13317677;0.012240016;0.21418618;-0.2610848;0.05000758;-0.15527941;0.27247718;-0.1523249;0.24547929;0.4073805;0.18813518;0.007208382;-0.006399061;0.010584062;0.098711535;0.21013539;-0.008588733;-0.02003407;-0.2961443;0.2582237;0.06238353;-0.04599381;0.24082646;-0.02124555;-0.09521427;0.044290043;0.16526821;0.26741347;0.095951185;-0.30368987;0.09573439;0.030901616;0.025879385;-0.20413534;-0.17052595;-0.059872355;0.037065953;-0.22432898;-0.07360907;0.13118744;-0.18660942;-0.3692289;-0.35561034;0.26971355;0.039706662;0.15055187;-0.34551132;0.15736985;-0.12815455;-0.14929698;-0.121435985;0.107751295;-0.17421179;0.083222434;-0.12192669;-0.32280633;-0.21336037;-0.0933945;0.15701011;-0.19193052;0.35452247;0.012180486;0.07954085;-0.15247282;-0.09115216;0.052800436;-0.06861286;0.011880657;0.1796598;0.21260099;-0.0004898868;-0.18894023;-0.018799102;0.504348;0.0377796;-0.08452809;0.04835411;0.12851168;0.19858311;-0.18111056;0.1635669;-0.2928887;0.056631256;0.102050595;0.010180063;-0.16890548;0.2458928;0.09383788;0.05196842;0.163451;0.029774206;-0.35642743;-0.2939899;-0.22348239;-0.14880377;0.03660291;0.057274215;-0.026746335;-0.2598337;0.038466386;-0.046048887;0.0825427;0.16216148;-0.1383684;-0.4286993;-0.14725335;0.04636843;-0.39336616;-0.048633203;0.39248925;-0.34401134;0.0682038;0.1400927;-0.054762475;0.02369986;-0.023924481;-0.05803517;-0.2137381;-0.09431101;0.10523086;-0.11327813;-0.0453257;0.20782639;0.0171359
-0.19910222;-0.1778651;-0.25897968;-0.14557326;-0.33387786;0.15749529;0.023443513;0.11904436;0.100822575;-0.22968908;0.14407107;0.09117151;0.103563584;0.13924904;-0.20570116;0.014020689;-0.1895475;0.11118289;-0.44831446;0.14404632;0.34564462;0.112338185;-0.05340007;0.11994058;0.062008835;-0.3707501;0.05144645;0.10795176;-0.101051725;0.010748621;-0.11914857;0.2459907;0.016291285;-0.062125374;-0.0816045;0.039897434;-0.12432744;0.07081562;0.15070339;0.36817005;-0.08864129;-0.13354982;-0.39347535;0.18462627;-0.21681474;-0.22684206;0.33566496;-0.11979711;-0.043459944;7.6891294e-05;-0.089069135;0.20060906;-0.13684496;-0.21121217;-0.0608422;-0.12787402;0.25555518;0.11981647;-0.05139727;-0.108323626;-0.4592206;0.12126986;0.13585873;-0.15941726;0.04087542;-0.023465483;0.053254064;0.18611121;-0.11312005;0.08713274;-0.08574459;-0.113252245;-0.7261761;0.054326825;0.1639004;0.10442451;-0.41816825;0.056985624;-0.18449415;-0.39139396;0.3393313;-0.01571437;0.1277473;-0.009911979;0.17478715;-0.09265194;-0.12957639;-0.03209239;0.017156942;-0.019233353;0.12733862;-0.22619896;-0.09701099;-0.27386895;0.015118444;0.17482477;0.20323412;-0.0023817592;-0.17378122;-0.16791146;0.4711308;-0.015764752;0.061077066;0.033541594;0.22565569;-0.19127865;0.080864735;0.32821557;-0.027761018;0.061836734;0.18301778;-0.10337004;-0.108606726;-0.06485623;0.19266184;0.12135019;0.0044362773;0.087286584;0.044820342;0.036054563;-0.12441204;-0.10323803;-0.015355086;-0.016864734;-0.16327749;0.2910464;0.33490145;0.05115157;0.15500836;0.14622267;-0.12519543;0.02982974;-0.28431284;-0.1676581;-0.08884065;0.01749271;0.033359222;-0.27136216;0.2601258;0.099514976;0.15623914;0.28468943;-0.007059454;-0.19456363;-0.20193292;-0.13136941;0.29083332;0.5905224;0.1555216;-0.030954402;0.24176157;-0.13246685;0.17268042;-0.09025695;0.11274062;0.26418766;0.18777041;-0.0626118;0.47728893;0.04218497;0.17225699;0.0006345449;-0.20075314;0.22205281;0.010030128;-0.19473402;-0.04349048;-0.40436667;-0.08241622;-0.26309776;0.23085812;-0.14615119;0.03525494;0.14867772;0.1923521;-0.2404789;0.07557906;0.17094311;-0.32278258;-0.0427208;0.22785616;-0.13174129;0.013264718;0.2355008;0.2543385;-0.15715717;-0.21932839;-0.111966245;-0.15183981;0.16877946;0.10782386;-0.19395965;0.1197809;-0.022379598;-0.024632461;0.027437212;0.04621665;0.10847879;-0.038989015;-0.12317106;-0.104368344;-0.1250936;-0.010970308;0.02523401;-0.017691353;0.024180438;-0.09907315;-0.42210662;-0.41648266;0.12713435;-0.11540608;-0.11244993;0.010865671;0.08556146;0.104715765;0.12642479;0.06235479;0.08408806;0.16793084;-0.23775947;-0.28914937;-0.037741538;-0.08769979;0.02916086;-0.030673414;-0.24589495;0.1390535;0.14145723;-0.14957236;-0.20940082;0.032804597;-0.1781351;0.39072913;-0.119892366;0.2859795;0.08262453;-0.1634367;-0.017900145;-0.13361613;-0.072470695;-0.13479428;-0.08640361;-0.060473032;-0.0028490375;0.3455051;0.20982242;-0.005344273;0.07862458;0.41081464;-0.11474493;0.17561875;-0.38398767;-0.028545681;0.024673382;0.12984331;-0.20269507;0.04704341;-0.10442629;0.0100652315;0.09408758;-0.26922;-0.15686893;0.11127642;-0.27540508;-0.25111154;-0.2809131;0.2256347;0.14383629;-0.051187992;0.1396128;-0.37098733;-0.41627988;0.3739525;-0.13847093;-0.22816984;-0.30436945;-0.030417368;0.06762007;0.008201072;0.22200131;-0.09782783;0.057478327;0.09493662;-0.2787384;0.13799289;0.22116603;-0.02314463;-0.19260404;-0.00849947;-0.06871081;0.046392303;0.217063;0.047030047;0.34802252;0.030782212;-0.03620009;0.18790267;-0.06252819;0.38132027;-0.054699212;0.106812246;0.09301384;0.07953012;-0.3036521;-0.114697464;-0.14570002;-0.33427966;0.38034576;0.28905338;0.13752386;0.27305716;0.15579234;0.13468875;-0.13262866;0.13782969;0.09022283;0.10265494;-0.34224236;-0.083519734;0.12689486;-0.035829097;-0.076968834;0.071878895;0.1505262;0.22042997;0.3159466;-0.012790551;0.06998362;-0.11181775;0.11042022;0.18481466;0.35183764;0.00071213284;-0.04433046;-0.16839367;-0.11584485;-0.0291735;-0.3665991;-0.107288375;0.3228081;0.10800055;-0.0123326;-0.06683218;-0.7381412;-0.205336;0.19191718;-0.19532794;-0.15121797;0.15036014;-0.369292;-0.21095584;-0.04225628;-0.052354682;0.046782862;0.21925241;0.09930451;-0.1315757;-0.28963217;-0.029333184;-0.20379582;-0.102435715;-0.22130983;0.10636808;0.109981574;0.16141772;0.058337193;0.15587659;0.40129274;-0.037435856;0.03924852;-0.0012373842;0.036524594;-0.035698343;-0.07990202;0.20627883;-0.109632544;-0.26166424;-0.35275242;-0.08665732;-0.13418777;0.28971037;-0.06954082;0.2359047;0.04061621;-0.041582674;0.038055725;-0.09852549;-0.1218146;0.045832936;0.2660966;-0.0766445;-0.17396699;0.12910546;0.06502673;-0.08607186;0.1177137;-0.0578703;-0.19345722;0.178376;0.102852724;-0.1557953;0.07411946;-0.015136638;-0.0011531727;0.064070255;0.09322338;-0.11357525;-0.264777;-0.18773332;0.1011472;0.011723863;-0.04487472;0.29222628;0.30853936;0.24999827;-0.15598975;-0.052114494;0.027307682;0.19672625;-0.13115893;-0.06384607;-0.08999207;-0.45744488;0.01578168;0.052463125;-0.106345244;0.35412496;-0.0010574338;0.06614033;0.21567442;-0.27959102;-0.09403339;0.045135673;-0.44882184;-0.015039808;-0.16334145;-0.23214717;0.17198403;0.06717575;0.18369184;-0.13123265;0.06619353;0.07570995;0.10202932;-0.19710346;0.23986325;-0.0021704745;-0.17934272;0.121712536;-0.116529204;-0.07033803;-0.1672853;-0.05207548;0.087185755;0.29254675;0.017120713;0.20321447;-0.20486253;0.080836885;0.023154479;0.14460225;0.14421017;0.038427237;0.31354263;-0.25017866;-0.07893034;-0.00867785;0.17037526;-0.21357226;0.041931894;-0.18333045;0.15047112;-0.16242717;0.027814722;0.3127124;0.1576838;-0.26990318;0.13881305;0.06577883;0.23372242;0.26216164;0.27240002;0.19589075;0.24585955;-0.061195713;-0.27358595;-0.14956619;0.11329593;-0.00816269;-0.23796219;-0.08778673;-0.09015565;-0.116131835;-0.537389;-0.35546368;-0.051777024;0.15951802;0.10094686;-0.31180158;0.1395286;-0.09285478;-0.098374166;-0.2769786;-0.1387191;-0.35475832;0.3195238;-0.27450117;-0.32927433;-0.20658764;0.17316274;-0.12723109;0.14263348;0.30132762;0.06712637;0.13731736;-0.2346794;-0.044867735;-0.0034699957;-0.15244636;-0.039356742;0.1038544;-0.0945904;-0.37471962;-0.10346701;-0.107515134;-0.00022933721;-0.24633037;-0.17471185;0.17077117;0.08361603;-0.16830274;-0.026472969;0.061683748;-0.24484475;0.17092331;0.077419594;0.119404286;-0.13394046;0.20190184;-0.06564285;-0.17365198;0.0936388;0.18155716;-0.42546323;0.13562042;-0.269277;-0.23217446;-0.20134103;0.063287124;-0.07100398;-0.14153127;0.046603944;0.16415253;0.025549507;0.15956973;-0.12276869;0.051417608;-0.14967488;0.06264774;0.3790792;-0.078387655;-0.18782686;-0.036111843;0.091041885;0.20598555;-0.10391662;0.064675756;0.039682876;-0.04390467;-0.021287031;0.13335891;-0.0066959406;-0.07846512;-0.13178428;0.17414092;0.045829173
-0.047258187;-0.036128853;0.036099426;-0.073158205;0.0026236249;0.11280945;0.107265174;0.015914984;0.12389304;-0.1883524;0.055937856;0.036968805;0.016484817;0.21867476;-0.18384853;0.104484856;-0.011694373;-0.18607894;-0.5372363;0.18695438;0.37552494;0.2041811;0.08528226;0.17731334;-0.010261772;-0.3918592;-0.12540592;-0.044464737;-0.13487898;0.13628638;0.07861528;0.31733096;0.026078114;0.14879143;-0.06965126;0.09601021;-0.007716174;0.13877396;-0.15619342;0.2597845;-0.19981417;-0.16997544;-0.38762096;0.10731404;-0.021368016;-0.10137471;0.31982702;0.16869435;0.14754955;-0.2467015;0.13357218;0.36299002;-0.14578655;-0.050315026;-0.11724718;-0.2622342;0.02823453;0.18218848;-0.13070132;-0.021098765;0.52517414;0.14151151;0.13579775;0.016511729;0.19803841;-0.018380461;0.13415174;0.14261357;-0.022570178;0.019778877;0.024241183;-0.32219964;-0.4698871;0.061207335;-0.16658387;0.25277665;-0.40338877;0.45951375;0.24423884;-0.0044809384;0.070409745;0.04578049;-0.15524128;-0.019508928;0.17621024;-0.035562985;-0.11797287;-0.02209321;0.1421623;-0.31214663;0.381947;-0.15052915;-0.05952668;-0.21553287;0.07777696;-0.045130167;0.1956083;0.10713651;-0.3434666;0.092858836;-0.043438572;0.34463412;-0.084523134;-0.25004742;0.10267296;-0.20726201;0.036268566;0.23297456;-0.22653149;-0.0784129;0.12152816;0.100396074;0.1144327;-0.17077155;0.05633147;-0.19002046;0.048496436;0.029916164;0.13521706;-0.035065364;-0.049035117;-0.17707576;-0.04357344;0.054789573;0.021786503;0.019783586;0.27144074;0.18524902;0.06802063;-0.09559789;0.20801431;0.13918404;-0.07012334;-0.0026753633;0.01666096;0.081484094;-0.074235015;0.04380689;0.22080366;-0.18290009;0.20637193;0.25029397;0.0679581;-0.045322154;-0.056207802;-0.18286121;0.049634825;0.33593017;0.08369956;0.16195092;-0.03499532;-0.15223442;0.20397572;0.066150464;0.10254505;0.2426784;0.18960796;-0.09435128;0.18634348;-0.014139256;0.006616011;0.11180824;-0.18516856;-0.1359909;0.03933863;-0.12670007;-0.015357326;-0.36858284;-0.03813351;-0.21638411;-0.0009991901;-0.36292;0.0033861166;0.051242888;0.18217705;-0.29209137;-0.08844599;0.03280671;-0.18086511;-0.055088796;0.25868988;-0.16455488;0.097108364;-0.13697895;0.2114904;0.07282509;-0.016875211;-0.1692915;-0.03419778;0.397355;-0.34287342;-0.0321849;0.21707627;0.173247;-0.084757395;-0.28268284;0.19641264;-0.060044233;-0.12409375;-0.1986905;0.0770832;0.19631335;-0.0022905048;-0.04456343;-0.026060691;-0.081116974;0.45770797;-0.010838244;-0.49560332;-0.086960375;-0.1802678;-0.0831748;0.031580977;0.15608507;0.018510386;-0.16541223;0.024575762;0.057384335;0.17876315;-0.39654806;-0.28097525;0.11730964;-0.058205064;-0.1799978;-0.15231329;0.33033282;0.023429394;0.11598474;-0.046286695;-0.12591222;-0.007861737;-0.06861434;0.18126945;-0.26236504;0.24922639;-0.28502113;-0.17611445;0.17512244;-0.25400576;0.079153895;-0.33667475;-0.14724626;-0.23105781;-0.2784997;0.021940552;0.26212564;0.27263817;0.1732016;0.052428354;0.21081007;0.35250056;-0.06420427;0.0892395;-0.2819577;-0.086848624;-0.09397563;0.062336113;-0.36800587;0.1569998;0.3264087;0.039792433;0.04802162;-0.0021546052;-0.3006584;-0.023788143;0.004579891;0.2839291;0.17480364;0.08437572;0.13787857;-0.6446798;-0.22007973;0.0486051;-0.13164318;-0.074128024;-0.074336626;0.065951996;-0.01764449;0.09472317;-0.051930048;-0.3205856;-0.07308167;0.036182757;0.048413415;0.08168747;-0.110685974;-0.12689929;0.10075793;-0.12547691;-0.12478626;0.21207003;-0.1141884;0.054328937;0.0758471;-0.11161245;-0.12052105;0.17631763;-0.04287042;0.10739909;0.010913117;0.28821257;0.27015975;0.100784436;-0.0071296874;-0.22096357;-0.090006985;-0.14768136;0.22213075;0.26893187;0.15368758;0.09845988;0.046013497;0.082741536;-0.022395723;-0.10110942;0.0032538725;0.24095616;-0.53916097;-0.26185992;-0.03247279;-0.07535278;0.008157415;0.043463457;0.13068965;0.031599913;0.258598;0.13656974;0.20636062;-0.28753743;0.14367276;0.15283477;0.04799711;-0.0065304316;-0.073405996;-0.28488585;0.16255581;0.11113414;-0.37635878;-0.043270133;-0.09365671;0.06565219;-0.08890791;0.11687362;-0.5776933;-0.09201288;0.23081622;0.042985156;0.013842099;0.2617761;-0.1984311;-0.21178666;0.14580196;-0.04132508;-0.06360799;0.18456683;-0.051128462;-0.03470493;0.0101687815;-0.03419453;-0.084753826;0.079817675;-0.15504813;0.09681131;0.08644573;-0.0359242;0.09225122;0.16966735;0.13764465;-0.020289632;0.091586776;0.036196824;-0.14975294;-0.036626548;-0.0028244616;0.008441741;-0.22552551;-0.29707253;-0.40199894;-0.0056210794;-0.15621085;0.24295196;0.21420875;0.11527419;-0.08130563;0.2503412;-0.010040669;0.2326338;-0.40446565;0.0605729;0.12792434;-0.12974787;-0.25724813;0.074367344;0.15420204;-0.07290555;0.030905636;-0.04592721;-0.1984938;-0.037162684;0.21642248;-0.120080166;-0.10525638;-0.15349767;0.1381869;0.056415945;0.19242139;-0.11261399;-0.013068803;-0.38629863;0.24239191;-0.13199751;0.010593919;0.025771106;-0.0065204897;0.044258684;-0.01927464;0.22236024;-0.2258873;-0.21943772;-0.3851668;-0.018808652;-0.13623947;-0.31233314;-0.17743413;-0.15685701;-0.031861797;0.21520534;-0.11398452;0.050431423;0.31295916;-0.2104288;-0.056918245;-0.117986284;-0.28371656;0.13286051;-0.48056263;-0.19946668;0.21558315;0.07877136;0.0013445106;-0.059251856;-0.2887214;-0.008135297;0.06685986;-0.33283514;0.3269101;0.2116896;-0.051253572;0.15154712;0.15014361;-0.054351103;-0.02490196;-0.05742006;0.0036145286;0.15289643;0.108845994;0.07483878;-0.061578628;0.15161712;0.041345105;-0.10644852;0.020659465;-0.02151406;0.17947644;-0.50639147;-0.19399062;0.15169722;0.19019063;-0.02590821;0.06593818;-0.027591558;-0.014821524;-0.023335192;-0.12061908;0.24505676;0.19361167;-0.21844722;-0.08524327;0.03488569;0.17020151;0.025795087;0.32029715;0.3166389;0.14161547;-0.045006182;-0.21167244;0.011681837;0.044396013;0.13779277;-0.23208338;0.08275169;-0.02588981;0.23637685;-0.10372259;-0.32241762;-0.027542539;0.23657621;-0.11926722;-0.12912458;0.15295744;-0.21430887;-0.042135015;0.033253103;-0.16678427;-0.25844064;0.4125353;-0.1396561;0.07187813;-0.08118166;-0.13456647;-0.19449984;0.09165137;0.0015822974;0.01742152;0.10222339;-0.0652212;0.15346847;-0.06482367;-0.10421868;-0.005212068;0.0381449;0.104391985;0.015343052;0.00090804556;-0.27629295;0.13641547;-0.15267205;0.06735968;0.10888328;0.3544663;-0.14102335;0.001467869;-0.025056792;-0.43405402;0.16670612;-0.055983342;0.22897473;-0.026304387;-0.039423566;-0.06866157;-0.21240035;0.15041997;0.27928764;-0.42660758;-0.06075836;-0.21430741;-0.16527471;0.071563266;0.20697643;-0.106285706;-0.21414934;-0.0327382;-0.010420481;-0.044219647;0.074586056;0.37576795;-0.33481792;-0.029250138;0.033269953;-0.13655104;-0.033228643;-0.1237773;-0.19986314;0.002634011;0.30912533;-0.25579113;0.17500824;0.082892194;0.23540223;-0.13490243;-0.16616687;-0.13171509;-0.05548561;-0.0605088;0.0318926;0.18133013
-0.042306986;0.21237281;0.031677175;-0.23354116;0.004597046;0.05398828;0.061426077;-0.13946438;0.045204848;-0.1604529;0.020711923;0.035259247;0.077250496;0.33091837;-0.13310426;0.16509156;-0.26342723;0.13204527;-0.33007625;0.045052018;0.5002545;-0.04353646;0.02093715;-0.006160516;0.12815517;0.038738694;-0.05099616;-0.014200556;-0.017341722;0.009558434;0.021318099;0.18611999;0.014132226;0.2262043;-0.14149742;-0.12100549;0.047225855;-0.068927966;-0.2565349;-0.19490264;-0.15216094;-0.0049129995;-0.03753823;0.022205418;-0.27384746;-0.07602873;0.2824276;0.10939101;-0.14501747;-0.27580857;0.23860641;0.42175767;-0.04983924;0.080926456;0.051319964;-0.40975615;-0.2799705;0.18654732;-0.19145367;-0.100782454;0.3360628;0.11836258;0.3307563;0.18928386;-0.12973161;-0.32700324;0.090664186;0.042581316;-0.14123623;0.036147878;-0.024341362;-0.24008054;-0.32854638;0.048149396;-0.17488146;0.06999768;-0.31468305;0.17081565;0.18103476;0.21718845;0.049473204;0.13256565;0.15374838;-0.048664432;0.15983637;-0.08851893;-0.029792964;0.16543975;0.03855925;-0.27158478;0.27609077;-0.029607452;0.2196677;-0.03751079;0.11503968;-0.09019176;0.122315556;0.12639129;-0.42472765;0.1259596;-0.2508002;0.34210098;0.092917204;0.016152294;-0.031254284;-0.6104933;-0.1145558;0.17720726;-0.05033475;-0.013953799;-0.010230335;0.0059879976;-0.28514373;0.09868826;0.024712414;0.056057174;0.035091776;-0.13494964;0.14063364;0.10474057;-0.08462481;-0.016740113;-0.00980092;-0.047834717;0.046701893;-0.06677764;0.008467594;0.1532798;0.031442698;-0.112353444;0.015801879;0.15493234;-0.023282489;0.07265621;0.20808011;0.10223604;-0.2446578;0.34741467;0.4492413;-0.14734833;-0.09162032;0.15013303;0.01663357;0.0039589684;-0.21495329;0.20176405;0.020760242;0.18064056;-0.26949957;-0.22947891;0.114890754;0.027376587;0.18948011;0.09520215;-0.10591667;0.46949404;-0.071033135;-0.028541574;0.19076853;0.059925508;-0.016137961;0.11312922;0.059517883;0.12133316;-0.02037611;0.013384914;0.025128344;-0.29092214;-0.11675183;-0.056671813;-0.024355222;-0.08549327;0.10254105;-0.166261;0.23967014;0.13900211;0.315273;0.34371725;-0.113216326;0.11092931;0.19088231;-0.07195034;-0.0057927924;0.0070218313;0.029810112;-0.16668186;0.027476545;-0.34368277;0.153949;0.14870287;-0.24016832;-0.029326031;0.24225251;0.016303048;0.0017288004;0.078037225;0.025652891;-0.190859;-0.16134287;-0.24618313;-0.058808196;0.44077194;-0.014675823;-0.12744671;0.026007846;-0.16269429;0.41290835;0.17384896;-0.29832748;0.08799945;0.1740863;-0.41643965;0.017240958;0.15446185;-0.04577382;-0.06413455;-0.027304977;0.25579402;-0.020501431;-0.35164487;0.10169236;0.039927494;-0.1425606;-0.17369403;-0.05288647;0.17749682;0.12741217;0.2503035;-0.02566216;-0.01597636;-0.043012418;0.0015623062;0.22805943;-0.28765947;0.17917454;-0.29339874;-0.18954389;0.055345938;0.057831217;-0.09830695;0.22657715;-0.0016895676;0.08435807;-0.19365928;0.13975617;0.35239112;-0.09734413;0.22169256;0.18169281;-0.08121333;0.093974784;-0.32787445;-0.085189536;-0.13757268;0.072155096;-0.0003128678;0.16197115;0.02699884;-0.0013069767;0.108054705;0.20915294;0.24264032;-0.15833835;-0.36128217;-0.0867566;0.09904463;0.11127304;0.31076437;0.0041519254;0.13510379;-0.42929697;-0.17638785;-0.023662893;-0.09242301;-0.09377605;-0.15692133;-0.09242076;0.13980174;0.30536366;-0.08446403;-0.096596494;-0.16592446;0.15559596;0.06409548;0.2589263;-0.08320632;-0.04419015;0.009017637;0.061543774;-0.044343706;0.22935663;0.17341308;-0.06492271;-0.09299613;-0.1772298;0.20389818;0.06272577;-0.03938079;0.23859331;-0.13795583;0.08468191;0.075997494;0.056704335;0.07549301;0.019471763;-0.02680233;-0.27337846;0.05621371;0.03429583;0.04784625;-0.08692571;-0.02646106;-0.05758871;0.27208725;-0.08392674;-0.033783443;0.21525177;-0.48023707;0.017000724;-0.09886964;-0.095306255;-0.25273192;0.11532618;0.03649089;-0.0032200005;0.18389818;-0.10234502;0.033448663;-0.25078395;0.011126536;0.2505326;0.09091426;-0.062398896;-0.06927155;-0.2930988;-0.13870235;0.07076799;-0.5002418;-0.35752875;0.0405376;0.049945436;-0.13383603;0.1240113;-0.3775992;-0.22029763;0.1578351;0.090229824;-0.2530995;-0.038734138;0.28416994;-0.15716286;0.12656437;0.20040062;0.0020506268;0.22488911;-0.26879126;0.042944286;-0.31907055;0.04734909;-0.06462749;-0.013271882;-0.2121424;0.12131761;0.09649665;-0.10226297;-0.085828625;0.25234744;-0.03605242;-0.1279874;-0.26673657;-0.03825671;0.004262551;-0.054323237;0.1022799;-0.0700451;-0.058946125;-0.006849696;0.047548275;0.021253625;-0.17439012;0.029126596;0.115589105;0.021546673;-0.05238623;0.2216213;-0.19370821;0.24900442;-0.15090565;0.1646456;0.0018189444;-0.15058447;0.07919422;-0.13641828;0.17972131;-0.09082337;0.026788542;0.012889824;0.023383321;-0.36488134;-0.37460223;0.08282153;-0.03923105;-0.14452732;-0.042945288;0.007760222;0.059832737;-0.18268476;0.011250268;-0.34124365;-0.062890835;-0.1153156;-0.04609647;-0.06632846;-0.06167301;0.03984656;-0.02979168;-0.3120676;-0.13631713;-0.1855487;-0.29932684;0.017658802;-0.15423517;-0.18008097;0.13366623;0.17631376;-0.012672133;0.12850843;-0.13137275;-0.29778758;0.1815609;0.054232255;0.1480344;0.20372795;-0.16528776;-0.035843506;-0.054347266;0.111973;0.062140025;-0.2151364;0.17295106;-0.061715692;0.22314696;-0.1642176;-0.05497617;0.029638559;0.19780177;-0.10538719;-0.057371423;-0.039209776;0.027630938;0.03056573;-0.07479277;-0.22950482;0.19201785;-0.27137455;0.21041408;0.27970928;-0.026851982;0.13530283;0.09713611;-0.25298864;-0.03417533;0.09509313;0.06348444;-0.519104;-0.24132039;0.35417485;0.07791322;-0.27866384;0.030687233;-0.50005025;-0.11973121;-0.053393096;-0.09629307;0.089650445;0.10801091;-0.17767043;-0.17544055;0.28211248;-0.0005572527;0.01823382;0.2651584;0.25114322;0.022203943;-0.19806337;-0.082682565;-0.010881868;0.09925921;0.027700279;-0.119851395;0.046468448;0.024044396;0.05866951;-0.25427747;-0.2718983;0.02194689;0.2585004;0.08553079;0.006050611;0.13363446;0.27693996;-0.15701455;0.15031584;-0.022785451;-0.075000934;-0.03372715;-0.023794541;-0.3608791;-0.28428844;-0.07184964;-0.050211404;0.2599046;0.18316077;-0.09739324;0.09675118;0.019356683;0.109482914;0.06522126;-0.03524988;0.13171689;0.1280982;0.1711603;-0.2354074;-0.24386998;-0.12370623;0.044578675;-0.15618056;0.041847877;0.019671911;-0.12620725;-0.120823875;-0.0527046;0.30104774;-0.50871855;0.16667405;0.25587347;0.19084297;0.12660077;-0.025675615;0.30946565;-0.1238776;-0.014303022;0.23607534;-0.63725454;-0.15914702;-0.206513;0.02309136;0.15798998;0.083481;-0.015256873;-0.46642435;0.124762565;-0.026145637;0.03767415;0.009936771;0.16162139;-0.33869618;0.19441496;-0.03239695;0.23850378;0.016322423;-0.32149613;-0.43120703;0.17084698;0.027831387;-0.1139792;0.14012524;0.15055668;0.06860507;-0.29628545;-0.22557132;-0.18196435;-0.09071855;0.06078119;0.14037664;0.113890454
0.04433805;-0.08813325;0.05652748;-0.097584814;0.15122853;0.031011485;0.06539687;0.04879701;0.029602898;-0.07711831;-0.00066139747;0.19879308;0.005392744;0.20212908;-0.21474819;-0.04253883;-0.33035812;-0.08992744;-0.3262668;0.113893025;0.42693388;0.029677236;0.18773527;0.10250104;0.16270965;-0.03345666;0.03505959;-0.16930798;0.05729704;-0.2211656;-0.16383147;0.09861895;-0.0014948242;0.19304474;0.24126919;-0.017881908;0.15871617;0.083065346;-0.14404196;-0.5798436;-0.0095300395;0.2563735;-0.16688152;0.17372379;0.055300985;-0.18380882;0.17749757;-0.12715097;0.057044562;-0.354488;-0.043850124;0.23449458;0.11484121;0.14802782;-0.04362127;-0.15327555;-0.31880346;-0.047832582;-0.13126881;-0.055847898;0.021339918;0.17389157;0.019888617;-0.08794905;-0.0875569;-0.20745897;0.24436198;0.05258424;0.032510333;0.025088051;-0.09948336;-0.093351424;-0.4619585;-0.24457674;-0.0946091;-0.26748866;0.07643518;0.03201406;-0.28178212;-0.13588016;-0.1920311;0.097948544;-0.13667254;-0.048352547;0.24652255;0.032513168;0.27826476;0.040283766;-0.03620691;-0.34255317;0.061282467;0.030395407;0.07579478;-0.054635886;-0.16132835;-0.16222005;0.3187924;-0.06291311;-0.4115144;0.121638015;-0.11408444;0.44273397;0.09810906;0.12794003;-0.10782147;-0.30864984;0.048951514;-0.16072722;0.04558675;0.12579632;-0.05728288;0.054993276;-0.2587478;0.034263894;-0.1651849;-0.07494129;-0.020226523;-0.2599884;0.23665358;0.29170677;-0.1800457;-0.102326006;0.0371278;0.021973204;0.26692575;-0.16525657;0.14785036;0.12905523;-0.16153042;-0.12875736;-0.15765253;0.060444836;0.011601711;0.042300753;-0.03129316;-0.27823234;-0.19801913;0.2497648;0.42584738;0.10021089;0.14081633;-0.042076245;0.2011836;0.0011608641;-0.026160236;0.1796872;-0.20491609;0.14832571;0.09142333;0.15558648;-0.033501823;0.09476787;-0.14176904;-0.14446792;0.2506352;0.29734156;0.028204625;0.18832241;0.009821032;-0.21465063;0.0060417415;-0.116861425;0.049866877;0.24792951;-0.026657378;-0.18349175;-0.0023529034;-0.19752385;-0.3305878;-0.058941238;0.13801596;-0.23974216;-0.009246658;0.08938728;-0.17641468;-0.05449557;0.08338582;0.048439782;-0.21397075;-0.012415367;0.09234401;-0.02145981;-0.06964107;-0.06035098;0.001132019;-0.37903568;-0.017638927;-0.13870725;0.034277182;0.11347617;0.18292423;0.100926064;0.21058819;0.09772499;-0.121271186;0.034411427;-0.02457074;-0.40165585;0.13228364;-0.15609556;0.12281299;0.04480646;0.11873003;-0.07653474;0.24114448;-0.00804044;-0.15111768;-0.07594457;-0.075588785;0.0908164;0.19421886;-0.2218844;-0.14986308;0.24605668;-0.01812637;-0.14483613;-0.29219925;0.18498392;0.08018076;-0.08645519;0.25471115;-0.17526783;0.058053143;-0.13976863;-0.09556301;-0.27754503;0.029330775;0.4353282;-0.18569504;-0.030169683;-1.888233e-05;-0.067329496;0.09500061;-0.39348647;0.16075775;-0.051973745;-0.16919221;-0.095633075;0.2654925;-0.02682167;0.22581859;0.20869564;-0.142466;-0.18023555;0.2203706;-0.07627109;-0.06501858;-0.0827138;0.3275363;0.047240283;0.011495644;-0.14025266;-0.1340504;-0.2002374;0.1895888;-0.05505121;0.3004254;-0.15742277;-0.14124273;0.01522097;0.24337184;0.183285;-0.17746036;-0.25831154;0.06376244;-0.27852497;-0.0774553;0.29174262;0.05265812;0.16720895;-0.020121379;-0.28843138;0.2870109;-0.20514128;0.1341293;0.11041425;-0.01892798;0.045655914;0.20171246;0.08175573;0.3374132;-0.1390626;0.14063728;0.02090469;0.4831103;-0.05257733;0.0068530594;-0.020661576;0.18550687;0.07963195;0.2465651;0.035810404;0.09900794;0.02866957;-0.15936318;0.1695418;0.28028178;0.14281067;0.044613678;-0.13715056;0.18501498;0.16489795;-0.01676223;-0.24544865;0.02910759;-0.1782621;-0.07853053;-0.20157854;0.06958905;0.107462674;0.32532015;0.035345968;0.03520689;0.109894246;0.07107812;-0.06499695;0.09757899;-0.13071948;0.019930268;0.21887983;-0.18582752;-0.32210386;0.027598118;-0.171256;-0.014013144;0.20993383;-0.0780356;-0.05813523;-0.16190656;-0.25599146;0.32483995;0.20575185;-0.22025138;-0.029067827;-0.3186575;-0.23854907;0.22678353;-0.38291147;-0.6839667;-0.21660146;0.21836936;-0.24478123;-0.028544828;-0.39720225;-0.15411931;0.038353685;0.013207281;-0.38289732;-0.20795988;0.21965316;-0.02255203;-0.25826085;-0.009992545;0.025487578;0.15793666;-0.177518;0.109617665;-0.10390552;0.22222488;-0.031225404;-0.16655384;-0.05046022;0.15400888;-0.0017798807;-0.13994813;-0.013296954;-0.06416361;0.22623636;-0.26165825;0.032615133;-0.053378128;-0.09657654;0.003912951;-0.012459444;-0.053093333;-0.09868673;0.032551285;-0.052092772;0.06590438;-0.14997302;0.109325014;0.051390544;0.02096072;0.11064117;0.3084291;0.13858718;0.09098869;-0.1912935;0.1338651;0.030603524;-0.09860565;0.09822394;-0.24129169;0.11853524;0.11888591;0.0059616636;-0.15633565;-0.05862174;-0.17791535;-0.10476899;-0.07890027;0.20265199;-0.1963014;0.017375387;-0.22700195;0.2387108;-0.035454;-0.33357325;-0.2560262;-0.06228165;-0.30676517;0.07953327;-0.040882353;0.0574811;-0.020330485;-0.012613144;-0.29981014;0.009274081;-0.12255099;-0.2900037;-0.15363535;0.05925044;-0.16363293;0.02552628;-0.10677464;-0.02234885;0.12232519;-0.37249443;-0.106919445;0.14129074;0.15021202;0.08785753;-0.14586034;0.13063848;-0.040107764;0.020449335;0.40054047;0.049414534;-0.03080839;0.20015548;-0.2506371;0.012557429;0.031289037;-0.24275123;0.03920215;0.31502554;0.060788505;-0.12500608;0.18691227;0.39801612;-0.096804276;-0.16143589;0.096317105;0.23774545;-0.038304415;-0.061421495;0.33784705;-0.03782654;0.11711965;0.030809566;-0.069760144;0.083679125;-0.10353314;0.11519408;-0.27143395;0.10217243;0.3304443;0.1911748;-0.12016735;-0.06585124;-0.17831439;0.020526018;-0.1558172;0.117461585;0.06623658;0.06454382;-0.22778343;0.030620769;0.1887454;-0.10073946;-0.016599305;0.13555773;0.19245689;0.38549024;-0.18403073;0.008052663;0.17879514;0.30778491;-0.2729865;0.059400458;-0.09784546;-0.27853423;-0.29555053;-0.29427946;-0.1809096;-0.056170397;0.26469618;-0.13178997;-0.02451896;0.15297441;0.17432854;-0.2114197;-0.087911904;-0.17047673;-0.072302274;-0.04723811;-0.13652536;-0.49166974;-0.27853242;0.05355266;-0.097926244;0.21992575;0.26174968;0.07521849;0.087947555;0.056158997;-0.0786896;0.17786783;-0.009643916;0.023137052;0.055873442;-0.060293708;-0.12992127;-0.266426;0.015557975;0.010682335;-0.18662445;-0.0788221;-0.060047593;-0.39694446;-0.025847113;-0.068507954;0.12886152;-0.2143728;0.08972878;0.29440054;-0.00020187104;-0.11848963;-0.04611699;-0.024555031;0.045128595;0.17877965;0.39618623;-0.50280106;-0.3729847;-0.15548979;0.0133759845;0.0853334;0.15373065;-0.19280629;-0.15912758;0.2195396;-0.3856961;0.06912799;-0.09135757;0.12211065;0.04812872;-0.0679134;0.10092703;0.26249173;-0.123434335;-0.19852522;-0.18688382;-0.18428369;0.17552775;0.16403152;0.19867077;0.02037653;0.27328113;-0.022426765;-0.015054054;0.120197825;0.2425192;0.11332338;0.2263579;0.013088016
-0.097716674;-0.23468876;0.17312846;-0.17560266;0.29106647;0.074769355;-0.049009345;0.06711119;-0.0029988096;-0.28174236;-0.07609463;-0.17694588;-0.13475162;0.30280924;0.14263278;-0.07516041;-0.30028516;-0.068444364;0.024848787;-0.16044718;0.33286914;0.18881872;-0.06985994;0.45514265;-0.10127097;-0.09227432;-0.15396427;0.07387578;-0.07190987;-0.20909947;-0.24427819;0.14902818;-0.01703047;0.17880784;0.08487313;-0.013941768;0.08033482;0.06869046;0.07028998;-0.015613077;0.041263215;-0.051819284;0.021513399;0.24460885;0.04534135;-0.17125095;0.10397761;-0.006184106;-0.10866279;-0.18797426;0.077246666;0.14420441;-0.024883611;0.1640108;-0.014993591;0.07623278;-0.10760031;-0.39182684;-0.105308235;0.055370037;0.30214053;0.13339812;0.27620503;0.010132438;-0.23549002;-0.1711624;-0.10635821;-0.07912998;-0.08215079;0.16359206;-0.015428478;-0.061844096;-0.1311178;-0.21930881;-0.32745436;-0.22129089;0.13737988;-0.22225755;0.07410895;-0.10871461;-0.41413707;0.207234;-0.10723706;-0.19455875;0.1892074;0.46029523;0.29251722;0.13379309;0.18421824;-0.24158186;0.22428858;0.07722923;0.0015159845;-0.22399093;0.03364265;0.35983214;0.19392684;0.24239345;-0.17174378;0.22588238;0.1721925;-0.12967394;-0.12577416;0.15567073;0.009374204;-0.36282104;0.16038261;-0.23956768;0.04081393;0.0125569375;-0.07947299;-0.111070395;-0.029820047;-0.28057924;-0.003857687;-0.36087468;-0.05607737;-0.12138702;0.32231438;0.12659235;-0.37143242;0.13087314;-0.064573884;0.024432426;0.17498185;-0.0037104595;-0.07501095;-0.06462403;-0.249655;-0.15157066;-0.014463061;-0.06835942;-0.10410851;-0.12529333;0.17713171;-0.14392157;-0.14248927;0.033273507;0.20254728;-0.11104686;0.29141304;-0.6370092;0.33212718;0.040516146;0.15250503;0.11770859;-0.21128471;0.10472894;0.10950638;0.1720885;0.16069391;0.0012944551;-0.08399503;0.008320328;0.23993342;-0.0023486135;0.021072967;0.09314351;0.16074155;-0.06937218;0.114294186;-0.2327381;-0.051648993;-0.1039222;-0.026159268;-0.18996233;0.1105708;-0.3960958;-0.104457006;-0.011368036;-0.023368344;-0.35700968;-0.0873318;-0.06499148;-0.11362858;0.064564444;0.029213851;0.25605774;0.29503158;-0.008863518;0.068057775;-0.05981;-0.06816765;-0.033604655;0.0023271444;0.013558321;0.18909839;-0.07470946;0.044906866;0.060247127;0.30287352;0.02768093;0.21173604;0.17352869;0.25369903;0.11441106;0.06511991;-0.23047593;0.14950746;-0.09119854;0.0024618146;-0.15675518;0.059295617;0.028164113;0.3819095;-0.098860994;0.15472716;0.014237057;0.30588558;0.14688934;0.267547;0.1272141;0.10342165;0.16174668;0.06687879;0.10329964;-0.120701596;0.19962218;-0.2780926;0.13330594;0.19525522;0.13362844;0.06415963;-0.13827278;-0.091181636;-0.23541509;0.12099206;0.18568344;-0.19790621;-0.0027046269;0.20132533;-0.07150513;0.18299876;-0.3268528;-0.22037037;0.10282163;0.008688718;-0.025063155;0.12808879;0.12728475;0.07815652;0.0520766;0.0031723117;-0.12035155;0.27363324;-0.14717482;-0.09274258;-0.2812471;0.23240724;0.30080664;-0.12272528;0.006729815;-0.15911767;-0.11971994;0.104513444;-0.16806984;0.06416106;-0.017322555;-0.14044273;0.11577695;0.30654982;0.30671522;-0.019617107;-0.24544565;-0.13643885;-0.23239842;0.022718452;0.066143736;0.16456912;0.07991572;-0.40484366;-0.060794793;0.22270544;-0.09202398;-0.04318525;0.10389492;-0.20832011;0.07186944;0.19927232;0.05353359;-0.21087895;-0.2950401;0.1656203;0.31096557;0.009732748;-0.14827509;0.028146531;-0.07870677;0.09462146;0.059262693;0.23854424;0.21838789;0.058092654;0.087531246;-0.04568952;0.008115491;0.35192382;0.16490969;0.23386694;0.12442103;0.2515708;-0.017274376;-0.12409063;-0.36026347;0.12591752;0.0029840353;-0.106168255;-0.23302433;-0.044642583;-0.04074926;0.27393663;-0.13201319;-0.06361312;0.10849087;0.22581075;0.2029501;0.047304414;-0.13235499;-0.1441692;0.27688897;0.10688287;-0.15972237;0.13656583;-0.12752579;-0.10369674;0.20153023;0.008688195;-0.124082714;-0.07346846;-0.07979158;0.38796663;-0.055143423;-0.20360447;0.17345983;-0.17152898;-0.10757728;0.12436475;0.011915591;-0.49415937;-0.20224924;0.36518103;-0.22544292;0.2558144;-0.525483;-0.13521059;-0.028738333;0.02620201;-0.19660455;0.026784828;0.27747017;0.09712003;-0.07682529;0.0171768;-0.07882488;0.24899961;0.11732862;0.021538887;0.119230285;-0.055883452;0.13708001;-0.21921813;-0.016352879;-0.0660184;-0.06891213;-0.09662079;-0.06601568;-0.060066193;0.28827405;0.03864509;-0.020969294;0.010468363;-0.08494644;0.02589531;-0.14716929;-0.26213774;0.041315798;0.09951595;-0.23399442;0.1531446;-0.10154257;0.0853107;-0.31714377;0.18392497;0.18036304;-0.19131716;-0.05211447;-0.16212632;-0.058610186;-0.29606634;-0.13985395;-0.20591469;0.07741042;-0.091087945;-0.10325176;-0.2100848;-0.0908353;0.033863463;-0.21316159;-0.13264665;0.043449067;-0.020734819;0.26497677;0.0628961;-0.025669154;-0.06465972;0.30600435;-0.021177493;-0.56731576;-0.024388598;-0.39509183;-0.103929944;0.1129243;0.109361835;-0.11578507;0.10353743;-0.17238334;0.012810568;-0.052321237;-0.039082214;-0.33922845;-0.03252738;0.025793457;-0.29562378;0.09246008;0.08923399;-0.048102293;0.20129944;-0.49572143;-0.14362215;0.16002144;-0.073802955;0.16648316;0.22441135;0.17639488;-0.04748884;-0.17098089;0.042034797;-0.016815439;0.053319186;0.0021358628;-0.27168494;-0.004018402;-0.124345265;-0.092219226;-0.0063893003;0.1363116;0.122029044;-0.14170235;-0.12611237;0.17491937;0.075912185;-0.102213465;-0.002251671;0.12201174;-0.03112758;0.0337647;0.26640937;-0.25464353;0.03953172;-0.1947642;-0.19320044;-0.06087627;0.06888852;0.33467817;-0.28292882;-0.16682889;-0.10008388;0.032004256;0.008338446;-0.08437733;-0.017700808;0.112864666;-0.03909834;-0.17249882;0.06987757;0.058260296;0.030068655;-0.026823265;0.25341704;0.013853523;-0.015331828;0.11427893;0.27216542;0.148621;-0.20791383;0.075165875;0.1318302;-0.078793935;-0.13666345;0.18833473;0.039942585;-0.10157866;-0.2919538;-0.29825214;-0.050550442;-0.25862652;0.13603266;-0.18252215;-0.19769105;-0.05102264;0.073711164;-0.042472593;-0.32127944;-0.16453132;0.023980038;-0.2569326;-0.044199713;-0.26576108;-0.3789577;0.102019615;0.0055639134;0.18346053;0.19592604;-0.17788616;0.31645584;0.1298336;0.1746138;0.022655405;-0.011892052;0.0621807;-0.03233457;0.12369834;-0.10357425;-0.26354757;0.013827555;0.04870425;0.0100233015;-0.05778478;-0.024876196;-0.18806803;-0.1358239;0.12231197;-0.025261512;-0.40509287;0.03887965;0.20306511;-0.10914719;-0.2243137;0.19061804;0.0014103022;0.23764737;0.040552657;0.5225694;-0.12131777;-0.28179434;-0.31540924;-0.2391861;0.14658809;0.031272348;-0.091203265;-0.20326206;0.23210534;-0.15221137;0.03634717;-0.031425714;0.18500336;-0.05296687;-0.14317887;-0.17434905;-0.21501279;-0.088486515;-0.33434933;0.10205727;0.05838082;0.28734022;0.26697382;0.016119558;-0.13349482;0.095618;-0.13849863;0.19985653;-0.17148627;0.23871255;0.04697606;0.035261646;0.016752109
0.06037942;-0.14687933;0.204532;-0.0061241323;0.15991494;0.05167047;0.18403009;-0.06374118;0.037584413;-0.2949401;-0.2445294;-0.3210906;-0.09068548;0.040994048;0.09331689;-0.19538188;0.022350993;-0.04439015;-0.1488644;-0.116743855;-0.094893;0.25031042;-0.03633096;0.41507354;-0.15011445;0.14832817;-0.03485758;0.069899395;0.070899434;-0.42929712;-0.12285543;0.15529464;-0.04016618;0.30531132;-0.05680934;0.08822064;0.08827022;0.18945925;-0.13382769;0.1436173;0.13454044;0.055416305;-0.09383061;0.14610194;-0.104261324;-0.05700471;-0.011952734;0.15252759;0.13093442;0.0014765754;0.09006737;0.03510958;-0.0022083619;0.21009843;-0.22135232;0.16062889;0.04940404;-0.17454048;-0.10293811;-0.1835416;0.08123938;0.0833087;0.30407554;0.15474409;0.10871066;-0.23880297;-0.010263606;0.10952426;0.02244783;0.10684878;-0.09813518;-0.16124403;-0.1865507;0.010426208;-0.046836123;0.067082934;0.10347909;-0.002421497;-0.12846322;-0.046135444;-0.35573843;0.16562179;-0.18999961;-0.13489807;-0.055735897;0.2118537;0.29545555;0.084637396;0.037931256;-0.35902664;0.3001574;0.03402525;0.1775109;-0.08390737;0.10105895;0.0011419635;0.13685018;0.2848561;-0.004822728;0.10991128;-0.17496058;-0.10711655;-0.061505646;0.012049255;0.23222005;-0.22260362;0.13159439;-0.102014884;0.00414508;-0.019611366;0.029623574;0.00029937198;0.08836894;-0.22984535;-0.05758418;-0.29445606;0.0035527234;-0.09454677;0.1316491;0.18087426;-0.4625681;0.09614648;-0.2603329;-0.033124328;-0.20128539;0.31784174;-0.058883887;0.21282183;-0.16133998;0.035305355;0.34371215;0.07180822;-0.13013583;-0.0959944;0.12727775;-0.0008928393;-0.06386092;-0.07667722;-0.0012051028;0.029859724;0.1226169;-0.24668628;0.35851562;0.016515711;0.2506467;-0.21952906;-0.122004636;-0.013829328;0.0075413836;-0.26683477;0.09770422;-0.013943686;-0.070523314;0.20471203;0.07477093;-0.13266103;0.034261167;-0.24455431;-0.26650172;-0.188754;0.20151764;0.031202577;-0.057078853;-0.21315628;0.049437363;-0.044090815;-0.039285433;-0.22621505;0.1725538;0.004854194;-0.3306933;-0.22077267;0.051779255;0.0038517844;0.03665261;-0.12824178;-0.25090006;0.15037806;0.16565803;-0.01573932;0.053218797;-0.10748788;0.24747513;0.04433753;0.0995849;-0.0919342;0.32997048;0.1280476;0.25232017;0.0069230734;0.18699978;0.4187186;0.045504946;0.21441224;0.36881655;-0.2625279;0.1509931;-0.014624638;0.07304667;0.17258978;-0.036962233;0.13527559;-0.20455274;0.0156964;0.22129479;-0.03133777;-0.28367993;-0.15978867;0.16033398;0.20198226;0.26156044;-0.06209989;0.08652729;0.07643002;0.07557101;0.03221459;0.097396106;0.06289323;-0.034011777;-0.15465482;-0.31454077;0.2719258;0.3370236;-0.18251826;-0.19231491;-0.2637937;0.16159287;0.25108254;0.04674548;0.055711307;0.06780585;-0.039022014;0.09410235;-0.3297721;-0.3324156;-0.03713575;0.010087173;-0.16121307;-0.123984426;0.18310706;-0.01959327;0.011525208;0.26778957;-0.12928323;0.08828847;0.035788056;-0.05466619;0.16998585;0.047380324;0.18828112;-0.0050908616;0.102469824;0.038713254;-0.14731735;0.18436402;-0.040813137;0.19349566;0.26015374;0.1321408;0.048420727;0.27173185;0.24470276;-0.015721966;-0.36836812;-0.054567944;-0.03727676;-0.25220534;0.09979875;0.18259302;0.16638196;-0.8448065;-0.14319025;-0.24363264;-0.27983302;0.18150368;-0.01086465;0.12673877;0.090235;0.05690923;-0.14541611;-0.34517294;-0.38558686;0.06620359;0.16401978;-0.20668663;-0.07594047;0.026312446;0.035892524;0.05314756;-0.053740866;0.16347875;0.393094;0.06809993;-0.12284224;0.22291024;0.026933601;0.35768256;-0.078807965;0.2004806;0.07302039;-0.0019075621;0.027997158;-0.09551586;-0.1265227;0.16616894;0.0685496;-0.14698626;-0.1473847;-0.21003771;0.07123376;-0.019724581;-0.3514391;-0.12665235;0.009821095;0.27445203;-0.06944903;0.029171959;-0.00066868315;-0.18836667;0.31577307;0.0904244;-0.08941651;0.067692;-0.037489753;-0.13004385;0.41640186;0.029352874;-0.12767512;-0.15878089;-0.036358513;0.22324844;-0.35772887;-0.32675064;0.14060095;-0.2667948;0.0610532;0.14711109;0.080975704;-0.28648034;0.032325566;0.1607971;0.049541928;0.14605275;-0.15349792;0.07299953;0.20379259;0.030075204;-0.07521273;0.1680638;0.041629136;0.026571415;0.020189572;-0.09027459;-0.0025310686;-0.048338175;0.32085863;0.015696038;0.055873662;-0.039646175;-0.010477716;0.010902197;0.08207751;-0.1850304;-0.11676746;-0.082475364;-0.09395031;0.117546625;0.25175938;-0.21610737;-0.2396034;-0.1292333;0.037835512;0.11165147;-0.30709866;-0.049269963;-0.025626449;0.105378844;-0.35942495;-0.07630341;0.089092985;-0.07811941;-0.235082;0.0968288;-0.014044168;-0.25848886;-0.019605698;-0.36611006;-0.1714496;-0.3274607;-0.42178428;-0.05538635;-0.17725416;0.09238176;0.039578248;-0.15674376;-0.3713103;0.019239597;-0.010874392;-0.0030065575;0.283263;0.05527221;0.39504927;-0.058237202;-0.22049546;0.0706806;0.14897603;0.055998657;-0.31312323;0.07309912;0.055160616;0.04167464;-0.06639111;0.2323176;-0.28941232;0.22121568;0.22066641;-0.11078239;-0.27443874;0.14508052;-0.2714593;0.15120696;-0.08606337;0.018318716;0.015164759;0.08286645;-0.0330059;-0.18899499;-0.4539937;0.12549224;0.17485897;-0.05664748;0.15688166;0.13857593;-0.041236628;0.1204114;-0.30075258;-0.15101516;-0.17853151;0.009733722;0.056666918;-0.26234674;0.1734243;0.03850532;-0.11332587;-0.100648776;0.012562196;0.16034997;-0.04000144;-0.17883596;0.18047279;0.009702193;0.050502133;-0.062266413;-0.0892291;-0.28456065;0.09455795;0.14183767;-0.084265016;-0.045846753;-0.18169963;-0.34092164;0.27737504;0.053907204;0.3513609;-0.16724147;-0.09158726;-0.14119685;-0.035148382;-0.01753412;-0.37697196;0.115949035;-0.09882728;0.21601139;-0.060425125;0.05534166;0.056071628;0.11600172;-0.08149197;0.22591615;-0.21461585;-0.10185703;-0.0905558;0.11891488;0.06406272;-0.42079952;-0.0055674873;0.09903584;-0.39095017;0.14091969;-0.21373895;-0.15781583;0.005099563;0.22813839;-0.28708306;-0.31228948;-0.03429049;0.037102282;-0.1837916;0.011871718;-0.021392869;-0.044796556;-0.009188278;-0.23045413;-0.17633343;0.008285345;0.09671195;-0.06647457;-0.4043758;-0.48882213;0.16521506;0.0007582533;-0.039291997;-0.0011262113;-0.0010068938;0.10927561;-0.070488825;-0.069899805;0.06732561;-0.11610605;0.06989293;0.085596964;-0.047345813;-0.26949957;0.09090117;0.0035745762;0.053980984;0.23985046;0.13626325;-0.08421588;0.18028209;-0.05296844;0.17928907;-0.03417154;-0.116611905;0.05841616;-0.10898214;0.03638591;-0.12475758;0.2103195;0.118491724;0.23462781;0.27261135;0.2525903;0.052175853;-0.54072505;-0.24784228;-0.19015919;0.36197236;0.113480985;-0.030355632;0.1216199;-0.199045;-0.01713491;-0.060920548;0.41641626;0.2946215;-0.33036447;-0.0060130786;-0.17609544;-0.13495255;-0.28291297;-0.3408205;0.27950132;0.1365156;0.31754375;0.13139471;0.06505311;-0.117511034;0.061487887;-0.25436068;0.022299457;-0.20602971;0.25610328;-0.09351387;0.14631134;-0.037259456
-0.040689513;-0.15398087;-0.015290365;0.12445034;-0.027229387;0.06081879;0.03462425;-0.083724394;-0.18157324;-0.15569839;-0.07977917;-0.1840965;-0.1216695;-0.14245619;0.15629558;0.08481201;0.02719529;0.051803693;0.012296208;-0.1280903;0.010244529;0.01929797;-0.048074927;0.346545;-0.04255283;0.24361402;-0.03830343;0.10029805;0.25849876;-0.11682354;-0.10848844;0.06350046;0.012838356;0.28946856;0.2464742;0.23689012;0.040816564;-0.035064213;0.022231797;-0.3521001;0.13847968;0.1804177;-0.016505638;0.1801567;-0.21513672;0.02913038;-0.22551824;0.24149215;0.095375046;-0.037055362;0.24752507;0.16282581;0.33821252;0.20240483;-0.05354751;0.38142177;0.0043192776;0.048450068;0.06767371;-0.31642357;0.09477586;0.47261056;0.018166268;0.11682329;0.21154344;-0.36241576;-0.15815756;-0.073303945;-0.08440128;0.30686325;-0.21460134;0.032355916;-0.33934674;0.077640265;0.06820118;-0.040949907;-0.22218981;-0.19700542;-0.020742016;0.2010698;-0.20736101;0.24027397;-0.13542601;0.18623832;0.13006921;0.048271738;0.2709503;0.06447868;0.09990656;-0.08980027;0.09130787;0.24639347;0.12705646;0.09714274;0.17154656;-0.2908546;0.007620358;-0.07424837;-0.16335262;0.040732056;-0.15105262;-0.015252391;0.21429421;0.10741805;-0.089417696;-0.08191888;0.26337838;0.007300953;-0.097463705;0.16100477;0.026432198;0.07163075;0.08088949;-0.14251733;-0.10213111;-0.42620835;-0.06798916;-0.23955496;0.012312745;0.046099808;-0.40220618;0.05556056;-0.07997027;-0.024517896;0.043123282;0.14722343;0.004543326;-0.001755279;-0.0667463;-0.016313633;-0.01960768;-0.25618255;-0.03814039;-0.24949227;0.16369796;-0.14599603;0.02602886;-0.24520962;0.13740304;0.04931174;0.065595075;-0.41846356;0.047897328;-0.045652095;0.16605788;-0.42784008;-0.264913;0.11949466;0.07198964;-0.10662956;0.068245895;0.1366652;-0.15278524;0.029648202;0.12798542;-0.08254131;-0.12160577;0.085669875;-0.0431012;-0.14153077;0.048163652;-0.056348745;0.15401381;-0.13278657;0.0658017;-0.1921003;0.030910147;-0.11428997;-0.0035004031;0.13101448;-0.020921575;-0.123143844;-0.08969839;-0.31138432;0.036989693;-0.19512202;-0.11056255;-0.045816913;0.1329373;0.006618364;-0.2523378;0.07326027;-0.038389243;-0.09539741;0.26624942;-0.22933954;0.03143874;0.2669631;-0.012812423;0.13373415;-0.1095266;0.4547013;0.039126534;0.09927142;0.16820644;-0.10021049;-0.00035608915;0.027831284;0.04473461;0.1436492;-0.18701138;0.012830591;-0.040198382;0.15095118;-0.08503295;-0.106068745;-0.40511715;0.17173623;-0.1386206;-0.0044223084;0.28899497;-0.1012963;0.21654326;0.0113225775;0.26205668;-0.15436283;0.06952207;-0.12510154;-0.0036204057;-0.38024333;-0.18443803;0.097852655;0.36281762;0.03047521;-0.04446228;-0.09209241;-0.1740209;0.12518479;-0.22480819;0.019714152;0.058370296;-0.023007566;0.22971147;-0.117885076;-0.24844426;0.033624075;0.113000065;-0.09142191;-0.14997213;0.07876171;0.06689827;-0.0830704;0.15917815;0.1240256;0.1319508;-0.21068075;-0.035660826;0.07907263;0.06810304;0.0028428903;-0.077634476;-0.57724893;0.15470473;0.050975498;0.35549924;-0.07201971;0.15954973;0.036307268;-0.13743432;0.17063493;-0.112825744;-0.018600041;-0.15595928;-0.08798349;-0.013418912;0.13201766;-0.43649307;0.058647014;0.13075724;0.19063802;-0.38503537;-0.16771962;-0.16093892;-0.14875051;-0.031070458;-0.40456152;0.10069985;0.114038706;0.002573509;-0.2491322;0.0041419556;-0.22639288;-0.10308653;0.23367761;-0.121428326;-0.05023765;-0.0547512;0.011425869;-0.008642872;0.058156677;0.28968397;0.48104998;0.21018125;-0.093736656;0.004881815;-0.033731893;0.08679771;-0.061434526;-0.089035526;0.1697283;0.15439236;0.2025166;-0.06151085;-0.09795512;0.18910553;0.23961166;0.07923967;-0.22040403;-0.033281993;0.19954236;0.025879944;-0.3029391;-0.10989412;0.057803743;0.091296926;0.11889752;-0.04046698;0.07160247;-0.19108522;-0.040556297;-0.21047805;-0.118503116;0.13554625;-0.022075223;-0.34182617;0.22008976;0.26803896;-0.06891713;-0.18830624;0.21491477;0.35585153;-0.058713574;0.116237044;-0.15978386;-0.104945906;0.09285751;-0.04835514;0.13710082;0.116381586;0.0023330064;0.21600372;0.0066573797;0.016095307;-0.10016388;0.29202262;0.06450248;0.045055423;-0.05451223;0.12184594;0.12579744;0.033881713;0.14281435;0.1441545;-0.09453511;-0.18461506;0.20409131;0.11134427;0.082570516;0.022044513;-0.0136755435;-0.23088382;0.2685976;0.057764407;-0.15116304;-0.10106068;-0.3486388;-0.05833067;0.18727596;0.2511401;-0.1711543;-0.1428799;0.010890126;0.10287504;-0.09526259;0.0029885517;-0.08600027;0.10812211;0.06550224;-0.16331725;0.19145912;-0.016829029;-0.03231816;0.18827714;-0.0049719517;-0.1795584;0.17931908;-0.29334262;-0.109248824;-0.22591944;-0.2429046;-0.049602147;-0.17832193;-0.12795445;-0.21732886;0.01864895;-0.075462565;0.25173074;0.24390967;0.18951988;0.24119218;-0.010392833;0.1501525;-0.04770068;-0.20499296;0.31706625;0.170048;0.05089292;0.0059012417;-0.028669748;0.027382402;0.22875634;-0.18954496;0.21052837;-0.35666102;0.03825406;0.30159563;0.055517253;0.2083783;0.0060093715;-0.1578947;-0.092389375;-0.11551046;0.054410927;0.016797006;-0.2624371;-0.09693034;0.16850333;-0.6096856;0.018123917;-0.16365255;-0.121063486;0.104668334;0.11618092;0.013375293;-0.12379;-0.34757215;-0.06137363;-0.16670656;-0.14857411;0.23140584;-0.007486198;0.15452065;0.01425142;-0.23213056;-0.024098195;-0.07459432;0.0772565;-0.057035696;-0.00092316355;0.19984776;0.06510156;0.005387695;0.18710856;-0.17520282;-0.06860512;-0.19401892;0.16086908;0.15608566;0.17527753;-0.26871926;-0.20408168;-0.053751394;0.10231857;0.23061115;0.050271425;-0.16377951;-0.10135642;-0.13380426;0.10101272;0.064635016;0.10795444;-0.2075968;0.12450318;-0.17977437;-0.03672872;0.2156657;0.24761854;0.02562496;0.05633974;-0.30052385;-0.21029308;-0.21292;-0.09988431;-0.19580317;-0.25963748;-0.10244967;0.0033626782;-0.21805012;0.10252206;-0.21475708;0.08462046;0.019528573;-0.07090108;-0.34474787;-0.119323954;0.15261833;0.070253655;-0.15757477;-0.3009818;-0.019991754;-0.0012916435;-0.29613072;-0.22101653;0.043094628;0.09810454;0.050663687;0.056794975;-0.30697632;-0.097897984;0.055588834;0.05745395;-0.036583472;-0.07913604;0.16059162;0.31551075;0.05874376;0.100479476;0.26471153;-0.1394652;0.040278558;0.06852084;0.14064106;-0.06844251;-0.0940292;-0.0796948;-0.029790483;-0.03655206;0.1271894;-0.07025352;-0.069454975;-0.15774639;0.09668644;-0.08654944;0.44101363;0.1034296;0.05849639;-0.05077943;-0.04514334;0.15377064;0.038259584;0.09960871;-0.037939295;0.06423499;-0.1623637;-0.17205422;0.13123247;-0.34116188;0.0575966;-0.34359652;-0.013734002;0.09102519;-0.34217793;0.20719263;0.06302013;0.4682947;0.04561815;0.12208099;-0.3458833;-0.14820589;0.18563429;0.011598113;-0.14588222;0.20278367;0.18094721;0.24555583;0.018486576;0.07309452;-0.081048585;0.068536445;-0.042082917;-0.089676715;-0.15721138;0.21625528;0.12906463;0.115132816;0.033681888
0.05516628;-0.13104528;0.026102979;-0.12530431;0.06664702;-0.15145977;0.19844668;-0.098341994;0.004021318;0.036359645;-0.15239881;0.06333851;-0.12957434;-0.0007463105;0.10655408;-0.020633567;-0.036834933;-0.100207195;-0.024308033;-0.17132075;-0.031737562;0.016799027;-0.13511394;0.058073197;-0.28917286;0.40139955;-0.00986401;0.08231938;0.21390492;0.117431074;-0.23851414;-0.006089556;-0.040151037;0.28270346;0.35776535;0.12979396;-0.058646187;0.0058890153;0.12017473;-0.36794043;0.14627247;0.13560057;-0.0048189336;0.270643;-0.23946877;-0.105210654;0.11193684;0.20817316;0.26965508;0.1831549;0.16209345;0.009078428;0.23057191;0.19400102;0.1518108;0.23497736;0.18799923;-0.27150118;0.19150725;0.0051503577;0.20814936;0.2889872;0.107100725;0.11378976;-0.07794937;-0.08374151;-0.109096676;-0.2601167;0.076802306;0.3233865;-0.20512564;0.103546694;-0.3670342;0.027535487;0.012304732;0.036952075;-0.5240372;-0.18146178;-0.122814;0.092949435;0.19504401;-0.044101346;0.029008863;0.266257;0.15402596;0.057762187;0.36208066;-0.18174638;-0.05687402;-0.7134032;0.05427472;0.13380635;-0.058564864;0.175577;0.07602695;-0.01192837;0.012433964;0.032781016;0.11845964;0.20616886;-0.37370214;-0.041953214;0.18712057;0.22487345;0.102742426;0.18506213;0.27258652;-0.22109486;-0.07697058;-0.1065966;0.011686452;0.14535949;-0.11199787;-0.4447456;0.11400646;-0.2914821;0.08373992;-0.16609283;0.16482127;-0.093050756;-0.85743594;0.21320316;-0.02748576;0.040113993;-0.15326406;0.07639245;-0.06590133;-0.019810714;0.12449914;0.07694895;0.18578127;-0.1880206;-0.08342146;-0.05626203;-0.050804403;-0.27425432;0.14448227;-0.06967759;0.02375585;0.086959876;0.009108659;-0.7227572;0.15529983;0.054857697;0.07660603;-0.21768732;-0.425079;-0.09355477;-0.0140132345;-0.07469287;0.011250736;0.29861364;-0.14841752;0.050174613;0.14964019;0.13489017;-0.26431853;0.17966096;0.101846665;-0.019248616;0.026536997;-0.09687929;0.08531847;-0.26596278;-0.009230938;-0.14938308;0.09233236;0.13206628;-0.12593676;0.21497785;0.06689921;-0.033939537;-0.30652308;-0.47657987;-0.13320613;-0.04386963;0.0078074965;-0.17342259;0.06770226;0.574093;0.10662108;0.38610944;0.084428385;-0.099545784;0.16640675;-0.038497735;-0.075424865;0.21539406;-0.21823393;0.12855397;0.003943;0.18970816;0.18803489;0.2191951;0.19835295;0.21134904;0.20255351;-0.030861564;0.055037595;-0.051555157;-0.12844296;-0.11339142;-0.19316112;0.26420447;-0.120942265;-0.046862878;-0.13032778;0.12554188;-0.24848868;-0.104568094;0.043717943;-0.2819641;0.13016096;-0.2801605;0.07841381;-0.031037297;-0.08584117;-0.103922606;-0.2459509;-0.3070084;0.09608074;-0.28208923;0.20883086;0.011678444;-0.018188393;0.020599581;-0.4773354;0.16392489;-0.042020664;-0.14418606;-0.32835633;-0.056677513;0.058552455;-0.22759494;-0.21599711;-0.19030541;0.26450068;0.071928285;-0.016899237;0.029411077;7.900925e-05;-0.34456933;0.018538538;-0.06745484;0.29287985;-0.16819629;-0.00085453736;0.12301659;-0.10923824;-0.099385515;-0.100687556;-0.20840313;0.13288632;-0.09637818;0.15127838;-0.04413961;0.3296216;0.104692265;-0.072367266;0.06674911;0.04628266;-0.0044720042;0.20057738;-0.0006060116;0.09557023;0.13808298;-0.29210034;-0.36310747;0.27217534;0.21559149;-0.3577029;-0.25174803;0.12331459;-0.09705184;0.062413476;-0.24693044;0.073651314;0.06083337;0.04942877;-0.21374829;-0.093234025;0.0026438313;-0.0511897;0.23906022;0.099591695;0.26567915;0.31631902;-0.11424725;-0.005438668;-0.057233803;0.31235912;0.20917712;0.04173891;-0.045892682;-0.11810354;-0.035697475;0.22769047;0.03479645;-0.033618696;0.21351007;0.13846782;0.33272645;-0.034393992;0.09709303;0.13091654;-0.54379183;-0.0017286788;-0.23723817;-0.10365223;-0.16118568;-0.20375541;-0.4135157;-0.09054775;-0.031788684;0.22413014;0.10271161;-0.0883825;-0.18843402;0.027320392;-0.2268074;-0.24917485;-0.2202861;0.19562277;0.06508411;0.010334378;0.34913644;0.164798;0.03048867;0.05175891;0.007048178;-0.05049895;0.06833918;0.16189714;-0.17155528;-0.39733148;-0.56148356;-0.009655495;-0.16887699;-0.08909991;-0.23712225;0.0454198;-0.07145262;-0.13177048;-0.16072975;0.14550352;0.06999748;-0.026960287;0.13478017;-0.016194401;-0.02683646;0.1519706;0.17447503;0.080778025;-0.0053604348;-0.22051968;0.3927138;0.21291596;0.32620513;0.09274774;0.119765684;-0.35834605;0.29250395;0.0019343535;-0.08715227;0.19776748;-0.34848645;-0.06595973;0.31142733;0.035284363;-0.15099683;-0.18401515;-0.05034622;-0.04925142;0.31213024;0.12812892;-0.030379387;0.4056926;0.14885893;-0.33102772;0.1954837;-0.017748965;0.2470537;-0.05077735;0.10716251;-0.059941288;0.25427133;-0.25375047;-0.10447759;-0.2752161;-0.070446245;0.06790768;0.021690244;-0.14186142;-0.34049886;0.05005086;-0.091299444;0.46773094;0.108117916;-0.026317172;0.1337303;-0.14453252;0.16597068;0.044187166;-0.19992287;0.22266798;0.032228667;0.19623299;-0.12454339;0.17965555;0.19745037;0.0834573;0.18037601;0.21478267;-0.4916654;0.13625585;0.22706625;-0.00594393;0.25255746;0.12929013;-0.1768247;0.010734249;-0.05611204;-0.11346495;-0.014857665;-0.0488209;-0.24601609;0.001477247;-0.42987245;-0.073245436;-0.1389778;-0.36926398;0.12222567;0.24008054;0.2607349;0.09356162;-0.30571204;0.2790237;0.06872434;-0.14296536;0.034727957;0.15086518;0.0024626572;-0.14303261;0.11586104;0.13042246;-0.16186728;0.2998818;-0.07575027;0.18975665;0.022671254;-0.039840337;-0.33524507;0.086403124;-0.15192467;-0.08046358;0.0051852036;0.14906366;-0.07211986;0.17770866;-0.00036293367;-0.20596814;-0.11635531;-0.0031148072;-0.03731335;-0.21952641;-0.029362863;0.00334328;-0.25176108;-0.04352676;0.14304629;0.008766685;-0.096905634;0.15614285;-0.30493018;0.0877286;0.24944451;0.043795522;-0.10206208;-0.004068097;-0.22337219;-0.14119904;-0.21468906;-0.18623312;-0.1629352;0.17337184;0.45082262;-0.08962037;0.10717147;0.3118406;-0.26018324;0.1618097;-0.0410801;-0.11650017;0.081427366;0.11896267;-0.13093922;0.0894105;-0.23433825;-0.14770666;-0.42328036;0.15358308;-0.24696147;-0.19559303;0.2845003;0.151092;-0.34704328;-0.23161499;-0.2445082;-0.1302053;-0.06552575;0.1483896;0.17929773;-0.17305237;0.10381197;0.20405501;0.05287083;0.056230195;0.11223784;-0.26382658;0.23014203;0.16682959;-0.12954447;-0.23035124;-0.08158089;-0.25519526;0.13943674;0.0015606672;-0.098311536;0.119675174;0.040036242;-0.046544824;-0.09731623;-0.12808867;0.15214199;-0.01919016;-0.26399744;0.22571768;-0.24222612;0.16192898;-0.10856597;-0.011871506;0.022418357;-0.049510576;-0.24771002;-0.11683291;0.09113525;-0.30069813;0.110936046;-0.101928584;-0.09938971;0.12788188;-0.324112;-0.15293685;-0.20111287;0.108072646;-0.11292825;-0.115024805;-0.15548888;-0.028857313;0.0010629069;-0.009698433;-0.11227749;-0.00084312866;0.1710949;-0.007407854;0.22995053;0.09578456;0.11319623;0.03624801;-0.12537456;-0.017990526;0.042045113;0.1300575;0.08207995;0.14658023;-0.114721075
-0.12055054;-0.05063841;-0.19494942;-0.21036878;-0.039853916;-0.18327087;0.24474685;0.017332535;-0.06095274;-0.015673066;-0.041905954;-0.104353644;-0.07987576;0.07891788;0.15447085;0.059098393;-0.008739436;0.10902834;0.24649996;0.037784852;0.13216889;0.2522487;-0.12997545;0.15818387;-0.32407382;0.23994449;-0.04838887;-0.24585244;0.18779187;0.3203456;-0.31272456;0.005156491;0.0676375;0.17316972;0.12943026;0.13478796;0.37086776;-0.015179543;0.14722373;-0.43758819;-0.10264356;0.051167868;0.013769224;0.21347232;-0.01957002;0.11088902;0.051319085;0.37311813;0.27370816;0.04488725;0.21343099;0.030732587;0.16365045;0.28418088;0.18903247;0.014586745;0.14461221;-0.2604524;0.18186851;-0.07843529;-0.28958124;0.3547444;-0.08847114;0.19383222;0.16061808;0.113836296;-0.2777386;-0.29919922;0.2082702;0.17329097;-0.16597876;-0.18980692;-0.3440961;-0.007994319;-0.2643933;-0.11629788;-0.25709808;-0.32573736;-0.27739877;0.063732244;0.013108238;0.11588701;-0.01484247;0.3519836;0.1555284;0.016055234;0.12884742;-0.12874821;-0.15537228;-0.42533273;0.031112928;0.1788042;-0.014413367;0.17539187;-0.073340565;-0.16503991;0.029113274;0.20783876;0.19657214;0.21598643;-0.28488377;0.0058117597;0.19900009;-0.13916804;0.03915092;0.15686955;0.25195125;-0.1413747;-0.09249333;-0.24843495;-0.0011593495;0.07164381;0.23900622;-0.10501599;0.10714433;-0.039826468;-0.068446115;0.2582639;-0.06394038;-0.155534;-0.42272502;0.12570234;0.02828486;0.01603569;-0.120164216;0.15718009;0.117864855;0.19460131;0.04246443;0.07348535;0.41250595;-0.072035275;0.019234449;-0.01808149;-0.13240363;-0.35128763;-0.049223956;-0.027235102;0.13293132;0.09179431;0.014194752;-0.4216561;0.39778227;-0.11694529;0.077637136;-0.4123321;-0.21473908;-0.16578658;0.17710769;-0.18301477;-0.13079402;0.105187;-0.050689794;0.004185531;0.19196391;0.20945117;-0.13098884;0.1084213;-0.32236943;0.019218657;-0.017594535;-0.23323064;0.08267792;-0.058104813;-0.09935135;-0.030244587;0.03764248;-0.20270006;-0.092711166;0.12416463;-0.09934193;-0.017531883;0.00599693;-0.37619483;0.03454712;-0.0037981055;-0.2024798;-0.12683688;0.1439939;0.3003595;0.266933;0.1995526;0.083136745;-0.16765639;0.08056151;0.07607782;0.00025991013;0.027659968;0.09969551;-0.0011866952;-0.06587189;0.21760076;0.058087766;0.024696741;0.47639748;0.0051325206;0.2520295;-0.0094434265;-0.19632344;-0.012361266;-0.21565713;0.010321071;-0.2095683;0.04333022;-0.17640275;0.008215267;-0.08273719;0.06619541;-0.14238657;-0.2016145;0.153179;-0.15856992;0.07949922;-0.048763297;0.16127509;-0.049667113;0.07963718;-0.02399438;-0.28774962;-0.18419917;0.10553673;-0.25971523;0.22624099;0.26262632;0.2321152;0.10820198;-0.3505914;0.07936834;-0.27667108;-0.04247899;-0.15333995;-0.11081718;0.11273024;-0.3084366;-0.13161215;-0.29470053;0.2766724;0.017096573;-0.21695666;-0.03570192;-0.09406407;-0.18919712;0.30426547;-0.011848313;0.34400535;-0.29141462;-0.10934219;0.05567608;-0.24783175;-0.14611474;0.09155445;-0.2158456;0.24264397;0.060789023;0.07838957;0.002005032;0.117989816;0.27845523;0.01910263;-0.07126797;-0.026832953;-0.10953513;0.089291155;0.0956585;0.06967355;0.23241869;-0.20439056;-0.101237744;0.21993051;0.17561568;-0.2009806;-0.097744614;-0.059314806;0.11113655;0.14552243;-0.25421825;0.13202451;0.12214688;0.07137216;-0.374357;-0.048362784;-0.051674377;-0.07711265;0.28924334;0.20428854;-0.06702299;0.3369327;0.21982898;0.03941052;0.03405428;0.11471023;0.20821254;-0.08329361;-0.21162196;0.06353605;0.012104729;0.061966047;0.061731335;-0.1717748;0.05148996;0.20552269;0.2329206;-0.10498416;0.12802482;0.058638025;-0.5079723;-0.13024378;-0.008108556;0.08812914;-0.038115993;0.033100132;-0.12673144;-0.046207957;-0.048785385;0.050259825;0.07735508;0.120185405;0.051434092;0.20712383;-0.34348255;-0.076756775;0.049313013;0.048260108;0.06801193;-0.15078408;0.429521;0.13910182;0.2027285;-0.029101934;-0.06608324;0.010175796;0.12051365;0.06577492;-0.14812598;-0.25172034;0.0586733;-0.173324;-0.09280423;0.018456511;-0.049335685;-0.021179223;-0.035795696;0.23122132;-0.20159563;-0.21663305;0.058702387;0.012125895;-0.053903416;0.16113545;0.0923983;-0.027334409;-0.020461775;0.22592545;-0.063221164;0.12324068;0.21118608;-0.018117491;0.16800992;0.23610625;0.16699842;-0.041268233;-0.16983093;0.07184046;-0.13720351;-0.018150529;-0.11926345;-0.050742637;0.17386706;0.058516;-0.13410962;-0.0836247;0.14167243;-0.076800786;0.19841374;-0.24650517;-0.16449723;0.29853007;0.3521792;-0.09141478;-0.07742864;0.10507223;0.19277643;-0.049148962;0.25661373;0.16676703;0.13178413;0.11705947;-0.2884428;0.0380027;0.12104696;-0.2504826;-0.044565402;-0.15304449;-0.42624417;0.10161309;-0.09096614;0.41625452;0.064700246;0.0826405;-0.056747172;-0.30875367;-0.056533504;0.14494169;-0.017880911;0.31069818;0.16353054;-0.009044481;0.022179872;-0.07763682;0.18608984;0.059747875;-0.027982669;0.16656771;-0.074839264;0.00075346016;0.074715845;0.173128;0.19983472;-0.04280828;-0.1023831;0.39391625;0.0813597;-0.09429202;0.05000361;0.113129325;-0.19296513;-0.1848304;-0.18603382;0.11936424;0.022004796;-0.14345855;-0.1389724;0.17077751;-0.076319516;-0.13038824;-0.06416338;0.37046134;0.16910732;0.007006542;0.15537821;0.3082494;0.2654104;-0.03920893;0.0016495325;0.076037824;0.044778056;0.11860227;-0.094466895;0.23779121;0.10125602;0.05375083;-0.3967485;0.15208279;-0.4202006;-0.28467652;-0.18949537;0.05497613;-0.09743747;0.07823837;0.01355167;-0.24853888;-0.037944406;0.28972584;-0.028867438;-0.12620796;-0.18095818;0.1588692;-0.40925306;-0.09288043;0.19309115;-0.15680186;-0.12585112;-0.08576959;-0.07408027;0.0069336337;0.016536864;0.111764945;-0.16067687;0.21775496;0.0014637402;-0.111528076;-0.11544341;-0.1292872;-0.07481428;0.17867659;0.11632151;-0.11395248;0.048133366;0.046939436;-0.34531605;-0.07790211;-0.008926625;0.14231247;-0.015243568;-0.32202342;-0.1564995;0.17732063;-0.107940264;-0.141918;-0.14793028;0.12546156;-0.48043644;-0.07772482;0.33939493;0.15531868;0.060479943;-0.24409655;-0.2483037;0.08844692;-0.008262596;0.036589455;-0.031059934;-0.006125295;0.09708544;0.20248817;0.025417332;-0.09983894;0.18540904;0.06942286;0.30240402;0.20161007;0.083125;-0.23635887;-0.06831709;-0.19359758;0.041374955;0.400945;-0.05000648;0.030122593;0.15669002;0.076229855;-0.09843043;0.03176424;-0.1618667;0.24931104;-0.26349822;-0.08631743;-0.10007801;-0.010405918;-0.08153859;-0.043366008;0.1486615;0.10789229;-0.1761277;-0.18565625;0.05077602;-0.10556989;0.15920192;-0.048173573;-0.021736994;-0.02232852;-0.31624815;0.37489936;0.027503835;0.256559;-0.2617514;-0.06908679;-0.12861802;-0.07106615;-0.034061734;-0.0063904743;-0.18734378;-0.15420704;0.09529127;0.10330431;0.0008916882;0.029492533;0.17327128;0.04832956;0.1891243;0.08267207;-0.13809058;0.046879552;0.15691975;0.24265726;0.006942519
-0.07707661;0.082830854;-0.16118647;-0.16280672;-0.015794404;-0.13596186;0.05164712;0.08633692;-0.0880437;0.03254538;-0.063399024;0.08233761;0.08135501;-0.067187496;0.1313662;-0.04436476;0.16586721;0.12427467;0.37418833;-0.20007211;0.199108;0.40634277;-0.05130013;0.076134525;-0.34573543;0.1545929;0.122563995;-0.079396926;0.32543814;0.2587968;-0.2795383;-0.021720095;-0.0425119;-0.03330207;0.3218845;0.17706802;0.46846208;-0.028682249;0.07614163;-0.22044809;0.068369;0.13242745;-0.00410967;0.07651068;-0.09325852;0.07914533;0.0024788282;0.23573121;0.16316985;0.097190194;0.3389475;0.14454262;0.09525542;0.28208756;0.0026763987;-0.057585932;0.010889115;-0.20716125;0.008443655;-0.11697021;-0.16870674;0.18052864;-0.31860363;0.2589326;0.03897603;0.057709895;0.08113532;-0.13058129;0.04655177;-0.09499629;-0.106666476;-0.09776687;-0.27600607;0.11345204;-0.08548708;0.03945444;-0.27963108;-0.16705212;-0.14837436;0.07685102;0.23784778;0.13133511;0.21361978;0.34668243;0.36147356;0.19906558;0.11247936;0.07223221;-0.06116374;-0.14523001;0.048421625;0.045724757;0.08043546;0.084390864;0.16896315;-0.14291197;0.20740537;-0.03523672;0.116235234;0.24415751;-0.00440694;0.24000894;0.12092753;-0.26339492;-0.11756099;0.106730364;0.10197145;-0.010508929;0.117769;-0.1905465;0.05218487;-0.03599986;0.35671484;-0.18337066;0.2186089;-0.1379956;0.048927356;0.10116461;-0.2542593;-0.089572586;-0.37603688;-0.03136762;0.27434292;-0.03963938;-0.074848786;0.11157435;0.22510335;-0.09029992;-0.03429664;-0.056995936;0.40001023;-0.13657838;-0.02833092;-0.1737088;0.035224393;-0.32065544;0.02422661;0.18812238;0.20043352;0.019412545;0.2500207;-0.23518062;0.30074626;-0.28607526;0.27598804;-0.34531853;-0.2040207;-0.24485867;-0.051500656;0.017748408;0.14197068;0.3352351;0.016357293;0.028799467;0.22483398;0.029123658;-0.15795206;0.059552435;0.16313037;0.08878525;-0.0021362316;-0.1767434;0.21852036;0.16029459;0.033948302;0.0730424;-0.015695026;-0.030043358;-0.16116068;0.1313711;0.16306813;0.05943358;-0.19890465;-0.07118744;0.066659115;-0.1660771;-0.13646306;-0.033732053;0.23798783;0.30939955;0.113670625;0.08899201;0.27273577;-0.1790888;-0.1234648;-0.029688869;0.08430707;0.038385227;0.06596643;0.13940705;0.025459645;0.09961598;0.10256271;-0.1340022;0.083617315;-0.1070676;0.124694966;0.17818947;-0.2593563;-0.16283683;-0.07024171;0.21471944;-0.04580575;0.05926847;-0.08677822;-0.029995369;-0.30279395;-0.04297851;-0.03435544;-0.07738348;0.08957787;0.040990885;0.16559389;-0.07020808;0.1586435;-0.008318721;0.07819051;0.010118807;-0.069795765;-0.20911533;0.031611275;0.2145162;0.14423963;0.24047586;0.15568572;0.31126153;-0.3517289;0.027538499;-0.1643127;-0.30207258;-0.3039975;-0.21467169;0.1813762;-0.21392609;-0.3437098;-0.3188589;0.12541513;-0.05654153;-0.059359927;-0.051067553;0.1839002;-0.15301996;0.22325046;0.19849345;0.2564594;-0.15985724;0.1460241;-0.011761648;-0.31617555;-0.31059378;-0.08582622;0.04736102;0.20181626;0.05235539;0.24032465;-0.11613173;0.09219586;0.22279291;0.08635066;0.008238798;-0.09422841;0.13948466;0.21798055;0.117679164;-0.17494613;0.029644342;-0.40077722;-0.0646082;0.084761396;0.15481687;-0.048672426;0.05718246;-0.052646976;0.096059725;0.02885647;-0.09967798;0.14373094;0.093770415;0.07085018;-0.20950775;-0.26378328;-0.067242146;-0.0885241;0.09615651;0.2339965;-0.26504853;0.15759358;0.25764704;-0.13915758;0.16898826;0.024092482;0.19530688;-0.061124083;-0.17114256;-0.14241682;0.12816724;-0.014370664;0.08662905;-0.04209391;-0.18009809;0.05348743;0.33586466;0.02128145;-0.010139391;-0.029818296;-0.03579718;0.24912122;-0.12280425;-0.046447016;0.019399494;-0.04553733;-0.40254346;-0.064391755;0.0546825;-0.0950604;0.11275335;0.13565816;0.12819858;0.010852098;-0.40757334;-0.0585779;0.0052334513;-0.0020895281;-0.020839637;-0.1731944;0.3034423;0.43687975;0.036002908;0.21116285;-0.0035784543;0.029543541;0.2753778;0.019997979;0.23625216;-0.5404726;0.115384534;-0.022840817;-0.09921415;0.045215473;0.20333858;-0.16203208;-0.16348578;-0.020390756;-0.25712267;-0.1750502;-0.273207;0.14816442;0.15435842;0.2346022;0.12929149;-0.18723027;-0.018938743;0.13132846;-0.104194194;0.25852773;0.10524429;-0.057374723;-0.18829659;0.17075658;-0.051684182;-0.22514682;-0.18965195;0.1745761;-0.18986489;0.027301876;-0.18911283;-0.0008810844;0.25123423;-0.17926107;0.045997705;-0.15673497;0.21944669;0.02872524;0.19993532;0.098719224;-0.25796133;0.08246665;0.36417592;-0.13758601;0.037443254;0.27201405;0.14341941;-0.1459914;0.32688683;0.33025217;0.32882348;0.18541189;-0.24497357;-0.0027140267;0.094148815;-0.06763988;-0.027769292;-0.3118786;-0.7012723;-0.044894207;0.12687579;0.32816854;-0.09177399;-0.0076249056;-0.009292335;-0.29311085;-0.04199386;0.2045097;0.082097486;0.17478651;-0.21544808;0.11900347;-0.029752422;0.06373312;0.0464386;-0.16913378;0.13653213;0.30520368;-0.38717845;0.21027279;0.1289653;0.26227078;0.33652136;-0.09201047;-0.15197267;0.10406218;0.19256622;0.08282391;0.07608153;0.09895606;-0.12856035;-0.22823603;-0.0683132;0.05432842;0.20191678;0.030852176;-0.15625031;0.2063518;0.113692895;0.10198685;-0.23647882;0.089304775;0.16533735;-0.1289648;0.036656067;-0.111893594;0.17447156;-0.026328694;-0.0033810006;0.27074453;0.11598665;0.24519192;-0.006424015;0.1307597;0.03444525;0.23043783;-0.35988006;0.037074853;-0.46376508;-0.20395145;0.2095993;0.014394006;0.036174063;0.1735564;-0.09821196;-0.19852208;-0.07347393;0.25043732;-0.2166873;-0.023635242;-0.32839206;-0.053589575;0.08803659;0.12049074;0.2229351;-0.04809963;-0.13740616;-0.20780653;0.090183064;0.12886816;0.17600042;0.29205802;-0.057211533;-0.03622915;-0.032472756;0.025434937;-0.013880318;-0.18059146;-0.034433037;0.021436745;-0.112756506;-0.141989;0.099394575;-0.13412794;-0.25640205;0.045124713;0.13167682;0.032999583;0.07377715;-0.11606859;-0.10211041;0.16140273;-0.09640886;-0.14411856;-0.07395157;0.11420964;-0.5414919;-0.093676426;0.23383005;0.06067315;0.16972972;-0.17283873;-0.02229364;0.019564284;-0.32613745;0.236948;0.021699345;-0.059038203;0.12836075;0.21484798;-0.12480182;0.067117125;0.032649588;-0.026087476;0.22329961;0.1948135;0.10914019;-0.016888943;-0.26629668;0.063414715;0.08778312;0.33417076;-0.25721833;0.10122848;0.14661154;0.2436983;-0.061642434;0.07035405;0.262789;0.3827055;-0.19949374;-0.21688734;0.07293375;-0.032993294;-0.031319167;-0.13100934;0.021883478;0.012235524;0.29421327;-0.057529844;-0.119429074;-0.19249293;-0.03170678;0.019142594;-0.0040724347;-0.27830094;0.20241244;0.009534315;-0.034284156;0.089597724;0.0022724902;-0.28853694;0.07556709;0.11282214;0.093426906;0.01638044;-0.4234555;-0.09906087;-0.030038841;0.08464157;0.07853069;0.093700215;0.14719002;-0.06743376;-0.13338679;0.10123216;-0.05530464;-0.17329487;0.25761843;0.07261611;0.13245775
-0.31810072;0.23043838;-0.044301465;-0.040411387;-0.014647083;-0.13902524;0.07163782;0.26069635;-0.07448445;0.02238647;-0.32953057;0.09200635;-0.039129574;-0.04719817;0.08949272;0.1360562;-0.06974842;0.20692062;0.43082753;-0.0035288904;0.114769444;0.20748973;0.24294066;-0.19787143;-0.48688713;0.12922964;0.19941725;0.08770819;0.19803593;0.21819769;0.098105416;-0.13187794;0.03604099;0.1684315;0.072041474;0.051914494;0.15580814;-0.09651288;-0.1189234;-0.06590121;-0.20826398;-0.04160262;0.27766368;0.1387677;-0.17249794;-0.05919212;-0.11969687;0.24369381;-0.028273834;0.19579083;0.33371362;0.18883151;0.044889037;0.095726684;0.16167997;-0.07333871;0.16196403;0.2640789;0.058434136;-0.27677336;-0.055616602;0.27302533;-0.6028202;0.04163948;0.008322664;-0.2807797;-0.13425513;0.069255285;0.028362874;0.059861474;-0.21529193;-0.10807336;-0.07375778;0.08430227;-0.39423957;-0.16144396;-0.40101075;-0.24950217;-0.12062281;0.17801967;0.07964767;0.23777376;0.10917495;0.25360766;0.15585181;0.1260445;-0.029904542;0.063937485;-0.07981126;-0.14088227;-0.025591785;-0.047695715;0.08926537;0.11970831;0.06570114;0.08113976;0.01653969;0.31802332;-0.01704587;0.022175554;0.19644266;0.54507047;0.023027427;-0.011300527;-0.16179891;0.17766428;-0.014860751;0.16162893;-0.05668135;-0.02231071;-0.1552474;0.15722117;0.114508905;-0.31306553;0.2366544;0.11480479;-0.03612054;0.2630884;0.11959327;0.07322301;-0.13208231;0.03614502;0.068928465;0.00032923958;0.1866487;0.03936938;0.42436823;-0.0032552786;-0.01740672;-0.101768985;0.25765315;-0.13908498;-0.17050359;-0.30723578;0.020233175;-0.043611545;0.15814415;-0.10270873;0.0018361289;-0.042175654;0.18078884;-0.24988523;0.19193743;-0.48916626;0.20546396;-0.13889693;-0.07448984;-0.26403907;-0.23750803;-0.02058613;-0.07613675;0.11434382;0.25754702;0.16548191;0.113571376;0.2393625;0.15608235;0.07425239;0.026945785;0.072817855;-0.025478022;-0.03115299;0.29977235;0.073209666;-0.023783492;0.012275599;0.109551094;-0.077529445;-0.35356247;-0.0016913858;-0.1836822;0.07928933;-0.042341247;0.011900596;-0.14902897;-0.16767381;0.002893208;0.18634081;0.17583777;0.33462697;0.023211822;0.009487618;0.30797538;-0.119103506;-0.00907013;-0.020669835;0.05977217;0.02468915;-0.16016605;0.061098132;0.22976688;-0.3642331;-0.12390783;0.122913435;0.08605304;-0.20022698;-0.24906838;0.0001022369;-0.3439743;-0.19590884;0.05729101;0.30401337;-0.29580188;-0.10577263;0.05219854;-0.21050763;0.09124325;-0.00799975;-0.07732624;-0.12103443;-0.08266771;0.16313744;0.13982068;-0.1538382;-0.056021977;-0.09514832;0.05495851;0.17472716;0.16553451;-0.11803202;-0.007475854;-0.011983865;0.12528738;0.21718027;0.018126613;-0.1437911;-0.090115674;0.13557288;-0.05703644;-0.34303194;-0.12134341;-0.15349874;0.20120169;-0.20857377;-0.41427502;-0.1396473;0.051884037;0.035271786;0.026657159;-0.00679673;0.088116504;-0.13004704;0.12874548;0.042424098;0.29488504;0.06208056;-0.23471983;0.03147481;-0.05739766;-0.19770496;-0.16212244;0.041580457;0.12930559;-0.21747015;0.1050618;-0.121102765;-0.043477073;0.23973015;0.17957358;0.14989309;-0.15810464;-0.28333354;0.29109722;0.16626967;-0.06311828;0.09113459;-0.2545134;-0.17540814;0.10912982;-0.001795412;-0.11056595;0.07941712;-0.3432307;0.115617484;-0.09849536;-0.26821655;0.2760292;-0.08514757;-0.10919936;0.06123622;-0.114858806;-0.08518414;-0.045485687;0.27038023;0.016731804;-0.15435104;0.11278865;0.13687679;-0.14090386;0.05359667;0.21660434;0.2589506;-0.07039776;-0.31051376;-0.026289625;-0.04647188;-0.33849314;-0.005392794;0.05133938;0.10237612;0.11356318;0.22048761;-0.10912709;-0.021614583;-0.4161127;-0.076461926;0.29055753;-0.064281486;-0.080496356;-0.058052022;0.092693605;-0.2663912;-0.01146793;-0.12891096;-0.03183378;0.15109864;-0.094225764;-0.11145194;0.22861537;-0.0016751895;-0.05684822;-0.05269058;-0.04079178;0.016245697;-0.15673296;-0.120765604;0.44613457;0.118220784;0.22277144;-0.2774877;-0.11793331;0.2719334;-0.052459404;0.040243063;-0.34742332;-0.008879623;-0.025008082;-0.027613904;-0.052751265;0.15410616;-0.020224486;-0.030817164;-0.30823788;-0.37887016;-0.026527246;-0.0950095;0.14538692;0.18128514;0.10752926;0.1128844;-0.32624358;-0.10886196;0.082798675;-0.22594996;0.037650615;0.22260207;0.07836321;-0.023711672;-0.042766802;0.11183671;-0.035290536;-0.1758627;0.005523039;-0.34841388;0.024088861;0.14085403;0.039977465;0.08477196;-0.19715828;-0.035849012;-0.10689662;0.18803412;0.40467516;-0.023093477;0.08295732;-0.29848668;0.08557555;0.45476285;-0.23806088;0.13345297;0.21523188;0.24671718;-0.22087987;0.4318862;0.15272161;0.27451327;0.10868057;0.14334607;0.16520438;0.18694331;-0.0065346416;-0.14922951;0.065180324;-0.2536286;0.00054331066;-0.014471359;0.061821513;0.101630494;-0.119620666;0.2428017;-0.026602212;0.13843404;0.08101727;-0.033677123;0.095385924;-0.00059590477;-0.075990856;-0.24171822;0.0065309308;0.13542223;0.006167082;0.24008973;0.07428973;-0.38055965;0.14358744;0.10063467;-0.105788454;-0.038800858;0.019651411;0.027389472;0.037508592;0.23194775;-0.2058337;-0.045774437;0.17277592;-0.025039962;-0.25339642;0.0012546768;-0.02900538;0.17804724;-0.488919;-0.11542393;0.28744817;0.094830826;0.06411698;0.032849386;0.010167408;-0.09960984;0.12348307;-0.09173863;0.24121127;-0.074235365;-0.008110072;0.056597166;0.13854724;-0.18765958;0.21696638;-0.002872888;0.3035181;-0.08021333;0.4342828;-0.52342546;-0.14449619;-0.59356016;-0.28491068;0.16172962;0.17451322;0.065065585;0.26153767;0.35049686;-0.15784977;-0.15599489;0.19517164;-0.0943929;-0.25470495;-0.19160195;0.08647484;0.020709455;-0.12963465;0.3723236;0.028311634;-0.05701152;-0.007822141;0.22605777;0.03725081;-0.018476995;0.21799019;-0.05122081;0.08418353;-0.006710752;-0.11762435;0.08788129;-0.16358478;0.12563428;-0.07469322;-0.12361021;0.023941597;-0.022740351;-0.1056065;-0.28891695;0.20057021;-0.05723958;-0.18971984;0.1800943;0.14768921;0.037275676;-0.033180334;-0.017063595;-0.018204411;0.1813034;-0.18088545;-0.526322;0.14544079;0.35886523;-0.03303334;0.17016156;-0.13993452;0.22459996;0.094954774;-0.11636801;0.21080816;-0.015455802;-0.08357034;0.2251557;0.19216701;-0.16551597;0.07118401;0.16723397;0.025744285;0.31127068;0.21874218;-0.29417613;-0.18699321;-0.28793222;0.044353236;-0.07047442;0.14932436;-0.107810214;0.08452248;0.25835532;-0.13740201;0.03893888;0.0826528;0.18317081;-0.048659127;-0.07139729;-0.240177;0.24128789;0.014443002;-0.035800576;0.056794308;0.013554848;-0.06011436;0.18706845;0.09405457;-0.18581831;-0.07424752;-0.010040401;0.13902217;-0.21207239;-0.09470828;0.13408256;0.10903232;0.059586834;0.0251702;-0.23614119;-0.49755585;0.079875454;-0.08276935;-0.2374469;-0.19846223;-0.31950733;0.12317715;0.15164185;0.049844485;0.14612265;0.09921331;0.065611266;-0.08449537;0.019915102;-0.03186526;-0.040832818;-0.042766817;0.3312346;0.16446672;0.10664052
-0.33601004;-0.03075787;-0.042813264;-0.1318806;0.14216137;-0.082389355;-0.09831962;0.06379423;-0.05242938;-0.119084254;-0.09722053;0.037626717;-0.14072303;0.045118295;-0.30841288;0.13440742;0.058364566;0.31204787;0.31405273;0.0058088466;0.105023995;0.4236295;-0.04436193;-0.2097831;-0.3770314;0.13896143;0.12123173;0.047576696;0.39959255;0.12906502;0.16409132;-0.14848399;0.003520842;0.18916836;-0.17450649;-0.08029041;0.025656372;0.09338355;-0.11439093;-0.073211655;-0.07021883;0.056778174;0.30420712;0.15458852;0.055045377;-0.16884296;0.08786272;0.11673497;-0.0035830773;0.049392067;0.03918867;-0.028650621;-0.14807169;0.101213425;0.2051376;-0.041336704;0.39828485;0.20154324;-0.022205353;-0.39379302;-0.028765254;0.2497369;-0.3281372;-0.02323648;-0.116848245;-0.25671163;0.07109578;0.09762386;0.15629658;0.10235614;-0.1301139;-0.12472886;-0.0643037;0.0065082223;-0.48276362;-0.035301;-0.3260301;-0.25460917;-0.01637256;0.20097499;-0.06440665;0.049162548;-0.03836847;0.3507969;0.16379507;-0.0113901775;-0.033984546;0.21432355;-0.015189095;-0.041762624;-0.15547313;0.042751424;0.13376199;0.031180372;0.16099584;-0.0023522624;0.16939344;0.108684115;0.14674689;-0.007499295;0.19344667;0.1772299;-0.16700993;-0.07820535;-0.007743278;0.349414;0.10888268;-0.049569756;-0.049903292;0.20792061;0.18142541;-0.012148501;0.0960578;-0.25811148;0.29916352;-0.08782874;0.012863571;0.09208085;0.16398273;-0.20799969;0.28789294;-0.05875536;0.21635228;0.03536744;0.11388848;0.14711918;0.23905206;0.16791008;-0.16173162;-0.18107207;0.054026846;-0.104883134;-0.07581839;0.1101048;0.03484258;-0.2739716;0.040296987;-0.16630472;0.063116476;-0.058053214;0.010602616;-0.38625583;0.17888197;-0.2229081;0.2401038;-0.04342013;-0.28344434;-0.018497955;-0.09798424;0.2254369;-0.04963056;0.033263985;-0.097327985;0.07457826;0.033172067;0.041102465;0.011079386;0.31228784;-0.08209823;-0.028510356;0.06728473;-0.059837963;0.1621774;0.086606264;0.061019342;0.033511672;0.068717085;0.021385927;-0.28982982;0.14699988;0.22515488;-0.15275902;0.16254398;0.15857844;-0.11711212;-0.12767838;0.067436986;0.25190806;-0.017884443;-0.20598559;-0.118689135;0.072011195;0.04300018;0.09426259;0.11690632;0.10920749;0.02703634;0.0033617348;-0.028456334;0.16837755;0.2226298;-0.3897986;-0.23484422;0.3047002;0.0015488379;-0.0397016;0.111160286;0.07144386;-0.38714007;-0.1642594;-0.18194999;0.28148496;-0.017838424;-0.163923;0.027822256;0.007239503;0.10547008;0.16021658;0.12638667;-0.17893188;-0.104761034;0.13964906;-0.013423694;-0.055909444;0.01188437;0.25633028;0.011475016;0.1462447;0.03555481;-0.022847617;0.24416724;-0.33868703;0.09931467;-0.029610515;-0.25815633;-0.011612805;-0.08022505;0.27254406;-0.18429834;-0.020040752;-0.007140356;0.028126989;-0.17054611;0.011787536;-0.45758554;-0.0491979;-0.047199685;-0.1766457;0.1552966;0.034590386;0.14511354;-0.0011821024;0.12015716;-0.04855664;0.3030202;-0.20581394;-0.019685121;-0.07880167;-0.17365432;-0.09052756;-0.09844472;-0.029148003;0.070063636;-0.018714119;0.10077569;-0.07654227;-0.09739961;0.055549193;0.12319037;0.041637585;0.21601789;-0.18532883;0.18629567;0.31000227;-0.21470545;0.054947384;-0.29686412;-0.14030994;0.0064116553;-0.078762494;0.10722534;0.24965338;0.17301163;0.0789514;-0.2371197;-0.3194119;0.09912544;-0.24947459;-0.026420984;-0.09172855;-0.14055553;-0.09229175;-0.33689678;0.27201295;-0.23210686;-0.29969433;0.15279748;0.26850954;-0.035320714;0.08690037;0.084655285;0.16448776;-0.035188466;-0.34532028;-0.002373391;0.056426276;-0.19993757;0.18222193;0.12954046;0.053344134;0.043280914;0.28415003;-0.16225094;-0.11042522;-0.26485813;-0.041952092;-0.1379632;-0.07453698;-0.361108;-0.12198094;0.056372322;0.09673536;0.013451878;0.08016009;0.069723465;0.2530912;-0.18355279;0.12158968;0.21095054;-0.2998233;0.042334575;0.13290702;0.043537095;-0.06490158;-0.10344362;0.15302564;0.18893874;0.19003819;0.15618666;-0.40433097;-0.27308577;0.22510485;-0.09570054;0.17165044;0.06265255;0.18720992;-0.1880963;-0.20018226;0.12387793;0.16821902;-0.21427064;-0.11766306;-0.3315917;-0.009719798;0.23436564;0.06859717;0.2564081;0.25305983;0.17185885;-0.09789529;-0.3428608;-0.08480675;-0.030679224;0.023447264;0.15032016;-0.028951999;-0.008065898;0.32937384;-0.026935285;0.022448882;-0.18543254;-0.06278324;0.028375085;-0.289985;-0.07965563;0.04914964;0.04355733;0.25090823;-0.15592392;-0.15794991;-0.02933532;-0.015153713;0.21192752;-0.07933118;0.18909627;-0.5940597;0.051310647;0.4300082;0.20556043;-0.047778934;0.17103603;0.26670843;-0.13075164;0.38441858;-0.02965042;0.1901178;0.015090608;0.19933146;-0.014441453;0.032843348;-0.07115434;-0.09751311;0.07994562;-0.19525014;0.03136929;-0.0148839485;-0.117467836;-0.018600017;-0.14891848;0.016713321;-0.079585046;0.16718447;0.14991368;0.25169942;0.32728392;-0.15941416;0.12241543;-0.3675645;0.17272842;0.102372766;-0.007716734;0.3156695;0.017093474;-0.034358304;0.10042934;0.16323814;-0.19007514;0.28814888;-0.035364207;0.09538026;-0.12782794;0.029637696;0.025857523;0.06420149;0.15041551;-0.0946829;-0.07175919;0.14425442;-0.15507457;0.08215001;-0.56371367;-0.080906495;0.26295516;0.13383041;-0.0858118;0.042345326;-0.026900796;0.17227028;0.13683781;-0.17194791;-0.0795022;-0.041335464;-0.16721353;-0.19755808;-0.0010160321;-0.13504432;0.09750958;0.15219536;0.21356787;-0.043208674;0.3655532;-0.12548071;0.11823872;-0.8175235;-0.078659594;0.23391171;-0.13323362;0.30742317;0.3220385;0.025331931;0.16174327;0.07138871;0.06589644;-0.16867948;-0.12233131;-0.21704958;-0.1240089;0.013892661;-0.0435858;0.10864975;0.079694286;0.042947415;-0.047357474;0.14462164;-0.14102787;-0.006724958;0.14051157;-0.075191215;0.121101215;0.14743105;-0.019111378;0.2831134;-0.029809894;-0.1584866;-0.19036336;-0.080270834;0.025579354;-0.114950396;-0.17963202;-0.063667364;0.0043650167;0.117194384;0.071864866;-0.09734286;-0.0655297;-0.18096815;0.028705683;-0.0048236377;-0.25182882;0.04621926;-0.16779613;-0.2026593;-0.0014693319;0.10625651;-0.071578935;-0.20967062;0.0032704975;-0.27715206;0.07131301;0.12722366;0.27873805;-0.04749349;-0.3087359;0.29366422;0.10570318;0.11896788;0.115279995;0.2154548;0.090644605;0.23511496;0.29794407;-0.30869663;-0.09023176;-0.25811478;0.0057036253;-0.067236416;-0.06296486;-0.013669972;0.18026637;0.08866525;-0.10046361;0.1721465;0.097937495;-0.09105295;0.026797092;-0.23310955;-0.12691545;0.13501295;-0.055650037;0.11622661;0.14246789;0.047681157;0.07981617;0.16149475;0.1465549;-0.23435272;-0.0665672;-0.23232642;0.063740626;-0.22334874;-0.1668066;0.112317175;0.117462486;-0.09655158;-0.18986699;-0.053433932;-0.09813415;-0.16958228;-0.057512198;0.06979529;-0.20696595;-0.2521931;-0.01129115;-0.0703617;-0.26619557;0.40681416;0.057881307;0.14199135;-0.014687128;0.045670114;0.16288516;-0.029354602;-0.00770699;0.20613025;0.054052785;0.06318555
-0.1498674;0.42701438;0.04218362;0.06025441;0.06576538;-0.052017394;0.03686993;0.13768415;0.02626838;-0.0982091;-0.24789917;0.047288653;0.0974601;-0.041295428;-0.2895347;0.19482121;0.06038972;0.102407716;0.090677634;0.067305975;0.14006206;0.07362374;-0.21120004;-0.24957046;-0.2367367;-0.17032187;-0.0780653;0.32341677;0.21914399;0.19947852;0.061408643;0.0010820938;-0.035803296;0.029215982;-0.08427082;-0.035880104;0.23338413;0.051023602;-0.17247136;0.027966214;-0.14108145;0.07176405;-0.009729797;-0.11874249;0.15376124;-0.30910954;0.017138544;0.12316715;0.06925072;0.084924236;0.22462897;0.016094899;-0.12158521;-0.07211201;0.23195705;-0.10484544;0.52442956;0.04446685;-0.034782264;-0.2372248;0.027916951;0.2159;-0.48251873;0.034957983;0.1225534;-0.08732148;-0.23893435;0.25546104;0.06333875;-0.04825771;-0.17937042;-0.027284365;0.010530941;0.21868554;-0.14524128;0.15771654;-0.1415273;-0.0044074734;0.04086069;0.25988215;0.027593078;0.07245284;0.019969221;0.2792114;-0.028630288;-0.0013647487;0.06513334;0.16520229;-0.15570998;0.12966967;-0.120313436;0.06765947;-0.00352419;-0.020248197;0.08270518;0.31834373;0.07914061;0.19249098;0.3510604;0.06069672;-0.16620861;-0.005445497;0.080942586;-0.13592912;-0.15450993;0.36724478;0.19818419;0.057666436;-0.07405117;-0.067149855;0.09865032;-0.3267923;-0.06603001;0.17060581;0.36412197;-0.14049841;0.033757042;-0.02246177;-0.29781502;0.00053669274;0.5423837;0.05103202;0.000629638;0.0031517625;-0.037426658;-0.00078164804;0.04413523;0.26626605;-0.034299254;0.16518512;0.03359531;-0.11008077;0.10423767;-0.13160706;0.26609096;-0.056210686;-0.10469896;0.2211915;-0.12178157;-0.16312942;-0.2616473;-0.47474578;-0.07837687;-0.48205674;0.0029177766;0.031846467;-0.32951453;0.3986629;0.0012269143;0.40029594;0.27415505;0.06603051;-0.06831997;0.3701985;0.3223051;0.07021771;-0.09842683;0.32581636;-0.11787523;-0.12821846;0.0457771;-0.028450055;0.108217694;-0.15602559;-0.0057192557;0.072203584;-0.10056929;-0.08237764;0.12300399;0.18668038;0.27461287;-0.32758868;-0.0036644656;-0.1345515;-0.035872947;-0.25798467;0.14753836;0.39946228;0.08756073;-0.16542967;-0.11371211;-0.2725973;0.13261698;0.09499538;0.0059149005;0.124532185;-0.085639946;-0.3066765;0.12315858;0.17972724;-0.07919021;-0.55935055;-0.0822294;0.08470637;0.116662;0.08012248;0.07311982;0.08765635;-0.05793405;-0.043214656;0.021090347;0.1359316;-0.191553;-0.2995629;0.07222981;0.07801862;0.031471044;-0.4245974;-0.016468247;-0.037228107;0.13259943;0.155008;0.19138134;-0.035197277;0.10925907;0.16141996;0.033108354;-0.004433684;0.32703677;0.24058387;0.1574293;-0.5227094;0.15876563;0.18678659;-0.12698463;-0.11028729;0.032323644;0.24442826;0.041526493;-0.08332065;0.00093106565;-0.12204221;-0.08578311;0.06334188;0.120032325;-0.04806217;-0.06680811;-0.057286344;0.057699233;0.11995375;0.20429872;0.15626064;0.10070316;-0.017427197;0.20802782;-0.086730935;-0.10370037;0.026124261;0.19448665;-0.32341284;-0.24932723;-0.055597544;-0.05757379;-0.06558905;0.10932109;-0.08792923;-0.039683923;0.028678881;0.0858828;0.16160262;-0.15769994;-0.20888272;-0.23772869;0.25446087;-0.2853305;-0.13625562;-0.31073576;0.019283066;-0.0976999;-0.0038631395;-0.12951352;-0.16325314;0.13351697;0.18245114;-0.110851675;-0.24115407;0.020395374;-0.35086963;-0.1287089;0.11631252;0.041630384;0.054424047;-0.43434793;0.1092961;-0.18989265;-0.1423724;-0.06713776;0.15199883;0.027105847;0.025047835;0.050458755;0.019507188;-0.15250222;-0.21078761;0.3034063;0.038077094;-0.45379165;0.17699368;-0.008601825;0.14314799;0.015998097;0.2612363;-0.13688;0.3327386;-0.32103896;-0.03778572;-0.17014608;-0.12334337;-0.24999377;0.004346917;0.36483833;-0.14798416;-0.06787597;-0.029442599;0.05748692;0.04660229;-0.15720904;0.273332;0.1688044;-0.20065594;0.21384734;0.020611852;0.005417955;-0.07849064;-0.053459328;-0.1828691;0.029667005;-0.24739009;-0.16195168;-0.37439182;-0.29317576;0.2594778;0.08169487;-0.14356165;-0.17575844;-0.24002418;-0.24248412;0.0024024262;-0.23240317;0.35535806;-0.26603925;0.104913265;-0.40336812;-0.12605198;0.11296998;-0.36998194;0.06537767;0.01505724;-0.017585512;-0.033070587;-0.33445325;-0.18631837;-0.026713343;0.007537123;0.0059720175;-0.0071831443;0.021135615;0.2922767;-0.14833969;-0.044137217;-0.21088935;-0.029972188;0.24944875;-0.4165008;-0.06788997;0.115314335;0.31846356;0.13977343;-0.25574243;-0.17497721;0.018393949;0.053061772;0.165348;-0.0019481485;0.16198859;-0.1709605;0.12625326;0.4149747;0.18062305;0.056192897;0.26567054;0.45058554;-0.0401018;0.0772316;0.45419005;-0.14842221;-0.020180153;0.0066752555;0.22224729;0.044042774;-0.003435999;-0.0240288;0.06906388;0.013084738;-0.1733488;0.0926603;0.04178325;-0.19750267;-0.15154378;-0.04867204;0.07826232;0.089801505;0.17214043;-0.05832321;-0.027843175;-0.20598736;0.0039068805;-0.07008094;0.31070182;0.55902976;0.10783393;0.0334986;0.24870051;-0.11461561;0.055845745;0.27837488;0.040771883;0.05617677;-0.024715897;0.13773555;0.23344426;0.12703452;0.04928797;-0.0074548777;0.0075153187;-0.03628641;0.028287556;-0.0001878365;-0.5423767;0.16406329;-0.38106441;0.018788353;0.39131764;0.10586518;-0.25470936;-0.15820497;-0.2013322;0.12286493;0.0058268877;-0.018264592;-0.15560877;0.007992896;0.117554;-0.14716186;-0.10471603;-0.07368707;0.012165143;0.1308421;0.3073694;0.019269504;-0.05774225;0.017769624;0.02050401;-0.54595613;-0.16681463;-0.18535604;-0.01663097;0.26582447;-0.14189735;0.2688376;0.00086253823;-0.17587322;0.27586773;-0.2464043;0.16079524;-0.16629669;0.048679963;-0.0026462625;0.009195323;0.3192679;0.057076402;0.25375473;-0.061108973;0.07071224;-0.06671848;-0.14164165;0.23102272;0.030020041;0.20219694;0.0016884417;0.052964557;-0.17823744;-0.106548004;-0.0459731;-0.34581393;-0.07668376;-0.03195688;-0.0872334;-0.18282312;0.042407766;-0.17463286;0.07944899;0.20374264;-0.046825603;-0.05172344;-0.19752051;0.30391005;0.23103294;0.0395069;0.033852354;-0.34291756;-0.2682135;-0.09799411;0.19704847;-0.09211315;0.4463758;0.17429034;-0.1908626;0.11525831;-0.14008299;0.23359108;-0.066405185;-0.09080602;-0.04280721;0.02761303;0.09334793;0.36227813;0.13296278;-0.05866161;0.074927256;0.19023333;-0.07375607;-0.08512646;0.09155345;-0.10357615;0.111495055;-0.051522683;-0.10517838;0.07197503;0.10758458;-0.20616734;0.2127908;-0.15935574;-0.24475005;-0.2508255;0.12114497;-0.17365335;0.23173529;0.22993179;0.057785124;0.07043512;0.14342184;-0.058650285;0.15441066;-0.010607039;-0.42547423;0.10673411;-0.10942828;0.046284195;-0.35496774;-0.15915558;0.24888797;-0.16465032;-0.060918044;-0.33460313;-0.09278482;0.22167264;0.058257964;-0.13907312;0.11736505;-0.25495085;-0.238478;0.047144055;-0.1003352;-0.29344034;0.3145364;0.11269426;-0.032170475;-0.07567731;0.13938132;0.26042604;-0.27907747;-0.0421633;-0.037403952;0.16856748;0.05255062
0.01937053;0.33130404;0.095186315;0.122502916;0.031148037;0.03845752;-0.078556746;-0.0027406649;0.06945815;0.011077016;-0.3508575;0.021954434;-0.19302127;-0.098085836;-0.26544026;0.2626436;-0.015965363;-0.13454972;0.092743605;0.08159671;-0.114333816;0.016407762;0.13518155;0.020078285;-0.33599037;-0.16958876;-0.069205105;0.22916852;0.18910255;0.28031126;0.024436263;0.23757526;0.05641582;0.034341935;0.05317153;0.05919824;-0.07635186;-0.11714192;-0.087786146;0.3758852;-0.10680872;0.23642264;-0.057455864;-0.14471811;-0.025098985;-0.07850311;0.07874112;0.101761885;0.18792792;-0.20977953;0.22930776;0.016235704;-0.4129917;-0.005424925;-0.13998565;-0.18100724;0.033087622;0.15590681;0.12034353;-0.31883088;0.08440438;0.27350956;-0.29137614;0.021026082;0.046356875;0.27104494;-0.08435952;0.13438272;0.10371027;-0.16187602;0.24754633;-0.050928798;-0.15954003;0.090380944;0.11163244;0.20160326;0.086356364;0.05123252;-0.17855655;0.11008845;0.0441127;-0.23113972;0.11377008;0.33113962;0.1568988;0.07940462;-0.017416883;0.20065708;-0.10130193;0.19495372;0.015545537;0.022747904;0.0468047;0.11569933;-0.14276834;0.20836402;0.33677465;-0.16454814;0.6000529;-0.004491991;-0.010952295;-0.16595083;0.29855475;-0.35626632;-0.24068692;-0.02686557;0.19319724;-0.08548968;-0.2633712;-0.07523313;0.2384148;-0.133109;0.014955634;0.44111595;0.10253684;-0.09541465;0.07707358;0.30746374;-0.13057725;0.105704255;0.39640364;0.11033249;0.04210019;-0.02417733;-0.04262085;0.038287647;-0.13704108;0.26325837;0.19642127;-0.06249834;-0.13788417;0.085019715;-0.058248363;0.11627368;0.23331851;0.08197652;-0.097138464;0.06983865;0.120732166;-0.14966114;0.03924605;-0.88288516;-0.09914685;-0.298075;0.14057057;0.15357521;-0.50660646;0.20395869;-0.29605374;0.1888168;-0.014020241;0.2268893;-0.10385884;0.5319915;0.19226594;0.21052071;0.024106475;0.2571118;-0.07009741;-0.016021453;0.14569959;0.12459889;0.1426368;-0.20691627;0.005106024;0.27630675;-0.025068734;-0.06904343;0.13223417;0.29869837;0.25976562;-0.40478754;-0.007818915;-0.36989647;-0.068155356;-0.33023533;-0.13593456;0.021372704;0.041455675;-0.16806412;-0.123052575;-0.21600378;0.0069815395;0.124180466;0.1530959;0.3844157;-0.113976814;-0.14116961;-0.1737035;0.1601333;-0.11449098;-0.35581052;-0.2304903;-0.060574535;0.015018669;-0.2709393;0.043052148;-0.13732673;0.17584445;-0.041309975;0.094905704;0.21295896;0.015284052;-0.01950148;0.09918696;0.10658001;0.31601024;-0.3078829;-0.22087727;-0.26279864;-0.3314137;0.07302177;0.0074647134;-0.07968738;0.05530209;0.19403385;0.09665208;0.056509703;0.15122786;0.0554977;0.12331571;-0.38693976;0.07065176;0.0017555577;-0.33020273;0.094448015;0.36480224;0.15219383;-0.07638536;-0.02170638;0.14639115;-0.041199706;-0.1538225;0.11186245;-0.06956841;0.0024988605;-0.16841021;0.10177702;-0.097584024;-0.13750759;0.060203;0.07271861;0.2108124;-0.17439322;-0.062282518;-0.24374746;0.10353295;0.026232893;0.24638963;-0.038501773;-0.33341697;0.3044011;0.0064468686;0.045524295;0.15981905;0.005434384;-0.32128462;0.18006508;0.12553664;0.28043368;0.13599208;0.17726918;-0.24346142;0.30549005;-0.058189604;-0.058324844;-0.25769252;0.08018278;-0.2444445;0.12623733;0.019728532;0.17286927;0.22502317;0.41443136;-0.26056314;-0.035151854;0.08375592;-0.4865106;-0.014801584;-0.016369808;0.30102754;0.09596379;-0.12905064;-0.0057033673;-0.20027661;-0.14334556;-0.30097064;0.05675465;-0.046617564;0.03640937;0.008697409;0.13167472;0.045230195;-0.2914074;0.24081987;-0.008567345;0.18524542;0.08409082;0.052789655;-0.0293201;-0.021063942;0.11882498;-0.022542998;0.40934485;-0.065284505;0.11095595;-0.009192511;-0.13391845;-0.33813822;-0.14325815;0.44735515;-0.22560768;-0.02525488;0.12416479;0.17099817;0.08243198;-0.048422486;0.13700011;-0.006702411;-0.24183449;0.13086894;-0.11310974;0.161992;0.051665515;-0.1782671;-0.16683511;0.17553335;-0.26988173;-0.06032815;-0.47392875;-0.3646542;0.21679382;0.12364983;0.01205046;0.0044592903;-0.019033521;-0.305047;-0.22722718;-0.063590065;0.25740826;-0.26098248;0.008229567;-0.3936514;-0.23773512;0.30958062;-0.22775006;0.31574407;-0.056830585;0.043098066;0.095773354;-0.10485318;0.001733703;0.11834713;0.0037353414;0.30284965;0.2399036;0.06772457;0.2772606;0.07805142;0.054562375;-0.1456606;-0.3293898;0.22856483;0.08772556;-0.041648377;0.12226011;-0.032016583;0.06851325;-0.6226993;0.054708503;0.13189103;-0.081566855;0.26693508;-0.16582657;0.23926048;0.022955384;0.33410117;0.23837422;0.18394956;-0.057558652;0.21673235;0.37207234;-0.00019828952;0.15405782;0.26891482;-0.069806784;0.047345046;0.05993406;0.14703925;0.002834789;-0.003066671;0.014225964;0.08481068;-0.19515704;-0.16415204;0.18844113;-0.19859374;-0.10848296;0.041903798;0.13964103;-0.04734657;0.041850515;0.16829923;0.07085417;0.070890605;-0.25179902;0.07328152;-0.06204502;0.2911141;0.6482716;0.033441816;0.18558466;0.05879451;-0.046676625;0.24087177;0.09645989;-0.072375335;-0.055470932;-0.1194869;-0.12377355;0.29762092;0.3375078;0.2325135;0.10433881;0.033084217;-0.071548976;-0.18033302;0.26265448;-0.3570438;0.1060155;-0.1537095;-0.03643575;0.21204084;0.017185878;-0.111951046;0.0007079377;-0.102631286;0.05025586;-0.03487666;-0.13988012;-0.101284124;0.08824228;0.008617325;-0.087793924;0.06371355;-0.14823742;-0.0065405187;-0.017411107;-0.12396738;0.022458041;-0.19388512;0.052114885;0.049633026;-0.20367527;-0.0047901045;-0.26002207;-0.034383886;0.1329592;-0.13304187;0.22547208;0.016190527;0.0023835637;0.103261;-0.45816132;0.008882764;-0.04183194;-0.12836918;-0.046560407;-0.15994106;0.027754076;-0.08896644;0.27807575;0.10265115;-0.054770466;-0.20185106;-0.32215175;0.13575162;-0.01722586;-0.035658453;0.119503304;0.15721372;-0.102518216;-0.07539209;0.10554436;-0.059594307;0.22531192;-0.06414701;0.11555515;-0.12075461;0.03284306;-0.063630976;-0.07326234;0.62000954;-0.09272889;-0.09759788;-0.30415738;0.22895384;0.11462397;0.30708382;-0.017771535;-0.31299067;-0.1481063;-0.042964183;-0.081233546;0.07224115;0.09926581;0.26454037;-0.30670458;0.38941738;-0.16960017;0.055261016;-0.07340705;-0.08292803;0.102308;-0.18205479;0.08361118;0.08382072;0.2208245;-0.14445795;-0.025299778;0.12948766;-0.103487395;0.16816115;-0.0067429;-0.121676475;0.21150172;0.17992197;-0.053298227;0.030083563;0.28489468;-0.32371047;0.077633366;0.080862984;-0.14613402;-0.1423185;0.2741738;-0.29307225;0.13740961;-0.06855364;0.19258466;0.11144826;0.26988432;0.08762717;-0.040630355;-0.006737162;-0.2780106;-0.06113007;-0.0653866;0.11233796;-0.482607;-0.25447235;0.16000496;-0.017587883;0.062402915;-0.05888581;-0.10564398;0.17207706;-0.18840118;-0.10088662;0.22062646;-0.07794841;-0.13214041;0.018231908;0.12080651;-0.39801952;0.16587155;-0.017519293;-0.06594561;-0.03457828;0.028234083;-0.3480075;-0.21770279;-0.19571878;-0.31695217;0.020732658;-0.010915386
-0.20900157;0.1760692;-0.060495574;0.33557016;0.026821258;-0.1109023;0.10099476;-0.1603768;-0.06323607;-0.13285594;-0.4820181;0.10931502;-0.24303088;-0.13385157;-0.006412639;-0.01500429;-0.25029275;-0.14049813;-0.006877875;0.011119779;-0.10664159;0.19729543;-0.35834536;0.108870514;-0.44976816;-0.02538669;0.033128727;0.23237038;0.24252018;0.065304294;-0.07667435;0.10561796;0.04177084;-0.006587156;-0.09921786;-0.07655882;0.028796788;0.16913377;-0.1220187;0.094352216;0.08060059;0.124284156;-0.059252355;0.06783619;-0.083093315;-0.28343853;0.12808943;0.011862106;-0.106090024;-0.1367916;0.16462487;0.10216955;-0.34221295;0.113371864;0.004115144;-0.0005675434;0.06809188;0.5390114;-0.014191441;-0.36457336;0.07895467;0.2627506;-0.021403607;-0.12102052;0.24531035;0.11628719;-0.06989263;-0.09613754;0.11622363;-0.031880148;-0.020990755;0.04436876;0.10851802;-0.048909687;0.15629418;0.16665083;-0.20413919;-0.55127287;-0.1489569;-0.22419678;-0.038093783;-0.26650718;-0.11719388;0.33861047;0.12731735;0.09909823;0.14842588;0.21210769;-0.12454149;0.25705227;0.015224088;0.19319522;0.17667226;0.13680737;-0.05829358;0.05471394;0.35932872;-0.03691183;0.23976222;-0.037101503;-0.03988393;0.00075096125;0.18609366;-0.19527623;-0.068272084;0.06069508;-0.016704943;-0.10510852;-0.16170181;0.108835;0.066173166;0.06973839;0.0073969187;0.29854375;-0.0025376962;-0.14103508;-0.061664373;0.06783032;-0.017877292;0.18654051;0.12234054;-0.18073359;0.25500754;0.0057392046;0.021380587;0.33000436;0.09225539;-0.0070556854;-0.013335766;0.20237628;-0.09493729;0.026936129;0.17348681;0.14547046;0.085510954;-0.11856165;-0.04194738;0.0034420409;-0.012108233;-0.011269239;0.13746236;-0.49049634;0.042415664;-0.20563753;0.1551633;-0.08137626;-0.36025557;-0.030295549;-0.08077958;0.10803889;-0.13076028;0.33399257;-0.11795007;0.30142877;-0.22453682;-0.09701272;-0.04065486;0.19078834;-0.24105227;-0.030717302;-0.060177162;-0.018475916;-0.06424483;-0.10016506;-0.041273743;0.18574437;0.20734528;-0.08825227;0.034783088;0.254298;0.42345154;-0.103349924;-0.123777136;-0.06305141;-0.20763887;-0.13708706;-0.0582113;-0.19787279;-0.05939714;0.09034713;0.07732766;-0.054555032;0.012353854;0.13990393;0.17586721;0.15843683;-0.13819712;-0.14789818;0.006422499;-0.055107083;-0.07027073;-0.32141683;-0.12103019;0.38559675;0.11619071;-0.17699595;-0.04086056;-0.026080234;0.06474648;-0.009640099;-0.15847029;0.07906185;0.20977777;-0.14105684;0.26781863;-0.024632812;-0.056702595;-0.45052332;-0.14767078;-0.20330992;0.05460416;0.08403725;-0.053112995;-0.16986781;0.0051215207;0.066185206;0.21315339;-0.09225217;-0.380541;-0.0946019;0.14741096;-0.29244;-0.2416903;0.09469175;-0.24422614;-0.13392062;0.3275072;0.30672738;-0.04342538;0.11478344;0.29600468;0.093159035;-0.31128773;0.10511253;-0.1563763;0.08053154;-0.29341096;-0.0012745406;0.11412339;-0.2585361;0.08337484;0.14639881;0.17604631;0.049660802;0.058806453;-0.11859619;0.0947742;0.11889347;0.1193525;0.2338116;0.08248634;0.34768152;0.19940625;0.09173371;-0.018878946;-0.053758476;-0.26506543;0.10667178;0.15988281;0.17782496;0.041640285;-0.0838322;-0.2551219;0.24969675;-0.1642496;-0.13311741;-0.19852023;-0.19353431;-0.334359;0.026845535;-0.17916709;0.23371392;0.2558272;0.3748813;-0.2106507;-0.060446437;0.049868047;-0.3851404;0.12832838;-0.17714107;0.033583306;0.24037062;0.098274834;0.018388981;-0.3145167;-0.054845445;-0.23503646;-0.14812428;-0.12721585;0.3004266;0.20328519;0.10475213;-0.22872035;-0.10924839;0.039534662;0.12652639;0.27795312;-0.024503417;0.049677007;0.10001168;-0.008330844;0.2642279;-0.14689778;0.42704502;0.025207393;-0.1116453;0.09672854;-0.07485155;-0.15253295;-0.12635183;0.1052523;0.15961923;0.089564055;0.22466896;0.15679422;0.24304427;-0.10642365;0.16563052;-0.36816558;0.048298325;0.120270126;-0.23409678;-0.03823777;-0.0014574745;-0.004066168;-0.14193155;-0.090733945;-0.2580914;0.049014956;-0.416787;-0.4354565;0.112089306;0.090675384;0.09134551;0.18281272;0.11629289;-0.20844267;0.07384377;-0.2390086;0.18431786;0.023874853;0.017316528;0.015520006;0.03703712;-0.04086518;-0.20348306;0.22345033;-0.08622227;0.10195974;-0.37994993;-0.11638973;0.1410365;0.04837518;0.07284375;0.2114617;0.12239309;0.2162498;0.044479117;0.18434468;0.057999507;-0.028809268;0.17762408;0.037083633;0.11702963;0.08919915;0.093293704;-0.12606479;0.13094862;-0.31955716;-0.2963141;0.08200173;-0.051346596;0.0167642;-0.22906792;0.18034983;-0.25289702;0.011282;0.104192734;0.020254496;0.0896565;0.18166783;-0.21472524;-0.04018035;-0.009429162;0.023679467;-0.054079723;0.08827872;0.004003296;-0.04925488;-0.0600166;0.12802468;-0.031507783;0.03894199;-0.19403718;-0.16887505;0.105739415;-0.33601737;-0.30308023;0.14406195;0.35794526;0.09832463;-0.089093305;0.0038123634;0.03376769;-0.23246588;-0.22526085;0.23526265;-0.1352361;0.1611539;-0.042808235;0.15575506;0.1051355;0.015926553;-0.03888874;0.15717077;0.2962369;0.0075373463;-0.074599184;-0.0034953367;0.21997465;0.2597649;0.07197678;0.1484059;0.10586313;0.14162217;0.09186316;-0.041946035;-0.14328958;-0.47916076;0.26936725;-0.107163616;0.10793815;0.1329218;0.0328262;0.09458752;0.009590916;-0.072844714;0.07665015;-0.19000803;-0.049788143;-0.06667345;0.113997914;0.057433482;-0.06746964;-0.11901285;0.057684753;0.025357347;0.1659322;-0.07361589;-0.21070409;-0.23454551;-0.12384503;0.24850169;0.029038107;-0.0765487;-0.3548922;-0.009830474;0.2348445;-0.45597154;0.06416877;0.13488723;-0.039810512;-0.12295137;-0.5183025;0.048115633;-0.037532844;-0.038811143;-0.13439572;0.03790511;-0.058566675;-0.1680139;0.23335446;0.1000301;-0.10697855;-0.20152563;-0.0025809365;0.31584933;-0.08969451;0.18869567;0.17254153;0.28813884;-0.34013972;0.10256011;0.14679354;-0.06504552;0.100385755;-0.08548022;0.08213632;-0.09466815;-0.13143428;-0.094417386;0.14997521;-0.0650083;-0.35938936;-0.30112907;-0.021573279;-0.0062268297;-0.13590555;0.14623755;0.089613095;-0.36923403;-0.041242003;-0.024628747;0.16735837;-0.01295704;-0.18040678;0.1578354;-0.11766137;0.4560709;-0.09181639;0.034793656;0.08952654;-0.10448758;0.25690547;-0.102642395;0.03294139;0.13487224;-0.040039077;-0.001766128;-0.019777274;-0.17980836;0.14065328;0.45449212;0.2190809;-0.07993059;0.21542224;0.04475602;0.15208937;0.2132223;0.014835268;-0.27366915;-0.006109359;-0.04924974;-0.118177526;0.037544515;0.40356717;0.08378648;0.2817432;0.041507456;0.12616295;0.180529;0.20506693;-0.061991043;0.20661525;-0.23827238;-0.24440905;-0.012053855;0.013798562;-0.003029582;-0.2862588;-0.17293254;-0.24218252;-0.118218385;-0.15667762;-0.16051976;0.022703843;0.24538243;0.2131579;-0.27922997;0.29902834;-0.0084092505;-0.009914137;0.08407525;0.14501229;-0.5727134;0.27319333;-0.13791348;-0.28036845;-0.03469001;0.22183102;-0.056609858;0.2882866;-0.1293064;-0.27570453;0.08302809;-0.046594135
-0.010690763;0.35897747;0.17060564;0.081957154;-0.07028382;0.052223746;0.049544547;-0.13422057;-0.15820922;0.056894783;-0.10071807;-0.032712787;-0.04961182;-0.06453217;0.14489649;0.01766312;-0.135794;-0.20124058;-0.2517534;0.14996792;0.00054459734;0.19587639;-0.29827818;0.14688492;0.1396059;-0.022949126;0.03726503;-0.101190574;-0.01980311;0.18129183;-0.042834796;0.035719458;-0.10571609;-0.102031015;-0.14227921;-0.07891569;-0.047064107;0.17655076;-0.10937032;-0.1337399;-0.1358207;0.17400639;-0.36528474;0.031158336;-0.0051209065;-0.24030235;0.09577689;-0.025467426;-0.22018473;-0.30068377;0.3222417;0.073862694;-0.23948674;0.20711122;0.17226262;-0.16384992;-0.03557759;0.39819998;0.0038664532;-0.17775396;-0.07796915;-0.1671176;-0.32826188;-0.04365982;0.16003737;-0.024026157;-0.080706514;-0.046143997;0.13910615;-0.015141537;-0.1474715;0.024640135;0.1529855;0.10056402;0.13233311;-0.07885868;-0.30171892;-0.31332856;-0.17145902;0.043739565;-0.2462308;-0.2116823;-0.15257275;0.08904809;0.07538651;0.06475936;0.25702086;-0.016501164;-0.075755514;0.2650385;0.07027446;0.22751458;0.096229814;0.012622951;0.050092287;0.12857325;0.2789647;0.11120832;0.31104487;-0.047093842;0.041404992;0.07330156;0.14775205;-0.1250425;-0.0144780725;0.16638805;0.05200102;-0.17380702;-0.114263564;0.046038788;0.112431206;0.27369657;-0.14494282;0.25071526;0.12427044;-0.2512877;0.07315779;0.26346496;-0.06591042;0.266805;0.23044898;-0.050048616;0.256616;0.060892757;0.048880193;0.21400316;0.16736618;0.031794652;-0.16943392;0.06880652;-0.12504011;0.13768633;0.085780896;0.17814314;0.08450599;-0.3395703;-0.32524294;0.09800731;0.055364255;-0.024007306;-0.05735026;-0.060398452;0.040616047;-0.0639872;-0.007109865;0.11827679;-0.2631902;0.027402623;0.1477666;0.23381376;-0.24069445;0.083749175;0.15363234;0.16697025;-0.12803777;-0.030352334;-0.16875458;0.18712619;-0.11146599;-0.061620068;-0.13926065;-0.05369047;-0.02627703;-0.15591738;-0.005829908;0.19080667;0.19959019;0.066264465;0.011786881;0.1896655;0.030567737;0.042036884;0.02932186;-0.13482295;-0.10228095;-0.060731966;-0.2696136;-0.19597061;-0.05242082;-0.006025369;-0.05853702;0.045943715;-0.10844793;-0.031780083;-0.066617206;0.3488094;-0.025191525;-0.24400094;0.076625966;0.13372235;-0.29911402;-0.25289056;-0.059364945;0.26963776;0.09506714;-0.4735584;-0.20984933;0.33201867;-0.086611055;0.031248067;-0.15481073;0.12328823;0.075508274;-0.25603613;0.05432069;-0.0007492564;-0.12134717;-0.26557496;0.15010174;0.1169486;-0.08419508;0.2065114;0.087814875;0.056832388;0.15468253;0.05040894;-0.01776029;-0.1959767;-0.112883225;-0.09278327;0.062260646;-0.0451252;-0.073770255;0.17934681;-0.25149906;-0.25652075;0.0075558685;0.26179963;-0.43467644;0.08865613;0.028059041;0.17990378;-0.090287745;0.26822978;0.2070276;-0.031102171;-0.23070851;0.32754824;-0.02193287;-0.19576529;0.100607514;-0.029154077;0.06381123;0.17943619;0.14374621;-0.050642863;-0.063195564;0.12668017;-0.09947719;0.2814014;0.0075863083;0.2856432;0.00018709738;0.11580969;-0.10479829;0.026646173;-0.42956954;0.16420965;-0.006202509;0.28217834;-0.0626103;-0.23203959;-0.012571402;0.25833255;0.09471461;0.15592186;-0.13374816;-0.26356024;-0.26052645;-0.010883752;0.023708468;0.0074833944;0.2370716;0.40773815;-0.001897996;-0.107863165;0.12271121;-0.16470258;0.18247497;-0.17625575;0.10997256;0.04635075;0.158978;0.16333058;-0.20416957;-0.024326196;-0.24363075;-0.15042181;0.104939446;0.31808674;-0.029716402;0.030077962;-0.16474035;-0.16210553;0.120158024;-0.049372926;0.042674042;0.052286834;0.055483058;0.24049129;0.033568725;-0.16224608;0.20931394;0.4190907;0.0007603039;-0.21845019;0.09120761;-0.16167168;0.072999716;-0.13569574;0.1764588;0.14996974;-0.022409841;0.16516946;-0.13150488;0.04394112;0.013592019;0.1966112;-0.13625585;-0.11891856;0.04892143;-0.04650991;0.03389159;0.09757253;-0.05000603;-0.11276611;-0.25486398;-0.38162407;-0.20494838;-0.11860631;0.015332613;0.13106969;-0.03961127;0.119602084;-0.020652764;-0.1022448;-0.09112037;0.1691735;-0.21910231;-0.16681756;-0.07987496;0.100716956;-0.008179033;0.23388286;0.13527387;-0.21794431;0.19725715;-0.060790617;0.08006358;-0.0666181;-0.1799567;0.11941321;-0.24487324;0.009397023;0.36377952;-0.0787394;0.07837684;0.4035425;0.11459081;-0.24163343;-0.11883149;-0.029102882;0.00047750727;0.1444253;0.14232147;0.07205004;-0.22004005;0.035452917;-0.22126667;-0.35874808;0.2156372;0.03045156;0.20172206;0.10531109;-0.0042874264;-0.38012692;0.22581942;-0.029969096;-0.033903833;0.0028791376;-0.031417813;0.05375195;-0.08642895;0.13941936;0.074130654;-0.116665445;0.042702146;0.22716706;-0.032371297;-0.18605769;-0.12456193;0.18815677;-0.26729453;-0.14747089;0.01295252;0.3293172;-0.37714106;-0.025681281;0.0008986922;0.2991216;0.19509244;-0.12555657;0.04427019;0.11723621;0.0070143044;-0.07870627;0.22558236;-0.06711648;-0.028005902;0.22998092;0.12492721;-0.10378388;-0.16703404;-0.05860805;-0.03282278;0.15475713;-0.10449012;-0.14445093;-0.25237718;-0.01952752;0.35919765;0.12740047;0.05936866;0.015722519;0.0017197605;0.1446013;0.0918561;0.1317601;-0.8272525;0.3610746;-0.049810603;0.19805235;0.13715594;-0.27743334;-0.23429124;0.19386414;-0.009989586;0.14224042;-0.10794438;-0.16195604;0.16083556;0.26752248;-0.13786669;-0.036472056;-0.08518531;0.057346676;-0.16953315;0.2860291;-0.18566914;-0.2746501;-0.36138064;-0.024807746;0.07486124;0.0131681925;0.118171975;-0.07963107;-0.14130901;-0.01649863;-0.42079222;0.49321726;0.037874028;0.089728765;-0.035228964;-0.17307457;0.09903578;0.08745724;-0.12969467;0.30350474;-0.17964223;-0.19258091;-0.3492952;-0.11527681;0.09869573;0.10115776;-0.17427705;-0.2762345;0.2967702;0.14651881;0.06254205;0.0012107325;0.2182541;-0.3695069;0.20115969;0.23157792;-0.187588;-0.03565722;-0.08247229;-0.07044945;-0.018678265;0.02589016;0.0208751;0.07004247;-0.06982363;-0.17444927;-0.17678966;0.18817455;-0.01764548;-0.048759457;0.02022027;0.044883616;-0.068267144;0.09022113;0.009042636;0.031197004;0.07098283;-0.17922795;0.007643669;-0.13932078;0.13177603;-0.2398943;0.10182865;0.12975085;0.14988954;-0.11541665;-0.017928096;0.07809783;0.22729468;0.096908614;-0.24758361;-0.030388845;-0.13489538;0.049262226;0.1303526;0.011440325;-0.011754514;0.06928417;0.1720866;0.05908264;0.04227717;0.24191308;-0.15354145;-0.15733117;-0.09153994;-0.0031814217;0.038625874;0.11649287;-0.12075752;-0.0054524667;0.053304803;0.095070675;0.07387002;0.120072454;-0.16046594;0.24484174;-0.047464877;-0.03187;-0.09167665;0.25419816;-0.16349095;-0.24514772;-0.3246089;-0.1815999;0.06940358;0.010586281;-0.09424628;0.23197284;0.1996145;0.050558675;-0.23025967;0.28427914;0.23375684;0.25453714;-0.062055707;0.11355856;-0.244013;0.23685022;-0.032334894;-0.11555433;-0.05071719;0.53611654;0.0047952333;0.18338242;-0.04781095;-0.2505144;0.112398736;0.14632864
-0.124548934;0.18664183;-0.070659235;-0.11430963;-0.26800615;-0.0669465;-0.03783202;-0.10503781;-0.1704101;-0.023976637;-0.24045305;0.010537651;0.050618663;0.18541296;0.022037605;-0.2383527;-0.10998938;-0.057967868;-0.13262965;0.030665781;-0.013002124;0.0065451227;-0.22929294;0.04641641;-0.105852075;-0.044424374;-0.073009536;0.018954465;0.08916856;0.08483439;-0.25739044;0.0634264;-0.0019498301;-0.13119307;-0.21676514;-0.04564819;0.21241847;0.031882446;-0.23250903;0.16700774;-0.104683824;-0.22710738;-0.31526798;0.0150084365;-0.19216174;0.006872306;0.059249576;0.045681402;-0.22589533;0.06135414;0.059121598;0.2642495;-0.18670839;0.04792423;0.1152986;-0.12576899;0.094644226;0.38092446;0.097502545;-0.10711896;-0.29318556;-0.21835512;-0.0050654607;-0.106030166;0.084624715;-0.24448095;-0.11578288;-0.040510077;0.2075809;-0.054849613;0.22397129;0.105191745;-0.0068679284;0.09871372;0.092024975;-0.0703337;-0.10936065;-0.46445224;-0.25560868;0.092033245;-0.20557955;-0.013659962;-0.22370717;0.046662215;-0.12836735;0.012656277;0.35147923;0.06041033;-0.11012215;0.13071233;0.069030516;0.21027942;0.12289058;0.20371993;0.24547489;-0.09789219;0.21394795;0.07488362;0.012372025;-0.032319658;0.09475789;0.016193004;0.102629475;0.07212623;-0.3275834;-0.052122124;-0.01164585;-0.1812339;0.14697723;0.07095158;0.07308153;0.21579589;-0.0927916;0.05192908;0.17557144;-0.101144016;0.008388106;-0.030863998;0.36988172;0.31524628;0.03007318;-0.21092889;0.30339226;-0.037907783;-0.069890074;0.118732356;0.13169822;-0.040211033;-0.17097545;-0.07857857;-0.027799005;0.11720128;0.019018872;0.028012052;0.23129976;0.04342992;-0.21705553;0.118893504;0.081354454;0.031886347;0.030748796;-0.12356231;0.29981175;-0.15312575;0.07306293;0.011266352;-0.08353797;0.02665398;0.03167301;0.03989154;0.031055568;0.1655851;0.06612638;0.2590473;-0.22834039;0.02515486;-0.03463275;0.040002257;-0.14330387;0.020215636;-0.13434231;-0.3859918;-0.091912895;0.122959726;0.03945833;0.09076829;0.19192247;0.26645994;-0.12263948;0.19780979;0.12755248;-0.07115528;-0.021211527;-0.13881443;-0.1634351;0.04137077;0.057765376;-0.050465263;0.03329635;-0.18411511;-0.24013938;-0.08619414;-0.25762868;-0.044267133;-0.09602111;-0.049765237;0.13603076;-0.13622606;0.25591868;-0.24885291;-0.21532996;0.002809207;-0.07897411;0.16916312;0.13636473;-0.8291927;-0.004042685;0.25346026;0.09855056;0.090382926;-0.20504567;0.105314314;0.016395254;-0.07872426;0.019686257;0.0942078;0.043793444;-0.5474741;0.22943889;-0.0819738;0.25811526;0.040639404;-0.06941791;0.099634886;-0.0684236;-0.12693527;-0.123309806;-0.084932886;-0.3481521;-0.21500355;0.06324758;0.221714;0.045173;0.17274037;-0.22705185;0.016517468;0.20343924;0.073221184;-0.26967075;0.29315403;0.23576583;0.2318786;-0.15221456;0.15095289;0.17278326;0.1395826;-0.16552551;0.040595338;0.058903124;-0.190924;-0.08541165;-0.12037033;0.05286838;0.084923156;-0.018660303;0.09721875;-0.090437464;-0.096711755;-0.032493178;0.14535241;0.2506994;0.20913313;0.104129426;0.11490191;-0.18140103;-0.24257214;-0.4868355;0.018955035;-0.0034901414;0.1286622;0.24256219;-0.10714364;0.09228705;0.08958959;0.07109427;0.19284362;-0.38641587;-0.066701755;-0.1191037;-0.0035804496;-0.17748171;0.26300058;-0.081429325;0.3580268;0.057887852;0.122164115;0.1535827;-0.34902206;0.029215729;-0.21519268;0.06995441;0.19166833;0.08684351;0.16906212;0.12809782;-0.11798269;-0.19471706;-0.045137078;0.01867196;0.06839015;-0.05151366;-0.3688704;-0.11900932;-0.24353057;0.08502767;-0.008660424;-0.004546154;0.21303679;0.011643773;0.20348005;0.06035492;0.04943936;0.20532475;0.39418152;0.0006277079;-0.028338205;0.28121123;-0.21006575;0.007375662;0.08793524;0.08027772;0.089916855;0.113130204;0.19156794;0.15055709;-0.04888346;-0.098125845;0.22313951;-0.29147908;0.12079198;0.117203295;-0.2868619;0.06713887;0.036144014;0.008391097;-0.28056055;-0.09907168;0.06608269;0.0033013155;-0.2283141;0.097004786;-0.033019897;-0.13887051;0.19856289;0.051577274;0.2216089;-0.19492194;0.25143102;0.115510345;0.2709508;0.13914661;0.12632012;0.20059137;0.18282351;-0.020136109;-0.14685419;-0.035943136;-0.19321296;0.09600712;-0.008961146;-0.17841566;0.107768185;-0.20073664;0.003935427;0.04188448;-0.22616258;0.060326096;0.21935514;-0.14212057;-0.1899899;-0.016099418;0.11223327;-0.17087395;-0.082839146;-0.08480008;0.07028056;-0.14588538;0.03618675;-0.2068892;-0.18738024;-0.15315008;0.11467733;0.2948796;0.08578651;0.077760324;-0.04169661;0.2655361;0.06288203;-0.078598574;-0.12239099;-0.05238502;-0.27160928;-0.1059421;-0.0100969765;0.088753514;-0.16672987;-0.100930005;0.22360432;-0.3588876;-0.04380577;-0.14919299;0.18601221;-0.19453797;-0.028535642;-0.118308745;0.032096557;-0.35924345;0.009146504;-0.08834324;0.055144116;0.08500634;-0.016263114;0.08610104;0.19098642;-0.13618362;0.15483816;0.108731575;0.1699317;0.1892402;-0.16431476;-0.08499892;0.025086937;-0.08147383;-0.033126764;-0.07971164;-0.029475937;-0.00810102;-0.07346575;-0.07950455;0.15613651;0.24774149;-0.22095574;0.13237342;-0.05830134;-0.054455142;0.18605186;0.1335039;0.30175206;-0.4476043;0.062448934;0.008832295;0.029868897;-0.0413129;0.03616252;-0.19745809;0.23213612;0.059335567;0.21251445;0.083266206;-0.26284245;0.0776022;0.0931102;0.15101369;-0.020681212;-0.017647918;0.101324566;-0.046179622;0.20792289;0.20791371;-0.11851636;-0.18235028;-0.07545648;0.21564534;0.042357963;0.06505708;-0.5103611;-0.103812374;0.0813797;-0.27327076;0.3072364;-0.06848974;0.06798935;0.043516885;-0.45401257;-0.10064836;-0.01381292;0.055523917;0.16013539;0.044563383;-0.085489534;-0.41593543;-0.19376355;-0.020406308;0.20456387;-0.02636794;0.34511143;0.040407952;-0.038359758;0.19665264;0.09759771;0.44041488;-0.43689236;0.08723501;-0.09615399;-0.048093334;0.041961312;-0.004242484;-0.011400291;-0.02006247;-0.23887607;0.07765265;0.036588628;-0.1897542;0.054201733;-0.07500441;0.31110343;0.15312707;-0.0006142615;-0.04373241;0.10930209;0.030902304;0.11121989;0.044094164;0.15685657;0.09893217;-0.36104646;0.0008863995;0.1096084;0.19194475;0.030554399;0.12775756;0.07978984;0.0048154998;-0.13321249;-0.049870685;-0.029459195;-0.011521065;-0.070532486;0.034442425;-0.11494516;-0.08265968;0.24428992;-0.062647715;0.000107860935;0.07965494;0.04665493;0.17115124;0.034994155;-0.0149961095;-0.05911178;0.018901752;-0.19902688;0.20499493;0.23549615;0.011167455;0.09556035;0.1336683;-0.044622768;0.18850721;0.17701337;0.073948294;0.0704588;0.0017356754;-0.15033291;-0.31970954;-0.157238;-0.22626694;0.113103144;-0.023264995;-0.047140993;-0.193741;-0.3867049;-0.1555206;0.26778555;0.09335863;0.19096543;-0.13899158;0.038391978;-0.14559041;0.037375946;0.13531527;0.24645926;0.0010928967;0.042446665;-0.056708287;0.11762402;-0.020395147;-0.082869574;-0.17731392;0.35182336;-0.14776091;-0.045625817;0.08784694;-0.09056279;-0.0028952563;0.042185258
0.020917352;0.058396704;-0.005041131;-0.044728443;-0.17584655;-0.13992032;0.09496298;-0.23973219;-0.011763717;0.05779799;0.037637595;0.11851904;-0.022265371;-0.021209063;0.07314069;-0.31252316;-0.114371575;-0.105101764;0.029086502;-0.024932213;0.06255575;0.2699693;-0.24173598;0.2046681;-0.27570954;-0.00761773;-0.08657601;-0.1464688;0.07797858;0.12546687;-0.21403918;0.034325805;-0.043695696;-0.096737176;-0.08889669;-0.23398477;-0.11548173;-0.15097713;0.17651387;0.00477829;-0.07674811;0.06558508;-0.065330744;-0.02446999;-0.11517899;0.15519544;0.24428545;0.21888244;-0.38051522;0.009688743;-0.014892437;0.23463714;0.1310373;0.06674894;0.13980015;-0.010520193;0.13499475;0.31216237;0.13360702;-0.048703596;-0.12925255;-0.08608967;-0.036836214;0.030443782;-0.0086568175;-0.2530499;-0.12033808;-0.22943701;0.051177353;-0.21410155;-0.14421634;0.039031785;0.08973562;0.003643632;0.07560835;0.07162842;0.028559241;-0.5870924;-0.2091897;0.11437574;-0.24243757;-0.02339193;-0.22567178;-0.1193056;-0.22335088;-0.030850649;0.102271445;-0.018131709;-0.053771332;-0.16190927;-0.012674144;0.28503004;0.15235573;0.008084361;0.47046307;-0.054763664;0.10905731;0.14034703;-0.12073112;0.07951364;-0.076863654;0.008265206;-0.016789151;-0.09524422;-0.2699498;-0.13420185;-0.11119818;-0.1037906;0.023417218;0.15645741;0.14836527;0.15005007;0.009697775;0.3183522;0.1046842;-0.28317982;0.01893445;0.12953703;0.47772384;0.20534007;0.10789397;-0.050118987;0.3172078;-0.020176826;-0.04914903;-0.02557639;0.13807862;-0.11573143;-0.35956445;0.0046881223;0.12228692;0.10328249;0.07595627;0.2228953;0.40576455;-0.2992009;-0.054790806;0.04190907;0.1214062;0.038788732;0.026762426;-0.3125312;0.16489564;-0.046448972;-0.007683826;-0.09141747;0.040804587;-0.06333012;0.3074397;-0.10232864;0.018187715;0.10346714;0.08414781;0.13608815;-0.43952802;0.07211339;0.13921687;-0.18060917;-0.22453982;-0.082853206;-0.052733056;-0.21868138;-0.1662511;0.07020352;-0.05243879;0.08910104;0.03707757;0.16566777;-0.1397615;0.26347932;0.01369535;-0.057418104;-0.30996168;0.019148922;-0.14489774;0.064031206;-0.1582743;-0.09782051;0.041287284;0.039593324;-0.38096532;-0.16229065;0.07898397;0.064703695;0.042283047;-0.23217368;0.0411186;-0.15611959;0.15791726;0.10596753;-0.04196743;-0.1315596;0.13280424;0.16551219;-0.00067934516;-0.53479874;-0.015222552;0.05168089;0.08248436;0.10323301;-0.308091;0.22765778;-0.34010702;0.059148446;0.254736;0.113055736;-0.0066002477;-0.48592603;0.24685754;-0.0075420775;0.19644728;0.06761688;0.09201573;0.12905535;-0.14534386;0.2058062;-0.11979265;0.07128032;-0.064566396;0.23885988;0.22943513;-0.017752204;0.07229936;-0.072952665;-0.31155938;-0.03681086;0.16465043;0.076546095;-0.15403762;0.07250528;0.22879098;0.03553232;-0.13094433;0.06182058;0.1015252;0.21033855;0.056587543;-0.027845997;-0.1288204;-0.070016816;0.04794676;-0.3470379;-0.0065251268;-0.08868883;-0.017234191;0.15070106;0.16852516;-0.2575649;0.003280257;-0.08586912;0.0047618975;0.10622911;-0.052102;0.17475548;-0.029319173;-0.27122703;-0.51989126;-0.064644754;-0.08343025;0.23120464;0.18598095;-0.15010542;-0.025599439;0.17021075;0.15086387;-0.0022732222;-0.2338331;-0.19354194;-0.08002154;-0.08398203;-0.08111563;0.16497988;-0.052699592;0.11074215;0.030018404;0.010509021;0.10728347;-0.0899783;0.19346692;0.012466752;0.1439594;0.12498994;0.11513718;0.11438987;0.21235518;0.023815177;0.051504586;-0.056111492;0.047717188;0.043918587;-0.13264243;-0.19333997;0.0018034824;-0.20765464;-0.12904617;0.08446442;-0.43681118;0.19825616;0.0097499015;-0.102417335;0.06331595;0.042978127;0.22007649;0.09477047;0.12730502;-0.13184401;0.23776709;-0.3129082;0.028249003;0.07566647;-0.02540815;0.016367361;-0.09417427;0.12550247;-0.16415115;-0.1949821;0.078065775;0.25382295;-0.08872517;-0.10352023;0.10660483;-0.3613177;-0.0057401084;-0.080896534;0.27295294;-0.10846828;-0.05171036;0.18468277;-0.07642772;-0.37222883;-0.080655515;-0.22059867;0.058628794;0.26796222;0.2766678;0.1784242;-0.020850733;0.31792864;-0.08194039;0.072865255;0.07882493;0.0903119;0.333468;-0.08647658;-0.07025548;-0.123260975;0.11255081;0.014322642;0.098268986;-0.27723047;-0.19956958;0.0875384;-0.010530733;0.050930656;-0.16613775;-0.19342928;0.043314517;0.15340714;0.11565027;-0.05619331;0.15192148;0.24032407;-0.09396696;-0.14349687;-0.14820136;0.09585071;-0.09244709;0.109619;0.02690604;-0.3961528;-0.19923426;0.07465085;0.17111069;0.07905866;0.078397624;-0.45033982;0.30036283;0.07122146;0.13985255;-0.14569147;-0.14501718;-0.23611028;-0.17829646;-0.14741164;0.24763526;-0.15936407;0.0036868094;0.27321622;-0.3191436;0.042366046;-0.19613361;0.17853872;-0.12839028;0.14131416;-0.041998763;0.082005076;-0.0661213;-0.13218626;-0.15044437;0.078934066;-0.1258617;0.15960212;0.2335707;0.100379854;-0.26094028;0.0963281;0.16805294;0.08670799;0.049592253;-0.283613;-0.18419786;0.008252472;0.124451265;-0.021552498;-0.054207247;0.17702138;0.057123736;0.009263817;-0.03456641;0.105281;-0.35940456;0.0059477524;0.14671913;0.01406064;-0.04613197;-0.06818364;0.012634728;0.14356697;-0.39551374;-0.09507886;0.041214243;-0.02384001;0.067274384;0.09037764;-0.10625175;-0.07845253;0.059812695;0.18690564;0.10344227;-0.32599816;-0.021522356;0.06892592;0.2894153;-0.23668186;-0.024234606;0.008899321;-0.18405561;0.2806842;-0.033310886;-0.22890578;-0.01001902;-0.11999995;0.15638985;0.17541468;-0.09091846;-0.20830761;0.030939924;-0.08258711;-0.27623874;-0.028458167;0.1863932;-0.066131234;-0.18631779;0.06223273;0.18237078;0.097090445;0.14675899;-0.25214043;0.044153158;0.084477834;-0.16178368;-0.04546397;-0.1866216;-0.021352353;-0.08540398;0.27320176;-0.15207662;-0.04009609;0.06618019;0.14475366;0.14619255;-0.2638273;0.13943549;-0.26309463;0.12659408;0.13613847;0.05506997;0.085922025;-0.39758387;0.036480576;0.25814834;0.14526846;-0.02985327;-0.12360527;0.304082;-0.08514829;-0.2055846;-0.04493082;0.10665545;0.09835821;-0.058748953;-0.1647167;0.14326695;0.14156905;0.01925743;-0.37714162;0.11461645;0.24942072;-0.010206383;0.021575432;0.14536572;-0.035542157;0.041248377;-0.29385912;-0.085257344;0.04633911;-0.02354336;0.23578158;0.18160252;0.065674126;0.23024799;0.0012340989;-0.120606355;0.072036944;-0.05541918;0.05031435;0.27402335;0.1705658;-0.032024764;-0.11017185;-0.010946443;-0.07861412;0.15491118;0.15442078;0.15832438;0.07873335;0.038470287;0.17526156;0.1012235;0.10877229;0.15497117;0.06578602;-0.18259946;-0.16821353;-0.41734886;0.082337886;0.0100587;-0.04753757;0.04775006;0.0832725;-0.15997124;-0.03435814;-0.04283493;0.3666478;-0.02360385;0.06911837;0.120059215;0.10622378;-0.013138133;-0.09406542;0.3987382;0.2028374;-0.14286895;0.1547614;-0.048321422;0.19999623;-0.13032238;-0.10516897;-0.07407329;-0.082889624;-0.1079031;-0.027644088;0.014394845;-0.25659528;0.14746808;-0.077123575
0.23609307;0.24727514;-0.07094641;0.28649446;-0.29129255;0.09520831;0.17238842;-0.21297295;0.034623608;-0.01833735;-0.16639067;0.1519309;-0.11649668;0.20441082;0.12190037;-0.1709042;-0.25859776;-0.14284499;0.15213808;-0.12204021;0.07210002;0.08926419;-0.21154892;0.20945354;-0.15494373;0.051461384;-0.24974613;0.2697198;0.22168757;0.30852255;-0.10361316;-0.047106378;0.060219426;-0.33489797;-0.18218608;-0.04305316;-0.23851669;-0.25194705;0.25811222;0.2714996;-0.3348543;-0.031508163;0.07925388;-0.23933975;-0.07959523;-0.06180319;0.08027132;-0.024887076;0.035347175;-0.22170627;0.121112354;0.05480272;0.019680578;-0.04505625;-0.1920622;-0.08400928;-0.102271385;0.06352494;0.28628752;-0.1787422;0.039220363;-0.240929;-0.05212763;-0.061239548;0.0051380745;-0.16787967;-0.06649493;-0.3367303;0.04927838;-0.18639696;0.0115898065;-0.113053486;-0.056101274;0.19367951;-0.0083886385;-0.11611271;0.23878996;0.09414922;-0.12158069;0.29070404;-0.06952431;-0.112400204;-0.017631004;-0.20176604;0.09602823;0.031698097;0.10245432;-0.101666145;0.026476452;0.12188506;0.24580586;-0.09168276;0.08130146;-0.079111874;0.12795265;-0.27560946;0.104987465;-0.005864221;0.08101554;0.07883882;-0.1732049;-0.347285;0.14740556;-0.34023547;0.08615648;-0.16145682;0.03130676;0.17602906;0.23752402;0.066230536;0.054936554;0.065563664;0.3056714;0.3836255;-0.11522229;0.050958686;0.028960342;0.11404533;0.15554978;0.090464406;0.15136245;0.21110153;0.28742868;0.011819815;0.008685165;0.15466923;0.014375655;-0.36231712;-0.3051698;-0.08005249;0.010447457;0.11703925;-0.19226742;0.36224452;0.16100103;0.09824655;-0.12372343;-0.12837216;-0.15875004;-0.19487269;0.26020184;0.21218537;-0.11502806;-0.092460416;-0.112285055;0.16520713;0.17925441;0.30162692;-0.08507604;-0.20104894;0.22895838;0.09875129;0.14400578;0.19120768;-0.18410382;-0.10280172;-0.043948833;-0.012692639;-0.0232816;-0.1112887;-0.010006509;0.05749106;-0.062950715;-0.054971233;0.06035593;0.20674986;0.18062873;-0.025565475;0.13527198;0.14053883;0.07789124;0.10224204;-0.031812023;0.075886086;-0.025295332;0.31096795;-0.21496917;0.050838042;0.31372398;0.20558277;-0.18406628;-0.037193276;0.039701708;0.010836614;-0.20913658;-0.09739736;0.27233955;-0.18873608;0.07305848;0.066151;0.26259518;-0.06730835;0.07348895;-0.16485229;-0.119413055;-0.15330678;-0.1226565;0.11873896;-0.09610448;0.24454764;-0.02752368;0.21718326;-0.34729797;-0.039939087;0.18784754;0.045936327;0.17004399;-0.3634687;0.33407512;-0.14401199;0.21358702;0.0017716513;-0.06023651;-0.13254651;-0.1445906;0.16362754;-0.11062368;0.06738574;-0.03784949;-0.17056789;0.28161296;-0.06859348;-0.2498876;-0.10121822;-0.2965971;0.20762353;0.09339612;-0.2041202;-0.20069234;0.08240721;0.35624197;-0.019819735;-0.118969105;0.028431743;0.05451728;0.37898013;0.02987554;0.2276058;-0.19747731;-0.047165602;0.18505074;-0.14657205;0.10607862;-0.061459713;0.18015546;-0.029768797;0.14353539;0.18820193;-0.14639965;-0.10221347;-0.15878645;-0.09735485;-0.24443963;0.014705773;0.044632506;-0.25386697;-0.4559654;0.068010144;-0.100578316;0.05393554;0.021449886;-0.16522956;0.012310271;-0.015663888;0.22657695;-0.08375284;0.019670894;-0.13445146;-0.15384424;-0.14444235;-0.13193417;-0.007273011;0.17080045;-0.03783316;0.054008275;0.12087583;0.117368795;-0.050869957;0.12987167;0.038903985;0.3080214;0.1510885;-0.076054834;0.100913525;0.16805407;0.0734583;-0.03740032;0.016238203;0.06355549;-0.07996012;-0.1511442;-0.10399694;0.1402176;-0.21335155;-0.3184369;0.110053405;-0.18471624;0.060749058;-0.32639265;0.20887272;0.18967625;0.20778494;0.13987797;0.1912863;0.31029853;0.09005988;0.14390886;0.0751004;-0.060512856;0.19388534;-0.20259775;0.0681778;-0.22241408;0.017417073;-0.23706032;-0.13639258;0.17345156;0.10987326;-0.067834355;-0.24433182;0.02213277;0.010868049;0.0454583;0.024550134;0.008012537;0.036868345;-0.06223951;0.1932699;-0.3336219;-0.6030147;0.0059048156;-0.06922553;0.073384866;0.21649471;-0.08307186;0.19765922;-0.25419262;0.19537838;-0.080328025;0.10354752;0.1447558;0.178867;-0.20649609;-0.27345568;-0.0059353155;-0.33501396;-0.12962244;-0.08087226;-0.097417265;-0.024408787;-0.24034874;0.0033886093;0.27786914;-0.028882146;-0.07522898;-0.10842971;-0.09813166;0.017751105;0.090914756;0.07556804;-0.18766293;-0.015472506;0.0152479075;-0.16488248;-0.36221805;0.12297054;0.016016724;-0.00870725;-0.014548612;-0.37900832;-0.09217456;0.29792628;0.17975077;0.22956587;-0.10620409;-0.082903124;0.021356251;-0.043906435;0.12046614;-0.102105334;0.033921823;-0.3054482;-0.11336958;-0.05527292;-0.109202266;-0.14672364;0.0005288364;0.3273258;-0.26337475;-0.16526894;-0.32811967;0.09985782;-0.101134956;0.010763692;-0.08779679;0.19399251;-0.09840421;0.057434082;-0.11762075;0.094472885;0.11772664;0.1679726;0.2628498;0.068050176;-0.40072554;0.12106418;0.18257686;0.17804395;-0.12018636;-0.29856023;-0.2277684;-0.1216091;0.1598844;-0.061358668;-0.002171184;0.15052609;-0.12649111;0.067272104;0.037307274;0.16323684;-0.21634467;0.1490734;0.14003034;-0.12368256;-0.14972164;-0.014170256;-0.12333369;0.12346366;-0.30744368;-0.21000136;0.21782441;0.05878516;0.43682608;-0.004907262;-0.13310184;-0.081860974;0.019502854;0.19358894;0.070607096;-0.42207766;0.2363349;-0.0065999166;0.027891291;-0.10918932;0.05525214;-0.08151629;-0.045654625;0.15436783;-0.05409321;-0.2298979;-0.23634768;0.02071916;0.22832762;0.21635097;0.10531239;0.027849605;-0.20561408;0.09728254;-0.54185885;0.022183865;0.1106924;-0.09693608;-0.3453334;0.0124171;0.1975246;0.1964898;0.036956303;-0.10140371;0.12683845;-0.003027206;0.03779095;-0.10150977;0.040985435;0.076922774;-0.12230665;-0.5544879;-0.1437221;-0.033307966;-0.007503148;0.1674389;0.2972837;0.07249296;-0.05407455;-0.1975512;-0.0012492036;0.37173834;0.11833249;-0.17922993;-0.332025;-0.03144352;0.28374198;-0.0794207;-0.1627329;0.19123368;0.29290402;0.09697166;-0.23155458;-0.14776458;0.1825601;-0.05449487;-0.14620845;-0.2349075;0.09928349;0.12225321;0.076047346;-0.06118039;-5.9424656e-05;0.08692461;0.25903022;0.09308181;0.039587148;0.033646625;0.12557618;-0.56051105;-0.2804151;0.1135844;0.04762508;0.21224515;0.3436683;-0.35142455;0.16723955;0.10563071;0.14894669;-0.2963524;-0.16845423;-0.35295367;0.10660068;0.19817844;-0.14069666;0.033235464;-0.08713568;0.15913606;0.2984609;0.13049927;-0.08267102;-0.11903399;-0.326128;0.24366173;0.029930608;-0.06041149;0.20390995;0.0026616168;-0.18150884;-0.37021905;-0.46120372;-0.09133933;-0.14767933;-0.025024937;-0.125753;0.04341461;0.14071587;0.05217842;-0.37747127;0.40679422;-0.08493079;0.09202979;-0.07687322;-0.0076172487;0.058286127;-0.30729046;-0.06748665;0.27051806;0.16273919;0.34214443;-0.24170953;0.055122647;-0.20954728;0.115424804;-0.22694503;-0.16186981;-0.40652293;-0.43092084;0.10709229;-0.09375872;0.053242464;0.053736642
-0.0013617303;0.10591848;-0.21554536;0.14805256;-0.24497704;0.16489826;-0.08102902;-0.09612068;-0.07154603;0.003990335;0.16207018;-0.09394983;0.027757075;-0.035687108;0.24313195;0.028156335;-0.1774536;-0.14816642;-0.04751304;0.025293782;-0.0054338225;0.12714413;-0.40494052;-0.011258355;-0.20710422;0.041173685;-0.25149736;0.18655662;0.12645228;0.31483242;0.17956987;0.06553292;-0.0031304;-0.34118167;0.0084243305;-0.15475717;0.06324234;-0.096161224;0.18262973;0.46605724;0.004782316;0.05648656;0.0379057;-0.16639873;-0.02924965;0.18514176;0.07947061;0.23587891;0.04288895;-0.15616462;-0.22689629;0.13235244;-0.008108056;-0.15726885;0.1834034;-0.10561557;-0.009739561;0.04101065;0.22562988;-0.1676687;0.21265902;-0.05029645;-0.12133056;-0.18503651;-0.11075636;0.080059074;-0.049769957;-0.3364253;0.2315007;-0.47508898;0.12047404;-0.3331931;-0.10042667;-0.08011156;-0.2098967;0.08927112;-0.01959534;0.09927959;-0.09831653;0.20316225;0.12281008;-0.14908932;-0.06959255;-0.1541703;0.06574314;-0.10925905;0.11044661;-0.2938737;0.06861696;0.18595798;0.09252002;-0.08581584;0.14119218;-0.038870405;0.27787375;-0.27863604;-0.13464108;0.14566445;0.07886354;-0.051599775;-0.060285207;-0.22388875;0.10063724;-0.011197751;-0.009843461;-0.17526406;0.11617287;0.03284473;0.2338114;-0.164137;-0.0680143;0.19439873;0.26478243;0.6016171;0.0121041015;0.037618864;-0.08746802;0.074983716;0.2997632;0.25250557;0.46163902;0.054872558;0.008965602;-0.0853704;-0.08402362;0.14539067;0.34110793;-0.34689707;-0.23012373;-0.0704256;-0.14876655;0.08750864;-0.07190377;0.23160714;0.18507384;0.058711555;-0.09946482;0.27427092;-0.20254591;0.061666023;-0.019073522;0.12502053;0.14919738;0.10822666;-0.11040899;-0.059833724;0.09963792;0.13089184;-0.05113947;0.17367819;0.29883865;0.07534611;0.18984473;0.22714074;-0.02767207;-0.11967033;0.027697781;-0.12971206;-0.15251428;0.082299694;0.03355038;0.07074712;0.035819147;0.20171936;-0.04004508;0.2184517;0.12357049;-0.008683965;-0.41422337;0.07558602;-0.09456824;-0.04164943;0.23992857;-0.14334233;-0.036035366;0.11090809;-0.29262155;0.019649945;0.16158712;0.33937877;0.10984326;0.062284928;-0.24175657;-0.063173965;-0.0818201;-0.3516784;0.31579772;-0.06344598;-0.17998624;-0.06277462;-0.0071051205;-0.24297364;0.025356444;0.07788857;0.029112725;-0.23347051;0.05248103;-0.028871415;-0.27545574;0.21832535;-0.21841316;-0.100632794;-0.0053319912;0.082813;0.29178473;0.08239055;0.14526199;-0.51121706;0.33571294;-0.18669173;-0.1014121;0.12449917;0.06407726;0.005999405;-0.012901496;0.0008167448;-0.0832783;0.1167755;-0.48122275;-0.05183745;0.28194878;0.0942809;-0.0430314;0.033427548;-0.115759805;0.20527428;-0.0016177583;-0.2883645;-0.12145453;0.088514805;0.19309576;0.13070558;0.035551097;0.15713774;0.25555065;-0.004549158;-0.013727433;-0.06218816;-0.12072252;-0.08278015;-0.0765463;0.08394929;0.24793528;-0.14798464;0.0749283;-0.09816871;0.21818276;0.006239248;-0.39638776;-0.065675765;-0.38867164;-0.019044748;-0.25864923;0.053358972;-0.061613265;-0.27689254;-0.42028356;0.17569461;-0.015931096;0.02578644;0.10492677;-0.079388596;0.00039624306;-0.32044622;-0.018973466;0.072381996;-0.07947524;-0.23052232;-0.00037121095;-0.113296136;-0.029214682;-0.0005621234;0.04455536;0.014154986;0.21602888;0.19056384;0.023753349;0.2445996;-0.2772689;0.005196665;0.3074866;0.18169406;0.18348971;-0.20312993;-0.030104399;0.21826445;0.08429963;-0.08293682;0.1423544;0.019737473;-4.5027246e-05;-0.24690458;0.038900867;-0.15619946;0.10029967;0.15607427;-0.16261634;0.07691558;-0.28672475;0.091080956;0.16799513;0.02150725;0.057580717;0.19883394;0.033892445;0.07836679;0.24101739;0.12590356;0.039160583;0.120517164;-0.23145393;0.35310093;0.059127502;-0.10679168;0.02047569;-0.05317617;-0.17266627;-0.013820022;0.16922367;-0.24194844;0.087813616;-0.08512312;0.03352124;0.08239819;-0.021635005;0.034473192;-0.06844393;0.20153168;-0.08126506;-0.11352438;-0.017415902;-0.06083138;0.26452377;0.1181369;-0.09235025;0.13531932;-0.26766223;-0.026149955;0.06676049;0.1193855;0.075055696;0.3223171;-0.06543779;-0.101005144;0.04469922;-0.18845545;0.058471195;0.18511833;0.06385386;-0.40872937;-0.2359579;0.16734804;0.039715152;-0.031933725;-0.121841796;-0.032852557;-0.16251317;0.16383596;0.09077014;-0.19441658;0.022752544;-0.015023111;-0.04693725;-0.0115132835;-0.100878544;0.21206458;-0.073921576;0.034486353;-0.094116926;-0.29417607;-0.005893251;0.05338286;-0.0876909;0.18399167;-0.0025768317;-0.15471527;0.18142629;-0.042649977;0.3391195;0.0031269481;0.19472392;-0.5786915;-0.0054760408;-0.09110268;-0.1336165;-0.32002378;-0.09137903;0.24710421;-0.20679103;-0.15376428;-0.022342402;0.039628617;-0.10953465;0.17333744;-0.09038687;0.009668666;0.11764145;0.009602891;-0.10888806;-0.22376864;0.11838502;0.119529605;0.16447747;0.23452936;-0.5841641;0.22614813;-0.0070418664;0.0021668412;-0.17827772;-0.70543206;-0.12479331;-0.085584804;0.055829916;0.15582745;0.059399847;0.05491181;0.04690363;-0.1283578;0.19244269;-0.08493754;-0.34850046;0.14774054;-0.20002581;-0.17033958;-0.4291392;-0.07043578;-0.09877451;0.18882938;-0.31343064;-0.13483267;-0.1162898;-0.020388694;0.15145741;-0.14467776;-0.04379119;-0.01871724;0.22048387;0.27464777;0.1874522;-0.066036165;0.06259458;0.15355186;0.014263288;0.045952477;0.18524237;-0.018730285;-0.09865775;0.05859681;0.20850302;-0.29261804;-0.61056906;-0.17635939;0.3581825;0.1405233;0.23744132;0.014937577;-0.090238154;0.031987753;-0.6822386;-0.10569188;0.07454442;-0.024695631;-0.102972;0.18481137;-0.056874454;0.091028996;0.022413444;0.02020562;0.0707735;0.048430227;-0.02987013;-0.121759854;-0.094016775;0.19846512;-0.115784176;-0.23507708;-0.069198534;0.049533166;0.018338118;-0.0021112335;0.037550174;-0.022552893;-0.008540913;-0.061738715;0.33297464;0.19396843;-0.00042023583;-0.012446151;-0.01554007;0.00922759;0.12637597;-0.17806017;-0.15674849;0.1002401;0.049489878;-0.03875268;-0.14353365;-0.091114596;0.19633454;-6.830874e-05;-0.020770738;-0.14524505;-0.027922846;0.022832366;0.17829092;-0.052265573;0.24269831;-0.34525475;0.30527025;-0.12462196;0.079136334;-0.20339824;0.042417552;-0.05690476;0.13817166;-0.047041487;-0.048823044;0.1481287;0.25664583;-0.054132853;0.20864893;-0.17179702;-0.26417917;0.07663407;0.07964729;0.0445402;0.111493535;0.11662776;0.14241645;-0.023330288;0.28234443;-0.042493913;0.0016281373;0.23051369;0.0817516;0.1418556;-0.28451794;-0.06103386;0.23560207;0.1285395;0.042269606;-0.10982332;-0.09299165;-0.18746987;-0.23078172;-0.106370896;-0.03295426;0.06261454;-0.29532474;0.20972452;-0.10728694;0.13976516;-0.22287536;0.1915795;0.054248292;0.012599622;-0.19272022;-0.25851566;-0.055617455;-0.089031555;0.18392535;0.068107225;-0.024218759;0.015088278;-0.3314822;-0.078335196;-0.21520735;0.0103631625;-0.2642673;-0.11691557;-0.051143162;-0.11554744;0.054661747;0.03383277;-0.07055249;0.005333577
0.014213911;0.037720915;-0.22113478;-0.16784471;0.07084235;0.1580694;-0.112201706;-0.028275503;0.10753214;0.04888152;0.11003041;-0.1121384;-0.18902062;0.043908082;0.20841064;0.24256663;-0.30614674;-0.14257376;-0.065166004;-0.18610843;-0.009049447;0.2002215;-0.31154573;0.100698814;-0.044184983;0.15357983;-0.28530443;0.036668606;0.085818365;0.23656526;0.16432102;-0.15412569;0.08447188;-0.00012384042;0.10959246;0.16710718;-0.029456677;0.0025848334;-0.102858916;0.28544587;0.0063748984;0.11715232;-0.0036361653;-0.00119073;0.055786762;0.17612024;0.18772373;0.04352631;0.06908857;-0.23765367;-0.17963704;-0.06961284;-0.22384058;-0.03580891;0.29682633;-0.24354768;-0.025651775;0.17893907;0.24386047;-0.045502793;0.12110832;0.0075048287;-0.25451136;-0.33619368;-0.047940336;0.21622497;0.12139166;-0.21692985;0.072334856;-0.25921234;0.122430034;-0.2881048;0.0927012;-0.11430247;0.080738455;0.023360586;0.090947755;-0.0777677;-0.2815894;0.2515516;-0.25909635;-0.04448803;-0.23390168;-0.16750994;0.1858929;-0.08640962;0.050047353;-0.18514721;0.17506029;0.08463547;0.14104703;-0.045524452;0.17821354;-0.07404647;-0.068247266;-0.2590099;-0.032501064;-0.04021977;0.24109626;0.044501573;-0.07112738;0.13352698;-0.016145784;0.046123788;0.13499118;-0.011861366;0.13197425;0.05845014;0.388776;-0.07253868;0.23614639;0.27036116;0.0065426566;0.41134018;-0.011427987;0.01359297;-0.021831498;0.24582435;0.12060168;0.09550153;0.3327797;0.007699092;0.026516167;0.05951344;-0.16701077;0.19475707;-0.036562644;-0.361188;-0.29737452;0.021481864;-0.20932609;0.017960696;-0.019576011;0.3176324;-0.039611965;-0.14168777;0.1748808;0.09956901;-0.090086654;-0.037735615;0.18550292;-0.032676652;0.0039326097;0.13853844;0.032281186;-0.042565305;-0.034090303;0.03828306;-0.10742931;-0.09645278;0.18321997;0.000541744;-0.083778806;-0.00051731226;-0.08913678;-0.2740611;0.16086343;0.045389447;-0.07246947;0.19795914;0.1644236;-0.06720124;-0.07532577;0.069835015;-0.045004487;0.23582555;0.0763482;0.113051295;-0.278761;0.3712067;0.17216764;-0.13193358;-0.12653343;0.026271865;0.087332524;0.18122306;-0.030887812;0.016484471;-0.06333745;0.2967899;0.12591691;0.31360152;-0.18927756;-0.19505991;-0.18600121;-0.2648414;0.33147848;0.0046293396;-0.2704504;0.013326303;0.15876894;-0.12998904;0.15946439;-0.07281696;-0.055500828;-0.19036508;0.036806144;-0.20283101;-0.25149372;0.14083876;0.0892165;0.03324994;-0.09661154;-0.11690915;0.0911165;0.044091966;0.046114884;-0.088178664;-0.34515664;-0.14659052;-0.26363346;0.070123635;-0.09044306;-0.06143711;-0.052822016;-0.09905399;-0.15265523;-0.093014605;-0.33710524;0.17911507;0.25578853;0.05763121;-0.16934618;-0.19182707;0.075853124;0.33370477;0.037099686;0.08043914;0.17788799;0.16132042;0.3258606;0.055128064;-0.061472937;-0.049065743;0.3772512;0.140138;0.105389625;0.027812934;0.06845475;0.07559098;0.019974941;-0.24835347;0.10627762;0.061340168;0.1821259;-0.17036185;0.30928534;-0.06929804;-0.07744385;-0.14854829;-0.16778003;0.0031076213;-0.17833377;0.05029102;0.09072609;-0.24849679;-0.037740674;0.02910112;0.07658424;-0.2797063;0.13213082;0.07474392;0.10115818;-0.17004304;-0.0135473935;0.04516864;-0.09607071;-0.3416991;-0.03921927;0.027078185;0.2872322;0.26828605;0.2502206;0.12530358;0.16505733;-0.058853526;0.18450111;0.028581131;-0.13610314;0.06605986;0.18198602;0.3091911;-0.11173221;-0.35939428;0.029304983;0.3431999;0.29386762;-0.0757541;0.01617336;-0.07004816;-0.026824053;-0.4841895;0.04424768;-0.046797078;0.08958709;0.06623444;0.112673044;0.094311036;-0.055708252;-0.06576508;0.11428081;-0.0028331715;-0.09051257;0.29309237;-0.13375346;0.09973346;0.106831595;0.18794942;0.00408816;0.17456242;-0.04569437;0.17352577;0.31839123;-0.01239553;-0.088955335;0.026472896;-0.080435716;0.006719504;0.17264032;0.14331542;-0.05706346;-0.1852612;-0.052229997;0.0726716;0.121950686;0.032431427;-0.17208348;0.2628809;-0.25052616;-0.06290592;-0.3506431;0.073601425;-0.1964538;0.5609123;0.07615491;0.0975242;0.0041066753;0.0088261;-0.025490977;-0.16091773;0.0398318;0.28995523;-0.17751026;-0.2647517;0.12190709;0.052544605;0.3582152;0.32222277;-0.049611907;-0.32481396;-0.112946935;0.24385142;-0.057769436;-0.031229714;-0.07652385;-0.030260976;-0.10419006;0.21469046;0.3141486;-0.19891922;-0.20474717;-0.25468892;-0.14291023;-0.030377116;-0.072205685;0.024923759;-0.03558175;0.19733605;0.04377796;-0.30083695;0.13768107;0.0222279;0.17067482;-0.12749314;-0.06867391;0.15429156;0.23572567;0.15698165;0.1971443;0.10042438;-0.079151444;0.18517347;0.16022657;-0.05631235;-0.039523456;0.00874367;0.06630575;-0.038030345;-0.2602426;0.022634093;0.033305056;0.055902235;0.15893263;0.07759389;-0.10709664;0.13344952;0.22806469;-0.05706114;0.1998908;-0.15953693;0.16829884;0.010604258;0.009697217;0.11250726;-0.28430063;-0.07288901;-0.08978222;-0.2225541;-0.074023336;-0.37010753;-0.1738689;-0.01486213;0.035028968;0.079036;-0.27658525;0.19571956;0.4425564;0.1382744;0.026735488;0.1846035;-0.12413564;0.2917228;-0.5174444;-0.14405039;-0.3804971;-0.015379682;-0.12087892;-0.17768463;-0.5131159;-0.08720277;-0.03133927;0.033112615;0.24883552;-0.24080043;0.2559783;-0.1800124;0.3192575;0.35314456;-0.052912533;0.13230976;0.11355745;-0.030701535;-0.24877685;-0.076220386;0.12226459;-0.07908959;0.018659951;-0.005346466;0.07673742;-0.19619034;-0.52005255;-0.005971667;0.271239;0.122168586;0.11517466;-0.03231198;-0.20239928;-0.114721075;-0.58599555;0.08232505;0.35728627;-0.07835035;0.12817223;-0.09339372;-0.011710176;0.045692276;0.02698555;-0.2642118;0.15157722;0.028404748;-0.025457155;-0.115542784;-0.011296407;0.23213778;0.17773037;-0.26631337;0.030693607;0.006793849;-0.34685633;0.20292978;0.057331283;-0.022241294;0.17505339;-0.02112014;0.020629194;0.21011814;0.18863273;0.10767126;-0.029623244;-0.046973415;-0.015180761;-0.1687201;-0.10203809;-0.5705693;-0.063102745;0.06285633;-0.21031743;-0.29790905;0.14704403;0.028844249;0.16699737;0.011938639;-0.16081356;0.180658;-0.01786389;0.15543479;0.25625223;-0.36146113;0.21124627;-0.013423092;-0.040048655;-0.10962137;0.0013859053;0.019602245;-0.11566689;-0.042761177;-0.01957033;0.35437724;0.12792113;-0.19026278;0.23320085;-0.40764624;-0.07070035;-0.26453945;-0.04381683;-0.24517076;0.055238478;0.20174079;0.06764447;0.08513256;0.13489003;-0.03710459;-0.07351019;0.17263326;0.28438973;-0.12425754;-0.074782066;0.15284643;-0.16869341;-0.12669013;0.0038751382;-0.2020359;0.016993102;0.054769874;-0.09747826;-0.17389962;0.045710534;0.18139285;-0.24096873;-0.25177154;-0.11491385;-0.30641857;-0.02830093;-0.06925671;-0.025776025;-0.19255419;0.0070201526;-0.30980837;0.013418856;-0.03990714;-0.012616461;-0.070888124;0.2078818;0.14608018;-0.25295728;0.090238534;-0.14378428;0.113956265;-0.061574597;-0.28298545;0.14960828;-0.18587336;-0.083386414;0.32621893;-0.0062002344;-0.097480886
-0.16590069;0.081331335;-0.112016946;0.102896444;0.14226069;0.2204382;-0.12582858;0.14727968;-0.06762352;0.021405393;0.17718525;-0.00028575832;-0.19038098;0.102621466;0.14867932;0.12998977;0.057827864;-0.2406709;0.037299063;-0.10202829;-0.06569361;0.112826824;-0.4738548;0.2511452;-0.017555106;0.26217315;-0.13653979;-0.28690633;-0.026839862;0.36751235;0.06287387;-0.034695193;-0.08738073;-0.22143877;0.06038095;0.17435768;0.010802406;0.08863858;0.20641829;0.07302787;0.0328957;0.19457006;0.038821712;-0.17856272;0.30986363;0.10628291;0.046563573;0.1965976;-0.12219496;-0.16755581;-0.10697637;0.14007753;-0.1272006;-0.004861554;0.22799836;-0.31469253;0.034028277;-0.32990643;0.06912778;0.14765841;0.089283384;0.14376394;-0.30654368;-0.19021945;0.026846677;0.26159889;-0.1732513;-0.14714178;0.18287121;-0.064782366;0.041757464;-0.1720511;0.041843772;-0.14414927;-0.0034185774;0.0088937385;0.16499655;0.043053757;-0.033838943;0.0764973;-0.1976926;0.18508747;-0.13603425;-0.2010763;-0.105328;-0.42628786;-0.09644284;-0.13574395;0.27261955;0.103855096;0.15963404;-0.13496464;0.2448117;0.17003988;-0.06251636;-0.2623777;-0.11719507;-0.015824007;-0.09413371;-0.035502214;-0.1765032;-0.18657276;0.12349862;0.13957423;0.2032573;0.15676913;0.14411272;0.11874996;0.3198452;-0.13315205;0.049625974;0.39107102;0.06783383;0.10534219;-0.20443785;-0.19584204;0.052158758;-0.034205213;-0.04088665;0.03669233;0.10130777;0.1260912;-0.012734644;-0.036281493;-0.065230004;-0.11227412;0.0991928;-0.1279659;-0.14836691;0.13427521;0.14649038;-0.08346431;-0.1831015;0.20607616;0.08251753;-0.12307707;0.13543992;-0.15794306;-0.15115339;0.011633308;-0.089660496;-0.17461678;0.053820405;0.21362053;-0.07230541;0.034804333;-0.23551884;-0.14263992;-0.29339176;0.029590854;0.31635007;-0.012481897;-0.08761498;-0.09403693;0.18396638;-0.06978489;-0.053356316;-0.06040859;-0.20213673;0.2615846;0.2973815;0.07028272;0.15035237;0.088096164;0.00040116525;0.26203316;0.043285273;-0.00870606;0.038377903;0.33331135;0.06898745;-0.09278242;-0.2589826;-0.26400322;0.24384235;-0.22242562;-0.006396416;0.0147498185;0.20450313;0.24653248;0.07530567;0.09990495;-0.00529197;-0.26161197;-0.1689913;-0.011964007;0.40667337;0.014306406;-0.20701633;-0.015696082;0.19732907;0.022844404;0.07117922;-0.17475393;-0.0532375;-0.15836433;-0.1508309;0.395095;-0.30587175;0.23695233;-0.0890394;-0.035919227;0.03479614;0.12159842;0.16354269;-0.06972571;-0.20704259;0.058871955;-0.37027436;-0.06440345;-0.24012896;-0.15531877;-0.25082687;0.0669208;-0.17614014;-0.032693148;-0.012037142;-0.19149207;-0.24110729;0.2748136;0.19873205;0.0067694495;-0.15275618;-0.061085846;0.061710183;0.1513575;-0.050466817;0.06485185;0.17910737;-0.12839824;0.11039155;0.053185966;0.0064854156;0.1384114;0.24977869;0.2797402;-0.08364798;-0.16821133;-0.07843463;-0.05379785;0.05515165;-0.33590257;0.05612329;0.12361666;0.14131883;0.010776699;0.21749957;-0.24908721;0.031597745;-0.40671647;-0.05437125;0.17069624;0.11841991;-0.14079027;0.08979244;-0.204618;-0.0011177808;0.03867879;0.011783047;-0.17410934;-0.21985236;0.118134744;0.07047731;-0.23832583;-0.108769745;0.06434114;-0.14994504;-0.21208228;-0.05933025;-0.0603802;0.040890787;0.020021673;0.39827403;0.16083518;0.09762473;-0.16280417;0.03317828;0.10783876;-0.20080139;0.19810797;0.1648549;0.14031877;0.060070213;-0.18048221;0.049484544;0.44645667;0.084007956;-0.23550445;-0.15664522;-0.3252514;0.023571614;-0.2667624;-0.07113977;-0.042352952;0.3525032;0.0874737;0.09462515;0.05428989;-0.14831679;0.0595672;0.10845808;-0.2531431;-0.105334885;0.028997356;-0.2262103;0.29560503;0.17045768;0.05192042;-0.13364008;0.28540254;-0.0131610185;-0.14890686;0.35492498;0.05299295;0.0412095;-0.057767954;-0.10324171;0.11048329;0.06648482;-0.024123508;-0.092584655;0.06026742;-0.041788563;0.13044569;-0.0056597777;-0.4452988;-0.095556214;0.14851627;-0.28872627;-0.12937777;-0.25271556;0.13974291;-0.106369585;0.22985102;0.04013054;0.26142967;0.22681355;-0.025794247;0.25015914;0.19856168;0.13581873;0.11299921;-0.34601802;-0.32121894;0.11140644;-0.19639406;0.14356247;0.21392445;0.13206272;-0.16664512;0.13751304;0.21523735;0.2651792;0.091531396;-0.024740573;-0.08805746;-0.25608194;0.033257738;0.31893203;-0.31784123;-0.14783496;-0.102085344;0.022325285;-0.006791308;-0.39262024;-0.14950886;-0.061946034;-0.08713738;-0.13673696;-0.3318614;0.069297895;0.12236214;0.13896482;0.10658042;-0.108881995;0.096607246;0.013732302;0.085342266;0.17874806;0.03582152;0.119914204;-0.16438349;0.06680541;0.058533873;-0.33347055;0.02685268;0.12813336;0.14567316;0.08544726;0.012396431;-0.012905356;0.048376713;-0.040980987;-0.02288478;-0.06791398;0.15979086;0.0051062754;-0.046806727;0.12908214;-0.03722407;0.060152024;0.15763661;-0.11883494;0.13250609;-0.0744497;0.112461865;-0.17337969;-0.2250072;-0.11615627;-0.19235115;-0.1872263;-0.34920505;0.13462292;0.110768326;-0.32565027;0.15911746;0.24176548;-0.1415011;0.05012938;0.056275178;-0.018423198;0.13298418;-0.44805875;-0.13787664;-0.34775862;-0.032431927;0.020881591;-0.28700644;-0.33416396;-0.27642998;0.19697733;-0.11280412;0.16705538;-0.18464969;0.23669997;-0.14395586;0.17218813;0.3347694;0.009746234;0.18055096;0.2832496;0.028073592;-0.20304552;0.092791036;0.033984035;0.022206986;0.07577667;-0.050468262;0.26493782;-0.201248;-0.52824444;0.1196115;0.041458596;0.30809242;0.08023528;0.12181638;-0.059623405;-0.10555462;-0.4930064;0.074016385;0.17663379;-0.06006228;0.039927486;-0.037408635;0.03473444;0.10467402;0.022687739;0.05862298;0.023993546;0.23706359;-0.07516882;-0.031340595;-0.16950507;0.15989858;0.21815677;0.121634945;-0.02586819;-0.024927374;0.012417876;0.08022771;0.12866528;0.38504308;-0.022777526;-0.18443929;0.16852173;-0.15360463;0.11555096;-0.029530846;-0.04660378;-0.26743734;0.006843513;0.114914395;-0.0110091055;-0.32955697;0.082114;0.11041407;-0.15104662;-0.30824187;0.031260714;0.21446721;0.31300953;0.026939852;-0.27926314;0.22953977;0.10573114;0.09196361;0.2318641;-0.50360537;-0.027242608;-0.046493698;-0.08659512;-0.08258399;0.057228852;-0.46432254;-0.26865873;-0.08472155;-0.05721268;0.39115077;0.007866342;0.124016814;0.219586;-0.21813601;0.1733967;-0.31842336;0.31177515;-0.37909898;0.1619888;-0.106242076;-0.1085042;0.08614866;0.17739242;-0.23619018;-0.039728124;0.05081985;0.32640365;-0.16409168;-0.22323014;0.052001994;-0.1775468;-0.09807046;0.08973711;-0.1292988;0.14887324;-0.07346953;0.03506822;-0.13011503;-0.28738993;0.1874072;-0.312916;-0.24306759;-0.12290514;-0.20633997;0.16837434;0.116895534;-0.20246065;0.001583384;-0.21805678;-0.27821335;0.006885079;-0.32127878;0.106245436;-0.110958695;-0.108848356;0.12919231;-0.3800531;0.015951535;-0.029469632;0.15426956;-0.09422287;-0.24804054;0.03840905;-0.55960256;0.0050797206;0.40968424;-0.30873024;0.071557924
0.18786481;0.011356172;0.19796865;-0.23231971;0.068695106;0.12680677;-0.09738899;0.28618705;0.004913469;0.051377617;0.13300766;0.05240009;0.0076835873;-0.13366105;0.39504513;0.22024035;0.12908094;-0.17164323;-0.122853726;-0.03273252;-0.04912444;-0.1096663;-0.39111555;-0.15119758;0.15079497;-0.05453978;0.122302115;-0.55316764;0.102426805;0.22567445;-0.016963592;-0.12267911;-0.0076623117;0.03199716;0.047103845;0.10772944;0.012877328;0.027106317;0.32435843;-0.5527015;0.25771433;0.12175332;-0.053507883;-0.20855476;0.12555373;0.10846929;-0.036523767;0.19784841;-0.22772487;0.07430163;0.03118114;0.106566496;-0.035266723;0.13021655;0.26315838;-0.15193422;-0.0432042;-0.39473638;0.21291387;-0.086925425;-0.1663479;0.2795687;-0.2918992;-0.32486162;-0.18960257;0.18123914;-0.20268106;-6.6846274e-05;0.22036918;-0.1322918;0.23265691;-0.06288127;0.14642332;-0.16141722;-0.08718855;0.13722663;0.18597709;-0.39599544;-0.076804675;-0.05056105;0.10223685;0.2823008;0.085884556;-0.20619285;-0.07072805;-0.29399276;0.12232867;-0.026467083;0.24946061;0.15567222;-0.07425265;-0.13387467;0.021673443;0.003968015;0.07208839;0.032851502;0.03794786;-0.021749543;-0.07853808;0.0149821015;-0.33086026;-0.03727209;-0.029070817;0.13835402;0.0020061615;0.35591102;0.24005903;0.21806829;0.33570573;0.14376721;-0.1113975;0.2950818;-0.0027455355;-0.021692932;-0.43351874;-0.19961701;0.029863955;-0.10310039;-0.1446966;0.015465513;0.0632969;-0.030424519;0.022869991;0.07205095;-0.026046388;-0.10088932;0.20628607;-0.03053215;0.020438952;-0.010759079;0.03165657;-0.120743655;0.20752577;0.16888024;0.31712127;-0.26010928;0.1756444;-0.15394102;-0.32371938;-0.11592143;-0.38227546;-0.014839727;-0.015026012;-0.03622354;-0.1620346;0.079550095;-0.123006605;0.024781924;-0.31755796;-0.0850089;0.18714726;0.10889927;0.08871807;0.071856864;-0.03437832;-0.1248995;-0.17733327;0.022758886;-0.17442212;0.11677532;0.17662239;-0.21130113;0.22990675;0.20861651;0.07156837;0.2173501;-0.10333792;0.09943403;0.038451146;0.012648208;0.24108398;0.13062581;-0.2955731;-0.12923412;0.32287103;-0.3213297;-0.039197277;0.0005812059;-0.1677091;-0.36791852;-0.046725936;-0.26320142;0.065128736;-0.040501777;-0.2081768;-0.27504814;0.24590255;-0.016970921;0.026559208;-0.012654377;-0.056521803;0.02912224;0.06206243;-0.13018665;0.17196243;-0.272527;-0.032083374;0.25481483;-0.036347833;0.0027756663;-0.09620148;-0.09473728;0.16519265;0.037733614;0.24751611;0.023099732;-0.27976403;-0.20669356;-0.43559542;0.036403663;-0.07313088;0.1254938;-0.13569178;0.11050641;-0.056662384;-0.18186711;0.05656481;-0.01164512;-0.24501112;0.046462536;-0.01174231;-0.26474965;-0.24180378;0.085324116;0.27963558;0.007962396;-0.114891686;0.08748866;0.028055018;-0.025753455;-0.059012633;0.115904145;-0.030492924;0.21626358;0.2148991;0.13313307;0.13917574;-0.2342801;-0.23678884;0.005775456;-0.09405869;-0.1698335;-0.04422885;-0.33600533;0.037214473;-0.13279834;0.09364088;-0.4831006;-0.015304069;-0.1465006;0.15873864;0.19957565;0.15544377;-0.14130491;-0.12580262;-0.3644471;0.12525389;-0.055633377;-0.108653374;-0.1428573;-0.41653338;0.098627225;-0.34916955;-0.124440044;-0.008475855;-0.10620037;-0.15797542;0.22125313;-0.22521287;0.10421766;-0.10426108;0.10220967;0.3076133;0.22450596;-0.12527482;0.0433922;0.16676192;0.11441644;-0.27712098;0.2753618;0.20287634;0.30210406;0.07580014;-0.09786343;-0.21027409;0.43486112;0.03491056;0.015433518;-0.16630022;-0.15782142;0.17772125;-0.112088695;0.11798846;-0.05904064;0.24817222;0.21407473;0.0030583823;0.08713761;-0.2136347;-0.0733357;0.19064805;-0.08134498;-0.24397936;-0.25378674;-0.32903096;-0.26809776;0.20278989;-0.060821537;0.033642847;-0.041425146;0.021950541;-0.28444237;0.41191754;-0.07495314;0.08261802;-0.022138719;-0.11237565;0.13057221;0.10876499;-0.045533564;0.15582167;0.10007146;0.025456958;0.04553977;0.11210477;-0.13464919;-0.20452678;0.12333906;-0.020153945;-0.16513266;0.06334256;0.18254746;-0.030317146;-0.1389305;0.07629357;-0.05987099;0.25044683;-0.26714078;0.31475145;0.12761402;0.2826651;0.16293676;-0.19671316;-0.12065369;-0.073759645;-0.19072808;-0.085231975;0.16500907;0.21422121;-0.16850574;0.1237644;0.22538586;0.01568798;0.2116081;-0.022825187;-0.008504524;-0.1702473;0.018860158;0.069200404;-0.17678912;-0.3566215;-0.07659295;0.10430172;-0.227348;-0.09963689;-0.33491787;-0.037613433;-0.12718844;0.016389234;-0.11781469;0.11254101;0.046090167;0.20822285;-0.15735185;-0.122961245;-0.116044275;0.08715345;-0.16590655;-0.03892975;0.068851225;0.21293637;0.016109431;0.048147283;0.0853993;0.01925364;-0.005661924;-0.23412435;0.012127658;-0.22019769;0.041335884;0.1829901;0.1067757;0.010138858;-0.15067002;-0.057483263;0.14672774;0.07990974;-0.024100456;0.061650805;-0.17107518;0.028323617;-0.20026919;-0.26438168;0.088708885;0.079603665;-0.14024892;-0.054322053;0.118875876;-0.034970786;-0.06996811;-0.112096384;-0.30381867;0.1986743;0.14616036;-0.2275874;0.07907836;-0.1673591;-0.06293848;0.012181046;0.27812663;0.03683181;0.13462101;-0.35467052;0.03912413;-0.24470186;0.062286187;0.04194014;-0.23698005;-0.27845633;-0.038313057;0.2546507;-0.044506352;-0.16304989;0.15060794;-0.10541523;0.39841297;0.13547027;0.10514593;0.028258799;0.15920684;0.27121332;-0.14538912;-0.1478956;-0.12841354;0.22981487;0.14813396;0.13477805;-0.05885601;0.37620342;-0.1577358;-0.5586376;0.1086926;0.04816876;0.18055026;0.07351035;0.27527606;0.07693565;-0.0491731;-0.43470892;-0.161024;0.30343047;-0.12281645;0.11760178;0.1980562;0.25409102;0.05009027;0.074827194;-0.13452795;0.10472946;0.01933089;-0.13133994;-0.03900931;-0.25282526;0.11608416;0.09474121;-0.17991176;0.03243839;0.06318665;-0.19176352;0.036300838;0.027003786;0.18840265;0.29369426;-0.071415216;-0.12160005;-0.102046646;-0.07905189;0.14331706;0.12258354;-0.047026522;0.026618717;0.101626486;-0.07019011;-0.3884968;-0.03711632;-0.0705817;-0.27364677;-0.135346;0.13634728;-0.12805271;0.062394384;-0.07164785;-0.073775426;0.07420089;0.28079176;0.1564277;0.046217177;-0.7695624;-0.2048893;-0.22633775;-0.22815484;-0.014430931;0.062239304;-0.4755817;-0.26260072;-0.11294363;0.005305411;0.23676479;0.065245904;0.2559787;0.18834063;-0.17568494;-0.12439402;-0.4060611;-0.07040704;-0.021652084;-0.004461298;0.072384916;-0.123296686;-0.102939256;0.20660155;-0.13298817;0.24367745;0.06529034;-0.016541772;-0.17313959;0.07236294;-0.20842566;0.32219625;-0.11557157;-0.07915296;0.04278479;0.1854178;-0.33811316;-0.030045524;-0.053346246;0.13561307;0.021342171;-0.3473293;-0.17080024;-0.1496222;-0.028688708;0.1624112;0.39893886;-0.023519356;-0.30886367;-0.22058342;-0.21166629;-0.02280558;-0.07777675;0.04088717;-0.17572626;-0.090725645;-0.24535489;-0.353236;-0.0910396;0.13399927;0.108322464;-0.20989852;0.16658293;0.17425808;-0.2296611;-0.15218069;0.2611642;-0.08038125;-0.033738934
0.0671297;-0.040456716;0.081507124;-0.080408454;0.10212069;0.15054719;0.07137187;0.1839836;-0.029154325;0.0049683736;0.21693256;-0.12557335;-0.18179443;-0.11739874;-0.015701389;0.13338186;0.22986652;-0.21484977;0.11965262;0.16931757;-0.1470453;-0.18693492;-0.2726432;0.14000526;0.029611576;-0.28653926;0.16347499;-0.44769362;0.029007783;0.11995352;0.12949789;-0.32353732;0.043499105;0.04485433;-0.050116185;0.18234487;0.19534498;0.15587509;0.14241679;-0.611804;0.2791135;0.080316626;0.17383377;-0.16764526;0.16038004;0.1743625;0.062969595;0.13057476;-0.20538683;0.034357753;0.14320943;0.02143792;-0.14866412;0.10157393;0.17680658;0.036977995;-0.07436807;-0.14835851;0.12908925;-0.041665737;-0.15623435;0.33169758;-0.15229617;-0.019251896;0.04543097;0.09672556;0.050441753;0.27920735;0.052951414;0.037014462;0.42511138;-0.006287651;0.21542607;-0.0056796563;-0.2219013;0.084797055;0.33126268;-0.4770035;0.07896006;0.100076035;0.09929359;0.29276648;0.024618419;-0.13138291;-0.14465109;-0.44267863;0.11218443;0.040574063;0.1833788;0.27448586;0.00791087;0.025141371;-0.04842343;-0.10910728;-0.21240997;0.14401156;0.22649297;-0.012061095;-0.14300442;-0.24759246;0.16617896;0.20334525;-0.026914012;-0.14614673;0.1634249;0.3008495;-0.029189512;0.19998597;0.17137456;-0.19317894;-0.1733098;0.11076053;-0.26172015;-0.0049757375;-0.25994286;-0.08065211;-0.024005324;-0.0761628;-0.0017800635;0.019148825;0.23717803;-0.25896108;0.4712673;0.00050314615;0.32285374;-0.011159576;0.1267193;-0.03278775;-0.0075518894;-0.1247096;-0.08986798;-0.16744283;0.3479465;0.27439746;0.17544672;-0.43930998;0.13162214;-0.27277067;-0.07460072;0.041124612;-0.14440624;-0.06357398;0.23666045;0.095240556;0.0796869;0.009095377;-0.010946957;-0.26981923;-0.06539391;-0.13180438;0.1779174;0.16424537;-0.19053991;0.09824743;0.07398656;-0.20548752;-0.089891076;0.11179454;-0.18022843;0.06564041;0.115741454;-0.23382598;0.29218426;0.19049568;-0.023696149;-0.008808405;0.1156686;0.21849073;-0.16633192;0.22207491;0.018924931;0.013748418;-0.43867704;-0.048283763;0.082372256;-0.2781319;-0.25172833;0.10310134;-0.15955351;0.134268;-0.24597755;-0.14413142;0.026672669;-0.1345853;-0.10310826;-0.4080963;0.40014806;0.20838477;0.13222034;-0.09227835;0.073340565;-0.074655764;0.012941184;-0.116105095;0.17694262;-0.4897695;0.1282578;0.08651666;-0.0011053564;-0.012715836;0.041225627;-0.15428895;0.16350652;0.021550298;-0.18892927;0.09410967;-0.16729006;-0.022130497;-0.63451266;0.15816216;-0.11223786;0.31434318;-0.20538284;0.096091636;-0.16296959;0.0027571877;-0.0021522008;-0.02140815;0.023005443;-0.15525529;-0.04338362;-0.3938083;-0.18751311;0.18351924;0.010899516;-0.0053403787;-0.21730612;0.1815117;0.026648432;-0.12626338;0.012366296;-0.034604337;-0.011179827;0.30191547;0.3724855;0.19238466;0.09742662;-0.075627804;-0.27821046;-0.14964314;-0.13539135;0.13519478;-0.2676051;-0.2810737;0.118025035;-0.11015063;-0.0030120423;-0.21348178;0.24778405;0.08445288;0.24290861;-0.15974541;0.27321023;-0.03542022;0.046156723;-0.21507576;0.22634055;-0.17192018;-0.09012987;-0.18041787;-0.062522985;0.18250617;-0.088957295;-0.11597444;-0.16253033;-0.04641913;-0.06233893;-0.039621018;-0.006138449;0.1736901;-0.3353346;0.13079719;0.040033046;0.11413031;-0.10767406;0.13730177;0.20672837;0.094985574;-0.0690425;0.15587433;0.12081377;0.22310793;0.08394631;-0.097858906;-0.041340135;0.24155658;-0.08279673;-0.002991677;-0.10534205;-0.02887326;0.19063142;-0.32362306;0.073474355;0.05634551;0.13173725;0.27485487;0.22947167;-0.17804042;-0.041704036;-0.25177935;0.09802133;0.1333737;-0.17677267;-0.2504373;-0.20316596;0.03862837;0.3071284;0.02074258;-0.048957743;-0.038026866;-0.13854426;-0.057538275;0.34035918;-0.21559732;0.19184528;-0.027779501;-0.15448998;-0.0032123327;0.077626966;0.12784785;-0.022325583;0.031632118;-0.063853435;0.16570884;0.0128447125;-0.14085414;-0.060428016;0.109776005;-0.074903026;-0.06810099;-0.10200327;0.05865464;-0.16231681;0.14549313;0.12769778;0.2604791;0.17480305;0.013718307;0.3765105;-0.06163011;0.46520382;0.06468175;-0.15963763;-0.22980046;0.2225808;0.010659018;-0.297667;-0.040508844;0.015164582;-0.31519878;0.13130422;0.046809033;0.028710196;0.16145289;0.06827505;0.0065804934;0.018710759;-0.15053938;0.12700066;-0.040882833;-0.23600116;0.13142551;0.055717904;-0.13625456;-0.17988533;-0.5151278;-0.28722596;0.04368736;-0.039017603;-0.16170977;0.23557508;0.25507274;0.056916647;0.015297421;-0.039587945;-0.2966736;-0.10030758;-0.38589376;0.10644538;0.15697736;-0.09682831;0.10101427;0.23412591;0.16608588;-0.083608985;0.14982145;-0.31879705;-0.047683615;-0.0807547;0.07127094;0.18661724;0.20438175;-0.021920763;0.107756734;-0.17345566;0.005527257;0.1594329;-0.19578324;0.024822833;-0.094627224;-0.24042004;0.077787556;-0.31620136;0.20937732;-0.11881697;0.041127358;-0.07223879;0.2505952;0.11877742;0.22190347;0.16746065;-0.3466881;0.0972399;0.017585872;-0.07965372;-0.015183572;-0.082415976;-0.16707167;-0.001511978;0.0925509;-0.2891441;0.30866647;-0.29454458;0.04916661;-0.4007283;-0.02908707;-0.106309555;-0.40465233;-0.10815984;0.101100974;0.16166143;-0.1025042;0.06010912;-0.14543122;0.012378322;0.47267774;0.10208678;-0.053384922;0.081635736;0.043713465;0.07549656;-0.34964338;-0.17827877;0.041463662;0.15266368;-0.061922833;0.16769214;-0.13626614;0.17536724;-0.055662464;-0.6516296;0.002626014;0.15032125;0.08154612;0.05002317;0.17229088;-0.13093634;0.0065887594;-0.38014048;0.06760154;0.079939075;-0.017767303;0.07611014;0.1186273;-0.09059022;-0.106481805;-0.2174328;0.019540338;0.14670381;-0.0149766095;-0.2553496;-0.15910223;-0.012772928;0.0037789166;0.2299268;0.028875967;-0.068776816;0.11264816;-0.06969702;-0.06774614;-0.2197786;0.062288497;0.20608504;-0.18829615;0.030497862;0.056062467;-0.10013465;0.032591842;0.13523401;-0.21290733;0.24334027;0.15469775;0.043237038;-0.27007836;0.042956177;0.031951524;-0.19107321;-0.17951533;0.072463796;-0.20056948;0.30345035;-0.16865137;-0.06635748;0.14541034;0.08585487;-0.018356005;0.14037316;-0.38374954;-0.17352846;0.35659495;0.0051750313;0.051165424;0.17482312;-0.41354457;-0.17245673;-0.12802818;-0.12609488;0.14544624;-0.30061442;0.19553347;0.0045352066;0.037319053;-0.009334184;-0.18240672;0.023496186;-0.15547757;-0.025221672;0.21535543;-0.117721;0.0035391774;-0.25851122;-0.07109992;0.16991784;0.095693;-0.2840545;-0.32889837;-0.15891483;-0.109564304;-0.0483701;-0.10222913;-0.0482509;0.083920404;0.108301476;-0.13939261;-0.055876795;-0.3362697;0.09702993;-0.15857512;-0.053811774;-0.20363419;0.054694396;0.17939278;0.017595818;0.08510573;-0.010782143;-0.21014751;-0.09455391;-0.17796582;-0.10827876;-0.16531308;-0.025712147;-0.26359403;-0.18782842;-0.08822084;-0.30346847;-0.18981762;-0.11186469;0.06728627;-0.29612675;0.115772516;-0.02016378;-0.25133038;-0.09505632;0.33108094;0.15316758;-0.10539996
0.11034705;-0.2562242;0.07905902;-0.13182257;0.037022337;0.018636053;0.16255094;0.21810451;0.04958285;0.043112185;0.11585138;-0.055964194;-0.29398352;-0.08735405;-0.04498489;0.15355086;0.012924098;-0.30580133;-0.11090385;0.30776423;-0.2217154;-0.061376628;-0.15279116;0.044668708;0.114213444;-0.16637827;0.12763157;-0.3616045;0.050030585;0.064977214;0.11381633;-0.1439433;-0.035773814;-0.11499806;0.27403268;0.06117806;0.34348336;0.1515822;-0.1682798;-0.31363285;0.1784181;0.1419622;-0.25046054;0.0090358425;0.18399245;0.22448553;-0.061608333;0.047364723;-0.38117737;0.10592986;0.11175653;-0.13656698;-0.026788048;0.1067232;0.25045922;0.24623983;0.13700053;0.0029087018;0.0049418085;-0.07563948;-0.16092958;0.10676617;-0.17255394;-0.37271595;0.074462794;0.004275287;0.15459153;0.39123753;-0.026702775;-0.12551498;0.1861643;-0.23996139;0.044910047;0.017681018;-0.036479127;0.09823688;0.22499546;-0.5204618;0.26342502;0.033807207;0.18174872;0.09568222;0.16632375;-0.18932216;-0.2502999;-0.18150464;-0.079231225;0.11898233;0.3150574;0.14187138;-0.18435682;-0.034291245;-0.066923566;0.05571306;-0.028789798;0.036266927;0.008262569;-0.13168786;0.10959298;-0.18497182;-0.089622386;0.23868993;-0.09812425;-0.20936652;-0.15639754;0.083539724;-0.03463435;0.09175204;0.0861678;-0.107994966;-0.12226037;0.18313469;-0.05637411;-0.0966757;-0.16053149;0.14129148;-0.020908104;-0.20804682;0.28382182;-0.04507934;0.1422079;-0.4008367;0.1808579;-0.010493637;0.015609941;-0.23703545;-0.094530955;0.28229797;0.13300821;-0.118967235;0.16028136;0.0009320348;0.077131994;-0.085912116;0.04205078;-0.39170733;0.14690489;0.11754265;0.15449092;-0.11579701;-0.31437272;-0.1857823;0.3542426;-0.12881736;-0.09122351;-0.103518374;-0.091458954;-0.34567547;-0.09480198;0.04378376;-0.17227148;0.16016209;-0.12749657;0.066113055;0.11702672;-0.29359782;0.037549898;0.13471968;-0.30213466;0.14316075;0.21212147;-0.07693263;0.23928519;0.00499434;0.014903637;-0.06570961;0.051311444;0.4634555;-0.32734007;0.21678522;0.0884016;-0.06656024;-0.4012748;-0.12370563;-0.08865438;-0.09251308;-0.24395761;0.17718145;-0.3312109;0.043924537;-0.23177615;0.016324483;0.0022904966;-0.09241463;0.038700406;-0.36831042;0.14505638;0.18511885;0.061891057;0.053500097;0.50404334;-0.49152344;-0.027463077;-0.36402673;0.14213191;-0.004360371;-0.021642748;-0.11872226;0.24699864;-0.09475885;0.052192643;-0.03659654;0.31176594;-0.13875258;-0.059741136;0.06684256;0.081829794;-0.06412603;-0.74354136;0.28264508;-0.21395893;0.23590414;-0.013156692;-0.088374324;-0.30368423;0.10923243;-0.06506047;-0.15738602;0.06195216;0.15938605;-0.45304182;-0.14117742;0.0111225955;0.079236254;-0.16832261;0.137798;-0.020442018;0.25720072;-0.1641827;0.03289073;-0.2727035;0.038263243;-0.2106298;0.3139484;0.08842571;-0.06014954;-0.08209333;-0.008063246;-0.20578094;-0.029027192;-0.027146636;-0.07855983;-0.16964537;-0.027714198;-0.08015857;0.057022657;-0.08951195;-0.40019327;-0.018695494;0.194064;0.2126976;0.26064977;0.30023628;0.06424391;-0.07977653;-0.31217512;0.13442695;0.05613822;0.058291636;0.045663986;0.03566236;0.08612879;0.10728697;-0.0014263097;-0.2900199;0.33919522;-0.09863515;0.036754273;0.089388765;0.41112635;-0.43349445;0.20884082;-0.2332821;0.13085052;-0.19482598;0.109715186;-0.08496534;0.18457587;-0.18787473;0.0044018077;0.21938138;0.20350294;0.14258821;0.22159722;0.13013239;0.20882407;-0.04763504;0.104530215;-0.09430997;-0.16986565;0.18487433;-0.46637762;-0.11513728;0.13193697;0.0866913;0.24999718;0.047283206;-0.07284734;0.055628918;-0.2673472;0.11443392;-0.07876257;-0.030035635;-0.08865187;-0.12919997;-0.08140837;0.17168404;0.08162006;-0.019468917;-0.071370356;-0.053774927;-0.02771504;0.15755658;-0.107744604;0.12773818;-0.1926322;0.052871827;0.0032348146;-0.09237491;0.13551517;-0.0026930554;0.04864021;-0.20993035;0.036559038;-0.0583723;-0.035926923;-0.1709801;-0.22250381;-0.06329372;0.13625549;0.09357202;-0.051298924;-0.15197289;0.09342425;0.15512314;0.4100222;0.40710953;0.027954986;0.31941798;0.0557671;0.26457772;0.0011275638;-0.03237129;-0.3556848;0.11453052;0.079912685;0.08851676;0.09377408;0.05809465;-0.39069495;0.12039008;0.292965;-0.2620651;0.275766;0.24678926;-0.44551706;0.048356466;-0.081351385;0.1605338;-0.06758992;-0.17515062;0.13556924;0.005876386;0.13037755;-0.43720347;-0.44796997;-0.3409259;0.047611587;0.043936484;-0.16243558;0.16703883;0.13350165;-0.071808435;-0.06299839;0.086189;-0.45977557;-0.11956455;-0.5150347;-0.15694092;0.04294581;-0.29124907;-0.36019227;0.1036405;0.1662349;-0.25953045;-0.098500185;-0.0894647;-0.007429371;0.0939324;0.06198566;0.19299486;0.027565775;-0.068690516;0.103533424;0.07943691;0.038449883;0.0797548;-0.30363533;0.01254219;-0.25817972;-0.057497133;-0.11628722;-0.25048152;0.15974173;-0.24681586;0.085871056;0.19035569;0.18629417;0.010759915;0.3025415;0.090891205;-0.14209835;-0.16347453;-0.014252852;-0.11330785;-0.031261873;0.03692815;-0.2249082;-0.050334066;-0.033631615;-0.22679988;0.18046536;-0.5266807;0.10410777;-0.2698933;0.05823217;0.026822854;-0.28585216;-0.5833872;0.07054549;0.037035182;-0.1427291;-0.0675705;-0.052349385;-0.04338232;0.20014042;0.24574511;0.20361513;0.019183239;-0.026111018;0.221469;-0.40624967;-0.14631568;0.14501604;0.29996574;-0.025818551;0.06900682;0.07488142;-0.005274445;-0.25750157;-0.33201456;0.22570822;-0.056220677;-0.06798236;0.20466024;0.3731451;0.30873382;-0.037981972;-0.5152863;0.1960808;-0.086680025;-0.110259466;0.116989665;0.23730417;0.001340496;-0.07933179;-0.026853168;0.14270651;0.07344644;0.24097276;-0.042770658;0.002725871;0.271787;0.054797165;0.23068486;0.32602763;-0.11895587;0.082619935;-0.0036677634;0.27902132;-0.019619828;0.05154767;0.19953178;0.007807541;0.10981666;0.03205212;0.07273679;0.30484623;-0.029507678;-0.13571891;0.21156831;-0.0122923;0.13166389;-0.10794823;-0.09752039;0.20567538;0.1981588;-0.12749664;0.047649633;-0.11273467;0.078021124;-0.1654358;0.15955347;-0.037761007;0.046210457;0.15011881;0.22030064;-0.08927793;-0.56675607;0.20621115;-0.018931003;-0.04961045;-0.038661726;0.012733655;-0.30662668;-0.12521476;-0.21698089;-0.051486377;-0.28094125;0.14133745;0.10415096;0.05255925;-0.0951973;-0.037581597;-0.03616478;-0.066605926;0.11952089;0.16404846;0.0008034975;-0.043847956;-0.20263284;-0.12114325;0.05621827;0.27712548;-0.116284996;-0.14078888;-0.25839347;-0.048673946;-0.15238625;0.12503392;-0.08235785;0.08095475;0.022223147;-0.0021956882;-0.09417372;-0.42647865;-0.033283822;0.15568209;0.11410225;0.079031095;0.023195053;0.20357731;-0.109834164;-0.19420359;0.06224445;-0.017619815;-0.26117384;-0.03096013;0.13255696;-0.2406197;0.24091114;-0.18746243;0.036446463;-0.2412071;0.034416273;-0.07756561;0.04330484;0.036173295;-0.045194954;0.27417806;0.07565623;-0.2971982;-0.0107022375;0.121874616;0.1836942;0.011422187
-0.01113594;-0.24497087;0.24684039;0.011681244;0.016974756;-0.02907791;0.14797215;0.009629039;-0.11087276;-0.030553773;0.16722268;-0.039919443;-0.15272631;-0.15579845;0.1180421;0.15008216;-0.06892094;-0.11714604;-0.042131994;0.283044;-0.2091948;0.020975469;-0.3491777;-0.13203713;0.024068957;0.10562784;0.14666247;-0.35933173;0.30574295;-0.015531264;-0.052234136;-0.18995263;0.011558812;-0.10068474;0.4336874;0.06647292;0.16980983;0.10599243;-0.17338793;-0.22405694;0.042128406;-0.096748225;-0.10712202;-0.08480202;0.03295441;0.084876075;-0.1409013;0.036467873;-0.30970708;-0.1279721;0.005913966;-0.22256777;-0.4779221;0.31409794;0.21804805;0.13484913;0.2523181;-0.14061892;0.053372547;-0.3127075;-0.20011795;0.114075884;-0.1873115;-0.23425275;0.17798172;0.104488045;0.26834512;0.42340016;-0.1597236;0.0718286;-0.043657687;0.056522004;0.2537182;0.09780198;0.3170138;0.0897976;-0.047630288;-0.07527878;0.24526745;-0.04956526;-0.12618504;-0.04666854;-0.023805937;-0.15442339;-0.12998138;-0.035918105;-0.029990448;-0.028052669;-0.011118696;0.05906493;-0.0010829503;0.12553105;-0.040758982;0.04976635;-0.056420762;0.101472385;-0.037554845;-0.1343978;-0.17807017;-0.09594155;0.024749596;-0.012112933;0.07797694;0.020970313;-0.21805584;-0.31603852;-0.0611307;0.25133887;0.23703364;-0.22584338;-0.13257156;0.04320748;-0.22238983;-0.323337;-0.17384255;0.21622667;-0.017164383;0.32227626;0.31362385;0.15111698;-0.0066463514;-0.02490902;0.23066808;-0.0588219;0.17793506;0.06845974;-0.33189648;0.16782294;0.06484916;-0.06440598;0.16912583;-0.07565452;-0.09941376;-0.2583783;-0.058300436;-0.40623638;0.16156234;0.119392455;0.0634025;-0.21744119;0.19497728;-0.270602;0.37766254;-0.12263668;0.059341367;-0.14177406;0.04348665;-0.2074088;0.0070361695;0.040068496;-0.078960955;-0.10781239;-0.25012144;0.17440203;0.31653225;-0.10557477;-0.032842346;0.117984846;-0.36768425;0.2192819;0.050113175;-0.06975115;0.2866459;-0.24117464;-0.0956469;0.048016418;0.08952113;0.1974486;0.034860108;0.119699456;-0.16954048;0.018027252;-0.04667122;0.031395923;0.006331426;-0.17954719;-0.21756801;-0.20447175;-0.071224615;0.2948224;0.0010495993;0.19868055;0.10018625;-0.32462406;-0.016026514;-0.060047816;0.20118314;-0.21251689;-0.10620678;0.1357413;0.18555401;-0.0020743015;0.07684785;-0.18755452;-0.05449756;-0.23342486;0.106995344;0.041257847;0.19129561;-0.053425096;0.0442265;-0.0020359;0.15624309;-0.015706662;-0.029709524;0.1852138;-0.2170928;0.09618992;-0.38422018;0.14706601;-0.3849448;0.28390267;-0.041875545;0.036206312;-0.17415911;0.1036896;-0.14159797;-0.29224238;0.2401477;-0.16539912;-0.49199152;0.03409999;0.015455007;0.09393288;0.083239615;0.03076233;-0.041521452;0.18221779;0.09176032;0.30416784;-0.2784148;-0.05225881;-0.23690431;0.04413218;-0.05336335;0.27786857;0.11017957;0.17159662;0.015921189;-0.11348435;0.16013701;-0.014113478;-0.17311615;-0.04895298;-0.07042307;0.08367035;-0.07358778;-0.23754352;-0.021058273;0.23686786;0.22014378;0.24819906;0.25484338;0.07263286;-0.07209068;-0.07272796;0.10690437;-0.004810648;-0.02628237;0.060512174;0.16338915;0.076402605;-0.1573722;-0.17346792;-0.3280012;0.3151298;-0.06623232;-0.023472935;0.03708597;0.4196679;-0.3000121;0.2375674;-0.16697219;0.056112006;-0.25484088;-0.27312687;-0.008921249;0.17384265;-0.057849105;0.05491166;0.08693065;-0.09305426;-0.083431154;0.1554727;0.21611764;0.22708362;0.03746629;0.07494716;-0.10018984;-0.04480458;0.104085684;0.10446629;-0.20024964;-0.019847695;-0.21660516;0.13901427;0.39400905;-0.079534404;0.098253146;-0.02085858;-0.086488575;0.055377427;0.008666982;0.058246486;0.1300522;-0.23245989;0.2193189;0.006933977;-0.20287795;-0.0068508834;0.012127976;-0.13721438;-0.058574412;-0.05886158;0.040022895;-0.25091624;0.22053744;0.08881891;-0.0053033163;0.17261262;-0.21663329;-0.19928041;-0.03559304;0.17554584;-0.06532802;-0.0062067523;-0.17356898;0.031041624;-0.43414697;-0.28149635;-0.010300167;0.027737875;-0.11358927;0.016555829;0.3010653;0.19385278;0.3334625;-0.19781907;-0.08605818;0.09334852;0.019653412;-0.14530918;-0.14976454;-0.20146781;0.2628732;0.1694647;0.060866207;0.25690016;-0.17105222;-0.017234653;0.017399801;0.4780909;-0.36505198;0.16679521;0.12188047;-0.25905102;0.17869982;-0.20986812;0.26988098;-0.049455516;-0.03966574;-0.107803345;0.022170546;-0.012266227;-0.33437786;-0.282309;-0.18912327;-0.0916709;-0.27970853;-0.10826412;0.11055557;0.076824844;0.21553183;-0.021368364;-0.22431713;-0.38739893;-0.31383047;-0.044821866;-0.32126483;-0.27498507;-0.048087534;0.107278585;-0.010633921;0.028651867;-0.08498194;-0.014026465;0.089902855;0.041134235;-0.035549883;0.15819384;-0.3271239;-0.08302937;0.11684889;-0.0014599293;0.28660202;-0.054171856;-0.03710399;-0.10214633;-0.023599176;-0.17766617;-0.26348132;0.055035613;-0.3233654;0.16565259;0.038567964;0.14212851;0.1886371;0.05258742;0.07897873;0.03838894;0.31419885;0.03947466;-0.09109549;0.13428271;-0.29804987;0.111994796;0.29787722;-0.09176025;-0.08261798;0.26709703;-0.15802263;0.007543839;-0.2152109;0.042595927;-0.30596876;0.17308529;0.035814844;-0.018321265;-0.22715183;0.19242208;-0.18211316;-0.14303719;-0.084686354;-0.09267208;0.08433302;-0.27141595;-0.018811217;-0.15046112;-0.13059041;0.12471272;0.11759274;-0.34174514;-0.013020495;0.24707423;0.1531153;-0.045785155;0.029813463;-0.08891134;-0.26093692;0.118701175;-0.30416954;0.25846305;-0.018288946;0.03648075;0.06797358;0.23011337;0.1683163;-0.0358796;-0.3863452;0.15824051;-0.0123035265;0.108039305;-0.16236226;0.1361928;-0.05220672;0.10007639;0.21968602;-0.029652623;0.35326266;-0.005518312;-0.10775718;0.23443843;0.19039941;-0.1538726;0.2842269;0.09145008;-0.044496816;0.12171747;0.10459509;0.0732079;0.00978508;-0.086500704;0.069801144;0.23924917;0.120922126;-0.1728752;0.1333669;0.28997138;0.16857211;0.101421595;0.25677425;0.0045328285;0.052394956;-0.3567622;-0.4211356;0.038843468;0.016194873;-0.17394209;-0.095153406;0.022907294;0.26385993;-0.2572482;0.08523041;-0.18792202;0.0503111;-0.061631512;0.2597759;-0.4357226;-0.5163353;0.090209685;-0.09631944;0.029526178;0.10495561;-0.18931864;-0.19420661;-0.035129897;-0.088248335;0.034847908;-0.3425916;-0.0398779;0.06986085;-0.2082522;0.21989733;-0.08207962;-0.16483736;-0.23329476;-0.07139082;0.008407872;-0.13053755;0.0103567215;-0.33405843;0.045022447;-0.07374437;-0.03974967;-0.31780258;-0.13214542;-0.016015766;0.13033931;-0.13761577;0.013780875;-0.17027357;-0.08256298;-0.19889118;-0.10073711;0.23495528;-0.06359037;-0.05685136;0.07098464;-0.22385843;0.32525757;-0.075339735;0.10690469;-0.06208314;-0.40059453;-0.15434092;0.029056344;0.10037801;-0.008282576;0.17816943;-0.05221096;0.2634966;0.120458245;-0.1288863;-0.07555035;-0.208021;-0.31336683;-0.07027423;0.17455038;-0.20243649;0.32094246;0.26243478;-0.1586823;-0.063154876;-0.14490685;0.027600547;0.1319339
0.08217744;-0.037638552;0.047916427;-0.055568464;0.07653591;0.012251393;-0.064886265;0.08758508;-0.18118997;-0.22372217;-0.1846928;0.076439664;0.124032125;-0.10756313;0.15923245;0.18913342;-0.11859757;-0.20780517;-0.062580355;0.13032015;0.030090557;0.2318254;-0.15890042;-0.07156106;0.16884105;0.28467017;0.21381596;-0.039374024;0.21613955;0.09939714;-0.22769912;-0.25759232;-0.041178215;0.07471372;0.39741465;-0.09358441;0.22555779;-0.13168782;-0.10328172;0.060002133;-0.12004628;0.020632291;-0.45263276;-0.07170512;0.05651876;0.17699504;-0.050116446;-0.05532105;-0.25419086;-0.041053582;0.018143067;-0.076468386;-0.19579771;0.063045144;0.14889058;0.23599313;-0.11529356;-0.2222148;-0.034485478;-0.2794081;-0.38488978;0.0985442;-0.40422574;-0.0134156495;0.17092822;0.038485456;0.14204521;0.18245439;-0.022317473;-0.06165957;0.24228461;-0.0709301;0.19674388;0.27073675;0.2176185;-0.12160494;-0.06038152;-0.44417113;0.16671866;-0.17631757;0.21642748;-0.06885806;0.23389693;-0.17884298;-0.009548909;-0.0730146;0.13007057;0.121522225;0.0548002;-0.13544081;-0.13933918;-0.07278936;0.05821646;0.0055953073;-0.20545824;-0.026682913;0.13530761;-0.020653168;-0.16927065;-0.1846345;0.23679511;-0.3443151;0.20214733;0.40623155;-0.19246049;-0.045572784;0.057977125;0.35522664;0.17884764;0.0058909575;-0.06586766;0.0063367295;-0.37681675;-0.41590253;-0.16078015;0.12593454;-0.05440318;-0.13213813;0.12793358;0.1766834;0.14506687;0.0650929;0.24505316;-0.0023669922;0.03664818;0.26960507;-0.13206051;0.020080255;-0.15337545;-0.15823194;0.029083075;-0.13782975;0.3065161;-0.22411238;-0.30496764;0.021452678;0.22632708;0.1351844;0.11104138;0.03735374;-0.110365;-0.073947266;0.1871285;-0.22940733;-0.025547521;-0.043824654;0.08512449;-0.14118542;-0.043637857;-0.267978;0.072198145;0.10168554;0.12218562;0.12631576;0.02775193;0.011443754;-0.07669685;0.24824755;-0.23061341;0.27274874;0.09527136;0.13275063;0.20851208;-0.011111062;0.07023206;0.077584535;0.3494875;-0.03044717;0.04118916;-0.013632282;0.011238066;0.13335066;-0.31117174;-0.119357586;-0.0132037;-0.4568036;0.17646278;-0.065964505;0.020660637;0.46939522;0.0069232653;0.19714628;0.053775385;-0.17176078;-0.12070741;-0.22696565;-0.03450394;-0.14191143;-0.26908943;-0.08287914;-0.054369114;0.15667942;0.109364174;-0.13464281;-0.13293406;-0.40249285;0.034006182;-0.05506587;0.16130374;-0.08332039;-0.10981693;0.12287458;0.14908789;-0.15323928;-0.036099806;-0.10048545;0.203321;-0.108368196;-0.31529054;0.25501856;-0.32572377;0.14901042;-0.0074408147;-0.18468629;-0.30829063;-0.18369244;-0.08953217;-0.20267072;0.14339101;-0.08691397;-0.33341852;0.18683258;-0.07918623;0.06882239;0.09683344;-0.09743222;-0.29091704;-0.31758097;-0.14420182;0.061496597;-0.34314653;0.074136086;-0.12983538;0.021290068;-0.0645413;0.31605935;0.22581446;0.109696165;-0.12588583;-0.03183721;-0.049050942;-0.09501369;-0.2907729;-0.1720193;0.10313749;-0.119919345;-0.07318467;-0.03181776;-0.039324425;0.22530112;0.32568005;0.01407168;0.13100718;-0.08386063;-0.14390889;0.049106617;0.16905916;-0.09713269;-0.1817422;0.11241114;0.26562247;0.18667896;-0.28426802;-0.086389326;-0.17360777;0.22365512;-0.22544;0.05340421;-0.05835316;0.26117632;-0.13221763;0.31095025;-0.0013827791;0.12765087;-0.2472042;-0.068580434;0.18455227;0.098596334;-0.15648185;0.19844595;-0.037450567;0.20416845;-0.039955784;0.3478481;0.20691395;0.057112724;-0.11651977;0.28146932;-0.0074989917;-0.10124346;0.30982593;0.075766124;-0.04941892;-0.07157296;-0.29208738;0.08982071;0.19395116;-0.14640246;0.18794288;-0.07370804;-0.07929882;0.045179196;-0.15357374;0.11423662;-0.22180226;-0.23449393;-0.0013657269;0.03870582;-0.04141701;0.008652944;-0.03945395;-0.13915628;0.15955271;-0.01961322;0.005461758;-0.315062;0.072336584;0.2528784;-0.061293047;-0.14019091;-0.29624423;-0.2803606;0.17261153;0.18378092;-0.15916567;-0.15628737;-0.049557317;0.062667854;-0.26519328;-0.2743654;0.11769573;0.3475381;0.042186648;-0.20639613;0.12810884;0.09961016;0.44623643;-0.09597359;0.10197641;0.30998987;0.12678476;-0.22739911;0.032582104;-0.33988154;0.15492687;0.027186656;-0.12928084;0.13604343;-0.2130054;0.11814535;0.0007309238;0.28078717;-0.116234735;0.20368254;0.12582223;-0.12844795;0.06732296;-0.0114694005;-0.0024344625;0.06423589;-0.23260461;0.21253094;0.036957834;0.39060196;-0.25462654;-0.42680195;-0.10569271;-0.17512694;-0.43067148;0.03365397;0.042233996;0.08133363;0.42924425;0.18871073;-0.026219543;0.008762993;-0.19857472;-0.3034835;-0.17883538;-0.29881355;-0.08957609;0.12305152;-0.05306039;-0.011514274;-0.1309769;0.012175892;0.266461;0.02541561;-0.0064557204;0.1918428;0.028655415;-0.009979486;-0.028323116;0.07573232;0.3264825;0.18437715;0.061776757;-0.036694016;-0.111231275;0.02025825;0.09384622;0.059795525;-0.1911165;0.1198802;-0.21451938;0.020970227;-0.09592813;-0.012850611;-0.05353694;0.0027897249;0.07821699;-0.054294866;-0.041803308;0.027027184;-0.25381786;0.12424884;0.20549545;-0.18640216;0.030085256;0.31031138;-0.05778508;-0.14670709;-0.08225268;0.20925851;-0.29038548;0.22215074;0.20012371;-0.17990664;-0.14879088;0.08758109;-0.13188137;0.068865106;-0.0029081106;-0.015595882;0.039620135;0.18764925;-0.037344787;-0.11847129;-0.08128971;0.022568345;0.23471521;-0.13724348;0.06004696;0.07553521;0.2112943;-0.15844887;0.06672436;-0.1714196;0.026995111;-0.15013948;-0.21188867;0.22742859;-0.3063864;-0.06267543;0.16002958;-0.020858929;0.2732501;-0.048477508;-0.121247284;-0.04095521;0.08982452;0.1625992;-0.023034759;0.068504706;0.007815676;0.27702257;0.23950158;0.11225309;0.23792744;0.13775855;-0.22279917;0.10779581;0.27904865;-0.15631802;0.2443151;0.12399322;-0.044536702;0.2447056;-0.03431612;0.0067829657;-0.080653034;0.09299235;0.28963786;0.5393235;-0.23697725;-0.26576903;-0.026107714;0.14997886;0.17455561;-0.057718262;0.14776549;0.0063092285;0.26270717;0.158441;-0.49299374;0.33733994;0.05888985;-0.12943278;-0.010148551;-0.20041783;0.16608821;-0.25382462;0.103872694;-0.08613507;0.08213876;-0.12777539;0.13682973;0.123737924;-0.3273883;0.0069851317;-0.15514868;0.01853396;0.025098547;-0.030384112;-0.08381383;-0.101619646;0.024368156;0.17925315;-0.32003182;0.09446509;-0.11963996;0.07134981;-0.15819897;0.15720774;-0.09710014;0.03144966;-0.3410335;0.043187227;-0.042187475;0.13531168;0.009369861;0.15488602;-0.18425545;0.050779846;-0.15650916;0.13240173;0.07444331;0.30807418;0.15076695;0.12225874;0.05621229;-0.35472482;-0.08173053;0.1452421;0.03061427;-0.21265861;-0.1965106;-0.14361599;0.04695172;0.1928163;-0.104806535;0.04072988;-0.12180294;-0.2740254;-0.15805496;0.009933836;-0.3868559;-0.07429184;0.17109884;-0.38015392;0.16946213;-0.089739546;-0.10625484;-0.10063327;-0.25951302;-0.3626119;-0.087372325;0.09491287;-0.28980884;0.37521815;-0.07779199;-0.43027034;0.016014352;-0.107633576;-0.07211133;-0.05296792
0.120571345;-0.13768105;-0.07291139;0.049949765;0.12107734;0.034968268;-0.15185432;-0.052966848;-0.093309;-0.21588089;-0.25881547;-0.22686157;0.07701306;-0.11935981;-0.04716659;0.06644797;-0.15000446;-0.0037142306;-0.32797548;0.157544;-0.003439235;0.19000351;0.060594782;-0.04406301;0.33614567;-0.06399514;0.23292165;-0.012834957;0.26205823;-0.053953927;0.22300793;-0.26512137;-0.021940196;-0.013967784;0.25477827;-0.18410052;0.22230238;0.008385355;-0.20329593;0.10283402;0.093892805;0.09274525;-0.28667784;0.055272285;0.13994637;0.05813309;-0.17679338;-0.042239353;-0.012604026;0.2917597;0.23669678;-0.23311621;-0.06777389;-0.11787244;0.034917556;-0.019331386;0.16921765;-0.117604055;0.07484604;-0.18506141;-0.23465064;0.006855688;-0.31806004;0.08802028;0.18041289;0.074298635;-0.28307205;-0.026072042;-0.08832305;-0.13289963;0.27479726;-0.12728839;0.19706899;0.15633287;-0.0033870563;-0.09780509;-0.009988507;-0.5560139;0.09743156;-0.08690413;0.092595175;-0.07182148;0.22471361;-0.14755099;-0.2349184;-0.20555677;-0.042335123;0.13677333;0.1007775;0.082941405;-0.14883855;0.0011840203;0.12170814;-0.23248756;0.15349486;0.10048201;0.17857382;0.12358342;-0.011957838;-0.15749457;0.21044944;-0.550111;0.1516639;0.4900118;-0.2077597;0.22936225;0.06745773;0.41325706;0.32471898;0.072325096;0.016051237;-0.028890073;-0.2637855;-0.26680303;-0.15499042;-0.017018216;-0.03862559;-0.46981138;-0.016473385;0.040579617;0.07710957;-0.21445264;-0.057934053;0.010011268;0.131009;0.24893507;-0.07725898;0.10556308;-0.30064481;0.06994198;0.2315796;-0.02525171;0.33235782;-0.162733;-0.19816077;-0.2643113;0.1387936;0.10649257;-0.04371596;0.06136274;-0.05385657;-0.34163243;0.1064326;-0.08332815;0.051396705;0.2177781;-0.11225657;0.28102878;-0.008994111;-0.21239837;0.14258374;0.18546297;0.027774926;0.008024203;0.09753109;-0.14909674;0.061014943;0.09232699;-0.33559325;0.2471853;0.085678004;0.414498;0.047865395;-0.10558143;-0.008894819;0.20788188;0.2340867;-0.04109119;0.21196415;-0.048339892;-0.121876895;0.05883115;0.083552;-0.17179827;-0.2699566;-0.39040908;-0.18152136;-0.13620032;-0.06194607;0.2583644;-0.16476728;0.1258473;-0.20756343;-0.33397004;-0.1434225;-0.09235497;0.12759799;0.059393708;-0.08666177;0.2329967;-0.12255018;0.070429474;0.037367243;0.09338286;0.08223553;0.036669835;0.098092064;-0.13858722;-0.016877728;-0.06881582;-0.24221112;-0.003121153;-0.10285706;-0.00036884903;-0.123483054;-0.0153526375;0.23998015;-0.028297454;0.031907883;0.13285497;-0.10147604;0.26388007;0.017868223;-0.08272624;-0.17238119;0.023432253;-0.041083455;-0.010422857;0.032226436;0.232074;-0.1807251;0.14554918;0.011337392;-0.0530123;-0.07001076;0.11069268;-0.08527198;-0.21501464;-0.084227264;0.13111511;0.021057922;0.086846456;-0.1780267;-0.06420936;-0.09743447;0.026513394;0.3204358;0.14058529;0.0187483;0.0020409627;-0.07638841;0.15796101;-0.13266484;0.0035852615;-0.033781994;0.13546358;-0.07462337;0.03836252;-0.012994712;0.45916945;0.1046625;-0.026957966;0.18939053;0.13884275;-0.15359025;0.24781281;0.144329;-0.11988498;-0.14829084;0.039305314;0.077017285;0.13579802;-0.122148335;-0.03539341;-0.17347793;0.053813454;-0.00942592;0.08854645;0.10174731;0.09192999;0.059485864;0.124183275;-0.057330534;-0.08925577;-0.20020065;0.19950844;0.054029234;0.21941593;-0.20629834;0.0761763;-0.26072562;0.03327791;0.06261421;0.3993479;0.105007984;0.11554281;0.042046335;0.4730034;-0.079669185;-0.20004709;0.19115604;-0.2722396;-0.10293075;-0.10966248;-0.19175746;0.0522577;0.22346224;0.075696275;0.1730734;0.057136282;0.068315335;0.054411296;-0.10686263;0.15463008;0.11295742;-0.28940165;0.054168437;-0.22552107;-0.14679727;-0.12346415;0.15045741;0.09841665;0.25607818;0.03558665;-0.17051414;-0.22382796;0.18495995;0.06011171;0.08433135;0.06007614;-0.1320181;-0.20318425;0.0099131;0.169638;-0.14563823;-0.027966933;-0.007794544;0.21571049;-0.18830523;-0.20322828;-0.13188858;0.25618988;0.006130289;-0.13721511;0.016181143;0.08991766;0.282346;0.084476925;-0.2377342;0.0028351538;0.0329046;-0.03656512;0.21104842;-0.09303757;0.15527524;-0.15677163;-0.112793416;0.21845216;-0.031682327;0.19037206;-0.08475139;0.20232205;-0.08695507;0.19943063;-0.07599268;0.13193315;0.049623083;0.10400116;0.011773226;0.1348454;-0.023100784;-0.003101418;0.061717093;0.2888877;0.058998983;-0.16619222;-0.20879488;-0.08065388;-0.28595045;-0.1500688;0.20037898;-0.087777495;0.13567932;0.17694291;-0.1128335;-0.12872094;0.041748814;-0.16264139;0.09825626;-0.05680106;-0.05459281;0.18285194;-0.12102205;0.067126304;-0.05336072;0.20753786;0.12145471;-0.060576193;-0.16143328;-0.0022816441;-0.06906951;-0.004518522;0.09291043;0.25395536;0.30906305;0.19465302;0.41832027;-0.10559953;-0.22803466;0.12924242;-0.16720073;0.14681761;-0.08695333;0.3436141;-0.44903964;0.045367073;-0.07322142;0.32832882;0.1003748;0.20071475;0.024945524;0.01774418;-0.06798684;-0.17667684;-0.43946448;0.020821864;-0.04414978;-0.12641264;0.028939093;0.21385157;-0.23696232;0.04152679;-0.06841461;0.008495542;-0.15214047;0.08483986;0.07934371;-0.038177148;-0.15219653;0.15496716;-0.21666591;0.23092268;-0.30327407;0.27035284;0.0043645245;0.0011985358;-0.21752161;0.16599867;-0.083586425;0.13294026;0.30331895;-0.037528157;-0.016916623;0.074816756;0.046725743;-0.016944718;0.08132177;-0.18992642;0.15873691;0.076672554;0.034094185;0.47497398;-0.20592646;-0.082301214;0.05485722;0.1686567;0.15638821;-0.1489108;-0.030766875;-0.3433378;0.07169543;0.12683888;0.051573213;0.24012266;-0.17132251;0.33051738;0.19043027;-0.08048643;0.29640538;0.011138645;0.0551188;0.12706202;0.3546444;-0.14122787;0.22956023;-0.05529579;-0.033395108;0.11281964;0.24287663;-0.054256473;-0.18746194;0.15484652;0.35292244;0.20469174;0.17973891;-0.20538245;-0.03681943;-0.013637974;0.009703781;0.154364;0.108642876;-0.15226702;0.043317135;-0.19521977;-0.5253658;0.15004544;-0.30317637;-0.09794172;0.011130741;0.059939478;0.16677299;-0.14969227;-0.040379323;-0.4956318;0.23387057;-0.2043573;0.0019931365;-0.19371834;-0.03238883;-0.14616878;-0.02075689;0.16328612;-0.17164893;0.15358466;-0.03388833;-0.14378786;-0.13175498;0.10142198;-0.21938828;0.083289534;-0.14658679;0.1392638;0.107787445;0.3795942;-0.0800707;0.10284139;-0.11268989;0.17490098;-0.124445066;0.25535718;-0.04765457;0.19059643;-0.15832531;0.001758048;-0.051767975;0.26994506;0.1193785;0.004308301;-0.017642057;0.2337138;-0.049642377;-0.15551259;-0.10190327;0.1533451;0.12666704;-0.10622042;-0.22170503;0.0789934;0.29472363;0.04616895;0.021601351;-0.14310086;-0.02690518;-0.2283777;-0.2110385;-0.043375414;-0.1536632;-0.21987936;0.18165007;-0.10538559;0.20384105;-0.08476167;0.13769269;0.14307915;-0.36512607;-0.27764192;-0.07711018;0.02866497;-0.27687874;0.15859452;0.1153117;-0.7415814;-0.09982594;-0.018479887;-0.072478004;0.00066715985
-0.023116704;-0.13888493;-0.16599214;0.061637726;-0.049456652;0.07151875;-0.120082006;-0.41214177;-0.022949569;-0.2962693;-0.34663576;-0.02257128;-0.20075312;-0.12747838;-0.31423104;0.22646427;0.2033807;-0.034672853;-0.092138566;0.049454335;0.086454004;-0.01713805;-0.13110203;-0.26500377;0.45611367;-0.007276721;0.21330753;-0.18474232;0.29988104;-0.02675541;-0.22864808;-0.12484602;0.008553291;0.0057672393;0.082509875;-0.111568585;0.103160575;-0.05153982;0.026338441;-0.11812251;-0.12421024;-0.21124071;-0.2063099;0.01599917;0.069257215;-0.030945953;0.0240402;-0.033587147;-0.12642857;0.16687603;-0.050217412;-0.25728032;-0.072467454;-0.035903152;-0.14353853;0.080406845;0.2098661;-0.06238386;-0.14576775;-0.2337173;-0.111965485;0.28239137;-0.11184328;0.22320244;0.000728075;0.015556893;-0.15459825;-0.12685427;-0.26399285;0.025602737;-0.12403066;-0.0463426;0.23698252;0.42685303;0.18398902;-0.18803641;-0.02298826;-0.48100674;-0.12905583;0.2605425;0.09482943;0.119137414;0.39067566;-0.22416067;-0.13911167;-0.15515274;0.019872928;-0.056083187;0.1031805;0.18302397;0.15302873;0.01737397;0.1342034;-0.12281727;-0.19170088;-0.06466546;0.34020197;0.01560281;0.17977056;-0.055004757;0.13764304;-0.14919396;0.108565904;0.34544098;-0.022532351;-0.026837012;0.004847263;0.555362;0.11224932;0.19772302;-0.06289871;-0.17753729;-0.037215874;0.03395897;0.0070725405;0.08498855;0.0010757173;-0.14342153;-0.16521671;-0.15205696;-0.009440629;-0.15095279;0.11643432;0.05618558;0.030631699;0.18444492;0.21589774;-0.025325589;-0.022937952;-0.09790697;0.29775557;-0.015668133;0.047616426;-0.111429;-0.3288035;-0.15237817;0.026361657;-0.010924646;0.16226032;0.07743653;-0.028249972;-0.16064456;0.05416157;-0.08984945;0.20328814;0.09511506;-0.12895416;-0.025129007;-0.04734828;0.12881182;-0.051013086;0.34239718;-0.11437858;-0.12870088;-0.06155612;-0.2182561;0.026970051;0.1242;-0.11985106;0.27617204;0.021891547;0.4809798;0.21722727;-0.11183376;-0.07292068;0.027719693;0.3261954;-0.10774858;0.30280504;-0.16481762;0.21709616;-0.03208124;0.077264935;0.19649014;-0.052411374;0.15024415;-0.04603463;-0.10373761;0.21516357;-0.0476174;-0.048460107;0.009754528;-0.28244877;-0.20931536;0.07438011;0.17623419;0.18192592;0.18892923;-0.062627055;0.034682672;-0.28253648;-0.19821225;0.029966285;-0.14197068;-0.018365575;0.35786548;0.0689729;-0.028437737;0.05330556;-0.16535859;0.041211654;-0.044387743;-0.12144771;0.06743577;-0.15777291;-0.07624924;0.08939929;0.05350948;0.36802915;0.0010610825;-0.15675403;0.151176;-0.25978008;-0.006504228;0.022664318;0.13761339;-0.18833324;-0.06250407;-0.18643329;0.30697748;-0.16214547;0.09145875;-0.18572831;0.14251015;-0.043583646;0.17562398;-0.16133673;-0.11694956;0.0889028;0.08518053;-0.28752688;0.1448607;-0.07210757;-0.08327518;0.033830322;-0.1314853;0.50588566;0.11836406;0.02871857;-0.0655785;0.12224572;0.0072126156;0.08690563;0.041265797;0.0010897804;0.28119949;0.034833297;0.13086602;0.050295588;0.17294905;-0.058997087;-0.25397083;0.24516484;0.15372215;-0.09689088;0.18796927;0.0034036357;-0.02917604;-0.22026971;-0.005547608;-0.11178514;0.091181956;-0.20648046;-0.025261147;-0.11004646;-0.2742757;0.15182914;0.088305205;-0.04723183;0.06753582;-0.43336055;0.061979163;0.18597119;0.13589984;-0.22948061;0.06948122;-0.062432755;0.18121786;0.028851861;-0.022166112;-0.377853;0.18482055;0.06855527;0.08171529;0.08587507;-0.2812582;0.13621941;0.12877236;-0.06418468;-0.11514421;0.5317393;-0.28171185;-0.15878007;0.17136258;-0.2594991;0.16426498;-0.08298531;0.06449599;-0.022396274;0.26692915;0.0407742;0.26761928;-0.16112354;0.052798912;0.21217124;0.19203198;0.07977042;-0.021837575;-0.32333547;0.07508817;0.09635359;0.25298166;0.15455951;-0.040611386;-0.025250984;-0.26138112;0.19286989;-0.07028932;-0.051665958;0.04340025;-0.08197334;-0.1042349;0.027122289;0.3090464;-0.014008439;-0.1353002;-0.29279447;0.042853206;-0.1125857;-0.2283917;0.06608197;0.10801408;-0.019832883;-0.11436114;0.22312495;-0.07686869;-0.034154;0.07575391;-0.19806418;0.06250001;0.28982428;-0.14676686;-0.18497784;-0.022027807;0.043090418;-0.22844209;-0.24815497;-0.41043988;-0.25526986;0.14203086;0.048993673;-0.045339804;0.24227086;0.22871798;-0.1646335;-0.0697688;0.28199846;-0.20034787;0.16556016;0.06808782;-0.12157082;0.033151314;0.11876344;0.13776638;-0.18050368;-0.24345207;0.014498165;-0.10066663;-0.20027198;-0.2198463;0.038450196;0.22941816;-0.07838483;0.30020097;-0.071334995;-0.36483148;-0.06068752;-0.05852976;-0.021955559;-0.095273435;0.082255565;0.027887853;0.013083575;-0.0004430274;-0.048174433;0.28486934;0.10422552;0.016355492;-0.1562848;0.1446608;-0.005493367;0.044474233;-0.033789173;0.22189867;0.15105811;0.21102;0.39023092;0.00010256324;0.014481273;-0.23329411;-0.083998725;0.15132669;-0.037962377;-0.065438;-0.6001804;0.03647702;-0.12111289;0.09937921;0.21320651;0.2409544;-0.066021085;0.23559622;0.09752263;0.1805272;-0.36036426;-0.1041753;0.3977746;-0.018417481;-0.11267167;-0.1142852;0.10556485;-0.13816486;0.25256526;0.21584661;0.22067119;0.07306509;-0.25108257;-0.25773227;-0.12447999;0.108946845;-0.15762664;0.18032067;0.07073353;0.106169224;-0.15429503;0.13507263;-0.1395293;0.18399416;-0.15967122;0.15307066;0.35785848;0.11078278;0.030646924;0.3418294;0.06316607;-0.17540978;0.15230611;-0.21168834;-0.06616104;-0.15430379;-0.2934829;0.46606305;-0.04491321;-0.20734741;-0.010745642;0.103581846;-0.108091176;-0.08150168;-0.17291613;-0.12938605;0.15179598;0.00510042;0.032655682;-0.0040310128;0.062579535;0.21975455;-0.0029119013;0.014234164;0.2607688;-0.20931488;-0.11464026;-0.092664205;0.30012462;-0.15741363;0.0025826558;-0.10523049;-0.055499062;0.189388;0.06665867;-0.12684046;-0.19017747;0.09402733;0.35795367;0.04946107;-0.07106449;-0.14016101;-0.12982556;0.07774802;-0.16143873;-0.04734083;0.2151563;0.16635256;0.08172576;-0.23814729;-0.5296171;0.15785919;-0.18529472;-0.12883265;0.031976175;0.15907079;0.3226185;-0.2775253;-0.027871098;-0.3630702;0.14661303;-0.2621315;-0.23677741;-0.0988622;-0.020850925;0.19948606;0.055896413;0.28259748;-0.0089747915;0.041991293;-0.016001292;-0.060857687;-0.11867915;-0.07646625;-0.19585839;-0.011070808;-0.05580788;0.0047740308;0.05992379;0.207518;-0.101884544;-0.21083789;-0.32458654;0.080693305;-0.19901894;0.10357343;0.1404972;0.12552671;-0.23798203;-0.11699079;0.09612451;0.010546337;0.077856176;0.12895232;0.0804365;0.18648925;0.05896961;-0.39763117;-0.28950858;0.34281737;-0.07058187;-0.043289453;-0.26437616;-0.019507043;0.24607982;0.13119045;0.00464558;0.05652675;0.09520556;-0.6350513;-0.17351606;0.026882749;0.22528315;0.13605814;0.038800538;-0.18402807;0.11121428;-0.12031754;0.10741375;-0.017722422;-0.14213319;-0.07168565;-0.18674113;0.19508699;-0.14189409;0.06690745;0.18602693;-0.58701015;-0.0013985668;0.20594272;-0.047984947;-0.1161474
0.11587547;-0.2695637;-0.05684471;-0.003554819;-0.08580412;-0.06720608;0.029714804;-0.16899914;-0.055851128;-0.25322303;-0.10020954;-0.15007344;0.080066495;-0.23355098;-0.022747831;0.23644032;0.10971649;-0.011902166;-0.19969274;-0.036595397;0.031476226;-0.025100011;-0.48172003;-0.3575617;0.32287237;-0.13241178;0.35371304;-0.055842113;0.32168496;-0.26218468;-0.2769959;-0.025387049;0.039754327;-0.00010408973;0.22157766;-0.17654306;0.06364084;-0.12794352;0.25999725;-0.0240222;-0.047568563;0.19703194;-0.048649922;0.08814412;0.17453125;0.1541279;0.089144364;0.040499013;-0.09273949;-0.123693936;0.23505236;-0.2154687;-0.022752235;0.04676074;-0.0009981904;-0.007804805;0.34349212;-0.2022667;0.12262994;-0.32399628;-0.25433114;0.043707248;0.040971644;0.2419143;-0.07204893;0.21960878;0.15287797;-0.3584546;-0.33458972;-0.11310621;-0.18025133;-0.06334833;0.15926248;0.16482992;0.1519222;0.018492062;0.30863157;-0.03315315;-0.1630782;0.1902465;0.20249361;0.21783796;0.210671;-0.2707057;0.0026042783;0.2029911;0.32517892;-0.065898746;0.08930486;0.20186608;-0.060378265;0.052235305;0.29586244;-0.29691035;0.18760633;0.07151893;0.33099964;-0.065939225;-0.008676494;-0.016956221;-0.28990272;-0.15151183;0.0710673;0.34453893;-0.06273573;-0.21369958;0.079670906;0.12627773;0.06291886;0.13013825;0.14445552;-0.08215973;0.19191904;-0.09025478;-0.30064294;-0.14393958;0.07981746;0.13190246;-0.005616646;-0.22214524;0.29233238;-0.2223577;-0.29879904;-0.035235614;0.14684288;0.10224145;0.13631335;0.084841825;0.0555347;-0.020687716;0.045251854;-0.120099545;-0.14526908;0.128492;-0.09772394;0.06919354;0.23703094;-0.24861287;0.17581572;0.12924446;-0.098435774;-0.034894522;-0.0062992754;0.0069837826;0.033055063;0.2860451;-0.10466647;0.26691383;0.049954236;0.43219575;-0.10253177;-0.11618748;-0.24553639;-0.27188602;-0.14210767;-0.05026357;-0.0654511;0.0182957;-0.2359443;-0.055274438;0.05363693;0.26905298;0.05796276;0.09254407;0.048056364;0.022730295;0.31681475;0.049009275;0.23156708;-0.39399523;0.05993758;0.35166806;0.15812789;-0.088403;-0.024551436;0.034908477;0.026506796;-0.21080422;0.17806378;-0.116746664;-0.09546807;-0.0039724456;-0.313788;-0.04783754;0.17750847;-0.036776192;0.13964425;0.15808907;-0.08704125;0.20841289;-0.12841433;-0.1004715;0.02760412;-0.21154697;0.15185522;0.34735695;0.016005257;-0.160659;0.13134386;-0.24559273;-0.16941644;-0.01557708;0.033794124;0.037104692;-0.11105345;-0.0051052114;-0.04537424;0.17552215;0.2891362;-0.035830446;0.10938872;-0.046156596;-0.2172937;0.008074488;-0.06229397;0.3563893;0.061293885;-0.3294248;-0.27986032;0.14635013;-0.07425126;0.09423609;-0.0431799;0.023234695;-0.051420115;-0.13510112;0.33271837;-0.08134658;0.028220404;0.10389766;0.025141468;0.032050177;-0.114066936;-0.14412506;0.14694966;-0.15843825;0.2485687;0.11767155;0.101407886;0.02856915;0.16572668;0.14381693;0.24413578;0.08911212;0.10501886;0.26716265;0.2515355;-0.04457557;0.16506404;0.21028435;-0.22291325;0.058790896;0.09731591;0.18029442;0.120575406;0.101860106;0.058655195;0.0080410605;0.15516834;-0.15432534;-0.14272293;-0.044973973;-0.24639718;0.012626479;-0.13548638;-0.09002347;0.14409088;0.3139728;-0.17717671;0.20640175;-0.21028769;0.27594814;0.0284504;0.113404505;-0.24500534;0.026715895;-0.18323687;0.16786027;0.0790794;-0.048794698;-0.35948917;0.07401531;0.09974165;0.051279373;0.20672995;-0.16433507;-0.0721276;0.01359442;0.06521192;-0.33980867;0.180469;-0.07580318;-0.31117696;0.041333325;0.023988348;0.011372304;-0.18844555;0.15654682;0.014360855;0.14023976;0.17576087;0.10421356;-0.20727445;0.07387805;0.23934615;0.07755428;-0.06241983;-0.037127476;0.045898665;0.071265385;0.14538838;0.16362485;-0.038657848;0.11790077;-0.0030975475;-0.31429633;-0.35423067;0.21882728;-0.11423573;-0.17573255;-0.14998995;-0.287974;0.0062528425;0.19900435;0.2128701;-0.3312705;-0.11141;-0.24261628;-0.13790497;0.03984643;0.10025603;-0.065250784;-0.066292256;-0.10592312;0.28337583;-0.26798475;0.28269833;-0.18602988;-0.13278548;0.13280788;-0.0029173752;-0.07710247;-0.11055357;0.006656677;0.062262915;-0.16925141;-0.18417646;-0.11688941;-0.29335997;0.22797789;0.21393158;0.01008021;0.019028224;0.15266068;-0.42752832;-0.014779042;0.2468181;-0.037871674;0.09876203;0.19665176;0.20508625;0.16388953;-0.002928494;0.13013943;-0.08959683;-0.037650622;0.1982864;-0.23801681;-0.17327426;-0.30108166;0.062333707;0.0047705597;0.08696126;0.18975706;-0.2505887;-0.19690058;-0.2608677;-0.11406128;-0.13321291;-0.07357245;0.3516268;-0.052274305;-0.18950519;-0.1970828;-0.022009969;0.020940525;-0.009704237;-0.006051326;-0.22254655;0.20640816;0.10238321;-0.21480381;0.039291594;-0.032370914;0.23016328;-0.13477364;0.31517377;-0.080713525;0.2023967;-0.028189134;0.04127618;0.21987148;0.15275589;-0.023944069;-0.20316318;-0.0021917352;-0.07775754;-0.06610663;0.10904241;0.24135359;0.09417075;-0.1828048;0.16582823;0.2069239;-0.13437386;0.090997376;0.027445603;-0.16281737;0.13604791;-0.016839072;-0.028644321;0.050466567;0.4367503;0.18854241;-0.0074770288;0.14363578;-0.036956117;-0.21962373;-0.013044274;0.3100769;0.08826127;0.31874198;0.028033825;0.105735265;0.043339398;-0.26024136;-0.06434945;0.18784112;0.039988123;0.010790874;0.31645438;0.057706933;-0.0008310545;0.27778485;0.16967823;-0.071324684;0.1527567;-0.15767817;0.07036197;-0.17284699;-0.106329136;0.36866504;0.15805483;-0.09399176;-0.09572506;0.1926453;0.18479033;-0.15810795;-0.21160407;-0.10104764;0.13572885;-0.23727435;0.01430836;-0.019272732;-0.00014665327;0.21733828;0.24152415;-0.04452778;0.1593938;-0.014502335;-0.1898369;0.14843571;0.08093667;-0.18137959;-0.054295376;-0.10302887;0.061010107;0.27632535;0.139238;0.12472879;0.032033373;-0.14629668;0.27507085;-0.23600838;0.0045757415;0.0017337184;-0.12279589;0.027999897;-0.118488334;-0.010556645;0.099873714;0.12898993;-0.2956709;-0.37227494;-0.37854832;-0.04177299;0.030177187;-0.25307372;-0.13288352;0.14076781;0.057473212;-0.13847537;0.061274815;0.02255262;-0.16677754;-0.12383215;0.12167169;-0.2912597;-0.30469662;0.23837069;-0.14735918;0.20605193;-0.19907917;0.08017327;0.17454757;0.019123979;-0.098883465;0.24553025;-0.5067704;0.011991436;-0.16745989;-0.021713056;-0.024305891;0.20216934;0.089921065;0.17684142;-0.090902716;0.032632858;-0.101996265;-0.03415219;0.1520548;0.16874541;-0.4047651;-0.08042141;0.024684705;0.2904093;0.0870028;0.061868582;0.068296455;0.20231149;0.25367713;-0.28237194;-0.36087212;0.29443732;0.090085186;0.15080932;-0.025051162;-0.12238058;0.15856265;-0.0073510134;0.20785424;-0.058511812;0.39421365;-0.4202217;-0.25814453;-0.12533107;0.28129172;-0.14358726;0.096414484;-0.18093993;0.13239302;0.023757711;0.10250787;-0.15137509;-0.3201155;-0.11975431;-0.026120322;-0.063962415;-0.020601394;-0.26814434;0.100516826;-0.5103665;0.0880561;0.18108128;0.14268786;-0.46595708
0.21942367;-0.15115261;-0.123154484;0.09125033;-0.063971095;0.13721181;0.08594146;-0.02487057;-0.0046378016;-0.1531958;-0.28453568;-0.25343797;0.03988767;-0.31307164;0.13321923;0.19356124;-0.19782469;0.05247097;-0.15749282;0.20419276;0.08274389;-0.41895112;-0.061983798;-0.39086908;0.027781617;-0.2219536;0.24635558;0.057582177;0.17190775;-0.0058903066;-0.29782027;-0.042169034;-0.005049972;0.11925147;0.18983062;0.027126402;-0.065932296;-0.006247562;0.05583208;-0.013632335;0.054786563;0.11146598;0.041994903;0.0049024257;0.009771979;0.04549852;0.023392446;-0.044297494;0.011834534;0.0039051196;0.25276867;0.112994075;-0.120599926;-0.026385996;-0.1129938;-0.010493086;0.28395164;-0.09361993;0.009115307;-0.21259136;-0.020604815;0.20752983;-0.011642267;0.086309046;-0.034722943;0.17641072;-0.07678705;-0.31741592;0.10018083;-0.05541078;0.045839965;-0.26896504;0.18802498;0.21409477;0.1346383;-0.17713961;0.2327239;-0.02279716;-0.014806852;0.22911596;0.43543;0.11864046;0.15499271;-0.16547917;0.0136154;0.12852432;0.19585198;0.23191264;0.120155446;-0.030188775;-0.14303488;0.11250798;0.16690302;-0.017421082;0.24666442;-0.06960166;0.18519282;0.05745178;0.12231837;-0.12892151;-0.12566575;-0.24853684;0.002164206;0.09177761;0.11532751;0.17675906;0.04153881;0.16857617;0.16215186;0.16161811;0.041422952;-0.13174942;-0.025377836;-0.0039675534;-0.33957353;-0.44080248;0.040851068;0.2050098;-0.32271904;0.19935803;0.23331784;0.07504339;-0.11575215;0.024663214;0.05431238;-0.09643554;0.18120778;0.016493738;0.31582537;0.2613085;0.21194935;0.044128515;-0.1983017;0.047273863;0.30998516;0.004149247;0.19715762;-0.3573387;0.0075116726;-0.058754228;-0.31319752;-0.04635968;-0.023281535;0.14656481;0.15437582;0.122619405;-0.28786945;0.32508507;0.045700695;0.12016026;0.012875596;0.006218316;0.179132;-0.22522339;-0.09201517;0.23557927;-0.044712737;0.022108639;0.0348357;-0.015868146;0.05242364;0.09805123;0.03599208;-0.0230184;-0.0018229734;0.02455067;0.28744787;0.0041025914;0.38329017;-0.45139793;0.11342495;0.020323496;0.05554021;-0.06065911;0.061650064;-0.081678174;-0.15537778;-0.116651624;0.048604388;-0.23788062;0.057370916;-0.13108814;-0.17883997;0.10044504;0.027291682;0.041077238;-0.16236071;0.24266432;-0.047016162;0.13528198;-0.21582356;-0.107421175;-0.12486823;-0.25606436;0.07356887;0.23595956;-0.06773443;0.24332978;0.021131009;-0.24146208;-0.20919265;-0.06120855;-0.051417667;0.064313546;-0.005996751;-0.07307742;-0.16906327;0.17172886;-0.0044121635;-0.048180453;-0.24235748;0.07726472;-0.27931607;-0.015247434;-0.26296672;0.0336683;0.054168373;-0.13097122;-0.26474428;0.16827281;0.1272801;0.08925467;-0.2280858;-0.05250552;0.16489843;-0.19883011;-0.06795997;-0.13943155;0.06360425;0.13126867;-0.13693088;0.11396344;0.0038903046;-0.017284982;-0.02389433;-0.0826706;0.18408877;0.057557892;0.08146852;0.007651115;0.08676996;-0.07098903;0.11383688;0.043419503;-0.020522922;0.1215947;-0.025509093;-0.16378301;0.20518848;0.05598549;-0.117846616;-0.065456696;0.28218782;0.03666075;0.07669405;0.04694655;0.06836279;0.19369167;0.13536036;-0.08195209;-0.28201398;-0.0046572764;-0.09064672;0.22768718;0.24222475;-0.23320419;0.084901325;0.16959618;-0.08459252;0.09908849;-0.28168756;0.17776841;-0.030953618;-0.05601164;0.0004042055;-0.059589703;-0.10984241;0.038241312;0.19120833;0.03295445;-0.31639662;0.16927879;0.2569007;0.19025767;0.060699355;-0.25228152;-0.04388268;0.05968361;0.1696276;-0.32431558;0.31124595;-0.10819725;-0.28373167;0.086708486;-0.04692534;0.031900216;-0.055517405;0.23529679;-0.15083592;0.33499235;0.19015531;0.2726934;-0.15365823;-0.090514846;0.020963147;-0.24793868;-0.0008478461;-0.072503045;-0.15380356;-0.025695752;0.19276085;0.13715686;0.12572014;0.098303504;-0.18163519;0.02044276;-0.1849622;0.073156;0.17345819;-0.27808082;-0.002623518;-0.1408164;0.089875735;0.11046407;0.16020772;-0.1736285;-0.038703308;-0.31821677;0.10260244;0.2150076;0.16571993;-0.21897194;-0.13124762;-0.33925164;0.11805761;-0.26575184;-0.049602363;-0.2670485;-0.16929238;0.36423677;0.24027114;-0.0074872742;-0.41180852;-0.08377511;0.09081932;-0.0836994;-0.17393552;-0.10721106;-0.30925143;-0.053067133;0.10938801;-0.23046698;-0.2247169;0.07782345;-0.32461038;0.078124925;0.21972689;-0.07375901;-0.08178015;0.27779326;0.22299369;0.17268495;0.07865588;0.07985286;0.14113224;0.020839842;0.1121717;-0.40361494;-0.2076847;-0.10763884;-0.017150573;-0.09382698;0.19507319;0.2864687;-0.1414415;0.07188878;-0.20668001;-0.15735488;0.167122;0.043889854;0.13737336;-0.19262834;-0.02325148;0.015326449;-0.11402299;0.28473815;0.12345581;0.010585121;-0.21665272;0.15755174;0.037760887;-0.04222558;-0.028623419;-0.0051551065;0.09987713;-0.08920154;0.15881507;-0.14854552;-0.022665313;-0.07856995;0.0309748;0.22619353;0.17663905;-0.068105645;-0.1529789;0.08880211;-0.17560706;0.07120485;0.024690539;0.24580322;-0.15670978;-0.11308412;0.17463024;0.23932867;-0.22814617;-0.010236931;-0.066319816;-0.034551006;0.13506217;-0.11009109;0.14516255;0.09700788;0.3039135;0.0584587;0.11904182;0.048294935;-0.099051796;-0.4194135;0.04943084;0.11437445;0.16889466;0.3584202;0.1397374;0.20169571;0.046351667;0.2859069;0.3165449;-0.24245462;-0.15993778;0.0016638485;0.19321503;0.1184533;0.009033355;0.31054333;0.115940884;-0.0169593;0.28283143;-0.2133657;0.01265392;-0.2849843;-0.09018271;0.3981152;-0.23095943;-0.19036745;0.006719905;0.15792733;0.28257596;-0.08587503;-0.008599529;-0.041191094;0.036615822;-0.080190346;0.2956531;0.054976683;-0.024124833;0.45326546;0.080987364;-0.24916412;-0.25629196;0.15380439;-0.0857053;0.050233472;0.04503808;-0.36557537;-0.07088166;-0.13560861;-0.098854765;0.28703773;-0.061831936;-0.13397476;-0.06891584;-0.26663375;0.11335963;-0.20417036;-0.03803615;0.1227505;0.065858565;0.03992649;0.21577121;0.14336164;0.31968805;-0.18759209;0.019279636;0.041857954;-0.42737558;0.030078331;0.27684924;-0.16132347;0.0075526787;0.010017636;0.015533512;0.02465577;-0.010520004;0.18602906;-0.093174994;0.036169633;0.072933614;-0.081644535;-0.28932148;0.016746134;-0.062818795;0.07201459;-0.05869665;0.16079342;0.02521162;-0.08194732;-0.21681252;0.19858132;-0.4522882;0.047127802;-0.22080414;-0.16613097;0.06604961;0.22931364;-0.101493716;-0.05326249;0.092586055;-0.12550299;0.09586984;-0.15648043;0.28832197;0.22000983;-0.20756382;-0.06132608;-0.18751584;-0.018357223;0.04010737;-0.09905878;0.16211636;0.119583085;-0.03651404;-0.2194346;-0.35369375;0.20753115;-0.10956943;0.21159068;-0.006177035;-0.010181491;0.027722374;-0.15279742;-0.039770998;0.042053975;0.18056197;-0.29025245;-0.030724976;-0.21767323;0.01699574;0.16524467;-0.044084232;-0.3299528;0.16462807;0.08049584;0.13218051;0.027899586;0.04330814;0.12543295;-0.014615798;-0.03492444;-0.096388705;0.12407177;-0.0737118;-0.2209166;0.014583127;0.054795105;0.050651386;-0.39936903
0.20908289;-0.2211865;-0.08451652;0.28330335;0.0205181;0.15396735;0.12511505;-0.073399454;0.13851659;0.0017094124;-0.23120105;0.009494091;0.14530936;-0.32861856;0.144515;-0.04747171;0.09241212;-0.0053139008;-0.028369289;-0.33494446;0.07890446;-0.3732792;-0.035190564;-0.38689816;-0.18295133;-0.3871397;0.25137773;-0.024001056;0.03351618;0.18866427;-0.12424479;0.008019966;0.009143382;0.37050977;0.36630613;-0.040225405;-0.05303632;-0.18194671;-0.04922981;-0.15691678;0.22605781;0.15630889;-0.16483155;0.124082685;-0.06746299;0.14564791;0.08851873;0.22205709;-0.0031252916;-0.010601828;0.13118888;-0.06283107;-0.16781193;0.33021316;-0.10932392;0.024053847;0.18854238;-0.26017645;0.057501826;0.056334037;0.29185316;-0.08411826;0.009612375;-0.041319165;0.04403507;0.073674515;-0.059831984;-0.30193767;0.26916045;-0.09913469;0.14682822;-0.1824375;-0.0528691;0.13318104;0.18654071;0.04005602;0.03665963;-0.34082174;-0.12695062;-0.13034993;0.28131607;-0.10892841;0.16765559;-0.21142723;0.016373169;0.24614413;-0.05390147;0.27625337;0.130885;-0.10288541;0.03606461;0.100339666;0.117718585;0.013451025;0.13078728;0.3391601;0.09921305;0.06937051;-0.116782464;0.0883152;0.13547057;-0.09538075;0.12365568;0.039917473;-0.03803415;0.15523982;0.033308674;-0.048254468;-0.0342273;-0.09647617;-0.0058015357;-0.24224985;-0.27770516;0.03229494;-0.3153735;-0.5145297;-0.007699112;0.04106295;-0.18928388;-0.044833392;-0.19703272;0.04462004;-0.18863389;-0.020971907;-0.046685364;0.08991821;-0.063275926;-0.09929566;0.064991735;0.23508415;0.26688114;-0.15254202;0.046836015;0.21847482;0.10853333;-0.11084487;0.18384685;-0.12532583;0.15703735;-0.11845646;-0.34207758;0.2536509;-0.105881356;0.30278838;0.17125125;0.13431042;0.010336289;0.09678836;0.110932104;0.21605465;-0.022854203;0.03563637;-0.098993875;-0.41036704;-0.16871864;0.035109017;-0.15397549;-0.18151608;0.016963638;0.117033824;-0.2697746;0.09726337;-0.021109194;-0.022223333;0.021901153;0.10973833;-0.011516155;0.0976811;-0.074231066;-0.23393723;0.03977308;0.24982469;-0.06973153;0.03619733;0.010509975;-0.119658716;-0.012507866;-0.21677338;0.14945784;-0.22380564;0.07584419;0.28905144;0.20127007;-0.0723408;0.048059355;-0.17159943;0.0962374;0.2990325;-0.2613012;0.19832216;0.02797026;0.273603;-0.09730128;-0.12288285;-0.022623708;0.41544476;-0.0839847;0.100522056;-0.010587179;-0.20849136;0.11785919;-0.27044088;-0.0048322594;-0.13691832;0.00777459;-0.06651732;0.15289122;0.19592886;-0.06989484;0.08099679;-0.31619877;0.10893982;-0.10590491;0.0077423467;-0.08506551;0.09630911;0.13367802;-0.12063032;-0.40912235;0.10372547;0.21442986;0.030973662;-0.078960255;-0.12272762;0.17663914;0.02549467;0.03272506;0.077321686;0.022948967;-0.17253387;-0.27694774;-0.065537766;0.03545183;-0.027257126;0.17186528;-0.13966909;-0.15986514;-0.044303015;0.051412474;-0.04180585;0.07932231;0.07618411;-0.26133108;0.051744126;-0.037062697;0.08221931;0.3477865;-0.1785609;0.08853056;0.31729218;-0.046480987;0.130024;0.1806987;0.114557266;0.07138983;-0.015669499;0.2513737;-0.15111995;0.22794703;-0.096794784;0.12528965;0.04836395;0.09021801;0.023002079;0.07117963;-0.24524602;0.2460379;0.1869465;-0.20946416;0.11633771;-0.2024217;0.14429498;0.027928792;-0.033267498;0.09930122;0.078205444;-0.29549858;0.26409343;0.20723477;-0.021447277;-0.29810303;-0.113508634;0.35636604;0.23724034;0.07327953;-0.32889384;0.0062895985;0.15906177;-0.026705638;-0.29278505;0.18159908;-0.2134414;-0.26844126;0.16453998;-0.14091146;-0.17614172;-0.041816473;0.33242324;0.055249777;0.10153502;0.04516453;0.14124948;-0.1667838;-0.14769651;0.24591793;-0.34743598;0.1350157;0.09984918;-0.033539794;0.052609634;0.0059372694;0.017809728;0.04584761;0.24182284;-0.22908214;-0.014441992;-0.08223776;-0.052685775;-0.12422937;-0.47743183;0.044901054;-0.001870341;-0.097460955;0.04267095;0.26042524;-0.061653186;0.0015289312;-0.34632504;0.12698428;0.14436284;-0.019532098;-0.15899117;-0.004668594;-0.12705664;0.20159923;-0.6780192;-0.05837526;0.10128908;-0.06855484;-0.06958856;0.25903514;-0.16512305;-0.30260894;0.32831362;-0.18787457;0.1219521;-0.20715863;0.17803924;-0.4018684;0.06924161;-0.035730697;0.09454141;-0.2507192;0.15226293;-0.23034656;0.17606647;0.1682654;0.33076352;0.073009156;0.028534109;0.2482529;-0.1992078;-0.09228618;0.025631927;0.14344883;0.21599779;0.14160827;-0.3008101;0.017827835;-0.19962735;-0.20076296;-0.04690592;0.0051166373;0.5050615;-0.13511199;-0.08284008;-0.18399853;0.15717411;0.14578827;-0.05516555;0.2712586;-0.12868057;-0.1254811;-0.10820883;-0.0874232;0.34663877;0.11369768;-0.033278648;-0.1723351;0.20776914;0.07641538;-0.054264598;0.17173782;0.13544612;0.07761127;0.016344743;0.10846113;-0.10750487;0.0070034373;0.097016156;0.15519089;0.18048896;0.123819456;-0.11400895;-0.45931208;-0.07739704;-0.014749114;0.37538207;0.06709422;0.06650675;-0.010426653;0.054511357;-0.18772773;0.3055082;-0.11912128;0.07992598;-0.08840932;-0.08957505;-0.0040646275;-0.104076624;-0.028071478;-0.07730097;0.14056352;0.20569445;-0.16677415;0.2012713;-0.14525548;-0.16993037;-0.033237904;0.0077895764;0.17853777;0.17341703;-0.20512165;-0.066270955;0.18699345;0.21931975;0.31041244;-0.35279673;-0.39920005;-0.026450595;0.26384446;-0.40612644;0.20980829;0.32873774;0.10001763;-0.03882723;0.2868674;-0.1422651;-0.013111032;-0.129387;-0.07540112;0.11902696;0.13155662;-0.26965952;0.01758702;-0.006728351;0.20646836;0.01213972;0.04195541;0.2087528;-0.08529425;-0.070678934;0.47949347;-0.27637437;-0.12700832;0.17111245;0.031735294;-0.4353095;-0.3916093;-0.010715112;-0.032381665;0.10269445;0.20870598;-0.21168196;0.0091705965;0.16000593;-0.08303621;0.14163634;-0.028464753;0.10694501;0.13658369;-0.12869932;0.034773618;-0.052955743;-0.122866526;0.15942313;-0.035372805;-0.08978277;0.116724476;0.023917787;0.5307305;-0.04298;0.016574895;-0.05144063;-0.101991095;0.17986941;0.0053559123;-0.13291493;-0.16625074;0.18818873;0.038836434;0.100433454;0.2631718;-0.037503537;-0.047991414;-0.11884011;0.32385087;-0.13006985;-0.3061166;0.047258656;-0.055462573;0.075077154;-0.33609638;0.228275;-0.028844137;0.022139378;-0.118974;0.111219436;-0.31955904;0.10217418;-0.26036477;-0.2212638;0.42785168;0.13901962;-0.1362915;0.16128248;0.20354941;-0.1951626;-0.04551529;-0.030684806;0.25910503;0.057319473;-0.29965284;0.22442777;-0.2420102;0.19220415;0.047161754;0.032855455;-0.11918953;0.012399991;-0.007048454;-0.24441236;-0.14401442;-0.20284398;0.16349669;0.25458622;0.1582286;0.016740417;0.105591156;-0.15919651;-0.25499108;0.20347044;-0.07078032;-0.16259702;-0.1334415;-0.024055025;0.0029232763;0.051353298;-0.03132749;-0.19218858;0.08410579;0.0061571747;-0.06100948;-0.024838727;0.06747593;0.1113876;0.015058926;0.03664096;-0.05240959;-0.13052881;-0.048735026;-0.04165571;0.08546824;0.06904786;0.2159954;-0.31087708
0.3442131;-0.19039163;0.08018853;0.12745208;-0.0885727;-0.03080285;0.33250684;0.12844601;0.2059793;0.058979154;-0.39579558;-0.26554412;0.4291878;-0.22436371;-0.05398714;-0.09019455;-0.292692;0.046174366;0.23637795;-0.27044925;0.0056009563;-0.43279693;-0.14413619;-0.585975;-0.23363371;-0.06512199;0.38379717;-0.03576937;-0.020577323;0.1642627;-0.3800953;-0.15823735;0.008832263;-0.06188917;0.17486289;0.038020723;-0.010605842;0.026586505;0.06439044;-0.32837847;0.24143043;0.3192516;0.13351843;0.31380588;-0.08731696;0.16463716;0.13130325;0.29201782;-0.015654044;0.0016158258;0.45886222;0.015094393;-0.2146298;0.27878213;-0.25531635;0.09555641;0.12985131;-0.49507466;0.08767042;0.12161262;0.020752754;0.06929385;0.24882382;-0.0024892667;0.018925998;0.17722337;0.08630582;-0.24737334;0.08141971;-0.09101377;0.24299577;-0.01778551;-0.063049585;0.11367135;0.01565047;-0.13643712;0.019066943;-0.43167895;0.24558793;-0.26141658;0.031608608;-0.0526688;0.21238446;-0.18341093;0.112426884;0.24895148;-0.040487494;0.36359954;0.11387867;-0.077439606;0.007665945;0.035731446;0.18138435;-0.059556186;0.12676635;0.07923525;-0.05786406;0.050892465;0.04002073;0.1284009;-0.1998356;0.14591923;0.085286394;-0.17808838;0.17074111;0.18694252;0.017350856;0.036630552;0.08831543;-0.18916763;-0.15742663;-0.27491435;-0.15414895;-0.23799719;0.24856043;-0.13857298;-0.03649338;0.23869254;-0.13995586;-0.010507213;-0.29504934;0.06879074;-0.11007335;0.002033423;-0.021151258;-0.26356137;0.06521545;0.093627684;0.12157979;0.18294017;0.07330776;-0.025214177;-0.113066204;0.22491993;-0.21726172;-0.18178022;0.04247587;-0.05676548;0.030688504;-0.11694874;-0.36756852;0.20100786;-0.025893418;0.2107891;0.13060659;0.083962694;0.08780028;-0.1468911;0.26367587;0.16069593;0.12588887;0.018255766;-0.31851393;-0.22656491;-0.16221276;0.16848785;-0.009602032;-0.4011165;0.032502502;0.03032098;-0.10942581;0.035588693;0.01864849;0.029052787;0.032631587;0.13785924;-0.20209406;-0.06511485;0.032469064;-0.21286826;-0.47267416;0.41557106;-0.17399167;-0.07909239;0.16914926;-0.06120906;-0.33299878;-0.3116217;0.13811702;-0.020578353;0.0011840037;0.14856063;0.29860738;0.11353909;0.07705191;-0.2586377;0.15195349;0.22993845;-0.24139178;0.046248533;-0.20506315;0.4105785;-0.15074196;-0.28847617;-0.047841463;0.37194234;-0.13446102;0.08846002;0.08392779;0.044543866;-0.018498516;-0.13182692;0.024432847;-0.044333637;0.0562051;-0.013075916;0.24880636;0.22994813;0.34603179;0.19579417;-0.14385687;0.01677808;-0.0064794864;0.11048146;0.07195588;-0.11552698;0.12152845;-0.0091002695;-0.41247162;-0.3798109;-0.10550729;0.082703084;0.12219527;-0.050490145;0.053561892;0.087077476;0.07520592;-0.16320291;0.44210264;-0.057564363;0.076705545;0.02670622;0.0988679;-0.076288454;-0.0071061053;-0.092592664;-0.21539384;-0.044227306;-0.019999396;0.18401437;0.28475276;-0.083608136;-0.34138495;0.08429309;-0.18946503;0.23465252;0.030517181;-0.11005841;0.16166495;0.053576555;-0.29996905;0.18728325;0.258535;0.101596154;0.05299082;-0.010752009;0.26282477;-0.38806078;0.3488194;-0.035767764;0.23105374;0.13581203;0.08505694;0.07146665;0.037663832;-0.09474997;0.27700496;0.16288765;-0.16361602;0.07249618;-0.37289461;-0.026414903;-0.22574991;-0.1826529;0.5211796;0.084094495;-0.25824627;0.17508484;0.38120747;-0.14289336;-0.098120645;-0.18152529;0.2061677;0.28004915;-0.1243055;-0.16432479;0.04793311;0.0808524;-0.032204926;-0.39033282;0.32164344;-0.22943155;-0.24145448;0.065371044;-0.057586767;-0.16051519;-0.07030765;0.20818242;0.15661198;-0.18518786;-0.096699834;0.21331045;-0.22075458;-0.11071786;0.2879024;-0.32950535;-0.21527597;-0.2655439;-0.056727927;-0.08803401;-0.04125351;-0.24497527;-0.04771991;0.08263368;-0.43805227;0.011005068;0.021767352;-0.21898702;-0.047131237;-0.32170162;0.025991213;0.07102862;-0.08843868;0.01167919;0.23822026;-0.1608556;0.074395865;-0.19823726;0.025006713;-0.27676827;0.10723943;-0.35103238;-0.110589474;0.074815914;-0.12061477;-0.62313664;0.07763662;-0.024155287;-0.2850145;-0.17016554;0.3426926;-0.06651496;-0.06664607;0.15853587;-0.09145409;-0.14685173;-0.31520143;0.25330734;-0.5015771;0.13221915;0.3114264;-0.13189426;0.2906668;0.25760224;-0.34834975;0.113003306;0.05668857;0.19868024;-0.10158473;-0.098965;0.12586233;-0.09335537;0.037893686;0.11669581;0.19829486;0.37214902;0.06673782;-0.38402924;0.12480093;-0.20977572;-0.16641374;0.09930347;-0.33755326;0.34056526;-0.22818439;-0.17905203;-0.0064835204;0.064170144;0.14021514;0.067555934;0.21928382;0.008390849;0.084573895;0.085010305;0.117282845;0.3639344;0.09134705;-0.109549515;-0.107772924;-0.16530167;-0.10940678;-0.20897527;0.13866553;-0.058077667;0.15078261;0.0732513;-0.066710316;-0.21131478;-0.44942966;-0.1180587;0.4812427;0.08004852;0.113431275;-0.11262456;-0.31065497;-0.16441493;-0.027835168;0.5042198;0.10533759;-0.12594102;-0.3580152;0.0017739255;-0.113282904;0.21729618;0.17123885;-0.19605;-0.16518785;-0.14501439;0.15507212;-0.012240721;0.18731439;-0.016167855;0.1205605;0.18532525;0.10058078;0.22018999;-0.026604282;-0.0024807185;0.1167409;-0.119715236;0.05479614;0.046915013;-0.014313314;0.19489588;0.32734796;0.34493247;0.024164408;-0.42482358;0.08245432;0.004920999;0.085323095;-0.034438297;0.04036461;0.182099;0.2084633;0.006454968;0.22753674;-0.192681;0.24048667;-0.022494042;-0.058347307;0.19077255;0.07365348;-0.007742254;0.20680085;-0.09480147;0.28297126;-0.0096352585;-0.10912575;0.101263456;-0.09227864;-0.25105733;0.42736864;-0.17765598;-0.2428356;0.105017416;-0.16091383;-0.33765694;-0.34145266;-0.0039300495;-0.08538101;-0.07117269;0.034140676;-0.124278136;0.17822003;-0.16396952;-0.12339926;0.12061117;0.106898956;0.22436434;0.1877951;0.11492606;0.15906139;0.057958886;-0.15596241;-0.32628822;0.034268014;-0.21843341;0.056116723;-0.3577389;0.31945875;-0.14799637;-0.08717828;0.14552127;0.097530775;0.110943936;0.0748656;0.15032238;-0.11042143;-0.0639559;-0.044800665;-0.037824754;0.013516731;0.006048166;-0.11385052;-0.17308876;0.13563223;-0.21075217;0.063774206;0.3057841;0.28622463;0.043726243;-0.12588209;0.30740687;0.20001191;0.053096045;-0.090411395;0.12873486;-0.12856226;0.061573576;-0.1987298;0.09040525;0.18226092;-0.024417225;0.25197816;-0.010762701;0.4495875;-0.07059667;-0.024269396;-0.053184453;0.3159701;0.019131677;-0.08166875;0.28361484;-0.38442767;0.16465636;-0.24351905;0.0962147;-0.11260107;-0.09930862;0.1210744;-0.24983506;-0.25042617;-0.43757653;-0.018766081;0.06909383;0.117192104;0.116596185;0.18614666;-0.14405654;0.12202146;0.2445067;-0.10967003;0.31684434;0.014684224;-0.20853975;-0.11752164;0.003210637;0.07252924;-0.16743784;-0.21923514;0.13979366;-0.029782489;-0.107766084;0.1631146;0.09057897;0.14532652;-0.04785914;0.040740065;-0.26230863;-0.09762793;-0.089552574;0.121202566;-0.06129205;0.23705092;-0.32931158
0.37570542;-0.15677403;0.06458975;0.08658207;0.088907704;0.008643574;-0.12489127;0.011339521;0.012295431;0.05582321;-0.012693497;-0.20297292;0.30462238;-0.07063039;0.14290912;-0.22532009;-0.1470761;-0.17820795;0.09411849;-0.16505508;-0.11598583;0.049174957;-0.07369411;-0.37983727;-0.15327764;-0.18374072;0.20478778;0.06661995;-0.021967411;0.05550838;-0.19159286;-0.25999922;0.0290612;-0.11978257;0.11223688;0.23173523;0.08202481;-0.012577008;0.050438125;-0.2328415;0.3187375;0.16598742;0.291115;0.009793718;-0.19152276;-0.06505537;0.06492132;0.21819238;-0.029303232;0.09840414;0.0017488117;-0.38545507;-0.022547005;0.11974522;0.29411465;0.1768401;-0.054437328;-0.30754435;-0.04789347;-0.009686516;-0.022023633;0.111191936;-0.023770526;0.17305277;0.14991535;0.016374184;0.16483958;-0.008233007;0.02405832;-0.021996643;-0.016861454;0.15256453;0.27508256;0.18559091;0.26464146;0.20011742;-0.07682442;-0.30332115;0.10458195;0.09277739;-0.14857838;-0.14846149;0.21389303;-0.108336374;0.07740613;0.18207718;-0.04501788;0.24689771;0.21063899;0.23505287;0.1625259;0.0056086;-0.050601386;-0.07833343;-0.09998346;0.056474052;-0.11846819;0.31302288;-0.040169314;0.10185273;-0.06849246;0.14625378;-0.00947824;-0.039552193;0.12452393;0.13822271;-0.120927;-0.119907945;-0.07302767;-0.17852904;0.04212814;-0.07900814;-0.20597364;-0.064079754;0.024225846;0.087577835;-0.050416656;0.01858764;-0.2613144;-0.16292669;-0.09307107;0.24698177;-0.06251954;0.005548059;0.10619386;0.10495327;0.05585518;0.13360114;-0.0689205;-0.022469658;-0.09357088;-0.065794736;0.115884095;0.09204113;-0.27218053;0.0075650383;-0.13990588;-0.03252471;0.10946149;-0.17931364;-0.20992893;-0.2979524;0.06414417;0.03452905;0.20441148;0.042836037;0.094261125;-0.11883816;0.19321428;-0.17590544;-0.24840689;-0.15693778;-0.20937183;-0.25844145;-0.32686508;0.071043156;0.16626999;-0.24988213;0.14327262;0.14390276;-0.12325942;0.17455594;-0.056621272;0.10940977;-0.07046045;-0.06805388;-0.2169799;-0.25434333;-0.08396836;-0.04938551;-0.39358702;0.09858382;-0.051160507;-0.06494915;0.051830668;0.32807687;-0.016843917;-0.09669978;0.33952087;-0.0058420505;0.14254726;-0.060519047;-0.033368938;-0.017301764;0.13943751;-0.21939349;0.05795079;0.00016045361;-0.24361444;0.009520942;-0.062206294;0.10488308;-0.14613155;-0.21082562;-0.049059793;0.31599373;-0.09936365;-0.00012553816;0.1910445;0.11500144;0.47329062;-0.09173596;-0.096421905;0.06874498;0.21592738;0.03582669;0.046143148;-0.01689059;0.36269796;-0.0044170776;0.39092144;0.14347163;-0.14028539;0.014794771;-0.008105465;0.20252869;-0.20107909;0.31578025;-0.12672439;0.0002858417;-0.21463288;-0.21646044;-0.22705436;-0.30222797;0.023681007;0.106603004;0.12602323;-0.3358918;0.21167043;0.03101342;0.03577283;0.006337888;0.048887216;0.09732428;-0.18003216;-0.03356825;-0.1352007;-0.18288907;0.10799698;0.21441384;0.13415276;-0.12237272;-0.005456822;0.12646121;-0.2917073;-0.17590149;0.15920542;-0.18973316;-0.110168576;-0.29693815;-0.25830182;0.2994968;0.20267868;0.12853675;-0.032431047;0.09363474;-0.046249982;-0.108043544;0.23006396;0.03356196;0.0946327;-0.2771665;-0.08854585;0.10903851;-0.15424116;-0.08623936;0.22381924;0.06289723;-0.032997698;0.13060074;-0.12312186;-0.114614785;-0.24223173;-0.21168739;0.15903233;-0.10622225;-0.13980207;0.16741166;0.30524075;0.3520494;-0.040441543;-0.27564844;-0.060599305;0.11869981;0.10320473;-0.16322719;-0.00448381;0.03342447;-0.029914938;-0.21997364;0.13072251;0.10936392;-0.14901912;-0.028758042;-0.043714777;-0.15641707;-0.17679484;-0.086275205;0.07852098;-0.29157817;-0.06904464;0.23904306;-0.17772913;-0.05498874;0.18123032;-0.15499343;0.07333847;-0.16033171;-0.24962202;-0.017016146;-0.2056537;0.10808839;0.077210374;0.07860128;-0.24352764;0.0987567;0.019286597;-0.016955096;-0.43605092;0.08415064;-0.11341374;0.035169136;-0.0643867;-0.07597149;0.062426448;-0.059527572;-0.010521049;-0.22026429;-6.416442e-05;-0.35278577;-0.022006843;-0.25403395;-0.10396062;0.106108464;-0.11078101;-0.44157043;-0.19751674;0.1639281;-0.34295955;-0.03533151;0.43651825;0.0332501;0.4162986;0.07120947;-0.118023634;-0.24536747;-0.08773865;0.37737703;-0.14410387;-0.016707053;0.14792956;-0.14904952;0.15293926;0.12107441;-0.5395133;0.13161227;-0.08110433;0.040416267;-0.062091447;-0.058873087;-0.07101971;-0.08318946;-0.14518508;0.07361552;0.03364655;0.15774608;0.0652292;0.13693984;0.3740116;-0.29614198;-0.21717231;-0.013106193;-0.09049335;0.13608398;-0.08951687;-0.19720481;-0.4698657;0.020482285;-0.12697136;0.21087848;0.13612576;-0.03131356;0.10728931;-0.123847835;0.17241868;0.112876035;0.04271607;-0.07228935;0.1164272;-0.10396644;0.115103826;-0.3881919;0.052407764;0.18494211;0.06782332;0.06924693;0.020662082;0.027738754;-0.026585791;-0.14405517;0.14025171;0.11284919;-0.046795644;0.09044123;-0.18239748;-0.057409927;-0.034751322;0.12745856;0.2903032;-0.04399159;-0.12590764;0.08169671;0.010847693;-0.124415115;0.3497513;-0.10678574;-0.315453;-0.13285281;0.14274469;0.005054007;-0.0058477866;0.0407006;0.13573548;0.27423745;-0.20243686;0.07898312;0.21539229;-0.16441463;0.019685194;0.07238542;-0.11477771;-0.22711623;0.09336392;0.07066149;0.45050198;0.06748917;-0.160629;-0.28273746;-0.054810364;-0.023236675;0.12621422;-0.13987583;-0.21583599;0.170573;-0.18134455;-0.22636418;0.15782592;-0.1924316;0.0993351;-0.10894359;0.031498175;0.22727378;-0.11990424;-0.4281791;0.154689;-0.046932098;-0.012709774;-0.16910653;-0.16058381;0.072931945;-0.03092253;-0.0043257326;0.2941817;-0.13470748;-0.092426695;0.21683872;-0.16955437;-0.059225947;-0.66982806;-0.071404934;0.12708074;0.1710712;-0.2535986;0.1313639;0.23240256;-0.21730919;0.0017371675;-0.012609885;0.15159461;0.2246032;0.0013079512;0.05265469;0.14032158;-0.32714975;-0.14762919;-0.123924665;-0.016382154;0.09191555;0.22909133;-0.34816936;0.10283784;-0.023410257;-0.15799214;0.06807851;-0.33905628;0.00019495196;-0.019821983;0.2517809;-0.07460016;-0.019036813;0.009846077;-0.19606;0.11256475;0.071782105;-0.040081196;-0.08681956;0.27095464;0.23291618;-0.044326935;0.14414707;0.20745474;0.1378179;-0.498529;0.34799695;0.257698;0.26478088;-0.032735866;0.04754741;-0.033500478;-0.02691967;-0.008056749;-0.034125805;0.46804893;-0.21455932;0.133635;-0.018328933;0.36716622;-0.02328289;-0.030312516;-0.198178;0.0013144518;0.061679978;0.050707165;0.029985454;-0.06434616;0.1310343;-0.04269388;0.2330247;-0.18600644;-0.1733071;0.023326647;-0.15276699;-0.08761679;0.25559652;-0.20203799;0.24107546;0.1614251;0.169058;-0.091741785;0.048058238;-0.06941992;0.27853987;-0.037121862;0.19108014;-0.08542254;0.027534349;0.17014217;0.15901113;0.12011441;0.13302888;-0.31301728;0.4236301;0.13746016;0.02692767;-0.053294256;0.054872703;0.07953085;0.07826068;-0.091710575;-0.31807694;0.17175928;0.25572705;0.18868527;0.09381088;-0.12362651;-0.03285546
0.15174586;-0.17987101;0.06867843;-0.12635452;-0.08859716;0.08544484;-0.22366336;-0.28158846;0.0654761;0.14679243;0.4192823;0.050844297;-0.069199935;-0.0736055;-0.071510345;-0.075408034;-0.07911801;0.11806671;0.24617827;-0.39429405;-0.055012975;-0.029052677;-0.051406145;-0.034169585;-0.21936543;-0.014651267;0.38917807;-0.102054425;0.13466266;-0.17274755;-0.4321353;-0.066838026;-0.07070508;0.008324116;-0.035843946;0.054524828;-0.095658146;0.10273163;0.1917913;-0.1812795;0.057148743;0.024698462;0.3481886;0.0863506;-0.41780302;-0.15746644;0.19322303;0.21917623;0.24709189;0.09269266;-0.022054954;-0.21008585;-0.43561533;-0.06417382;-0.1395188;0.17527966;-0.39781505;-0.31315202;-0.0005111993;0.043692503;-0.0060992045;0.21500131;-0.22613548;0.2310706;-0.061513346;-0.13596265;0.11037461;-0.20202774;-0.020888919;0.032994978;0.19318968;0.23163845;0.12999675;0.011749135;0.22272104;0.11994917;-0.12639658;-0.25966406;0.05366017;-0.12263298;0.06316747;-0.088704035;0.1633941;-0.21212655;0.23587765;0.21213502;-0.2079814;0.16924994;0.34568837;-0.06839021;-0.12064377;0.18875943;0.0045470553;0.096696965;-0.24727064;0.049158428;-0.17868732;0.17947708;-0.029777559;0.111657806;0.19302984;-0.11037452;-0.022015633;0.0893729;0.14957988;-0.12704733;0.013422463;0.14958648;-0.1873857;0.12235404;0.33270434;-0.22693309;0.002692607;0.0445688;0.22327219;0.016008338;0.017458722;0.030345293;-0.09323677;-0.24660559;0.005541837;0.16662273;0.08569974;-0.0228296;-0.07765448;-0.04661426;0.20265807;0.20156181;-0.27700725;-0.019049745;-0.16902968;0.016691672;0.11290853;-0.20972112;-0.30140752;0.24227402;-0.090069585;0.14209582;0.04235188;0.014275236;-0.2596025;0.11435067;-0.1495217;0.057861798;0.1632569;-0.11599934;0.16045415;-0.2548405;-0.047221094;0.09135373;-0.08029293;-0.2549179;-0.0897677;0.020216063;-0.26040062;0.24393973;0.015364305;-0.12331798;0.47010088;0.16396117;0.00091990497;0.17242326;0.024431536;0.01465456;0.08902965;-0.0027141941;-0.23030955;-0.28587422;-0.073779084;0.06888879;-0.25174305;-0.086968645;0.15229842;0.14096949;-0.20057334;-0.006071606;0.04999172;-0.07173889;0.1860522;0.066208154;-0.09550522;-0.3772109;-0.18154766;-0.10431711;-0.14707136;-0.05356596;0.013303548;0.10187296;0.05052752;-0.008939472;0.09971571;0.16822952;0.014063846;-0.05337649;-0.18915196;-0.35965428;0.016732723;-0.24240422;0.29650643;0.06578461;0.17494704;-0.18014987;0.014017217;-0.075111575;0.17658505;0.098716825;-0.06554625;0.028008576;0.16234793;0.015818886;0.1742715;0.14068079;-0.03443769;-0.10602728;-0.01616024;0.0074017514;-0.116028525;0.28712457;-0.25922638;-0.19521637;-0.28546283;-0.5389028;-0.305712;-0.25124687;0.0628518;0.17408372;0.06580601;-0.13640694;-0.013835139;0.18347768;-0.15063658;-0.03395773;0.075524785;0.09638392;-0.2874297;0.04243474;-0.22240427;-0.17022492;0.108696796;0.06734522;0.26753622;-0.30265316;-0.06817926;0.047968116;-0.104134135;-0.022360245;-0.036034834;-0.093269505;-0.061183657;-0.096727476;0.05047897;0.10679573;0.12884775;0.17616391;0.23870437;0.18001074;0.24816582;-0.28469598;0.2692169;-0.068505995;-0.035704914;-0.49642158;0.035840444;0.037917487;-0.011759112;-0.043977;0.3168631;-0.04802177;0.11660369;0.05548454;0.067261815;-0.088041365;-0.14683577;-0.14292094;-0.006924817;-0.11465524;0.02305556;0.1411387;0.27328598;0.47008356;-0.08736495;-0.15519466;-0.27313393;0.15993236;0.124581404;0.020247502;-0.009534849;0.27738145;0.20339836;0.17478304;0.116114974;0.082062185;0.12347928;0.08762106;-0.20240846;-0.02303314;0.20492908;0.08722327;0.12920621;-0.44375318;-0.072321326;0.19921768;-0.04851656;0.040882595;-0.16480953;-0.19674228;0.12176358;-0.2525173;-0.40085983;0.082513556;-0.14082322;0.12226272;0.12617362;0.07557977;-0.15696964;0.11641315;0.26668322;-0.13834167;-0.3186751;0.13583323;-0.17706986;0.30551252;0.013037604;-0.12431409;0.39556506;0.26147494;0.10448989;0.10195115;0.17178042;-0.19343369;-0.20140135;-0.45104164;0.029160429;-0.063875124;-0.17170517;-0.07942205;-0.29394996;0.24063691;-0.08666939;-0.21272255;0.13341336;0.22666928;0.09936781;0.08406868;0.06435199;0.14295751;-0.02596796;0.15418835;-0.32586524;0.266548;0.029750664;-0.10160438;-0.23296283;-0.070313714;-0.22248872;0.09667753;-0.17593807;-0.18487094;-0.119284056;-0.14910087;-0.23633678;-0.37284985;0.05545275;0.2589909;0.196227;0.21345541;-0.08785847;0.14501877;0.00911205;-0.2547567;-0.13579585;0.1706609;-0.22486635;0.12131196;-0.034917116;-0.18217868;-0.38657326;-0.084694184;0.1861358;0.1467187;0.067341134;0.326262;0.042774945;-0.11659872;0.016089838;0.12510604;0.17178048;0.08870183;-0.034033235;-0.10002113;-0.005281714;-0.27325898;-0.12307505;0.061593186;0.13728708;-0.13695697;-0.053417556;-0.11378765;-0.13387272;0.016738953;0.06074307;-0.00447069;0.012607311;0.016719857;0.32488057;-0.10187432;0.16682433;-0.12743291;0.16011482;0.010817253;0.061683767;0.11760267;0.09438887;0.03330242;0.33877367;-0.24767117;-0.43277332;0.36384684;-0.030136183;-0.15464175;-0.1790201;0.10419339;0.1935172;0.05931495;-0.060306307;0.06625849;-0.08085217;0.0105365;0.32006717;-0.17723076;-0.13845992;-0.19404863;-0.14348277;0.14528856;0.3927881;-0.0017244809;-0.15226711;-0.31840807;-0.31560358;-0.035920016;-0.18370838;-0.23491378;-0.30927765;0.095529884;-0.07601409;-0.28506172;0.31874907;-0.17561781;0.1778707;0.35112014;0.16876781;-0.08319843;-0.23411241;-0.18920596;0.19665645;0.30131206;0.016909571;-0.2855626;-0.12755506;0.101611376;-0.14413556;-0.17947282;0.33315676;-0.34899372;-0.19884035;0.15644409;-0.15712604;-0.11452695;-0.5319068;-0.110859334;0.13473672;0.052245546;-0.30359516;-0.16139744;0.20782031;-0.22431588;-0.30952635;0.18432517;-0.19875291;0.21446271;0.033984352;0.3195556;0.15572016;-0.5665561;0.2700208;0.027486805;0.18592727;0.05524559;-0.013539627;-0.48299158;-0.08724065;-0.18776435;-0.2679539;0.06868857;-0.1300028;-0.25546056;-0.2757543;0.02086587;-0.22172914;0.35426733;0.110762104;0.17060108;0.054225113;0.24430911;0.012372058;-0.26602474;0.13521583;0.050507594;0.0032968686;0.15656239;0.31545267;0.0474598;-0.20859584;0.30866188;0.043778803;0.19651479;-0.22818004;-0.11606267;-0.15262507;0.020546628;0.12257329;0.067250505;0.21544413;-0.49512008;-0.19186984;-0.07735674;0.28299317;-0.0684355;0.108118676;-0.31997606;0.005744234;-0.0058151055;-0.018594638;-0.12877098;-0.2047;-0.098586075;-0.3108686;0.33774695;-0.29269645;-0.2741746;-0.016717201;-0.22283322;-0.24931097;0.2703563;0.05489043;0.21187973;0.16517076;-0.073976986;-0.14485817;0.013077305;-0.17939909;-0.017880294;0.16351743;0.08034915;-0.054200243;-0.07491733;-0.084171705;0.17708115;0.3445447;0.035912097;-0.16697484;0.20244761;0.22124104;0.16339171;-0.09915756;0.2676559;0.06926008;0.11437558;-0.15566832;-0.33966228;-0.11476403;0.41598314;0.20614977;0.15251458;-0.2660129;-0.13408318
0.07651242;-0.1865056;0.07757205;0.12538853;0.08022418;0.24313764;-0.059147265;-0.013493688;0.18431742;0.03798638;0.23971188;0.028138245;-0.007459177;0.020646693;-0.2923995;0.11289934;-0.040814046;-0.116573535;-0.063493446;-0.13651337;-0.13300942;0.11984656;-0.09025228;-0.18759249;-0.021023335;0.16812515;0.2133903;-0.06675255;0.117375195;-0.042472642;-0.2347433;-0.15305166;0.035518426;-0.48831686;-0.1112499;0.10757554;0.050608497;0.22999643;0.080162756;-0.11218708;0.025954086;-0.09734733;-0.045896593;0.18846571;-0.18049201;-0.14047529;0.12162283;0.45613408;0.042849153;-0.05884808;0.010611233;-0.14623843;-0.06930973;-0.24734402;0.2011813;0.0347977;-0.27117372;0.02461391;-0.08735808;-0.15606366;-0.36623576;0.3140408;0.12329352;0.17361274;0.017631128;-0.08022794;-0.059412975;-0.16521375;-0.02845107;-0.067183256;-0.08320742;0.076253586;0.21963096;0.07540402;0.25975955;-0.0761454;0.068022124;-0.22695774;0.16509074;-0.3223599;0.0090787;0.05240195;0.35815394;0.027194228;-0.12280367;0.0441303;-0.1321748;0.2336636;0.41278315;0.079438195;0.02946785;0.095240615;-0.0015918056;0.2544079;-0.3197029;-0.31984302;-0.29016247;0.06024947;-0.13001889;0.11008282;0.16028678;-0.30494562;-0.050970443;0.06546345;0.15199836;-0.067261375;-0.19782355;0.13214485;-0.2199073;0.015815588;0.10695968;0.19508855;0.030901821;0.26735982;0.03781641;0.070656426;0.030627154;-0.07875534;0.098117806;-0.27878955;0.34558886;0.06731501;-0.10190719;0.018946785;0.040341057;-0.039218266;-0.13851899;0.24193236;-0.19930586;0.054381184;-0.1434494;-0.06277834;-0.115507096;-0.26071998;-0.22977147;-0.121284686;-0.12086206;0.1028636;-0.17460212;0.14267908;-0.083940394;0.3632528;-0.14784083;0.116669066;0.20273241;0.11298272;0.3899619;-0.13718015;-0.14539146;0.2028914;-0.02132645;-0.113509454;-0.064822555;0.025313694;-0.16974232;0.091978334;0.24927172;-0.16338903;0.3999944;-0.15246432;-0.0054086344;0.15402293;0.028615225;-0.0243822;-0.014968124;-0.025210854;-0.4250326;-0.0049324944;0.027194874;0.1121599;-0.3149067;0.020581175;-0.11789533;0.091447994;-0.17272398;0.06872338;-0.09608603;-0.065085225;0.22353734;-0.19429128;0.05139921;-0.14724533;-0.21417817;-0.027751967;-0.021766406;-0.30029818;0.108996585;0.039668873;0.058996417;-0.17457767;0.22659409;0.28801674;0.21450229;-0.27195707;-0.09428185;0.049604982;0.048129197;0.08380503;0.0752178;0.10783973;0.15021715;-0.18392159;0.40034807;-0.3787227;0.22552815;0.25508112;0.106457695;-0.027901368;0.18232198;0.20300786;0.12101558;-0.047438737;0.04554377;-0.12578073;-0.41297582;0.04490711;-0.026213247;0.24008;-0.14562279;-0.18023716;-0.19279106;0.3267213;-0.023110555;0.07213145;-0.18076299;-0.1252538;0.05825272;-0.0062126075;-0.11576087;0.42542717;-0.14918469;0.036628827;-0.054712247;0.23322159;-0.46348828;-0.19505385;-0.17911395;0.21040654;0.009180619;0.031852942;0.28988853;0.20587549;0.002474684;0.07569702;-0.21384999;-0.101285025;-0.1776717;0.15585133;-0.33798733;0.17297742;-0.31327775;0.12464287;-0.00095389894;0.11839483;0.24112014;0.15629016;-0.21408524;0.09019605;0.20834523;0.0014982931;0.11692494;-0.5451824;0.15890369;-0.11111167;-0.1260781;0.23375103;0.07212414;0.04425126;-0.091557056;-0.020364102;-0.16751073;0.014784265;-0.17549317;-0.09029677;-0.089269556;0.07524654;-0.18221126;0.11170762;-0.14782754;0.08059587;0.31596482;-0.12128764;-0.22193919;0.20932989;-0.075951084;-0.072552696;-0.055864763;0.4238389;0.07508772;-0.19997664;0.10740707;-0.121709034;0.099215984;-0.01145767;0.15968707;-0.13878669;-0.124773994;-0.09804265;0.053879138;-0.2304081;-0.17240946;0.20902565;-0.049081806;0.24406375;-0.17323257;-0.17191334;0.16301668;-0.36127412;-0.22571711;-0.0682526;-0.026650388;0.26940626;0.3525502;0.058577433;-0.01591399;0.019071516;-0.08300519;-0.037726577;-0.43153426;-0.03738707;0.09911207;0.29287338;-0.07493857;-0.19333173;-0.10562234;-0.35217127;0.16669631;-0.24762002;0.15465367;-0.26726496;-0.20440388;-0.36978906;0.016177392;-0.28451806;-0.26774293;-0.1635645;-0.041738372;0.03777013;-0.113957115;0.22961661;0.29094386;0.22547479;0.20615923;0.077773914;0.08275671;0.04852773;-0.048974365;0.20530078;0.07903649;-0.07455209;-0.06853063;-0.15075114;-0.6048693;-0.062683694;-0.12658727;-0.1862545;-0.012514475;0.15412425;0.050882526;-0.0650778;0.00862494;0.11493441;-0.14617215;-0.14189048;0.20445286;0.39097986;-0.082805;-0.09733037;-0.041438557;-0.41375536;-0.14894901;0.123809844;-0.3839299;-0.085439354;0.037030086;0.048584487;-0.2865673;0.04206955;0.055656523;0.2054278;-0.050360154;0.17012148;-0.033879872;-0.070039935;-0.22367308;0.016805988;0.052191444;0.10929286;0.14016205;-0.108659424;-0.1579685;-0.19240281;-0.08232652;0.105657786;0.08146113;-0.35793814;0.07124128;-0.0027085466;-0.3648036;0.13477513;0.14520691;-0.21723612;-0.088158526;-0.017444275;-0.23887843;0.019637426;0.11217212;-0.08856347;0.11766388;0.27725202;0.25559068;0.013139203;-0.14169548;-0.16730791;-0.0042409734;-0.325324;-0.22079898;0.2544754;-0.12855743;-0.3138221;0.07429256;-0.11288573;0.36935267;0.13190205;-0.18006264;0.09572798;0.1702593;0.08726111;0.086400315;0.33151087;-0.071971685;0.016810978;-0.10149357;0.32415983;-0.07354511;0.09009192;-0.023855979;-0.113267355;0.21793896;0.07686535;-0.16502927;0.07258169;-0.19840777;0.056286383;-0.09631176;-0.25395906;0.0657343;-0.09144214;0.27051252;-0.1151387;0.24453452;-0.15347745;-0.2717841;-0.4174037;0.24410948;0.31927344;0.019640958;-0.11534764;0.19524282;0.13694932;-0.23428856;0.018972347;0.47842804;-0.33837736;-0.27610785;0.05974398;-0.21468018;0.044403676;-0.35902599;-0.062124822;-0.01574713;-0.09179807;0.1573274;0.14475834;0.09309326;0.22817901;-0.20772305;0.10621824;-0.16961172;-0.008005611;0.08900037;0.3731896;0.08610055;-0.05786794;0.28805014;-0.06041218;0.054919098;-0.040610284;0.051433105;-0.3254459;-0.21902052;-0.15295658;-0.4788417;0.04027021;-0.59434265;-0.079304315;-0.18653437;0.021208268;-0.13078652;0.07510398;0.033411767;-0.33232906;0.18495224;0.24123716;0.04592325;-0.14660221;0.045050293;0.2212727;0.029434178;-0.11237132;0.10477777;0.099065736;-0.17082177;0.42442027;0.058234006;0.25501746;0.038390063;-0.02252737;-0.033129897;-0.11080551;0.15913434;0.28824845;0.2637681;-0.06874759;0.104144305;0.104405686;0.3644175;-0.12423712;-0.08606319;-0.13464071;0.021169983;0.23707995;-0.2019803;0.07110835;-0.031134633;-0.11025667;-0.32781696;0.032960564;0.04540611;-0.05217077;0.163878;0.10975644;-0.353688;0.26522118;0.10274846;0.14151393;0.22251469;0.32246718;0.045150332;0.4181526;-0.07862815;0.076553054;0.09645121;-0.23469374;0.13355133;0.18133205;0.123790324;0.26150972;0.26610687;0.011933271;-0.3131195;-0.06188254;0.3098137;-0.12495973;0.030449187;0.15480994;-0.10090861;0.15951405;-0.14792085;-0.046784557;0.16381796;0.38565972;0.3871962;0.029448697;-0.17255211;0.27382493
0.12106215;-0.110608265;0.14222515;0.20637755;-0.07454372;0.056347586;-0.19774505;-0.05710099;0.14657985;-0.20875806;-0.040515218;0.10300408;0.02475219;-0.0073180893;-0.19408137;0.038044017;0.30566484;0.042591807;-0.17595463;-0.20816672;-0.08425392;0.26534554;-0.02273149;0.10019664;-0.06200872;0.40376332;0.13521558;0.32939;0.21479481;-0.12435976;-0.41996175;-0.03240434;0.047355507;-0.52531147;-0.24307354;0.13034663;-0.11391768;0.20498022;0.18542878;0.22485243;-0.069032215;-0.20889756;-0.039492995;0.13875253;-0.16401201;0.09110803;0.09122814;0.46105465;0.18399143;-0.134197;0.2100551;-0.11096022;-0.39050758;-0.048313342;0.16044581;0.15334004;-0.06615871;0.008441623;-0.06131851;-0.19096541;-0.032236163;0.38879967;-0.14912276;-0.030327277;-0.26148003;0.079422794;0.009742499;-0.007488248;-0.1064615;-0.022811247;-0.14038832;-0.06673714;0.10935793;-0.0113656325;0.19477682;-0.013752217;-0.056863245;0.08315429;0.16374359;-0.17395586;-0.11430702;0.028894957;0.09606526;0.022095548;-0.01629225;0.041251607;-0.00811572;0.18475895;0.47619838;0.052372947;0.2472384;-0.06260514;-0.15125938;0.16207397;-0.2090195;-0.12540892;-0.15895809;-0.025885819;-0.03776613;0.020159528;0.15610974;-0.263746;-0.10484428;-0.043798726;-0.09405332;-0.061744124;-0.019655822;0.15311855;-0.18701042;0.055540957;0.06197315;-0.14890973;0.15241434;0.23845834;-0.19020331;-0.11465284;-0.040528186;0.0024992495;-0.13076682;-0.10671651;0.5020596;0.12830552;-0.16747433;0.039130192;-0.07823711;-0.033346124;0.0036097588;0.10594887;-0.039285548;-0.26617578;0.13441937;-0.07795617;-0.19721209;-0.12285;-0.026910728;0.28798562;-0.22058481;0.13684052;-0.3362678;0.21690863;-0.16060023;0.41780457;-0.25489244;-0.06374063;0.3025981;-0.014363038;0.20318355;-0.26900256;-0.08200124;0.24029568;-0.23829812;-0.16247231;0.022644166;-0.04617743;-0.12959604;0.26492524;0.15922008;0.072949335;0.5396841;-0.08491542;0.1484772;0.09662436;-0.17653225;-0.052646376;-0.055912454;-0.23382522;-0.22563934;0.009162198;-0.1665994;-0.053668555;-0.16474585;-0.20272662;-0.058532633;0.21378365;0.015475042;0.09137519;0.105397984;-0.0496766;0.19416015;0.033830363;-0.06387801;-0.19823466;-0.0168233;0.24340215;-0.1742666;-0.17288801;0.05169254;0.05304129;-0.022515193;-0.20501898;-0.18278478;0.08705444;0.062315583;-0.23011406;-0.32493138;-0.030455016;-0.24911474;0.065945454;0.2058292;0.16993941;0.38834214;-0.41251007;0.1293334;-0.25219023;-0.067447156;0.17893364;0.1664186;0.25255835;0.1918638;-0.1752112;-0.0032423714;0.16525109;0.055693015;0.037168738;-0.33914793;-0.025690632;0.113426276;0.10329986;-0.2026843;-0.0065683536;-0.31616887;0.21668276;0.008489329;0.22938074;-0.04795652;0.025215546;0.12066116;0.106588475;-0.17413975;0.31758672;0.0439902;0.1460924;-0.07554218;0.03592372;-0.7782361;-0.09767971;0.0005924722;-0.034196086;-0.19894464;-0.040054496;0.1505845;-0.011078852;-0.123417765;-0.055613767;0.102765724;0.14366454;-0.27367535;0.1627176;-0.23013596;0.22733162;-0.09392436;0.26753172;0.13591185;0.22329192;0.0895073;0.28328735;-0.11429986;-0.10095379;-0.070364825;-0.11233124;0.015054265;-0.46445394;0.28878912;-0.1641053;-0.035622727;0.3261972;0.13046739;-0.19876204;-0.010677711;0.08646986;-0.21078677;0.07196093;0.010997129;0.10462241;-0.27724183;0.16847388;-0.058812965;-0.19947273;-0.18784937;-0.07328211;0.21767959;-0.15574344;-0.3576437;0.17788294;-0.1646048;0.06207339;-0.019666845;0.57114315;0.16751947;-0.080377035;0.10839678;-0.07130076;0.025106769;0.03923402;-0.020144029;-0.10199544;-0.14050026;0.16104867;-0.06712127;-0.097522445;0.19655097;0.12966016;-0.06644513;0.05105059;-0.13196042;0.17951335;0.107946984;0.1106494;-0.02597582;0.3051519;-0.26125014;0.08670843;0.24699357;-0.12654841;-0.1439792;0.28421712;-0.048323363;-0.019375859;0.11624896;0.09206463;0.16316716;0.34068704;-0.0053436467;-0.1470737;-0.054446246;-0.30263895;-0.0520377;-0.28889373;0.11734541;-0.12065134;-0.26431313;-0.09316458;-0.13019615;-0.27635822;-0.15604453;0.10600538;-0.327494;-0.15834422;0.0989112;0.035943426;0.19367456;0.11031648;0.37244096;-0.071513325;0.18011218;-0.16919401;-0.20685397;0.18662919;0.20465955;-0.11333893;0.010096006;-0.28624827;-0.6092196;-0.027410856;0.15608744;-0.33568737;-0.12972069;-0.24970068;-0.12846534;0.019780897;0.16523543;0.071100414;-0.135791;-0.026533479;-0.032217804;0.105575435;-0.03480278;0.014199413;0.163381;-0.13517027;-0.09902766;0.13686603;0.018660044;-0.119226106;0.0645733;0.19425526;-0.22368756;-0.061271284;0.07191262;0.08069686;-0.12742227;-0.2573471;0.13700724;-0.17917669;0.032900143;0.20038013;-0.023433786;0.11224216;-0.12752238;-0.28152975;-0.029942704;-0.07195407;-0.10601944;-0.004622803;-0.2389612;-0.36201805;0.33551633;-0.22044075;-0.18474166;0.057490062;0.034255862;-0.11347227;-0.0006328785;0.19444533;-0.21023765;-0.14813983;0.11404526;0.040235084;-0.01908544;0.38200125;0.18104413;-0.0069745984;-0.08253094;0.10905151;0.007509347;-0.25170845;0.004066532;0.17667863;0.0061125173;-0.42624715;0.16098367;-0.059163615;0.1088149;-0.05377967;-0.08606085;0.17621301;0.11426544;0.2980724;0.026649665;0.16420116;-0.13406558;-0.03059267;-0.05552097;0.27257335;-0.056277115;-0.13228597;-0.15174854;-0.038307738;-0.10931326;0.30026886;-0.13266823;0.091274574;0.16044435;-0.04275344;-0.107270375;-0.16345851;0.20222695;0.052015845;0.13150424;-0.042107392;-0.08887733;-0.04398841;-0.39901587;-0.24151984;0.11444519;0.32535753;-0.022542983;-0.053068776;0.20588495;-0.16410616;-0.10705386;-0.10508172;0.4197883;-0.19620426;-0.44444716;0.056861136;-0.30659616;-0.3501789;-0.093349904;0.15264389;0.13835655;0.14435281;0.24680173;0.21825407;0.06846874;0.39373916;-0.15743466;0.08861865;-0.20099074;0.115574114;0.23507836;0.2439417;0.09123219;0.117701605;0.27122554;0.21138325;-0.050614543;-0.16700758;-0.113595255;-0.16636726;0.018316478;0.06807027;0.013927708;0.33915684;-0.6136656;-0.013213136;-0.020184819;0.20424695;0.12177015;0.019395372;0.0005091466;-0.05089485;-0.056534905;0.044836625;-0.2158952;-0.38779923;-0.05292362;0.101902165;0.3650829;-0.09731166;0.11021539;0.095300205;-0.06424076;0.117021605;-0.21849973;-0.035209596;-0.020670477;-0.16837083;-0.23555653;0.09771047;-0.099646054;0.18963154;0.17787814;0.19387844;0.07681422;-0.34197536;0.35946894;-0.14343047;0.03661524;0.048847888;-0.17978927;0.34475312;0.02575382;0.16665989;0.039918635;0.10363011;-0.07738716;0.12830962;-0.09507291;-0.23439991;0.31880236;-0.13249244;-0.08205698;-0.083886445;-0.0026069887;-0.2089518;-0.102015816;0.258682;-0.014783614;-0.0804348;0.16077097;-0.18561143;0.14007452;-0.26486713;0.006861588;0.07184037;0.0075009163;0.27150863;0.25865495;-0.10931934;-0.2888932;0.11321272;0.36944303;-0.085293755;-0.098083615;-0.1339047;-0.05978024;0.044062916;-0.19931929;0.08502519;-0.14271802;0.12794575;0.2528514;0.10631809;-0.003812835;0.16715117
0.14570642;0.08670293;-0.13436973;0.24589872;-0.12380822;0.13418764;-0.38900992;0.13512707;0.028047929;-0.23237774;-0.024246415;0.010058422;-0.0017380188;0.17933267;-0.33811566;0.040207602;0.23921376;-0.06486846;-0.10613747;-0.17796347;-0.04731175;0.25152108;-0.002691492;-0.061877362;0.025463404;-0.006773431;0.27801394;0.18449995;0.25934222;-0.24583034;-0.24951242;0.00032097066;0.010257116;-0.53884226;0.20510237;0.08527702;-0.07632599;0.13953812;-0.12034189;-0.049929745;-0.15645808;0.15363319;-0.014817193;0.102850914;-0.04574743;0.022642054;-0.0716707;0.3581646;0.32730347;-0.30526328;0.111998744;0.036987484;-0.17022099;-0.2393097;0.121054724;0.22761199;0.008473378;-0.1301513;-0.12660755;-0.1467807;0.22818096;-0.039114553;0.09506472;0.08804059;0.120427445;-0.15557848;-0.17660949;0.24279489;0.031290088;0.022298194;-0.07758484;0.2682202;0.043208178;0.022478467;-0.00935693;0.19773193;-0.06510888;0.18696357;0.3286648;-0.041331634;-0.20162569;0.31154755;0.1634188;0.13410023;-0.09003846;0.10103835;0.091905884;0.10278356;0.17427012;0.055371188;0.17902161;-0.059670866;-0.051723253;0.13308921;-0.31936452;0.14788713;-0.21626191;-0.0060390118;-0.094279826;-0.09869155;0.17052604;0.07318468;0.07870745;-0.0074288086;0.26583296;-0.055805758;-0.20387809;-0.072151974;-0.12192749;-0.07363936;0.0910453;0.038906;-0.025449723;0.21886998;-0.25781217;-0.26058224;-0.021071829;-0.011724274;0.01133563;-0.31749788;0.21353202;0.16832492;-0.15770718;-0.052857414;-0.24126258;0.0788343;-0.030732742;0.13199721;-0.13407002;-0.12108378;-0.19891071;0.022891581;-0.29093304;0.21104434;-0.115977414;-0.020791236;-0.120816804;0.36941424;0.0657221;0.22050169;-0.23175028;0.48472887;-0.2393357;0.044513308;0.17260185;-0.15280548;0.18942478;-0.29693443;-0.13084841;0.23220314;-0.07270159;-0.2525878;0.04517518;-0.20697495;-0.34190425;-0.05992722;0.0069489363;-0.10401455;0.3040121;0.04746128;-0.050359126;-0.028743047;0.021728309;-0.05847995;-0.0061112316;-0.007009561;-0.24120304;-0.021980725;0.049398635;0.19544427;0.2748102;-0.051762782;-0.23998436;-0.05911851;0.14862403;-0.14469846;-0.043860022;-0.14203748;0.23155482;-0.067739226;0.016348088;-0.06464344;0.030761205;-0.092704885;-0.043331474;0.060471382;0.1264014;0.0496532;-0.06332471;-0.29864842;-0.13054195;0.10180481;0.1215338;-0.19814973;-0.14806387;-0.14462417;-0.13980089;0.25942585;0.20282157;0.096507065;-7.5582895e-05;-0.13604069;-0.04659171;-0.08361019;0.032539718;0.08656817;-0.084821396;0.26155823;0.1376802;-0.13038103;0.13243961;-0.16999044;0.012817841;-0.09130051;-0.10677931;-0.21606314;-0.09306215;-0.0023878217;-0.2947698;-0.06491914;-0.34421098;0.30301222;0.1622856;0.05460727;-0.028504042;0.11857147;-0.08902101;-0.11630377;-0.027189245;-0.044629868;-0.17406003;0.11653334;-0.13036603;-0.00084963226;-0.6195892;0.036143534;0.0846981;-0.02175023;-0.087222375;-0.10440806;0.14654368;-0.27695566;0.027537746;-0.107529745;-0.1699117;-0.07929383;-0.4981161;0.23587471;-0.01636314;0.022511661;-0.10646179;0.030745124;0.14306155;0.23596242;0.045421846;0.39245123;-0.21025705;-0.07121025;-0.22542703;-0.014466268;-0.08387014;0.030547451;-0.075343706;-0.07990868;0.09611752;-0.03982127;0.24173625;-0.10670585;0.012408545;0.076297574;-0.055690307;-0.063516654;0.16510138;0.2919488;0.015567687;0.07630229;-0.0037902286;-0.3060723;-0.055428714;-0.16291732;-0.03715502;-0.19556749;-0.3639287;-0.0068024616;0.052380983;-0.074649036;0.013955258;0.2796693;0.2947966;0.010825446;0.0054287002;-0.28731707;-0.1123282;0.00508429;0.12021667;-0.11791247;0.11092515;0.0040332316;0.13096522;-0.10064061;0.08984509;0.17450623;0.0020974234;0.11485432;-0.17851433;-0.04240147;-0.17889497;-0.030695312;0.07876153;-0.050761852;-0.4176523;-0.040497158;0.1973823;-0.142767;-0.2601367;0.11142732;-0.13154957;-0.26589933;0.04609775;0.02194249;-0.06332249;0.08535748;-0.11906388;-0.07120639;-0.30019754;-0.1454821;0.0069580683;0.012824508;-0.077423565;0.031018393;-0.26578405;0.007481019;-0.23675604;-0.28460112;-0.13375466;0.23022051;-0.039487723;-0.09426386;-0.07056532;0.06974415;0.19234663;0.17075874;0.23041919;-0.0003592999;0.18790404;-0.02389489;-0.06828494;-0.002191647;0.33213177;-0.33577442;0.075088665;-0.005251575;-0.12662034;0.006599306;-0.209376;-0.12940043;-0.084679134;-0.11796501;-0.15868422;0.058326352;0.104322314;0.14033456;-0.3179787;-0.028339047;-0.07180974;0.21241176;0.054049987;0.16270083;0.0051112254;-0.14983188;-0.2315845;0.1644873;-0.13173392;0.08215911;0.022814544;-0.08284695;-0.14897217;0.19173671;0.09734001;-0.031601723;0.1332074;-0.18059655;0.15966603;0.050875183;-0.12554345;0.025262747;-0.024203852;0.23591688;0.10096934;-0.25581664;0.07910917;-0.15060915;-0.0928645;-0.07155032;-0.087964155;-0.3723321;0.15148757;0.086121716;-0.23068562;0.18089215;-0.021757567;0.14497429;-0.16753083;0.2463388;-0.108513355;-0.078367114;-0.03046444;0.07810432;-0.0096749775;0.00055347476;0.019963922;0.2328587;-0.19431654;0.028014444;-0.2133143;-0.08954944;0.20759158;0.21714433;-0.003322293;-0.22030734;0.21176752;-0.038208168;0.1317658;-0.21016322;-0.22699784;0.07273035;-0.0033353132;-0.09100236;-0.05766019;0.25678584;0.10977279;-0.09133405;0.08475178;0.13353461;0.12157887;-0.23930599;-0.07004205;-0.0025022905;-0.08065659;-0.020021902;-0.217724;0.0677857;0.21846665;0.044303145;-0.23915642;-0.18476413;0.2707746;0.00723483;-0.06499474;-0.041820113;-0.010812092;0.07211886;-0.538025;-0.033371482;-0.021974204;0.13240632;0.021124208;0.032602664;0.18454835;-0.041295007;0.055397082;0.025792887;0.23439531;-0.3449097;-0.22227713;0.2211416;0.10231901;-0.076896034;-0.18590795;-0.075598754;0.264251;-0.10357294;0.20750087;0.3226814;0.07541796;0.28226352;-0.031463075;-0.11737083;-0.0023345475;0.027975444;0.05998919;0.27232072;-0.46911213;-0.20960802;0.00043719186;0.35243103;-0.067560785;-0.10658994;0.04639607;0.028849212;-0.25003582;0.024455678;0.22100967;-0.044242445;-0.34021875;-0.05923235;-0.3241325;0.18542077;0.07477351;-0.11254247;-0.040236995;0.0066009914;-0.08188998;-0.026348539;-0.2419052;-0.31556526;-0.15691864;0.19639146;0.39025185;-0.17806064;0.2795988;0.06488138;-0.15787607;0.06549464;-0.3590942;-0.10042697;0.10191447;-0.0716394;-0.3347809;0.1411101;0.15411282;-0.019758161;0.2190328;0.21393554;-0.0076055587;-0.15338786;0.10009011;-0.13299263;-0.007124462;0.028222498;0.008630785;0.1387363;-0.16127217;0.00022400777;0.32838285;0.036431767;0.07780616;0.18158224;-0.018131666;0.07096521;0.22017714;-0.06576032;-0.11397368;0.20329581;0.07181409;0.11401061;0.05414274;0.21159348;0.0686998;0.1378488;0.06658725;0.023323214;0.29054138;-0.47391316;-0.104435466;-0.0088534355;0.14155461;0.123074345;0.29336938;0.1888558;-0.38856348;0.07655967;0.24492998;0.011409477;-0.09765192;0.0675722;-0.025875974;0.032261867;-0.13872899;0.32772002;-0.12292492;0.3237863;0.1134103;0.16223583;-0.23031408;0.19772863
0.22872572;0.007389748;-0.083539836;0.22064534;-0.054907087;0.040758457;-0.1766337;0.00933931;-0.055319972;-0.17452407;-0.20905015;-0.18642272;-0.16190591;-0.07881222;-0.3315374;0.1067599;0.116124496;-0.25015667;0.0957809;-0.1757406;-0.11457694;0.15327433;0.13351469;0.26358616;0.20481375;-0.015392397;0.090305105;-0.18763486;0.20176516;-0.13999699;0.08774493;-0.037437495;-0.034858815;-0.07003759;0.0992123;0.26095915;0.11595801;0.12181401;0.0018802001;-0.3241328;-0.36598265;0.23509456;0.022486102;-0.056426365;0.16969523;0.11674496;0.15732127;0.29656255;0.3329546;-0.19180563;-0.14362857;0.21032442;-0.186878;0.0038082385;0.06747982;0.22663002;0.056245495;-0.08701849;-0.12810417;-0.2217515;-0.023789389;0.10771546;-0.0667458;0.17498548;0.253505;-0.106155425;-0.05517226;0.38528213;0.0012046087;0.12621754;-0.38451016;0.27673188;0.19751444;0.1421832;0.06736045;0.23371962;-0.06835394;-0.039785493;0.111827746;-0.0334213;-0.34719175;-0.14309053;0.12634782;0.05886753;-0.029269505;0.27012205;0.1607618;0.1393526;0.11089046;0.19733831;-0.024113124;0.061112043;-0.045050744;-0.15798622;-0.44151396;0.19556682;-0.11370862;-0.14519718;-0.31832233;0.07689861;0.13626824;0.13931105;-0.07917992;0.027335254;0.05987963;0.09360456;-0.13889237;-0.11948643;-0.18935564;0.20995541;-0.13943693;0.17394477;0.08212419;0.16410446;0.008603135;-0.0030201967;0.11120869;0.21674767;-0.051379897;-0.018578272;0.19705676;0.21217373;0.011178668;-0.0082958415;-0.3674296;0.116740525;0.18164293;0.01308542;-0.09507273;-0.0912261;-0.09519837;-0.037896298;-0.2572792;0.18831103;-0.07650023;-0.44514543;-0.049644955;0.045594767;0.12294698;0.3255933;-0.22354192;0.21073578;-0.099041015;0.22741504;0.1950896;-0.09318166;-0.1008806;-0.24677047;-0.09111435;0.015251129;-0.094869405;-0.2125179;-0.023680938;0.009190734;-0.5013072;0.004108547;-0.35195208;-0.08295443;0.18402429;0.06582091;-0.206765;0.14055213;0.054993495;-0.13977611;0.011767048;0.03778922;-0.022422025;-0.30912265;0.096123144;0.11158192;0.30800238;-0.06487148;-0.2249095;-0.020834187;0.030711276;-0.0169947;0.15789811;-0.12328788;0.25995567;-0.16737385;0.31067064;-0.06964065;0.0053476067;-0.031336505;-0.26983088;-0.11535978;-0.06814445;-0.07378392;-0.17979759;-0.18699239;0.02093446;-0.084679805;-0.15983298;-0.24970812;0.07549496;-0.05417522;0.06396437;-0.08372223;0.43879977;0.06502916;-0.054684803;0.13149606;0.14494698;-0.11772605;-0.0343247;0.098741345;0.0071797166;0.271612;-0.043970563;-0.21848944;0.06599344;-0.113937706;-0.1465335;0.13110179;0.028440708;-0.08807303;-0.12324445;0.039173145;0.14335099;0.075035304;-0.142571;0.22048637;0.015186998;-0.072228506;-0.011579036;-0.06769728;0.12628388;-0.014619529;-0.19742812;-0.18724164;-0.1428423;0.13739283;-0.067958616;0.1263367;-0.38065735;0.16772172;-0.09399704;-0.15723854;0.05773055;-0.20504701;0.12136465;-0.04640318;-0.12811112;0.12267111;-0.06255398;-0.052407227;-0.21258384;0.028280249;-0.043356176;-0.13999067;-0.112018295;-0.06733818;0.07980381;0.021625614;0.049905226;0.47323167;-0.21599646;-0.0664311;-0.13610274;-0.22959423;-0.21733248;-0.10909686;-0.14130574;0.02743621;0.027445408;-0.019562934;0.27888432;-0.12450385;-0.063862324;-0.08613403;0.049959738;-0.37063587;-0.004892832;0.03907975;0.25866812;0.14122242;-0.032715105;-0.39812717;-0.027689716;0.040248252;0.018233806;0.025417268;-0.2636305;0.00046861332;0.12848556;0.09567476;0.10274411;0.21462113;0.3995157;-0.18771099;-0.080697596;-0.20065226;-0.122429505;-0.008579477;0.09267736;0.104777195;0.14836338;-0.0534557;-0.048218776;-0.045401473;-0.06862647;0.1963238;0.11846217;-0.30171975;-0.10319001;-0.2131255;-0.1253641;-0.117137805;-0.02387031;-0.033037927;-0.32945743;0.033104684;0.07805487;0.22013415;0.018981967;0.13306512;0.12111961;0.22665541;0.16733186;-0.046928663;-0.20040648;0.22471207;-0.19192143;0.08587971;-0.3130804;0.26092097;-0.0011652663;0.00038814146;-0.14285621;0.058195267;-0.036820874;-0.02772703;-0.13108796;-0.027267726;-0.0067289043;-0.05314131;0.013564937;0.057149675;0.0033216367;-0.22433878;0.07514702;0.07613642;-0.030262033;0.14131698;0.005226646;0.071157634;-0.13265708;0.16961887;0.34175217;0.023551421;-0.01983842;-0.21210372;-0.28641674;-0.0031724926;-0.09311023;0.018436113;-0.0840097;0.058544215;0.041066285;0.042466555;0.17788807;0.058033552;-0.17800179;-0.021258159;0.16438626;0.16455796;-0.21294855;0.29924533;-0.12826318;-0.11122925;-0.27110454;0.04702731;0.00457714;-0.022393322;-0.076917104;-0.26989055;-0.12413483;0.26405066;0.015529754;0.024112735;0.053000435;0.11854256;-0.0060572084;-0.08915632;-0.21649182;0.051924907;-0.018856732;0.13856097;0.115100466;-0.26634964;0.170696;0.08913976;-0.24345396;-0.03264061;0.14837782;-0.49500427;-0.06826702;-0.012536769;-0.13466306;-0.015939383;0.20579007;0.23755631;-0.02825328;0.24711454;-0.028230388;-0.048149608;-0.06304093;-0.03998419;-0.08620138;-0.13195698;0.0111195175;0.10978068;-0.05157533;0.10015748;-0.011226023;0.01604841;0.05904569;0.25363803;0.16701546;-0.16025822;0.3534395;-0.15231083;0.15240088;-0.028038105;-0.20370634;0.014769992;0.06592589;-0.06990073;-0.44824502;0.08584194;0.122040585;0.07834507;0.017502535;0.10824209;-0.1311021;-0.025182161;-0.09931033;0.101836644;0.1372566;-0.36889547;-0.12754418;-0.08155713;0.17198014;-0.041421708;0.037417017;-0.10904722;0.2120323;-0.09075866;-0.04253965;-0.0027026471;-0.31903613;0.035935156;-0.3876724;0.23202527;0.036192905;0.1353735;0.020234989;0.16099481;-0.054479167;-0.043821357;-0.036447097;0.15694472;0.15134801;-0.11345836;-0.17554079;-0.04188211;0.1857644;0.043593254;0.09773648;-0.2773242;0.21755385;-0.32498464;0.260528;0.21855861;-0.0075762975;0.22117907;-0.20133488;-0.07545816;0.0655978;0.081202574;0.013832945;0.07494211;-0.20512985;0.024568629;0.14778197;0.29190558;-0.062795155;-0.022629894;-0.13888809;0.15672699;-0.25061813;0.12677483;-0.18340987;-0.33714774;-0.32330897;-0.2248922;-0.5364471;0.04343917;-0.09459164;-0.25293893;0.13580015;0.063049376;-0.01984668;-0.055963114;-0.30370343;-0.22186746;-0.35258874;0.007705467;0.6191142;-0.04042935;0.28087723;0.23746935;-0.1976884;-0.09350548;-0.14351286;-0.013172038;0.00087329326;-0.09638922;-0.3730052;0.41704202;0.036801655;0.2000818;-0.021697141;0.0012438267;0.0015944223;-0.28945386;0.1535458;-0.11179038;-0.029420232;-0.10731455;-0.2598209;-0.04765027;-0.2931011;-0.110488474;0.46512154;-0.14034785;-0.062396627;0.05717716;-0.32039633;0.14203455;0.106154956;-0.0019886803;-0.0269928;0.13935335;0.029315798;0.09480303;-0.06310034;0.048927907;-0.15418649;-0.15738623;-0.25016075;-0.07384526;0.04400543;-0.3467049;0.081950024;0.17249964;0.14126924;-0.3480623;0.35232997;0.15488705;-0.37668878;0.08313473;0.06663991;0.021615658;-0.057129107;0.011460395;-0.14496522;-0.055569563;-0.0038906618;0.16428798;-0.11031546;0.14346363;0.15797655;0.01979629;-0.030608356;0.33587256
0.10882499;0.15274331;-0.11250765;0.22242188;-0.05302494;-0.042216316;-0.14984141;0.13051993;0.019038243;-0.23067519;-0.07907883;-0.14482121;-0.17493333;-0.01504937;-0.35842803;0.10314347;0.41538075;-0.10052168;0.020776358;-0.23107192;-0.09847511;0.18198258;0.05538935;0.21779011;-0.16239826;-0.009972967;0.05756413;-0.18333144;0.19688298;-0.12374811;-0.0463954;-0.15527497;0.014167913;-0.4311046;0.12440624;0.34098002;0.12497186;0.09098308;0.08711599;0.076036744;-0.14138162;-0.21457054;0.16064611;-0.11451207;0.15006286;0.11133506;0.11530562;0.09835282;0.10792371;-0.21851543;0.12982346;0.011703824;-0.74016917;-0.52375823;0.060862366;0.23104131;0.010858224;0.09273014;-0.02366877;-0.12229847;0.24421012;-0.1966999;0.1617079;0.45366356;0.30571562;-0.07214167;-0.13598537;0.33848327;0.04132848;0.04054745;-0.27422386;0.36002606;0.060355354;0.12860344;-0.036373194;0.36327597;-0.29790124;-0.12249338;-0.07079328;0.03766672;-0.02303151;-0.100799225;0.06506906;-0.007645126;-0.074948266;0.2128662;0.32294178;-0.12974289;0.089356676;0.22394487;-0.06596435;0.23644583;0.11106415;0.09341679;-0.25176415;0.15335129;-0.1134733;-0.15411353;-0.4472963;-0.06896342;0.19886477;-0.11972318;-0.14657871;0.0065966137;-0.05371792;0.022462236;-0.049666047;0.0014085177;-0.2319266;0.20450743;-0.0024742258;0.1971057;0.3106669;-0.12417932;-0.023901679;0.08368862;-0.07496022;0.14709757;-0.27940974;0.117850274;0.19790559;0.09267948;-0.0049419114;0.07597753;-0.11096008;-0.044147234;-0.054705583;0.122878924;0.16535914;-0.030917317;0.046510104;0.12398093;-0.21692254;-0.10277549;-0.16645648;-0.24300447;0.011320928;0.0777591;0.20426618;0.33317727;-0.56917566;0.29538277;0.09713912;0.062248908;0.28853658;-0.01073086;0.10853422;-0.080066025;-0.02607933;-0.07083503;-0.019712225;0.037971996;-0.025585318;0.04842504;-0.079857126;0.40472806;-0.5603015;-0.059374597;0.092057556;-0.07057119;-0.07935659;0.15322241;0.33502477;0.05149898;0.065371804;0.12977377;0.23394945;-0.28519282;-0.16791281;0.15627539;0.34757817;-0.120921075;-0.13098413;-0.22282283;0.22142376;-0.017367406;0.21144521;0.0810908;0.14619294;-0.49176022;0.33335528;0.13614535;0.3280407;-0.09632199;-0.16404809;-0.07916726;-0.003625516;-0.023843432;0.05912167;-0.100295626;0.10176216;0.12987359;-0.04947177;-0.83222806;-0.15748191;0.18626094;-0.059614822;-0.13153295;0.250083;-0.13992688;-0.18165512;0.025504543;0.046290554;-0.039512623;0.08873688;0.013179019;0.13812764;-0.36933637;-0.04515236;0.1734561;-0.053744838;0.018760132;0.060942695;-0.009807023;-0.024673615;-0.4908469;-0.07113675;-0.06755014;-0.086276695;0.04927359;-0.31655943;0.31825304;0.15693605;-0.049638283;0.0019017758;-0.07972218;0.09254128;-0.13555604;-0.20901538;-0.14016147;0.08952922;-0.031159313;-0.013089386;0.05965615;-0.76150465;0.29587734;-0.23905191;0.02574139;0.025865536;-0.20644914;-0.012459549;-0.22016507;-0.070303366;0.10307795;-0.14128543;-0.14659716;-0.14076145;0.11313002;-0.055329345;-0.48258746;0.37929377;-0.08496249;-0.00019356611;0.05746678;-0.10730994;0.4959964;0.07458741;-0.15392031;-0.07459658;-0.17247121;-0.26310268;-0.013471932;-0.08006273;0.12806943;0.22207145;0.04275706;0.27416617;0.054024667;-0.026176965;-0.27021512;-0.2507947;-0.6913751;-0.012229625;0.08959161;0.40952164;0.3177027;-0.019614987;-0.34662288;-0.13782275;0.17472169;-0.042234793;0.0028624525;-0.25205988;-0.16540568;0.087217;0.08400433;0.15934911;-0.11279597;0.36939716;-0.036504187;0.03640327;-0.093023665;-0.16267602;-0.00964651;0.04705474;0.29497185;-0.19554223;-0.074189454;-0.07907632;0.06395523;0.0677349;0.14924231;0.26605326;-0.19912834;-0.44111466;0.039778993;-0.22708409;-0.019102026;-0.23259546;0.055753015;-0.25059134;-0.16797207;0.12300188;0.0029792644;-0.1552634;0.09962494;0.04195553;0.13116749;0.17976613;-0.15704858;-0.3373793;0.21128257;-0.21442497;-0.058943853;-0.40123335;-0.01267076;0.0035198403;0.14368938;0.08964493;-0.021567997;-0.085200325;0.041484956;-0.002969913;-0.4520061;-0.23593538;-0.0111850975;-0.069055885;-0.18321493;0.11873414;-0.25022072;0.016771577;-0.117775775;-0.18285342;0.2626953;-0.23939958;0.10389056;-0.30351016;0.2093702;0.31617707;-0.28786102;-0.15712242;0.1039701;-0.005982749;-0.07260761;-0.027789427;0.17369947;0.10760635;-0.0021382659;-0.05888989;-0.073000275;0.11550896;-0.095925234;-0.2565918;0.14894468;0.13230148;-0.021732166;-0.15108249;0.06407421;-0.32099763;-0.001734325;-0.23021635;0.245144;-0.01996889;0.085609704;-0.04069721;-0.2316553;-0.423128;-0.02111708;-0.11339403;0.161413;-0.16429257;0.04218083;0.22430938;-0.11693118;-0.23581956;0.060996264;-0.14894228;-0.09385374;0.15275747;-0.34617212;0.25567806;0.20412315;-0.21499474;0.23588996;0.10541103;-0.35320738;-0.100594364;0.049230754;-0.040692467;0.0825182;0.054176763;0.15200081;-0.04381081;0.16202205;-0.19804658;-0.023039976;-0.13728304;0.13177948;-0.10281823;-0.24536724;-0.08672515;0.04797718;0.23585056;-0.069040865;0.08838214;0.17059493;0.23225269;0.07106287;0.07303327;0.03534163;0.23121835;-0.36782658;0.093454756;-0.0018300695;-0.2456304;-0.07375364;-0.18833101;-0.12518968;-0.42813444;0.09655152;0.13264653;0.23216839;0.116963044;-0.09241449;0.06384465;0.18381314;-0.061159458;0.055873394;-0.063243546;-0.33619168;-0.36649987;-0.29335454;0.08454989;-0.18813466;-0.07683869;0.008723586;0.086614095;-0.09830271;-0.13200898;-0.13383447;-0.14528444;-0.015311544;-0.37122843;0.26901942;0.05093673;-0.06320885;0.043299377;0.12411677;-0.05894606;0.023697006;-0.2085746;-0.0894824;-0.14360836;-0.16088763;-0.27586406;0.011901845;0.17138931;-0.038424723;0.15703581;-0.2152045;0.11566032;-0.10775483;0.0036536565;0.08484244;-0.13590801;0.2882522;0.16431318;0.0057160025;-0.069601946;0.07851381;-0.035487406;0.13518898;-0.28573275;0.24419466;0.1652849;-0.0074801217;-0.031773668;0.051008947;-0.15752168;0.03450097;-0.2858835;0.11332671;-0.11433343;-0.08071584;-0.108010635;-0.5456956;-0.025049172;-0.036501702;-0.026432503;0.01828876;-0.17399937;0.04366289;-0.10138063;0.098350026;-0.3974082;0.22876392;-0.12062806;-0.18629932;0.4183183;-0.047562458;0.11869615;0.2830735;0.044612087;0.0026148544;-0.18360248;-0.018205171;0.12901331;-0.02718011;-0.12450062;0.24243878;-0.07067542;0.15956245;-0.031565856;-0.113331124;-0.060057033;-0.36106133;0.16946226;-0.16068883;0.14551622;0.13226104;-0.4766751;0.12931024;-0.41887102;-0.13686737;0.27589676;-0.2442194;-0.17434591;0.28610912;-0.103227004;0.21179919;0.20620304;0.035959303;-0.28112894;-0.022939855;0.048197836;0.023015643;-0.17311591;0.27175754;-0.12288091;-0.17359288;-0.36088824;-0.16593364;-0.11466898;-0.37891096;0.25809547;0.16941123;0.12527718;-0.12598377;0.30636147;0.09306511;-0.5599642;0.009386064;-0.17278393;0.11205469;-0.119085155;-0.13648544;-0.29388443;-0.20498063;0.045842778;0.3083328;-0.11857314;0.19345479;0.024074387;0.074732885;-0.054697488;0.35406426
0.34176773;0.34791198;-0.082489915;0.13560073;-0.21633682;0.010939041;-0.22601035;0.06893601;0.08206015;-0.11220728;-0.1900174;-0.2804376;-0.15149249;0.03197613;-0.27151033;-0.034512587;0.37795213;-0.022336505;-0.25445423;-0.25134438;-0.18276836;0.17723592;-0.07791585;0.11039398;-0.08480615;-0.16721053;-0.11773606;0.06317893;0.20977446;0.014696023;-0.13253339;-0.047246158;-0.031338673;-0.34556887;-0.05997151;0.20281954;-0.12400613;0.17373812;0.08331356;-0.08189663;-0.13175122;0.043204192;-0.016499313;0.042858027;0.058532994;0.047121078;0.016146481;0.013355506;-0.1346116;-0.28607574;-0.03887802;0.01980822;-0.7266014;-0.60971797;-0.11689399;0.25588992;-0.19239162;0.09647127;-0.01893745;-0.16321729;0.1942855;-0.14217564;0.1242874;0.5232593;0.10271858;0.0011886692;-0.008153965;0.2576813;-0.035876665;-0.19521707;-0.1846598;0.24938615;0.14632705;0.10091284;-0.0098256385;0.30782214;-0.28011706;-0.36478963;-0.049103677;0.20932259;-0.019802777;-0.024242785;0.18166927;0.10318246;0.027763462;0.4269189;0.40579474;0.29301473;-0.014818704;0.218304;-0.16526993;0.09703437;-0.02295561;-0.01901822;-0.22159413;0.07671899;-0.08560926;0.13818985;-0.22689016;-0.046930157;0.076477334;-0.13912782;-0.21134733;-0.45758548;0.14538598;0.07061787;0.10138242;-0.13818945;-0.21205658;0.114991896;0.026122129;0.008647763;0.5414239;-0.16414884;0.20902434;-0.113028765;0.015442336;0.31668615;-0.23698702;-0.16532454;0.3801584;0.3332921;-0.092353635;-0.045360405;0.17110577;-0.014889383;0.063480444;-0.027014138;-0.10215881;0.1801808;0.25548735;0.14305921;-0.27961594;-0.03368041;-0.24354663;0.017653976;-0.021959212;0.027998019;0.012747638;0.20437224;-0.48545474;0.3548386;0.026461983;0.31692064;0.45691174;0.18347673;0.33922425;-0.099461906;-0.16975039;-0.1600363;0.21208797;0.046021312;0.238915;0.2905146;0.2677598;0.3660317;-0.41560963;-0.27644694;0.14662021;-0.16684471;0.12810247;0.22771233;0.09716397;-0.03610638;-0.05015535;0.1888787;0.14876722;-0.07616754;-0.30387783;0.002333609;0.2633418;-0.032634225;-0.334753;-0.2841768;0.03402086;0.034559853;0.29488525;0.10195729;-0.098638654;-0.37078854;0.18473414;0.08160876;0.22720277;0.15882035;-0.14388452;-0.20212759;0.035585433;0.03231103;0.013163404;-0.027646927;-0.14770578;0.4706604;0.13148987;-0.2315956;-0.16179788;-0.5473507;0.14113577;-0.09057587;0.26420724;-0.2175235;-0.27989584;-0.07919333;0.052756377;-0.023713782;0.12100235;0.11525603;0.32392478;-0.3666469;0.009805902;0.3450641;-0.21747409;0.107551046;0.17903732;0.14102972;0.075111076;-0.2336718;0.21174952;-0.22763357;0.10000224;-0.08969506;-0.3426043;0.33667353;0.122834556;0.08354631;-0.06449184;0.16415486;0.13823575;-0.13474055;-0.29233152;-0.1088109;0.115633465;-0.15164717;0.06794718;-0.11236664;-0.569659;0.4592351;-0.36133435;-0.21653815;0.0016205217;-0.0798945;-0.11040594;-0.28454566;0.04967186;0.17002635;-0.29196796;0.083764784;-0.16126403;-0.089694805;-0.14556813;-0.003593003;0.48178053;-0.064743705;0.17055854;-0.038701367;-0.14636497;0.48263878;-0.0022420797;0.0058487705;-0.10517412;-0.102476664;-0.11665683;0.17706011;-0.32093817;0.0023971852;0.1851138;-0.005199671;0.34461012;0.13569185;0.15954071;-0.25300074;-0.039981585;-0.43667775;-0.11565036;0.06199367;0.5448436;0.27436513;0.16302104;-0.61136115;-0.3598554;0.14897613;-0.34290826;-0.01098084;-0.087486684;-0.12779662;0.28011236;-0.03207288;0.16602856;-0.30425826;0.17419396;-0.045527276;0.13224016;-0.21471281;0.036878;0.10270117;0.13574918;0.26722622;0.20681864;-0.15366101;-0.09129042;0.20888095;0.110766575;0.19811107;0.35620463;-0.37950194;-0.32209283;0.050900366;-0.18984681;0.077691205;-0.15869439;0.34263062;-0.03202881;-0.030381877;0.1431692;0.030446539;-0.24070224;0.23092003;0.20992096;0.070401885;-0.04181741;-0.30776912;-0.35436255;0.12316434;-0.00030064475;0.02558018;-0.38548887;0.610587;-0.017558994;-0.08942471;-0.04120625;-0.018945765;0.31521434;0.017521042;0.24439658;-0.47915334;-0.26453394;0.04174371;-0.09499691;-0.08175372;0.25239706;-0.31918097;0.2370023;-0.21624276;-0.2719212;0.4137166;-0.24087352;0.011262828;-0.2352349;-0.053801794;0.4025158;0.09551981;-0.09608032;0.21052353;-0.311402;-0.0866011;-0.14176242;0.2818278;0.10057644;-0.14836694;-0.012490157;-0.07648871;0.18838006;0.1646495;-0.10797567;-0.036341757;0.32654276;-0.06697206;-0.04146038;-0.21947926;-0.6599375;-0.08369373;-0.22758344;0.45257324;0.29537138;-0.13689053;-0.33650056;-0.15327403;-0.4904703;-0.2124401;-0.502057;0.20970267;-0.12588648;-0.05279518;-0.07347099;-0.113319345;0.13431461;0.07971974;-0.004124699;-0.08991058;0.091516085;-0.060940523;0.45148093;-0.082843654;-0.119591095;0.21597679;0.25830594;-0.32976896;-0.066902734;0.024029238;-0.018597098;0.08260018;-0.45613635;0.14312401;-0.06053096;0.12995674;-0.0531087;-0.13798265;-0.16107972;0.10425537;-0.07254849;-0.3166977;-0.14642246;0.03518705;0.4767991;-0.2475979;-0.2568236;0.28117412;0.26494718;0.06831172;-0.11807178;-0.14755511;0.2233453;-0.40123394;0.33201644;0.03541658;-0.25608075;-0.17580196;0.019873947;-0.03233842;0.23937687;0.19941737;0.19824338;0.096886575;-0.17247109;-0.06558413;-0.23851508;0.08187629;0.022327635;0.3278441;-0.026950365;-0.2734822;-0.5327337;-0.091385044;0.0013462907;-0.09357187;-0.04819173;-0.034252994;0.12581603;-0.080164135;-0.14719877;0.1934415;-0.0889116;-0.079793364;-0.368673;0.21163319;0.14655423;0.006289024;0.10048186;0.068074524;-0.42230296;0.10078797;-0.30844977;-0.14892708;-0.11284322;0.040688317;-0.25568593;0.07764237;0.28734913;-0.12840335;-0.014087277;-0.06432719;0.12906976;-0.07819322;0.25915515;0.23460467;-0.045103263;-0.10388747;0.3037121;-0.0073939865;0.012442888;0.086211346;-0.18815956;0.050688226;-0.16426836;0.3149362;-0.12237946;-0.027348882;0.027538376;0.11871834;-0.14324005;-0.13679719;-0.28075004;-0.037143547;-0.2348481;-0.09480453;-0.08316364;-0.34879023;-0.17140843;-0.017117681;-0.04193635;-0.044576146;-0.20189485;-0.09577299;-0.10687698;-0.22593251;-0.34207073;0.043538317;-0.2732649;-0.046392962;0.19904667;-0.15263855;-0.27118024;0.33730432;-0.057410236;-0.019033777;-0.14015034;-0.07447548;0.22278593;-0.08008987;0.060813628;0.21774217;0.040054776;0.19686545;0.11778971;0.3140517;0.075836815;-0.22460721;0.18506056;-0.2296114;0.1886992;0.13959332;-0.3193692;-0.17082065;-0.47953242;-0.10162583;-0.024152791;-0.14166076;-0.25209367;0.17203374;-0.20462582;0.33084938;0.04642885;0.19612876;0.036052026;0.0063526514;0.16611485;0.16216725;-0.08870641;0.38396928;0.012536315;-0.032781545;-0.23904796;-0.31698784;-0.2811063;-0.27022016;0.2330711;0.33331817;-0.17721987;-0.35068753;0.37469742;0.21045339;-0.31465158;0.25685456;-0.33799788;-0.050462786;-0.07936669;-0.13484599;-0.098884195;-0.32463062;0.09136935;0.016831568;-0.39762253;0.3684798;0.16450489;-0.13184156;0.018787226;0.299859
-0.6999857;-0.80685204;0.42099574;-0.81266135;1.7201648;0.8824853;1.56194;2.509134;-0.17227535;1.1811152;3.123352;-1.0574837;0.9826037;1.671707;-0.10930004;0.73340756;1.1826165;-0.024034645;1.5765476;-1.3950123;-1.9542342;-1.7088155;-0.16774157;-2.7977362;-0.07661598;-0.03591576;-0.39535248;0.39912432;-2.2695668;-1.7250159;-2.0345438;-0.30148554;0.069626674;0.7746451;0.1343512;0.31472394;0.5598572;0.03291862;-0.17030962;5.0442824;-0.3075599;-1.7323878;-0.8698791;0.8795762;-1.5417;-1.9895483;-1.4153486;0.772299;3.3425148;2.4029732;0.7166959;-0.61847;-1.1728655;0.37402165;2.8870237;0.18952262;1.1775067;-2.3600402;1.4021738;0.4022142;-0.13777293;1.3050193;1.1135964;-1.9413991;2.1541407;-0.2783658;-0.8622765;-3.2537851;-0.224745;-1.6114749;-3.575529;2.242591;1.6356579;1.8969306;1.059151;-0.3662507;-0.88301307;2.1803236;-0.96951056;-0.8340211;-2.4407296;-1.8967291;-1.2160578;-0.5976147;-3.8670967;-0.9699498;1.5295478;-2.4416203;-0.13461491;0.8878564;3.9368649;-1.9014429;-0.18249966;2.0615275;-0.7197534;-0.6151536;-1.933327;2.3795059;-2.1810706;-0.47376215;-0.6615263;0.39051756;-0.4933966;5.8787146;1.0268309;2.3547032;2.166581;1.9117495;-1.7162845;0.8021785;-0.64555097;-0.5257726;0.69216007;-4.14867;-2.3719397;-0.20474608;0.38478088;-1.5707585;1.6312482;0.40546727;-0.5155627;0.008711038;-6.58781;0.09119892;1.6962826;-1.405718;-1.3796402;3.01689;1.9187372;-1.0475498;-0.8090318;1.431886;-1.9101887;-0.4241386;0.30884993;-1.5816457;0.19204612;-0.9662489;-4.3140826;0.76435095;-0.47497198;2.139613;0.5989247;2.058209;1.421386;1.661477;0.88382536;-2.291007;-2.250455;0.19329183;-4.21605;-1.7164478;0.5627963;-3.1881087;2.6470609;1.1305096;-0.17167762;-0.6531612;-2.0899317;0.54727304;0.010260644;-0.12027946;-0.73561156;-0.24409896;0.4342806;1.3247786;-0.9325252;2.1262763;1.939763;-0.39051023;-1.0859522;1.4654667;1.2682769;1.1433243;-2.4441028;-0.04436723;-0.72327083;0.4631781;1.8999276;0.11027746;-0.31855965;0.049720004;0.21139215;-0.7064494;0.9174016;-1.2031788;1.1896727;-0.7308789;1.1091361;2.5155969;0.62086487;-2.2590108;0.049669143;0.8376343;-1.913087;0.27117652;2.9236867;1.7007017;0.9466953;0.37056765;1.3149037;-0.27060232;1.2862571;0.9651841;3.1476312;-0.31756142;2.2144818;3.7573535;-0.011105516;0.49186093;-1.2296537;-0.7862672;1.7099124;-0.41034365;0.2570919;1.1023895;-0.61580753;-0.0048404844;-0.09327264;0.9403284;1.5559324;0.81447595;2.1943011;0.76826453;1.2077099;0.6929228;0.25532982;1.3062636;1.7887989;0.8666766;2.1220036;1.018612;-2.142512;-0.20818391;-1.0621015;0.924696;-2.4438019;0.49259046;1.0482404;1.4231496;-0.87458587;-2.152497;1.2330993;0.34419146;-1.9776144;2.105735;0.82357645;6.184654;1.5428948;0.52140164;0.8228081;2.9683769;0.34930807;0.3082535;0.32657573;0.46683726;0.0867522;-0.35551596;0.20082998;1.3498539;0.13729051;1.1219026;1.1517469;2.0508978;1.4389555;-1.5111144;1.1970825;-1.4224336;2.0089364;0.65602237;-2.5987215;-0.48846182;-1.6097908;2.7856343;-1.6404779;1.5704873;1.3379928;-1.804489;-2.3235347;1.8022918;-0.37056848;0.045625757;-2.7399304;-0.79650444;-3.6844006;2.7239714;1.2013578;-2.3185616;-1.5085809;2.6471176;-1.3982279;-0.5664175;1.3010699;0.9343391;1.3575596;-0.53398097;-2.7995114;-1.5102291;-1.285549;-1.2185404;-1.1054118;-0.3111327;-0.032103937;1.2303821;3.7248623;-0.79473364;1.4872686;0.2897265;1.852834;3.7588367;0.22966702;-2.5485406;0.34884548;-2.3777087;1.2970184;-2.8338068;1.2758808;2.0626357;2.7751954;-0.9675382;1.4747975;0.8320812;-0.41544428;-2.7827787;-2.1601226;-0.9391895;-2.332802;-3.542353;1.151009;-2.9447505;-3.176228;-2.7510834;-2.1501687;2.2238748;2.3977787;-3.1188843;1.1663675;-1.83896;-0.8494148;-0.81738716;0.663705;-1.6242892;1.2266427;1.1291105;-0.5598085;-1.6028693;0.11897338;0.9397435;1.23905;2.2820606;-2.572865;3.0081632;0.5607042;0.5458339;-1.6910032;-1.3146487;0.9557537;-1.3823802;-3.0440822;1.5918531;-0.79627633;-2.9085011;-0.42960855;1.0590025;-0.8490409;0.8826246;-0.108271755;1.5077295;0.09511535;1.1420635;1.61249;0.7367577;-3.5107121;-2.2445283;-0.6193881;-0.3238804;1.2617327;-0.6111803;0.2077327;-0.11250004;0.009239687;-1.7599176;1.6941856;0.049219754;0.52061915;-0.6140625;-0.5534514;-1.0434257;-0.5762953;1.0952028;-1.846739;-1.6220429;0.09440275;-0.25410387;0.54569113;-0.64096355;0.08091069;-1.0586098;-0.63379854;-1.5302153;-0.05504521;0.1386061;0.060468595;-0.34902653;-1.3539919;-1.9906967;-0.32062772;-0.32516414;0.38277167;-1.9723806;0.07345314;0.8135513;-1.2240558;-0.6448899;1.8752232;3.541749;-1.3601532;-2.2827842;0.6939328;-1.1662623;-0.32781526;0.5241501;-0.03960134;-2.4173763;0.30786055;-0.24948244;-3.5549285;1.4639294;0.23149775;-2.0849707;1.5102899;1.7419434;1.0828092;1.4358767;-2.7282803;3.0119338;-1.4567041;2.5145571;-0.5532205;-0.47922793;0.5773585;-1.1895545;2.832231;0.32936147;-0.44304213;-0.45469967;1.4878271;1.2297616;0.94340396;1.5723859;1.2067217;-3.1253357;2.5486138;1.7553599;-1.1045781;0.9395984;-0.93141454;-0.03765601;1.2076643;0.62095404;-1.2570317;-1.2090998;2.724125;0.62760496;-0.6863314;-1.3657346;-0.00996753;-1.2776593;0.61284494;-1.3834337;1.8556278;1.3741686;-0.37829655;0.20328827;-0.62740606;-2.1409762;-0.12894821;2.7306168;1.7455822;-1.2788962;0.039482947;-0.5997803;0.18601404;2.074622;3.3183608;0.7741228;0.4722669;-1.6379782;-0.7617004;2.4801695;0.40124;2.1711903;0.48007795;-1.5235028;1.33902;1.2698117;-1.0048077;0.45125115;-1.3199561;-4.539942;0.6729222;-2.601444;0.5127319;0.64201146;-2.729866;0.7810182;0.7290978;-0.4891616;0.18452288;0.13325506;-2.6868153;0.32262957;-3.9027677;-1.495847;1.9828147;0.47445;-0.54844046;1.1867771;0.21487267;2.511799;2.1484072;-0.46572745;1.1923281;0.16090441;-0.077098235;0.41700065;0.32898834;1.7818425;-0.112645075;-0.46827048;1.4900887;-0.47962487;-2.7834165;-0.41121724;1.3111362;-0.47970778;-3.4076538;-0.38533807;-2.7665148;-0.2978285;1.0297974;3.1407552;0.4324947;1.945582;0.20921089;0.86035573;-0.42826676;2.1960523;-0.41996333;-0.052109357;1.5012937;0.08841404;0.41658753;3.1267738;-1.0024068;0.75282896;1.4894444;-3.9582486;0.048153486;-1.1586959;-0.10940622;-2.5270174;-0.60339093;2.1102674;-0.42811573;-1.6729587;-0.48940295;-1.1182241;0.7777693;-2.5282154;-0.7179539;-0.9022979;1.2830422;-2.3304064;-0.24042068;-1.147411
-0.18995768;-0.67027265;0.73878884;-0.85596573;0.8186559;2.2269483;-1.2683127;2.4073477;-0.61350745;-0.01078844;2.761838;-1.384114;-3.3669436;0.8301733;3.234799;0.7055137;1.1646423;1.7340959;-1.4522735;4.5902185;-0.8978125;1.781036;-0.21758296;0.668102;-0.13113987;-3.2566988;-0.022312228;2.6734853;-2.6360135;0.16016693;0.93825376;-0.44573382;-0.221927;-0.9423841;1.6619183;0.48771593;-1.2625303;-0.23864783;-0.21998705;-2.821507;0.9602688;-0.5702883;-0.9210614;-1.1753724;1.3355135;-0.8753192;1.1391743;1.8957556;-0.35825038;0.8691411;0.043345626;-1.1071608;0.48805472;0.5734284;0.036212992;-1.1096392;-1.14468;2.035969;0.45684174;-0.65059406;-0.60122347;1.9754274;0.38290423;-4.482056;2.0226035;0.0052827867;0.9219787;0.05039879;-0.5411945;-0.9978504;-1.7239193;-0.40638083;1.371494;2.4343624;-1.0181712;-2.579963;-0.15202872;-2.914312;1.0508082;-4.959188;-3.941643;-0.3354599;-1.1465479;-0.14642802;-1.5895727;0.12304697;-0.7517315;-0.083401695;3.5503829;2.713925;0.083853744;-1.6323043;-0.1836587;1.7539912;0.080610186;2.409502;-1.0872735;0.85107654;-1.61886;0.23594353;-1.8543401;1.9169582;3.1400084;-4.5925846;-0.40269786;-2.8513885;1.2509133;0.16228627;2.4178848;-2.1180997;-2.6931658;-0.36566034;0.32362768;-2.6458607;-1.7653439;0.8013167;-0.16635707;-0.41439044;-0.62919426;0.17572673;2.22274;-1.6758615;-4.3328595;-0.021025538;2.4111366;2.0272374;-0.46597263;1.6270279;-0.80036265;0.08816389;-0.7770336;-0.4927246;0.46856797;-0.14009403;0.65039396;-2.4794033;-1.8516273;-0.39910525;0.34792468;0.8800974;0.34334522;0.1322864;0.3354083;0.6069943;0.5103067;-0.26191622;1.4509419;0.99045736;-2.747092;0.97223216;-2.7047198;-0.89299273;0.43579888;-1.2705303;-3.7275336;-0.34480032;1.1780589;-2.8109665;3.6376164;0.98305124;0.60515255;-0.41058233;0.6214689;0.06883935;-0.4175987;-2.475312;0.7782618;0.44099382;0.94161797;-1.5345935;0.4791837;-0.60064745;-4.66148;1.5191103;-3.1744974;0.79375666;0.14013088;1.2183199;-1.1568823;-0.17053181;-0.4919772;1.0099127;0.37395963;0.5759524;-0.2948435;1.0182062;-0.8487842;-2.1893873;1.3623376;0.6074367;-0.07657082;-0.8098272;2.0823014;1.3232278;-1.3338358;-0.105101615;1.5080016;1.6264864;-0.064352915;-1.953302;1.6914767;-0.36989623;2.5311198;-1.0175729;1.4634753;-0.5130501;0.50782245;-2.8950045;1.6079504;-0.052864123;-2.3779016;-2.639655;0.8778063;-2.9986215;-3.1619315;-0.24590765;-0.22497648;1.7255416;2.890565;2.0818408;0.8114963;2.051054;0.1372665;1.4484918;1.2846334;-0.7246233;1.5878747;-2.14661;1.3022509;3.0985978;3.1740215;-0.00028202467;1.4034852;1.7534403;-2.4806216;1.7431637;-2.2751167;0.46345568;0.7830251;1.1288259;0.13712241;-2.6557765;2.347231;-0.9106788;-2.5758948;1.0518324;-1.4907789;-0.17332731;-1.6619383;-0.5601829;-1.7709881;0.032357454;3.4627604;2.7437727;-0.25071144;-0.4571788;-1.1232847;1.9078232;-3.268776;2.7568717;0.53950477;-2.2678075;1.4779459;-2.4667838;-1.7210969;-0.7751079;1.2027224;1.8362871;0.15167342;-0.6721944;0.5307747;0.75411105;-1.0613139;2.6995492;-0.025657129;0.11714739;0.45638156;0.9897467;0.79361665;0.18165408;-0.3075807;-0.15692538;1.1178368;-1.6786506;-0.54987645;1.3898902;0.66486335;-1.518031;-2.975446;2.6850622;0.32742587;-1.7310587;0.7814152;-0.38207978;-1.3581779;0.07333655;0.22307558;-4.335935;0.43108937;0.17066938;-2.0349095;-1.2893659;2.1300583;-0.7841082;0.5116811;-2.2023273;-1.7645984;-1.4680191;1.304391;-0.66607845;-0.6020332;0.8268706;0.057220038;-0.8465911;-0.0038708085;-1.2062117;1.1653057;0.52460104;1.9102297;0.71368617;0.036402117;-2.1854858;0.67403764;1.6615413;-1.0393002;2.4225707;-2.018142;-0.9277359;2.867337;0.49108222;-0.3302646;0.321268;1.1654342;-2.9545505;2.2838168;-1.9473292;-1.2009898;0.5684158;-0.3586771;-0.5612164;3.229324;-1.0493307;-2.0422153;2.6646316;1.6876655;1.47017;0.5864258;-2.0790243;1.1368028;0.77264965;-2.3545141;-0.7076739;-1.5088946;1.3875563;0.31921116;-0.6992174;0.4374566;0.28313792;-0.84658176;2.682948;2.3432927;0.65492725;-0.42889962;0.85775524;-0.42449117;2.0683892;-2.1179264;-0.80942386;1.1637057;-1.330947;-1.063703;-1.7743387;2.9602027;1.2106192;-0.21152802;-1.9071531;-2.112707;1.9851165;-0.55320835;-1.6304511;4.46293;-2.809315;1.529631;-1.2026782;-0.39085752;-4.0763435;0.7812958;0.6088825;1.5362446;1.8690579;-3.139821;-0.71362734;-1.6213745;2.5560992;-2.33225;-0.6605483;-1.4726763;-2.3865836;-3.3858988;0.72742504;0.2510259;1.8535377;1.2074026;1.9487667;-0.59651065;1.3447865;-1.3158717;-0.16214043;0.87722737;-0.6192478;-0.9388572;1.258708;0.7161363;2.2288468;-4.632806;-1.4087498;-3.1899707;2.9167762;-0.15088014;-2.3320262;-1.0747144;0.96634257;2.003034;-2.4813204;2.4544048;-0.4330662;-5.479858;-1.3286418;-1.5706018;-1.2493755;1.4892551;2.418248;-1.9580994;2.124649;-1.5846527;1.0074522;-0.51569706;-2.2017655;-0.7334156;-1.0625708;-0.45638734;2.6100757;2.0488656;1.6562026;-0.65581465;-0.58539003;-0.39191493;0.53311515;3.2180321;0.5162651;0.4902022;-2.731554;2.2890775;-0.82351154;-1.2461194;-1.0794795;1.7517112;-3.433406;-2.1314974;1.1786366;-0.052399486;3.324036;2.0683813;-0.0032546788;-0.87853837;-0.604262;-3.6318521;0.8219431;-0.15948531;-2.826482;-0.38596913;-0.058178652;-2.5677538;-1.1992604;0.22438315;-1.4893523;-0.721668;0.36799562;-0.45543343;-1.0107656;1.3250376;0.83487195;-1.5094132;2.7293632;2.8737767;0.5019017;0.1276214;-1.1743128;-0.036862258;0.6186578;0.11820911;-2.0604205;-1.8060937;-0.7073152;2.7517686;0.2503279;1.3779598;0.42684087;-1.0912738;0.59926915;1.0588386;-0.5394604;0.45237926;2.1965349;0.7207654;1.6449466;0.2127659;0.37438577;0.0060934057;0.16575289;-1.3375825;-1.6374474;-2.7366154;-2.1107578;-2.3485513;0.084461585;0.7139891;0.6905928;0.9735772;-0.7222869;-0.04568499;-1.9005654;0.90913826;2.0424206;-1.4035454;-2.6575348;1.7352241;1.2503645;-1.1466165;-4.278165;-1.6479738;0.938824;-1.9108788;0.015376686;-0.4769382;1.290992;-0.8637841;1.6956031;-0.9475484;2.317944;1.053656;-1.397166;-2.2953258;1.1445475;-0.52761894;0.13821876;1.2475314;-1.4627464;-0.32473412;0.45507878;2.3116288;1.3586031;-0.7617583;2.0336642;-1.5422385;0.11424346;0.9866501;-0.26161152;1.0493255;3.1797204;3.2204213;1.1690191;-0.056738827;0.13434285;0.039785415;2.618776;0.64149445;-0.15769376;-0.16716994;-1.226812;0.7015315;2.0744338;0.9208482;0.049089026;-2.2308004;1.3247408
1.4247062;-0.19746591;0.6270054;1.6221856;2.783121;1.3416723;-1.5951831;-0.63412;-0.4864504;-0.13020754;-0.44230807;0.082085006;-1.0648806;0.58232087;1.2092519;-0.32885444;1.2833283;-1.6912179;-1.2673458;-2.432402;-0.13271478;-1.481574;1.5969661;3.5782602;-0.6433153;-0.10913244;-0.56236774;0.8706154;-1.9666138;-0.276974;-0.6225112;-0.38550422;-0.17845611;-0.33465722;-1.9214994;1.5519441;-0.8281966;0.9667582;1.0091616;0.54485416;-0.8034029;0.6370299;0.563193;-1.6144626;-1.7282453;-0.2872788;-2.398822;1.5814995;0.24906044;0.42827916;-0.29726318;-0.00228521;-2.2666943;-1.5293593;2.4405913;0.1757554;-2.0955014;-2.7450793;-0.088355325;-2.7564604;0.11656977;3.6380172;2.1142776;-5.1561046;1.7698061;0.06029333;-1.7054735;1.0887133;0.9847427;-1.2082969;-0.3240565;0.07800224;1.0247568;0.7687628;2.0242884;2.3093488;1.9089572;0.8925095;-3.0934684;-2.060615;-0.38511312;-1.1234013;1.0003647;0.05290117;1.1001741;0.49649048;0.3305013;-0.7164087;3.9521549;-2.7072923;1.1478099;-1.8944933;-0.79279274;2.5774598;1.9948974;-0.815488;0.7565995;1.2505794;0.9969603;0.54589856;-0.24785668;-0.71940076;0.8268408;0.12396302;1.3254986;-1.7019902;0.63703537;1.3895483;-0.26828268;-0.7672107;-1.688298;-1.5767248;1.512709;2.788065;3.5599158;2.6606016;0.22676875;0.8529443;-1.400768;0.860668;1.2553153;-0.31347308;-5.172224;-0.045383934;0.19683424;-2.3806036;-0.24506776;0.03315515;-0.5999466;1.1145643;-0.12271091;0.5010048;0.49531278;-2.5116901;3.7463067;1.5413488;0.68497044;1.5211484;-0.7355649;-0.96639645;0.61985224;0.8835118;-0.34850922;-1.5819054;0.48299032;-0.0025235752;1.7143309;-2.8707001;-1.9008683;0.20351404;-2.515271;0.658401;-1.5229028;-0.34225306;-4.3183117;-0.97099215;-2.7938454;-1.4943775;2.5754638;0.18261072;-0.67346996;0.6100735;1.7602252;0.53863895;0.13741711;-0.41138813;-0.6777621;-1.6193228;1.0670811;-0.37250233;3.5801036;0.7442868;3.488536;0.4737525;-3.4148066;1.192655;2.914831;0.9894337;2.9066677;0.059030436;-1.7061809;2.9017615;-0.030447934;0.09917333;-1.5731546;-3.498024;-1.1550303;0.95960844;0.80587053;0.3026798;-0.015875729;1.5104798;0.70063514;0.6827399;-2.6084378;-0.05744674;-0.4720766;-1.3241645;3.3793166;0.27177823;0.6721461;0.6244773;-0.21138121;-1.6724794;1.0568963;0.28975555;0.70052445;-0.5307763;-0.51345795;0.582948;-2.1659298;-1.414246;1.3002756;-2.1957567;-0.7305292;-1.3140067;0.84284216;-1.5790362;-3.128537;-0.41879284;1.4378715;1.2793235;1.4771866;0.529126;0.6918101;-0.8811171;0.17129013;0.66109306;1.5249184;-1.0832412;1.2209787;1.6890184;-0.43063027;1.5413423;-2.5577257;0.81955874;0.1034552;0.2003105;-1.4959235;0.117224894;1.2209446;-2.3938332;-0.7674144;0.24182446;-1.5036955;3.0163774;0.6905959;-2.4670556;1.3420815;1.9939188;-0.39994305;-0.61530745;-0.09753213;-1.6891029;-1.2128063;-0.6298942;-0.46622542;-2.0603712;-0.91606945;0.069611005;-2.1463838;1.0952016;-1.106015;-1.8382822;0.74298334;-1.5021179;-1.8865669;-2.253047;-0.0598818;-0.56751704;-1.1861045;1.1812092;0.31983632;1.1540514;-1.030932;0.24727663;-0.65726733;0.7385339;0.3545612;2.8962777;-1.2356576;-1.4697527;-0.17177412;0.9708836;-0.5915025;-1.7622558;-0.509782;1.2547531;-2.870289;0.36458698;-0.7009976;-0.63103205;0.3572249;-0.6138486;-1.5383271;-0.0317683;-1.5482262;-2.7756884;-0.05254947;-0.43957776;-1.2743334;0.37145317;-0.23895925;-3.5597782;-1.4079435;0.16136768;1.8068545;-1.9131088;-1.2697468;-1.3338768;-0.6664347;0.40065947;-1.2366929;-1.1194179;-0.0549787;-2.7461708;1.756981;-1.6195505;-2.0825667;1.0611255;-0.3311552;-0.5026818;1.6088508;0.35172704;0.40627557;-1.3788816;0.109995745;-0.7733709;0.08462074;0.76850706;1.2886431;0.1337162;0.09664825;-0.44568068;-3.0473814;-1.2070714;1.1447551;1.4913301;0.9186754;0.51681685;1.8062241;-0.9109955;-3.0478609;-2.3859437;-2.1435006;-1.213432;-0.37665194;1.2439767;-1.1347952;1.08927;-2.1723528;-0.5277997;-1.3482921;1.3755862;1.2539366;-2.5027466;0.72191197;0.30626416;1.2012486;1.3108424;0.82776797;1.7608044;0.25700277;1.2134148;0.4474504;-1.1316063;-0.66070586;-5.3884645;2.5941632;0.18357585;0.04236063;0.15939116;2.3310766;-1.3907446;0.30097905;-3.2074075;0.40828997;0.6705215;-1.250164;0.55701625;1.7960802;-3.2499866;1.2997192;0.9800948;-0.42044237;-1.6976035;1.4565814;0.50052524;-0.20125033;0.82653964;-4.35028;-0.13688691;-0.937437;1.0581976;-1.1656224;0.42742372;-2.1062033;-0.041893348;-3.859306;-2.0347743;-1.2467034;1.2089493;-0.082084835;-2.264177;0.721154;-1.1778824;-1.369597;1.2293528;0.052438434;0.80960506;-1.6151332;-0.026157212;-3.425465;-0.8970708;2.217317;-0.43082702;0.06698261;0.5632672;-0.48294932;-2.9365869;-1.3163955;-0.37399483;-3.310439;-0.4010977;1.6004252;0.8633256;-4.704334;-0.5492845;-0.45790783;3.143563;0.38595948;1.3321002;-1.4113202;2.042378;0.10714715;-0.8977807;-0.4711472;-3.3293695;-0.9271812;-0.5901047;0.91267335;-0.3033449;0.16412772;1.4693584;-2.1537702;-1.0434482;1.6214269;-1.101815;-0.46242827;-1.9248977;3.4159682;-3.5764985;-0.8199454;-4.0172105;-0.44655004;-0.84315443;1.1611804;-2.239103;4.9194098;-0.36430424;-1.5278944;-0.2677123;2.183906;-1.5433841;-0.7114547;0.7335039;-2.4715512;-1.7532752;3.3513312;-0.90397835;1.2992932;-0.64019966;-4.4397397;-4.7182074;-0.8017328;1.7146453;1.4025488;0.017981993;1.5046418;-0.8309248;1.6655039;-0.48636156;-2.8488872;1.3660321;0.013664536;-1.169408;-1.2365158;1.3185587;3.2786334;2.2324338;-0.9893016;0.41162086;-1.2764615;-0.77859277;-0.0844581;0.94031745;-1.1556875;0.009149439;0.5991319;2.1981294;-1.0793812;2.49158;0.37348297;0.6402541;0.035648186;0.3471359;0.6609593;0.8146129;1.214898;0.5696329;-2.5633764;-0.7672489;-1.5685005;1.1520083;-2.6063561;1.1267846;-1.4197408;-0.22548003;2.8737636;-1.5573459;-0.3381104;1.2785164;3.4817574;1.3416293;0.79597336;-1.5533026;-2.0633166;-0.21335626;-2.004061;-2.3483837;-0.17378508;1.3850145;-0.11758548;1.6434385;-1.3165147;3.1377838;2.8502505;-0.47077054;-2.1416728;0.54970276;0.3934703;1.0330762;0.64164424;2.5746956;-0.11178448;-2.192115;0.7038925;-3.9614518;-0.33555272;-0.61093026;1.0987408;0.75427186;-1.52305;1.5746098;1.0777421;0.5356557;2.276176;2.697049;0.8861366;-0.73198;1.4209628;0.3449657;0.039685063;1.7181269;-0.1841042;-5.0806274;1.4477298;0.7519234;0.067598246;1.4430691;-2.2732975;-1.2659245;1.1150309;-2.2632763;-2.9036841;-1.610737
0.9195991;0.36483243;1.1244318;0.5673762;0.3240314;-0.17472705;-0.8694977;1.421498;0.5898299;0.3300586;1.9868323;2.0815473;1.8496256;-0.9480311;0.36022943;1.4783661;1.6771046;1.5202957;-2.9660985;-3.8693535;-3.0810714;0.1376052;1.9491535;-0.06639154;1.8566008;-2.1267328;0.86550444;-1.8451211;0.3337861;-2.8597016;-0.48418123;0.8920478;-0.22834875;-0.35364136;-1.5223271;-0.7016005;-1.6217119;-0.29614452;-1.3175088;-0.6415467;-0.3064047;-2.2371712;-1.6876553;1.2987231;-2.868988;0.17002405;-1.4482676;-0.62434727;2.1550756;-0.25371817;-2.2313845;1.3754172;2.1084626;-0.100765094;2.8471086;0.14878118;0.10703447;-0.3426524;-0.9619115;-0.2573319;-0.17974812;-0.9785067;-1.5497768;0.0679926;-0.06277708;0.6900569;-2.002088;2.868333;0.42589265;0.46894696;-2.5834289;-0.7589752;-2.4418907;1.5371326;1.8020024;0.5538614;-0.6096556;-1.8245144;0.5373191;0.53537124;1.1714982;0.6984345;0.11379877;-0.005378067;-2.0384238;-0.50259376;0.331743;-1.6525733;1.2849262;-3.1706262;-1.2703663;-0.63672197;-0.31721786;1.9517658;-0.6933297;0.24449866;-0.21254183;-0.4926711;-1.5474414;0.82531494;1.1503228;-2.5917141;-2.7423708;-2.7966864;0.9305533;-1.3438593;0.5323198;1.1221819;-0.95340645;-2.7059503;1.9577997;1.5723088;-1.1667883;-1.6642443;-0.44576815;0.3898852;-0.0773916;-2.4160454;-0.596932;-1.304892;-1.2880802;0.37637556;-4.4441924;0.008632311;0.26025265;4.161927;0.011783685;-1.0005685;-0.24649778;1.1950091;-3.6911647;1.9595019;-0.40387627;-4.88255;-0.45756134;-2.57707;1.4283513;-0.7772815;2.6106908;0.45631546;-2.1944554;-0.40815237;0.16295402;-0.44362944;1.026254;-1.5446862;-0.068513505;1.5439129;0.6422035;1.0955685;-2.4876206;1.8660575;0.2476725;1.4782699;-0.9360491;-1.3841993;1.0157182;-0.5355791;3.051863;0.97461003;-0.70206594;1.9355909;-1.1368306;0.9586017;0.22250912;0.43292686;-2.0937433;0.47505948;-0.93453574;1.26138;2.5230584;1.4197929;-0.2924821;-0.19415823;-1.5749732;-0.76856416;1.8046465;1.7417642;1.030035;-0.378656;1.2527558;0.9509112;-1.3303565;-1.1954726;-0.74353516;-1.3139843;-1.6899381;0.8037748;0.7707073;-1.1170038;-2.1934493;-0.04889534;0.41969535;0.6481146;0.04850667;0.6462993;-0.6352499;0.8419882;-1.193055;1.0355246;0.27882466;-1.7142539;-0.3842476;-0.66279423;-0.04025286;0.77067715;-1.6441969;-3.288043;1.560133;0.14074695;-1.6119769;-1.1445023;1.719755;0.94699544;-0.8728155;-2.1768336;-1.0268129;-0.7272185;-0.35029206;-2.3650935;1.330643;-1.2552282;0.05182638;0.9702223;2.1672692;-1.9793621;2.2889426;3.2436914;1.458295;-1.4588519;-1.3795978;-0.44220713;-0.18560566;0.09391258;0.40857568;-0.02269543;1.1654187;-1.2955889;-1.2642864;1.430657;0.9707987;-1.6661104;-0.030293183;1.3536179;-3.8411672;2.2124724;-1.6138972;1.3826604;1.2641451;1.6775771;1.5566214;1.0178022;-1.6934153;-1.8584155;0.6403643;-0.6183517;1.1261623;0.27908018;-0.9872082;-0.2998941;1.8076824;2.5840123;0.9010011;0.4409769;-0.71984005;0.5791455;1.5944765;2.5625901;1.0824623;-1.5593153;1.5520017;-1.8268256;-0.29560614;2.679886;-2.8898063;-0.5572864;-0.13562159;0.7461943;0.45778313;-0.025899917;1.8947885;-1.924511;1.9268172;-0.08664215;0.9289835;-1.2866149;-0.5850516;-0.77366734;-0.2995993;2.016171;-2.2856698;1.5899163;-0.38887823;-0.1423604;-0.13755883;1.7205234;-2.1427531;-0.99697596;0.47968468;2.4063752;-0.85333866;2.6018586;-0.7243491;0.20508695;-0.99462587;-1.8564005;-2.2578218;0.8073649;0.10066999;0.94346046;-0.5424965;-0.12880942;-0.63183546;0.28962928;-1.206688;0.5850992;0.9063981;0.9131785;-3.3106325;2.801057;-0.03174288;-3.1654563;0.49719486;-1.893757;-2.09483;2.65801;1.9106733;-0.8881261;1.7338144;0.21300031;-0.8626829;-2.4367487;-1.7888073;2.2599287;-4.5890136;-0.8438742;-1.4040096;-2.1212652;1.8994998;2.5538738;-1.6266057;-1.8214335;-0.6362828;-0.16142064;0.8152305;0.24483791;0.09878025;-0.3995275;1.1122609;-1.2159592;-1.4872565;2.5823834;2.3287537;0.4852657;0.014265327;3.2529852;-0.38451442;-1.7153277;-0.26331383;0.8232341;-0.45750344;0.6266148;1.4249953;2.3761668;0.72667646;-1.7532715;0.849854;-0.7651524;-1.3915755;0.86522675;1.6315804;-0.7166366;-2.0399504;0.44209698;1.3723866;0.61167586;2.138218;-0.23376726;-0.98658717;0.78136533;2.1345887;0.65520835;-0.1806023;-1.1099763;-0.48427513;-3.8586965;-0.34895805;-0.020724423;-0.50974655;0.47963357;-0.048704073;1.6635715;-0.2800807;-1.1260906;1.4646894;0.65243536;0.7863429;1.3953506;-0.64230067;0.88703156;-0.74568146;-1.640287;-0.18355645;0.45264742;3.4583254;-2.4547803;-0.56355864;-0.88420486;0.6267477;-2.3487906;-0.17062534;0.073781855;0.7765052;-2.6905417;0.85893893;0.1290079;-1.3475828;4.6604686;0.22767879;-1.6096116;1.50761;0.6517948;2.0167863;0.6844977;1.0196468;-2.650215;-3.529888;1.6114637;1.2260975;-0.49460286;-2.5586908;0.5567137;-4.033529;0.5133094;-0.30816856;-1.3702782;-0.38011813;-0.39334086;-3.1823218;0.34243378;0.32919526;1.3387408;0.38002235;-0.7018372;-0.3778233;-0.035310898;2.7007098;0.36166322;-0.25021937;1.9857677;0.9603036;-1.1605827;-0.5378765;-0.16160299;-0.8388732;3.1675253;-1.004936;-0.69688773;-1.5748996;3.5438323;1.6750422;0.18504417;1.1697284;-2.6886647;-2.0047038;0.85757655;-1.1930784;0.6370236;-0.6768115;2.6504362;0.68205637;-0.51987475;0.19848712;-3.303879;-0.5529045;0.074137725;-0.41342655;-0.14391236;-0.4438941;-3.3902311;0.4721261;-1.3784046;-0.25036386;0.13499063;-1.5243007;-0.6527926;-0.0009321013;0.5760054;-1.9503846;0.9754133;0.64731616;-0.5241322;2.159536;3.3814316;2.252182;-0.17735563;3.3142881;-0.46779504;-1.0894537;0.5511637;-1.4750652;2.3417172;0.91292447;-0.46037287;-1.7078314;2.9005191;-2.322469;0.9555648;-1.2167623;0.77953875;-0.9380218;-1.754866;-4.058854;-2.021717;-1.8945683;1.6478906;0.0016436763;-0.68387645;0.7036041;-2.5933385;2.1927204;1.2271396;-0.46608824;1.9705335;-1.3569556;-1.5691571;-2.5766468;0.72021616;1.4196504;-1.3118078;1.659993;1.4377955;-0.5890863;-0.8252367;1.2088809;0.8968305;1.159793;-1.7754811;-0.6702396;1.4423093;0.5997706;-0.80450076;2.2701757;2.758646;0.9470586;0.33023632;1.5267373;0.79521257;0.080292374;1.3135332;1.8946584;0.36055663;-1.0052828;0.58207124;-0.55604905;1.8079603;1.9320874;1.8159019;0.2043458;1.5681773;0.7203409;3.9216049;-0.496458;-0.52630234;-1.4755021;-0.6567152;0.7706657;0.05039904;-0.15496646;1.0160444;1.6450481;0.108677894;0.26690432;-2.869844;-2.4617543;0.69238937
2.5125282;-2.0952892;-0.2607786;2.2999737;-0.1372261;1.6255182;1.9778528;0.4414814;1.0634514;0.20266142;-0.56020105;2.6741796;1.0818396;-0.9470515;0.5298918;1.3340855;1.454402;1.0915306;0.5165669;0.0944735;-1.9552494;-1.6165216;-1.2419646;0.65153646;0.4392981;-0.33243927;2.8406959;-0.4425709;0.40398863;-0.49822596;-1.090377;-0.8865351;0.19721104;-2.6414301;-1.5492016;-1.7246356;-0.017844975;-1.9716884;-3.0598338;1.5065539;-0.7349414;1.7656068;-0.7977424;-2.753225;-0.69559884;0.11207139;-0.28786907;1.5199206;0.4263146;-0.7934907;-2.3415055;0.12461879;2.100834;2.2081914;-1.0109739;0.016468074;2.135459;-2.7521236;0.18938428;0.15672654;-1.0538875;-2.6613216;2.849815;-3.7895203;0.53951174;-2.0747864;-3.758591;0.99215394;-1.3444694;-0.2192336;-1.1497363;-1.9709567;-1.7779704;0.40536404;1.8067157;-0.34567818;1.1190608;-0.28382;1.0774047;-5.469124;-2.7153628;0.36816686;1.1051452;0.25789592;-5.8908095;4.030287;-2.53603;-1.7228875;0.68641156;-1.3113931;-0.35737786;0.98559165;-0.6017828;0.6521319;-3.839968;0.23239134;0.50593925;0.58807075;1.3946074;0.14211835;-0.9337553;-0.056068547;-0.67456955;-0.21172407;2.217138;0.294847;-0.13912833;-0.20895433;0.29118258;-0.593184;-0.768991;3.8553202;-1.1660448;-2.3989854;2.0570562;2.152591;-0.12668891;0.25435722;0.85435987;2.2474823;-1.994021;-0.056611035;-2.474158;-0.063080184;0.73497605;-0.49727523;-0.7142239;-0.15921324;-0.47376183;0.33258063;-2.0472832;0.9510815;0.96603316;2.5568836;0.20834611;-1.5615902;3.0164294;-1.4880258;1.1176695;-2.1050026;-0.64437145;0.65750676;0.40020934;-0.3965254;-3.3100426;-0.625393;0.7792503;-0.84073955;0.89662945;1.2495266;-2.9753394;1.0824289;-0.5441216;-0.5905309;-0.28935075;0.4741552;1.3064377;-0.10571886;-0.66313535;-1.4322013;-0.13185404;-0.17446248;-1.8476381;-0.6594302;-0.17258768;-0.62520814;0.16028373;2.5881383;0.40898147;0.087371305;-0.41961095;-0.10010627;-0.85542965;-0.5531845;3.2534528;0.9801368;4.6646605;-0.4602095;1.3821927;1.0606986;0.45832178;1.1759955;-0.31160074;-0.6964758;0.72072726;-2.6267083;0.19477758;1.7201985;1.1443859;1.157355;0.90823823;0.6746963;0.103020184;-0.040204313;-1.4600917;1.6212394;-0.984936;-1.5478814;-0.29318166;-0.46809015;-1.9482082;-1.8973448;-0.49478775;-0.5967501;-1.3508381;0.87214553;-1.0444137;0.11034959;0.19539322;1.2576401;-1.8659418;0.652647;1.7925047;-0.92185277;-0.026235847;0.16321379;-1.0304086;-0.71721417;0.8566968;-0.20236024;0.9822695;-0.43739924;0.05336577;0.008878714;-2.0395293;-0.007687124;0.46385613;3.7475731;-0.5672923;-0.1582185;1.4810017;-0.1773464;0.69666284;2.0838718;-2.5264003;-1.5050235;0.04095375;-0.45590344;-1.9317102;1.7467511;1.1048677;-0.00668191;-0.6320216;-1.1942602;-0.82174015;-0.90336174;-0.7879406;1.7159944;-2.618474;2.413488;-0.4621079;0.43754828;-1.2003664;-1.2643563;0.15130778;-0.7651127;-2.9594195;-0.7512449;-1.8667161;-0.97690487;2.209272;0.61631477;-0.8509821;-0.05954468;-0.750079;0.72486115;0.596346;-1.916784;0.46387574;0.5548329;1.4582171;-1.5646014;-0.64688677;-4.192093;-1.3008516;-0.005313613;-0.7639679;1.0000207;0.13948643;0.3043673;-0.35482603;0.50791895;1.3938488;1.9332887;0.14936553;0.5773772;0.25732884;0.8987444;-2.3911724;-2.6355915;-2.939238;-0.31042507;-0.089230776;-1.1189334;-0.6293636;-0.36673898;-3.1235967;0.90628684;1.058339;-0.3284491;-0.904296;3.3195605;-1.7992696;-1.6993711;0.81667596;-3.5460308;-0.6730025;-1.2516302;-1.8074307;-2.321134;-1.7395501;-1.344016;0.11938839;-0.1918196;-0.6750753;-0.70710087;0.107469566;0.315887;-0.103861414;1.6346962;0.082570925;-1.3582416;-0.12921299;-1.9121019;-2.5084589;0.60934615;-2.0103343;0.30624798;-0.2123226;1.043006;0.10843869;0.310884;-2.6015742;1.0082874;2.1345444;-3.5714557;-1.4030187;-1.2893585;0.87653345;2.4856107;0.24819562;-0.06564397;-1.7870165;-1.0564864;2.4169629;-2.3343527;-0.75524545;0.5457825;1.688413;-0.80971646;-2.5793817;-0.75863534;-0.67041606;0.49979252;1.4338192;-2.4752185;-1.7785478;2.7120068;0.017057387;1.3323253;-0.6724588;0.65780246;-0.027578598;0.5365674;1.9957649;0.2794248;1.7505994;1.4605081;0.074570864;0.23368394;-0.33728662;-0.5986326;1.0084875;1.1429198;0.64215857;-1.5183603;-1.0774151;-1.4152873;0.36928254;0.11088956;1.6625204;2.253918;0.3966722;-0.5778092;-0.14903888;-1.2868125;-0.045390353;-1.5795579;1.3361245;-0.53693825;-0.8634598;1.2325882;0.9406242;1.5693858;-0.4105227;0.64018226;-1.1777174;2.6312914;-0.007945949;-0.07478378;-1.6087357;1.4771206;-1.6991659;0.07804998;3.0997386;1.3074547;-0.33666942;-1.4752655;0.46638775;0.030813554;0.62015635;1.946016;-4.013732;-1.8055961;1.1459785;0.25846562;1.4427123;-1.0249352;-0.3951901;-1.470542;1.4053283;-0.6984272;0.33371988;2.2871327;0.17518644;-2.3026571;-3.7275288;1.6227906;0.16525145;-2.6542764;-0.14485773;1.3924707;-4.647567;-0.8400363;0.2798712;-1.8386527;0.54301566;-3.039977;0.9254241;3.2322717;1.7723411;0.13493098;2.2212474;1.2238183;1.3742195;2.1213233;0.2795816;0.38053077;0.47437215;1.3995441;-0.013626598;0.049404267;-1.1647248;-1.2086132;0.7403654;-0.07323844;3.7224104;-1.949721;2.31611;1.4999651;0.41038516;-3.4194171;0.5418127;-4.3107667;2.1547241;0.32884207;-0.37707165;1.1714188;-0.6084289;0.83091813;2.3127162;0.31956103;-1.0425643;-2.4268801;-0.6360709;-2.2203863;2.536488;-0.3674493;2.1089237;-2.8877242;1.0984726;-0.72285956;-2.1695766;-1.3304497;-0.50657964;0.20762438;-0.8256175;-2.979778;0.46655178;2.2637892;0.036092047;-0.2731748;-2.4172566;-3.0346107;0.51654965;1.0244544;-1.2653716;-0.43522546;2.6115537;-0.1370226;-1.2407317;0.14272432;0.6499213;0.11152327;0.74565727;-0.03187339;-2.9618237;-0.0042813835;-0.72057194;1.9624033;-2.6655831;-0.99693704;-1.8570651;-0.12670821;-0.79041;1.5418297;0.699516;1.4945909;1.7986572;-1.7238097;1.3275015;-0.8021593;0.9283652;-1.77555;0.5945868;1.1506933;0.7109388;0.6113428;-0.5551174;0.60314494;0.8113643;-0.21656585;0.15244828;-0.4364866;1.3676665;1.677589;-2.428797;-1.3134472;0.4447757;1.7918313;0.54206264;1.070361;2.3609827;-1.592293;0.22092865;0.99093235;1.0430158;-4.3949127;0.07791866;-0.44577596;1.8054001;1.1971413;-1.6589919;-1.6110069;-0.21824113;2.1049848;-1.1475158;-0.33992597;-0.43618345;-0.769144;1.1249967;0.48321244;-0.4415499;0.6799352;-0.10056589;1.5438646;0.15635963;-0.8047517;-0.9009528;-0.72422224;0.5884636;-1.0295554;0.514889;-1.8687518;2.152495;-0.6576854
-0.74423736;-0.94206184;-0.31335413;-0.5921761;1.2493879;-1.4822016;-0.5362941;0.022897879;2.1310112;-0.1820457;-1.685164;1.7785552;1.1653528;-1.1373919;0.29852486;-0.6605492;0.4359054;0.87648934;1.2562319;1.9171015;-0.18581754;2.3674247;-2.1715388;0.33192366;-0.25964254;1.0354625;-0.51206833;1.3447678;1.6862974;0.015126285;0.39753774;-1.5477078;0.32398254;0.9614031;-0.7604638;-1.1654471;1.9138256;-0.73234737;-0.94807035;-1.8742508;-0.325475;1.9221365;2.1569023;0.08812477;-0.7945872;-0.26976082;-0.76809233;1.4056637;1.4947199;0.2517854;1.0051951;-0.7020446;-2.0631433;2.07559;1.0811683;2.6507916;-0.21375687;-0.24845415;1.5320604;-1.537349;-1.3588315;-3.40388;-1.5708971;0.13557567;1.8752741;-1.2302781;-4.66421;-0.1608734;0.33646214;-0.40789592;-3.0892282;-1.6375504;0.6209159;1.2925138;1.2566912;2.9120393;-3.6981196;-0.47771496;-0.31950858;-3.3547516;0.09733388;3.124276;0.534098;-0.55208546;-2.6229637;1.0219553;-3.372274;0.24385734;-0.9937765;1.0890265;-3.5536222;0.8507739;-0.14682493;0.82671005;-3.5624418;0.141351;1.4935325;1.9649824;1.0905787;0.29796377;-2.2801793;1.379517;1.2977408;-1.2123963;-1.6442347;0.96083903;0.086548485;-0.76040334;-0.5306803;-0.5922934;-2.152374;0.2235124;-1.5640495;1.3048179;2.0787377;-0.66272193;0.04024161;0.3700545;-2.0341945;2.2396493;-0.81630254;-2.2302527;-0.5450314;-0.029410712;-2.3289227;-2.1406758;1.5495985;0.27508533;-1.537891;1.1658716;-1.1427432;0.3351533;0.52068174;-0.93523896;0.8928684;0.36650842;1.0107832;-1.1211973;-1.1585525;-0.9353211;-0.33702198;-0.6258653;1.2840756;1.241437;-0.6532832;-5.085142;-0.41920176;-1.0934359;0.082533784;1.681266;-2.6274626;-0.33515853;-0.013370804;-0.05183892;0.36793396;1.7661682;2.2343621;-1.7930732;-0.32723942;-1.6795452;1.037155;0.3631823;-2.3796487;0.201286;-0.09103491;-0.5986429;-1.5044401;-1.8101635;0.5401573;1.4186263;1.4860708;-1.1197766;-0.013172901;0.7861276;0.17958006;-2.5156846;-0.17586426;0.62399125;2.6208963;2.0127409;-0.06036323;1.9578983;-0.48826277;1.2770842;0.19342965;-1.3774617;2.5987134;1.0382596;1.3129734;0.32856736;0.5172667;3.387344;0.1779594;-0.8796882;1.3605403;-0.8871611;-1.4538777;-1.8971504;1.3629311;-0.93524045;-0.23014383;-0.76395917;1.9837966;-0.21428457;0.28854024;-0.081855185;0.7174535;-1.2963082;-0.47524858;-0.31571755;0.29688665;-0.369837;0.28308412;0.32922515;1.2710515;0.57488954;-1.1656034;2.147855;-2.898186;1.8408703;0.8452303;-0.92443055;0.050995216;1.6884639;-2.7457826;1.8310988;2.370129;-0.68075395;-1.0765253;1.9387355;0.5792933;0.3636518;0.36756387;1.1399266;0.1503521;-0.43973938;1.9990032;0.8292066;-0.4227635;0.43854758;0.049911708;-2.4321935;2.7883697;-0.5630276;-0.031089224;-2.022091;-1.4169124;1.5074829;2.7652924;-0.15493259;-0.131197;-2.1033065;1.0143162;0.4554378;2.4558744;-0.009273449;-0.40127802;2.0182202;-0.5085949;1.2539588;0.7407224;1.4393482;1.079776;-0.108601525;0.2223288;-0.8425293;-0.08245113;1.1841239;1.1187214;1.4465737;2.1210725;-1.8936939;-0.3889174;-3.8345797;1.0320154;-2.5623534;0.9877942;0.17462626;-2.0395327;-0.6983944;1.9522756;-1.6343576;-0.24680626;-0.43512645;-0.31074518;2.6293151;1.9652907;-0.47303084;-2.579422;-0.0887477;-0.6740667;-2.6226354;1.3174965;-1.0503656;-0.6374954;-1.6259322;-1.9433142;-1.9575176;0.09855387;1.342678;-0.6944504;0.6172228;-0.09768564;-0.008853794;-4.009964;0.24482723;0.9381042;-0.7282064;1.0548394;-3.4269023;1.5524129;2.5581844;-1.9160503;-0.3043241;-2.1676443;-1.4723845;0.46621612;-3.4361155;2.6784534;2.282918;0.81027395;-0.6383305;0.9514823;-2.2760265;-0.5446341;-1.7424796;0.28594923;1.088853;-1.7008334;2.8702562;0.13606694;2.642621;-0.6574785;-1.110418;1.2960271;-1.9254199;-2.3740928;2.4511063;1.3976;2.2552586;1.2128582;0.020201715;-1.0012112;-1.5070455;-0.6338096;-2.2506115;-1.056308;-2.1514618;0.35572755;0.47277778;-0.10574298;-0.1052819;-0.58295554;-1.6957076;-2.3106337;3.016869;0.07222196;0.70364755;1.1321256;-0.30581176;0.7560833;-2.141213;1.0540059;0.593077;-1.7475088;-1.1469262;0.8225442;2.7935424;2.7095451;0.6758202;1.066581;-0.26408303;-1.6655319;-1.5773857;-0.5018539;-3.1203337;2.1725445;1.4232776;4.5483427;0.08007851;0.36726674;0.9415469;-0.98291266;0.90809333;0.55628645;-2.7636645;0.42768353;-0.4938716;0.45435476;0.066788845;-2.0184426;-3.8051288;-2.4835908;1.6809148;0.22408588;-0.4113606;0.7951606;2.2351847;-0.7035162;1.1295134;0.4275812;0.80563366;-0.23150352;1.2837278;-0.13883941;2.267499;-0.4883734;0.90845275;0.18943885;1.9587831;-1.7032365;0.16966593;-4.3031745;1.3601682;0.4134742;-1.1419662;1.1754186;-0.3514434;0.30809075;0.88369536;-2.1759698;0.03243813;-2.8563592;-0.18240456;1.2393134;-0.59083426;0.30953678;2.2484055;2.8539376;-1.0623611;-1.5422063;-1.6855989;1.0079085;-3.9945009;-0.47226557;-1.56892;0.31270728;-1.9400526;-1.04387;1.0602531;1.1885523;-0.4770502;1.3566552;0.9509612;-1.7083884;-1.3282267;-0.5063128;0.15592366;-0.75862336;4.684823;-0.27856234;0.9134287;-0.27421996;2.3689346;-0.36008483;0.7354653;-0.10654719;-2.2510762;-0.5119085;-0.101914085;-0.24311009;-2.9621365;0.6219413;-2.3726075;0.8770424;-0.54646504;-0.7579862;0.24711742;0.39900503;0.071655616;3.3174417;0.65349376;-3.5177398;-2.2128508;-2.0732672;-2.6171606;1.200887;-2.1038058;3.1801233;-0.065585434;-2.4355276;-0.7222238;-2.408294;0.21753693;0.06359141;-1.2628123;0.5097273;-0.6089618;-0.45409665;3.044113;-1.9833403;-1.1832677;-1.011832;-4.075781;-1.6918033;1.5127585;-0.6709589;-0.36090532;0.5966912;-1.0636474;0.9841776;-0.27137262;-0.4119125;0.2136064;2.9434307;-1.0230552;0.7253357;0.123927124;-0.5951284;-2.8368993;-1.2519706;0.14595239;0.7228208;-1.8881781;-1.1321214;0.617619;1.3617868;0.9895375;0.048350055;2.9535983;1.4220891;-0.61862516;-0.50608295;-0.962155;-0.8371338;1.5466735;1.0774417;1.8425251;1.8209908;1.6188449;-0.23095925;-0.46958065;0.26237908;-1.816367;1.12201;-1.1548887;-1.2008206;0.2376429;0.8054221;0.3167339;0.28705448;0.054985262;1.8933452;1.0732789;-1.1291664;0.101255745;1.6047844;-3.7539232;-0.5783895;0.086682834;-1.0938063;-0.98006266;1.4932684;-1.9592038;-2.1029623;-0.6441108;0.2624562;-1.8477371;0.88100934;2.0690174;0.6477241;-1.3380066;0.53144294;-0.63147485;1.0935094;0.5296193;0.06739411;-2.1692955;0.26452816;1.9962823;-1.544115;0.8739653;1.3672798;1.8210543;0.82398486;-1.3248613
1.8008714;-2.0507889;-0.740787;0.55400306;0.7668352;-1.1310804;-0.30487376;-0.77153647;1.019893;-0.751817;-0.46996626;3.9393868;-2.6723802;0.7577407;1.2233967;1.3273251;-0.21986128;0.8138719;-0.50396466;-0.45493874;1.9902108;0.3139916;1.2570884;0.6838941;-1.4390907;-2.7615936;-3.7111504;1.7966825;-0.9927335;-0.33284107;0.07501846;-1.6235441;0.12815097;2.906533;0.8123698;-0.47671816;-0.1450802;-3.2235801;0.78180265;-2.8877776;0.5198187;-1.2476723;-0.8176092;4.106905;-1.9366261;0.2692047;-0.14357801;0.9512283;0.41863364;1.9057018;-0.59591967;-0.6014947;-0.95829;3.6889503;2.1007617;-1.8071967;-3.31794;2.3235462;0.19785364;1.9648583;-4.714208;2.041534;-0.23186958;-1.0310352;2.4643393;-0.43595555;0.1244262;0.88201094;1.7842698;2.6078713;-1.6640332;-0.7306131;-0.017847417;-0.28964812;0.49738398;1.40127;0.7914991;-1.0375357;-0.5803698;-3.4979515;-2.154258;-3.4172308;-0.049987238;-0.4229875;-3.6077242;1.5692998;-0.98114604;0.30266294;-0.50414085;3.5200377;-3.318142;2.6057065;-0.44731086;2.003395;-2.6807253;-0.59754914;2.2553427;0.6703316;-1.7645984;-1.0626261;2.957016;-0.4992911;-1.1789112;-0.3313842;-0.8624461;-0.06315532;-1.842109;-3.3325627;1.5598658;1.5698059;-1.6045166;0.18764478;-0.45812187;1.9156224;1.033121;1.3802311;-0.22603375;-0.54759157;-1.9968283;1.3013239;-2.905237;0.34804216;1.3946533;-0.03724794;-3.4811654;-0.17063448;1.9388222;-0.34888577;-1.3754344;1.8728334;-1.9033726;-0.80510426;-2.0371633;0.058957;1.9365891;-0.72262937;0.17175895;-0.5997911;2.647137;0.21748438;1.1112803;1.6205515;-0.33637685;-0.5779349;-1.4254725;-2.737092;-0.4101575;1.5783849;3.2749743;0.4042213;-5.10731;-1.4645894;-2.4718115;0.14889707;-0.33663452;-2.1155546;0.29978284;0.8361342;-0.32359025;0.49615481;-0.2485227;-1.9598053;-1.7330787;1.9097055;-0.09930132;-2.5229115;-0.97536784;-0.13631035;0.0053070625;2.8434505;4.9537544;-0.22986855;-3.913075;0.8514611;3.4133437;-0.122338325;-2.291046;-0.3507252;-0.2755795;-0.74015737;-0.81464666;3.682918;1.5129039;0.96313936;-3.0391765;0.67708236;-0.059636038;-0.3354824;-1.3132674;0.5383779;-0.4630173;0.08784775;0.52206147;1.8009367;-0.21609356;1.9213805;-0.851682;0.8094572;-2.930436;0.08872904;1.1879877;-0.17382893;-0.34445214;0.6030653;-0.2058368;-1.1506423;-0.50765985;-2.2201195;-0.5080779;1.687597;-1.8191164;0.26467723;-2.312622;1.4596437;2.4627452;-2.1080315;-1.0608684;-1.2625388;-1.0324354;0.153959;-4.0794168;0.10194768;-0.6854591;3.601061;-2.6165695;0.15456761;0.3430375;-0.42657214;0.42140678;0.31109953;0.10499242;1.0827997;1.714528;0.72431594;-2.5889246;-2.1739583;-0.64035594;-0.18838137;0.25214598;-3.0963259;-2.265601;-1.583242;-1.1653864;-0.046979442;1.8742127;0.04493375;-2.794441;-0.88735056;2.0625167;1.9492292;-0.19382302;3.0683043;-0.00571232;0.6149083;-1.0532552;0.42023432;-2.2502055;-3.8230734;-0.87397426;0.07208607;-0.4683831;-0.6408633;-1.2594607;-0.83182496;-1.4493328;-2.7997794;0.35175598;-2.2337763;0.61840403;0.3719211;-3.4619327;-2.8130522;0.58510435;-2.3951235;0.10286378;0.77743435;0.39720124;0.8664291;-0.6103148;-0.99091107;0.74867636;0.090066396;1.6758761;0.89023036;1.1289836;-1.8334918;1.5368899;1.0395861;0.27614906;-4.3905215;1.1460576;-0.02082727;1.2127719;-1.3616374;1.7882665;-1.0678911;-1.0619488;-1.4917443;-1.2570137;-0.016356474;-1.0489616;-0.3703887;0.49763018;-0.18804598;1.1459354;1.3959873;-2.951151;0.21671498;-0.9462007;-2.9891284;0.15977821;-1.3133404;-3.3151317;0.0886719;-1.0691782;-0.8226602;-0.5427088;0.24333781;0.40764657;1.7240196;-0.20405301;-3.6049616;0.5973279;-0.4209877;-2.432165;0.25846842;-2.189162;0.43950334;-2.461256;2.168363;-0.7255383;-0.12889186;-0.13870402;-2.5521588;-0.41134146;-1.466778;-0.11185594;-0.5437589;2.0895417;3.1336598;1.9557134;-1.2271978;-2.7443204;0.58341473;-2.5659862;-0.07215411;-0.26924378;-0.15583985;0.9553958;-1.7448678;-0.060801584;-1.8698581;-1.6321008;-2.6800957;-1.8116239;-0.8112349;-0.36784852;-0.74078935;-0.63182205;-1.7253927;0.65813416;-3.7119877;0.49874854;3.8426108;-1.4078867;-0.25010717;-0.47067317;-0.37823537;-0.23904274;-0.57188994;-0.2935693;0.5267171;4.0085764;-0.6537006;-1.3527544;1.4083998;1.3329285;-0.7334065;4.514676;-2.1893418;-0.9779786;-2.9985762;0.6688464;0.15139672;0.8542351;-0.87068295;1.46457;-0.7789837;-0.2703657;-0.24276567;-1.1923882;0.23592134;1.1234126;0.9720033;2.595286;1.8513165;0.25019303;1.480965;-0.11394051;0.3623701;-0.5880948;-2.662647;1.3781377;0.9119385;-1.2761412;0.8179583;-2.283777;0.9785644;-0.21199167;-0.6863164;-2.4633296;0.19026862;-2.7314322;2.984063;-2.7957127;-0.1482585;-3.1615846;1.9641832;0.60674506;-0.0980068;0.2847826;-1.1264976;0.21205446;1.1648163;-0.07790021;0.1880832;-0.87946105;0.31450325;0.8204568;1.3291134;-0.8931748;-0.12891693;-0.752934;-6.9389973;-3.2681596;0.7012765;-0.11390092;-6.6109853;0.28514463;-2.0463808;0.15650816;0.07176206;0.32868308;-1.0401093;-0.4846575;0.22641052;-1.4040655;-0.27919787;-2.0265281;-0.5200379;0.07688749;-1.4970108;0.34040853;-1.7050116;-0.9120514;0.27658707;-0.95642865;0.051366597;-2.6825686;1.434301;0.60390586;-1.9339719;0.34473148;-2.087857;0.016939944;-2.6149433;-1.9590311;-1.4809375;-0.398038;-0.69965553;2.7061875;1.697929;-2.9624403;3.2673347;1.2615559;-1.12829;2.4664285;0.23223102;1.063051;-0.0366694;-2.0480137;-1.6616824;-2.011367;-0.32969537;1.064636;0.48977014;1.7128456;0.9569012;-0.85293055;-1.384139;-0.48290342;-1.0107298;2.3738773;0.4281817;0.7249651;-0.37526557;0.07617727;-1.4632239;-3.8813066;0.039942905;-0.33595785;-6.124825;-0.87156516;-1.5213675;0.99917746;-1.4340733;1.0754237;5.52968;-2.3083034;0.58589643;-2.5626621;-0.56714785;-2.115882;0.1269509;-0.56348133;-0.087550946;1.4416202;-1.4140121;-0.50348574;-1.217948;0.8187788;-2.1211765;-0.6009634;-1.8296725;1.0441242;0.14472844;1.8725641;0.56470096;-0.44070065;-0.44721386;-1.4962027;-0.2308401;2.8563306;-0.1876868;0.1994391;0.32189223;0.77738744;-0.98844373;-3.4173532;0.044009935;-2.3998778;-0.7452302;-0.006541276;1.9832155;-0.28543922;-1.7815689;-1.309404;-2.1144476;-3.1635716;3.8569436;0.23013109;0.30291748;0.43787298;-0.60560995;1.86493;0.39825416;-2.4429643;0.48585996;2.666486;-1.6681955;-0.8147432;-1.2152538;0.9306985;2.540204;1.996044;-2.9379363;-2.6643257;-1.5384638;-0.74582005;-1.4615526;-1.9246637;-0.89250094;-2.6510344;0.79123366;-0.08798366;0.038445003
-1.3542832;-1.2338893;-0.85366607;1.6910787;0.6562211;-1.7232194;-0.6617087;1.3594294;-0.47511134;-1.4706037;0.41721842;2.5227575;0.86162895;0.35612428;1.828675;1.5208989;3.2667542;0.31552374;1.3937162;-1.815481;4.5786123;-0.5186308;0.034547966;0.07226667;-1.193813;0.57519084;2.6483366;-0.5031052;-1.5168543;-0.25909612;1.5825317;0.13445602;-0.16342136;-1.9137666;-0.6234842;0.12451721;-2.5521069;0.7358745;-0.09438464;-1.7676816;-1.1185905;-1.8511095;-1.1626796;0.34473947;-0.15202796;-0.49187857;1.2488222;2.6707625;0.98163825;1.2506107;-0.2020678;-0.6027819;0.8097963;1.7945625;1.1195705;-3.9334407;-0.8219036;2.7710073;0.18307018;0.28425074;1.027667;2.1576192;2.453232;-1.0553862;1.218891;1.1180358;0.5845939;-1.5266097;1.286931;2.4891868;-2.2252693;-0.44555798;-0.09966335;1.8723996;-0.92443365;1.0667491;-0.72032934;1.0201832;0.07272623;-0.98479444;-1.3027931;-1.2901673;-4.369975;0.42596304;0.36424524;-2.0115685;0.29550412;-0.8685482;0.8570392;0.9699556;0.27103487;0.7632108;-0.32448635;2.042283;-1.3315822;3.2902296;6.0959253;-0.014473024;-0.13796109;0.010743627;1.3337381;2.4867728;1.1556971;-2.586897;0.9028762;4.5187883;-0.98558956;-3.2780871;-0.44548237;-0.8797996;-1.5787609;2.0725832;0.63382953;1.7136514;1.2630409;-0.37129295;-0.12736076;0.10713329;3.7157712;-1.465448;0.7791576;1.289291;0.5468085;-0.02321359;-0.41313738;0.45327237;-1.585476;-0.3343936;-1.2185477;2.560349;-1.5740144;-1.4898481;1.2702482;-1.6988556;0.6170407;1.1280026;0.14327969;1.5061578;-0.78701806;0.82451564;-2.0600336;2.1003137;-1.2560984;-1.044434;0.56102926;-1.9062619;-2.5031674;-0.7830363;0.5467251;0.7436543;-4.1821737;-3.6036506;-1.9680263;0.7102653;1.1597025;2.1056285;1.3329751;-0.119511165;-1.7692186;0.95607084;-1.0440891;-0.13264379;-0.7229722;0.80195624;-0.13637911;0.95846957;-2.3731189;-3.0272467;1.8381686;-0.0921555;4.487613;1.1858747;-0.6643895;0.07822763;-1.276664;-2.8092258;-0.81612825;0.71982515;-0.0077005657;0.33314878;0.45921683;-1.907572;-0.6168117;-2.7951689;-0.12884735;1.1139764;-1.6647029;1.6115167;-2.0082557;1.0748085;-0.8598025;0.22153135;1.0878842;-1.4786844;0.19109192;2.7568395;-0.9691441;1.791367;-1.3988137;-1.1357685;1.6257327;-1.4031612;-1.0136651;0.27503005;0.5974957;-1.3713162;2.0270333;0.983209;2.360575;-2.1486266;-0.16868839;2.7146592;-3.628203;0.020943418;3.059311;-0.084643915;1.4766706;0.14615774;-0.6346152;3.0586627;-1.7934082;0.39940462;-1.6869098;-1.2891247;-1.6789526;-3.441575;-3.692297;0.9089536;-0.9584919;1.7025353;-5.157157;0.008284322;4.303887;0.20750286;-2.8628983;-0.22551131;0.24435928;0.9728463;-3.131116;-1.6363479;1.7106586;0.53804004;-0.739668;-0.84052837;1.4128706;-1.2252946;-3.610221;2.0470257;1.2615582;2.3483608;2.9253728;1.857638;1.2138397;0.85575724;-5.488824;0.30409783;0.30369514;-1.5504432;-0.20392495;0.5019849;-2.0775783;0.050443634;1.4540007;2.5733137;-4.1015925;0.57668734;0.04779309;-0.56795126;0.35209748;-0.26505673;-2.2162924;0.69707525;2.0706024;0.4972222;-0.93126893;2.3428433;-0.13921851;-1.1861411;-0.21951088;0.47646263;2.7472143;-0.7912881;1.2096217;0.12273947;0.7756521;-0.09827911;0.7617321;-0.16832294;-1.5516158;-0.96233946;-1.9644872;-1.0393267;1.0907123;-0.71076053;0.09353819;-1.7303658;0.08520245;-5.055915;-0.160196;1.5352559;0.392063;-0.4685288;2.855089;-2.1203349;0.7625413;-1.4521824;-1.6043606;-0.40900305;-1.7129639;-6.1430383;-1.282444;1.0361866;-1.8001468;-0.14180519;-0.01551924;-2.071051;-0.93355346;-1.1064589;0.43920588;1.1513375;0.17503315;-0.41002285;0.54237574;0.56861955;0.59632665;2.8340933;1.5178511;0.6329486;-0.00209142;-2.8156035;1.6659877;0.4302292;1.0441891;-2.3949296;-1.8175608;-0.20247358;0.66067255;-0.5850601;-0.026758453;-0.37953022;-2.098166;-0.07388262;1.290674;-0.28036222;-2.449453;0.7389763;0.5685846;2.3996441;-1.6209079;1.1942744;0.43635482;2.5927339;-0.40764302;-1.3364357;0.99699914;1.2760315;-0.49009696;-1.1522533;-0.27636814;1.3726743;0.46610788;0.05191706;0.6186568;4.57306;2.5218616;-0.5923095;-0.4088921;0.59912044;0.46112278;-1.3995664;-0.37510303;-1.0631728;-0.93489224;0.9580193;0.07312503;-0.7985311;2.0744503;-5.2507453;-0.3520118;-1.3850769;-0.31140244;-3.7235518;-0.72533184;-0.96924603;0.6900075;-0.6423881;1.5120037;0.8577992;0.2796749;0.13442993;-0.52149165;-3.2372208;3.3751051;-0.67774683;0.89856434;-0.8544572;0.12883951;-0.43736273;-1.9173368;-2.6709104;-1.6427321;-1.1359408;-2.4774387;1.0167525;-2.1718342;-2.543403;-2.0494423;0.21211986;-0.9607901;0.4391437;0.32105714;-0.75614905;1.5281775;1.4672003;1.019461;2.1672661;1.413141;0.77400887;1.338362;-2.3503938;0.17052203;-0.047744833;1.3179657;0.053850032;0.39556107;-0.3875524;-3.2999706;0.5357664;-4.673654;-2.7952902;-2.5066931;-1.0988967;0.9269472;2.7;1.4630644;0.311419;-0.44356674;1.8326298;-0.24984795;-0.4825599;1.2182636;-0.40211752;-2.070253;2.239119;-0.9665214;-0.3881972;-1.1278651;-0.95065874;-2.3880658;-2.032408;0.5630516;-1.52211;1.1485801;-1.8386325;-0.81217194;-1.752015;0.4280238;-0.72345114;5.062567;-0.21479131;-1.0405313;0.20140165;0.5423895;3.8276892;0.14131029;0.20641078;1.5897062;0.9063829;-0.7077672;1.7282596;0.75511277;-1.030582;3.991923;-0.62217885;2.0348444;0.57885426;2.1800804;3.0423844;-3.1543226;-1.786543;-2.609093;1.4616336;-0.12330261;-1.9224998;-1.6397736;0.7562107;-0.23837768;-2.9126215;1.2833724;-0.7269349;-0.262762;-0.89850664;-1.1605275;0.7577803;-0.65728295;-0.011030814;-1.173075;0.05296753;-0.7947274;0.61436826;0.4098365;-2.6426122;-0.94980025;0.7549256;-0.23397644;-0.231026;1.556679;2.0217319;0.2863848;-0.40183458;-2.895657;2.7100003;-1.5043452;0.36938906;-0.6114952;-1.4102451;1.4945489;-1.7500976;0.12574203;0.6583664;0.8592005;-1.0936143;0.76016647;-3.481297;0.37709084;-4.290307;3.5510745;2.4503665;-0.10248646;2.184326;-0.9197373;-2.2749014;0.66660154;-0.6841435;-1.7402798;-0.7610535;-0.5972459;0.4608285;-0.004412068;1.6372972;0.10879532;0.15844744;-2.4851768;-0.8481756;1.3246943;-0.88539964;-1.1922278;1.7552844;-1.1849756;-0.47984365;2.2751682;-2.2735622;0.075783946;0.4078929;0.52383375;1.1735197;-3.0246377;-0.55157566;-0.13804169;-1.9011607;0.9458406;-2.4940712;-2.9888422;-1.0855846;-0.028511235;-3.6057868;-0.60325986;-1.0900855;-3.6527858;-1.1532649;-1.9321481;-0.86523455;-0.9243277;0.42831677;-0.1431857;0.099638306
-1.9863367;0.045126356;0.7693116;1.5968038;-0.3774991;-0.4105032;-1.3922198;-0.1455606;0.3077223;-1.894891;-0.56690496;2.14032;1.9923599;2.4634523;-1.7899089;3.8389664;1.5561584;-0.21719752;2.4945745;-0.27016622;2.632477;0.65614456;-0.9005703;-0.44613788;-2.9897254;3.0310295;-0.7388361;1.2019033;-0.5227151;-0.90871716;0.1821228;1.4251611;-0.17302035;-2.4199946;-0.49804804;0.21473558;-1.4665626;1.535622;-1.7745725;2.9750404;0.4361678;-0.7489314;0.820333;1.0726687;-1.4741136;-2.3719409;-0.08373932;0.93269545;0.686276;2.388299;0.62944704;0.046123464;1.7315582;-1.7228297;-1.3503993;0.05281052;0.33363143;2.1898;-0.60027575;-1.5285348;-0.066462345;-0.073894836;1.0147556;-7.2301664;1.1631204;-1.6543993;-1.3313767;1.1923857;-0.7692094;0.2630149;1.7227638;-0.4084116;0.23030752;0.8421174;2.0796967;-0.37354946;-0.38876578;1.1441966;-1.4402913;-2.9813244;5.856699;-0.39971;1.8641832;0.70209646;-2.879412;-1.1475108;-0.68027943;-0.47276053;1.0834806;0.8917551;-3.8035114;0.3546705;-0.1332151;2.6528652;-0.42182785;0.8009189;1.3436183;-3.5899596;1.3246055;0.49923417;-1.9096955;-0.62058854;-0.26330918;2.8619354;2.136728;-0.7027954;-0.529021;-1.7861496;1.3260719;2.5816777;1.1415871;1.0735252;0.44571695;0.15462998;2.9703987;-0.7028834;0.25490865;-0.35419157;-0.13197564;0.9251908;-1.1478658;1.4129053;-2.0101912;-0.03767107;-0.004945007;-0.63688254;1.5964643;-0.47627786;-1.0646123;2.6652436;-0.09173691;-0.6623986;0.40335348;0.51007086;1.0712327;2.6122553;-0.18630335;0.26581463;3.1839526;-0.8802974;-2.5559115;1.6773669;-1.156508;-1.3807306;0.30619082;-1.2857641;2.3450594;-3.7712812;-0.33319858;2.2140157;-3.1080086;0.097598456;0.30754542;0.9694796;-0.7320321;1.1950603;0.278687;-1.1953999;-0.48411816;0.14598602;0.6650885;1.1537408;-0.8928805;-0.58230436;0.27678072;-0.60563064;-1.2726153;-1.3243074;-2.226143;0.5969987;-0.54539037;-2.083721;0.69625866;1.5251161;0.018885732;-0.11755962;0.42152518;0.6677908;0.4401221;1.4635295;-2.3136134;-2.14993;1.0554549;-2.6277087;1.1967813;0.43152833;-1.435239;0.24743384;-1.6102284;2.0208259;-0.16778773;2.2005417;-1.0288581;0.022682128;-1.5197726;0.23204039;-0.31611907;-0.32044423;0.76655596;-0.25202346;-0.35316238;-1.0692904;0.0019620212;-0.508091;0.80845493;-0.81435335;0.907644;1.1260539;-1.5116261;-1.2405827;-0.59876174;2.4976888;-1.5092777;1.8191745;-0.86139226;-0.3698923;1.6124823;-0.085300446;0.0648314;1.1685486;-1.7437809;3.4923577;1.1404966;-0.45683557;1.299589;0.44814596;0.75569123;-1.5468123;0.7857438;-1.1728349;1.3079404;0.54995143;-0.28568906;-1.8766513;0.46877503;-2.891474;1.0934386;-0.035024893;-0.90778947;0.32628262;1.4822754;-0.5757635;0.65016985;2.3056529;-1.2877796;-0.46105868;-0.1993957;0.74988794;2.4571118;-0.23138429;0.8409684;1.2515068;-0.90413696;-1.348154;-2.007839;0.68177944;1.6575068;-3.2701042;0.55917853;0.63688755;-0.9981642;2.1822462;1.1798272;2.528868;-1.1016189;-3.1310244;0.7418312;1.3976947;1.1755068;-0.31716853;-3.4647496;0.14647497;-0.27355313;-0.31022808;-1.9705778;1.908766;1.7272427;-0.65567636;-0.9671623;0.5544286;1.8496253;-1.9573158;0.44190094;-0.94569784;-0.19036208;1.45496;-1.2151545;-0.57431734;0.9679608;-2.6085196;-1.7706488;-0.09711809;1.023668;-0.50854456;0.074038625;-0.66042316;-1.5071707;-4.7807703;-0.73283345;0.91223884;2.0566676;1.9301453;0.29263654;0.5758407;-3.9769385;2.259873;1.4382229;1.7991109;-0.24514122;-5.1520042;0.93270206;0.5040454;-0.64068055;-1.5309777;-0.30754226;-0.117240965;0.40253067;0.40504158;-0.8402502;0.46560764;-0.3332044;-0.51914966;0.30674475;0.36178723;-0.94009936;-1.5769448;1.0096518;0.44441283;-1.3331125;-3.7245386;-0.39924034;1.1952436;0.16711809;-1.6672496;-1.2316613;0.38769788;-1.8254666;0.053305447;0.5716422;-0.09570208;2.7681231;-0.33334965;-3.0563233;0.7517764;-2.0440917;-1.6974486;-1.5905638;1.2912467;-3.5187225;1.5797284;-2.209406;1.4423467;3.5934544;-2.558882;-0.12076614;3.1858687;-1.818962;-2.3540776;-0.9085092;0.2359898;1.1650218;-4.3328023;-0.54218346;-0.2635778;1.0616249;-0.7937646;-2.2309568;1.9744606;-0.6189423;-1.5232294;1.8905932;1.4124017;-1.0560112;-0.0032948183;-0.11784589;-1.4305047;1.6444283;-2.5085905;-4.2747827;-0.8493805;-1.7335879;-0.25218454;-0.6968605;1.006493;0.8173573;1.359917;1.4007719;1.1592313;0.7823207;0.039693188;-2.0870593;2.6144724;1.1765463;-1.916107;0.9284443;-3.413617;0.21172208;0.69313604;0.95479864;0.36015767;-1.4157182;-0.6999895;-1.5536243;0.572391;-0.04237986;-0.516364;-2.0898223;3.0291412;1.0749276;0.64992857;-1.9712284;0.8984694;0.6924671;-2.6277235;-1.9852337;2.207309;0.9349425;2.3635826;0.5149614;-3.110078;0.71357924;-0.23211439;-2.5947363;-2.210664;2.650586;-0.4238477;-5.327034;-1.3020458;-0.68994045;-0.6716571;1.4428947;-2.708398;-1.2590061;-2.1418324;2.557264;-0.27540562;-0.71926296;3.123216;-0.17677152;0.2472554;1.5131745;-1.220943;-0.37623256;-2.2941928;0.75246686;-0.7381229;0.67087525;-0.9086134;-0.15440054;0.28274763;-0.107602045;0.017657036;-0.773475;-0.065801285;-0.47700238;-0.3636834;3.020032;0.0128922025;-0.7083704;-1.3478171;0.40253595;-1.0808382;0.06502666;-0.14711607;1.3770663;0.2527205;2.8841052;-1.7327178;-1.3957971;1.375533;-0.10054154;-1.980065;-2.3407488;-2.9761915;1.0061421;0.8980538;0.65875536;1.5164568;-0.15995735;0.14119144;1.1719112;-0.13867883;-0.5622124;-0.952467;-0.41217268;1.2706807;1.0509356;-0.18236642;-3.4564648;-0.12850522;-0.79859066;-1.9728698;-2.3499951;4.0013695;0.38133976;-2.0110795;1.1218879;-0.9929595;-0.98934805;2.5306988;-0.7349377;-1.6714815;-0.49512514;-1.3881491;-1.5563558;-1.738813;-0.91257805;0.337403;-0.7483312;0.3543752;-2.5307899;0.73133826;-1.0403965;0.833219;0.8894436;-1.4318671;0.12343063;0.5764109;-3.6646135;-2.269094;2.0219388;-0.9062716;2.5570889;-3.2273386;0.8338647;0.9549672;0.5231227;0.81997204;-0.3686553;-1.2278093;0.97245604;0.24752864;0.2814006;-2.676338;-2.068345;-1.0559511;0.03455267;1.8496861;-0.13162461;0.4185721;-2.48712;0.43369836;-3.4175782;-1.1076173;0.49849275;0.67066365;0.8853569;-2.5782568;-0.86545044;-0.7439386;1.5014299;0.17953326;-1.2990714;-0.2781496;0.44362178;-0.46381995;-1.072656;1.0511724;0.3107623;-1.2899961;-2.5424104;-0.7139071;-0.5142664;-1.9873232;-0.45306242;0.75282913;0.57523584;-2.822938;-2.1150076;-2.4720504;-0.5983193;-1.6472447;-1.4980618;-0.9832902;0.2776356;-1.8122458
-1.0533899;-0.14709939;2.4673672;0.5011632;0.85675496;0.50275296;0.3015638;-0.5141673;0.58658934;0.2666822;-1.1766927;0.70296377;0.81416744;1.7559645;-4.9732885;-0.9681621;0.14175494;1.7832202;-0.3832083;1.1076515;2.2588363;-0.67191535;1.6912309;-0.5131646;0.7013;0.934192;0.5729984;3.6160522;-3.6817913;1.1853331;0.51542145;-1.0349694;-0.0015597485;-2.1421418;-1.4373852;-0.7735756;0.8693564;-0.101182714;0.47946003;0.75676686;-2.9199138;-1.6552482;-0.40575656;1.0958297;-3.5180545;-2.9569192;-1.7434162;2.3604388;-0.33100438;0.8336285;2.9565082;1.9525485;-1.5079304;-0.044406023;2.2147622;0.1363066;0.25178578;3.438555;0.014258489;-0.07722513;-1.9113933;-0.53766215;0.28277838;-1.9924399;-0.6260331;-0.6935525;0.27932867;-1.043468;0.29241544;-0.004151388;-0.52430695;0.75939554;-0.460023;-0.2068158;3.3982155;0.6954828;1.141429;0.24064925;-1.5972539;0.7987072;-1.0809008;-0.78374547;-1.4257162;1.264815;-2.3820505;-3.1576335;-0.7581933;1.3877748;2.526561;0.6970164;-0.83775723;0.9632361;-0.3818976;1.4941335;-1.9210347;0.69115335;-3.0125823;-2.6602964;0.033612836;0.07623259;-0.63066864;-0.71509695;1.2198442;1.5327002;0.23926076;0.362813;0.23439498;2.5265007;2.9843795;-1.2162391;-2.203819;-0.72308767;1.2351012;1.0244539;-0.20241168;0.56674176;-0.4321838;-0.9079459;-1.8586491;1.6292901;1.1329944;-0.26180178;-0.976945;0.1587311;3.4190264;0.8374902;-1.029568;1.4608339;1.0059738;1.51943;0.4367943;0.31908283;0.06134879;-0.22772014;-1.3413786;-3.6203604;-1.1183766;1.3052877;-0.68401456;-1.3439476;-0.12698363;1.3806336;0.6233646;-1.152097;-0.72154164;-4.9532013;1.6285226;0.6985965;-0.92765135;0.91397405;-0.850446;-0.6313791;-1.7494249;-0.025638811;0.09091918;1.5573025;0.6479812;-2.5039322;0.35664082;-0.5985499;0.32180592;1.0171018;0.6500271;-1.1571809;-0.13016966;-0.53475887;-0.30814314;-2.046346;0.0046655973;-0.51528966;-2.136796;1.4275017;-0.27565312;1.3296865;1.1303811;-2.032368;-0.2927082;-0.50341034;-0.5396374;-0.47994512;-0.46758696;-0.64045346;0.2907516;0.03422226;0.20558901;0.22272404;-1.2692792;-0.7499842;0.27714723;0.65816784;0.6320331;2.3058248;1.4085925;-1.0557348;1.4739165;2.041163;-1.2179955;-0.55434066;0.8031381;-1.8465108;1.7286321;0.76457375;-0.5302618;1.4123102;-0.024126654;-1.6404412;0.349331;0.9066737;2.5674205;1.5012186;0.029704822;1.409467;0.47203055;0.3951127;-1.7270817;0.4191711;-0.53950393;0.14117645;-2.363757;-0.1214827;2.0696113;-1.0413584;0.6433413;0.7832628;1.4526055;-3.4961343;-0.57540566;-2.9412782;-1.352077;-0.55248547;0.37452075;-1.308089;-0.4230151;0.9009395;0.7989911;0.18490733;-0.2700748;0.30245194;-2.7763846;0.45513043;0.32273433;-1.6440375;1.0826966;-0.27533105;-0.28579563;-1.1442707;-2.0171967;-0.5771071;-0.24068245;0.1994477;-0.89990187;-1.2152994;0.06877941;-1.5197331;0.24693926;0.15085934;-0.71403205;-2.7450242;-2.2267172;1.3248528;0.34797487;-0.5636752;2.1716375;1.3082142;1.0894328;-2.7497215;0.20241417;1.7523592;0.83285844;-1.6259906;1.9778416;-1.6493818;-4.618268;-1.1307507;1.2657211;1.6990627;0.071941316;-0.86147404;-0.2120344;0.43869472;1.5861613;-1.4372927;-2.6782677;0.039766032;-0.87328446;2.8545797;-1.6100277;0.22849992;0.6944754;-1.6081771;-3.0013309;1.9155707;0.6363029;-2.2853842;-0.4448146;-2.010964;-2.0101025;-4.252397;-1.6860023;0.2999558;-0.070059374;-1.2269399;1.3632015;-0.19950299;0.20194302;0.60296017;0.5750824;0.9296156;-1.3510139;-2.5180886;-0.8700048;2.8368285;-1.212792;-0.013497653;-1.9990128;-1.1358874;1.1334398;-0.48839375;-0.23475546;0.43884498;0.5571603;0.87840575;0.34402838;2.5212004;1.9139581;-0.37371713;1.280656;-1.7252235;1.1811906;-1.0356044;-2.0518174;0.8160512;-0.72569805;-0.5782722;-0.75548863;0.5134336;-0.69447595;0.5589158;-0.33265224;2.918132;-1.1759895;-3.3931837;-3.397984;0.6089048;0.47659826;-2.130563;-1.9951704;0.2702184;0.0018428131;0.46304205;-3.145406;-2.1001935;-1.560256;-0.052978035;-0.5377123;1.4748414;0.698615;0.96515536;-1.0525855;-0.8395463;-0.9887851;-1.6909198;0.1889226;-0.57622206;0.23521419;0.8560057;1.3496209;1.3405331;-2.0034819;-0.3607401;-0.20571971;-0.4853313;0.16349192;-1.9696126;-0.09337058;-0.7531581;0.10488996;1.5846034;0.6147969;-0.6877052;-2.4831328;0.81273735;-6.333409;1.715732;1.419385;0.9221859;0.40979818;2.3416243;-0.4463061;0.9155193;0.27288115;-2.351361;-0.19707437;-0.0028872772;-2.2298052;0.44864532;-1.1264066;-0.8941398;1.7270517;-3.088502;0.56019765;1.7747624;-1.5798285;0.7771417;-0.876736;-0.2985142;-1.2692163;-0.82671165;0.92237926;1.2468512;-1.8717576;1.5064703;-0.34773043;-0.2769046;0.25312206;0.05369847;1.737521;-0.24422687;-0.9903224;0.16499177;-2.7418578;-1.6723073;0.8507356;0.118461445;0.9149217;0.6270104;0.9176098;2.2270098;-1.96843;2.9610176;1.2608016;-0.041900408;0.22127011;-1.7151346;-0.5286131;2.0360987;-0.16716394;-5.601088;1.0471853;2.3896942;-0.21340913;1.5751686;-0.7610421;-0.11837034;1.4871823;-0.6291813;0.69357324;0.58044314;-0.2902263;-2.0390139;1.1535532;3.426537;1.762047;0.7039447;-1.0078036;-2.0964196;-0.14038101;-1.4456801;0.7684118;-0.099687204;0.96819574;-3.5092897;0.07891015;0.4332849;-0.96968895;2.6044307;-0.66350704;-0.8485383;-0.74919844;0.012565872;-0.46915507;-0.114017345;1.94542;-0.6379653;0.34167552;0.14585243;-0.5447079;-0.36626938;0.6945704;-1.7408034;0.48548093;-1.4476396;0.530489;0.7791677;1.3187052;-3.2802732;0.49326757;-0.974306;-1.8622036;0.02458486;-0.1444977;-3.2168558;3.6165082;0.719307;-0.3949009;-1.6420614;-0.61190695;0.7255522;0.4134267;1.4221578;1.0133588;1.4026365;-0.37983176;-3.4536588;0.45931897;-0.5240836;-1.2475964;0.24718483;1.4655372;0.29741874;-2.9464812;1.0854315;0.20231502;0.11170489;-1.2007986;-0.7317141;-0.5385099;-0.63117844;-2.715939;2.1071086;0.029165022;-2.1932247;1.4234844;-3.3210416;0.6025583;-0.674327;3.4667685;-0.3731513;-0.70911515;1.4243915;-3.201001;-1.0016004;0.3198756;0.20033658;0.8333822;0.21520007;-2.665917;4.2471795;-0.5600538;-0.21424149;-0.42339957;0.053022314;-2.2276227;-0.082569584;-1.4461137;-0.80605304;-1.3347838;3.322598;-1.0040222;-2.9703643;0.57153153;-1.9001937;1.3253392;-0.6236404;0.34390536;-0.9013034;1.0852757;-2.9006565;-0.02290239;0.35611296;-1.2638344;-2.0138528;1.2336676;-3.6245472;-1.3012034;-1.4941139;0.3040536;-0.006116117;-1.1795892;1.0869075;-0.89930135;0.20656411;-1.2887359;-0.65736645;0.1923954;-2.1820452
-1.2923211;1.7689788;-0.5890828;-0.47702417;0.87653625;-0.44834408;-1.4910617;-1.7024622;1.1201135;-0.54516923;-2.2953715;-1.4401993;1.4129313;2.8002274;1.9732674;2.2458253;-0.75791603;-0.81440794;1.0516641;-0.82649165;2.0660744;0.82335496;-0.1007133;-0.18689764;0.39062023;1.6565055;0.474676;0.8485752;-2.867475;0.5055595;-0.29260346;-1.9537683;-0.01340122;-0.609674;1.8933817;-0.96748555;-1.0025083;0.14092802;-1.3185127;-2.5777252;-0.97590953;1.659825;1.6063583;-2.8455129;0.03232574;-3.6395476;0.040842358;1.199304;1.3931147;0.6923301;3.768667;-1.1582826;-0.7170188;-2.9575424;-4.8102684;-3.8797035;0.39541647;1.6477618;1.583229;-1.4262792;0.7713662;-0.6289858;0.7755293;-5.4566636;-0.10935981;0.15374887;-0.11441803;0.9563212;0.2368188;0.52068925;-0.5456088;2.616571;1.9743918;-2.7197006;1.3231423;-0.6223632;-0.90076625;-0.41527295;0.7410994;0.13514097;0.355897;2.5914261;1.5287112;0.6800002;-2.6417484;-3.987489;-0.605509;3.0130627;1.5355343;0.43553445;-5.3180323;1.4334096;-0.25229022;2.1577191;0.9422209;1.9373549;0.9385206;-2.6175241;0.39363244;0.2811267;-2.718974;-3.3934517;-1.4345454;-0.68002534;2.3553255;-0.89903015;0.62285835;0.58191216;1.7108094;3.4268272;1.8612406;0.27746037;-0.43231028;-3.1382062;-1.1289458;0.72889566;-0.044282533;-0.23595835;0.6706699;-0.33710155;-0.16906981;1.9914465;-1.852583;-0.013829492;1.8013988;-0.16404317;1.499581;-0.4603122;0.7625976;2.5247805;1.4154422;-1.4858798;2.1599774;-1.5826708;-3.8097186;-1.4453192;-0.9433348;-0.6496164;1.5377561;-0.48400187;-1.0476624;-1.1660033;-3.2461095;-0.7679321;-3.3476272;0.61252624;1.1921657;-1.3692433;-0.998206;-0.2583827;-4.042382;-1.833978;-0.9539918;0.084331945;-1.2663646;1.0163746;-0.26550883;-1.5282311;0.44950384;0.7566377;0.3773038;-1.0139109;-1.1591078;1.4074038;0.15203623;-0.9572611;1.3972533;1.3448853;-1.05185;2.80835;4.5874257;-0.32173312;-0.7648159;-0.082269885;0.049210325;-1.5079567;-0.8703913;-0.43063068;-0.044662047;1.3274813;-0.67017233;0.048415154;-1.6239843;-1.7415915;-0.4775844;0.5106593;-1.8228403;0.82362646;1.2347373;0.9383859;1.5713134;3.0953786;0.17955808;1.2090918;1.0173106;-0.3834098;-2.4248269;-1.4179211;1.5436583;0.3597461;-1.7774669;-0.47067478;2.0853143;-3.5698478;0.4786261;-2.4138427;-3.9977913;-1.5895491;0.75143445;0.53940827;-0.20255817;1.2411528;-0.2583553;0.06263926;-1.2333573;-0.6293196;-1.1407458;-0.3484208;-3.0663204;2.0468702;-0.62593216;-0.66149795;0.5452378;0.7114975;-1.1153455;-3.0494907;0.19658062;0.39622647;-1.3693732;1.2014338;0.21123749;-0.3533394;-0.07487377;0.35259038;-1.4058917;-0.14092405;1.5251577;0.12842453;-0.89702284;0.11559199;2.3825233;-0.546103;0.83225286;0.05409832;-1.101595;-0.48350158;-1.0230792;2.2251554;0.16485766;1.0880976;-0.43945345;-0.11627978;-1.0851573;-1.2091079;-0.4569393;1.0594692;-0.029380271;-1.2755885;-4.42303;-0.78384626;1.5959003;-1.1158752;1.297544;2.6159022;-0.23926441;-2.5430636;0.8145371;1.4859918;1.3379987;0.36953595;0.9687435;0.124645725;3.3288867;-0.11972926;1.8537023;0.83305025;0.79868203;-2.9245374;-0.6069383;1.0622514;1.0877898;0.12879892;0.9196931;-0.23067181;0.20918289;-0.47460967;0.31257463;0.27944022;-1.5621451;-1.0574073;-3.2469528;0.42378998;0.29648936;-1.147622;-0.25779828;-2.3242197;-0.9065901;-6.533762;0.09660213;0.88898474;0.5438741;-4.7683043;-1.7709606;0.3785974;-0.05968313;1.8097179;-0.8886036;-0.8022901;-1.5292587;1.2324585;-0.978792;-0.69337595;-1.9061326;-0.7384491;-0.6881627;-1.1924957;0.5653368;-0.21259826;-1.8353279;-1.1436822;-2.8146145;0.18856893;0.15979427;-1.3831102;-1.3394227;-0.0873329;1.4465159;-1.0052032;-0.14374968;-2.4416811;-1.5054966;2.1316023;-2.743475;-0.42927724;1.3505362;0.71410215;1.00081;1.062724;2.7720256;-0.26737618;-4.2027235;-1.9910656;0.7622659;1.1827788;1.134102;-1.1615695;1.7745882;0.2454366;-1.0819702;2.1857412;-0.14197338;-2.321229;0.923663;-1.6166129;1.7494817;0.7720635;1.9130746;-3.5309901;-1.8987533;-1.9525859;0.959168;-0.2866471;0.09282528;0.17731825;-0.45840392;-0.23470493;0.22160964;3.195471;1.3558214;-0.4737134;2.0903614;-1.1038435;-2.416585;-0.4256401;-0.4747441;-0.49808466;-0.97449285;-1.0918643;0.31468037;-0.81862795;0.38156915;-0.2311157;-8.110733;1.484636;0.9120674;-4.3881063;-0.20367922;0.5520755;-0.19910066;0.7489147;1.3793396;-1.9949176;0.2825107;-1.4486505;2.5892344;1.2606392;1.6439878;0.22882636;-0.81807333;-2.3079143;-0.22846647;-2.9750977;-1.1554742;0.20081648;-1.5002611;-1.6272148;-1.6579914;-1.334398;-1.6098665;0.5120563;1.2644675;1.7406255;-1.2469407;-1.7130636;-0.9718734;-0.6624525;0.7901924;1.1473972;-0.016520116;-2.2693129;0.09355738;1.1207663;-2.6014347;-0.72098583;-0.4175723;0.04880809;1.4721752;2.8268647;-1.2892356;2.4743953;0.9276004;-0.36830518;-1.094719;0.8189055;-1.5362694;-0.5542443;-0.26107395;-0.9141025;0.48820874;0.43869328;3.788503;-0.8512628;-1.6289854;1.4891427;0.32130527;0.32550016;0.00341594;-0.012433861;-2.0180125;-1.4217343;-0.102677144;0.018507382;-2.355981;-0.75647044;0.14782189;0.5041627;3.788882;0.18392438;0.84702754;2.0430584;1.0185131;-1.8123473;0.7586949;-3.1999962;1.611481;2.0416522;1.2553802;3.0357063;2.061645;-0.92958474;0.032267705;-0.72215945;1.1955948;0.54327387;-0.296436;1.8712701;-1.4537724;1.444634;-0.46713468;0.69282025;1.9143869;-0.71535647;1.8091443;-3.4436405;-1.1223888;2.3551028;-0.031911474;-1.649097;1.6383661;-0.18725355;0.5210257;-0.47970113;1.6982424;0.10107408;-0.08999364;-1.3715534;-2.9224637;-2.0350323;-0.21822466;0.47247186;1.9528217;1.1905609;0.93065107;0.27028993;0.8977312;0.8183892;-0.9290423;-0.19101143;-4.4670415;0.021012066;-0.672324;-1.6021963;-0.8693142;-1.9422442;-0.34586206;-0.81220335;2.0694413;-1.993202;-0.39046207;-1.5015252;0.8888964;-0.26615733;2.4024925;-3.8077722;1.7987311;2.0923026;1.8586175;0.8550099;0.7886903;-1.2917923;1.4467618;1.5652971;-1.1173667;0.04044442;-3.3277519;-2.2611563;0.5407868;-1.583207;1.195076;1.2770145;2.1342914;0.8453464;-1.5700575;-0.6239348;-0.05887253;0.3610087;-3.0312052;0.70739925;0.28692964;-1.614716;0.18132006;-1.2847663;0.6202918;-1.1055685;0.9636893;-0.2687266;0.22535639;-1.6373961;1.5878894;-2.469184;0.6213308;1.0779092;3.1829386;-1.9607193;1.4896377;2.3704362;-0.112775885;0.0058723353;0.11008185;-0.8176327;-2.724549;-1.221756;2.0264935;1.1803836;0.10747635;-2.1151633
2.414695;-0.9573163;-0.1713285;2.868766;-1.1943294;-1.2724254;0.109442264;0.15474962;0.39522916;-1.0623201;-0.60362184;1.3838916;1.5880239;1.8198707;0.8113225;-0.19213699;0.5717184;-2.101446;0.6791944;1.1682886;1.9839046;-0.6753411;1.3622652;-1.0346421;-1.1646239;-1.1815654;-2.2979581;-0.82705885;-4.3853655;0.43124798;-1.1258414;-1.5768003;0.37909034;0.1855738;1.5396463;-1.6423919;-1.8210715;-0.51851636;0.23858976;-0.3855688;1.3442942;1.8872544;0.024953162;0.34863517;-1.9179026;0.07273642;-0.04839838;-3.017938;1.4095894;1.1558104;2.5443826;-0.68240374;2.3062751;-0.5391224;-2.168997;-3.2585762;-0.87104964;0.7432676;-0.96463066;-0.69025;-2.0030298;2.5773616;-1.5496714;-2.1406224;-0.567023;-0.45995346;-1.8313737;0.8806161;-0.65726984;0.2852112;0.43358973;3.2297156;1.6930276;-1.1925476;-0.37717822;-3.4662087;-0.9718189;-1.5915427;-0.61827844;-0.3910667;-1.476422;2.7030122;0.08614079;0.8428489;0.06299997;-2.7924879;0.53681093;0.40730584;1.0158275;2.7766414;-1.447912;0.8467661;0.26797807;0.41461167;-3.120902;0.09958275;1.8617859;-0.251276;2.3694687;-0.5700405;1.3850449;1.7347094;-3.6162336;-2.0717988;2.5095074;1.3957925;-1.6714194;1.4120206;1.507665;1.3372796;0.42787248;1.7149591;-0.035444185;-0.71454984;0.21498072;2.0669453;-0.3052348;1.9087018;1.2359763;-1.7649729;-0.8476645;2.131717;0.06372342;-0.088369556;-1.9785887;-2.177115;-0.8496659;-0.45606172;-1.387265;2.331575;3.2801952;0.3176316;1.5555917;-0.08953204;-2.4024146;-0.7497454;-0.3757124;0.9379362;-0.048394155;-1.5082371;-0.27585977;2.9859517;-2.7735066;1.4160482;-1.0046424;-4.530223;-0.81873256;0.90749127;0.669312;0.046953995;-2.555235;-0.9363843;-1.3446988;-1.4850911;-1.3471116;-1.3941526;-1.9958944;1.6356103;-0.9266419;-1.3900965;-1.5241126;-1.4630884;-1.8481781;-0.36635697;-0.07027303;2.5517814;2.4963496;-0.98718333;-0.050592523;-0.3530805;5.735078;2.538789;-1.2589159;1.946146;-2.0090785;-3.358111;1.3658861;-2.4041317;0.44870517;1.1738197;0.7741622;0.40929;-2.2816029;0.16010803;0.80869824;-1.0915458;-2.1713831;-1.3615061;-1.2130772;1.1146907;-1.5477319;1.2619399;-0.10522538;1.952136;1.247299;0.49409544;1.5907898;-1.2557257;1.3170471;-0.9458055;0.5176299;-5.795233;-0.22844894;-1.2420247;1.8917924;-1.3428577;1.1469398;1.1924826;-0.863801;-2.254287;-0.70899135;1.13466;-1.8340464;1.4786026;2.385636;0.16983898;-0.11772748;-0.2893063;0.85811824;-1.2758543;0.26115587;3.353097;-2.045112;2.9143631;-1.9290549;-1.6688906;0.6135857;0.21359992;0.35971084;-0.13317722;-0.049458068;-0.26743478;1.5650048;2.2292295;-2.6995935;-0.09815908;0.7269584;-1.3914347;1.3748854;-3.0681274;-1.0508001;0.005029088;2.183103;-1.8830773;-0.94734055;0.46425635;-0.7848855;-2.0836046;1.3385857;1.8488481;-0.12774357;0.7602214;0.91829157;2.0421233;2.2149923;-0.28195336;-1.8974899;-0.4793727;-4.661274;-0.13414541;0.24544549;-2.5437899;-0.32223207;0.3288311;0.4914615;-2.9479918;1.0149654;1.7361946;-0.84115136;0.8204037;-2.7711425;0.24821617;1.083249;4.867448;2.2787926;-1.2716757;-0.049813613;-2.0704076;-0.6412188;-0.9128978;-1.772015;2.0311399;-0.5691531;0.6370904;1.1225669;0.67994237;1.1983387;0.62282026;-2.2796865;-3.1229475;0.215362;-2.796801;0.04115126;-0.16946837;-0.7844052;-2.2403293;2.3772202;-4.25273;-1.2274393;2.762632;-1.4555149;-1.4693321;0.6151538;-1.3734093;1.531517;-0.35786256;0.3839748;0.7613027;-1.6659678;-2.0658233;-1.2600107;2.339554;0.27530468;0.7649517;1.2009795;-0.1665101;1.9654456;-1.6298229;-0.2897581;-0.22685224;-1.1427414;2.413569;-0.46136272;-1.2851225;1.6961473;1.3772742;3.083586;-1.208854;1.3783362;-1.4521345;-3.2755811;3.1469622;-0.31879392;-0.04943528;1.2396272;-0.09001561;-1.9028608;0.018776486;3.2511868;0.33733928;0.4739807;-0.16251677;-3.0468671;1.7307738;1.3265406;0.57266206;1.1986583;-0.17535149;-1.5830022;1.9164084;1.2926478;-2.116419;2.077844;1.4499325;-0.071252406;0.1648468;-0.23207927;-0.42854175;-0.00028973052;-2.3855705;1.4578065;-1.6234243;-0.9633134;-2.0090992;0.7418822;-0.57595384;-0.3082975;-0.059710562;-1.8117222;-2.5292213;-0.29207063;-0.84226197;-2.769803;0.017743614;-1.3752474;-0.50848955;-1.512732;-2.3447318;1.2235929;0.7797781;0.09105664;2.4006274;-5.415062;-1.7295957;1.6642729;1.2229686;0.15455203;0.9047344;-1.4337944;2.07246;-2.0769472;-2.3754838;0.9027381;-1.0957024;-0.6385535;0.5317045;0.7828713;-0.24496199;0.40812427;-3.0930264;0.098171376;3.461027;-0.82175577;1.0744499;-1.2664622;-1.0441681;-1.1135684;0.08311509;-1.212896;0.697811;1.5727247;-1.3462182;-3.396825;0.07018246;-3.340784;-1.9485389;-0.5382382;2.0456717;0.047239643;3.328034;-1.4656008;-1.2840394;-0.17249593;0.8706542;-2.436361;-0.7145401;-0.9463932;-1.4014497;-3.7532802;1.2386732;0.5749856;-0.63479537;-2.1304522;1.8418682;0.0065681157;1.2660953;0.64082456;1.1002134;2.7990968;-1.8376285;1.0690588;-1.8287444;-0.67312765;0.9878921;0.5629927;0.1292804;-1.1617261;-1.1357818;-1.2860245;-0.68930054;0.52557296;-3.8570142;0.13451098;-2.5847356;0.5588096;-0.9108008;1.7366445;-1.0893172;2.0058053;1.5960292;0.14868645;0.37258574;2.1533358;-3.4688625;-0.4869878;2.8131711;1.2212366;0.6802484;0.82736176;-2.555404;0.20967749;-1.1018122;3.5326366;-0.12238153;-0.046192624;2.0686169;-2.810712;-2.2803118;-1.9340314;0.7254092;1.274471;-1.3200076;-0.7630221;-0.15153976;-2.0075412;0.3431577;-0.36530894;0.6955104;0.9119246;-0.13909478;1.7039247;1.1227736;0.5951577;-3.6871016;-0.7516014;0.5411431;0.036349047;-0.7144657;-0.86658996;0.7185367;0.17041706;-2.609091;-1.1211493;1.5323194;-1.9112841;-0.91114444;-0.17096119;2.4524584;-1.5058697;-1.0710919;-3.4954379;-1.2423371;-1.568886;0.13484058;-0.40237042;-1.0521011;-1.8444964;-2.4090881;1.6452845;-1.4122535;-0.42218933;2.1461408;1.9487289;-0.7037743;0.5563062;1.091709;-1.5156646;-0.7407151;-0.48345658;-0.56379896;0.20563944;-1.5239445;-0.04190911;1.4300758;0.42586604;0.8039082;0.8157667;-1.0331326;1.4892011;0.024212629;0.70194453;1.5512422;1.0429136;1.0849674;0.92464864;1.0079066;-1.3104037;-1.8064517;-0.16494177;1.1033952;0.844014;-0.5180859;-0.19980404;1.161969;-0.30988106;1.8960086;-0.42560628;0.81680954;0.4664173;-0.2841131;-0.2904225;1.3244667;0.26377952;1.2223302;-0.4768399;-2.7554703;-0.6192847;1.0052413;-0.059779406;-2.650156;0.28447306;-0.20198892;0.9215836;1.8609787;-0.46272054;-2.5312393
-2.5504422;1.1535572;1.26718;-1.0144867;-0.27910283;-2.251176;-0.32518724;-0.41162962;0.4960623;-1.5140142;-1.4161088;-5.233707;2.549346;1.7679899;1.8441217;0.848654;-0.77721786;-0.99018854;0.33304384;-1.605638;-0.27230692;-4.0030103;-1.423857;2.1508927;1.5797161;-0.88120353;-4.1277633;-1.1188878;-3.7152586;0.005631541;-1.8003442;-1.715802;-0.07970839;-0.4735542;1.1117691;2.6481385;-0.31738484;2.0013416;0.055702873;4.3231616;0.9134002;0.49928868;1.4794408;-1.8999746;1.3587742;1.1495429;2.0264626;-2.4741564;-0.95986193;2.1634202;0.8164243;-0.96127826;0.12798691;-3.5166543;4.4924626;-0.38772693;1.2143201;1.1793386;2.5189257;-4.454525;-1.8530837;-3.0653458;-2.710832;0.046514146;1.9788363;1.9993876;0.047523636;-0.6349454;1.664998;-0.14746411;2.9138427;-0.40773004;0.7179516;-2.1625438;0.5460829;-0.5339219;0.6655486;1.43465;-0.13853483;-2.1551018;0.2524254;-1.3084472;-2.7243242;-2.312478;-0.09875512;0.4357877;1.4976904;0.8449997;0.41759336;-0.42547837;1.3156418;-0.15063873;-0.112929285;2.2696245;-2.9272907;-1.5482155;-2.09623;0.7397278;0.72683865;-1.4835067;-3.1585743;-0.4183598;-0.0107697435;-1.1910951;-0.4838407;1.1221744;1.0161968;-1.2754345;-1.05889;2.4561737;0.3294017;-1.1351943;-0.2615033;-0.31644154;0.4179816;-0.18955466;0.19605593;0.29463285;-1.2501217;1.7186419;-1.2134374;-0.50175935;-2.2447042;0.17384535;-2.2318988;-4.2897954;-1.6379248;-1.5330348;1.2097667;2.3047783;1.7430024;-2.3700995;-0.7153228;-1.0036507;-2.1612597;0.95236146;-0.72488254;1.4857421;0.53748494;-1.6097933;-0.390463;-0.5830827;0.56837094;1.5225415;1.7911055;1.0763744;-0.39953125;-3.512627;0.2992938;1.0328635;-2.7797267;-0.9850993;-0.257445;2.0113487;0.7876443;3.3201199;1.3915639;-1.9870341;-2.735419;0.122900605;-1.2924583;1.4600611;0.87158096;-2.005116;-0.2142001;0.46279007;2.1221592;-1.2688628;-0.23631236;1.1254517;-2.1247675;0.68229705;-1.0585895;1.3270063;1.1345352;-0.7261455;-2.7706048;-0.87281525;-1.2472795;-0.21521932;0.35343626;-1.9156545;1.8361526;-0.1105559;0.13266468;-1.5731727;0.60261065;-0.36569613;-0.796179;0.5378098;-0.81300646;2.2677681;1.1168435;1.0014684;1.7269435;-2.8354495;-2.250195;-0.442523;1.2690294;0.9801591;-1.1901972;-2.8430438;1.3004339;-4.102178;1.7445806;-1.8296545;-3.5634148;0.33984596;1.3281451;-0.04114135;0.38828874;3.0150208;0.8654373;0.3689896;-0.15732324;-0.80110145;-1.2007303;0.23741764;0.5056399;-0.5718033;1.6700425;1.62236;0.877775;0.23666863;1.1008519;-0.65874773;-3.3044994;2.049875;-1.0830148;-0.57399535;-2.494816;0.7889384;3.4896297;-0.17124072;1.4984924;4.0589094;0.025427353;-0.7648091;-3.1081636;0.7072999;-1.5339019;0.94486654;-0.114993684;-2.767636;-0.6958807;0.61875534;-1.3279659;0.47552684;-0.66052556;1.2615732;0.70693344;-1.173549;1.0158306;-3.106054;0.41359153;-0.84864026;-1.878146;-2.007286;-0.34737614;-1.2492888;0.90026945;3.3652034;1.0086602;-2.7005217;-0.3229348;-3.4874806;1.0383791;-0.25508487;0.5506954;-1.0375515;-0.6633452;0.14820664;-1.6417592;1.8530186;-1.0656029;0.77407503;1.334822;0.96866417;-1.3230212;-0.04199898;0.50791025;-0.32910007;-0.12380954;-0.19184105;-0.37378585;0.16017559;-0.10481115;0.50696;-1.1084682;-2.3650236;-1.3732805;1.8783875;1.1119715;-0.53447884;3.9243011;-3.046997;1.1161227;-4.7587323;-0.36821854;0.07111045;-0.7951774;-0.6555663;-1.3252193;0.1751237;-3.5166283;-0.026363567;1.076663;-1.36569;-0.6935124;-2.2146294;0.52249193;0.4380739;-0.4095394;0.10069649;2.4201891;-3.4638402;0.6985489;-1.9177148;-0.2133448;-2.8417413;0.6597519;-0.061252374;0.7308692;-0.057979193;-0.10183357;0.23182374;-0.62386;1.2477024;1.3049173;1.5665979;1.2377181;-2.0728843;-0.91900665;-0.8767119;-0.3116026;1.2202889;0.36217824;-1.9250883;1.1248019;0.73161745;-0.043200836;0.9350818;1.2074562;1.0475936;-0.94814885;0.4836195;0.9871532;1.8205955;-0.41775927;1.6962095;-0.236944;0.34909785;-0.22926904;-2.1859891;-0.89059037;-0.17944473;1.001272;-0.2569609;-3.7118459;-3.7245076;1.212771;0.18251604;-0.77581996;1.4869338;0.30331662;1.2410483;0.6243242;2.2119727;1.274051;0.10470547;-0.3367012;-2.2457237;-5.189628;0.030193279;-2.2860193;-1.0848761;1.586431;-1.3496221;-0.33801377;0.5871794;-0.62766963;-0.48097366;-4.835954;0.1348679;1.1288708;-1.0332597;0.74205554;-1.6696769;0.2706595;0.3823621;1.5203031;-0.06596856;-1.3515826;-2.019476;2.6916816;-0.24067603;0.26168177;0.42243326;-1.4922729;-4.6708364;-4.9334316;-0.5253528;2.1970716;-3.0772223;-1.9774911;-1.2661933;-1.8405765;0.64173365;1.178886;0.65106255;0.31268582;1.4453733;0.2798886;0.65971196;0.48361814;1.5949955;0.6808265;0.9562784;-2.2258024;-1.984437;-0.20392552;-2.3980567;0.5730838;-1.0920886;-1.9667356;-1.1301837;0.48673335;0.93066674;-1.2788805;-0.9716708;1.7375777;0.2606531;-3.2640967;1.2429798;1.2968625;-1.5206324;-0.18803233;-0.39959615;-0.3205082;-0.4940365;-0.053961057;1.9301811;0.61088943;0.45733654;-0.11613432;-0.45436537;-0.719604;0.9716815;3.078001;0.010535319;-0.93483776;3.4543545;1.3450164;0.99528134;0.34949407;2.559778;1.2075181;-1.0504338;2.6076097;3.3490942;-3.3642156;0.3681977;1.0906988;-1.4564613;0.2760902;2.5464725;0.14347844;0.1306643;0.6410363;-2.2833087;0.46178654;-1.3577737;1.8727419;2.5121405;1.4288023;1.9824003;-0.66546965;-0.6569701;-3.1905081;-0.22045894;0.052117117;1.7685288;0.90004647;0.98625004;0.084052145;-0.31759575;1.0173755;-1.6833849;0.28622478;0.45761517;0.049778193;0.46748668;1.7260982;0.3831114;-1.6786691;1.912928;-1.0263646;-1.8417668;1.6098723;-0.030917492;0.41055143;1.8543624;-1.507159;1.8388387;-1.4830438;1.6254811;-1.4332024;-1.1060835;-0.13846712;1.4515145;-1.7747861;-1.7118076;-1.7168158;1.1216549;-0.048158973;-1.8126004;0.9476976;0.54291815;-0.9115335;-3.6464026;-1.5373464;0.017744651;-3.738186;-1.7779814;0.8302678;0.78812355;-0.13555326;-0.05476903;-0.57960105;-0.83809704;2.044602;-0.025597645;0.5233586;1.2375749;-1.0762696;1.9230626;0.466167;-1.7865986;-0.9970358;-3.7219646;0.62899035;0.6448585;0.895474;1.4341172;-0.48258016;0.723713;-0.63256353;-0.13767426;0.8023381;1.1544086;1.6850691;-2.4272397;0.6687625;-2.8415987;-0.061009075;0.18582597;-1.2593023;-0.14989166;-0.39148158;-1.6009427;2.5056314;2.3347294;3.0165668;0.6616898;2.436757;0.42782858;-2.1433616;-0.33241305;-0.678612;2.3159397;-3.5717993;-1.0385313;1.9237506;-0.20065995;1.5886927;-0.66871864
-0.169848;2.5800838;-0.18770027;2.7577662;-0.33158052;-1.4319087;0.043499894;-1.0671512;0.46949413;-1.077911;0.39261508;-1.195462;1.6473058;2.3590956;0.7531797;-0.05296325;0.68101615;-1.004138;0.42725554;3.4391966;1.1219916;-0.40208557;2.5596476;0.6498534;-0.88826156;0.8451135;-0.8923205;-0.43667862;-1.9037056;-0.3926741;0.58712405;-0.22935441;0.2059942;0.26700082;-0.14743614;0.5271671;-2.0498192;0.24836132;0.07388318;0.56710374;0.06976013;0.5713766;1.12733;3.8766325;-0.13276818;-0.8048495;1.9060044;-0.75704896;-3.2994637;-0.9134304;2.9036348;1.9328597;-0.2844582;-2.105784;-2.9483726;1.5077881;1.2551886;-1.3646541;0.57737094;-2.2519255;2.2467144;-0.3836457;-0.9950038;-0.68411636;0.39806935;-0.13987842;-0.47849926;0.8490092;-1.4363451;1.18164;0.087343015;-2.4603636;-1.0044258;0.16970608;-0.81506556;1.6298189;-0.7685929;-0.80184275;-0.04708807;2.1865578;-0.08349559;-1.0048157;-0.30157867;-1.8611809;1.9921372;-1.3229213;0.878472;-3.6243258;-0.31026253;0.9189462;-1.2525153;0.48776114;0.3424835;2.7953937;-0.10946845;0.50037736;-1.4796555;-2.8035402;2.6296868;-0.89615464;-3.9412024;-1.3207762;-5.5636535;-0.955796;-1.8670099;0.24384716;-0.58881676;-3.5999444;0.72587746;-1.120873;2.1426425;-1.024841;-1.4606438;-1.6874207;-1.5202708;0.46547186;0.504419;0.4310163;-0.91863835;0.6162625;0.30845588;0.3032188;-1.9712361;0.10018646;0.27280238;-0.43305475;-3.442635;0.19060314;-0.044700347;3.0473182;1.4257348;-1.0489137;-1.7481751;0.46858385;-2.0572066;-0.6667637;0.15655173;1.5981455;0.19622187;-2.692252;-1.6020749;0.29397488;0.16096908;1.0124892;1.4231849;2.5311277;-0.44025168;1.042258;-0.521863;-1.8813801;-6.075981;-3.2322247;-1.575587;1.8664829;-0.57481986;1.2980549;1.9963329;2.730972;-2.5236065;0.5916325;-0.5356605;-3.6180522;-4.122306;-1.2507753;0.20142382;1.1361886;2.7468507;0.3911976;1.6303295;0.8668187;-2.9694052;-1.7981;0.31757057;-0.44773152;-0.4174366;1.0795156;0.43303522;-2.49602;-0.35460737;1.9364437;-2.5138538;-2.2927577;0.58328265;-0.38564622;-0.5725856;1.1656095;-1.0349586;1.7216271;-2.7648008;-0.13564326;0.33169922;0.9177158;0.08052626;1.2141384;-1.3825525;-1.4372863;0.98460674;1.9317409;-0.24763511;0.62413496;-0.08455376;-3.1681151;-0.5063897;-2.6386058;0.261737;-0.9288588;-3.3514345;0.6457635;-1.7250417;-0.33479708;-0.59469056;3.032303;0.00966645;0.6477018;0.0046341117;-1.1633216;-0.048503384;0.42397675;0.7147314;2.7039795;-1.2454548;-0.9089933;1.0404073;1.5027803;-0.37515038;1.3492345;-3.102363;0.56994253;1.7762134;1.5447882;-0.021411873;0.5913404;1.4952391;-0.5109238;0.4044107;0.7450764;-0.9463286;-0.21752885;-0.87828207;-0.61631036;-0.6192547;2.5450704;-0.8294588;-0.11370577;2.077461;3.0625668;0.65799284;-4.2233715;-0.5505588;-0.1933593;2.7157898;-0.5219388;-3.4021986;-2.031234;1.0171885;1.0097455;2.6746793;1.1576797;-0.8908738;0.33862957;-0.09069135;0.16911845;-0.18300359;0.9824629;-0.8309134;-3.1027448;-0.24598159;0.2678935;1.5987116;0.043122843;0.09749699;-0.6296004;-0.6697737;3.3012304;-0.097457856;0.33091253;1.5363111;-3.9631994;-1.624317;0.36977828;-2.0094845;-1.5666164;-1.8081965;-0.42200226;1.6263703;-0.3234432;0.6288456;-0.36361268;-2.330368;1.5188768;-1.9462495;2.177424;0.86795896;-0.85551935;0.033726893;-2.532173;0.72976047;-5.209682;-1.1587918;-0.27231798;-0.29591852;-2.592304;0.94974464;-0.09233449;-1.7971851;2.837956;0.2908169;0.1643826;-3.5707295;0.2716944;-1.8699287;0.15723665;-1.525404;0.22359034;1.85012;-0.3806887;0.16486312;0.96400046;1.1245575;0.4764849;-1.6880345;-0.09919655;0.35653564;-0.9590325;0.48298153;2.0902958;-1.3528968;1.4887861;-1.2332363;-1.3645903;0.6440289;-0.7409519;-0.57023597;-1.8883383;-2.158902;2.2876668;1.0656283;0.72145784;-0.10838286;2.6117144;-2.4329379;-4.1777663;-4.7151556;-0.06395243;-4.4833584;-0.64954424;1.9184291;0.51929045;-0.30317128;-1.8331558;0.032296278;-3.0009997;-0.84022874;-0.62842244;-0.18587321;0.8527319;1.5383425;1.0603799;-0.3610302;-1.4449332;-0.5190249;1.3221469;-1.1043298;0.14043441;3.1909444;0.23751564;-2.7712655;0.9844433;-1.6950339;0.5956238;0.4543329;1.8166581;0.096772574;1.6321632;-0.45279652;0.69051397;-0.06268158;0.29608977;-2.291972;0.6589052;-0.7082256;-0.030514864;-4.1109467;4.0741544;0.5243668;-0.78495485;0.07597558;0.4155316;2.125191;-0.036724787;-0.5466002;-1.2269872;-1.3431377;-1.4482898;-0.13426362;1.4675828;1.1879297;0.51547784;-0.40451926;-3.7068264;1.6655138;-4.515775;2.2223413;-2.6463976;0.11961459;1.440344;-1.6638615;0.6566568;1.4601669;-0.0910306;0.9465976;2.1164212;0.22071391;1.1888069;2.0428038;-2.9750023;-1.9675338;1.289778;-0.43831208;-2.1577544;-0.37512463;-3.0187166;-2.1729906;-1.3994458;-1.6794306;0.07920388;1.8561455;0.6721569;1.4618524;-5.464386;-0.9929207;0.5134305;1.717753;0.04987123;1.5754901;-0.27891213;-0.35420343;0.08104327;-1.715033;-0.42120287;-1.019089;-0.43227488;-2.9231305;3.1861663;-1.7589281;-0.6254295;2.6721601;0.8736104;-0.9177719;2.6005757;1.7829593;-1.2229768;0.024316074;-0.32962;0.42353183;-2.5469801;-0.007153614;0.0728255;1.4202254;-1.5856313;-1.7534077;0.69294685;0.360643;-1.2822338;-0.12691976;3.1269948;0.255826;-0.50967264;-1.4449055;-1.5472004;1.6349216;-1.2700477;-2.4247875;0.36728328;1.5415183;0.27314663;-0.1711255;-1.3695364;0.06785909;-0.43537256;-1.9276015;-3.4110038;-0.78330505;-0.928213;0.39311928;2.1901305;0.48677993;-0.06427248;1.561493;0.74340814;-0.052054495;-3.0906165;4.1679544;-1.242675;-0.6981426;0.25775912;-0.9599228;-1.0503756;-0.43091586;-0.23135145;0.007851536;0.5745975;-1.1801677;0.8490885;-3.0204198;-1.5679849;0.18697363;3.008979;3.0502226;1.1548363;-1.0397643;-2.0893323;0.03219535;2.6510878;0.3544441;-0.5652394;-0.57410944;0.689694;0.17656933;-3.063609;-0.16538514;-0.66425765;-1.9959227;-0.82413226;0.5018132;-2.4762044;0.5456801;-0.109926924;0.16436559;-3.7008748;-2.587208;-0.26962727;1.5096487;-1.1715091;0.62796074;-0.71381193;0.9111704;-0.6116657;-0.70540196;-1.8297026;0.37261745;1.3935344;-0.3708779;-0.07164583;-1.4875721;0.5317521;-0.40295064;0.6578194;0.6437213;1.3103546;1.8530531;-1.9110025;-2.9721773;-0.8081711;-0.4448572;1.6717212;2.620056;0.969422;-1.8612711;0.76603717;-0.76426786;0.5199545;3.087435;1.4438803;-0.66543096;0.58824396;-1.5562214;-0.8288563;-0.66257125;-1.0063798;-1.9451565;-1.4195931;0.55270827;-2.1593888;2.687981;1.3812511
-1.4805206;-0.21288171;1.2286913;2.276507;0.16339876;0.19424537;-1.3593432;-3.6706002;0.72332585;-0.9366175;0.51610833;-0.4764702;0.970429;1.77146;1.0597831;0.72919595;-1.2086638;-2.4863896;3.1357126;-0.36964518;0.52859974;0.992402;0.005758921;3.091869;0.21001185;-0.46795288;-7.1849384;1.3855146;-1.6936268;0.33964974;-2.8895411;-1.0588536;0.4612915;1.4168545;-2.7248123;-0.41628304;-2.412736;0.40992773;0.8874292;0.3005492;0.57235485;-2.6754594;1.8162408;-0.81714034;-1.4946873;1.7652513;2.3278008;1.8897285;-5.1421537;0.21526285;2.5636296;-1.5579761;2.3484254;4.280495;2.6242628;2.2574387;0.99714607;-0.73987734;-0.8852693;-0.6430452;0.5412163;-0.21537682;1.1517135;-2.2272768;-0.23780292;0.7803235;-0.44452155;0.8801952;1.0986897;-0.752073;-0.44680265;-3.158096;-1.7319127;-0.044699647;4.025001;-0.5995643;-0.69287807;2.6334243;-2.24165;1.1081741;-2.5417664;-0.43914634;-3.0238247;-0.25870737;1.448791;-0.2966169;0.2313781;0.60431594;0.58921456;-0.3869458;-1.6002824;2.2817488;-0.2122234;1.3361087;2.1356053;0.20449011;0.19028206;0.42780378;0.06044905;-1.5043404;1.0537816;-0.5065016;-1.970324;-1.2409971;-0.7325311;-0.6751711;-0.61451983;-2.2654665;2.4599133;-2.8516479;-1.1430207;-0.89429724;1.1611433;0.5237493;0.3065498;0.634328;0.01482934;3.3669274;1.3687705;-0.21033971;-0.26352185;1.197307;-3.053105;-0.08898944;-2.4900882;-2.4739976;-1.2779746;0.036636315;1.1470386;2.9068348;-1.6776845;0.69169295;-3.4155526;-0.42519197;-4.0769434;0.06781081;-2.7680938;1.5434922;-1.904869;-3.857156;0.39311835;1.4751703;0.9481848;-0.97006136;-0.73674744;0.82412875;0.24741067;-0.06786803;0.19853638;-0.656967;-1.7033881;-2.199094;-2.1931896;0.3653667;-1.3259857;2.168314;1.2304268;1.305985;2.1133463;-1.1838188;0.25936124;-1.5427728;-5.0913553;1.3125349;-0.07210559;-1.0965165;3.2847018;-1.3790022;2.0828292;1.7297226;-4.320779;-2.922242;-0.7997097;2.740805;0.27121747;-0.609328;1.8175716;-1.0493302;2.8677166;3.062558;0.39434853;-1.4983715;0.44704214;0.8859901;-3.2638009;-1.2005423;1.43239;1.575952;-0.18241316;2.2357032;0.46897292;-1.9351534;2.9904163;-1.1295263;-0.1464725;-3.7070642;0.88514435;-3.1171026;-1.9780549;-0.33821255;2.7505214;-1.276063;-1.1595514;0.44922972;1.3584809;-1.3708352;2.8692844;2.1119044;1.3170618;-0.32687634;0.74189764;1.4951601;0.091052346;-0.18350363;-0.7561351;-0.6143695;-1.0689952;2.3503528;2.5091152;0.45668712;-0.6924264;-0.49670425;0.23514861;0.6391775;-0.4121578;1.3831013;1.9339472;0.43808752;0.12840922;3.559746;1.1148883;1.907664;1.8922627;-0.8543354;1.8957272;0.95834315;-0.13094942;0.15801409;-0.48934013;0.03469499;-3.0867674;1.5904675;-0.23635873;-0.6186945;1.3474824;3.898094;0.15959674;-5.284409;-1.405029;1.6272295;1.6403387;0.8874824;1.4489105;-2.0561993;0.38714823;0.70407516;-1.229898;0.26233715;-0.20402443;0.6363516;-2.8927808;-0.5961144;0.27035195;-0.8482073;-0.48353496;-2.572769;-1.3131102;-4.4385686;0.34360924;-0.35338727;-1.907246;0.7577218;-4.4454436;0.8755196;2.6007853;1.0604178;0.88040227;-1.8457611;0.14983754;2.3001575;1.3386043;0.34126878;-0.6013362;0.16361484;1.0882636;-2.8389175;0.8877885;0.0851894;-4.3344946;-2.8824434;-2.4238822;-0.63615733;0.5955759;0.36972114;-0.5819329;-3.3550935;-0.20769441;-4.333485;-2.2265182;-1.7820061;1.0672216;-2.1539407;1.8421661;-3.9547095;-0.7841937;2.156487;2.8755968;1.6860853;-0.9452605;-1.9906024;-3.0776176;1.286148;-2.0257664;1.7074733;0.12983431;-0.18984206;-0.23567574;-1.3808848;0.47144377;-1.1842753;0.11163471;1.4886005;0.37627092;0.6689486;1.651976;0.9557622;0.6890823;1.7696475;0.09755177;-0.7608226;0.8201804;-2.4360373;0.6240146;-1.7227294;-2.3937335;4.4329147;-0.2853531;-1.533246;-1.0397303;-0.89511025;-1.7192842;-1.3061687;-3.1213026;-2.3698685;-5.256845;-1.9722204;-0.08010419;-1.559388;1.3572192;1.9929016;0.53915656;1.6796699;-0.3692992;-1.2165289;-0.16043851;0.47471818;1.5123479;-1.7141346;0.3658724;-1.5378193;-0.23798256;0.7487547;-0.0496801;0.16339011;-0.78308445;1.825982;-2.275852;-0.5255249;-2.1433852;0.50089115;1.0379416;-0.8393251;-2.0167358;2.190278;1.8654153;1.5646882;-0.97643;1.5048422;-1.0493084;0.13073643;-1.6611732;1.3213676;-4.5101857;2.2479205;1.316392;-1.7214621;1.1687822;-2.9328194;0.6553931;-0.29420117;-0.25319326;-3.4886975;-0.31825608;-0.9106349;-1.6579683;-1.1516727;1.0344036;-0.8022288;0.1375215;-2.90866;-0.21598147;-3.4027445;1.6660304;-0.82859766;-2.0416577;-1.0615236;-1.6212385;0.6798691;2.0015392;-2.7954936;-1.0681816;0.085374154;1.2375793;-2.1619446;0.23417193;-1.0621551;-0.47433278;-1.4272096;-0.31259835;-0.6159314;-1.4949782;0.08886622;-0.45448056;-0.96185607;-0.846813;0.8984593;0.31556547;-1.5462456;-0.50594985;-2.6097827;-0.93116015;2.2257404;2.0877595;-1.471863;2.0518403;-1.2968162;-0.024421891;0.21783462;-0.5649891;-3.198197;-0.77605206;2.449981;2.3750207;2.4526396;-0.2392131;1.2568734;1.0702258;1.4526831;-1.0581505;0.3680751;1.9439846;0.63037354;2.9498723;-1.7250072;-0.25770205;0.010013666;-3.5253778;-2.7686763;3.4096;1.0353187;0.10005302;1.2459304;0.09537287;0.017189017;-0.13919784;2.2025883;-0.8005756;-1.5076699;0.7883701;1.6682116;1.6386833;-3.734509;-1.5391818;-1.2389213;2.0889552;0.23215134;-0.59677345;-1.6657851;-0.5267921;-1.1961979;-2.081775;2.1068962;-0.6000441;0.8136059;1.5853695;0.31995934;0.32010087;2.5775166;-0.49523586;-0.4910703;2.9087749;-3.0371053;0.6368096;-0.9721098;0.04427025;1.3616633;-0.14750679;-0.099144466;1.3281101;0.34088022;0.220057;-1.0396461;-0.7190223;0.27407712;-1.7821915;-1.6088145;2.3632555;1.6913496;1.5911179;2.5922768;-1.002649;0.4790497;-1.3944623;1.3453088;-0.32233217;-2.481593;1.4712071;-0.89113563;2.0684857;-4.664051;-1.0257117;-2.8697107;1.9623263;0.94233954;-0.10513655;-4.023297;2.81219;-2.705506;1.1212391;1.3881483;1.0907667;-0.24702485;-0.4997469;-0.56839085;0.10783392;0.7396324;-1.1907701;1.4644473;-1.3408729;-4.2500696;2.4395773;-0.74017483;-1.8728852;0.021752935;-0.027896056;1.4449384;1.4403951;3.4014351;0.5267116;0.85055697;1.6846445;2.5750828;-1.936445;-0.5633863;1.2188014;0.50567293;1.9431839;-1.7071222;-1.4514153;-1.9215376;-0.20265432;1.7334917;-0.11899552;0.5631931;0.78169966;0.9498646;-1.3005173;-1.442754;2.1241086;0.20185532;0.10074787;0.5082356;1.4630674;-0.12994145;-0.8273422;2.4839206
2.0378878;-0.15905225;0.067719094;1.143807;2.3735256;-5.0254345;0.72037697;-1.2479169;1.3545169;0.21530351;1.1886234;1.4502003;-0.17328322;1.465695;0.29118037;0.8215932;1.0960112;-2.8845007;3.5750005;0.007839437;-4.6059403;-2.436812;-2.2389588;3.8345806e-05;0.96569395;-2.819192;-0.6183654;0.432626;-0.7117189;0.36054134;-0.9307769;0.17913361;0.6408115;0.4511003;0.5987422;-1.274281;-0.2678797;-1.3667855;0.6448207;-1.4247726;0.49817985;3.2706861;1.315364;-0.8537479;0.55676264;0.6911712;0.8833733;3.0617895;-0.5446683;0.53068155;-0.35875162;-0.60147923;2.7136598;-1.5836432;0.17321397;0.7791063;2.349283;1.3356087;-0.37323236;-1.4415033;0.807239;0.903666;0.37639156;-2.1118271;0.93987393;2.7304451;1.6221689;1.7207127;0.057753216;-0.2700736;-0.5917586;-1.2684578;-3.7473273;-2.389594;1.9844731;0.9825574;-2.6304946;1.2282728;-2.1734395;0.53174835;0.6174299;-5.1982083;0.898216;0.64754385;1.3778977;1.1607754;-1.1525239;1.2824619;0.2864004;-1.9608779;0.9740798;0.04225458;0.22094025;0.036579728;2.6589556;-3.8668783;-0.96847934;-1.9426297;-1.6213186;0.20220175;-1.4945039;0.8034305;-2.0150921;-3.1795437;-0.94161606;-1.1728306;0.39252234;-5.771565;-1.8985792;-0.3156526;-0.3712622;-0.766125;-0.27178347;-2.8058307;1.6936725;0.8229437;0.2574677;-0.29854375;-4.080455;0.7816651;0.0112689985;-3.1880221;2.136613;0.11662727;-9.577638;-1.4858059;-1.8054444;0.15796621;1.9075954;2.6536684;-1.0510554;1.4073623;0.053217277;-0.40098608;-3.307745;-2.4205534;-0.23531091;-0.30640337;-0.12533498;-5.0676155;-0.12086097;0.2333159;1.21213;-0.82581896;0.57719374;1.7785243;0.22482876;-2.8898582;2.0037425;1.519873;-1.8945827;1.7034934;-5.292898;-0.6538027;-1.5807295;-1.2219651;-2.352955;1.5038456;-2.382852;-0.50465655;-0.06875032;-1.1401603;-6.5938525;1.9265804;-0.3359565;-2.8688276;-1.7784655;-2.8242137;-0.8938116;0.15959963;-4.849964;-1.8546962;-1.1077721;-2.303717;0.37442693;1.2078778;-1.616667;-1.7250915;-1.8629103;2.9390903;-1.0583954;1.4673456;2.2832022;-1.5585759;-3.8992126;0.9894688;-0.62035793;-0.39629626;0.1155935;1.4530114;-0.35766092;-1.7816871;0.31994268;-0.5208997;0.34791502;-1.2585862;3.7576315;-0.82654124;1.5150853;0.15307668;-0.48300064;-2.1740086;-0.046323396;-3.1396084;1.614571;0.74742675;-1.8408105;-0.7000882;2.041872;0.28246716;-0.61847925;0.94105417;-0.32236102;0.8660303;-1.0208579;-2.4696574;-2.5830755;2.115826;2.561039;0.5801794;-0.5263009;0.43196827;1.3626052;0.48592573;1.240113;3.1500754;0.40893197;3.2052314;0.91056746;0.30785027;-0.9433906;0.035495333;-2.249759;-2.1147501;1.4975034;2.051578;-1.4788265;1.050814;-2.1248431;-0.572403;-0.4263187;0.7447824;-2.629159;1.0571067;-0.5215764;0.73809475;-1.5274764;0.338639;1.8380097;-0.946393;3.643692;2.9455173;-0.5998731;-1.8517257;1.1109594;0.41241112;-1.3165641;-1.7652574;0.09754958;0.3694862;-0.20685968;1.5342958;1.304875;-0.028874716;0.7472215;2.21556;-0.31289348;-2.3954527;-1.0220208;-1.2565687;0.6021205;0.9638448;-0.85375917;-0.7239795;0.2936585;-1.8300035;-1.4399316;-3.6871252;0.4044945;2.4599125;3.4929676;-1.906656;0.19231296;-0.68297035;0.6879292;-0.71300143;0.11239062;-0.3300515;-4.258166;-3.73644;-0.17779364;-3.6692948;-0.194555;2.330233;-2.1616943;0.40074727;1.1804229;-2.234403;-4.109782;-1.660691;2.3038795;1.6215816;1.1473594;-0.55163854;-0.18165623;-1.2378806;3.4614887;0.93844974;-1.3950579;0.8433272;-1.7687147;1.6702948;-1.7342796;0.73154455;-0.08743062;0.32315007;-1.0198095;1.6800023;0.34087238;0.6086494;-1.9379257;1.1849054;-0.5307966;-0.37161675;-0.47293916;1.434896;3.5453734;0.85526574;0.68055665;-1.0775406;1.7578574;0.48958564;1.4035983;-1.7695953;3.256266;0.62665766;0.4503219;-2.4087293;0.30601734;-1.7360152;0.22603129;-0.09135708;0.35860744;-0.32832342;-5.1740036;0.822664;1.118644;1.6517153;1.8543117;-0.6018901;2.4739523;5.2011456;-1.2550734;0.14928167;-3.8509157;-2.1866326;0.35903558;-1.5784135;0.7607892;-1.8995726;0.954081;-3.3456247;0.020444417;3.098644;-0.37739673;-0.55521804;-1.1893294;-1.0136362;0.08259768;-0.43214008;0.8253242;-1.1095033;-2.9602315;0.58644885;2.3900158;3.4805505;0.15621231;1.6850967;-1.9115412;0.45210558;-1.3285818;-0.7850218;-6.50525;0.77021074;0.26102382;1.197901;0.37897575;-0.3876485;2.7044606;0.98336643;1.2035954;0.56273323;-2.2232385;-5.096312;1.4242736;-3.389478;-2.706168;-0.9514333;0.921331;3.3540478;3.441287;-2.1992407;0.058174156;-0.21455513;-2.228292;0.9077739;1.0966011;1.7222772;3.8906534;-3.4168277;-0.41931373;-0.30041662;-0.7870979;0.63172543;1.4135354;2.8307977;-0.24698256;-0.7569238;0.36986727;-0.4398887;-1.8285897;1.255255;3.9987626;-0.77848923;-1.8996795;1.9138191;1.830047;-0.48264486;-2.5385933;1.4439893;-2.3560944;-0.7578364;-1.3598511;-0.4176209;1.6402841;0.18917279;0.30897006;1.0534331;0.7266426;-1.0993645;-1.5738109;-3.8686435;1.6305835;3.207486;-0.21925189;2.6881807;-1.5753183;0.76463515;1.6649723;1.0505173;0.2958812;0.05301677;1.8745618;-0.3232738;-0.19737157;-4.2529526;-0.61698085;-1.6587634;4.684489;1.5287285;-0.72269714;1.5805844;-0.66736764;0.39013642;-2.538936;-0.045250885;-1.5500093;1.0117208;-1.1680622;0.21854049;-1.1394964;-0.8573908;0.7279959;0.29307386;0.9893278;0.14669529;-0.3571464;-4.1126;0.2513958;1.0060548;1.2191783;-0.40753144;0.87649465;-2.8019667;-1.3086348;2.069137;0.8348952;1.5181402;0.35337052;0.028331818;3.8478138;-0.39101854;-1.5386981;-1.507909;-0.85563934;2.4001317;1.595675;-1.4352132;-0.6254324;3.0013587;-1.5001949;-2.9365585;0.52567095;1.4205766;-1.836179;0.46156716;1.1926844;-0.92163265;2.7115905;3.0888283;0.43730703;-0.69355845;1.8059283;-0.9842147;-0.09906112;0.11267029;1.5596751;1.9010763;1.3630024;-0.99568194;1.4522343;-4.2020893;0.56752044;-0.26313582;1.3719599;0.48001415;4.514622;-1.0604504;-0.22725113;0.29115805;-2.0948477;-1.3367345;1.2486632;-2.3172402;1.5731233;1.6112436;1.3482244;-2.0655046;-0.2591241;-2.3985493;1.955868;0.35834923;-1.2997264;0.26919422;2.5129364;0.6389446;0.6900834;1.9598691;-0.08739759;1.6065928;0.37890527;1.9515682;-2.5205996;1.8907665;-0.12218549;0.23947276;2.647446;-1.6517373;0.750552;-2.2631505;0.011590561;0.8266848;-1.3274941;-2.9609835;3.0976324;1.8613356;0.115931064;-1.67343;1.0185379;1.945451;-0.0758938;-0.9336186;-0.27660483;-3.4236171;0.46117526;1.6644663
0.06343635;-0.79015523;-0.41818053;-1.5619261;-0.058885965;-0.5900905;1.4304781;-4.319679;0.2804263;-0.51052713;-0.23899412;0.7622435;-1.0291495;1.5246754;3.9469674;-0.6582833;1.4784254;-2.7440379;0.7962892;1.4368981;-2.7759874;0.5990116;-0.36510468;-2.916282;-0.39862436;-0.35915697;1.1766022;-1.5935099;0.06651144;1.2631234;0.55234796;-0.13286799;0.52287525;1.1868386;-2.376548;0.10044864;-0.78805196;-0.31328586;0.7303002;0.4046674;-2.2218041;0.15919274;0.91701216;-1.8287709;-0.17746441;1.0364223;0.2508705;0.540259;1.6396108;1.0099574;2.6105902;-1.5499405;2.894167;-0.6382204;1.887872;-1.4151434;-0.3790389;-1.204504;-1.8324653;-1.098557;-2.9209878;-1.2180218;-0.89017975;-0.60383403;-2.5073667;0.58639884;0.30760828;1.2381608;-0.48001814;0.6891692;-1.752386;-0.83333445;-4.3942394;-1.5274925;0.64135194;1.4964622;-0.75447327;-2.0353982;-2.7157593;-0.33754614;-1.1867025;-2.3648825;0.77144617;-0.7259607;1.4216646;0.18400045;1.8851879;-3.774629;-0.76504934;0.5228106;1.9080167;0.018069608;1.0150276;2.0488281;1.0086441;0.48170847;-2.9853206;0.3901979;0.7877455;-0.64665174;-0.037889212;2.6279762;-1.065941;1.1303332;1.6316473;1.488151;-1.6113648;-3.0832546;-1.568376;-0.97134304;-1.3777823;-1.1507864;0.018146988;-0.20813422;0.10331928;1.3852673;-0.17768832;-3.6563632;-0.076702215;-0.6872875;-0.6756733;-1.5313019;2.2337961;-0.1290292;-4.93974;-1.7623641;-0.07882812;0.24999541;0.26645157;3.3748324;-0.31860155;-0.74131715;0.0554069;-2.546612;-2.5300689;-1.9368922;-0.7455715;-0.41207993;-1.9301124;-4.38772;-0.5736782;0.59937924;-0.38622853;-1.4346808;-0.71309924;-0.9802401;-0.047136802;-1.6360517;0.2822006;1.2145166;-2.515561;1.014722;0.7984071;0.91015166;-1.0375873;-1.663142;0.1646586;2.6780748;-1.270285;0.81600237;-0.37775654;-1.7379916;1.9995143;-0.5066699;0.013546366;-2.2014277;-0.7054177;1.1206605;0.36219707;-1.1904322;-0.5982916;1.0658941;-1.4611276;-1.212917;0.2995721;1.2819102;-2.1519063;0.08964027;-0.60938376;-0.13934231;1.268696;1.2106031;-0.3209795;1.4260904;-1.4955463;3.4272065;-1.2128628;-1.1945024;0.18778284;0.69600976;-0.11790624;-1.9538995;-1.1492862;0.70120627;0.53676265;-2.6420393;-1.7846638;-1.575756;3.2561374;1.002576;-2.719294;1.8293172;0.095355205;-0.60380226;0.9076711;-1.7676505;-0.6845564;-0.25688624;2.4269722;1.025784;-1.6113464;0.3409908;-1.2052569;1.5520445;1.2835008;-1.9646116;-1.2850672;-1.7947936;0.8783822;-2.8683333;-0.77372384;2.0804412;-1.2296857;-0.18723361;1.1891977;-0.7218482;-1.5686243;-1.1435069;-1.8588082;1.954751;-2.8489363;-0.551726;-0.42184404;-1.7348944;-0.17101166;3.1739228;-0.6127763;-0.73110753;-1.5386813;-0.6474093;0.92263013;-2.4683182;-0.36065024;0.6802164;1.3133957;-0.70499134;-0.66217005;-0.173573;0.8295367;-0.99987215;1.1329516;-1.0294247;-3.577768;-2.433071;2.1532998;-0.42862394;1.8008839;1.5800508;0.9078446;-0.5448806;-1.4715468;-0.12346011;1.0861961;-0.88073486;-2.6773274;2.4758804;0.69929683;1.3815955;0.6603619;-1.328916;1.7144362;0.08173922;0.55728835;-1.0051852;-1.2026405;-1.8637207;-0.6900282;-1.6224883;0.8906053;-0.9443111;3.9331236;1.7251546;1.6528531;0.1470431;-1.1742027;2.3416293;0.6145295;-0.09347951;2.2379694;-2.0604866;0.4727513;0.23165669;0.28474328;-0.25857282;-0.26708236;0.83235794;0.007629879;-1.1094084;0.9965169;1.8610629;-0.7108907;-1.2363002;-0.30052224;0.70743483;-0.8734339;-3.0284626;-0.93804854;0.52841896;1.5554441;0.40691158;0.32304153;1.7231961;-1.657662;1.6246945;-0.4848495;-0.38926458;-1.0071943;0.8410162;1.37284;0.0801474;0.78505933;2.715413;0.15244524;-0.06756735;0.31336197;1.658309;1.5451204;-0.43656275;1.4838402;-1.3736949;0.46232346;0.8514061;-1.9912623;-3.7687297;-1.1977942;-1.0449004;0.17449635;-1.4604056;-0.3403884;-1.9692773;-0.51485753;0.65340096;1.7411901;2.5472822;-4.255221;-1.0353653;0.7042376;1.1021417;1.1347718;1.0971289;0.77486575;0.82301795;-1.374022;0.23722425;-1.9582185;-2.0741591;-0.12860635;0.27831492;0.07754037;-5.221727;0.49517483;-4.5772376;-0.30721197;-0.22840269;0.28019258;1.8770149;-2.4347317;-0.40276778;0.5980208;1.786828;1.6720053;-0.6650054;2.1085513;-1.7773561;-0.3327134;0.66766936;3.1676743;-6.041841;-0.93302894;-0.87696856;-1.3267491;0.7300855;-6.6644197;-0.2438749;-1.8669051;2.5273306;1.2701064;-2.4900644;1.4800802;0.77121466;1.9055183;3.3064861;0.1534637;-2.4322176;-0.1086619;2.1007335;-1.4578398;-0.9281702;-0.23130192;1.8227757;2.0974078;-0.70183676;1.2895545;0.12868834;-1.857868;-1.6832446;-0.73331517;-0.39843073;0.47272334;-2.5942905;-3.1669817;-0.24887757;-1.6695921;-0.99031484;-0.06381262;0.49275377;-0.808435;1.1577328;0.80079955;0.21382605;0.9840248;-2.8156784;2.3452578;-1.9055165;1.340294;-2.498543;1.7287154;2.6065776;-1.6031951;0.0995148;2.6414683;1.7396716;0.773094;1.0192827;-1.9159244;3.7501335;0.35064682;0.119213596;-2.1064947;-0.17188177;-1.0781146;1.8152398;1.0205324;2.5031145;-0.70539916;1.7142111;-0.79470074;0.673568;1.9457275;-0.77852976;-0.054207835;-0.4462012;0.850712;5.9913316;-1.7750896;1.3490913;-1.7684144;-0.23027703;0.8144997;-0.07057869;-0.031049889;0.6111915;-0.27059993;3.1874938;0.47259682;0.48205224;-0.17622457;0.37755087;-2.1043997;-1.8012518;-3.5872662;0.971234;-0.6955326;2.146177;1.1399547;1.5767342;-0.73079735;0.82611877;1.5859437;0.028962795;-2.090146;-2.610739;0.65628976;-4.1320953;-0.72713757;0.22416042;0.6053849;-0.30893815;1.1719779;0.44772846;1.430586;1.0417229;-0.22761945;-1.5158232;1.4145252;0.7965999;-0.31535038;-1.5778767;0.7963877;3.3107443;0.056305964;-0.025034988;-0.093638055;0.8229133;-1.0694119;-0.18291463;-0.7730522;3.385807;3.0162249;-0.78294754;1.9917334;-2.3298016;3.9661107;1.6113763;-1.9185069;-1.3965212;-1.0953338;0.7180756;2.1185443;2.0111158;1.2792586;0.63583934;-1.9166348;-1.2653136;1.1684033;-0.8565036;0.6510865;0.5195838;-0.7267935;0.58740383;-1.7982811;1.0925655;-0.10101903;-2.657551;2.3009577;1.3768339;1.0309455;3.5186722;-0.7120579;-1.1762118;0.62073123;-3.328107;-4.0751944;-1.3147303;-1.6416763;-0.37081072;1.0196345;-0.54209036;0.9467513;1.1372216;0.6175151;-1.746312;-0.57015973;0.45910636;-0.6393841;0.19383565;0.982447;1.0237855;-0.37635356;-3.0828629;1.3833096;1.1031616;0.26902458;-1.0014867;0.9319131;-1.1380057;-1.2114823;-0.4828908;1.0291232;1.5967702;-0.07710223;0.30060276;1.0151237;-2.500837;2.072916;1.7776502
0.13291535;-0.51540244;-1.1116664;-2.3946495;-0.7154209;-0.9815122;-0.120721444;-0.57596654;0.031956274;-0.43852964;-0.19853066;0.4966625;0.8729745;0.364096;-1.1575112;0.9914377;3.5294852;-2.5158744;2.3019671;-0.5438525;-2.6754625;0.44212487;0.46661454;-1.6316429;1.1860656;1.4908948;-5.773617;-2.0711217;-0.65003544;1.478827;-0.79779387;-2.2626123;-0.00795906;-0.42370915;0.47343677;0.21618877;-4.386537;1.0165646;-3.4661965;-0.48190528;-4.6393647;0.45741016;2.0514033;0.22586012;-3.0678546;2.4392393;2.6414673;-0.49241933;-0.41471264;0.83456606;-1.1584016;-1.4337391;2.7249138;-2.873306;2.487489;-1.0372702;0.62758476;0.1570881;-1.7249329;0.66251385;-1.2816844;-3.0129364;0.4893083;-1.1566534;0.71518415;1.2002821;1.1828874;0.7505178;-1.3834208;2.65103;-2.620157;-0.99036163;-0.76457834;-0.07213974;0.9216869;-1.0115936;0.5633225;1.2402778;-0.71140563;-3.072889;0.25806734;-1.5542519;3.142462;-1.6835209;0.29354954;0.03759078;2.3769822;0.91951656;0.3840728;-3.11121;1.715988;-1.0015417;-0.7037095;2.0543017;0.9710965;-1.2302136;-0.34655216;-1.5276972;1.2079781;0.57649076;-0.6315081;0.24088717;-4.7939415;-1.5527523;2.6046553;1.4015931;-0.50357175;-3.3856466;1.044914;-2.3306427;2.7227309;0.5926949;-2.4601736;-3.5966144;-2.5197794;0.7296985;0.035747595;-1.0523286;1.6185277;-1.8682909;-0.41289318;1.5522232;0.9686307;-0.027166149;-2.960756;-1.1267692;3.2938032;-0.100172535;-1.5315325;3.6877403;-0.9373927;-0.7375303;0.075212546;-0.022950852;-3.1207814;-1.3281227;-3.2302513;-0.24628714;-0.32209685;-5.8189445;-0.09656165;-3.6765065;-0.6232533;0.2465294;0.16058382;-0.9692531;-1.1282893;0.7409027;-0.610911;-1.620916;-1.3785489;1.5208621;1.9614674;1.6959693;2.2404168;-2.1364188;1.8582687;2.0716584;-0.64926136;-0.33618963;-0.7653505;1.735931;-1.9754301;-0.4412784;0.438988;-0.38631442;-0.43138337;-2.346899;-1.0899166;-0.14211497;-2.2787375;0.72827953;-0.50669444;1.4643687;-1.5794873;2.7396655;-0.0051600197;-0.17760673;0.9413305;-0.39674088;1.3840448;1.7133712;0.0793889;0.0816685;-0.32055232;1.7027481;-2.7525537;0.20152788;2.9191043;1.5854726;0.0076855547;-2.0375254;-0.55187535;-1.2176228;0.9898421;-2.962872;-0.3205019;-0.6440545;-0.05031953;1.0406787;-1.9636347;2.6187878;0.495703;-0.85549027;2.5239458;-2.0899704;-0.48074892;1.6546773;3.408015;0.88276464;1.8516039;0.54811615;-0.2848748;-1.8439472;-0.45369485;-0.42745897;-2.4342976;1.816252;4.882789;1.7767296;-0.2620952;3.0137744;-1.8226422;1.9617867;-1.2813787;-0.6532921;1.9628117;1.3806416;-0.12748484;0.21973255;0.7468812;-0.2519257;-2.6635485;-1.0247105;0.44988713;0.26263756;-0.7998006;-0.8637789;-1.7752553;-0.0288672;0.020577477;-0.22327717;-0.39418387;-1.8133007;-0.84655815;2.5341816;-1.3171929;-1.5625129;-1.1336278;-1.0796245;-0.0963262;-1.2970872;-1.088402;-0.6045948;0.819844;-0.8363266;0.10510638;-0.19131328;1.5261686;-0.14045233;0.19672547;-0.3382549;0.77002144;-2.841385;-1.4780576;2.5154274;-0.30012062;-0.77494276;0.8132029;-0.55376863;2.3114533;1.6989511;0.6818056;-0.19362225;-0.44079715;-1.5329854;-0.17899974;-3.5130029;-3.5614438;0.975114;3.1410978;0.420968;0.104007326;0.2400067;1.1960753;-3.5842373;0.9614494;0.026335537;-5.452395;-1.586755;-2.1705518;2.7673666;0.046940688;0.50811607;2.146456;-1.250886;1.1562403;-4.1721997;-0.4061359;-0.78946966;-1.5378779;-1.4118758;1.2931155;-0.677309;-0.21643418;-0.19873355;-2.2498274;0.85053813;1.11279;-2.901701;-0.6784217;2.2165287;-1.4821994;-0.102963105;-1.2296832;-3.4018905;-0.17461893;0.17177321;2.0814617;1.00911;3.1245306;2.0539608;0.28896034;0.7144257;0.55085754;2.008415;2.984601;0.26474568;0.8597259;-3.2375846;-0.10836768;-3.2416422;-1.3827466;-1.1355907;0.782401;0.66484594;-1.6191636;-2.328568;0.7409158;-1.9056864;-2.177221;-3.3043253;-0.036896605;0.110511884;-5.4413514;-0.23781551;3.9865465;-2.6461868;-0.12622589;1.5683142;2.6426973;0.774983;-2.1839812;0.004360224;-1.0662434;-0.0666471;1.3747281;1.872704;0.12426533;1.164551;1.9369355;-0.98241776;1.5166852;1.2614636;0.5768537;3.6089365;0.9074025;1.6846179;0.35757434;1.8713572;-0.14485168;-1.8422987;-1.0088363;2.6720877;0.78126913;-1.9126997;1.2633432;-1.7307732;-1.4482764;-2.0181973;-3.2860904;-0.062611826;-5.978927;2.782127;-2.6468942;0.022307783;0.8973547;-1.3523263;-0.8065569;-0.9832463;1.6167727;0.98494554;1.7195739;0.41920054;-1.0012552;3.4173193;0.6180465;-1.0473471;-0.23280379;1.6190252;-3.9327347;-0.6738581;0.48511884;2.6884947;-0.4785444;-3.1956363;-0.0024842871;0.3762073;-0.75551087;-1.8921485;0.13271473;0.71117485;-0.24077153;-0.6866045;-1.9852779;-0.9962712;2.6727173;1.8095001;1.447701;0.886262;0.5747943;-1.4743643;-0.39008015;-0.94661474;0.8454504;-3.1267357;1.5513955;-0.04941971;-1.3687857;-0.73688924;-2.6270406;-0.49100426;-2.4256449;-0.69594026;-1.2308366;3.559415;0.21235353;4.0609975;-1.0339779;2.280504;-1.4794629;-2.3991866;-1.575377;1.6824664;-0.33803904;-0.45933798;0.9022282;0.72375005;-0.09033747;-0.8535185;-1.7331983;0.0057580136;-0.76168907;-2.8543499;0.3681986;0.65338314;-0.6592046;-1.9019859;-3.2288842;2.0662267;-1.3824859;0.4036792;-0.62781096;4.672954;0.31357163;1.0130831;-0.05011201;2.5817556;1.7553337;0.9851384;-0.48436147;-0.48478177;1.8027943;1.0755056;1.4027704;1.2823452;-3.7902167;-0.4916757;-1.6765398;-3.2059586;-1.8484846;2.1501284;1.9998157;-4.648687;0.5850169;-0.2630924;-0.5711603;-2.0994809;0.086769335;-1.2540264;-2.5612912;-1.8457803;0.85693836;-3.9291453;1.5744232;0.7203234;-2.145471;-0.104561254;-1.5971808;2.2120526;-0.61933494;0.17816822;0.9239092;-1.0704652;-0.36859402;0.31630492;-0.49921462;0.6293198;-0.43844804;-2.3314593;-3.5379274;-0.02029515;-2.2799766;0.91566825;-4.2221556;-1.1568571;-1.529791;1.69696;3.1015813;0.009282956;1.0295902;0.3030774;1.2266741;1.4223537;-1.5023534;-1.6731244;-0.052872166;0.41992146;-2.0501301;1.3055638;0.625031;0.7478831;-0.6789185;-3.791336;2.4366612;1.2649025;0.47168744;1.2180364;-0.43955082;-0.3995642;2.6592948;-1.0298443;-1.3679014;2.1594808;-2.3764553;-0.050220475;0.39225507;-2.2297862;1.0744659;0.8032818;2.6340723;-2.2589164;-0.044403765;0.44259092;1.5351394;1.1177174;3.4408937;-1.8970774;0.41636652;1.4893615;0.8295129;-3.501826;1.0824782;3.305492;-1.6591184;-2.7684968;-0.09293371;3.5196934;1.2649006;-1.9711759;-2.426747;0.90335715;1.2015053;-1.466406;-0.22313242;1.8340282
-0.49530503;0.5368073;-0.06285237;-0.12509622;0.4023395;-2.0127628;-1.6221629;-2.1275423;-0.6846105;-2.1121428;-2.3506258;1.6747438;-0.8678555;1.0387747;2.5702157;0.3006083;2.182493;-1.2043772;0.16412175;0.2940632;-3.1530695;-0.21914147;-1.4633288;-2.92344;-2.073204;3.8661468;-3.4668467;-0.78490144;0.19585852;-0.28584725;-1.0905632;0.5884258;0.20939058;0.6948516;1.5561182;-0.111886024;-0.018771306;0.29478037;-0.49587116;-0.7513105;-2.8721552;-0.7331727;2.7487395;-0.6037907;1.2323016;0.16177775;-0.30054182;-1.2737467;-1.6435646;1.1441363;1.0952263;-1.8955187;2.3802989;-3.0785904;0.2520077;0.41002485;0.5686576;1.943622;-1.6507864;0.52728313;-5.5878906;-2.2000246;2.6088;-0.87754095;0.22606704;-2.0745485;0.7767465;-0.24820758;0.51715213;2.076969;-5.95174;-0.3234111;-0.59496593;-1.7936682;0.21695858;2.1255844;-1.1099833;-0.52145106;0.08000088;-1.0281643;2.0612335;-0.033095255;1.3275411;-2.6458094;-2.3910983;-0.18692032;2.5067225;-3.1898894;0.8978047;-2.0216072;0.24963547;-0.58288425;0.6264392;2.3171625;1.1951673;0.046969716;0.79959255;-3.2142403;-3.1237483;-1.1468604;-0.83139586;-1.1779886;-1.0776644;0.5832712;1.4426531;0.14647292;-0.48210093;-2.3042493;0.03598613;-0.26871845;-0.81334376;-1.683969;1.1598356;-1.387639;-2.3155265;-0.7568517;0.117879204;1.4544984;-0.5039172;1.0237678;-0.7115756;1.0703561;0.5238371;0.08194172;-1.1055511;0.30035973;-0.8243946;-1.0140231;-1.1549735;0.11863711;0.3556497;-0.8050395;-0.46955952;-0.47519708;-2.6552386;-3.6237557;-0.04787988;0.8870455;1.5126328;-1.4635504;-0.23127756;-3.934363;-1.4221756;0.46145937;0.6337135;3.462826;0.51891226;-2.7457013;-2.2300167;-0.9299683;0.563707;0.488627;1.3965865;0.514518;0.669706;1.36473;-1.0998709;0.7496196;-0.11233255;0.30559787;0.8815133;-0.36754197;1.9705052;-0.49887094;0.048969164;1.2386414;0.791795;-2.54069;1.3246348;-1.1268706;0.010185108;0.71635103;-1.1909299;-0.59618473;-1.100544;1.286526;-0.096214555;0.2619518;0.62598306;-0.6957152;0.13874696;1.4677052;-0.13081844;-0.54482585;-0.7796912;2.0992043;-2.3138332;0.8365045;1.0523292;0.36832586;1.2122765;-1.1114339;-0.38631114;0.5691252;-0.32476696;-1.1291577;-1.2012627;-1.4905738;0.84258145;0.54637045;-0.36832628;2.0635154;-0.5736574;1.0551401;0.9090826;-2.1291046;2.1947358;-0.54239386;2.1581576;0.93023074;1.5561681;1.5798945;-1.0160257;-1.7547133;-3.043552;-0.28124714;-0.4204259;0.5334035;4.7895947;0.36858848;-0.9649788;0.3317463;-0.48973632;1.6835508;-0.00089404074;-0.9244477;3.6312659;-1.0366391;-1.3508292;0.12593663;0.39753273;0.5121058;-1.5419518;-2.5022764;-3.440388;3.1835237;-1.4725211;-0.5440625;-1.4859029;-1.9364507;-0.40981716;-1.1958631;2.660575;0.29295155;-1.7036163;-1.146527;1.0425668;-1.9751495;0.8480235;-1.1183612;3.0786467;2.822233;-3.027246;-1.7321424;-0.7773063;-1.5159848;1.0852919;1.362585;-0.7570161;0.43534634;0.9670426;0.69725865;-0.63260365;-1.4872694;-1.1975809;-0.116189696;-0.52682644;0.009260208;0.25827944;0.08741063;-2.799043;0.12518327;1.3541311;0.8888998;-1.713993;-0.106801376;1.0482885;-1.4779754;0.48540983;2.5739162;-1.2687356;1.0594884;1.306845;0.49896944;0.6472803;1.0036755;2.4328778;-0.38727134;-3.0509658;0.7103834;-0.5956988;1.9867702;0.11556154;-0.058215015;-1.2778586;-1.22345;-1.6547323;-2.0685265;-0.679211;-2.2139592;-1.7081681;-2.5012994;-0.3313269;-3.4433243;-2.1838155;-0.98223203;-6.2031646;0.6319082;0.70919394;0.5506735;-2.7804868;-0.36125243;0.52782285;0.66343254;0.95490324;-3.1528232;-2.884891;-0.68110913;-1.6725466;0.32775003;1.8500241;2.553823;-0.17092793;-1.9335346;-0.5660651;0.7524097;2.1479473;0.19819397;-1.0829113;-0.89004123;-0.23943445;-0.4203081;-0.040315874;-0.42918998;0.8400644;-1.202296;-0.8342941;0.93178546;-0.7859158;-1.2969192;1.0374526;-2.45719;0.4100555;-0.17926608;-3.0574207;0.7554254;1.6110563;-1.6640067;0.7118899;2.105605;-1.0914704;-3.399083;1.761932;0.1578212;0.17567861;2.5455375;0.5248623;0.5822567;0.63106865;1.187522;-0.45766947;-1.0260252;0.43723232;-3.935961;1.9388107;1.8177534;0.27099594;0.26624122;0.07701674;1.4361739;0.15981437;-1.6681323;-1.5586728;0.9924741;-1.588667;-6.4836187;-2.4992878;1.3459784;-1.5247332;1.1167798;-1.1743563;0.79326075;-3.3362541;3.125125;1.3717879;-0.5583585;1.3236898;-1.090999;0.4445258;-1.3411694;2.9070356;-0.9993504;0.21810408;-2.80629;-0.35388264;2.614845;-1.7363511;-3.0792236;0.24164315;0.28445277;-3.2843907;-4.0411925;2.2336092;1.0323347;0.05172992;-0.5527337;0.36879373;1.2802703;-0.41066033;-1.5822251;0.08484406;0.2578052;-1.1479077;-1.8457294;-0.18296394;-0.9967557;1.2081949;-0.837585;0.7720201;1.9916549;-1.8441995;-2.5075862;-2.1465888;-2.7632048;3.2260432;-2.8624477;-0.17852485;-3.864266;0.91028047;2.6777606;-0.66681504;-1.0955542;2.03805;1.1123457;0.9095742;3.3865628;-0.38283914;0.6880528;-1.0282303;0.69470435;-1.3927418;-0.6707454;-4.0819855;1.6523705;-1.2367189;-1.5065634;3.3273673;0.6357244;-3.8785203;1.6504742;0.5484571;-3.759078;0.65944445;1.5218935;-0.48613256;-0.7024955;0.7951164;0.17802323;0.53073674;1.1957537;-0.18601108;-0.030953178;-1.550792;4.3492904;0.18978883;1.464967;0.16194913;2.880697;0.26251367;1.3029864;-0.98888093;-1.5929728;-1.090941;-0.14344697;2.1693017;0.7805477;-1.1755533;0.8782027;1.5460018;-1.4767964;-1.2720379;0.3877914;1.046947;-2.6037233;0.06329118;-1.7631001;-1.2377968;-2.3786056;0.57175463;-0.78766763;-0.23680568;3.3342226;-0.5830545;-3.0560832;5.8709655;1.4364965;-2.845705;-0.09682218;-1.4137568;0.49369547;-1.7235268;-0.79313576;-0.96128696;-4.186035;-1.413958;2.3699255;-0.30662146;0.4933376;-1.9565117;-2.9381034;-0.09651591;-0.3242426;1.0203384;2.6062036;-3.9845045;-1.1807499;-1.6747404;0.64091516;1.8990321;-2.6975672;0.45347822;0.17928603;0.42423993;-0.6847494;0.8675152;-1.940487;-0.76456094;-1.3496819;-1.565463;-0.34804672;1.0677191;1.1960458;-0.7646416;-3.130146;1.9851881;0.30453503;-0.93557626;0.7580716;-0.3503117;-0.10244359;-0.022835165;-2.6192424;-3.6400316;1.2405643;-0.30160275;-1.6086159;0.23021705;2.0043406;-1.7812479;-1.4813946;2.097251;-2.7801619;1.9386297;2.8313887;-0.1402153;0.8101435;-0.14386725;2.5032465;-0.9073179;1.7041804;0.14000157;1.7340605;2.0126882;-0.6537513;-0.19342278;-4.2404575;-1.6175681;0.0639099;-1.9726149;-1.5214518;-3.4715807;6.3397465;0.24897471;-1.3368264;-5.0803294;-0.40781236
0.46852395;-0.99328136;-0.07953595;-0.21267371;-1.199921;-1.2787994;1.0642976;-2.3880298;0.3989668;0.38933688;-0.73990506;-0.11675099;1.0442115;0.79135597;-2.0765004;1.582548;-2.0885346;-0.31600648;0.67172587;3.0237975;-2.4293246;-2.6433737;-0.7985104;-0.5018157;0.10388308;0.17686912;-2.204446;1.1974704;2.7950132;2.0221236;0.82799315;-1.038869;0.22576775;0.22416168;2.6518087;-0.7713942;-1.9404687;1.2264524;2.73348;-0.35355008;0.04223484;3.4240348;4.182972;-0.79973847;2.5427153;-0.9960708;-2.2716827;2.118312;-5.7321405;1.9475842;1.157988;0.4358485;0.3404378;-4.3298078;-0.6833748;-3.2098982;-0.3532803;-2.0419679;0.020894459;-0.7756618;0.6323091;-1.3669266;-0.31024587;0.07811926;-4.733498;-2.817125;1.5731901;-2.3508177;-1.0220032;0.09693364;-4.3458285;-2.2086458;-1.7958614;-2.3637118;-0.9324807;3.3151383;-0.56863827;0.04370168;1.0982004;0.31246594;2.1143808;-0.38888544;-0.5070239;-0.93201923;-2.215882;-1.002413;2.3387456;-1.2622495;1.2489753;-4.8448057;-3.2064116;-0.7772855;0.8178065;1.4952329;-3.0785537;-0.5489006;-0.6031656;0.32303146;0.36999562;-0.88510233;-0.27506253;0.36180332;-3.8203213;-2.4220753;-0.92112684;0.37373894;-1.3633409;-1.619127;0.7428657;1.4375521;-0.18252048;1.6753097;2.5853336;-3.8512156;-0.4584752;0.6459788;-0.59275615;-0.6617177;1.9294009;-1.0206633;0.42086178;-0.3261064;-1.6895732;-0.095285706;0.14187112;-4.686995;0.60921097;0.27879483;1.5816677;-0.27770025;-2.3117971;-0.28368795;-0.13258487;2.5037205;-3.6096697;1.4397893;-1.7846264;-1.0019213;2.6347644;-0.93523353;-0.49225906;-1.2661343;1.1286827;-0.546413;0.61522645;2.8026392;0.77279097;-2.543398;-0.14218989;-0.29737502;-3.165387;-0.44983283;0.44136202;1.16142;3.4482157;1.044636;1.161945;-1.7047517;-2.0416722;-4.112625;0.00029928278;0.08533784;-1.0924158;-1.6931177;-0.43246448;1.5805609;-1.4169313;0.41519132;0.84806806;0.101646274;-0.4658044;1.8450963;-1.5853236;-0.99478894;1.9686148;0.3936085;0.28559208;1.4716631;-2.3968704;-0.4089165;-0.47234756;-0.5503238;-0.9143387;1.0723319;2.3573735;0.30792463;1.4175142;-0.95556885;-2.2481916;0.98838097;0.5301119;-1.0265679;1.5808289;-1.6731807;-0.69803584;3.866758;0.17579783;0.7036905;1.5329567;-0.8074736;-2.20535;-2.5288246;-1.748542;2.0288794;2.0244267;-0.3927736;0.12693714;-0.37912646;-1.4939742;-0.1621241;-0.04683681;0.7370083;1.1317049;-2.0286076;0.71842366;1.1497812;-0.98642015;0.4011261;0.97093517;0.07460905;-0.67428243;1.4948027;1.8600272;0.66500264;-3.0191422;3.1306403;1.342998;1.0088108;2.5919352;-1.2208241;2.887471;0.83475757;-0.7336888;2.5685737;-0.66090107;0.56711787;-4.0709677;0.75089836;-0.19301721;-0.8689797;-1.6480482;0.4953777;-0.606838;1.2363106;-0.6100725;1.7500494;1.5013139;-0.025509318;0.22326379;1.7186419;-0.559183;1.942687;2.6549375;0.025532188;0.77277255;-1.5281315;-0.5677476;-1.8634757;1.2030325;3.3361077;0.7047561;1.2507569;2.037774;0.36658677;-0.64144635;0.42909497;2.2699533;2.1973321;-0.21267055;2.2148721;-0.42963794;-0.66372067;-0.24888778;1.3897482;0.43500513;-1.14986;-1.9239035;-3.7684495;-2.7846763;-1.0555887;-0.23285517;-0.90962136;1.5819743;0.7151619;0.93213457;-1.1384383;0.9090354;0.48248336;-4.784321;-2.1584864;-1.8057396;-0.6536299;0.53253394;-0.3344535;-0.63856393;-0.20596369;3.0600429;-5.122095;-1.7057451;-3.106689;1.1511637;-0.80680966;1.1872786;0.62066156;2.503792;0.9624432;-1.0842645;0.25560576;2.3911397;0.61962456;1.6321706;2.0041325;0.9957193;0.5659901;1.9684315;-1.1887443;-0.85572886;0.03711634;1.1501405;1.2314876;3.127642;0.5061302;-0.63258046;-0.1753402;2.1033;1.6676903;4.1799445;-0.459449;-1.4129106;1.878319;0.7528812;-0.71158046;1.5300709;0.26406798;-0.45093665;-0.48758462;-2.3112738;-0.25555754;-0.14160807;-1.8470973;-0.26465103;-5.351022;1.5806112;-0.56017095;-3.4071133;0.43030393;0.051030315;-3.9304714;-2.5578115;-1.551713;2.42508;2.0445364;-0.1953478;1.8241974;0.16621545;-1.5017399;0.5022864;1.7541974;-0.36058062;1.4116417;2.3334844;-0.9811693;0.5654593;-2.1291811;-0.14457823;1.3185679;-1.3854176;0.16644265;1.391211;1.0337833;0.683936;0.60084337;0.32671204;0.9749439;-0.082873665;-5.371025;1.0927454;-0.11043299;1.276998;0.06203149;0.4099152;0.93861836;-1.2659491;0.37776223;1.0671332;-1.7141623;2.2957342;1.4120133;1.7329813;0.34777328;1.3994815;-3.2936194;0.048679896;-0.75547975;-0.020363979;-1.7397298;-1.0768603;-1.2466843;-1.4078115;1.4385619;-2.2356336;-0.4224063;1.7322551;1.4272522;-0.47045928;0.31194088;1.0481293;1.8296714;-0.1776399;1.027828;-0.46041128;1.9403104;3.026933;-3.9767778;-0.01861802;0.007866509;1.7309446;-0.05174153;0.680141;-0.8308583;-2.1217933;1.3158667;-0.98761755;-1.3696405;1.9435563;-0.8038805;0.7622044;-1.9760722;0.92410105;-0.11822591;-5.896257;-2.0830152;-1.3181306;3.6686811;-1.7666551;2.2499216;0.4741682;2.354655;3.8253398;-4.2512507;-0.8098469;-1.4824784;0.1500034;2.5795097;0.2996013;-0.13725515;-0.75806147;1.5460347;0.590319;-0.43357247;-1.6964175;-3.844596;-2.1276565;-2.282576;-0.5987731;3.6061938;2.2266407;-2.287156;0.5372956;2.1448774;0.6219819;1.3740066;0.9035467;1.8705025;1.2043781;-2.4991713;0.16206202;2.5445719;-0.6276201;-2.8494928;-0.7254268;1.124057;0.24019213;-2.8438625;2.7200394;0.034361053;-1.6633416;-6.5167456;0.96067744;0.74230266;1.057008;1.9338764;-0.18297447;-2.602373;2.8411224;-0.5661703;-0.3527186;1.1210766;-2.5924606;0.13324092;2.3190916;2.0585692;2.9439042;-1.4796927;-1.4064465;-2.8327768;0.66610855;-0.6607374;-1.457795;3.392386;-2.4152696;-0.99046;0.7831181;3.499789;-2.6983807;1.7817534;1.8678956;1.9597712;-0.73225814;-2.6307807;-1.9964918;-2.8479114;-0.8047052;-1.1731161;-4.455966;-0.62126607;-1.1426473;-0.549219;1.4063995;0.77537274;2.7969317;2.4308279;-1.2329038;-0.3558664;2.740551;1.8461227;2.6510267;-0.27894118;-0.44687074;-2.589412;-0.5464471;1.7745211;0.4232851;-0.8146684;-3.8630474;0.22706094;-1.7053035;-1.4306879;-6.0121155;0.6038423;2.0345154;2.135922;-2.1936522;4.4686227;-0.12765963;0.825897;1.3783191;3.0650492;-1.0350144;2.158022;0.5129027;-2.858692;0.8930342;-0.13927104;-1.0390744;2.6478755;1.3938423;1.044114;-2.6338923;2.737477;0.0317215;-0.8966616;2.1599367;0.43075448;0.048546873;1.476485;-0.42888367;-2.0704434;-1.0614069;-2.6273084;-1.8433454;1.2160219;1.1451716;-1.5384911;-0.48001993;-1.7718408
-1.1083301;-1.1289688;0.14849767;0.68145853;0.8329866;-2.3305435;-0.74205357;-2.9647975;0.41560528;0.6786115;-1.0316994;0.8574197;0.9153149;-0.6485664;-1.1474483;0.22853017;2.1621003;1.5297042;1.001116;1.8975661;0.5045253;-1.830573;1.7641525;-3.0063274;2.7678144;-0.8347745;-3.0340934;1.124633;0.06132659;1.03516;-1.6323987;-0.14498793;-0.1857394;0.78967756;-0.32092056;-0.8856264;-3.1769602;0.82187337;-0.50395995;-2.0829103;0.2875953;-0.3545408;2.5666795;-2.8037925;2.3951209;-0.31524196;0.8286169;2.0583858;-3.368469;-0.11391934;-1.4616839;0.15614253;2.8739014;0.73582304;-0.48030832;-0.049195636;-2.0612;3.4550064;-0.6911113;3.3569028;-1.5865763;-2.3529212;-2.7695384;-0.2585587;0.10977098;-1.364616;3.1831174;-2.031342;-0.9090344;1.3031099;-2.5192394;1.7810206;1.6262057;-0.29622328;-1.2875727;0.94109416;2.187527;2.5047233;0.8736803;1.0461504;-1.3488046;-1.3106916;-0.95466423;-2.0073407;-0.66728044;-3.6634905;0.7644735;0.52710843;1.5415684;-0.10722432;0.15158294;-0.5814244;0.4629953;2.2675464;-0.07282822;-1.3528069;-1.4182703;-1.5693189;-2.8955424;-0.32700464;1.8034745;-0.29591227;0.13143758;2.195654;-0.8448922;0.93588257;-0.26554278;-0.31558788;1.558823;2.7242835;-0.02486811;1.6207694;-0.34537455;1.2941301;-2.2333732;1.6751438;-0.044964842;-3.177217;0.23751253;-1.8278285;-0.16446589;-0.018255396;-0.7189481;-0.09584113;-1.4739826;-3.095908;-1.2191335;-1.6165888;0.21271907;-0.3999719;-0.9239885;-1.1516496;0.49927363;0.514287;-1.5606184;2.4107215;-1.3434317;-2.444343;2.251167;-0.17467456;-1.123029;0.9275003;-1.0609573;-0.15536949;-0.92906517;3.3275423;0.32100582;-2.7208571;0.25283974;0.13756616;-3.902111;1.2704345;0.70714545;-1.1560707;-1.051425;3.7392366;0.71981186;0.037880547;0.806699;-0.58475393;1.0898622;1.036246;-0.96805704;0.07673051;0.26603276;3.4565525;-0.22618616;-0.040496226;-0.45280728;1.0484996;-1.8827678;-2.006987;-0.39548284;0.3218621;0.96257657;1.0634521;2.6303394;-0.2395498;-1.5197814;0.3021512;-0.1109438;2.4590213;-1.5017638;0.9724019;-1.1415994;-3.064628;-1.2432901;0.6101026;0.87053776;-0.8958998;2.106263;-1.3579702;-1.1450764;0.68653804;-0.9990118;-3.1670356;-1.0936798;0.37015742;-0.6627348;0.349312;-2.1185114;2.023554;1.2339501;-0.36748132;-0.11995808;-1.4784429;-1.6446071;0.4460507;-0.19950382;1.5256236;1.071503;1.1561376;-0.51719224;-0.92042035;1.7926373;-2.0855742;0.6891435;2.1927686;4.7422404;-0.68344903;-1.2671758;2.0116973;0.3863211;-2.4824383;-1.6520957;2.532965;2.3340952;1.9929229;-0.9845658;0.80772656;3.913903;2.237262;-0.22776432;-0.05860507;-0.8731947;-3.3526936;-0.32008195;1.8799069;-2.116073;0.36586943;-1.9823023;-0.6469347;-0.94040114;-1.5765123;-1.5021918;-1.9216763;-1.2787069;-3.0107696;-1.647537;-0.35262063;-1.9231349;-0.6786145;-0.62551904;-0.02779441;-1.4980303;0.13590851;-1.9207201;-1.305011;1.9009378;-0.62808716;2.3003566;-1.6478175;1.0346222;-0.14629604;-2.9959779;0.978061;1.2533388;-0.6402504;1.1052797;0.47910884;0.71344924;-0.43125257;-1.1989161;-2.345102;1.0226065;1.7976359;-0.38268745;-0.04786592;-0.109648764;-0.4932834;2.176273;0.52505493;1.404737;0.31194392;-0.67032415;-1.9504265;-0.6310826;0.15676816;2.4702199;1.7375934;1.0957031;-1.8727642;0.99139017;-3.0305533;-1.9090087;-0.2558098;-3.2184439;-4.589074;-1.2467161;-0.79003227;1.1336263;0.8342219;1.2964641;-2.9154239;-2.5268087;1.1508492;0.7278948;-1.9161443;0.94032305;-1.4515631;2.636914;1.9414546;1.5744611;2.828082;-1.8834383;-3.783961;-4.878346;1.4265649;3.9671407;1.9746829;1.6875768;0.29063973;0.47257352;1.741387;0.44586846;-3.8786175;0.8762506;1.5801474;1.078458;-0.42979118;3.19232;0.1328025;1.2860947;-1.9884804;0.93739116;-0.45345086;-1.8170363;-2.177247;-0.312381;-2.2335463;-0.30893067;-3.6500633;-1.6157936;0.6126066;-1.847806;0.51362824;2.477633;-2.1830096;1.5107853;0.38352248;-1.1376991;3.3759418;1.3538127;-1.4015042;-1.8068404;-3.8752875;1.1046814;-0.26443157;-2.9512887;-0.85768795;-2.4752738;1.2052152;0.039492432;1.6038952;-2.4913833;-1.2209396;-0.9306648;-1.0201004;0.14552121;1.8018168;-0.31426114;-1.7708673;0.24430731;1.5559818;0.28052405;0.37403694;1.3305445;3.4630694;0.031239206;-0.0006777296;-1.2737306;2.3207784;1.3016546;-1.322767;0.552095;1.6067063;3.033618;1.5073268;2.4233623;-0.8901415;0.7716485;-1.6767974;-0.6699219;1.3851677;0.70972294;-0.21550612;0.84727865;-3.6295292;-0.66758126;-0.19333248;-1.0178484;0.64015824;2.2853048;-0.7168985;1.7318;-1.3680198;0.0009257466;1.6728497;1.0353146;-1.0419796;-0.3692118;1.9748155;0.15792292;-3.5833547;4.056077;2.929465;-0.77086425;-0.13233054;1.5413777;0.8845898;-0.40630126;1.7771028;-0.93173397;-0.89022934;-1.2453053;1.1087227;-2.0338364;0.87571174;1.7083273;2.3936489;-3.214304;0.9925417;-0.09734872;-1.4310104;1.0324861;-0.7486708;-0.09720408;2.0925667;-1.0652083;-1.103104;2.3633463;-0.372953;-5.2340674;1.4196328;-2.7255745;-1.2676898;1.6689602;-0.009698632;1.2502984;0.52325165;-2.4541085;-0.07108271;-0.79967505;-2.9927862;-2.7207508;-0.28639722;1.2694182;-1.1912079;-3.5891342;1.4366208;-0.71806115;0.19740358;-0.5944346;4.620934;2.7897575;-2.719374;-1.0029572;1.617181;-1.8438483;-4.1525493;-2.2060585;0.35544494;-0.023657141;-1.7971314;-0.8165483;-0.5415147;1.0583947;1.048581;-0.2593968;1.499378;-1.8453534;2.5272403;2.16858;0.91434735;-0.22466278;1.0006231;-0.24401602;-1.5538588;-3.7015853;0.12739176;-4.9302917;2.2765734;-2.8239934;-1.845668;0.06988926;-2.2434921;0.26134568;-0.16664241;0.33033198;1.5922523;1.722126;-2.830883;-0.90177655;-0.6155217;0.75077;-0.9261524;-0.16033064;-1.0655682;-1.4161193;-4.403198;0.9080269;0.8104051;0.38958555;-0.52619725;-2.3513885;-0.48259005;0.12298413;0.25233704;0.6488828;1.0816973;2.3024087;-0.36777115;0.7228547;-0.52443177;-0.15509176;1.2221049;-2.015122;0.09272031;-1.5577213;1.5327739;1.5499575;-2.4861643;-1.2964116;-2.096193;1.2055638;0.10906038;-1.7205737;1.6137258;0.7876871;0.7664543;3.1388474;0.70586765;-1.1769427;3.3710153;-1.4326782;-0.5677888;0.35670343;-0.25792614;-0.41658375;0.06919636;-2.0589175;-1.6029829;2.6938403;1.2995906;-1.1033647;0.7245558;-1.8517412;-1.4222586;-1.5503722;-1.2130431;0.48678902;-2.103841;-1.2240101;2.306335;1.5337188;2.432014;-0.59438777;0.21087843;0.2480547;0.9841302;-5.9821167;1.0603002;2.6140115;-1.7542155;-0.37956676;-2.14517
-0.036962282;-3.779089;-0.7700239;-0.48423353;-0.26261646;-2.2130384;-3.7355158;-0.89396644;0.41534883;-0.9212536;-1.8912979;1.0202289;-1.9445527;-0.9148446;-1.4880615;1.2685435;1.4464692;-1.0296166;0.31946945;1.3922566;0.9284266;-2.6936781;0.9377526;1.8989888;-1.3254601;1.9573427;-4.399747;-0.80623955;-1.7024968;0.289107;0.84921515;0.8991994;-0.06547155;2.0671866;-0.13882598;0.33643615;-1.574823;0.5902995;-0.61248046;-1.3699583;-1.586556;0.74810183;0.5786943;-1.1729144;1.9353259;1.7072793;-0.042638574;0.8848287;-0.42062962;-0.5313324;-2.020951;1.2601364;-0.57714677;1.0482322;0.36354503;-1.858317;1.6072923;-1.080023;0.5159967;0.5694567;1.784352;-0.17599079;-1.464418;-3.7703774;0.8211325;0.19195686;0.66531533;-0.49354684;0.7200872;1.4930054;-3.0682797;2.4625883;-1.3493207;-0.42683408;2.7574675;-0.45021176;0.9781885;2.2921357;0.87198293;-0.6421718;-1.7630645;2.2520418;0.33854398;-2.4208882;-0.10514773;1.0211395;4.0624266;-0.6959744;0.4461686;-0.22171003;-3.128073;-0.027725345;0.31413203;0.7295972;0.68659884;1.1720977;-0.81283927;-1.9854861;-1.2430434;-0.80763984;-0.75866747;-0.37274975;-1.4190363;0.7757082;-1.0771034;0.68874717;0.060721435;-1.6047975;-0.9563467;2.4314694;1.0189523;1.0670139;-1.13313;1.003567;-3.12398;1.4562255;0.09897366;-0.9106377;2.866859;2.2174559;-0.23369852;0.3122638;1.1152517;0.0013389008;0.77080536;0.9116542;-0.20331126;1.0502248;1.0469196;0.290012;1.4132457;0.5250683;0.110824555;-0.19444588;-2.2076027;1.8928703;-0.6814975;1.8005354;1.4734768;-2.4498105;-3.0212712;3.9174788;-2.4201057;-0.34730068;0.96027166;0.30150893;-0.58571094;-1.6190777;0.64077026;2.283366;1.5535343;1.1232418;0.7874411;1.6654624;-2.0542161;-0.0341096;0.92176443;-1.1533283;-0.48191962;-0.5508179;0.5832446;0.49376652;-0.49283734;0.67931944;0.11068738;-0.23363042;1.2482908;2.6068618;-1.2001836;1.4050632;-1.0402045;2.3630137;-1.0599189;-1.2641191;-1.4927026;0.7020314;1.6934181;-0.30574292;-2.1204443;0.32328543;-0.16465549;0.1685542;-3.083422;2.4002244;0.7831499;-3.2770846;-1.1016446;0.39170858;0.47940618;-3.362063;3.0797858;-1.1010046;-1.4075459;0.26266673;-0.5129139;2.2500505;-0.8560071;-0.1179615;-1.759129;-1.1120057;-0.27987957;-0.84871864;-0.13821055;-0.64106387;-1.3017904;-0.3339166;-0.55175596;0.6417801;1.3282909;-0.4390112;1.1178924;-2.2965093;-0.71527255;-1.4838698;1.5971202;-1.6975064;-0.92073715;1.1730645;3.3628182;0.2314361;-1.348753;1.9916357;-0.8364556;-0.4634628;-3.558452;0.41560706;4.524259;2.6935833;-0.4038096;0.44257456;4.2329826;0.92403555;0.90942484;1.2170894;-0.0179108;-0.8771775;-0.24054442;1.3019437;-1.2679291;0.47635868;-1.4250246;1.1293452;-0.6292019;0.075388506;-0.68484175;2.0087895;-1.6797539;-1.4804466;0.5961143;0.43319663;1.5468335;-1.1670004;-1.7987593;1.7602333;-0.1489897;-0.46066776;0.45406872;-2.959668;0.7739299;-0.90049857;0.5207756;-2.4447281;-2.0592062;-3.3658912;-0.20395866;-1.0649605;1.2583369;-0.3751765;1.5637028;-1.4634804;-1.912168;-0.550455;-1.2088766;0.3715877;0.115821205;2.0510006;0.61310107;0.98811793;1.8899219;0.6563182;0.8408968;1.7726395;1.3388287;1.1900104;0.29667583;1.084073;-0.95135367;0.64555013;-0.05428139;0.33768195;0.09106971;0.8990475;-0.7906988;-1.813872;-1.5061262;-0.038389705;-1.7239784;-5.944558;0.5376395;1.616137;0.14803047;-0.5502179;-0.8525933;0.37712714;-0.58300704;1.197335;-0.50121933;0.8663501;1.2119392;-0.07863676;0.38557193;-2.5758998;0.43864065;0.77347606;1.2481563;-1.1890053;-7.1532793;1.2265593;1.776814;-0.08496702;1.7131131;-0.68304837;-1.3158371;0.14313899;-1.0954336;-0.40733847;0.36028448;1.767913;-0.18323854;1.1955665;-2.0108337;1.4131027;1.1426227;0.6413319;-0.22459874;-1.9124061;0.11792886;-0.84441316;-0.4985666;-0.7788517;1.2396442;-3.1332955;-0.031024782;1.7123742;1.5005959;0.8017309;0.011639234;-0.6371587;1.8247459;1.4828554;2.0387719;0.7443065;0.6248707;-0.8236124;1.617905;0.28657517;0.753082;1.669258;-1.590411;-1.1854556;-4.539962;-0.4981841;-1.322773;1.1759787;-4.8638387;1.9459018;-3.560929;-2.9514081;-0.5428988;0.08079132;-3.1376734;-1.0637614;0.35917145;-0.26975352;0.29884216;-0.107128285;2.868802;0.6956939;0.5787836;-0.8353284;-2.3464017;-0.83533543;0.9426765;-0.20229456;-2.6352453;0.20634207;2.823247;1.8109511;1.6127656;-1.2812178;0.68686724;-0.3068923;-1.9269458;-0.7871806;-4.4785876;-0.04764673;2.0070064;-1.0451324;-4.283573;-0.47700632;-1.1148611;-1.4604388;1.1899066;0.46282706;-1.6610042;0.6259024;0.3089059;2.8078642;0.037826017;-3.6780355;0.17675723;0.792194;2.8741853;1.4532152;1.6375004;1.429446;0.3917311;-1.9256907;1.0728102;2.0986621;0.5434112;2.4192245;-2.4780517;-1.9270953;0.3059396;-0.7595762;-3.1496668;1.3551326;-0.5782054;2.9391994;1.5698123;0.5460226;-2.010786;2.0335596;-1.3793576;-0.283134;0.22208458;3.781263;0.3103553;-1.1013622;0.3372405;0.07788104;-2.0331352;1.6728511;-1.4326208;-0.11481812;-0.03027088;0.14496312;-1.0524515;1.0438215;0.052981216;-1.7252728;-0.87474287;2.0694575;-0.9543389;1.2782912;2.985156;0.3895758;0.9652381;1.3459601;-1.4677358;-0.8844811;0.71432614;3.6428046;0.17107716;0.4052644;1.1689659;-2.0221038;-3.7693973;-2.5654619;-1.5400192;-0.50237197;-1.3442988;0.37273267;-0.46968627;1.192959;1.2660285;3.8800533;-0.0075486023;1.0591128;-2.7687662;-1.5392437;-0.60072654;0.052882686;0.012843151;1.4165547;-0.77459717;-2.5578926;0.74309903;0.27836588;-0.6300021;2.444201;-1.5851914;-0.74750113;1.4829376;-0.8870884;-2.337526;-0.438056;-1.6318436;-1.689873;0.20170182;0.31094447;0.3709183;1.3995814;1.9538782;-0.43436483;-2.6643996;3.1328049;-1.8350854;-3.7292695;-1.2833307;0.92388964;0.7452423;0.43248928;-2.9696681;-1.4838426;0.122508146;-0.80552566;0.52739674;-0.2501499;-0.28385466;-3.0945122;-1.3098319;0.45986947;-1.0334189;0.30329064;-0.5671655;1.9644443;-0.9951854;-0.072706684;1.0856627;-1.5212321;-2.8021874;-0.19412394;-1.4926198;-0.18273349;-0.4249336;-0.6701346;1.3377429;1.3166922;2.6008294;0.5757896;-1.1382504;1.124964;-0.12595564;-2.0639222;-1.1136321;-0.9703679;-0.34558886;-2.6729705;0.34521365;0.43312815;0.3031099;1.766069;-0.6120201;0.64043415;-0.57258683;0.03043713;-0.89169884;0.5893198;-0.6781056;0.9700972;-1.1021861;0.84331584;1.5535839;-2.7761314;-1.0353385;2.2636662;-1.1860569;1.4810929;-1.4138321;1.3081613;0.13039592;2.997075;-1.4428891;-0.002740787
2.7044787;0.70233077;-0.47558233;-2.1674862;0.15033676;-1.9442384;-0.12720022;2.1409314;0.5816917;-1.1434705;0.74587566;1.2859915;-0.73016876;-0.8588548;-4.2755237;-0.56006336;-1.9805914;-2.5531313;0.05072558;1.3579777;0.52622133;-0.29244515;-1.630441;1.2632027;-0.72148687;1.2087356;-3.5003817;0.1640126;-0.5795254;-0.20516528;-0.6759997;-0.7142933;-0.024218788;0.12576713;-1.0345365;-1.603761;-4.2873483;-1.5923544;2.9841313;1.4122413;-5.113774;0.32880604;0.3949476;-1.6759992;3.3123722;-0.1621348;-0.40885344;-1.0778091;-0.14147893;-0.14257118;2.4084253;-2.241042;-0.4014664;0.2577081;0.2669531;1.6316878;1.3836489;-0.6871218;-0.41616014;-0.5019707;0.106613874;0.22537367;1.3406875;0.8852572;-4.45222;0.34870347;3.4837263;0.63723874;1.6472064;1.5782198;-4.508924;1.0213997;-0.6449773;-0.7399882;-0.58750373;-0.83683556;2.4874673;-1.6319684;-0.04321724;-0.10308816;-3.9516003;3.8791335;-1.1271917;-2.4629438;0.44408625;-0.64366394;1.9450176;-0.27591413;-0.13274886;-0.03992658;-0.44256824;0.13626312;1.2196889;-0.5369617;-2.7463965;0.029132422;-0.7224862;-1.3733428;-1.0452251;0.19725291;0.88071275;1.3567808;-2.8775904;1.4184116;1.166683;1.0784099;-1.4094094;0.34651673;-0.36487535;0.26039815;0.67660105;1.4751332;0.76077735;3.7169569;0.8716852;-0.62769717;-0.60927385;0.8541674;2.726448;0.8102702;1.4052715;2.1744804;1.2872882;-0.015539476;0.22786455;-0.048264686;-1.9078119;1.5078555;0.76577526;0.9702444;3.3301497;-1.0135096;0.2312802;-1.8293954;-4.898655;-2.6269414;-0.7149366;1.2933723;-1.2255207;0.95797545;-2.254515;1.6027566;-2.5678813;0.8879193;-0.09878628;0.21682398;0.21899056;-3.47067;-1.8567692;0.7993133;-2.4393678;1.05798;1.4831971;1.3568717;0.32382324;-2.9020717;1.3133496;-0.54973775;-1.1097522;0.1157353;-2.4843812;1.0966899;-0.19884741;1.289901;-0.54042524;0.7275518;0.8929488;-0.5694905;-0.8738788;-0.41134524;3.2529318;1.4564362;0.44918123;0.060112294;1.061975;-0.44300264;-0.009325336;1.2322861;-1.8336456;-0.50130284;0.65804166;-2.7677517;0.2772918;2.8071733;0.44266132;-1.7066792;-0.1297203;-1.3138888;0.13488843;-2.5894606;-1.3986826;-0.34202975;-0.5250652;-0.3067738;1.6234149;2.1436317;-1.936454;-0.63230467;3.3298597;-1.7158155;-0.5115204;-0.82517445;-1.8971953;-0.7417227;0.62041897;0.10912754;-0.3271948;3.2784133;1.331678;0.7514951;-1.3834593;-1.1054841;-1.5798616;0.4117833;-0.67752796;-3.2066467;0.9273053;0.5696072;1.9846878;-0.5045033;0.7152623;2.2193236;-3.2514079;-0.48571092;-1.1795745;0.07336124;-1.7912388;-1.6460581;2.1729608;2.1687057;-1.803233;1.1947001;1.1832176;1.6965133;-0.96777;1.3607272;-3.2190852;0.28698996;0.76828873;-1.539771;0.92852974;-0.22373238;-0.5921263;1.1526221;-0.014003246;2.9215982;-0.6077673;-2.373212;2.1412737;2.015008;2.2450972;-0.49826628;-1.9372035;2.624907;2.7954865;1.6284935;1.130749;-0.08297057;0.09915311;-1.0877482;-0.86160713;-0.5468027;-2.9648457;-2.4117901;-3.2522278;2.1069543;-0.06629355;-1.3171738;-0.08675286;2.5204735;-2.1071985;-1.2723887;3.0574584;-2.745913;-1.6873713;1.7926503;-1.0476575;-4.5789614;0.1757681;2.2034657;-0.74367625;0.8381317;0.63204086;0.5210744;0.9323219;-0.7142902;0.33735836;0.67127067;0.39989173;-0.116146885;-0.13220972;1.1260555;-0.47743773;2.1160896;2.0700107;0.1400325;-3.5057561;-4.4480352;-0.4113612;1.5940368;-0.0037585;-0.50560933;1.4394034;1.3502873;0.5454379;1.9275267;-2.9212668;0.6758434;-0.116265684;-0.27600113;-0.8135999;-0.1862268;0.8018491;0.13397817;-0.5566907;-0.49008915;-3.0497591;-3.7682238;1.3771195;0.44565055;0.09867974;0.19188048;-1.2364706;0.5256384;2.0766385;3.857594;0.46656382;-0.2456305;0.22802961;3.7049584;-2.5555396;3.8997726;-0.0372439;1.2709906;0.24116766;0.46380404;1.8187737;0.2812788;2.0219605;1.228467;0.22177225;-0.7148241;-3.7663958;-0.40108502;-2.0077174;2.6091218;-0.090841405;-1.0622184;-3.486117;-0.53025997;2.6769674;-3.4247677;-1.8769618;-0.40838477;1.6418126;-1.0226021;-0.41664222;0.6336493;0.68726647;-1.2345734;-0.55265677;0.537241;-1.3017433;0.48284483;-1.9674381;0.56264305;-0.8644333;0.9962217;-2.0761943;0.17092912;-0.01701834;-3.1021497;1.5355269;1.090701;-0.12969235;-0.85100543;1.6325547;-5.007878;-0.10261189;-1.7850181;-2.4238648;-2.9544575;-0.29080307;0.5150063;-0.8869302;-0.7126213;0.9970797;0.96584636;-0.13104482;0.38038653;0.56767565;-0.08291929;-0.5732936;-2.0631585;-2.692089;3.4497724;-1.2544402;-3.155536;1.1106892;-0.5512199;-0.008380227;-0.92251325;1.642076;1.2688361;0.25042588;-3.9117732;0.4339151;-0.7026727;-0.4904736;1.3473102;0.80743945;1.3988177;3.7928762;1.8321856;0.20465983;-1.6681263;-0.0026478309;0.52996707;-0.29826587;0.34046605;2.7426708;3.5073464;0.91432583;-0.80313116;2.6598272;-0.38730037;-3.6870754;-1.1121993;1.1269315;4.079648;-0.8317613;1.1531564;-0.4877247;-0.57702553;-1.2866873;1.8078163;0.6172362;0.005770433;1.363389;0.61101115;-0.62853885;-0.1453516;-3.9215431;0.24905163;0.06971707;-1.5712023;-1.1171;0.10222941;-0.5472266;-1.2486485;-4.819811;0.23076625;-0.16086437;0.6877177;1.4944376;-1.254119;-0.55790585;-3.0666637;-3.2359235;-0.4320286;0.91387016;-0.60341823;-0.24319616;2.0406787;1.1555184;0.055622574;0.39827198;-0.34413406;0.7133388;-2.0246127;-1.9768013;-1.3293321;2.1994362;-0.98541886;-0.6823253;0.53312355;-0.61302966;1.3007141;2.1201339;2.9056706;-0.09210597;-3.22483;0.58135146;0.1160855;-2.101175;2.0928965;0.07519013;-0.22441763;-0.4979599;0.018242227;2.0245032;2.088858;0.4856046;0.10865248;-1.6812267;1.2158984;-0.9268257;-0.3478207;1.2975824;1.7920381;1.8888818;-0.26223457;0.87493473;2.986045;-2.393806;-1.6339276;-2.5599978;1.6606128;0.22919685;-3.5531063;1.257904;0.09547328;1.4141868;-2.0123363;1.1962432;-1.5440311;2.077515;-0.2704111;-1.6447247;-1.2625285;0.8663994;0.56077176;-0.5765602;-0.14571841;-0.1372593;-1.8461118;-1.4971621;-1.2849543;-0.3120152;3.1002336;-0.13444689;-2.1043386;-2.1882896;-2.2629354;-2.5891192;1.2861961;1.6379906;1.6901753;-4.511588;-0.7782759;1.5998365;1.0504804;-1.3054675;1.9955369;-2.223324;-0.1576115;-1.1604613;2.0651634;-0.35920483;-3.0482113;1.9424981;2.8995867;1.9094344;-1.0508502;0.75560075;0.49285036;-2.3746603;-0.3456604;-1.941266;-1.52979;-0.082003444;1.4410937;0.96066165;0.020774564;4.1289;1.622063;-0.6941662;0.023248253;-1.3222188;0.30568632;-0.6590663;0.53338104;0.45394266;3.0650403;-3.4785745;-1.8476973
1.9276634;0.12845655;-0.7447134;3.0472577;1.4501029;-2.2458315;2.5553207;0.79209375;-0.90449595;-1.7826283;1.8757503;-5.0515685;-1.3498265;-0.42650762;-2.386816;0.99651045;1.35703;-0.3297373;3.7184398;1.527592;0.7883299;-0.43454155;1.283501;0.79134387;1.1718286;-1.8748521;2.5149574;-0.6239919;-3.803123;-0.76327026;1.6932847;0.8526038;-0.2205928;1.6473609;1.5232126;-0.71255225;-2.8548853;-1.1445843;1.1427467;-1.8488005;-1.0609808;-0.66924095;2.966624;0.639088;1.3066144;0.7298428;-0.6938648;-4.3197985;-3.934298;-0.06530308;1.0347192;-3.7373602;3.3936517;0.39330435;2.16745;1.1494142;-2.0966442;-0.91811985;-0.15831089;2.0186217;-0.87234473;1.0720143;0.51843864;1.4252285;3.0247872;-0.77313936;3.394966;1.867634;3.2953858;0.76390517;-5.7670774;0.8068761;-0.5570738;-0.28448552;-0.75963587;-3.3139024;1.7075014;0.54915994;-1.3888721;2.9484105;-6.67956;-3.1482682;-0.5202575;-2.3092532;1.6582243;-1.3876435;3.2014623;1.0022485;-1.9930967;-3.620506;-2.632862;2.1273093;1.2027259;0.99343747;-0.17488317;-1.9783859;-1.714104;-0.31948227;-0.6963859;-0.5461428;1.3785766;3.382721;-0.6874636;0.692746;0.7887331;-0.7957286;-0.20082064;-1.6789417;-0.24697936;0.69911134;-1.4852858;0.9016346;-0.93010974;-0.8484576;-2.4821913;-0.18333429;0.24644744;-1.7323669;-0.8295635;-1.0394708;-1.2452;-0.51526153;1.1362454;0.42749554;-1.1073551;4.1944227;-1.1988497;-2.5450764;0.6870691;-1.940141;-1.1382293;-1.2339587;0.13728508;-1.0131072;-2.3878007;-0.8347916;1.2949221;0.32536194;0.88892436;0.8599778;-0.4554582;1.3563802;-3.807021;-0.27318162;1.1781458;3.4940069;-0.6030926;-3.4082422;-0.024525067;2.4278524;-3.4838157;-1.634563;1.2709712;1.2057117;-0.04445952;-3.6665921;-1.4769492;0.8486543;-0.88159263;0.08594287;0.8965927;-0.5775559;-1.7833703;0.5284614;-0.4208609;0.22444932;3.530265;-2.2695317;-0.6692038;-1.3143988;-1.1197202;-1.8267571;-2.931714;-0.33525905;1.8229434;2.5615394;0.2092325;1.6859723;-1.8631138;-1.0196351;0.8203313;1.8261935;2.4437783;1.016125;-1.3753083;0.27452922;0.14997162;0.30476195;0.1704929;1.0744832;2.3868957;-2.3610744;-0.26924664;-2.4505198;2.0805862;0.06823722;-1.6955125;-0.9706244;0.33273852;1.4155903;-2.046149;3.327182;-0.34786558;-0.37303188;-1.077829;-0.31008276;-0.94055784;0.6372266;0.8879617;1.3859802;-2.6380332;-0.35501707;-0.78131473;-0.2594109;1.5779569;-2.7009532;-2.511335;-1.7286062;0.21882054;1.5138948;3.0645947;-0.5338145;-0.06451708;0.7850718;2.1278741;-1.5198596;-0.4501394;1.3612094;0.9818519;2.684386;-1.196467;0.6367641;-0.2563818;-0.9448029;-0.23366381;0.14350234;-0.4838879;0.7604055;1.5232433;0.96351177;-0.14683835;1.679375;-2.8601425;0.76092124;0.6848773;1.177265;-0.062453765;-1.4447324;0.55869645;0.010175076;0.67667544;-2.491784;-3.4588442;0.07230564;0.689231;0.98869395;1.5566949;-2.9152083;-1.131997;-0.65622944;-1.3521752;-1.1391991;-1.802101;0.35665414;-0.20879222;0.941707;-0.89022344;-2.4867456;0.24949092;0.28495026;-1.5036052;-0.6466467;0.25929776;-2.0697684;-0.022780579;0.71575886;0.9695115;-2.2719178;-0.028546976;1.5794264;2.817158;2.0349197;0.70269674;1.3239677;-0.4403861;-1.1920857;0.6003044;0.36288756;1.3077958;0.9773114;-1.6122084;1.496213;1.5171729;-2.6950064;0.5892927;-2.4504201;-2.6040034;0.20055076;-0.9092093;0.49145615;-0.41907838;-1.001485;-0.75644654;1.065958;-1.1498873;-0.58068967;-1.7695664;0.53255326;-0.1932159;0.7256412;-1.0464872;-1.0189756;1.8970046;0.41524732;-0.2180568;-0.79284483;-3.0300333;0.34404644;0.110547;-0.6672699;0.7667855;-1.002198;-0.7724247;-0.7551642;0.39267978;1.8876806;3.4441428;-0.66285354;-1.2730951;0.8671081;-0.27653313;1.7098058;-1.4835268;-2.8948421;1.0420688;0.3678372;-1.1790285;1.5501972;-0.7808595;-3.9301248;-1.3469242;-0.45096743;-0.630241;-0.9815599;1.9979196;-0.56456906;0.04969978;-1.5357124;-0.114184715;2.2863257;1.9408708;-1.7115545;1.1687883;0.13396707;-0.5531581;1.3471125;1.3816621;1.0057579;-0.767232;1.8808737;-0.71966577;-0.29338396;-0.8665913;0.37754846;-1.6012915;-2.309048;-0.9497413;1.7281427;0.98764336;-2.9957898;-0.5490294;0.07374245;3.3965178;3.8140388;0.5165133;-2.0079906;1.9136199;-2.9356372;1.7570375;-0.8928302;-3.6925998;-0.699866;-3.4806356;0.29769757;-0.8712697;-0.27335045;-0.6585939;0.16451618;0.47219226;0.30315113;0.013933634;0.27286446;-0.6654295;-0.84298474;2.0534265;-0.25989875;-1.0454011;-0.011321258;-0.31422025;0.28503287;0.32750148;0.0063258293;1.542314;-0.6790463;-1.0932757;-2.6866496;1.2917321;-0.44981214;-0.163753;1.0773513;0.86335474;3.4334571;1.3483363;1.375298;2.3394716;0.27164096;1.0260129;-1.5616797;1.3371234;0.89056927;-2.3896768;-0.40954658;1.0970243;-1.510575;-0.19775262;-2.6139257;-3.8404748;-3.2156532;-3.4840965;-2.3449545;-1.6130162;1.8977841;2.2534618;0.7320377;-4.8236756;2.224055;-1.2108941;1.6806439;0.5999394;0.943878;-0.9124907;-2.7297301;-1.5428034;2.0119874;-0.03694872;-1.1427974;1.3215934;0.71488357;-1.586561;-0.5419563;0.3085332;1.1425215;-2.1201131;-0.1937557;-0.93687433;1.5708686;0.108324975;-1.6653745;1.2401658;-0.009765414;-1.5935032;0.7794;-0.6438268;3.8585024;2.615752;1.3681405;1.2064967;0.19382106;-0.42604685;-2.4740074;2.1282077;-0.1627763;1.8598356;1.6809826;-2.7303743;0.42180517;3.2264736;3.25112;0.13538131;-1.1017067;-0.09172873;-7.163791;0.46925667;-1.2987299;-2.0512605;0.20474619;-0.24895868;-0.5105157;3.1787472;-1.2687205;0.5355334;1.8690035;0.52479815;-1.2106837;2.1791053;-1.8945092;-1.235695;-1.1078413;-0.75023377;2.435803;-0.85129267;2.583627;-0.66771054;-2.1603336;-3.7097476;1.4879419;-1.1037942;2.2058103;1.1448917;1.18144;2.046991;-0.34837916;0.015429142;1.4680034;-2.3953419;-1.1746497;0.71871054;1.2600859;1.3921087;-4.7381096;-2.5708127;1.1423124;1.6464447;-1.5871372;-0.42143828;1.2768849;-3.6973536;-0.7506949;-0.16065729;4.1778297;-1.0987828;-2.0941966;-1.1878091;-1.7189214;-1.1442281;1.5652742;1.2188528;-1.741178;-5.5132875;-0.55288583;1.422637;-0.7554115;-4.4801626;3.5457656;-1.5204508;-0.21919778;-0.9392085;0.42527768;0.40723503;-0.09720552;-0.17205946;1.5118206;-0.89204615;1.9810672;-1.2993017;-0.35325727;1.0069844;-0.07731281;-0.48156765;1.7075393;-1.2595001;3.5647864;0.94020593;0.46704698;0.28114706;-0.98817873;-1.8756789;-2.2434394;-1.3145647;0.251154;-2.941643;1.3963141;-0.78409564;-4.695856;2.1032696;-1.3589717
-1.0067198;-0.95979977;0.095336296;1.235248;-2.2074847;0.22905096;1.0758889;3.5004468;-1.1319426;1.3713257;-1.4098798;-3.9525428;-2.144267;1.2672684;-4.296554;0.89311326;2.6426651;-1.38214;1.4548246;0.34534395;0.5759041;-0.89139014;-0.77489585;1.3125902;1.2696965;-0.35316297;-0.31633583;-2.7360556;-3.1707444;0.6236491;-0.32900468;-2.1060073;-0.058318976;-2.259658;-2.002208;0.7630129;1.7905254;-1.262663;0.8119411;-1.5500838;-0.08714037;-0.0030261679;0.2913115;-0.381187;1.2174526;-0.059777416;-0.92699933;1.2911221;0.05193511;1.2841377;0.61099285;0.0027835816;3.2199237;-1.7992367;1.664134;-2.0963006;1.2761648;-0.36070552;-2.71286;-1.829724;-3.319155;-1.1646366;-0.76601917;0.5736488;-0.1316686;0.46290743;-0.44030523;-1.2873738;-0.12645535;-1.7178079;-2.982822;-2.578777;-0.16191797;1.1080133;0.32859758;0.0028003207;1.0684987;-1.6113997;2.8086486;-0.34982243;-5.399794;-1.8204038;-0.19468613;0.42372277;0.7296467;-0.7415415;-0.9342134;-2.0000124;-0.81891865;-1.7142576;0.92585135;1.4764476;-0.1297183;0.8391459;2.0371556;-3.427299;0.106189586;-0.91481996;-4.115499;0.70131606;0.9752868;2.6540415;-2.478996;1.2288114;0.8290901;-1.5811454;-2.626751;1.4664819;-0.4438651;-1.9605592;0.47787467;1.3229824;-2.9734693;-0.5036871;-0.6285128;0.595949;0.32123613;-4.2950773;1.9289478;1.4082662;-0.94675606;0.83850515;0.68080115;-0.10814911;-0.5988416;0.5980704;1.5907867;2.226207;3.5049095;-1.3366609;0.8413227;-0.4147294;-1.0832398;-2.5084147;0.38904724;0.067803256;-1.266061;-1.0806632;0.8237232;-2.1257906;1.1649554;-1.6153142;-1.5388377;-0.21105325;-1.4867331;-1.3809396;-0.14749663;0.57533604;1.1947831;3.9851925;-1.8567978;-0.41321275;-0.7859596;0.26172745;3.7070446;-3.9625509;-1.9338907;0.80397636;-2.5614967;-0.40011793;-0.1808841;0.7362956;0.81816494;0.4119692;0.68374527;2.0070226;-1.3484225;0.97202975;1.2817274;0.35429987;-1.2977074;-1.7034839;-0.30080482;0.4899445;1.3230584;0.78853416;-0.17387353;-0.53103596;3.435094;0.7552485;-0.15458588;0.84558254;-2.6370902;-0.6759982;1.546016;1.5704956;2.6237516;0.16038638;-2.7024343;2.0100787;-1.5703893;-3.0565972;2.2571802;1.4488393;-0.58152103;4.02751;0.20844176;1.0826645;-0.2782824;0.19281554;-2.4904757;-0.36538306;-2.4347486;3.4059951;-1.2561511;-0.8680357;-0.78023463;0.08120245;-2.6975932;1.9237633;1.9027634;0.43371427;0.38361838;0.053601597;1.9641085;-0.43421596;-2.1911623;0.2788391;0.5336012;-1.1641726;1.7035687;0.20733356;-1.8885579;0.1795916;-3.3861365;0.40756688;0.37621486;-0.289617;-0.29940385;0.058918748;-5.1552763;1.1113763;1.3438723;1.0815166;0.59127533;1.4479609;-4.4726825;-0.9060983;3.4708314;3.2599587;-0.19738933;-0.65014374;-0.61197704;-0.26810533;-1.3866757;0.22239223;-0.6530942;-1.8928804;1.3400182;0.20360708;-0.29704598;-1.5177821;1.0784881;-2.8403523;0.8454861;-0.85323936;1.3266562;-1.1796759;1.532763;-0.718851;-3.058817;0.094590895;-0.36946175;0.67390555;1.6293119;0.9369516;2.3701124;-1.904685;1.3052325;0.6151272;-3.1034503;0.27322963;-0.32404828;-1.380149;1.397602;-2.5253892;-0.29503214;-1.6454691;-2.0264409;0.101493195;-1.193121;-1.7134798;-2.5480325;0.5612325;0.71243626;-0.1593998;0.07202228;0.17761853;0.5819767;1.5287521;-1.3925498;-1.3729867;1.221818;-1.5879564;0.09013532;-0.79529643;-1.6926751;-4.4299636;-1.2776682;1.1120225;-0.32024783;-1.4009587;0.40823728;-1.9451936;2.8073783;-3.8145483;1.5479075;2.258489;-0.017998327;2.043322;-0.009233483;-0.2132684;0.39001784;-0.7322291;-0.4850952;-2.3661137;-2.3599703;-0.82539314;-1.6192521;-1.3071675;-0.7741203;-1.7923692;-1.0533061;0.72075415;0.6196328;0.1891676;-0.04752193;0.8236054;0.64480656;-1.3565137;-0.16123152;0.31939805;1.8762866;-0.03944114;3.4567046;2.085485;0.22293966;-1.3754189;0.22788158;-0.39890817;-0.7896489;-2.656873;-0.07171752;-0.08132267;1.2227815;0.43234012;0.2610178;-2.9057739;-1.595864;-2.5039716;-0.050038166;-0.39070994;-1.5192268;-0.85628486;-0.93006086;-3.03685;1.9900898;-1.2634857;0.903457;0.2820469;0.34872085;1.6703885;-0.53629404;-0.54782903;2.8408337;-3.0599973;-0.46802193;1.4394476;2.4453979;0.91625816;-0.79004806;-0.25496444;-1.9427788;2.4689965;-0.76056373;-0.9067234;0.66590273;-0.49649134;1.1893629;0.03708381;-1.9970058;-1.7937144;-0.28459483;-1.2338465;0.8186658;-0.0064948252;-2.080262;1.5887803;2.1074834;-0.048353273;0.24028112;0.21081537;-0.7717178;0.58935785;1.0213631;-0.59164363;-3.443453;-0.71402055;-0.90953374;0.054627184;-0.6192871;-0.57033235;2.6476884;-2.4237475;1.3263906;-1.4195582;0.13559139;-0.82890046;0.63799864;-0.8286351;0.47087646;2.454445;4.763528;0.6750432;1.3206156;-2.385028;0.27465332;-0.1836591;-0.1905174;-0.44810393;0.21246102;-1.5514934;-2.1348474;-1.2643832;0.9121851;-4.0281076;-0.8048576;0.26430392;-0.66983056;-0.17016245;0.47607356;2.3352993;0.1400049;1.68053;-4.21694;2.4243648;-0.4124547;0.563174;2.2412908;-0.019918231;0.18781307;-1.5476418;-0.2449449;1.9644645;-1.5342859;-1.0177588;0.059255887;1.0337058;-1.945951;0.35377803;3.4163542;0.7133987;-0.0034739533;1.4016722;-0.9173335;-0.96802974;-0.67118955;-0.55755025;1.2510617;0.88827884;1.213245;0.020385362;0.28396964;3.9475691;1.0841306;0.82027805;-0.8922804;-4.1879187;3.0713162;-1.958421;2.2063627;-1.5445424;0.31845582;-1.807053;-0.7330108;-1.0151207;1.1232522;-1.0777953;-0.614179;-6.596614;-1.0384558;0.3907758;0.55941117;1.8892933;-1.1907;0.35853598;0.6494495;0.8644878;1.6039892;-1.8978721;1.8619144;-0.1376052;1.3609867;-0.38948932;1.7989023;-1.6795862;1.0004549;0.6765314;-1.3508288;-5.444584;0.8511599;-0.0016202155;0.44035384;0.2946601;-1.9187883;0.62158066;-0.1932144;2.2686129;0.45227942;-1.2705857;-0.47825828;0.503739;-0.36263636;2.7692559;-0.15240756;0.042456146;0.9010512;-1.716188;1.142993;-3.4619012;-0.44796312;0.96054256;-0.29589355;0.72621274;0.66513324;0.13057461;0.83294725;-0.9338761;-1.3448721;-4.46001;-3.726014;2.178292;-2.7527483;-1.9029148;0.48825008;0.74742115;-2.2704477;3.55635;-0.5985658;0.7669501;1.4012446;1.4052885;-1.8179367;2.7905874;1.4319438;1.660404;0.42820764;1.1701468;-0.18213943;2.394527;0.24032389;-0.70689625;0.37033972;0.14466985;0.12767518;-0.6667999;0.96957976;3.8327727;-3.0764575;0.42916015;-1.2905838;2.1429844;-1.4369043;-0.08439341;1.0122148;-1.8513262;-0.12725;0.95400554;1.0248526;0.35646823;2.1677926;-1.3356519;1.143805;0.11032895;-0.35745266;1.1093178
0.5042829;-1.8652853;-2.682809;1.5503296;-0.70719856;0.10049782;1.52817;0.43749487;-0.51062137;-0.9170951;0.5032221;-2.2984;-0.34280115;1.8929052;-2.6381981;-0.6666652;1.5426133;-0.6515219;1.9847897;0.651013;-1.4869338;-1.3600252;0.347999;-1.771701;0.50421304;-2.2829373;-1.2978302;-0.38550165;2.0045688;-0.12652113;1.2879281;-1.0031561;0.26411358;0.20760855;-0.3189496;-0.2619089;0.47928965;0.013844748;-2.6436348;-1.9516231;-1.6707864;-1.3734671;1.9443799;1.0964019;-0.9013019;2.8662055;1.6522849;-1.5728556;-0.378546;2.0258632;-3.6280155;2.2411425;1.7314866;1.1300055;4.762538;0.84909415;4.570088;2.5347261;0.25559723;1.956479;-0.7717831;-0.4427464;0.1618525;-3.3870034;2.8003721;1.0444893;-1.1485652;2.0202935;1.9018042;1.4386946;-0.8898853;-1.692964;0.38901007;-0.06492478;1.4884217;-1.5700729;-1.1383636;-0.87158924;0.030505622;0.14583416;-2.0433977;-0.63920563;0.49405164;-2.0174904;0.5399483;-0.29920918;-0.7688096;-0.18725386;-1.5864767;1.4942496;-0.027137646;0.21032213;1.439897;0.03471354;0.37719768;1.114744;-2.3926644;-2.3000584;-0.7901945;-1.2949303;-2.0102887;0.34613687;0.16721009;-1.4407188;-0.9492994;-0.23088393;-1.0549486;-0.4767256;-1.4395672;-0.50179625;-2.3011897;-0.1666017;-0.06264658;0.3509116;-0.3690029;2.2896743;-0.46864012;0.41215637;-2.8310595;1.2430314;-1.6542124;0.082531124;0.67403245;-0.23580809;-0.9512898;1.1315817;-0.71656805;-0.8290671;1.4897846;-0.11635455;2.5666394;-0.76672673;-0.035696965;-2.1841552;-0.582559;-1.9543271;-1.5215104;2.7888896;1.1072707;-7.9189143;0.81384116;-1.3185568;-1.0315772;-1.7334399;0.73457986;-0.17172797;0.4119925;-1.2556704;2.3397021;3.0058765;1.3969915;-1.1097534;-1.7929106;-0.41418406;1.8760455;-0.765259;-0.47179005;0.832632;-1.2999533;-0.03806947;1.6977077;0.42200074;1.7230619;2.6437504;-0.39592943;-0.35384572;0.8992391;0.23862065;-1.3187815;3.1335423;1.2284856;-4.721807;-0.89695287;0.8750937;-1.548988;-0.7199002;0.21041074;-0.116092175;-0.22148792;2.5245032;0.99997574;2.2499456;2.5534387;1.9230441;-0.2272707;0.2104791;-1.6265641;-0.42307737;0.231597;2.7770476;0.028063014;-0.5331873;1.5779898;0.31047454;-0.051914584;1.8267905;1.7244012;0.14359733;3.9141915;0.4115167;1.1690971;2.4006586;-2.24367;-0.10232158;-2.8854976;-1.4332696;-1.2699697;1.6861928;1.576805;0.6838037;1.644539;1.9834601;-0.6103737;-0.3788227;-0.93678135;1.8028327;1.0027543;1.5366187;-1.8041693;-3.4088916e-05;-1.4684119;1.5211121;-1.6667662;1.4283243;0.3756954;-1.4615414;-2.2402208;-1.5580608;-0.91985476;1.105245;-3.0669096;2.1053917;-1.5870606;-0.02327155;-1.9636947;-0.22084634;-0.21547899;-2.6238415;0.24206498;-0.32359508;-0.718998;0.8168978;-1.3087053;1.9446445;-1.3329238;-0.45757097;-0.28307578;-3.32793;2.6269214;0.54905516;0.5655008;2.263192;1.6778827;-2.571632;1.3651358;0.26573312;1.8971907;-1.461909;0.5351859;-1.7659867;-3.75844;1.0669249;-1.1225208;1.6295583;0.030502351;1.9313474;-2.4164722;-2.0327249;0.82366234;-0.2540414;-1.020471;-0.9067767;1.3884193;2.0491908;1.3436733;-1.9788022;0.32020518;2.4704804;0.6857192;3.7643397;0.31934515;-0.58314633;-2.4175053;-0.7551135;-0.33567077;1.4782778;1.354763;-0.18194939;0.2988631;1.5022532;0.38123065;0.85897374;-0.087339275;1.5502471;-1.1822209;-1.6188855;-1.3900274;-3.093814;0.5611364;-1.7471596;1.5709307;-1.1328242;-1.0756084;-0.28103215;0.6929273;-1.4067763;-1.2337315;2.8068032;0.3863411;0.8221091;0.032196965;-0.49217376;-0.50008035;0.37768042;-1.0824721;-0.71502554;2.5856338;1.3004813;1.7611235;1.2677871;1.3939949;1.2768005;-1.7906715;0.9554393;0.7001377;0.33771408;2.0328577;0.23610477;1.8798707;-0.570955;0.68059796;1.5805675;1.51162;-2.3196483;0.27426365;1.5842927;-1.7475291;-1.4390857;2.5095947;-0.3594003;1.0081968;-3.5806458;-0.9706215;0.37160197;0.16014136;0.5578814;0.45075002;-1.0521901;1.4236174;-3.9160056;-1.2422509;0.60409766;1.3500721;-1.1124208;0.4062934;-0.36263505;0.02763861;0.47328144;1.368862;2.324967;-2.7062023;-0.85273457;-1.6017963;1.0215259;-2.249497;-0.19522904;-1.2034931;-1.2083231;0.61038;1.580343;2.458147;1.2527292;-0.45305026;-2.1482072;0.4387856;0.090473935;-0.57689905;0.8934688;1.1901008;-1.0316247;-0.5001036;0.36617675;-7.461928;0.25968695;0.8854603;-0.22340636;0.1914866;0.40028512;0.8184428;-2.4300416;0.59294903;-2.6574624;-0.2859836;2.4321678;2.1443486;-0.19452994;0.85478115;0.3429929;0.089547776;1.1000793;-2.1335306;-2.5199077;2.9764106;-1.9203616;-0.5173904;0.2927192;-0.54725397;0.76915425;-0.8455974;-2.2191627;2.7283072;-1.374847;4.3776116;5.4141536;5.3052855;-1.1035743;0.253585;2.666503;0.68149173;-0.8006313;-0.3262966;-0.7848203;-3.6824334;-2.997933;1.4083567;-0.84856266;-1.6148493;-0.53369206;-1.7870034;-0.67105836;0.095919915;0.10277472;-0.6449477;-2.3837311;-2.3392544;2.1181273;-0.18777911;0.15584615;-0.9652855;0.93232244;-0.32761478;-1.1564318;0.29656604;1.1178684;-0.45076022;-2.0754373;-0.13131292;0.8056408;3.5958815;-0.5977888;-0.9967384;-3.4891236;-0.09179747;1.2235166;1.4399147;0.8519416;0.52532786;-1.7096558;-0.2021929;3.7612484;-0.6759695;-4.2658176;-1.268086;1.7053034;-0.39159557;1.5019094;-0.8946292;-3.2010107;2.6085095;1.7180413;0.9827408;-0.35326162;-2.320224;-0.89347464;-4.306605;-1.0532533;-1.5722162;0.7252029;0.83231014;-0.85539323;-2.134195;0.79876876;2.8357565;1.8550797;0.49583256;-1.3540615;1.9433471;0.7151044;-0.6478731;-1.5701643;-2.863973;-1.9777762;-1.7133559;3.1169245;1.6110514;-0.9440538;-0.8566581;-0.113555156;-1.452221;-0.45164227;0.84421176;-1.4086592;1.0533718;1.3222629;2.3951035;-0.13508624;1.1111587;1.0434049;3.14752;1.6665633;-0.9147309;1.7208276;-0.96600825;0.14522837;-0.035812996;-2.0465262;2.0823658;0.049874578;0.7447219;0.96429104;0.39785883;-1.9300419;0.36975762;2.0311408;-2.4514537;0.4085679;-2.029328;-1.3375819;0.3842058;0.90210295;0.5924326;-1.4881215;1.8329756;-5.499259;0.6495499;0.7748798;1.1772856;-0.041622575;0.79899925;-0.7756016;0.4242212;-0.65190053;-2.1292331;2.6530106;1.3449506;0.16058649;0.03982889;-2.7732239;-0.09967034;1.2380894;1.6501597;-2.8431995;0.6980421;2.7109625;1.7992299;2.0535402;0.8805698;2.3002458;-1.5854925;-0.30380782;1.6953342;-1.6151998;-0.07617347;1.1240232;2.6318033;-1.0663143;-1.5294373;1.2012212;0.78781873;1.6540563;5.0977917;2.2705512;-0.51218414;-2.0775893;0.51520073;-0.91049284
0.32036674;-2.9434838;-0.6138114;-4.535737;-1.5828282;-1.6332932;2.4861152;-1.2213091;-1.5127738;-0.3501457;-0.9695345;0.56576765;0.47783267;0.32108092;3.912086;0.6649643;0.795819;-1.1204494;-3.0523298;0.07534386;-1.6572278;1.2010504;-0.104804315;-0.89992654;1.0964671;1.6437337;1.5372131;-2.412117;-0.38488722;-0.4139519;2.8332658;-0.004482386;-0.06299996;-0.7020662;0.35544825;-0.124108076;0.73021257;-1.2319164;0.8619265;-1.5328015;-0.08365783;0.6799742;-2.2189631;-0.5124211;-0.7655528;0.544211;-1.2782803;0.40745184;-2.5884128;1.8994347;1.0892657;-1.5367293;1.7617598;-3.725707;0.5751349;1.1473083;-1.1193731;2.625489;0.0764747;-1.0301857;-0.46389046;-0.799647;1.1199266;1.8793101;2.7939382;0.5920295;1.4619163;-0.44337177;0.1627682;1.5330311;-2.585383;-2.0497968;2.1231291;-0.85623217;0.66482615;0.025404034;0.32058716;-1.2138025;1.312991;2.5085702;-3.8743;1.6720217;3.4301422;-0.020312682;-0.594719;0.71560913;1.6362108;-2.0358837;0.067347966;1.0001508;-0.63473797;0.68600965;0.53762317;1.3432225;-0.23702925;-0.73484737;1.7663245;-0.86029303;0.67967314;-1.3315592;2.5614526;-4.322279;1.0432653;1.0894303;1.7958966;1.2234124;-0.53783405;-0.13700147;-2.2602103;-2.3470886;-2.365725;0.56048554;-0.0888255;-1.1689653;0.7148803;1.9755281;0.14870021;-2.312773;-0.5789619;0.19236532;-1.1292012;1.1228883;1.1938422;-0.13024624;2.0120814;1.7689677;0.90275335;-0.124729425;1.5682132;0.5468148;-0.5678302;-1.0914336;-0.9156447;-0.20144527;-0.14715995;1.8011171;1.4450805;0.07112791;-0.82645917;-7.5714684;-2.1522014;-1.638366;-0.68144935;1.0120797;-1.4541984;0.19202438;0.9155667;-2.8288965;1.1880274;1.0408391;-0.30012634;-2.248704;0.54966867;0.43758017;-1.1638503;-0.6175846;-0.85051364;1.5064625;-2.321036;-0.034157794;0.27914026;-0.53503364;2.9601228;-0.19907546;0.75647736;-0.66311365;-1.9108069;0.17892812;2.2933898;3.8205757;2.8599224;-5.025292;-3.4944127;-1.4741114;-0.016306696;2.5389068;1.7639457;0.9266715;-0.8203451;2.3466222;-0.31107792;3.9517286;2.136913;-0.8493494;-4.3508425;1.4099697;-0.9876313;-0.317151;-3.800659;1.7763591;-2.2622066;-1.9865631;0.22966966;-0.5551619;-1.4091858;1.8035605;-0.374828;2.8440757;1.731292;-1.7374465;-2.001288;1.2234296;-1.3600094;-0.88875264;-2.1165447;-2.536108;0.757332;4.300637;-1.2350411;2.4989939;-2.2956464;0.314499;-0.7543752;-0.11346337;-4.3792853;-1.5704923;-1.8654153;-2.816909;-2.3202465;-0.29887336;-3.6939852;1.7345418;-1.7761344;-2.9469187;-0.16253781;-0.44227454;-1.4629283;-3.4138174;-1.3347307;1.5623708;-4.0538697;1.6049062;-1.0516707;0.28367576;-2.4905345;-1.4457672;-0.59513587;0.6089832;1.3225709;0.19410215;0.20827165;-0.84492713;0.5924516;-1.2850734;1.2539288;-1.6238289;-0.50677395;-1.452555;0.77775604;-1.2843115;3.828052;1.6048974;0.4162584;-1.4263684;2.0588543;0.14981574;-1.6742594;0.87951463;0.9528723;-3.0064561;2.419461;-0.42165184;1.4949982;1.2394444;-1.6853826;1.5806073;-2.3276095;-3.7068527;2.2669775;-0.46823728;1.0896248;1.1058623;2.546535;2.4852076;0.34970084;-2.2508786;-0.41288775;5.320998;-3.2715085;1.2641833;3.12514;-0.17350572;1.4147825;0.39946622;-0.876145;-0.14930066;1.5047839;0.17054406;-0.9243201;2.6163447;-2.17825;0.19366528;1.4903171;2.4833996;-1.968478;0.62452686;-1.3716168;-4.1055455;-1.0357144;-0.1982484;-0.2777865;-0.60542136;-1.8002846;0.117122605;-1.9714636;-2.211932;0.2630188;0.24740118;0.531978;0.016395496;-0.45263875;-1.947497;0.13791016;0.37266678;-0.4267062;-1.6185117;-1.361521;-1.0510918;1.8875653;-1.3495495;0.5080292;-0.110268205;-0.28190452;1.6611491;-0.46124926;-0.8359474;-1.4784548;0.4343011;1.3464274;0.5999824;0.8626763;2.2358294;0.29647958;0.028207064;0.6629182;1.1298715;1.0637051;-0.7611821;-0.13485548;-0.7277456;-1.286062;0.07108588;0.33513275;-1.8971328;1.5929812;1.2698392;0.12468413;-0.23348527;1.1779612;2.4897385;-1.4004179;-0.37397212;0.40126657;-0.9157933;-0.6741262;-0.1240136;-0.050627228;-2.0027518;1.0015472;-0.7280698;0.3666296;1.2271639;-0.6320956;-0.5941453;0.5335856;-0.74956405;-1.261964;0.586944;-1.6796787;-2.5793443;1.9536151;-0.8722795;2.1540518;1.468877;2.190251;0.24409932;0.7075813;-0.9994633;-0.33014748;1.4985359;0.9158342;1.7512634;-4.938457;-1.5852145;1.6719639;-0.38458464;-0.43499526;-1.4058404;0.3423963;-1.3108838;0.75175196;-2.794205;-1.992261;0.300837;-0.6141888;1.849047;0.538892;2.0007253;1.7058904;1.2719898;1.7663908;0.14012973;2.032441;-0.8532726;-2.2511754;1.6406261;1.4489976;-0.31536287;1.1164066;0.98108417;1.3899044;1.06065;-1.2639619;3.1959724;-0.064508855;0.021665508;2.43337;0.2816004;0.1686734;-1.4336197;-0.089383475;-0.07782263;-3.5905175;-0.9380289;-1.1144456;-0.21164118;-2.1524708;-1.7516851;-2.1086297;-2.0805633;0.045148443;-1.1801529;0.62169003;0.3679771;-0.43733364;3.9832811;0.122793384;1.235381;-2.8632615;2.7454617;5.269918;-2.3244624;-1.5272017;2.3838646;-0.51114774;-3.0703082;-1.1485798;1.2411385;1.1092749;0.12848082;-0.03159637;0.3309668;-3.4641047;0.6597106;2.2139797;0.41650474;-1.9016358;-0.32968882;2.4772801;7.654561;-0.43950477;-1.6581966;0.5812094;-0.3676255;0.99484;1.3588188;-0.9052032;-1.2299562;0.7586404;-0.87455785;-1.6014236;0.7157366;0.66756773;0.7169655;-2.697866;2.3077447;1.4201539;1.3263428;1.0371193;0.5556198;-1.4393198;2.1387618;0.40297374;1.1012439;0.1744606;-0.9577844;0.45259675;2.0997021;1.1754023;1.0603591;1.661494;0.10746353;1.0089114;0.73590606;1.0851327;1.0450901;-0.9982217;-0.36244336;-1.0572813;-0.57950205;0.69472766;-1.9032145;1.671123;1.487204;1.3832601;0.53788966;0.81751305;2.5211287;4.3131533;1.3159655;2.1867309;0.23374113;-0.8232882;-1.2790427;-4.8755383;-1.229192;1.4415879;1.695657;1.1927508;0.04553964;1.5567433;-0.099402346;-3.9661994;-1.2868173;-2.6736596;2.262159;-0.9009699;-1.2012272;-0.41066003;-0.8331454;-0.2018142;-2.1419234;-0.4095223;-1.5738664;-1.3053714;-2.4322188;-1.1114665;-0.27431753;1.1959304;-0.74085593;0.30680737;-1.6232706;-3.4027455;4.151045;0.043085687;4.5543904;0.06437532;-0.16073991;0.24768384;0.30470368;0.950353;1.0255908;0.042715844;0.13769591;1.4333632;-0.0996084;1.2748325;0.8550935;0.122817576;1.6764253;2.026474;1.2833693;-0.039860476;1.5387058;3.1833987;-0.48459384;-0.57798785;-0.35883954;-1.1984229;1.7283679;-1.2693307;3.8687396;0.0495756;2.4385657;-1.903244;-0.02779263
0.14576177;-0.6470286;-1.4626527;-1.241298;-0.19358616;-3.1497695;1.211113;-1.9155563;-1.3293942;0.84968936;-1.6183519;0.7855674;-1.2951193;0.5764642;-0.06576313;0.17871255;1.3509853;-3.999982;1.1576144;1.2154807;-3.269648;-1.5038233;0.30252722;1.5563878;0.10444524;0.95776933;1.1207864;1.546154;0.105684586;0.3304308;1.8065113;1.0676743;-0.17728266;-0.61200714;1.097796;-0.4657219;3.6597097;-4.2503877;1.6902056;-3.300767;1.6800352;0.5069874;1.3754644;0.29535145;2.7725549;1.0549141;-2.2060764;-1.0850469;0.66426975;0.6237539;0.8175714;1.2528658;2.764958;0.8813963;2.249185;-0.22419743;0.082768716;2.268174;-1.4725152;-2.3644743;-1.137993;-0.73479986;-1.519367;2.509363;1.7583777;-0.04422548;0.6151019;1.5334097;-0.878628;-0.6171664;-5.70501;-0.3705339;2.918091;0.25914773;-0.19397338;0.52638793;1.7430477;0.36992;1.6710601;-1.7578285;-5.560757;0.1023995;0.8282966;-1.0697716;-0.551534;1.3513029;4.248016;-0.41906524;0.13101055;-1.002566;2.0872424;0.66171163;-0.9519501;-0.2114883;0.5437223;-0.9591858;-0.7364943;-3.99032;-3.7541068;-0.34927878;2.251131;-0.53862715;-1.6039368;-2.3333023;-1.3192708;1.0241865;-1.2235909;-1.826463;3.0860078;-2.143422;-0.9576199;-1.978625;0.7355274;1.2412905;1.5635995;1.5686992;-0.376762;1.497753;-2.2666852;2.6990228;0.07508518;-0.07146839;-3.312524;-0.050777603;2.6087122;-0.80362785;-1.3490901;1.7067997;-0.10338526;0.019359725;-1.9148588;0.25213784;-1.3532804;-1.1963419;1.771279;-1.9817513;0.4489165;1.7295195;1.1082883;-8.595968;0.68974596;-1.208825;1.8882798;-1.8171762;-0.07740945;1.6549264;-0.44912767;3.1607974;2.4707105;0.8817751;3.2457914;-1.5621408;-2.9242115;-0.93659127;0.6512843;-2.0121534;-1.157211;2.2182565;-1.5250192;0.1972133;-1.3504834;0.44173366;-0.5647453;-0.11151177;-0.105227076;0.08368897;-2.028276;0.98324466;0.8451567;-0.23502378;1.2622535;-2.9978726;-1.7981675;0.9851069;0.56693816;1.3489932;0.36622888;-3.6804805;0.4257057;1.1356286;1.0987386;1.1967617;1.8217146;0.4342709;-3.1428912;-0.38539088;-0.07257452;0.9054037;-1.2542818;-0.6488779;-1.781593;-2.0698416;-0.89894515;1.4134868;2.481591;3.012456;3.750733;-0.39581513;1.7264389;0.53495336;0.9836383;0.86772925;0.11651949;-0.39541152;2.209438;-1.14781;-1.1375996;1.0212128;0.6841322;1.478253;1.8697566;0.7282712;0.33121085;0.83095604;-3.4025295;-0.3474373;-1.8774642;-1.0399392;3.630609;1.206708;0.11454393;2.830697;0.036754485;0.60320747;-4.526014;0.21101458;2.1263978;0.3975539;-1.9767765;-2.9241114;0.9889977;1.3277085;-4.1880627;0.17825684;-1.4246829;-1.385148;-1.0808581;0.038252853;2.1097515;-0.6721858;0.88647115;-0.10610487;-2.6220047;-1.1390644;-0.8830438;-1.749519;-0.25666985;1.4130224;3.585852;-1.3458726;0.6688608;-1.7973684;1.9030921;-3.5705516;0.8129564;0.17042153;-2.357102;-0.64627916;0.4679956;-0.15713587;-3.0681217;-0.9160881;-0.20538147;2.9976454;0.935785;-2.2303956;-1.4399362;-4.5524793;-0.54724526;-2.299328;1.4277796;1.3670926;0.8678201;1.3634629;-0.59156716;0.29249805;-0.9989051;0.27762613;1.1770077;0.55419374;0.80933434;-2.141508;0.17687087;0.43880072;1.3578806;0.83469325;1.4532369;0.10035641;-1.958883;1.7843791;-3.1070776;0.747424;1.0564611;3.6138148;-1.097904;-1.6558337;-0.072602876;-1.2172549;0.024343057;0.30789968;-0.10218053;1.2904781;-0.20011392;-1.8104435;2.0643036;0.13439299;-0.11954378;0.19713075;0.13126284;0.027956938;0.44472602;-2.9284234;0.464882;2.3508687;1.2588832;-1.1695948;-2.6744924;1.0591924;2.0616653;0.5214296;-0.8211405;-1.2069051;-0.43182385;1.1689113;1.167044;-2.622568;0.81385314;0.9229113;1.1190491;-0.64680946;-2.3160412;2.0905025;-0.4518403;-0.6922175;0.90664065;-0.87837136;1.5566906;1.827383;-0.43876582;-1.3578339;-2.1703172;1.2125674;-0.49648604;0.4280501;1.8843505;-1.5716797;2.3404493;-0.50863004;-1.1854068;-1.2135075;1.6860306;-1.2487203;1.7676549;-1.0531992;-1.3576579;0.640828;-0.86304027;1.1999886;-0.78766507;-0.50971013;0.097025834;0.7709867;-0.08652617;2.9853063;2.1012113;-0.84071755;-1.54746;0.0036709507;0.98080975;-2.1089396;1.381795;1.0925523;-2.51157;0.5853015;0.73327553;-1.9994934;-0.2861075;-2.186141;-2.2892594;0.27188197;-0.67333525;0.8312854;-3.6439378;1.5142758;-0.7794844;0.11136453;-0.94626945;-1.0438031;0.6423599;-1.2402334;-0.5614135;-2.4736853;-1.1109844;1.3399898;-0.25798672;-1.1313976;-3.7041385;1.7267749;-0.9251648;-0.8835989;-0.18069278;-4.1319184;1.6182758;-3.9882796;-1.8194162;-0.013461801;-0.41004288;1.6169134;2.7018447;0.024766287;1.0513105;-0.82460546;2.3364365;3.4060497;3.297336;0.104046114;-0.30816922;1.2855536;0.6990961;0.2182561;-1.5267515;2.3416545;-3.177398;-0.8904843;-0.015569632;2.0683289;-1.5560524;1.0814959;-2.7867432;-4.129058;0.6887169;-2.2850957;0.35366672;1.3595234;0.8785828;-0.32713324;-0.7998352;0.10291659;1.179069;-1.794253;-0.32419056;-3.7174554;1.5515038;1.2527901;0.7800438;-2.542494;-0.59621096;0.34994593;0.17661381;-2.3380473;1.3980861;2.056142;-0.6646616;-0.4191585;1.2525212;0.61785746;-0.42688248;0.13146994;1.3750563;2.1071005;-1.9230548;0.5326767;1.9134772;1.9880008;1.1218879;0.57250476;0.2600612;-2.1399775;0.73254776;-0.6390743;1.1637429;0.8110955;-0.042574827;-0.61870056;-0.9193358;-0.86689913;0.5670335;-3.0410955;2.966754;0.3898444;1.7909102;-2.1194544;-0.08036101;0.523533;1.0837991;0.86827815;0.3986872;2.5756328;2.1265965;2.2444503;3.1710422;-5.1936727;-2.5342832;0.24002343;1.5239029;-2.822823;-0.6950687;-1.6516093;1.7997934;-0.31258553;-0.7559054;1.4586108;-0.94272137;2.6976075;0.8159092;1.6259753;1.3582218;-0.1924613;0.92097956;2.636618;1.8572066;1.766385;-1.5812953;2.6179693;-0.9514066;-1.356309;0.5392978;-2.3956099;-0.116164856;0.47583583;0.37073025;-3.553971;-2.2993736;-0.77984875;-1.2350273;0.38070756;2.3348055;-3.0192885;-0.46327266;-0.50327176;0.2851913;-0.0067348448;0.3952723;-2.328148;-0.4549781;-2.0920818;-3.1843016;-0.50754195;-2.4957767;1.6162785;-1.7402412;-0.32335472;-7.436476;0.005477813;-1.0416386;2.8273165;1.2995532;-0.49535602;-0.49768192;3.0588622;1.333208;0.6165453;0.2092545;1.6075116;0.19065017;0.0447035;3.1957572;2.212008;-2.642471;-1.1314746;0.2675811;-0.5595572;-2.0560718;-0.6211535;1.9325653;-0.75641197;-0.15433219;1.1539822;0.23234595;-1.0117399;0.53415525;-0.73253256;-0.356932;-0.78620136;-1.0334691;0.08377975
0.7592565;0.54927963;-1.2301165;-0.8093;-1.6667;-0.46008676;1.421438;1.2871897;0.13961779;-0.3347723;0.15194789;1.8427638;1.6076663;1.888373;-1.6685987;1.9035708;-2.1335168;-0.3631198;0.9756156;-0.4559406;-0.16024454;0.6601375;-1.3400824;-0.06901577;-2.8961127;1.221309;1.0604448;-0.3565214;1.5557979;0.16001584;0.46903524;-0.32995832;0.23977551;2.6074238;0.19681744;2.0115836;0.53171504;-0.35750207;0.9876021;-0.18020876;-0.10510593;1.0918941;1.8579514;0.04117889;1.9821165;-0.9187393;-3.4022276;-2.1900449;-1.3522294;-1.7631856;-2.7066438;-0.87476134;-1.0247996;-4.7445;1.8391137;1.8707422;-0.028503692;-0.056541376;-0.65926427;-3.1191318;-1.0942773;0.6749605;0.5518586;0.21826492;-1.8183914;0.21665356;-1.3809714;-1.9980137;-1.1679546;0.8842774;0.17477897;2.0106282;3.9924805;-0.07657834;1.2136266;0.85693246;-2.2967737;-2.7894561;-0.33818984;-0.32998508;1.9553832;-2.6853132;-1.3296977;0.3183772;-0.7685965;2.1538334;1.0025874;0.9330409;0.028943123;-2.7161748;1.0435892;-1.3456264;-0.15740599;2.4221003;1.0233762;-1.3924388;0.10125756;-1.7812905;1.7867167;-0.17828919;-3.142109;1.112035;-2.3512566;0.8191062;1.2360803;2.1441603;-1.1821727;-2.5739982;1.117433;-0.16089529;-0.93425035;0.92911196;-0.6017562;-0.38723385;1.0960848;0.17281231;0.21137297;0.7109061;-1.3972663;-1.0573454;-0.120017625;-0.566946;-1.3103936;-0.04726605;1.2001566;-1.6284404;0.44530356;0.15321444;-3.2423346;-0.14119862;1.5805361;-0.35120583;1.7889452;0.67785835;-0.28374806;1.0813929;0.82254994;1.8135742;2.0735543;-9.749071;1.190452;-3.698718;-0.5025494;0.7395159;-0.29188135;1.8222741;0.6122907;-0.72975266;-3.0139854;-0.74440306;-1.0115858;-2.0866086;-0.21121523;-0.7921701;0.44888994;-0.33101004;0.14392258;2.6747065;-0.8333261;0.62213427;-0.46348664;0.9806971;-0.7644196;0.7166291;-0.03856791;0.7172218;-0.66524976;0.4458763;-4.5735765;0.7147139;3.2709873;-2.9168394;-2.0355709;1.9406971;-0.22097687;0.37307885;-0.052161284;-0.93288654;0.12266758;-0.39355397;-0.6210766;1.6976821;-1.1770117;1.1654569;-3.377209;-0.9069315;1.0148726;1.085627;-1.5924034;2.1115892;-0.9736181;-1.6927106;-1.74616;-1.7541087;-2.1346312;-0.26416212;-2.1086607;2.7452993;-1.3454646;2.557674;1.2591741;-0.39906383;0.46537712;-1.3079345;0.02895642;-0.7597636;1.0409045;-0.76776785;-3.4023225;-1.737329;-2.754663;2.0496864;0.61244226;0.17846434;-3.4291346;-0.71966136;-7.084138;-1.1511234;1.7725307;0.74341816;0.16997838;3.115265;0.2189372;1.9643508;-2.0261183;2.1563883;1.0304452;0.07907522;-0.20455746;-0.44833428;0.31066886;0.66837114;-1.9368435;-0.3963321;-1.7723186;-2.9182954;-3.0178516;-0.99335843;3.0104816;-0.9371169;1.8373535;-0.3715572;1.2254293;-2.6198454;2.1224499;-1.2899007;0.35033816;2.4547253;-0.33995914;1.1394246;-1.2610875;0.273926;-0.9096482;-2.0962934;1.2966684;0.4533611;0.46424866;1.814747;0.77279246;-2.7140465;0.02400936;2.0443144;-1.1460758;1.5684099;0.4181342;-1.5884126;-0.028023636;-0.13008285;-0.18862578;1.6779771;-0.2590014;-0.085591674;2.4380972;-1.0789319;-1.7092481;2.0828764;1.4967768;0.63589925;1.781913;1.4964037;-3.4013076;-2.4021885;-2.5155776;0.3122818;1.8402044;-1.2847617;1.7957885;-0.046852663;-0.31169853;2.8807738;-0.80079883;-0.31129932;1.483964;-0.05470942;-1.4332703;-2.840176;2.2369397;1.0501928;-1.0149717;-3.4708314;0.28367418;-0.4088549;-0.70217985;2.4622486;-4.0951056;-1.6905652;-3.0812294;0.9423899;-1.7804964;0.2035879;2.2843893;-3.3409636;0.23349468;0.83630484;1.4721029;-0.46966717;-0.34535664;-0.1048316;-1.9708735;0.23862672;-4.851244;-1.9191331;-0.71639925;-0.6843975;1.1792474;-2.2512736;1.372104;0.5171919;-0.61162704;-0.13668354;-1.2027061;3.3870661;1.3147192;4.091042;0.4816008;0.12239015;-0.24051814;2.1473253;1.2225766;-3.645115;-0.9504771;1.2688181;0.80321187;-1.6490545;2.9204628;0.9873298;-0.15722714;0.007751334;1.3764333;-0.7177446;-1.7144313;-1.6864195;0.1830798;1.1077578;0.8988382;0.8615107;1.821526;1.1199176;-1.2279099;0.7387391;0.47874624;2.4471617;-0.6644116;-0.38026372;-0.34045714;-0.8927368;-0.89356744;-1.1276611;0.51993626;0.5795901;1.6130048;1.2705317;-2.1925123;3.862661;1.2136172;-1.1779885;-3.872134;-1.8929176;-2.9149058;1.3622332;-0.035200488;-0.65841115;0.31009;1.8757583;-3.8913805;0.73839617;0.6541244;-1.7353934;0.4193288;-1.321023;-0.7203268;-0.11063327;-3.6481957;0.30828658;-1.1846586;-0.53850824;-4.2200146;-0.20215659;0.97868127;-0.42374405;-0.7755577;-1.2444155;2.0640814;2.0488918;-2.2921996;1.014361;-0.62050146;2.7146327;1.3610816;-1.9749119;-1.1115193;-0.9766614;-0.16531047;-0.5585168;0.8752162;0.94291914;0.3639111;1.5912316;0.20354208;2.0070689;-1.4179255;2.5364473;-2.9101934;-0.54178876;-0.46197802;1.9399893;-2.2443562;-3.0712502;1.1512318;-0.5279356;1.2021418;-0.7183274;1.4903784;-1.9429326;0.82515347;-3.101766;0.12324653;-0.46092847;-0.15605801;-0.64321506;-0.7622357;-0.17987804;-0.6845738;0.018288419;2.0447242;-1.947195;0.23925348;0.089526765;0.9989802;-0.6970468;0.62591237;0.5137484;-1.4227049;-0.4260319;-0.91360307;-1.1171821;1.9145613;0.8005569;0.76644087;1.9845709;1.402597;3.7438066;1.8587359;-1.0400932;-0.45184004;-0.12313759;0.5435816;0.15139021;-0.22503315;0.20151596;1.8606713;0.8812745;-0.96326727;-0.6641212;-0.51277167;-1.2115452;-0.30470377;-1.4682312;-1.4015133;0.7831525;1.4504238;1.7343513;1.7346053;0.03313204;2.2089674;0.94250757;-0.89088875;0.17437644;0.6926895;1.0712054;-2.3980963;1.8798456;-1.3577048;1.1326389;0.14008948;-0.61099297;-3.635485;-1.7440914;0.4318222;0.7464745;-2.6837637;-2.4560235;-2.0458004;-1.6881636;-1.6793978;1.6378205;-0.51380956;2.0035405;-3.134012;0.9655917;3.8427489;-0.12881435;-0.2297614;3.5331833;0.27986595;-0.49869668;-1.2855386;1.4570454;1.1238708;-0.43494132;1.2766387;1.3410926;-1.3602351;0.66209245;-1.7880613;2.1421776;1.1930484;-0.7050858;0.3114318;-0.45063218;1.8381231;1.4148346;-0.5626781;-3.4480705;0.36547077;0.57064825;-0.77318937;-1.1520436;-1.2659279;0.16354081;-3.660339;-0.45317015;2.0974042;2.9335573;-0.63605195;0.1518687;-0.78709245;-2.771983;1.4690026;0.0903649;0.2095999;-3.1632268;-2.4420705;0.99760365;-0.31262234;-0.630846;-1.7011048;-0.7991095;0.8320185;-1.7118034;-3.151629;0.11221191;0.35727575;0.459126;2.0367203;0.3408374;-0.8690307;0.07046039;-1.0243733;0.49950546;-0.20998466;-0.101644084;-1.7905655;-2.138816;-0.4048089;-0.6698283
-0.17971851;-1.6517776;-0.3344101;-1.5506438;-2.374598;0.5594131;-1.2860655;2.4704692;-0.13935833;-1.4225384;0.36747414;3.3276367;-1.3146858;1.7575659;-0.7894927;0.852172;0.9359548;0.39278835;-0.9488696;1.3574837;-0.065026686;-1.1090236;2.0052073;-0.27553996;-1.9667834;0.23195496;1.5084875;2.4530487;2.126263;0.8386748;0.6875115;-0.28868112;-0.15128757;-0.8682739;1.8059325;-1.2620205;-1.5432585;-0.34717578;0.15885514;0.49868566;-2.085516;-0.20283955;-0.18666497;1.8359996;0.41959998;-2.7825184;-1.2754186;-0.086714946;1.9463053;-0.59140486;1.0980023;-1.9764239;2.6358173;-0.9884505;-2.4462914;-3.1879845;1.0370808;0.45111752;1.4516591;1.5287318;-1.4856415;-0.0609577;-1.2321696;1.2985348;-3.7793334;1.3889836;1.0658664;-0.20650928;0.82972926;0.805124;-1.7985998;3.3828664;0.95695394;-1.6108626;-0.8271149;-2.5465417;-0.5030365;-0.26794317;-1.0443292;0.79589003;-3.0496352;2.1064622;-2.2968156;1.226044;-0.7545365;-3.332357;0.589936;-2.1111639;0.3498292;-1.7902122;1.5194218;-0.9599535;-0.39257085;0.15598935;1.4647206;-1.0670315;3.0044858;-1.3453182;0.49713606;0.19262125;-1.9857149;-3.085697;-1.0552245;-1.3964592;0.38142955;3.113769;-1.4506286;1.360681;-1.6859186;-2.1248295;1.9157326;0.96666884;0.56168216;-3.6725576;0.8209641;0.35628334;0.28757185;0.28702563;-2.571465;0.20570976;-0.38716957;0.7405473;-0.87518317;0.21690682;1.4529905;-0.5166014;-1.4891443;0.30909124;-0.21792126;0.38674948;3.1575708;-0.5671309;-0.60006785;-1.0513052;-0.92083144;-2.9150643;-0.39539126;-1.4756092;-0.88924235;-8.250824;0.71193665;1.1904311;0.4653113;-1.5778965;0.5961966;0.7989214;0.5286031;2.1492512;-1.6494732;1.3064898;1.787917;1.3197333;-1.0683632;1.272144;-0.49517807;-1.5376458;3.39018;1.1132165;-0.45784697;0.5202487;-0.046213605;-1.3069602;-3.2120368;-0.6544729;-0.41051713;-0.84357685;-0.6455156;0.9936234;2.2995007;-0.25481755;0.15275955;3.6162035;-1.3591652;1.8382987;-1.7927312;1.6379546;1.4617532;2.0749385;1.0517849;-4.0767612;-0.544219;-1.6836255;-0.9337734;2.0303543;-2.7388296;1.2525612;-2.1401958;0.95488733;-3.406318;0.014982343;-0.5943192;-2.065394;-1.1688805;3.0262828;0.048851885;2.2283847;-2.813784;0.930174;1.6714393;0.013494773;0.62982565;0.8337073;-2.4808605;-0.5161551;0.44404572;0.24784142;-0.64206666;-0.34040093;-1.955022;1.7360727;-0.8892301;0.91393393;-3.041247;1.4344872;-4.024187;1.7278682;-4.4560947;0.2552369;0.9166297;1.2123052;0.22602078;2.6901498;-2.4977925;1.6953603;0.097481355;0.27475166;-1.064378;0.88499856;-0.538687;1.5952067;-1.5519828;-0.2706081;-0.1453472;0.6505319;0.7384779;0.14547515;-3.8884668;0.50740695;1.6571198;-1.7301764;0.32889026;-0.0062107444;0.6067134;-0.87206745;1.8227614;0.15810798;-0.88009465;2.3161457;2.0208035;1.9864705;0.036200695;4.2764463;1.7919238;-0.47752118;0.16209213;0.1343016;-1.3455038;2.3277032;0.67354596;-1.495319;-1.0704365;-3.8923879;-1.6224983;2.123736;-0.6058275;-1.4590408;-1.2395566;-0.3211769;-1.5330938;0.9547023;-1.0714681;-0.6218418;3.1367958;0.027110444;1.1688842;-2.1449137;-0.0779637;1.1814601;1.3315266;0.68107384;-1.7823347;-1.5140095;-2.337016;0.3742964;0.412802;2.18647;0.88810116;0.13194092;-0.61598635;-0.64716816;-0.97808003;-1.0179577;0.62364286;1.427241;0.2849687;0.829511;3.3074636;-1.4788615;0.57894087;0.12949847;-0.43865648;-0.82797456;1.1865352;-1.8348646;1.4302123;1.755078;0.11905246;0.057504352;0.73570585;-0.53909886;-0.5447023;0.5537938;0.09326817;-1.6671802;1.4696584;-0.74276704;-2.539444;1.9856757;-1.1557268;0.14620894;-3.9961653;-1.3548821;-0.35183695;-0.51422817;0.0862831;0.46962488;0.70607394;0.5753441;0.9369413;-1.3494698;-2.5513413;3.833276;0.072549075;0.13850757;-0.6432151;0.7068263;1.4054397;1.3743526;0.6939809;0.6960454;0.08034888;-1.2924225;1.2360717;-0.5058414;2.5951416;0.3169257;1.2756463;1.4708073;0.3030065;-2.075028;1.1173794;-3.9849648;-1.5666584;0.84377617;0.757162;-1.5313247;-1.220277;-3.1684873;-1.768855;3.4204457;1.0643573;1.6368198;-0.7797089;2.1212306;-0.59110147;1.8714343;-1.0290296;-1.4172384;1.279777;-2.0171425;2.4035647;1.8090738;1.4613253;-0.3471855;-0.09710051;-2.3442333;-3.6482158;0.74605423;-0.4654023;-1.0953064;-1.1010053;0.046271015;-1.7516245;1.5782263;0.1281075;0.04434417;-0.46648285;0.24866866;1.1065935;-1.4950882;-2.8710153;2.2380347;-0.9487823;-0.45622426;1.4612502;-2.3401723;-3.7398252;0.716616;-0.49926102;2.9855118;2.4187207;-5.253208;-0.87766683;-1.4038464;-1.120137;-0.28151596;-0.70308185;2.4942381;1.4840968;-2.5980997;0.8317007;3.437538;-0.48077872;2.1755075;-0.34299922;-1.0843612;-0.34192154;0.9131101;0.6773937;1.2466762;-0.3424251;1.6951842;-2.2681093;-0.057287835;1.2512037;0.0018504973;-0.97644216;-0.16037022;-0.91450745;3.442494;-3.083778;0.20676786;1.2098521;3.239687;1.0649759;3.0130002;0.7476517;-2.5548933;-1.7954787;-2.5795674;1.4094683;3.6719184;-2.1741304;2.0653574;2.297951;-0.35006794;-1.7430202;1.0129719;-1.5683486;-0.5205522;-0.4751893;-0.3182712;-0.7910078;0.17469469;-0.20463698;-2.329658;-4.797509;-0.42350683;-2.1308894;-0.6564141;6.5761642;0.8532967;2.1780047;-2.9949026;-1.5679905;1.3246558;0.5846018;2.3939111;-2.8672018;1.1019098;-0.5223109;0.3575602;-0.26036945;-0.6878978;0.77133405;3.9881284;-2.5358024;4.927598;-0.2275591;-0.33553317;-0.63788384;0.296527;0.68484175;-2.9355304;0.012943486;0.75888723;0.9364626;-2.5820215;-3.1711836;2.5069256;-0.116210945;-0.97287273;-2.0214984;-1.1477705;0.6027642;0.8722582;-3.0701447;-0.2687234;-2.3121123;-1.4388776;-4.4985704;-1.3162471;-2.0926054;1.9057636;-1.22984;-1.0706674;0.5498296;3.3322363;2.0869257;-0.44936275;2.6696072;1.4805199;1.7311344;-1.0736868;2.164699;-0.15654548;0.0051267087;-4.6480207;-2.726648;-0.024050165;0.049687356;-1.8827299;-0.8294209;2.3158202;-1.069351;0.16127704;3.2778666;-2.6124775;-1.246617;2.2394228;0.48603415;0.10808382;-1.5836688;2.8627095;-0.05495919;-0.5031942;1.0837803;-2.6041665;-0.51982623;1.8659033;0.952404;-2.0528667;-1.353113;-0.23615547;-0.772537;-3.515578;-0.056229714;-0.443661;2.0454419;-1.6826099;2.2459922;-4.387738;0.5727358;-0.5041203;2.1483665;0.85434973;-2.327112;2.9056454;3.6236985;-2.9355576;0.6045486;1.7128341;-2.799148;2.3297977;1.7985004;0.13693036;-0.0904121;-0.67325324;0.9207939;1.3198087;0.28590375;-1.1341723;-1.5002486;3.984619;0.107478485;-0.9306234
2.5364099;0.50345564;-2.78711;1.7295716;2.4999423;0.45724115;-0.029722482;4.055577;-0.55467045;-0.38770872;-2.4539294;-0.092902124;-1.0217706;0.29631928;-2.1303852;1.2678088;2.6506238;-1.3861089;-1.7751777;-1.5273813;1.0544326;-2.3153346;2.9123778;-3.085162;1.1646781;2.2742033;-1.2814844;-0.58131015;0.7932777;-0.7032069;2.9794157;0.26925704;-0.21331695;-2.9264848;0.7598354;0.6881487;-1.3329328;0.66765696;1.1696275;0.8023255;0.73908895;0.18274808;-1.4381696;1.8650405;0.35735983;-3.3495538;-1.1251582;-1.0189103;-1.5539668;0.30415952;-0.59597296;0.902124;-0.83512396;-0.12595648;-3.148969;-0.78977805;-1.9167893;0.82301474;-0.38086814;-1.8692416;0.4714061;-1.2463319;1.1772726;1.8735896;0.7009808;0.09938059;0.30488804;0.27179307;0.8378686;0.4891912;0.3347941;2.2398953;2.063354;-0.6576927;-0.8485592;-0.18948194;0.6879266;-2.2894018;-1.9827496;0.020055182;-0.40138352;-0.7950697;-2.8177562;1.0461324;-1.8576772;0.02678457;0.04822123;-2.110968;-1.5139093;-2.0050783;0.7741151;0.35042465;-0.16912606;0.17561512;-0.11791846;-1.6159323;-2.789143;-2.4235399;-0.7627495;0.5871768;-3.4282928;0.035108127;0.11666978;1.062697;-2.0925539;2.5331275;-0.45479426;1.3009722;1.5632018;-0.8593779;-0.37380174;0.24617466;0.019894453;-4.3055863;2.243836;0.39750597;0.5600287;3.224052;-3.4061146;0.86364776;-1.1209799;0.93895006;0.96039283;-0.18965532;-1.9521333;-1.6172304;-0.59777665;1.6267009;2.8265011;-1.1022159;-3.5307949;0.50696975;-0.39269736;0.034321424;-1.7508386;0.03595977;-0.42226818;1.1883881;3.4960017;-5.678666;0.89410716;0.67034245;-0.25775662;-1.6831872;1.1831291;-0.029942084;0.9667575;0.8147847;4.292185;-0.8332195;1.7809664;3.0940785;1.6635892;0.19211748;-1.3752993;-0.48280832;-0.6676609;1.8363062;-1.3380789;-2.392104;0.35910788;0.25188932;-0.43809062;0.5721028;0.27374098;-0.3620583;-0.91191447;-3.593629;-0.7012355;1.6950159;1.9291487;2.45827;-2.561563;0.95128036;2.4218898;0.8833912;-1.8864857;1.6460673;-0.43624723;1.0349685;0.16353144;0.18719043;-0.025066307;2.542052;-1.3158205;0.9248474;2.7199683;0.35005504;-1.0198345;-1.3075017;1.836033;-2.2523503;-0.82347536;2.0160353;-0.35096967;-1.2709955;-2.2406626;-0.9857605;-0.34812558;0.9205091;0.6959181;-1.7285556;-0.2503184;-0.13925005;0.060125437;0.6140742;-2.4380035;-1.000722;-0.5780959;-0.041709922;-0.07377117;-0.6138326;-0.24266782;-3.2531095;1.5013326;-1.9754709;-6.8941574;0.4977775;0.028852236;0.39098442;2.5678682;0.45716265;-0.39697498;-1.1951115;1.870834;0.82972187;-0.5772396;0.871763;-1.984942;-1.4079773;-2.0906732;0.7533695;0.81741333;-0.03634634;-2.1364625;0.572428;1.3750699;-1.0327439;1.6277784;1.4758551;0.27689382;0.87985843;0.0055771586;-2.3627968;-0.023159144;3.229747;0.074387275;0.492227;-3.8494973;2.6046555;-2.3845468;-0.9923714;-0.1420164;-1.068735;1.9873132;-0.20310088;-2.138202;0.2583134;2.3881438;0.29183996;-1.7185624;0.9363802;-0.7253932;3.9416816;-0.8014537;1.8204994;-0.15313387;1.6611207;-0.57395023;0.19184677;-0.50804013;-2.151522;0.6197188;-3.4214373;1.9970676;-1.4050624;0.15498433;-0.9630381;1.9308733;-2.315849;-6.4248915;0.37386045;-2.5200179;1.2849195;1.404144;-0.5073025;0.8710055;1.0641294;-0.98393416;-1.104472;1.6683406;-0.20997955;0.8150186;-1.0050935;-0.89482147;2.588314;-1.5564649;-0.40373406;1.4923736;1.4451216;-1.4517006;1.2337397;1.4764309;1.4069102;-0.46647334;-0.4414736;-3.86073;0.50171757;-1.500746;-0.85917544;-1.8060838;-3.1176598;2.6383996;0.33522946;1.3569753;0.118769646;-1.3520243;0.5498988;2.3705552;0.12687896;-1.1081834;0.33824307;-0.23938918;-0.15152694;0.40687883;-0.7326786;-4.7631674;0.26946136;3.4122503;-2.139951;-0.9039977;0.87702;0.33354503;2.614023;-0.6336024;-0.6935211;0.02984411;-0.3677734;-0.58535874;1.7489679;2.5984633;0.0250184;-4.153469;-0.21164964;-0.13205555;-0.5722878;-2.0112283;-2.4693203;1.0241642;0.07708061;-1.1858687;2.0617187;-2.8916993;0.24956046;-4.526527;-4.6831245;1.0513247;0.35817215;-0.42247906;2.83856;0.8814098;-2.6913924;0.18130632;2.8602252;3.9668016;-1.0273571;1.8428869;0.5081328;-0.71460193;-0.13889335;0.24180979;-1.2410647;0.45016578;0.45053777;0.16999663;-1.440276;-1.1044893;0.18430562;3.0623786;0.9933516;2.8548205;-0.47871846;1.4685707;1.0923457;2.2263925;3.797177;-0.39161894;1.6487484;-0.055441964;-1.7762594;0.9878078;2.1476955;-3.5372806;-1.0301261;-0.82314575;-1.409404;1.621111;-1.1112984;-1.4696366;-0.70642805;2.3934627;-1.9510741;0.1556379;-1.4186466;0.39946985;-3.1201284;1.5251734;1.5015763;2.3217244;1.9719565;0.6898604;2.0724022;-0.27481014;1.0984514;-2.2138815;1.313418;2.767468;0.30887485;-0.24920568;-0.82667077;-0.37648904;1.3518884;-1.926568;0.18730405;0.08832503;0.030413311;1.103898;-0.50559646;0.4712588;1.8231226;-0.79205877;1.6780696;0.6858339;-0.9560851;-1.3595717;-1.7209027;0.89891195;-0.660013;3.238391;2.3409476;0.27767888;0.69248986;2.6672263;0.5826504;-1.2075801;-0.32578996;2.4755673;1.5138257;1.2739942;-0.9633526;-1.5046952;-1.326885;-0.9313994;-3.4028015;-0.8960441;-0.39264217;-2.3989766;-0.70315105;-0.52262974;1.6451476;-0.25884226;1.4003018;1.9453417;-1.3564764;0.39151546;0.61576146;1.0503476;2.387179;0.2323695;2.048703;-1.1304617;-0.92427576;1.2426853;0.056686163;-2.558646;0.009023528;3.7402728;3.4193969;-0.71128744;-1.3233902;-1.1188806;2.9164252;1.883639;-0.32467416;-2.25091;-0.6898066;0.21084422;-0.03602435;-1.0815567;1.7347727;0.9172014;-3.3915498;-2.0004387;0.3190861;-0.33913285;2.2558744;0.3495207;-0.23471163;-1.6412283;-1.5413193;2.1963317;-0.5049314;-3.0954075;-0.97095394;4.290031;0.34815064;-3.070799;1.1934553;-0.67108804;1.9056078;3.8222878;0.19880892;1.9306017;1.1847748;-1.7293667;0.9477159;0.85080326;-1.1300718;0.60251826;-0.2777389;-2.5137944;0.36389208;0.41884148;-2.1619306;-0.58770615;1.8175577;-1.1704454;-1.6766101;-0.47852412;-1.3785988;-3.3582208;-0.92405295;-1.3222282;-2.0594504;0.08062098;2.0911958;-0.59162813;0.746294;0.64212555;1.8200216;-1.1527302;2.98563;1.2516372;1.0794241;-3.540925;-1.2497785;-0.4953038;1.0739169;0.40914562;3.2267878;-0.048673913;-0.25630027;-2.462099;1.1810085;0.8157685;-0.8076999;-1.0370048;1.5131493;0.14380445;1.156795;1.8158398;-0.5100261;-1.3163627;0.60577226;1.3687601;-0.07505395;-0.10926875;-1.3122948;0.30139345;2.5538347;-2.8638153;1.4359659;-1.2129923;1.4567239;-0.40354875;1.6505619
-1.8722715;0.5777486;-0.98584515;-0.25292838;1.7621;0.15138596;-1.3522127;0.015115997;-1.1843845;-1.658082;1.4793351;-0.8660017;-1.030831;0.6336878;-2.1653883;0.14199074;0.12825294;-1.2280524;0.27046037;-2.1967561;0.6936921;-0.6960174;1.665646;0.22517091;1.5535115;-0.6971476;2.9169753;2.5493255;-2.869478;1.5745931;1.6471627;-1.322119;-0.06948811;-0.03891914;-2.5305738;-0.6089338;0.64428407;-0.62351626;-1.3902336;2.8700716;0.41280395;-0.6690114;-0.7996756;1.9124388;0.33794373;-1.8393816;-2.4532886;-1.3487655;0.9712138;-0.13267133;2.809511;2.0637188;-2.6644804;-0.7537571;0.548714;-2.8413258;1.7785097;-2.8420835;0.15618926;-1.9724516;-0.22777933;-1.2551693;-1.2134118;2.1314614;-1.1876385;1.205216;1.8350878;-0.8917077;2.5166466;1.3505404;-0.3191165;-0.076911874;-0.12136933;-1.4144276;-0.11404372;-1.5724933;-0.33622867;-0.5355913;-1.5638092;-1.4032739;0.081682175;1.747326;-0.18691723;-0.18848999;-2.4143937;-0.3820341;1.6574229;-1.2514706;-0.50645196;-1.7159287;0.41441926;2.7113028;-0.88167703;-1.3008369;-0.16452529;-2.7115626;-2.5424435;-1.6124245;-0.34594238;-0.12508121;2.434319;-0.7297219;-1.3792275;0.06079636;0.42873585;1.6112951;0.048750818;0.06382221;-1.6438172;3.8801742;-3.116931;-0.43044388;-0.1251361;-6.180045;-1.4924902;-1.6091025;0.43085575;-3.7319794;-0.44880518;0.31609303;-0.5767022;-0.0032150997;0.71600556;0.05410825;2.9566646;4.0252714;2.0211945;-0.79434526;-0.715992;-0.8420006;0.26899514;0.5157382;-1.7201219;0.9901386;-2.8705359;-1.2792279;0.23083617;-2.0743487;0.3386068;-5.1933193;1.3658721;0.899425;0.321954;-1.1303049;0.30648324;1.9824113;-0.15010132;0.49956742;-3.9492953;1.1183947;0.42149958;0.43865645;0.8613826;0.15711506;-0.43761212;1.3867033;2.5239024;1.7949431;-0.5746798;-0.7669772;0.51090145;-0.0072740586;1.2618774;-0.0748653;0.24904554;1.2245686;-0.32956323;0.18420935;-1.0452443;-0.61876273;-1.2867728;1.4795611;1.513241;1.0228788;0.855078;-1.5524545;0.8435702;1.7675953;-1.5118403;2.0160604;-0.29659566;-2.9079306;0.9560419;0.1123605;-0.4140503;-0.61110497;2.2284896;0.9070106;-3.2753825;1.1625601;-0.7603066;-1.6918225;0.9532609;-0.7837446;2.0918508;0.3700257;3.4321384;-2.0965066;0.14003585;0.12808086;-0.094934836;-0.69706035;-0.9928228;-2.2912982;-0.054784678;-1.0625788;0.035704546;-1.0995177;-0.72011834;-2.1196573;-1.2239459;1.0143857;0.48494852;-3.0088513;-1.1104009;0.27060366;-3.4000335;-0.4383482;-0.5919112;1.3801949;0.53271633;-3.4877112;-0.14682515;-0.001405103;1.647946;-3.120109;1.9288561;-0.24026515;-0.96711856;-2.036787;-1.2809795;0.746324;1.6521852;0.057037216;-1.4392047;2.6575127;-1.2705437;-0.35392964;0.18029168;0.56351477;-0.89893126;-1.0925622;-0.64462453;1.3288515;0.5705176;-0.6006159;-0.3423275;1.5168537;-0.07286412;-0.6275423;1.2098924;-0.7357839;-1.3524612;-0.8169879;-0.3236126;-0.2366456;-0.25753874;-1.2521145;1.5828125;-0.65632486;-2.2063003;-2.135373;2.246826;1.8607075;-2.0623984;3.3730955;1.1231819;2.7574978;0.6526367;-0.36767486;-2.9956245;0.15952608;-1.4788775;1.2480601;0.6146799;-0.14196508;0.008033367;-2.3561814;1.0086383;-1.0082071;-3.2472932;-1.5891374;1.6336439;0.68111616;0.35319772;1.8761139;-0.006227657;0.29450586;-4.9585176;-1.3058954;-0.47455272;2.315275;0.88402367;2.138383;2.0680516;-0.032555986;-4.3950415;-2.2622929;1.4830589;0.036866676;0.3372827;-0.76610947;-0.52670074;-1.6866348;-0.71810675;-0.3715854;-2.663673;0.95727944;-0.16863206;1.0056648;-1.1940807;-0.6189448;0.9732719;-3.3842409;2.609799;-0.2737675;-2.1668942;1.4410577;-0.29035848;-1.4211481;-1.1299521;0.9010414;-0.17071772;1.6958351;-1.3562921;-1.1094759;-3.1006489;0.15757596;2.9841225;-0.73271275;-1.6402336;-0.14195073;-1.9829804;3.509316;-3.4184732;-0.76748073;0.3530705;3.405437;-1.6506865;-0.80157715;1.2233789;1.129463;-2.5488303;-0.1923503;2.2746866;0.7683036;0.43019915;-0.6405554;-2.3879752;1.210858;0.23839168;1.6431619;-0.9522617;0.17132916;-4.312259;0.5602064;1.3679749;-0.8737937;-3.0627742;0.63613826;-1.3822;1.0472287;-0.78321123;-0.17008214;0.050585393;-1.8551817;1.2721236;0.9929547;-2.7312386;-0.4090602;1.3985097;2.2500525;-1.4386727;0.43885162;0.87431365;1.9503118;-2.9367762;-4.5530453;2.68015;-0.18930607;0.7212506;0.70673233;1.4022598;0.16148853;0.6075009;2.0680218;-1.6003602;-2.3060348;0.33757788;-1.4213384;-0.1296054;1.8023496;0.36426994;-0.30273178;0.6684409;-1.2960575;1.2874634;-3.546753;-0.95429724;-1.2048508;1.5637032;-0.59231114;-0.4186875;-1.3597748;1.2578946;-1.0100965;-0.6454564;-0.89408594;-0.48454946;2.9590347;0.8416282;0.70899236;1.723519;0.9842999;-0.62964463;1.4727758;0.80540675;-1.9157163;-0.6980147;-1.496283;-3.7292192;-1.2543116;-2.133609;-1.62486;-0.9067302;0.39402646;-0.47313842;-0.7565772;-0.2915088;1.5916452;-0.9498239;0.41670167;3.127612;-0.5489402;0.21978223;-1.7644167;-0.09301316;-2.2249956;3.3599267;3.7134752;0.10823522;0.43676594;-1.1107556;-1.4991565;1.4689529;1.2639191;2.016369;0.24553595;1.3964758;3.5891943;-2.9436693;-1.852942;0.09503365;-0.32754862;1.9529418;-0.9267319;0.00884651;-0.12433696;-1.7252256;0.8859354;-0.9807053;-1.973229;-0.21567301;-0.6627178;1.3221991;-0.14763519;-0.35829023;1.8374949;3.1286802;0.44772705;-1.317232;-0.26426277;1.6916226;2.790307;1.0840056;-0.33666518;1.8353288;3.6765604;-0.27314663;-1.2908614;2.5696702;-4.3046684;2.1772609;2.2749984;-0.66304076;1.4131433;0.69389147;-2.2952795;-0.31494778;0.6960319;-2.3839679;-1.0786926;1.8294811;-1.2254443;0.43187514;3.6796415;0.8371426;-1.4743689;-0.5594498;-6.954009;0.52926296;0.37011895;-1.8750039;0.3668115;-2.7830904;-0.4713096;-1.4700805;0.93044376;-1.1012938;-1.5134337;1.1284362;-1.8023412;1.248258;-3.3844256;1.4715443;-0.15758178;0.17092498;-0.60104585;0.77402073;1.2644252;-2.0873976;-0.08914859;0.8154194;0.5964675;-0.6968214;-1.1569086;0.066325285;0.62987536;-0.01883657;1.551951;-3.3586774;1.0045217;-1.5008981;-1.1937789;-0.36550203;0.58222276;0.81128836;1.6690432;-0.3538644;-2.7900815;0.751337;0.7615996;0.858317;1.7946458;0.7280488;-2.5339956;-3.6465547;1.2499187;-1.7854282;-1.50143;-0.19523898;1.5768001;-2.8633363;2.1727254;0.094328724;1.2497516;3.3274655;0.8559024;-3.216328;-0.3708151;-0.37209812;1.3036312;-2.97808;1.7430501;0.34989354;0.46359822;-0.60620004;-0.70070535;-1.064216;2.2967641;0.68910867;1.1559986;-0.999245;1.1786805;0.17011319;-0.7376179
1.0455531;0.018347325;0.07985943;2.0182705;1.3969123;-1.0401545;2.0839756;2.9145691;-0.2399345;-0.39086604;-2.1789124;1.8981435;1.9800861;2.8011482;-1.9422216;-0.4515203;-0.55698156;-3.6827407;-0.28128076;-2.859584;-0.92732275;0.3909132;-1.9659508;1.0242319;0.31955478;-2.0185745;-0.89139116;-1.010023;1.0707111;-0.6269318;1.6282616;1.2914562;0.2686179;-1.940969;2.25131;-0.87334454;1.6109011;0.838834;-2.6790733;-0.17690758;-1.6943938;0.8322916;-1.5487398;1.605605;-2.2613611;-2.9891338;0.17363453;-0.50482124;-2.5858276;-1.6548065;0.5844026;2.217098;0.35060102;-0.9587179;2.739379;-5.567578;0.551068;-0.44296834;3.0256767;-1.8080652;1.112547;-3.3405154;0.68561;0.5402067;0.45386052;-1.6897504;-1.9855542;0.15715252;2.997081;0.25725698;1.7148503;-0.53954136;0.5461789;-2.5649257;1.445824;1.1025162;1.7243358;-3.0378938;-0.27395484;1.2193153;3.1517713;3.1620746;0.45461443;-0.9044853;0.351982;1.4229003;1.7968124;-2.3154726;-0.126799;-1.8380655;-1.8854489;2.5840309;0.027054667;-1.0481298;1.7525691;0.16492638;-1.0081699;-1.2914681;1.2112583;-0.2111516;0.55631596;1.4508401;-1.4477813;-3.0997114;-1.6178688;1.3576709;1.2589697;0.4306786;0.5503827;-2.3707988;0.071996465;0.7469386;1.2514464;-1.3741103;-0.7255546;-0.5178796;0.48164797;-0.7883415;3.3223467;-4.2781787;0.0015488771;0.7402914;-0.07561989;0.1452359;-0.17632948;1.2268394;1.8161405;0.5663357;2.5235386;-2.0102022;3.1440144;0.98072994;-0.12033704;1.4788009;-3.8808959;2.3676853;1.8808603;-2.2082253;0.41212896;-6.65855;-4.039823;3.0394604;-0.2494571;-0.24876128;-1.068352;-4.6155634;-0.43324384;1.093364;1.7503316;1.8800008;0.6026065;0.020655995;0.9032855;-0.1925836;-0.32354534;-0.77537894;-0.64404625;1.973181;-3.0553603;-0.08797666;0.4049901;-2.6998413;-2.3928614;0.96631694;0.02761679;-1.7673382;0.7240354;-2.4166698;0.11366948;0.4734684;1.1433574;2.391215;-0.95132285;0.1653755;-0.8372628;-2.6679833;1.4075246;1.485518;-0.6502262;-0.093277015;-0.6873546;-2.0964208;-1.3771775;0.82770413;-0.050217673;0.6415793;1.0881572;0.29141074;-0.8344782;2.403887;0.82885426;-0.7986962;-1.8545051;-0.14774263;1.4126627;-0.11261614;-1.4796648;1.6891838;-4.0011163;1.6021764;-2.6651647;-2.4753869;-0.99522793;-2.1795585;-0.60719234;-0.30264774;0.17564428;1.2875946;1.2519914;1.8950653;0.9049268;4.321792;-0.8103341;-1.5499485;-0.09358549;-0.22248834;-0.15276887;0.7746945;-1.8605657;1.5263948;-2.6233382;3.7316787;-0.33594885;2.7649775;-0.4045907;1.3017412;0.32359052;1.8106582;0.3231207;1.1594931;2.756814;0.7848897;-1.2683275;1.1946844;-1.2529483;-2.99191;0.6242005;0.813244;2.098574;1.3474469;-1.7913327;1.8082794;-0.9695;0.85131514;0.04276403;-0.916885;-1.8840021;-0.41732198;-5.2212696;1.3718039;-0.91950023;0.04769634;3.4324174;1.1128265;0.4731638;-0.41873994;-1.3089448;-0.7743019;2.3906481;1.5181497;1.8177779;-4.40854;-0.5593374;-0.22568046;-1.1424117;3.381244;2.555309;3.3614752;0.46880937;0.7030734;5.277673;-1.9888175;2.0112765;-0.1922395;3.640938;0.12653162;0.49765593;0.46011028;0.15616915;-1.7559371;-3.3486435;-1.2005947;0.5413329;0.9190927;1.6150249;-1.9482142;1.3735646;0.30751213;-2.983459;-2.2611656;-2.1110692;-0.6558112;0.7868117;-1.292774;1.4274007;-0.037848156;-1.9953489;-3.0736837;1.5569495;-1.2117141;1.4250635;0.30375805;-0.71198773;-1.5357531;-2.528529;-1.7800211;-0.99655235;1.4695448;-0.64929265;0.73003113;-0.49423864;1.397969;1.7911553;-1.4000654;1.9863396;-0.33396938;0.182567;-1.3576473;-1.9316391;-1.4071525;2.386175;5.507248;-0.22731885;-1.2193993;-2.0514574;-0.59089524;-0.8786567;0.82212985;-3.8078408;-1.2161064;-2.2282298;3.0669472;-1.8015898;-1.3745079;-5.3590946;-0.2244501;0.4091603;1.2815952;-2.155146;0.22298191;0.048022196;-0.5124654;1.9690495;-0.9397918;3.3831801;-1.7129856;-1.0549833;0.23207396;-0.17565773;1.8907472;-0.5756751;0.96532273;1.4421844;0.3699913;1.57621;-2.175227;-0.1433993;-2.627165;-1.8670435;0.12226195;4.3093386;-4.243324;-0.1703676;-2.3238046;-0.85743207;2.3732312;0.16095012;-0.4161062;2.4306636;-1.9473324;1.3742884;-1.863798;-0.29166;0.046964705;1.0126477;-0.60117936;1.4979731;-3.7833767;-1.7464635;-0.17532958;3.1894472;-0.23755737;0.842611;0.18255985;0.16340195;0.536621;-3.3259783;-1.3129429;-1.6711406;-0.79085684;-2.159707;-0.71502626;1.080921;-1.571292;-0.13322479;2.6446483;0.22824311;0.21451789;1.5234954;1.3884046;0.46676564;3.9310582;-1.8041776;0.29886815;3.6045876;-0.30301535;1.056701;0.03562217;-0.6009368;3.601005;1.6552811;0.6531884;-3.7472117;0.66523796;-0.08896535;1.9371547;0.6267225;-1.6593826;-3.394731;-1.1616907;0.294284;0.6771922;-0.9618537;-0.4973508;1.0474046;1.8626441;0.68196315;-0.5334596;-1.3961562;2.1948972;-1.0513474;-1.3839225;2.9774036;2.7046921;4.209817;-1.928037;-0.67827797;-1.275174;-0.7988237;0.48622194;3.7989516;-1.2800037;-0.316011;-1.0050977;-0.013972869;1.4543161;0.69119424;-0.1515707;-1.7067561;2.2235842;0.53053004;-1.4260114;0.30733457;1.9089135;1.8276843;1.0228654;-3.173583;-0.75546163;-2.1006706;0.26776603;0.13614325;1.8632729;-0.4972815;-0.38905516;1.5182317;2.0642571;0.9738695;-0.95991766;3.20763;-1.5701535;1.7662307;-0.8531247;0.25283995;0.74552584;-0.79804265;3.8253753;0.5779805;1.2244115;1.3073331;0.38079655;2.449466;-0.6417588;2.7833784;2.0211227;0.03514971;0.7553693;0.5533954;1.0281959;-1.1877041;0.00087420753;-0.19758166;1.5269743;-1.0759723;-1.1349258;-0.33520055;0.75204676;-1.023834;-1.6816156;0.25516078;-4.919563;-3.1109157;0.36075282;-1.8694448;-0.14234693;-0.1955992;1.9339477;-1.2681844;1.2447871;0.94204485;-0.025116943;1.6885922;-0.6078853;0.16170269;-4.614941;0.7642278;-0.27395663;2.5404387;-2.1929848;2.8531005;-2.067484;-0.26813117;-0.54874295;3.963935;1.7096473;-1.3291018;-1.0998302;0.44087437;-1.7338603;-0.030400362;1.87584;2.5014317;0.33819476;-1.361944;0.45365524;1.191302;1.5054536;-0.66894984;2.3237975;1.9895501;-0.27555108;-0.65459085;1.1687171;-0.8105413;2.0716584;-0.84817773;-2.4921458;-2.6477695;-2.170624;-0.26508287;-1.5234699;0.5908234;2.6929924;-1.552784;2.146727;-2.8941026;2.0051372;3.1200318;-2.8673422;-0.92235076;-0.23120159;1.2448215;0.67562246;-4.2727127;0.0064056707;0.5544031;0.27036792;-1.4734472;-0.8120327;0.9306;0.82754564;-1.5981563;3.1718793;1.8045708;2.1674263;1.4302791;1.0191566
1.2376264;-1.1858802;1.0465837;-1.0950495;0.14034984;1.8758112;0.66287935;1.8561672;-1.1130228;0.18725285;-1.770796;1.497054;0.09464407;0.9726077;-0.6629246;-1.6229402;3.255976;-1.7213928;-0.71428907;-1.7412257;-1.7077254;-1.0356055;0.7257287;-1.8865023;-0.37597582;1.5388098;-2.402864;3.0259495;0.17334001;0.27571324;-1.2862669;-1.319199;-0.3763115;-0.27690458;0.8752973;1.8965861;2.5818622;1.9315327;0.5334995;-1.071071;-0.6274381;0.27842206;-0.9269201;2.3196783;-0.70374966;-0.115585156;-1.292782;-0.4526231;-4.231047;-0.5280335;0.296874;0.44468018;-1.3741341;-1.4151338;1.5861148;-1.7466017;1.2673239;-1.5031158;-0.45398796;0.708169;-0.83559316;-0.68606174;-0.83469504;-0.5948557;3.9023678;0.049785383;1.923692;-0.20005853;-1.6919986;2.026719;-0.6957785;-1.8669078;0.3535463;-1.0346522;1.5603518;-0.48430803;1.4178709;-0.27647808;-3.4758067;3.9161768;-1.0539712;3.6693575;-0.24406074;-0.6314362;0.97050977;-0.23795964;0.51637375;0.8849684;0.09675072;-1.979433;2.1333363;0.5938406;-1.0872722;-0.23206136;3.138519;-2.1473212;-3.7889752;-1.013346;-2.76165;-0.01549936;0.17800564;-0.29181883;0.21057598;-2.2803323;-1.0502983;1.6451241;0.002434474;0.12827225;2.1140516;-1.091993;3.2646856;2.8834631;1.7656592;-0.9983427;-0.2647538;0.3142095;0.7089413;0.33156648;1.5291225;-0.017781552;-0.7221405;1.7444265;0.085609816;0.47957182;-0.38472092;2.3895805;-0.31976065;-0.121781856;0.8223248;-0.33179367;0.8684301;1.9566405;-0.6787541;1.140232;-0.6972904;-0.7910557;-0.07170917;0.41412175;-0.34235573;-4.159198;0.66357905;1.8603652;3.839354;-1.6389849;1.7611434;-1.9112858;-1.7068561;-0.28713185;0.101551056;0.6231545;-1.2833178;0.6266341;1.995125;-0.6735342;-2.1732469;-1.5490198;-2.177052;0.87177604;0.87002385;-0.67982167;0.7011088;-0.7764939;-2.372939;-0.7338247;0.6853351;0.6056325;1.9586977;0.60055196;0.58267325;-0.9549523;-1.8625264;-0.57605505;-1.0679357;-1.1331263;-0.8052135;-2.6174965;2.224212;0.6080709;-1.2059753;-1.3447856;-1.5252496;3.7152255;2.6852362;-1.5024701;1.5831289;0.06929024;0.34071222;3.3491473;-1.8829919;0.87238485;4.107426;-2.864752;-0.5825955;-0.30403352;1.5127703;0.9973196;3.015177;-1.88244;2.4780235;-0.38940185;0.966984;2.1544073;1.5886738;-3.3928835;0.13355511;1.2047429;-0.021764673;1.5552322;2.4300435;-0.9111391;0.7453029;0.15771656;0.8453593;-0.35951966;-0.96815443;-1.3436111;-1.1324975;-0.041889124;-0.82077944;0.35800347;3.6143146;0.5789285;0.18496026;1.594256;-1.0717068;0.597163;0.087941654;-0.42038465;0.066706784;-0.45013162;0.39660522;0.18604214;-2.1006317;1.5512732;0.78974193;-1.6897894;-3.0877216;0.50902927;-0.9953126;1.8151437;0.35142586;-4.2423477;0.94872147;1.7656542;-1.1921116;-0.0076826257;-0.9192112;-0.20321973;-1.4132577;0.5310214;-1.0216454;-1.5273268;2.7613664;-1.5560294;-0.31482646;-0.30321643;-0.5381476;-0.27669105;1.2265092;2.9918525;2.4981258;0.16494799;-0.089178324;0.6303241;1.6439837;-2.7781541;-0.7495024;0.9067573;1.1326733;-1.0174264;-1.6766633;-1.660107;0.5319079;-2.1502492;1.1793189;0.16655812;0.6311712;-0.72214675;-0.6986929;0.020892872;-1.0482957;2.249693;1.6827704;0.8324336;1.0473906;-5.131517;-0.7271351;-0.27128896;-0.89289474;1.6711655;-1.0673126;-0.7941746;0.47822538;-1.451741;0.056615867;-0.93429637;-0.19642112;-2.9622135;-2.5422394;-1.0774397;0.79781336;0.096177965;1.2481462;0.3497215;3.228627;0.3618765;1.9304938;1.3137472;-1.0230678;-2.7906172;-1.0253885;-1.0262088;1.839286;0.6333636;-0.12967926;1.8919132;0.35652623;-0.978179;-2.5385222;-0.2646561;-3.3799183;0.1945837;0.28062508;0.8326884;0.3922763;-0.899445;1.9131782;1.5520356;-0.045968376;-0.07343107;-1.0574131;0.048473142;-0.5969048;1.4284674;0.5997485;0.6631782;1.5936038;1.4791224;-2.6482148;1.6145252;1.4167055;-2.9013307;-1.5510913;-0.98802626;1.0309819;-0.26538026;-0.18989836;1.3763821;0.69585615;0.77419704;1.7281635;0.35969537;-1.2044951;-0.8728028;-2.7385695;2.6528344;-1.6119305;-0.609822;-0.100786574;3.1622286;-0.30561936;3.5405264;0.027290778;0.5324831;1.1065135;-1.8761749;-0.83570784;0.9253404;0.74869317;-0.26586503;0.79582345;-2.0164752;-0.72579557;3.4225616;1.6511374;-0.9851048;-2.4930387;-5.9329615;-0.11140544;-2.0524137;-2.9293053;-0.5622537;-1.2296066;0.45831245;2.4182773;3.1625016;-0.47368276;2.4600928;0.9095816;-0.13108112;-0.5701142;-0.26735735;-2.7580173;-1.844485;1.7702507;-1.9490137;0.32677826;-3.011894;-0.4146175;1.5043644;0.79853004;-1.2905866;-1.4781693;-1.176492;1.5317489;1.6874692;1.7306497;2.0643158;0.42781037;-1.385122;-2.4594533;-0.49516585;-0.80114716;-0.7232846;0.13549502;-1.3205698;-3.2065294;-0.12121547;-2.7804883;-3.6630425;0.723659;-0.5447255;-1.7256365;-1.155052;-2.662055;-1.7764431;1.2136241;-1.2849303;-1.6600074;1.0240024;-0.7326833;0.865756;0.5822367;0.5931994;-1.777088;-2.3004332;-0.064659216;1.5351106;1.062333;0.4009628;1.7245812;-1.0521421;-0.23093286;3.4650106;0.64350665;0.23751679;2.690572;-0.46576914;1.0064741;0.4494714;-1.8465388;-2.3959205;1.3068511;-2.7206206;1.3368059;-3.0652533;0.807629;0.30408356;-0.48038644;1.073248;-0.1830199;-0.016436597;1.2477546;0.20666154;-3.7789087;-1.5653483;-0.2544137;1.1901155;0.017349914;2.1422129;0.635214;-3.4207602;-1.626849;1.4129453;0.21212453;0.8998041;1.6920813;-1.3696098;2.4174054;-1.1763326;1.1327778;-1.2988931;0.3002366;0.22380142;-1.1458042;-0.44430274;-0.74214333;-0.27622136;-2.2083552;0.42135945;-0.35666442;-0.41166157;-2.172494;-0.06335509;0.18945521;-0.77280176;0.4082439;-0.5138514;-1.5318383;-1.7973062;0.009783338;0.59512156;0.3009907;3.023509;-1.3065838;-0.056140125;0.6076241;1.5473343;-1.7443757;-2.6841547;-2.688067;-1.9699554;0.7667336;0.41940287;1.3243265;0.079398416;0.7039407;-2.6485484;0.83043915;-2.8833265;4.3591514;0.5543717;1.0229576;-4.218397;-3.1859295;-1.0232891;1.2655965;-0.22946405;2.0979066;-0.4555658;-0.23080772;1.728079;-1.6930145;-2.2665715;0.18685846;-0.09451523;-0.3646893;5.721524;1.4051881;-0.7628273;-0.09795292;1.2293744;4.2488785;0.93218476;-0.9004213;-0.37015507;0.15741782;-0.2571537;-0.8553973;-1.7515466;-1.1581923;3.632742;-0.53002596;-2.1473582;-1.8709576;0.70068175;-0.833786;2.835346;1.9185725;-1.2399112;-1.4935304;1.5891063;-3.0475712;1.341913;2.3608367;2.0075073;-1.0538766;-1.0452213;1.1226492;-0.49447095;-0.9504035;-0.037883572;3.6669044;2.15596;-1.9052502;-1.1131094
0.08149395;-1.3338964;-0.28359115;0.52631384;0.20455778;0.34794927;-0.61021274;-0.6464859;-0.5976414;-0.007965213;0.2919948;0.8142997;2.2449405;0.7983717;-0.5256412;-1.7079854;1.4459748;-1.5485083;-0.02595465;2.845167;-2.3409638;0.6285909;4.9921923;-0.1564771;-2.6313725;3.514813;-1.300891;6.089692;-0.13299136;-0.87150246;0.4702883;0.96111953;0.04938001;0.19643474;-0.033976402;-1.2910861;1.5824553;1.1309392;0.3208938;1.5503622;0.8490175;-1.492002;0.5342233;1.2092923;-0.061347466;1.0408379;0.910419;0.75543255;-0.15281962;1.9518971;-0.3130305;0.022053683;1.0863488;0.9169183;-1.4482099;-1.3200123;-0.48544988;-1.1377991;-0.00796654;1.7404685;-1.635473;0.048901893;0.69197965;2.345055;-0.07956368;-1.7173221;0.31340787;0.68012273;-0.7417729;0.90442187;-8.241564;-1.4595945;1.8968608;-0.7659763;-2.0439398;-2.8473341;0.53880584;5.4179273;0.09591392;0.66587603;-0.17982519;-0.46326548;0.33974507;-1.7822385;-1.2782742;-2.0639446;0.89188313;-2.7712603;-1.47676;-2.3074796;0.4850014;0.5731599;-0.45634538;-0.49612287;0.13146086;-2.1018887;-6.625828;-0.16003382;-1.3716543;-0.5851534;-0.32910874;1.2354659;-1.7183338;0.5099134;-0.68457735;1.094366;-0.872985;0.52185833;1.0988309;-0.83405316;-0.02991214;-2.1363556;-1.7874721;-2.1869771;-5.582809;-3.2559497;-0.19157584;-1.7302634;-1.4217721;0.5243794;-0.5095049;1.1961894;0.6490274;-0.04629369;-1.4988197;-2.5046504;-0.7454688;2.106452;-1.3829665;0.962469;-1.0467092;1.1468974;1.4260516;-0.240861;0.299774;-0.512614;0.49571678;2.648846;-0.65749216;-6.369598;0.35040632;-1.2746638;-0.20323944;0.25265247;-0.5555532;1.2659707;-0.88353217;-0.6380252;-4.008519;0.8234163;-1.1117479;0.22036195;-1.2772306;-0.8061421;2.1342003;-1.2951005;0.11236349;2.356377;-3.0064929;-0.04444005;0.2001641;-1.3663445;0.96685755;-0.8612818;-0.41061065;1.4095296;3.120399;3.035214;-5.3633795;0.54268026;0.012104792;-5.637425;0.84234023;1.328063;-1.113746;0.561148;1.5419289;0.27518025;1.6103402;0.16812994;-0.06181452;3.598339;0.15751138;-1.7702919;0.5278991;-0.40353647;-1.5272621;3.312799;-3.2913463;-0.8098797;-2.1571636;-1.014487;-0.32398054;-0.7817935;0.5330753;-2.0828514;1.3944974;-1.373828;0.8037492;-3.72345;-1.0885582;-2.48394;-0.418734;-2.2237148;0.07939716;0.83581716;0.42402795;-0.25221807;-2.040529;-1.8449402;-1.8108834;0.019022444;-0.27876195;3.1077383;0.4082766;-0.029431729;-3.9003618;1.092434;0.58531374;0.46609834;-0.10764856;2.8911471;-0.7483147;-0.2880956;-0.87107366;-0.014496698;3.0693617;-2.0699108;-0.05030082;-0.34535393;4.473574;0.3049455;-3.5646763;2.521242;0.2592307;-0.967777;-4.2885323;0.09713554;0.14083488;-0.28067008;1.4667519;-1.2551057;0.52714324;-2.0267308;0.030569935;-0.5890942;-3.6891909;-1.3545159;4.8927317;1.6353203;2.0746977;3.2768667;0.41404724;-2.4070551;-0.6456898;-0.3792173;0.5068787;0.48845068;-2.4836597;1.9945365;1.0575944;1.4243081;1.2729099;0.19646949;0.903309;-0.17495376;-0.7718424;-2.53425;-0.6284788;0.2429922;1.456749;-0.95082664;2.6127565;-0.5717609;-2.4041612;2.5467882;0.3928685;-1.5835158;1.0413187;0.7191818;0.5852757;1.8778968;2.4541953;1.1143059;2.7200375;-1.2425045;1.0535574;0.6587744;2.006613;-0.48903486;-0.40830004;-0.34427142;0.46281847;0.03486632;-1.3511695;-0.75042915;4.388392;-1.8290225;-1.1469451;0.65306836;0.5969314;-1.7141243;0.35423157;0.30123994;-1.7187871;4.5848513;-1.6866822;2.2291825;-1.5885717;-0.22862723;-0.30841988;1.1783423;0.35354686;2.6584861;-0.2681759;2.832356;1.6432834;-1.1427623;-0.09547809;0.070124365;-2.918864;-0.8619234;-0.2448951;-0.60429126;-0.2506068;2.3670747;-1.6471574;0.3240606;0.83103764;-0.5214106;-2.9214036;6.4087806;0.41461813;-1.9742657;1.6109431;1.5650721;-0.31904837;4.70977;-1.6707793;0.48532513;0.8783952;-7.22695;-3.1488943;-0.8554205;-1.6786474;1.120367;-0.057747606;0.48721212;0.0044063614;1.7210574;-0.09168555;-0.39914522;1.8325897;1.9283723;3.5253386;-3.6630895;-0.72593623;-0.29916877;0.30015206;0.30290008;-1.1343261;-2.029488;-0.16344239;-1.3257746;-1.6879148;-1.7183125;-1.6924038;-0.5271491;-4.1388984;0.14331281;1.5752478;-1.4605652;1.4817623;1.0062617;0.42091063;0.6793606;3.2230372;-4.367421;3.0270884;-0.31065637;1.2360015;1.6743846;-2.507365;1.5876906;-0.09285666;1.2591734;-0.63047546;2.1915178;0.13153327;0.9246772;-2.867567;-1.1566614;-1.9586539;-0.65100724;0.16154742;-1.883552;0.32899165;-1.7882198;-0.32027763;0.61509633;-0.085099146;0.649118;-2.7203035;0.52115136;-2.240481;3.0202003;1.2751069;2.7997522;0.38463485;-1.6164806;-1.9931407;3.8088357;0.64308536;-4.217059;1.3032099;-0.69217604;-3.4207392;2.0108526;-0.4722434;-2.2690284;-1.578882;2.0756595;-2.0056536;-0.88233685;-0.59558827;-0.8804516;-0.8968737;-1.4099544;3.112986;-1.8516897;-4.511681;-0.7602516;0.8513658;2.1065133;-0.69387877;-1.0522951;2.6183681;2.0684915;-0.79453963;1.2626239;2.6370592;-3.5957243;1.2372148;0.47505996;0.547381;0.432008;-0.49350497;1.4208521;1.2545145;2.3584733;1.2727811;-2.6093976;4.1074667;-0.89675057;-0.6611885;0.63808715;0.48280308;0.4000836;-1.7031579;3.2295609;-2.4466207;-1.9697093;1.4463446;-1.9414536;0.105202496;0.8078249;-1.6908938;0.1730962;-1.1757514;2.3688264;1.8009857;-1.1833899;1.7029285;3.033864;2.217717;-0.13289745;-0.6388166;-1.9926623;-0.2627234;-2.5660293;1.1483815;0.73589504;1.6030068;1.9868716;0.34778985;1.88347;-0.47543323;1.4923649;-0.24803558;-1.329388;-0.59104615;-1.2161884;2.5646768;-2.7225926;0.95517385;-4.3445964;-0.7961233;0.5233188;1.6176002;2.78788;2.0124192;0.6202883;-2.345717;0.7375208;0.3181134;0.14288968;0.9858869;4.242975;2.4026046;3.7040503;-1.8165723;-1.1161103;-0.64535236;2.1601346;-2.0871289;-0.93056685;0.720851;-1.5276241;-0.8203827;-1.3133925;2.4615045;-0.80646735;3.6827283;-0.41275674;-0.7527417;-0.20166868;-0.8872016;-1.5664138;2.630196;0.2431864;-2.2666926;2.4965959;3.1453025;-1.2536023;0.5655134;2.3989584;-1.3257756;-0.96953285;-0.32594195;1.4443047;0.61165845;0.12721196;0.56840134;2.0003917;-0.37804183;-2.423013;-5.0213437;-1.2121297;1.0668772;-3.2447886;0.39674208;0.43693033;0.17466353;0.71593213;-1.4871907;0.8270547;1.7314377;0.959088;0.9076549;-2.6893356;-0.2188151;0.018522892;-0.9218989;1.4246315;1.2861255;-1.4183787;-1.6087039;-0.5147396;1.54838;-2.2209191;-2.2079704;0.7466278;1.2799425;-0.13226014;-2.3785453;-1.9734805
-0.038073644;-2.9288034;-1.3774291;-6.878741;0.3355751;1.2975776;-0.92936677;3.3305807;-0.12565356;0.56383693;-0.3256657;-1.4370276;-0.73450303;1.6948978;-4.118977;0.66509414;3.033276;-0.448937;1.5691977;-1.2930646;0.7606344;0.26479712;0.63215786;-0.8697173;-2.4902477;-1.713427;-0.6771431;1.5191934;-2.803812;0.5010328;0.85559267;-0.6329081;0.29438278;-1.1996089;0.5450195;0.81514204;0.21161012;0.68796;0.9424074;1.12389;-0.80958354;1.0817986;0.88108814;0.1878345;-0.69419694;-0.010665785;0.8272625;0.8125809;2.3282158;-0.19249842;-0.40190881;-1.5690846;-3.0047903;-2.3441434;4.809208;-1.7968055;1.723729;0.51970565;1.3728697;2.6764882;-3.4468966;-1.8180678;-0.19675228;2.119457;0.44158304;-0.8622698;1.1618258;1.0055125;-1.3357035;0.742842;0.30535802;-1.559051;4.4033327;0.22605129;-5.095767;0.23090045;0.90075344;0.7449572;0.5632182;-0.012941781;-2.8489816;0.88426197;-2.2307284;-0.051623587;2.6650186;-0.73319834;-1.3537985;0.83881456;0.08804742;-0.9297402;0.68350196;0.13258979;0.029399717;-1.8887392;-0.2789792;-2.785742;-1.6734554;0.4930985;-2.480028;-0.692138;-2.6436958;-2.297047;0.584024;-1.1628363;1.3927959;0.9795377;0.35737902;-2.7140741;0.7475811;-1.1853547;2.2664003;-0.92961484;1.374529;-0.85109156;0.78977793;-2.3272839;-0.2709391;0.99644196;-1.7785357;-0.99503887;0.010763866;0.06974474;-2.8580067;-0.014882232;-3.0179815;3.987209;0.24519747;0.37772647;1.0743577;-1.3203409;-1.1917009;0.7959408;0.1434638;1.5498925;-2.1439576;0.42166442;-2.226371;2.5576777;-0.33674142;-2.9754024;2.4221;-0.004531816;-1.3082174;-0.97561824;2.57429;-0.99517864;-0.25745484;0.5067849;-3.623878;1.7205503;-0.030745365;2.7528913;-0.21825707;0.14940377;0.98133504;-2.9265525;1.0305444;2.7887485;-1.9217077;0.3471337;0.962272;-0.8407603;-1.106198;-0.82817423;-0.01865837;-2.50037;1.558305;0.89552313;-2.119501;2.0020611;-1.2100248;-0.93688524;3.1880205;-0.8000669;-3.729177;-0.42342958;-0.22352788;0.7630168;2.8662698;1.3967005;0.4098783;1.2191726;-1.451953;0.96746683;-1.4627247;0.6651825;-0.128218;-0.5855351;-0.06734209;-1.3759198;0.38817096;-0.9269782;0.60939723;-0.56779015;0.7181709;1.6228793;-1.5030359;0.22963019;5.386916;-2.7321532;1.2199749;-0.19730826;4.3235693;2.4382951;2.6672235;0.2903215;-0.7200176;1.4272708;1.7009265;-1.977704;2.370672;0.3813721;-0.729846;2.9053626;-1.3497125;-0.18737054;-1.3074461;1.2566552;0.24364586;2.2497678;-1.3412985;-2.1100633;0.08471956;-3.3514466;0.061326995;-0.8189253;1.458661;-1.073378;-0.15467267;0.36898008;3.6489367;-0.22357936;-2.6308587;0.84401333;-0.63530385;-1.1227528;-0.9811069;1.136278;-0.41090542;1.5214852;-0.14794755;0.50075114;-0.57500106;1.0754017;-0.6504956;0.08763926;0.7000014;-0.7314781;0.66290677;1.5397238;0.96719146;3.4255247;-1.2024126;-0.06316241;0.7890891;-0.7373564;-0.4497219;-0.4347087;1.1811603;0.80371207;1.8630595;0.5469164;2.1629338;0.7204435;0.089353845;-3.790828;3.250804;1.1215582;0.9093782;-1.6907626;0.518526;0.13753523;-0.11356797;1.6315248;-1.1268421;2.070813;-0.85966015;3.401139;0.8359162;-1.4202842;-0.36497116;2.3519754;0.15745282;0.032102257;0.3294813;-1.9783411;0.36001992;-0.6173522;0.93861634;-1.1773586;-1.3570298;-0.019309683;0.8528963;-1.4469119;0.18513711;1.394071;1.0832043;-1.8594126;-1.3748289;1.2330422;0.8856851;0.8622637;-0.9882481;-2.905696;0.30995613;-0.016818203;-0.0222863;-1.2828854;-0.37994948;-0.031718556;2.1337917;-0.9876041;-0.94880545;2.988761;-0.25409788;0.5888585;2.1704764;0.95587975;0.09652966;-2.1798646;-5.4499445;-2.5948462;-0.1260123;-0.5848551;0.6575633;1.5789012;2.2368393;-0.45622098;-2.4406607;0.35528725;-2.0853012;0.3631819;1.088086;2.7840643;2.0869207;1.2132722;-0.15379263;2.4656556;-2.1140118;0.632487;0.9462664;-3.1812875;1.5949718;-0.6421806;-2.1576772;-1.5158066;1.7437706;-1.1339526;-0.49672607;-1.126492;-0.36648265;-0.91221434;0.76217043;0.5468225;1.3134665;0.6498543;-1.511001;4.009161;-0.3831939;0.42743355;-2.826702;-0.9313299;-0.68800896;0.7646368;1.1306849;-1.7662275;-0.97656775;-1.6285051;-4.9292035;2.5119028;2.2820487;-0.5598346;-0.7255012;2.3932223;-0.08979915;5.73248;-0.14498103;3.4743638;-0.2051912;-1.0689927;2.1222634;1.4960612;-0.3628763;0.8186227;-0.26015016;-0.8069491;0.06359456;-0.41440046;-0.12084011;-0.6921058;0.20994681;-1.0239263;-0.9310699;-0.8562166;-2.647221;1.330688;2.39387;-2.789009;-2.3066938;0.79804945;0.5128532;-1.4564313;0.5331019;1.3788193;0.21981584;-0.43651342;0.2785319;-0.18498263;1.0721163;-2.0008903;-0.77782166;0.7637124;-0.88516194;-0.65768445;2.6549766;0.49124876;-1.2741623;-1.2720053;0.22400916;-1.5123502;1.3958855;1.1878809;0.03924424;-0.62616163;0.23388034;-0.33486614;-1.56963;-0.83110636;1.1096457;2.0454915;-0.88700587;1.0011996;0.82666564;-1.483542;-3.1140065;-0.3981083;-0.7088698;2.2755668;0.06260784;0.38857862;1.8044974;-1.2917473;-1.0030034;0.534297;-1.2483311;0.2845333;1.1832472;-0.38463962;0.73295575;0.47277448;-2.1884363;-0.3425646;1.9390507;-1.6778139;0.11153017;-0.33523962;-0.52504134;-0.49667007;-1.2444389;-1.2395262;-1.4203137;-2.1041803;-0.63830054;-1.6786312;-2.9064195;3.31496;-0.16903305;-1.4998906;1.3001978;1.4345347;-1.6102216;0.4966658;-2.2947369;1.4083331;1.0732259;0.55737436;-1.3146943;3.4198036;-0.55045116;0.46681723;-0.020756004;0.6568034;-1.3022023;1.8236321;1.9701037;-1.5300277;0.43328616;-0.75596577;-2.5870187;-1.1432538;0.096771225;2.176123;0.71961856;-2.0734324;0.24753705;-0.45375797;1.5725577;-0.58440167;0.1551848;-1.7791638;-1.6408176;0.4914467;-2.8531704;-1.1717763;-0.7799312;-1.5952638;1.1373612;-2.31429;-3.6951423;1.4011792;1.1975853;-1.1012272;-1.3564882;1.6277144;1.453789;-0.10427739;-0.35996416;0.24296455;-1.7699099;0.6904034;2.726804;0.20723853;0.87031084;-1.6167791;0.070505485;0.819161;0.8529012;0.15412132;-1.3332217;-2.8040242;0.116520055;-0.16701046;-1.5735518;-1.0152264;0.56709313;1.7490484;-2.5069892;1.1576209;1.3743191;0.93463755;0.37153566;-0.5343643;3.963997;1.1468834;0.91110116;0.06705275;-1.8470135;-0.47381744;-1.6661435;-0.48886517;0.24222003;2.278169;-0.5687822;-0.9574062;-1.2327607;2.1702201;1.6134001;-1.7350887;0.06773054;0.19260626;-1.1193485;2.8428776;-6.3102484;-0.24413638;1.2974231;-0.1367201;-1.8190796;-0.7505212;1.792357;0.09887464;1.830585;-0.38148347;-0.37875968;0.62558323;-1.7018486;-0.45816973
-0.53617036;-0.3455904;-1.2620764;-0.08094446;-1.3621618;0.5518453;0.17197941;0.7586913;0.36901978;-0.26045305;-0.53241175;-0.28187537;2.3351643;0.33431002;0.86528;-1.4372766;0.48117545;1.2196963;-1.2076454;2.5474167;-2.245386;0.027680783;1.7731706;1.3807069;0.27828443;1.2708957;2.3855436;2.1718962;0.15433972;0.53848505;0.95031756;0.3469488;-0.15540254;-1.6157181;0.15276681;0.68936145;-2.5428152;2.369926;1.1031204;1.2988465;1.2752825;-0.62567616;0.45833877;0.41640016;-3.2302854;-0.9899053;0.16334501;2.0395393;-0.57385105;1.9234307;1.4970466;-1.7544129;-2.0562706;-0.3118778;-1.7508142;-2.9316065;-0.78548574;1.1365372;1.7004327;3.8238966;-0.6204307;-0.96424145;-0.4266241;1.3594745;2.3041167;0.5616388;2.6788292;1.9613544;0.4733594;0.92072743;-3.3601363;-1.3105804;1.4320725;0.4448333;-1.3778622;0.54947156;-0.72513384;3.2291505;1.3981707;-3.5367064;0.18598732;-0.5230993;-2.4941783;0.67666507;-0.5945251;1.5449184;0.8505562;0.4263329;0.036902487;-2.3897421;0.81509554;0.38411474;0.134509;-1.2047279;0.8205761;2.5882387;0.14677604;2.52631;-0.96065944;-0.6556366;-1.7563728;2.0885324;1.1065981;1.0055043;0.59962404;1.3475763;-0.39828727;-2.3071496;1.3069425;-2.0798383;1.7326244;0.1411551;1.293471;-3.084152;-3.3784158;-1.7935734;0.09324304;-4.3861237;-2.6262689;1.3342487;-0.4672837;1.5287523;-1.2204795;-0.11210915;2.311644;3.28123;-3.3225832;2.3739815;-1.271353;0.320057;-0.7758216;0.38056222;-2.6447334;1.0308812;-0.28344283;1.8934116;-0.9554404;-0.5073132;-0.33070672;-0.87851304;-1.7954406;0.90853375;-2.2229517;1.5745425;0.96325266;0.7156456;-0.6817834;1.8508065;-0.910761;1.2597431;0.27241832;0.14019589;-2.4393792;-0.68345034;2.0760314;-1.4617169;-0.16646607;0.7319274;-2.0917623;-2.5516808;0.80308485;0.38550374;-3.938929;0.18206218;-0.21535727;-1.956152;-0.14485975;2.0436594;0.06422817;0.85470146;0.1499459;-1.9585437;1.4023298;0.42774725;-0.1005007;2.1714437;0.5620665;-0.5964348;2.7441149;2.9253476;-0.9581802;2.2072625;1.6899263;-0.92952216;0.18143068;-0.48753396;-0.07402894;0.96958053;0.74599576;0.099051885;-1.2873777;-1.2792238;-0.08814608;0.07036067;-1.2242423;-0.218763;1.336376;1.9322588;1.645138;-0.925046;0.26351503;-2.101223;-0.5081334;2.521033;0.43088448;1.649071;2.7655218;-0.16585378;-1.9085582;1.0458506;-1.3940485;0.3870057;-0.4170727;1.4321908;1.7151482;-2.7283862;-3.659734;2.250264;0.14326058;2.776618;-0.3327766;-2.8269815;0.037602626;-2.4803367;-0.3903953;-0.33235714;1.9780835;0.0009190308;-2.2356384;-0.043042995;2.1066582;1.0015428;-1.8466687;-1.6917593;-3.3953214;0.13887541;-1.3203161;1.6372787;-1.4371442;0.43406895;-0.04193647;-1.839886;1.0141765;-0.3659281;0.5939885;-2.1760602;1.1327524;3.262554;-0.6180678;1.5430049;2.29032;2.568421;-0.056584332;-3.401759;0.78489304;-0.10776225;2.3438487;0.6665172;-0.48860797;0.008405496;1.305759;0.06359924;-1.1504219;1.2665275;-2.7485929;-3.437917;2.2193165;-1.2972329;-0.6542059;-0.8128714;-3.3400857;-2.6068377;1.1173686;5.1774096;0.5152461;-1.0299507;0.51152503;1.4336687;-0.15228203;1.569765;1.036592;1.3754703;-2.1481774;-0.39961118;-2.6620624;-0.4935146;0.67924684;-0.18796876;3.09495;0.55929476;-0.024775349;-0.26281315;0.31063533;0.75863975;-1.59921;1.2610838;4.2574296;-1.1794128;-0.1586865;-2.2307122;-0.3903625;-1.3511951;1.061973;-0.42155927;0.034131072;3.1120636;1.2642837;-1.7097561;-2.3923354;-0.3331356;1.0930575;1.377443;0.5559576;0.755559;1.4765517;2.1625772;0.9260652;-1.5226197;1.3716972;-0.11704217;0.899019;0.80858946;-0.08271707;1.0619167;-0.5851365;-2.1698089;1.8466536;-1.2606956;1.4569762;-1.374862;-2.4486055;1.831452;0.21227446;0.3429279;0.19111073;-1.2356083;0.40893984;1.5219191;-1.4740579;-5.001828;1.1769711;-0.8604674;3.6547222;-0.6978271;1.1376567;-0.4310449;1.9816825;3.2105985;-0.42152438;0.9481002;-0.9132852;-0.4412356;1.5497556;0.28206682;0.316703;-0.40791732;-0.29977497;-0.08112125;-1.374553;0.98483497;1.7722702;1.937518;-0.31690276;0.8956373;-0.60318786;-1.4220484;-0.6814059;-0.33405402;-1.6049137;2.43685;0.13695735;-1.383483;-0.9633527;0.016936088;1.6740835;-0.3873111;2.2928329;-5.29253;-0.23601435;-0.96155566;0.4660212;0.10167994;1.7821934;0.5880047;0.110891186;0.14506166;0.8728906;-0.6013946;-0.011079652;-1.2053236;-0.732934;-0.5694819;-1.5290027;-0.61398786;-2.5388906;-1.1174585;-0.7425476;0.009771832;-1.5050565;2.660758;0.541106;0.3971455;-2.0049813;-0.1390383;-2.1793652;-0.2915718;-0.45342222;0.08041471;2.4849837;0.26646143;0.8694552;2.694606;-0.72739065;-0.77815753;2.028683;0.6289128;3.5016384;-1.3342023;-0.2885288;-1.4736923;1.0659342;1.9876604;-2.1334379;0.53313583;-0.71698844;1.9440117;-2.6657348;-1.3990109;1.6267717;-1.1973354;-2.7353914;-0.6466515;-1.3213395;1.6105468;2.7366467;-1.4458393;0.014750097;-3.6426568;1.2583925;1.1376302;1.9923613;-3.4385042;-0.50605965;1.0693103;-0.5353116;0.40388563;-0.11962387;0.023870453;0.041308176;2.3362803;-2.3113382;2.0065148;1.0765774;-1.3455755;-1.1488461;-2.7858212;0.85645694;0.27376112;-4.6029067;0.1551764;1.0681762;1.8051264;-0.41924298;-1.4879435;0.9368433;2.4171972;-2.0191402;-0.19918667;-0.5478755;2.5519884;1.0858562;-2.5781457;0.19841379;-3.063144;-1.5560378;-1.2917405;0.17050703;-0.21049765;-2.8302846;-2.8387702;-0.5186762;1.4969974;-0.29853165;1.1501644;-1.753577;-0.06267143;0.6893139;-2.1473227;0.34750667;0.9687664;-3.1976573;0.6551906;-0.74616945;1.8498361;0.43408433;-0.24492666;1.054526;1.3995112;1.1521456;0.5292413;-1.6955552;1.0551499;-1.5713814;2.2734609;-0.06579647;1.1271625;-0.58507997;1.735763;-5.1369724;4.0070076;-1.1905994;1.1247994;-0.00730753;1.3112841;-1.5530597;-0.68274474;-0.19716735;0.20864981;0.27229476;0.9038808;-0.017804274;-0.24844724;1.1628906;2.0219452;1.6585457;-0.34744957;1.5326685;-2.529432;1.706951;-0.13493767;-0.17889076;-1.3651873;0.08750393;1.5034003;0.7171108;-0.5183668;-0.84148264;0.5960866;0.39763302;1.8818905;1.319145;0.47953027;-1.4232868;1.7758272;-2.3296952;-2.8961613;-1.409263;1.905296;-0.22003222;-0.6537457;-0.6933114;-2.524162;-2.95123;1.0003158;3.4890745;-1.101195;-0.38240466;-0.410598;-3.1210246;-0.5153067;-0.69739777;1.0893145;-0.68080485;-0.49855277;0.9997849;-1.8106574;-0.68439794;-1.4137409;1.034379;0.5476789;-2.5921063;0.40062946;0.74058235;-2.8465433;-0.11845487;1.5065693
0.5445181;0.25143248;-0.009116335;-1.6893346;-2.33843;1.135697;-1.0665869;-0.55499834;0.7226433;-1.232761;0.17180195;-2.3683178;-0.059919845;0.07567224;-0.24464431;-1.1402274;1.8676264;1.6725885;-0.32961643;1.665336;-2.898397;0.10445577;0.2629656;-3.003749;-0.8858417;-0.57217896;0.32338098;-0.37065512;0.5913967;0.8758391;-0.60089326;-0.8486198;-0.144781;1.442298;1.2269894;0.059761196;-3.0887897;1.4025668;1.6207992;0.6273463;0.99254924;1.243434;0.60039014;-0.6169738;-1.5880966;0.097719066;1.9739448;2.8690417;1.7519352;0.7871546;1.6343123;-0.46249816;0.18388398;3.1099753;-2.6724782;4.445443;-1.262492;1.1071604;0.4071128;-2.189395;0.17596963;0.36536565;0.97628975;1.7655814;0.3383115;-2.7111337;-1.7589235;0.852389;-0.6848864;-0.82934904;-4.711192;-2.0261822;2.5565758;0.96262324;2.0385015;-1.140935;3.2739575;-2.0114093;0.5085904;-4.17036;-1.5006298;-0.0008792885;-1.233988;0.15576516;0.6187079;0.5218359;-0.5414899;-0.08009059;-1.0369937;-2.6057663;-3.0002592;2.5033324;0.13129048;0.367388;-0.6714632;1.5156057;-1.1871954;1.2272793;-2.3897588;0.36771363;0.87502116;-0.5213047;0.38090166;-2.270552;0.59909546;0.9342399;0.016169246;-2.5211616;0.9954361;1.6300038;0.3347156;1.0850655;-0.910739;-2.9169476;-2.007303;-1.527986;0.07891311;-2.2910633;-0.590109;1.0507469;-0.23564552;0.23196277;-1.4884001;-0.0465115;2.9918823;2.516863;-0.6921247;-0.34028473;-0.46283212;0.6933907;-1.3488557;1.1337553;0.64425987;0.7562843;-5.657224;0.10187032;1.2865031;-1.6578957;0.5414426;0.58262527;-0.66427565;-0.89800626;-2.6724272;-0.61572546;1.7617842;-2.833878;-0.7344703;2.644075;-2.965;0.7107037;-0.79946864;1.2589469;1.8364819;1.2167505;0.87024677;-3.029842;-1.6221524;0.52629256;-1.6603516;-2.7249887;-0.13145798;-0.957688;0.5489796;-3.066649;-0.04864838;0.76814014;-0.11041093;1.2377224;0.2534976;0.26945174;-3.5901086;2.6174285;1.1188713;-0.011134961;-2.763109;-0.3683264;1.1119368;-0.010170448;0.1901836;0.5926592;-1.1019896;1.3565503;-1.1741266;-0.998615;1.0026659;0.9401474;-1.3599479;0.01851035;-0.5643794;0.7390141;-0.5100124;-0.3596277;-0.44862518;-0.1215057;-0.14476322;0.07131702;-0.9776153;1.8802427;2.3609052;-0.0039600036;0.34811187;-3.1088145;-0.3167107;-1.1616845;3.3980086;-0.1805994;-0.605612;0.53654927;-0.71945226;1.762426;-1.1361442;2.127783;1.801786;0.8663536;2.854202;-1.7934414;-3.0307448;1.3092378;-0.37350756;0.9175718;-0.20933145;0.14773428;0.37953597;-1.6619073;0.9418587;-1.0105886;1.4257182;-0.2827614;-3.076374;0.010940585;0.08512237;-0.58647746;1.1047912;0.83454376;-1.0003802;-0.22603938;-2.561222;0.5542881;-0.07210842;0.9075527;1.2298679;-0.6832384;0.1738005;0.54770243;1.3559823;0.08306989;-1.2616087;2.7094662;0.2918015;6.377595;0.34154052;0.6554249;0.48235083;0.24463853;1.4517032;1.06731;-1.3309503;-0.2632716;0.946081;-0.6235652;-0.44070935;1.8214719;0.98211265;-0.09681772;-1.5780666;-1.4043137;0.8656103;0.886118;-0.38728356;0.10297871;-2.836392;-0.5893819;-2.7331622;3.7231674;0.45870242;2.2956047;0.55977297;0.0062556667;-0.8582033;1.447652;-1.8799111;-1.0543928;1.3802255;0.5071327;-0.029141707;-0.9767763;1.2830817;0.6386551;-1.3925908;-0.8174463;-0.7500606;0.85513324;0.7382633;0.29304305;-0.7380776;0.90397793;2.308707;0.20934626;1.5930783;-0.43990412;0.44627273;0.449458;0.7185364;1.6753623;-0.91971356;-1.4854575;0.9876899;0.22657381;0.068940245;-1.2045144;1.0967438;-0.2807742;-1.1769987;0.16715884;0.65008837;1.5486232;0.93019027;-2.2090766;2.8109164;-0.79512465;0.99590653;2.6751895;-0.25740898;-1.7936763;-2.4510849;3.2285326;-1.386957;-0.38197434;-1.2606722;2.86815;1.8136551;-1.4946618;0.17376572;-2.4788566;0.74974376;2.7584312;2.325183;0.7912335;-2.6353958;0.035613507;-0.3957259;-3.4391012;1.3592114;-0.9503154;2.154921;1.3090891;-0.13669214;1.275171;0.28301704;-1.3001777;-1.1374779;-0.039718155;-0.12343737;-0.29420438;1.1673343;-0.89756894;0.26098037;0.84000295;0.30886224;0.81697667;-0.0062636416;-0.5168825;-0.39181432;-3.8354208;-0.43670607;-1.6811424;0.57410467;-1.0451311;-2.0874233;2.3311205;-0.3659431;1.9187799;-0.1700417;-2.027051;0.47800085;-1.7585537;-1.1854608;-1.1427339;1.01145;-1.4086572;-0.45921665;-1.8750722;1.9183279;0.94969964;-1.7039775;-0.6253077;0.3265418;1.5973706;-1.2353778;1.1351962;1.5505967;-0.55614;-1.6480842;0.22035393;-0.10818731;2.962771;1.595625;0.2457914;2.0341697;1.3505604;0.56681335;-0.16825154;1.2502637;-0.14350116;-0.05262215;-0.26029226;0.41292706;-3.0420074;-2.5986917;3.6107464;0.9810243;0.0021060791;-0.5492823;-1.1136113;-3.464272;-1.5804541;-0.9270689;3.0220022;0.77487075;-1.6777211;-1.0399767;1.3258551;-1.9264066;0.47486556;1.5246522;1.0525193;-2.390968;-2.6408176;1.5409977;0.9733812;-0.06209647;1.1679916;-1.4652898;2.2245626;-0.329558;-0.37520498;2.0482607;-3.4025037;1.815351;-3.0403216;2.9407384;-3.1154044;-3.1155975;1.5572695;-1.175435;-0.5925579;-0.8778056;1.6666598;0.7106326;0.13977116;0.39062983;0.4937886;-0.27217978;-1.1758012;-1.7546428;0.07671899;-1.336448;-0.6267261;-1.2890391;1.2804372;-2.2614946;1.6648648;-1.462151;-2.9004118;-1.6421129;-2.0565963;-2.1205413;-0.7975769;0.6523743;-0.9258363;-0.619312;-1.749634;2.0589855;-0.8172866;-0.18251382;-0.2640378;0.7446256;2.087234;-3.2364113;-0.8218422;-2.441037;-2.6518857;-1.2310439;1.5971565;-0.46454003;0.382756;-0.07090419;1.9119991;3.4334917;0.75010884;0.8304356;1.906159;-0.27828875;0.9362388;0.043102905;3.7994056;-0.47802916;-0.66735303;1.5461055;3.3407326;0.18757777;2.1407459;-0.43981823;-0.8300564;-0.95280594;1.5252502;-0.7027274;1.8756728;-5.2547603;2.3002324;0.6188969;-0.5666676;-0.46152243;2.1625764;-1.4322234;-0.56335646;1.0276664;1.2503067;-0.5751695;-0.018997692;0.9482613;-0.3290372;-1.7263373;0.59435916;-0.9506302;-2.0796483;1.3574833;-0.7259519;-0.56974596;-2.1209083;-0.53671384;-0.4906457;-0.93578917;1.334636;-2.0391042;1.8359001;-2.3992336;-3.362961;1.2808497;1.3184725;-0.04279261;-2.2251525;-1.0129647;2.421888;3.3294883;-2.1714728;-3.1036105;0.6506078;0.64539707;-0.2345992;-0.9853891;-1.4880426;0.20203246;-0.85838515;2.8594537;0.8105058;5.0102744;0.21612366;2.1475656;-1.0436808;-0.4813339;-0.13545592;0.9902526;-0.38483292;0.97865355;-1.2998971;-0.504804;-0.95012295;1.2942106;2.7286875;-1.6399399;0.90285605;0.64527917;-1.8937002;0.24774025;-0.09817785
-2.3382359;0.74062675;0.11736828;2.995985;-2.2287438;-0.1794798;-0.40426472;0.8730325;1.0740567;-0.7942486;-1.8553017;-1.0411701;2.1130426;0.16304623;-0.6538968;-1.0645164;-0.19859383;2.3922079;-0.82267064;1.3696835;-2.737328;-1.3395133;0.52890056;-1.5831645;2.686487;-1.4143757;-1.3241655;0.43117642;0.34734428;-0.6112768;2.2826395;-0.48906654;-0.15132532;-0.8641147;0.7775945;-0.0006086132;-2.1817586;-0.76098526;1.437517;0.70492154;-0.7231489;0.809855;-0.5667946;-1.365292;-0.8716301;-0.3741664;2.3960764;1.3048648;-0.7945775;-1.3927613;-0.3054179;-2.2795534;-1.2869669;2.3893125;2.6801302;3.0666776;-0.39978024;2.4898562;0.51482284;-0.8092402;-1.0410212;1.6800991;1.5089161;-0.48136047;0.20396946;-1.0798731;0.7075906;-1.6816164;1.6016302;0.1289664;0.8869955;1.103546;2.7495077;-0.22147505;0.049470864;1.7944322;0.7555108;0.3809766;0.6939548;-0.7435964;0.61992955;-1.976098;-1.9493059;1.0447652;2.8544257;-1.0921067;-2.783591;-1.2920703;-1.6059113;-2.0248425;0.16010857;2.7813375;0.4236388;2.154081;2.1483958;-2.9784927;-3.9731922;-1.0889266;0.58263016;0.0140843;1.4205922;-0.8849923;1.0708199;0.8830861;-0.7231614;0.6636808;-0.23298731;-0.6207934;-1.0972673;0.81617856;-0.7671917;1.5698811;2.6724072;-2.90684;-0.76798135;-1.7557174;-0.11802617;-1.1559689;-0.22285648;0.4744291;-0.052252527;0.47888246;-0.9503985;-0.11843116;0.006196374;1.8609105;-1.4906254;-4.2554913;3.9748774;1.0203542;-0.83761823;0.032512754;-0.7966577;-2.3847716;-3.939158;0.84065914;1.7163243;0.2132067;2.0833118;-5.5832715;-2.4490073;-0.2046444;0.7713809;-0.7480604;0.12294584;-0.917006;-0.5086231;-1.2539356;-1.9137195;-0.20496719;1.0180968;-0.16023685;0.6030975;-1.1921933;-0.9239953;2.8405294;-3.2709026;2.2618148;1.2275138;-0.2918374;0.21938351;-0.0013120387;0.20309684;0.57845813;-0.095147274;-0.065832786;-0.9472902;-0.06666006;-0.025032675;1.0328233;-3.7391303;3.7832122;0.11496186;-1.216928;-0.544598;1.0264708;-0.10477923;-1.1237;-2.286461;1.3254211;0.2153211;2.2532058;0.5703227;-1.023743;-0.5751055;-0.28249016;0.598724;0.11132715;0.5225146;0.14448032;0.9356755;-1.4827132;-0.7895813;0.13613623;-1.6016532;1.0763109;-1.4639038;0.95361304;1.4878422;0.13805665;1.6616951;-2.4022238;1.5525748;-0.09690342;3.0586047;0.1386838;-0.59289086;-0.31405333;-1.2072352;1.799186;-2.5410867;2.2217839;1.3036503;-2.0362093;-0.55480003;-1.2413923;-6.7056355;1.1710585;-0.26605403;-1.2955538;1.3923427;-0.87490815;0.8480326;1.4499108;0.53351194;-4.3728333;1.0132986;1.8851371;-3.4335718;-1.9778774;2.6398177;0.6376255;-1.3316139;0.114710905;-1.1616774;3.3036106;2.2026358;0.21666674;-0.09572578;1.0409883;-1.1619389;1.1022967;-2.608478;1.1185244;-0.5067284;-2.2422025;-2.7291915;0.24583526;1.3591901;0.81483835;2.9802806;-2.9021566;2.3464177;-3.362701;0.18665724;0.71407974;1.9570528;-1.2795343;1.0387459;0.7108188;-0.1241314;2.7909324;2.4958231;-0.42307213;-0.92229754;-0.03133529;-0.4779361;1.342792;-0.14511326;0.10800031;-4.9177017;1.424483;-1.8540492;-1.6856856;0.2518185;0.65457815;1.3153869;-0.755349;2.5106838;0.34150442;1.9037733;-1.7461196;-0.80966455;0.63256174;2.1399825;0.9432515;1.1322198;0.33373234;-1.7838101;0.32259908;-0.5471264;0.39929074;0.48957947;-1.4065601;-0.9193529;-0.5989901;-3.5258946;0.8877601;0.13165298;0.83252937;-0.64723724;-1.9449292;1.6776444;2.432739;-1.7961969;2.126516;0.60833144;0.02926298;3.1639192;-1.9345671;-1.7620658;0.42039412;-0.55262095;2.708111;3.1599317;0.28950188;1.1592354;-1.3201894;-0.20858043;-1.3473699;-5.7194543;2.3641627;-0.015555225;0.23007713;-1.7151895;0.75981104;-0.6595638;-0.6940371;-1.3008602;4.1766915;0.88403296;-0.90244055;2.3553946;-4.6233163;-5.141692;-2.0479846;2.17646;-0.13730685;-1.5332148;0.9211937;-3.2694933;0.10734432;0.61321783;-0.1884326;-0.3007379;1.5406368;0.9269012;-1.6125984;-0.214726;2.6736186;1.661987;0.7200882;1.8409925;-1.0780728;-1.0012591;1.1531605;-0.24767058;0.3983574;-0.55323875;-0.32330665;1.0404233;0.17983404;-1.1862042;-0.039593823;-1.4173365;-2.6508293;-2.356725;0.1190041;-1.8153745;2.601188;0.59155154;1.8366301;-1.2069849;1.0128771;1.0917631;-1.314578;1.0983208;-0.66792905;-0.76527846;-0.9699415;-0.60536134;-1.3552343;2.5514786;1.3234134;-0.66282165;0.017679432;-1.2937512;-1.7522492;0.07376062;0.066494204;1.7540293;1.3678888;-1.2784894;-2.38443;0.9153278;1.1287513;0.9034547;1.699281;1.8335569;1.803155;0.36666778;-0.6789903;-0.028241748;-2.8821962;0.3556777;-0.52569056;0.44626468;-4.385803;-1.1046951;1.690678;1.023166;0.38481688;-1.0969821;-0.67186636;2.132322;-0.69212174;0.24048072;1.4503897;-0.079343446;1.4694853;1.7832682;-0.42421606;-2.02634;-0.8479778;0.6484089;-0.017382514;-1.4162534;-0.31109843;-1.5879176;-2.5933185;0.8207255;-0.50886;1.5237828;-3.2671347;1.5367151;-1.0929687;1.3341134;0.46263504;0.10037835;-0.63373893;3.2629902;-2.9998941;-0.6280418;1.8222165;-0.7981492;-0.73266846;0.7130936;1.1521448;-0.94897866;1.9569701;-1.4819078;1.0540942;0.72370803;1.5585663;-2.083805;4.256795;-0.58776087;1.0478832;-1.9265051;1.6755965;-2.6908824;1.3853009;-0.31434217;-0.36072314;-0.84772104;-2.249163;1.1213872;-0.32213762;3.494654;-0.83013695;0.82576954;-2.7487795;0.72060144;-1.6583518;0.26989058;0.8024741;1.1531126;2.9987013;-2.3312745;-0.7749612;1.0581805;1.7849689;0.5792288;0.6478532;0.82375664;-0.9621521;0.952221;-0.31774604;3.0580585;2.340265;-0.8188532;0.083008386;0.9073198;2.0370169;0.7287034;1.0514677;2.1998425;1.5181036;1.6193297;-1.3144901;0.02111486;2.4324138;-0.414871;0.09661389;-1.4512992;1.2633471;-1.0965942;2.3971424;-1.2937583;1.2493851;-0.21866234;-1.8621534;-0.9925473;0.6577789;-1.1820422;-0.25737503;1.3966042;-1.5387708;-1.1676666;0.80744773;0.67672974;-3.356484;1.6339369;0.21904753;0.17331095;-0.2505658;2.1274998;-1.4644479;-0.23548204;-0.12708387;-0.7956826;-1.2451608;0.9824864;-1.063443;-1.2975153;1.0157809;-1.0174334;1.7858222;3.266055;1.7586609;1.5940971;-1.1894637;0.73202896;-2.6033657;1.2829133;-1.2833451;-2.0762208;1.429141;0.24732713;-1.4824537;1.0947604;1.0862067;-0.09797541;-3.5866303;1.8050587;-0.75404745;1.317522;-0.7411919;-2.0783176;-7.3202643;-2.7470694;-0.9914541;2.8931246;-0.414384;3.848241;-0.9681029;-0.64831513;-0.8324339;1.1003546;-2.3698485;2.1096282;-1.7509152;0.71271294;-0.12240231;-0.14584562;2.106585
0.39904058;0.3946247;-0.8313799;-1.9861126;-0.6958046;0.08183855;-0.4103632;-0.2820826;-0.062692314;-0.8796234;3.0102425;1.400988;0.8656432;-0.19851498;0.8809298;0.19162965;2.8512576;1.850294;-3.683034;1.3422314;0.80138254;2.3408325;0.89581513;2.0622203;0.07591663;-1.2865901;2.6951318;-2.2681172;0.389253;-1.4179766;-0.98961693;0.8338484;-0.14405467;-0.42062354;2.4768355;-1.8864965;-0.78882927;-2.9522984;0.52993447;2.4630659;-0.22192277;1.4585202;-2.2138548;-3.167253;2.1648366;-0.76002246;-0.6636063;-0.5634756;3.7518287;0.4560142;-1.4509225;-0.30049843;2.5831332;1.1328787;3.1543593;0.9704;2.8965228;0.21518907;-0.22865716;1.0151725;0.6325886;-3.1396506;2.2811203;-0.28186616;2.509028;-0.233214;0.9129225;-2.8090272;-0.09926786;-0.0505957;-0.93139535;0.007947918;2.2662058;-0.5761131;0.041601107;1.8648;-0.6232417;-0.07112304;1.2955297;0.4040802;0.8408449;-1.0796223;0.026134841;0.31783426;-1.021002;0.598754;-0.5678643;-1.1524581;-1.3090066;-2.43811;-0.49278077;0.04982646;0.7669864;-0.08819181;2.2391067;3.0491583;-0.57862514;1.0691872;0.9922773;0.055719234;0.18984304;1.7872545;-0.2972644;0.93481266;0.6186412;1.1611998;-1.1146556;-0.20180081;-2.8924115;1.3361361;-1.486626;-0.3486155;1.5749955;-1.3382062;0.9118541;-2.573809;-0.008526284;-3.296012;1.3579192;-2.176394;0.33885404;-1.1754732;-0.23302574;0.22389965;0.9556373;2.2395456;0.99050397;-3.2849731;-0.15216354;0.9636187;1.2518319;-1.0595953;1.4563249;0.32936358;-4.437923;2.4652207;2.0438056;-0.06979291;0.30510646;-2.5416548;-1.7576351;1.5149692;-0.9633478;-0.55142844;0.07425022;-2.4404747;-0.019669475;1.5280854;-2.6278234;0.30652413;-0.0086865695;0.17780134;0.18685745;-0.30090076;-1.3514719;1.8375921;-3.3731918;0.29903927;-2.322477;-1.2678964;-0.41872767;-0.84113413;0.47090355;0.9409571;-0.12502885;1.1082054;0.45817187;0.4582162;0.58844966;-2.8763497;-3.6039383;-0.8218328;-0.8873477;0.12004673;-1.274558;2.1401162;1.9590644;-0.3623447;-1.3231285;-0.9710168;1.3191586;1.1155849;0.20839693;-1.7344294;0.6322863;-0.5859023;-1.6066383;0.33269376;3.2079673;2.9455595;-1.150794;-0.8031675;0.037150692;0.9224362;2.313348;2.4532926;0.793542;0.7920912;-0.52492356;2.334441;0.14893591;0.48421744;0.23232095;-2.1373339;2.060199;0.12386066;-1.429514;2.560653;-0.96773124;0.45858306;-0.80998605;2.8811586;0.033615593;-3.4452462;0.68980944;1.4225718;-1.7414049;0.4321369;2.3820949;2.17855;0.46211815;0.31492898;0.89202356;0.6034146;1.5117322;-3.2377396;2.2637827;0.86658204;-1.2839837;2.7124846;-1.0004712;1.6830896;-0.45234907;-0.90463966;-0.81431824;2.9958446;-0.5808861;0.710149;-1.8936284;-1.3274487;0.16280237;1.555636;0.3029864;-2.9484138;0.12562492;-4.658546;1.5766186;0.3630249;-0.65729654;4.257115;-0.36653414;-0.410561;0.010883191;4.1331296;1.5679109;0.28712833;1.2243302;0.056142904;-0.024487719;-3.8939755;-1.3916552;-1.2853032;-1.9774626;-0.32918125;0.51271176;0.63371366;-2.3856077;-1.4488497;-0.6215245;1.6648573;0.5988986;3.3219144;-1.9681991;1.2741672;0.8913719;-1.4618424;-1.5620708;1.560377;-0.55580175;3.0227265;0.7736488;0.6802622;2.1764324;0.54536647;2.147951;1.7854338;0.99624074;0.4504459;-0.53523767;1.1695192;-1.2485482;1.0205209;-0.34387013;-1.8633261;-3.6212046;0.19558293;-0.36500484;-2.155503;-0.24352595;1.2470641;-0.8737426;-2.2921133;0.4405454;1.2702819;-1.2998735;-2.5468352;-0.66763276;2.6582181;2.2228832;-5.12894;0.40896457;0.31208315;1.1297332;-0.27780455;1.144105;-0.1844767;0.33318278;-0.68099433;-0.7975695;-1.8041642;1.1673669;-0.98283595;0.06991861;-3.114141;-0.017568843;0.42471933;-0.93074375;-1.997718;-2.2495382;0.72625214;-1.1023322;-0.6882873;-2.1322396;0.405917;-5.875998;2.3004289;1.748303;0.6633079;-0.612731;-3.5492394;-0.5738891;1.1803026;2.431319;-0.038568858;1.401071;-0.91328406;1.7490538;1.173391;0.21591301;1.2465214;0.28177482;2.027485;-1.0871345;0.8017891;-0.64180833;0.7882771;-0.7196033;1.075694;0.38254365;1.9542905;-0.93712795;1.6239771;-0.8743355;-0.08840806;2.0986128;-1.2333627;-0.04319748;2.4646435;0.9744888;0.3460116;1.1775192;0.3606299;1.0453088;-2.363007;-2.9346442;-0.4235552;2.0035589;-1.130443;0.16355376;-0.5255128;2.06347;-2.004823;0.17843197;-0.5016376;1.3427149;-4.135172;-2.0589015;-1.4971932;1.0642021;4.07239;-3.0963128;-0.21316294;0.7985323;-2.490784;1.0446492;-0.3313415;0.0317273;0.8689659;3.706142;1.7865989;4.181914;-0.18768248;-1.2044371;0.2393929;-2.5024807;-0.2384746;-0.45525828;-3.7385983;-1.0342345;1.3019475;0.2141182;-1.3202188;-2.1413863;1.4179901;-2.610187;3.2151284;-2.627125;2.291005;0.002880628;1.4753301;0.41671604;-2.6129117;-0.7549084;-0.909474;0.15145606;-0.2917188;0.45412016;-0.004919607;-3.0455084;0.18515174;-1.3343415;0.53452766;0.2817417;-1.3987647;2.1906786;-1.3451159;-1.3175807;-1.7001033;1.0732896;0.04718157;0.9289359;-0.4147654;-1.6079465;0.41893363;2.1245668;-0.01315019;-1.8953727;0.8813921;1.5056938;-2.8480802;1.774736;1.4775392;0.2379243;-0.95834327;-2.1160629;0.53409743;-1.4073379;-2.0923438;1.0408839;0.34115994;-2.875708;2.943368;-0.923004;-0.76644933;-5.922947;1.1815722;2.2986777;-1.7700924;1.400648;0.93705916;-2.134716;2.3260539;0.60298985;0.1209548;-0.66839814;-1.6671064;0.3031928;0.27033305;-1.3645616;-1.5246007;0.21973759;2.5648222;-2.0397677;-3.077261;1.4949585;0.26824158;0.8969469;1.5890858;0.8822403;-1.4133828;-0.98970056;-0.10073262;-2.2517638;-1.4815369;1.6747353;0.829561;-1.1780691;0.67384243;2.3254836;-4.501785;0.6334738;2.4450579;-0.37268168;0.35713655;-0.4210966;2.3890476;-0.51947206;2.5576847;-1.8771737;2.2570567;0.23036449;-2.7867386;-1.7940787;-1.7341669;-0.46168053;-0.41648465;0.54013944;-0.757962;-1.4356408;-0.7994055;-0.2334623;0.8835228;-0.31169212;2.6619844;-0.5688915;1.575341;1.8960767;-0.01426568;-0.18395227;2.4023015;2.0231082;1.9535316;-5.146789;-0.28646594;0.7458677;-0.22158417;0.7814032;0.4796369;0.7990048;1.2786952;0.5190806;-0.59143317;-2.1403902;1.2772229;1.9767004;1.8565333;-3.1029904;1.2151432;-0.37636843;1.2899995;-0.13757904;6.182478;5.2591667;-2.6436872;-1.8321201;-0.4735614;0.009963913;1.4084853;3.609112;-1.134216;1.8012286;0.98788506;1.0519638;0.42542583;-1.311491;-4.1837606;-0.5128322;-0.008825294;0.11899624;-0.56104046;1.8231974;2.4784102;-0.85682213;2.173256;1.3166012;-1.5625594
0.77069753;-0.9761121;-1.0980575;-1.6685932;-2.2822733;-1.3088908;0.40793806;-2.5720613;-0.4554706;-1.0508797;0.28831705;-0.4179727;-0.83138716;0.24413832;1.1187538;-2.2149398;0.42373344;1.7820237;-0.54915464;-0.6767214;0.14607978;-1.3479776;1.1791888;-0.6691145;-1.400407;-3.6728961;-1.1182657;0.75756025;4.5457053;-1.0631763;0.39992598;2.3956022;0.11481225;0.63679224;0.14090873;-0.6747826;0.91273373;-3.2951894;-2.1930232;1.4335711;0.27330345;-0.6567459;-1.4492402;-2.1998293;2.448384;3.5495257;-0.4351024;1.4301873;-0.7941324;1.3332366;1.0515025;-1.8810947;3.4241004;1.8823783;2.3789628;1.1789839;-1.5957751;-0.33685932;-0.0366365;-1.282964;-0.42333165;-2.4054208;0.62718916;2.4192111;1.5587239;2.6648672;0.47223642;1.8063138;-1.6024586;-0.8061931;-4.425909;-1.3891644;3.4263384;-0.038729962;2.244109;-0.73969793;-4.047683;-0.0176376;1.3049494;1.8819487;0.20180334;1.0513237;0.57605803;-0.8213167;1.1952195;-0.036635026;1.2900064;1.4688041;-2.8450253;-1.2259456;0.14210005;-0.29033035;0.7639416;0.88595563;-1.255948;-2.33343;-1.582815;0.43496042;2.2058594;-0.4325746;-1.0450082;0.2884976;-0.9609257;2.6540768;0.9679431;0.24271847;-1.9594581;-0.41801625;0.84401554;0.4239514;-0.22034182;0.5453615;-1.7812797;-0.10386499;-2.341959;-1.4023018;-0.17353082;-0.8051204;-1.0491943;2.4492373;0.1111651;-3.014618;-2.7842476;-0.06571354;-1.1536291;1.0645475;-1.7332516;-2.1047175;5.078014;-0.44821537;0.66690886;0.04059485;0.46200982;-2.8868506;-1.9703554;1.5892336;-0.7347249;2.2502031;3.6859093;-2.9161127;1.5976388;1.0275439;-1.9321817;0.76050985;0.068262696;-1.5860585;-0.34302303;1.5117038;-4.1359224;-1.5507898;0.14864825;-0.4623113;1.1197175;0.5086677;1.2859195;0.65211093;1.9728798;-3.1000175;-0.0063303043;0.79024744;0.0098395;-0.34287387;-1.6902009;0.41310337;-0.18208963;-1.263217;-0.42791376;2.160379;-3.2872646;-1.6505948;-0.013897044;-3.49111;-1.9153047;1.3262765;-1.3614482;-0.33049566;0.6397486;-0.049012236;0.6680398;1.749553;-0.047270145;-2.5004296;0.35580134;0.36589417;-1.4812003;-2.2102697;2.4553616;-0.8352962;1.7467989;1.8458683;1.4332268;-2.7499018;-0.9802615;1.9877043;-1.2335935;2.0602715;0.34112725;1.9867338;0.19455384;0.4211592;0.1149045;2.2119696;-1.8511992;-2.022601;2.4929547;0.8603617;-2.761376;-2.4953458;-1.9886954;2.7827976;0.92200816;1.1172546;-0.52645385;-1.6991419;-0.5991837;0.99485093;-1.481401;0.84893686;-0.93102705;2.4198625;1.1665784;-2.0934274;-0.09039421;1.9777774;1.9832169;-2.809816;-0.26451817;0.40172678;0.012998194;-4.938561;2.0751662;1.1160696;-3.5201333;-1.3747149;-0.7281208;-0.37617314;0.88829046;-1.5544007;-1.3455039;-1.1632835;-0.39339957;1.376252;0.63241196;-1.7473828;-0.47315717;-1.1558691;0.5868634;-0.5519453;1.3947543;0.31086212;1.794173;3.3592503;0.18284139;-4.1585517;-0.1461187;0.30174598;0.7016251;0.87690043;-0.71050406;-0.020720845;0.09308623;-1.2226334;0.10690989;-2.3484788;-0.32893896;-0.35865888;-3.0907204;2.156762;0.068631396;0.86423904;-3.7439706;2.5839584;0.018810904;3.0470898;-3.0301528;0.5946338;-0.3367293;-1.6715273;0.61649144;2.3410523;1.4286113;-0.081045814;0.8733033;-0.35907912;4.155331;0.23373725;2.0493355;-0.9249359;-1.5957869;1.424124;-1.279213;3.1198215;0.9790589;-2.3919363;2.2643082;-0.6728114;-4.7949;-1.0001503;1.7816255;0.23058498;-0.36846173;-2.3325841;-1.0759921;2.3142707;-0.03699556;0.81994164;1.2534434;0.5143044;0.98986363;-1.8635267;-2.260305;-0.43620408;-0.93689984;-1.8033401;1.1636949;-0.9460604;-1.304194;0.8864381;-2.1403244;0.16474748;-2.459846;-1.9341946;-1.4693824;-0.4453852;0.09342907;-0.9296775;1.9597325;-1.7182206;2.5966792;-0.8721996;1.4893106;-1.6146607;-2.3135533;2.4275112;-4.304845;0.31963646;2.7077782;2.7379093;-0.2979671;-1.4541258;-1.726732;-0.05122991;1.9652073;-0.06342672;-0.8884797;-0.7422574;3.201825;-1.5802301;-2.6626532;-0.025804156;-0.3475554;1.4539675;-0.9407724;-1.0173167;-1.8967115;1.5246991;0.6724194;-0.6814623;-0.40508068;-0.7084162;-1.023358;1.1191854;-1.9712518;1.1458399;-0.24193615;-3.1196535;-0.24191529;3.5222816;3.4530215;2.2977684;0.22859421;1.0227139;-1.2326033;-0.77615845;0.5172494;-3.7029202;-1.5607576;-2.1207843;0.4648555;-1.0627173;0.007897099;0.32445762;0.87039566;0.74301565;-0.08187687;-2.1439447;1.5848751;1.4840758;-3.3876562;1.4595686;3.835856;-0.17490885;-0.020250332;-2.4680016;2.0018768;-0.3080098;0.10036359;1.4363863;0.576814;-0.14877771;-0.2899097;-0.5714537;2.416884;-4.050141;-1.5989023;-1.66694;0.007960588;-1.7395247;0.4637458;0.59164804;-2.0893295;1.4376601;0.80698794;-3.2596486;-3.6432889;1.2829899;1.410078;2.5951061;1.0215611;1.2347876;-0.6106315;-0.14511748;2.666936;-0.8840665;-0.41545397;-3.131027;-2.9807014;-1.0974054;0.6177507;0.99559116;0.36393005;0.09325286;0.39037323;0.7449608;2.487447;-2.4826102;-0.97468185;0.22948053;1.0381597;2.2656274;-0.24222805;-2.5727963;-1.0735244;0.6152993;1.0674789;-1.9951649;-1.5314385;0.8312265;0.12634088;-1.5883586;1.989121;1.2946144;-0.8744551;-2.34709;-4.071342;-0.7715675;1.4540039;0.8722071;0.68010485;-2.7570064;-0.9156207;1.1621004;-0.36026767;1.1400214;-1.2082034;1.4998404;2.196618;3.0462646;0.28477505;0.1275946;-0.060441818;-1.4832128;1.6699929;2.2365997;0.6648051;-1.0096352;-0.24601433;5.2070556;-2.4163938;-2.0200164;-4.4585176;1.2075517;-2.7179985;-3.8997405;-0.25338823;1.6883157;0.19352409;0.25718865;0.3096255;-0.4925138;0.8849613;0.7676128;0.5786778;2.8769226;0.33682498;-4.230016;0.7852294;-0.08810752;0.28573725;0.5882481;-2.00511;0.25392184;-1.6469555;-0.5487696;-2.1291628;2.4099367;-3.3552644;6.977976;-7.874638;-1.5367446;-0.04898655;-3.780998;-0.88562673;1.3897964;-2.4029934;-0.9029832;-0.7046693;-3.288863;0.39597505;2.5620482;2.0909479;1.2195631;-1.5588015;2.1561496;-0.47378895;-1.7418171;-0.48526764;0.042949773;-0.04923071;1.710101;1.2525905;1.5299269;-0.8808194;1.7179255;1.0628021;2.1674795;-1.490337;-1.0846307;-0.9127647;4.1811748;0.42207858;0.0766913;-1.005094;0.12686183;1.0106556;-0.83900017;-2.5136764;1.592449;0.68275285;-0.018175619;1.417416;-1.6868463;0.7367573;-2.4376333;1.1410882;-1.9758122;-1.0494916;-0.9238409;-2.9765317;-1.6387031;2.1882713;2.0812464;1.8781404;1.295339;2.1918585;-1.1626644;-1.1386751;1.0289512;0.48179138;-2.0896049;0.61503786;0.89925104;-0.5035949;2.2571452;0.27023923;-2.8396106
2.0245926;0.59363806;-0.7558865;-5.219894;-1.6960653;-2.3217971;-1.0259176;-0.16914275;-0.32031208;-0.9947307;-2.4404323;-1.0751735;-1.0306411;-1.4604917;-1.8364968;-1.8247445;-1.0226071;0.9855765;0.15237118;0.32343778;0.6818571;-0.5848426;4.8281817;0.9783673;-1.7467762;-2.1902494;0.079103924;0.057191975;2.2900414;0.17662527;0.13722508;0.8893988;0.13683797;-1.3312349;-0.032854427;0.8613284;-0.22131339;-0.4222389;-2.04382;-0.6921384;0.40277192;-0.8194767;-3.2655003;0.5455023;3.902015;-0.27776474;0.43556434;0.90267783;2.7890372;-0.40659037;-0.5691562;-0.35975215;1.1560506;-1.0214893;-0.20733881;-3.5381765;0.59922177;-2.4495518;0.63861734;-1.6770755;-0.40709028;-0.61579716;0.69776815;0.29722598;1.5862477;-0.4619752;-2.6387691;2.9365935;-3.9406316;1.2444812;-2.1703403;-2.8227096;0.2404185;-0.4330604;-0.15836826;0.011513928;-1.9594316;-0.6729634;2.1807346;1.3541412;1.0835129;0.24487486;1.1451408;-2.5580778;-0.3867711;-0.007830497;1.6245838;1.3970635;-2.5371137;-2.5526423;1.6940374;-1.290783;-0.5033306;1.6185077;-1.0950354;0.394544;-1.4803276;0.10176063;-0.10410137;-0.5224187;0.38376784;-3.2438455;0.6898933;4.358789;1.1417284;0.8423309;0.2002319;-0.6250523;0.23932953;1.2998779;0.43021524;1.878445;0.8448993;-2.642969;-0.7293805;-1.7029691;-0.08085206;1.3211129;1.6536514;-0.7580828;-0.4218717;-2.4912162;-0.014945345;-0.06387813;-1.0625348;-1.6691785;2.9410517;0.21923476;-0.34871846;-0.9860786;2.4944108;0.34821206;-2.6883492;0.26509207;-3.9888258;2.7044506;-0.617337;1.5541084;1.8110818;-3.4042828;0.044162303;0.39314014;1.2971046;1.6328301;1.3384012;-2.064949;-0.052296095;1.8669761;-1.029773;-0.92788374;-0.62159055;0.1662863;2.7078578;0.9399949;-0.39795995;-0.017324846;-2.269701;-1.97255;-1.1142646;-0.41659352;0.3005848;2.665547;0.93942183;-0.80705863;-0.07050525;-1.425995;-0.45800948;0.67245436;-2.0155876;0.82373405;1.031968;-2.3173432;-0.19791579;0.5740148;-1.7977637;-2.351781;0.6170824;0.85232586;-2.6465778;0.6490653;-0.34246844;0.29761228;-1.7932417;-2.6444023;-0.39994672;1.6984736;-0.6728103;3.3872795;-0.1260783;1.1010717;-2.4759557;-0.14685975;-2.9631884;0.4362459;-1.6628852;0.95477325;-1.1036652;0.9765648;-2.3134272;-2.2669194;-0.16246434;1.3923165;1.7976722;1.7372506;2.4125705;-0.4955754;-3.5386379;-1.5103348;1.957507;1.7484626;-0.83302695;0.15534928;-0.8478976;-1.6789744;-1.8573773;-1.5430127;-4.6933055;0.030431025;-1.3348454;3.1579583;1.0127985;2.6108918;-0.26383048;-0.48718256;2.7701983;-2.2183957;1.1440023;-2.3023188;0.32629827;-2.4309022;0.97152245;1.1882731;-1.908262;-0.77222335;0.21945046;-2.7333667;0.87192434;0.27652147;-1.353055;-0.040550083;-2.2732744;-1.3678489;0.60790163;-2.6348236;0.18625411;-2.2579062;-1.3231906;-0.32884717;-1.9024965;1.0446545;1.7099774;0.21706514;0.42101777;-0.11093083;0.12723723;-0.41609746;-1.2210407;1.3643959;0.38562077;-0.8134797;1.8134222;0.48955783;1.2617539;-3.8634026;-0.43484503;1.3091903;-1.3441788;-0.8024545;0.23681116;-0.44324288;1.3391044;2.2230487;-0.45031735;1.6308813;-0.65711385;0.46008563;-0.2806844;-2.3900776;-1.4016156;-0.7613936;-1.1210079;-0.33615807;2.744438;-0.73933625;3.704922;0.8640118;2.1626449;0.58447987;0.72585315;-0.20773038;-0.84439284;0.32071027;-0.24919969;-1.1860038;-0.22855155;0.11258063;-3.5117533;0.3324943;-0.3585954;3.8879812;0.15106815;-0.6016486;-0.1811739;3.2681406;1.1981252;1.967124;3.4521554;-0.90329754;-0.5407775;-2.3530567;-1.1211207;-0.2111671;-1.3712646;0.018604608;2.6775732;0.7135676;-0.81292295;-1.0108134;1.9056078;0.31214324;0.9838131;1.7401942;-0.15444924;-2.067679;-0.90969396;1.1855918;0.27556232;-0.63359755;1.8281395;1.4888113;-0.72184926;-0.1523439;1.8225383;0.14772242;-1.7100974;1.3534008;0.6930088;0.4165842;-0.7341129;-2.2900467;-0.81343615;-0.15880595;0.061332412;-0.4692617;1.0218306;0.381143;1.6439047;0.5813537;-2.0885587;1.5929706;0.0043308963;3.314699;-1.9430643;-0.58569866;-1.3705331;1.2802289;-1.2023215;-2.5723274;-0.86203223;0.6043709;-0.19476667;4.0137734;-0.22377452;1.9343743;-1.4759561;-2.3267686;-1.4227405;1.4020395;0.15685454;-1.0717623;0.0503075;-2.9432015;1.3246596;0.28677803;0.071162775;-3.4539502;-2.3596828;-0.6396069;-0.41766003;-0.36523327;3.742619;1.8518173;-0.764837;2.1816926;-1.5114957;1.806178;-2.0833359;-0.56495;-0.87977546;0.4031059;1.292021;0.70310986;0.3711779;0.07917181;1.6403129;-2.491165;1.0733757;-0.17697474;-0.63629;1.0106758;-1.9536942;0.08126021;1.1742289;-0.31140274;-1.7358844;1.0641117;-0.5758199;-0.17333202;0.8021983;-0.72576976;-0.85348666;1.2338814;-2.5254781;0.12617442;-2.0210326;-0.13984104;-3.7044008;1.0504135;0.2260144;-0.08835628;1.6178442;0.8977585;3.1601634;-0.8025368;-1.133518;0.50812215;2.62017;-0.472354;-0.9175285;-3.9837677;-0.77853906;-0.73639786;-1.8185725;-1.2355399;1.7685843;-3.056327;0.45631406;1.5070145;1.0890048;2.8435857;-0.44221294;-1.5634181;0.6424708;-1.3000447;2.0972044;-0.9701093;-0.014917956;0.3988995;3.0479267;-0.39233318;-0.14472292;0.06074148;-2.0823486;1.3676023;-3.3601136;3.12446;2.6709569;1.1978655;0.83561075;0.2849518;-0.68092805;-1.9471307;1.2013509;1.4219129;1.1826901;-0.27887353;0.34764713;0.24229008;-1.2850604;-1.4494894;-0.3636563;-1.0430757;-0.35231915;2.8909054;1.807572;2.677661;0.37478477;1.3872173;-0.5851069;-1.2789924;-2.8412154;1.2585139;1.4323431;1.0193052;0.87985086;1.33113;0.42795545;0.2467605;0.3518191;-0.86593467;-1.1287909;-0.948229;1.6971543;-1.2448258;0.38123843;-0.567835;0.63730204;1.7739384;0.5862058;-1.2159544;-0.6872692;0.5243604;-0.54035735;0.36415046;-0.3227761;1.0073872;-1.9296808;-0.10757682;-4.576131;-3.6296647;0.8951625;0.2914878;0.49640986;-0.07887097;-1.2966084;-1.4697746;-0.17617314;-0.74917614;-2.487634;4.8040485;1.6300244;0.7163255;-2.9691207;1.3097347;-1.2969838;-1.5976262;0.8882118;-1.9385566;0.30197617;1.000266;1.5523067;-0.37133;-0.42282832;2.8030252;-1.3008516;0.81017566;-0.34883192;2.015211;0.37399748;-0.80814415;1.1462878;-0.84895825;0.7868441;0.29794723;-0.47443807;-2.3774133;-2.945305;-0.074032836;1.7446539;-0.8955465;-0.95499796;-1.6722885;2.382774;-2.437493;-2.009376;0.8509381;0.6378992;-3.2554517;0.37547284;-3.4948554;-2.9482274;0.90052074;0.5815275;1.0761476;1.4081866;-1.962689;-0.27157694;0.597779;-1.0134239;2.2379613;0.22579978;0.1018927;1.8222259;2.3561685;0.10812945;-0.42091635
0.18036397;2.1196113;-1.7831731;-1.4940228;-0.32554707;-2.1495647;-0.10213974;-4.531867;-0.12596671;-0.39334753;-1.8081585;1.6889199;-0.5979593;0.019550946;-1.6086001;0.8105685;2.0528018;0.118641526;0.46627882;1.469842;0.520128;0.0069265817;0.075640514;-2.982154;-1.4641925;-0.6292476;-0.074135825;-0.23156823;0.40857407;1.4010541;-0.0777349;1.605694;-0.008715135;-1.1330973;-0.35102272;-0.677236;0.9992986;-0.01849835;1.251833;0.002612834;1.7169652;-1.6720757;-1.1766169;-1.2997055;2.8572803;0.39225182;-2.1651056;1.0517848;4.485214;-1.0612172;0.39941627;-0.7864375;0.5234408;-3.291929;-1.9330064;-2.5786881;3.9205756;0.29997677;-0.6664018;-2.8261342;-4.7480965;1.1306458;1.3355771;2.5802727;1.8497149;0.54520804;0.16755663;0.39097705;-4.303604;2.801393;-0.57696706;-2.7323775;3.7475505;-0.37781388;-1.7020056;1.7547787;-2.7447457;-2.509029;0.15403041;3.0351195;1.4833897;1.7047309;-0.03317558;-0.9898418;-1.7533065;-2.3382723;0.9390979;-0.85816586;-2.8835313;-2.3180509;2.508181;-1.3799807;-0.12535247;0.2586924;0.569293;0.55020803;-1.1955534;-0.5105067;1.3319653;-0.844053;1.8414215;-3.0494125;-1.005424;2.8020172;4.832988;4.8135443;-0.6302382;-2.7506068;1.5436796;3.2807512;-0.6505918;-0.053903174;2.4352598;-1.8123204;0.75612855;-0.89418286;-0.40354377;-1.5361261;0.40441197;-2.8799546;-0.45179793;0.098139495;1.403358;-0.10040602;-1.4595035;2.7186184;-0.1128059;0.32305577;-0.5726742;0.36236903;1.3651855;-0.64428735;-2.3568263;1.3182362;-4.1105404;-1.9425359;0.7031012;1.2074775;-0.060825083;0.40319273;0.7844841;-0.31756857;-0.7098685;3.7882466;-0.6030537;0.49959826;-1.0034904;-0.85721254;-1.8786435;-2.0096002;0.24301928;1.7186393;-0.577902;0.74611205;0.031433843;-2.307824;-1.7705634;-0.93553376;-0.44969314;-1.0123756;0.60584897;2.2078567;0.84768033;1.1028891;-0.10611386;-2.5929098;-1.7679576;0.48972458;-2.5656362;-0.65926534;3.6150615;1.2977229;-0.7057351;2.255551;-0.8740073;-0.2301501;0.8520324;2.962383;-0.13058448;-0.68300337;0.4155875;2.6182134;1.1497267;-1.815047;-1.7979423;3.1726823;1.0305837;0.3286925;-2.5177236;1.510702;-1.0070684;0.67317533;-1.7442421;-2.0427318;1.192755;4.1273327;-0.4435449;-0.5220101;1.1103181;-0.9960196;0.37760252;2.5098138;-0.4552453;-0.89116883;1.6801413;0.07702064;-0.46527213;1.6026553;4.8226767;0.029946197;1.9169269;-1.1323291;-2.262742;0.2770117;0.6269166;0.21430539;-3.9689205;0.5349409;1.5655621;1.5868117;-0.32079744;0.72506636;-0.9177963;-2.7623851;2.4891098;-4.0665016;0.25404283;-0.2699315;-0.16159293;-1.5677482;-0.5572197;0.9210963;-4.6331606;0.9527107;-1.5439315;1.8753822;1.4776607;-0.52265763;-1.4101365;-1.4435253;0.94499546;-2.6712766;1.3642696;1.0734793;-0.07352888;-0.8738532;-0.9113691;0.24741226;-1.7976463;-1.5232756;0.104765065;3.310635;0.9619463;-2.2168007;-1.2872498;-0.9507207;-2.4629397;0.9314047;-1.505908;-1.0037669;0.6853573;0.3770569;0.84101325;-0.43752012;-0.43597767;1.2882704;-1.3863969;-0.74601007;0.5798482;-0.64184934;-2.1033068;-4.2102757;1.5606356;-0.14332153;-0.07758358;1.4715158;-0.96882385;-3.0205002;-0.836498;-0.8526919;-1.1293012;0.83349866;-0.051629707;0.18142399;0.70805603;0.51942784;1.3139095;-0.8408892;2.993565;-2.3541238;-1.5817517;1.9123921;-0.6313606;-1.7177118;1.0733117;1.1271607;-3.224245;1.0436074;-1.2970353;1.2412583;0.8015616;-2.0463524;-3.6243455;1.2278557;0.11104573;1.6286291;0.051001105;0.6222586;-1.1011586;-3.089137;-1.0306685;0.569904;-0.62737453;1.4275161;0.10510125;-0.4642755;1.1208501;-2.297219;2.2999277;1.2112792;0.34240195;0.9338064;0.5893149;1.0308744;-0.05637356;-0.5154425;0.94664615;0.86201787;-0.1085396;0.16321647;-1.8385379;2.6828737;2.8069935;-0.16362016;-2.7208924;-0.8399849;0.012420906;-2.4703314;-1.6904675;-1.4867455;0.12280653;-0.95664203;1.3173728;0.62379193;-3.3497427;0.67796594;1.3539183;1.0877378;-0.30696115;-3.6778195;1.2728063;1.6220579;0.29607576;0.31053814;-0.29015872;1.5047309;-1.3715792;0.033759885;-0.98288107;1.4782672;-3.553403;1.8657982;0.36624125;-0.011781738;-3.1198974;-1.9591402;0.76576835;2.257889;-0.6738912;-0.3983852;-0.7568341;-0.19304079;-0.60151494;-1.2401761;-0.61542505;-3.1676455;0.46632525;1.4553809;0.0112735955;0.72264373;-0.012101536;0.045361914;-0.7012406;0.6533713;0.050545268;0.39201823;-1.8850654;1.7879076;-1.0219929;-0.06612486;2.1549983;1.3029994;0.027300375;-0.47614563;2.9250753;1.5103763;0.70712984;0.23188122;0.57414055;1.8045219;0.8181591;-1.1889002;1.8488226;-0.7085598;-1.7485652;1.0411941;-0.746389;-5.3616796;-2.2134128;-2.4514413;0.87336147;-0.7022456;-0.17284872;3.3208096;-0.5531549;0.15896198;-0.23146597;2.7958229;1.4086269;-3.1003554;0.2855726;0.41231728;2.6056976;-0.8888691;1.4554424;0.5524033;-1.4190857;0.552018;0.49271312;1.2037461;-1.6054728;-3.1497476;1.0230309;2.143652;-2.2004683;-0.24887219;-1.8640803;0.53207964;0.5014;-1.1342049;-0.039611217;0.4793704;-5.4137826;-2.2171688;2.3796444;-1.8677824;0.074721694;-0.37848854;2.2251763;-0.327556;0.34067518;-0.12260131;0.029810922;1.1459553;-3.1584868;4.388765;0.26098746;0.67690635;1.4909381;-0.24208502;1.6477151;-0.8612132;3.0593321;2.9758608;-1.1409794;1.227325;-0.9191479;2.9740286;-1.2288786;-1.6321027;-2.460632;0.47189897;-2.8670168;2.5761433;0.8079203;0.7514475;0.6604903;1.9962342;1.50485;-0.7755698;0.3001207;2.8554106;2.3768299;-1.8062154;-0.0684097;-1.4046222;-0.6601504;-1.094606;-0.8341263;4.091164;0.38585842;-1.4350421;2.557878;-1.6250926;0.78160614;-1.2896848;-0.66772753;-2.15778;1.6475972;-0.7586687;1.5219709;0.39216185;-2.3968897;0.43294603;0.83590555;0.80291176;-3.0866373;-1.0062631;-1.529838;-0.17707092;3.093554;-1.1965895;1.3551638;-0.73317987;2.082492;-1.5595452;0.9045127;-0.52458924;-0.50258267;2.0957258;1.8856924;-1.5062441;1.2619768;0.7245338;2.6535668;-1.5039653;-1.0334703;-3.0153384;-0.573195;-0.2650418;3.0424635;-2.3221269;-0.0071996097;0.07651704;0.23415524;0.09618858;-3.1268141;2.3954356;-2.1705747;-1.3046374;-1.4538523;0.66398215;0.21642075;1.4563471;-2.1657805;-2.01846;-1.7316357;-0.06990496;0.29738235;-0.21381974;-2.7215075;-1.4311672;-0.9309313;0.56273067;-1.0032476;-0.45997345;-0.62839115;1.623085;0.88668853;-1.8633878;0.61035174;1.0421464;0.29062945;0.78691185;-0.9893921;0.03626907;-1.087043;1.6593008;-2.2368906;-0.18623485;4.3496857;1.8973001;-1.4830121;1.0882953;-2.31643;-2.830157
-0.16028161;1.7193856;-2.0140636;-0.39825016;-1.2404873;-2.5638676;-1.353997;-2.457343;-0.14395373;-1.6973674;2.1850815;-1.3760053;-0.31904563;-0.88247395;1.4393802;0.8528507;1.1391065;-1.0508871;0.07209582;-0.8470889;2.6166308;0.5103717;0.36328578;1.5633472;-1.5935163;1.8685687;1.973268;-1.4180826;0.38212228;-1.7128779;-0.38427147;-0.5947121;-0.29171374;1.1564382;0.17309669;-0.13621885;-1.7802203;-0.8007395;1.3160528;-0.16415893;-0.9247606;-0.6246544;1.1876979;0.49365205;-0.09220892;-4.9007163;0.093567714;3.4966042;2.6424067;0.032209907;-1.2498211;-4.244306;0.15738375;-3.5377848;2.7078607;-4.04867;3.2709467;-0.59256953;-0.41335762;-1.7456181;-3.317594;1.742532;1.5297092;0.9373677;1.316366;1.4826952;-0.89553386;-0.09209216;0.61204773;1.3081185;-0.93969214;-1.4528342;0.80453086;-1.4891948;0.018758591;3.0902107;-0.914665;1.6942505;1.9576023;1.2805965;-1.0472885;-0.18085712;-0.8088567;-0.7410718;-0.5951222;-1.3122852;2.9173763;1.3386276;-2.4100802;-2.3824203;0.680662;-0.7719099;-0.33812308;1.8509595;1.5559984;0.94814533;-0.3601053;-2.1198761;1.9321359;-1.3529007;1.8807728;-1.76216;-0.94081694;2.5089827;3.178304;3.1520126;0.19781297;-0.5064009;-4.560353;-0.53961277;4.0854917;-0.98947996;-1.8151542;-5.2778573;1.430718;-1.6966587;0.17461777;0.041765247;0.203316;-1.7920634;-0.618668;1.6765099;-1.0712068;-0.097101346;2.9152315;2.9093397;-1.4114747;1.623064;-0.39018214;1.0421311;1.211183;-0.4684213;-2.790925;1.1609795;-1.7272083;4.3187385;1.4796966;0.74680537;-0.60090655;-0.47157213;0.61354005;-0.10658695;-3.2963257;1.3327222;0.37234864;0.9090235;-1.5469158;-1.2926624;-0.6950742;1.8409548;-1.2493528;-0.84176433;0.61612535;1.2527088;-0.38931173;0.7471002;-1.4563658;-2.081523;-3.0170195;-1.0034978;1.4927254;-0.15751794;-0.5235219;0.6432325;0.33193097;-0.66901356;-1.759181;1.6595008;-1.5509238;2.5690916;1.4702677;1.4575889;-0.31217647;0.32301733;-1.0977081;1.8797522;0.85491735;0.02604277;-0.92466205;2.5425406;-0.15685324;1.9804139;-0.09794598;-1.9620835;-2.2270107;1.3792969;-0.7683254;-0.47491133;-1.2500288;3.9769661;-1.0647112;0.68540937;-0.72700256;0.6145885;0.033647515;0.4502926;0.9839032;-0.58116454;-2.1397955;-2.706564;-1.20233;0.9812808;-0.92995036;0.6222709;3.4221213;-0.5356409;1.6017182;-0.36653805;0.46443877;1.7476076;1.605285;-1.7473452;-1.8972497;-0.51640064;1.7936835;-1.3907393;-3.8034604;0.788717;-1.3587445;1.6338097;2.5552335;1.0288084;-1.7142942;3.6012065;1.4551969;1.5189372;-2.4673104;0.9048474;-1.7990882;0.73402786;-0.97790855;-0.17437927;-4.9754715;1.3029404;-0.6742764;-0.816111;1.5107462;0.8891439;2.7101269;0.3636303;0.35631415;0.8022147;-1.6198778;-3.1551173;0.6997716;0.34338486;-0.1663072;0.32778803;-1.1038581;-0.5930888;1.1568116;-1.2368149;-0.677691;-0.30750194;-0.6643891;0.2499395;0.73507196;-3.2463489;1.5653203;-0.2426563;2.9041433;-0.47195056;2.5147393;-0.7695961;0.8394692;0.73392254;2.2700057;-2.5692613;1.131198;-0.8713583;-3.3326874;-2.8079672;0.05556909;0.9918605;-0.7729663;0.9900766;0.39312854;-0.73735595;-3.3917332;-1.4135637;-2.0032768;-0.27272734;-2.87186;1.0229194;0.71407765;-1.9231342;0.9664895;-1.1524098;3.0539153;-3.5256355;-1.5833374;0.39402607;0.37065127;-0.8308207;3.9227664;-1.7045351;-1.927792;-0.27876323;-0.08755891;0.52421504;1.2487868;-2.2290647;-2.9443054;1.7470965;-2.2348974;-0.024069693;-1.7517732;0.9063992;0.5867911;-3.834066;-0.83541566;1.2650106;-0.6709387;0.99284244;-0.36373764;0.044912454;-3.336971;-1.3181428;2.9569318;-1.5377519;-1.2039163;0.8879205;1.3039914;0.880376;-0.838706;1.1444472;-0.16258739;1.7237037;-3.6635022;1.1378403;-2.668546;1.8857405;1.7330548;-1.5384884;-3.7184167;-2.31555;3.7430067;-0.58483416;-1.6971096;-4.835427e-06;-5.0557675;0.4370921;0.17235778;-0.13184261;1.4208488;4.850323;0.32522503;5.2525234;1.8115902;-2.1714485;0.0071147643;-0.23248696;-3.1669111;-0.27481756;4.100389;0.63013625;1.1948419;0.5696687;-1.3857898;-2.7235441;-0.75966555;-2.4798844;0.4168436;0.22865567;-1.6102035;1.1751133;1.1034292;1.0454285;0.028391326;-0.39785984;-1.0315671;-1.9986777;1.6138514;-0.25757322;-0.41757098;-5.6104746;0.8222035;-0.6300945;0.0876422;1.1357054;0.6613002;-2.1285186;-2.744656;1.1091257;2.372192;-0.62238;1.0128889;0.7111856;3.0625272;-0.9620062;1.684637;1.9187284;0.12879047;0.11165475;2.8187866;0.15732157;1.6266857;1.4138261;-0.061092403;-1.0244186;1.1673127;-0.40154663;0.0076005054;-1.0312104;1.4805461;1.1246005;-4.062777;-6.1394825;0.16828483;-0.41834956;-0.18200251;0.30896354;-0.60867107;-0.8779911;1.532853;2.0805526;-0.5910516;1.0769792;-2.7533255;0.16375016;-1.9517514;0.5098247;0.9794125;-0.030831287;-1.6637437;-0.9865343;-1.2616463;1.3014184;-1.5797149;-0.40192652;-3.4469013;-3.8533964;-0.56833565;-1.958456;2.2344348;1.6762388;-3.0758414;0.35231224;-0.57088125;-3.4517386;0.47192892;-4.358715;-0.7565137;0.89262444;0.2120655;-0.7830794;-1.1318126;0.9621531;-0.56449145;-2.343639;0.3574696;2.1839886;0.83029807;-2.1218488;-2.9392219;0.60703826;-2.758465;-2.3037379;1.9695398;1.4201548;-0.76051563;-1.1405319;0.040097207;0.5252155;0.5715126;0.9833805;-0.40834823;-4.12427;1.8720832;-1.9589499;-1.6050133;0.5633323;-1.152795;3.7185922;-0.42196062;0.60476726;-0.6969569;3.774522;0.68922675;-2.0971248;-2.9676268;0.4431481;1.5548804;-0.26897806;0.8679539;-0.18159479;-0.03348262;-0.47442672;-1.2184922;0.73206806;-0.9356476;-2.7974813;-0.1423057;-1.832826;0.30800456;0.41301927;-2.5725179;-0.730422;-0.3617024;0.08582865;-3.090294;1.6509463;-2.608807;-2.6364563;-2.8137124;1.3932893;-2.047488;0.84459174;0.014883377;-2.6811604;1.3242186;-0.37649482;1.7638348;-0.60513455;0.0523943;-2.800271;0.49384528;3.5468097;-3.090182;-1.8825758;1.8605006;0.8135654;2.3835695;-1.4216081;-0.9015995;0.759981;3.6511583;-4.538708;0.7971998;1.0446361;-0.09802424;-1.0867474;-3.5654056;0.17319356;1.6729616;-0.29017127;0.40309432;-1.2414832;0.10442056;-0.29361284;0.8112122;-0.5583908;0.48103765;1.8180095;0.30026984;-1.5490935;-2.497029;2.7816994;1.4329122;-0.6727238;0.025144858;0.5786384;-0.89076895;-1.7281909;3.172499;-0.41986725;0.10521872;0.6280756;2.7474096;-5.234088;3.776379;0.44768924;1.4073033;3.2075546;0.25145978;0.14837377;0.1822026;0.9588669;-1.6081775;0.6093622;3.7506433;1.1535723;-0.49208736;-0.2102406;-0.40295205;-0.7270282
-1.1970036;2.956949;-0.081479385;0.85939234;-1.9751266;-0.31137925;1.1303866;1.0486308;-0.5508727;-1.4088321;3.0216157;0.6973622;2.4110632;-1.9332443;0.89158493;1.1177002;1.5734289;0.35782343;1.0236592;-5.723166;1.7628447;0.59152746;0.16668722;-1.1639826;-1.210855;0.27545202;-1.0003104;-3.1837869;2.396518;-0.2927761;-1.0911268;-0.66959655;-0.3190905;1.4613067;-0.94635564;0.8206128;0.5254678;-0.55191064;-0.90884703;1.5706182;0.9074823;-1.4582785;-0.66526467;-0.31535205;-0.63549;-2.673842;-1.8652058;1.7210996;0.48894542;1.6139838;0.24292523;-2.186835;1.7701993;-1.5289057;2.2618837;-2.877496;0.47858584;-0.9838736;-1.8998122;-1.1048384;-0.21486221;1.4692887;-0.74402076;1.6342335;1.2574259;0.43931034;-1.6526902;-1.0468508;2.9501934;0.60224557;-0.54378724;-3.4020019;0.46675596;0.19231628;0.18631642;1.1230122;-3.1411583;-2.161918;-0.78784245;-1.9481814;-0.5026486;0.25068006;0.097494386;-0.18357542;3.517213;-2.815263;1.2132815;0.82327706;-2.627878;-1.8527917;1.1213735;-0.6456553;0.29303142;2.2999346;-2.4942098;-0.18765087;-3.2558253;0.85319334;1.5394695;-0.43664414;2.8961086;0.9784836;2.8893223;4.0058393;5.5394325;2.0057168;-0.6781057;-1.4225053;-1.4416116;-2.613437;0.010549778;0.18655153;-0.86893845;-0.28157023;-1.2969869;-1.9413358;0.2145915;-2.9697318;-1.8977132;-0.026858918;0.058620982;0.734132;0.6550947;0.16210578;-3.0883505;-0.14969744;3.6013882;1.5420777;0.39214727;0.71480423;0.772973;0.44823012;0.4306127;-0.03844434;1.1103139;2.193036;0.48116046;2.1880105;-1.0825323;-4.0935693;-4.095638;-0.11187127;0.19781275;1.479918;-0.049348302;-0.5217862;-1.0065389;-0.30383793;-1.7594739;1.3272359;-2.6696868;-0.6428232;-0.5822632;1.3905056;1.9967862;-1.0611807;0.54113054;-0.7716963;-0.5527148;-1.6100867;0.5915431;0.6110314;1.8653823;-1.5302088;0.36159968;-0.3579811;0.91517925;1.403163;-2.179372;0.73099005;-1.1536899;2.288336;-2.2633288;0.70050395;-0.5297021;-0.499403;0.54594433;3.136227;0.70189655;1.9642961;-2.0957026;0.75858897;-0.09931518;-0.84288996;0.266892;2.9279656;0.34104407;0.23569074;-1.0635939;-0.410568;-0.68940187;0.7838678;-1.2401074;-0.5413261;1.4162763;0.85590655;-1.8638169;0.7517229;-2.9804752;-1.6771338;-0.05198255;2.126123;-0.84784275;0.94739074;0.8269859;-0.61878395;-0.3256696;-0.39769343;0.9971319;3.2213178;-0.45807064;-1.0290829;-1.3055788;2.7024808;-0.9885896;0.56380177;0.7147241;0.122924596;2.0783758;1.701645;-2.130262;-0.15884638;-1.0103759;-2.9391391;-1.6453093;0.2894092;0.12919116;-0.31802142;1.0071607;1.1844388;0.8146326;0.78254014;-2.1874297;0.15815696;0.120346785;-0.111197986;-1.234124;1.2929381;1.3083068;0.095599584;-0.1422574;1.1904217;1.1858857;0.32060528;-0.7472079;-0.17674987;0.36124873;-0.9047514;0.20815858;-0.93678963;-0.7745762;-0.49238694;0.97708684;-2.0676124;-2.5044572;-0.038417798;-0.61961806;1.3336891;-1.1209247;1.2015175;2.0947113;1.3642613;-0.30671793;0.29232603;-1.1842108;-3.0840716;-0.49319324;0.7145545;0.94077563;0.4517248;-0.6111457;-1.4222093;0.03005745;-0.847398;0.32155257;0.6805471;0.23187917;-1.4901927;-0.9694396;0.41265374;0.96741843;0.30109403;3.2450342;0.4749055;0.21873477;0.5687354;0.99601305;-0.11881535;-1.2934062;-1.9805293;-0.3564981;0.8186807;-0.2661049;-2.0095835;1.7043129;-0.46242374;-2.4762259;0.24833119;-1.8004875;0.454645;-0.38886532;-0.95387363;-3.406203;0.3856289;-1.0987859;0.42490602;0.80800134;-2.2749298;1.7229562;-0.14285429;-0.6155845;0.77935016;-1.360403;-1.4848725;2.7012923;-0.26724845;-4.2548356;0.7893705;-3.0428944;-0.92122346;-1.492814;2.427527;1.2166451;-0.7167373;0.049531803;-0.66962695;0.69218326;-0.7111849;-0.29018325;-0.21199901;-2.005869;-0.19778344;0.9541938;-0.8136655;-3.0631826;-0.64969635;2.3936982;-1.4008191;-1.5321716;1.5666717;0.0855648;-1.7870985;2.7621346;0.71721786;0.35407162;0.4191679;-0.6907988;-1.6871121;0.7673189;-4.61934;-1.3807126;-0.6313311;1.1924888;-0.5183119;-0.0325861;0.36825156;0.109495685;-1.3241539;-0.26129356;0.67358696;-0.14047803;-1.8261706;1.4855174;2.406566;0.068561554;0.89085484;1.3264439;0.9369791;3.4274244;-1.7234558;-0.96881884;-2.671653;-0.41864148;0.2693421;-0.91508174;-5.5452404;-2.7118936;0.84808886;1.917957;0.7711826;2.905445;-0.6805016;-0.42960745;-0.4668729;-1.2435247;-1.9258415;-0.5857195;1.5494386;-0.44669208;-0.81045693;2.494543;0.24010481;-1.8428521;-0.87069726;-0.5417041;-0.99775064;0.073835835;-0.82047725;-0.85713136;-0.06234325;2.6401036;-0.15741315;-0.1952119;-0.86366767;-0.782385;1.3014939;-2.396313;-2.8443577;0.91610295;-0.30263466;-0.0403048;0.9897626;-0.9074626;-4.369223;-0.11933871;-1.4857092;0.52276623;-1.3959894;-2.302989;1.6297464;-2.1633596;-1.4353262;0.92484546;-0.64615846;0.19590363;-2.3967474;-3.3315125;1.2739527;-2.8430686;0.48563635;-2.266919;0.2550796;1.0693722;-0.85231245;-3.80418;-2.2366688;-0.1362482;-0.4392482;0.122063614;-1.0151675;0.4719276;1.9202203;-4.2736654;-0.44408327;-0.8171111;-0.07796722;-0.39709353;-0.5160689;-0.27466357;-3.3706305;1.6918106;-2.360838;-1.1576152;0.81702226;-1.9771298;-2.3070097;-0.41139925;-0.30290616;0.9128158;-2.326436;-2.0257964;-2.402724;-0.58285826;1.2710217;0.06927537;0.31297585;-0.06629603;-3.9974673;0.9789934;-0.87171614;-0.58377707;2.0922205;-1.738535;-0.5036214;-2.9045658;1.6529274;1.5104337;1.9618857;0.8399519;-2.091246;-0.99713033;-1.6386131;3.2987337;1.1284568;0.84987116;-1.0334815;-0.25025108;-1.9427699;-1.3311354;-0.3734124;0.7458773;1.0323309;3.6067762;-1.6344832;0.06319604;1.1212298;0.20708326;-0.107250735;1.0456095;-2.4732337;-2.873945;0.7579904;-2.2683408;-0.56374925;-1.9837433;-3.9077528;-0.06667724;3.0665004;2.6167514;-2.5253084;-0.043315608;-0.9181328;-0.25188208;-1.2117747;1.178792;-1.8404444;-0.88358784;-1.3944817;-2.7896447;0.065299496;0.09007561;1.3510528;-2.6222103;0.7010208;1.9426658;-2.6481023;2.7170534;-3.207111;-0.75790834;-3.320292;2.1597965;0.72285604;-3.4432395;0.32377416;-0.5303931;-0.9019961;-2.664125;1.0811319;0.25228068;-0.009114145;0.71422696;1.0122286;-1.6605511;-0.27816588;0.88964176;-0.7837967;-0.7501849;-0.4043731;0.96786165;2.5497165;3.2378109;0.072465934;0.8840538;-2.3847525;-1.2224017;-2.0922594;2.0518346;3.9898643;-2.7250717;-0.45339262;1.2042339;1.4263821;0.7094993;1.171233;-0.28257725;0.99884367;-0.45322102;0.17042315;-0.49222046;0.7309244;1.7681359;-0.80463475;0.015710277;-1.6862209;-0.66036576;0.7030455
0.5938273;1.510131;1.2740438;0.09032619;-1.0154334;-0.09901601;-0.35103914;-0.5471207;-0.0030101629;-1.3792392;-1.8024518;1.1903411;2.2846613;-1.7564895;-1.2695341;-0.543524;0.011353046;2.3056188;1.4140884;1.3664539;0.6441211;0.121791966;0.80258054;-0.2610746;-1.967679;1.2987801;-2.937894;-1.1068096;0.6749044;-2.2279248;0.31448007;-2.0568988;-0.07293113;0.71621555;-0.9071901;-0.13753282;0.7547162;1.7293367;-0.29640037;4.1815243;-0.20024474;1.4288421;2.2455847;0.54404414;-1.0522819;-1.1611491;-0.11450413;0.21029145;1.2306365;0.8499452;-3.1893358;-2.8750172;0.925964;0.5193705;1.5795671;-1.9647144;0.9733366;-1.2719016;0.28122538;-0.80580676;1.1538271;1.0094739;-0.8077362;0.46620473;0.9818967;1.6134824;-0.7595356;-1.3601946;0.8176653;-0.4059667;-0.24767953;-0.084342256;2.6240575;-1.2604299;1.6310542;1.3292843;-3.1583438;-3.124615;1.356452;-0.8939111;-1.9879619;1.0150619;2.8963578;-1.0120035;1.9540967;-3.0195491;1.6656884;-0.7058627;-2.5642595;-1.9949377;-1.3713392;0.20299834;0.66396123;0.77464044;-2.231166;0.13192627;0.033263158;0.16658926;1.5032188;-1.0859146;1.3671682;-0.32959396;-0.7221571;1.8518261;-0.14421688;0.20692624;-0.97188604;0.50259197;-3.2183828;-1.2338241;2.874024;-0.81260055;-1.7121595;0.65898836;0.08655081;-2.420683;0.1333734;0.4419573;-1.3682392;1.6483091;-0.056169264;-3.577012;1.0903028;0.21144061;2.2047741;-1.234751;0.7225362;1.5406178;1.3698658;2.2613425;0.1412928;1.028744;0.2883873;-3.2375371;3.4434268;-2.1363387;0.021784801;2.150985;-0.64306796;-6.360745;1.3011395;0.6450746;-0.38222906;0.37751803;0.2784367;2.7210767;-0.87693006;0.55743253;-2.7814035;0.53771085;0.18654951;-0.8953705;-0.3460817;0.7169925;-0.5447799;-2.107899;-0.4190516;-0.14384265;-1.3454999;-1.2482312;1.4952449;-0.25844806;-1.3035198;0.46162412;-0.14876413;-1.4153135;0.74650836;0.51640874;-2.0279355;2.2670178;1.5732721;2.3142662;-0.8624609;-1.1661363;-2.5530481;-1.3988199;2.3114488;-0.5666576;-2.5328481;0.6435343;2.034347;-3.2835484;-1.3445715;-0.40457472;-2.755011;1.7532837;-0.7792482;-3.4811826;-1.0822395;-0.60886323;-4.554835;0.031670235;0.3677361;0.4776138;-1.9211314;2.9859147;-0.9936542;0.6508539;-2.5580006;-1.6139369;0.047612593;0.4844909;0.6181961;0.80772847;1.1257519;-0.5788998;-2.6150813;0.61553115;-1.4663446;0.37446743;-0.47701874;0.40852013;-0.49651;-0.029535495;-0.09481217;1.8031387;-1.2566202;0.07112789;4.5916467;2.9238179;-1.150309;0.36162448;0.21123743;-1.7663321;3.4647918;-2.5340745;3.5487309;0.54047626;1.6442676;2.3022609;2.1408896;-0.42598906;-0.4682589;-2.413587;0.6062732;5.121745;3.5795782;0.8223538;1.2409515;0.842519;0.49633405;-0.0032864155;-0.6526;-1.651778;-2.0024617;1.5982307;-0.58620274;-0.9251688;-1.2727627;2.1991189;-1.5738322;2.5420809;0.64266026;1.8838674;2.1700487;-0.10788099;0.96581036;-0.7844471;4.25954;0.60501885;0.46684384;1.5693123;-1.697873;-0.21864724;1.394044;0.3107049;1.3999686;-3.337462;-1.0313126;1.809002;0.2072958;1.0839003;-3.631641;-0.6026235;-3.0983756;-1.4787846;-0.50199264;-1.2960081;-2.3177507;3.2789228;-2.5814092;-0.7025888;0.5455298;-1.365498;2.9878838;4.8670344;1.8248061;-0.4310387;-0.21103944;-0.8349007;0.39650184;1.2008508;-0.4208887;0.34166208;1.8145767;0.72300506;1.7113818;0.37680897;2.7136033;3.2396538;0.8571207;-1.8066151;-2.9764066;1.6172844;-0.0034884412;2.771739;-0.62334394;0.35798228;2.9336956;-2.8079765;0.51221853;-0.11201946;-0.05674102;0.070432134;-3.4760711;-0.34775004;-1.229933;1.3816044;-1.4003706;-2.7519763;-2.625705;3.7831967;-0.13634443;-0.6747448;1.7185525;1.0787947;0.20128505;1.6416662;2.231871;0.7074308;-2.8768363;-1.2454216;0.077932514;0.6293711;-2.8093681;-0.8287916;-1.5426503;1.417097;-2.56856;-2.1171398;0.14588162;2.290733;2.0480185;-1.4390761;1.2501343;-1.5630411;0.6711893;-1.8085532;2.5314589;0.5643393;-0.085044734;-3.1955564;0.22275384;1.0320394;2.3097706;-1.5151856;-0.1467376;-2.358837;2.308297;0.0068799686;2.884761;-0.54854226;0.27116778;2.290768;0.3006923;0.29621726;0.85454017;3.1509833;2.0688465;-2.2793303;1.4759017;-0.42562175;0.39168113;-2.1744459;-0.13910241;-5.4445686;-1.2538791;2.2624853;1.3261516;1.7034838;0.6970158;1.0506275;0.46905473;0.97219056;-0.4013107;-1.4073447;-3.3199296;0.8295616;0.056690656;1.7687287;2.932837;0.2607856;-1.3599641;1.6691524;-1.5217807;-1.5045319;2.0906706;-1.9815207;1.3167447;-2.2631276;1.7237087;-2.7294557;-1.404844;-1.4755272;-5.8645954;-3.9778922;-1.4724343;-5.7454395;3.390765;-4.1175213;-1.4001521;1.5622331;3.2659385;-4.0634108;-3.079995;0.52613693;0.54765475;-3.7437832;-3.2531073;7.6382065;2.0812814;-0.42145312;0.8240717;-0.92198604;1.7088809;-1.6452024;0.67809707;-1.720884;-4.5112314;0.5419456;1.1549723;0.58733547;1.8026996;-1.0946382;1.2890965;1.8786365;-2.1600628;3.492689;-1.2215145;-0.11556601;-1.6219468;-1.2134252;3.0031216;-2.9957805;-0.28444338;0.84401804;0.7257789;0.9269446;-0.21440442;-2.2762237;0.11359949;1.016029;-0.9817651;2.54182;-0.5038599;-1.2989281;-4.160081;-0.58183485;0.76076037;-2.9145036;0.044388942;-0.9172581;-2.031823;2.4710069;-2.1152534;1.9772203;2.15425;-2.7303736;1.0081992;2.6735632;-2.292185;1.4319621;1.4501176;-0.6745506;0.103925556;0.80864733;-0.6606198;-1.239567;-1.6478251;0.9259589;-2.606281;1.1869712;3.064085;1.3282654;2.0680933;0.70028466;1.0404792;0.606079;-1.5299468;-0.9489086;-1.7351873;1.779986;0.30664194;-4.058306;0.5642726;-0.6840871;1.1817508;1.0804397;1.7198533;1.5223714;-1.7517701;0.41693977;-0.69775695;2.056062;-2.8381033;-1.8934879;0.2810801;1.4332143;-0.05827456;-3.7911644;0.73917687;-1.9276453;-0.2882045;0.3437302;0.23221198;-3.060214;-1.2580173;0.4531907;-0.12881996;-1.1789831;-0.9672009;0.8159897;1.5933465;2.986524;-2.1203492;2.4494913;2.1304476;-3.8445275;-0.241692;2.483338;0.5990738;0.44053435;-1.9628706;-1.5116501;1.601181;0.82163304;3.6384397;-0.055496115;0.3775662;0.16479047;0.7339242;3.4914281;-7.2803473;2.1738396;-0.27068055;-3.9297636;-6.451395;1.5096796;0.87822616;-0.9988304;-1.9228109;-1.2091701;-0.5256017;-3.7929738;-1.6262603;1.5087364;-1.9758012;0.41481906;1.700524;-0.91315556;2.0064375;-0.6495785;1.0672073;2.574002;-1.2228744;3.5102618;0.20688163;-1.4636204;-0.7602034;0.47097072;1.6251565;3.6242688;-0.43363887;1.0161796;0.7858347;-0.6401242
0.9304809;-0.7704797;-1.0347793;-0.33511028;-1.335498;-2.1249883;1.0658597;0.13433038;-0.3735427;-0.118062936;-0.13769458;0.057749875;1.4010196;0.21516341;0.4212332;0.66485643;-1.4852018;1.4719999;1.5402449;2.6959596;2.5673213;-0.6346113;3.5066364;-0.34186774;0.17700833;0.6803552;-5.576327;1.1024653;0.8686643;-1.9326079;-1.2343763;-1.7557021;-0.12587787;-0.49736753;-1.9739718;1.7489113;1.7550912;0.95973104;0.7155464;-1.8172783;-0.24390821;-0.14507282;1.8866748;0.7690756;-0.3292496;-2.0159223;-1.1398426;0.91997504;-1.9165565;-1.0470144;2.25463;3.75593;-1.3988167;0.6929955;0.47794396;3.7174993;-2.194901;-0.9324479;-0.19758105;-1.0687758;1.3966968;-1.5450699;1.170608;-1.4171811;0.092843;0.35741937;1.2177979;0.52372205;1.1302645;-0.43626875;2.508378;0.74338794;-0.8108882;-0.4177225;2.7209773;-1.9218836;0.840733;1.4429861;-1.509214;-1.7211401;-0.31689927;1.4904034;-1.7113614;-1.430733;3.1700265;2.629028;1.7901746;-0.48439437;0.24980146;-0.93211204;1.2212433;1.303221;0.13793941;2.6581173;-2.5265837;1.8358198;0.81063914;0.030011656;-3.8796432;-0.41255033;-1.44509;0.81351113;-0.032819834;-0.30172226;0.6953748;-0.8329973;-1.7088424;0.7699323;-0.17707898;0.7557272;-0.37942275;1.6077222;-2.2622743;-2.9692729;-0.20317566;-1.7242218;-0.26752633;-0.2738858;-0.34968087;2.2462351;-0.34604454;-3.5262861;0.62978363;-0.119429424;-1.7663658;1.3235968;0.9260472;3.543815;-0.84337723;2.2993267;-0.5152978;1.5573694;1.3273084;-0.779515;-1.1915632;1.9357708;-1.1820387;-1.9567027;0.70294785;-2.8859527;-0.24412762;0.13599648;1.2415925;-0.02609387;1.3910184;1.5124115;-0.53279006;-0.26613936;-0.6174431;1.5133345;-2.2597082;-0.97314;0.3612416;0.8282162;2.1090958;-3.8292937;-1.5559282;1.8259268;-2.1585166;1.397434;-0.469716;1.9740081;-0.012914773;-0.51969737;0.007816049;1.1748302;0.8084425;-0.6918664;-0.4865466;0.13012505;-0.9439761;0.44370297;2.9958892;-1.0423557;-0.96676826;0.64506555;0.0397098;-0.22509283;-1.8561939;1.4234126;0.2667752;-0.08198512;0.11470513;-0.41436118;-3.7728646;1.5322055;-0.6667284;2.0936546;-1.4669254;-0.121904455;-5.793918;1.4412608;0.7656656;-0.39076734;-3.1863415;2.7214098;-3.4122407;-1.7128465;3.3408413;-1.342969;1.4626293;1.83067;0.44012576;-0.13989367;-1.7360245;-1.561012;-0.67117167;-1.2140363;-0.73188424;-0.17643087;0.49854064;-0.11528856;-0.73746824;-0.5109121;1.3586898;0.72168624;-1.3763041;-0.054872926;-0.9782404;0.3422905;2.2334104;0.8572354;-0.44501632;0.9704928;0.80281585;-2.2875538;-1.7087423;0.8674331;-0.7610541;-1.3672565;-0.9836627;-0.7468103;-1.3347224;-1.2439119;-1.2077218;3.4705014;-2.921054;1.070868;0.51224166;0.13439481;0.4623859;-2.241829;-0.9537217;-0.50126696;-0.7500842;0.5064733;2.6212215;-3.5027642;-0.5763014;2.9587595;-0.50530094;0.03649975;3.8447843;-2.892254;1.2923566;0.21215728;0.5315469;-1.1619569;2.6858003;2.970874;2.0170286;0.41348413;1.300207;-1.4397228;1.1397469;-0.58161676;0.21607931;0.4345274;-1.3649094;0.08416959;-0.11108964;1.3156002;0.3247812;-0.26193115;-2.4345536;-1.2213014;0.6989876;-2.4516568;0.067616135;0.3469219;-1.8733058;-0.900726;0.18033898;-0.8106345;0.13704467;-1.9547889;-0.69428724;-0.9159495;-2.494517;0.52746403;0.55927414;-0.21771157;0.22486219;2.0625536;1.089875;0.754022;2.5211067;-0.76009303;-0.09789459;2.247702;0.031642012;-0.29278058;-3.084231;0.5374585;0.24913387;-0.4473487;2.8557806;-1.071887;0.95575315;1.914718;-2.5604334;-3.3543057;-1.2733896;-0.58795273;-1.9184759;-0.1069161;1.1913;3.1214018;-3.1281555;0.30680758;-2.753435;2.7989058;0.8727983;0.695901;0.84132916;-1.9646568;-0.097347714;-1.1532717;0.21419364;1.4054512;3.2477994;0.6093192;1.4152303;3.0925336;-4.729876;-0.53230375;-0.04023336;-0.88549095;-0.022863882;-0.32289302;-1.1643686;-0.9424665;0.45665509;-0.13577329;1.747013;-1.8504462;-1.002117;0.42147973;2.2540624;-3.261128;-0.246529;0.29665422;0.5977467;0.032803085;-2.365423;1.8680998;0.22370797;-0.041820455;-0.5880902;-0.64403737;-0.5459779;-2.5805929;-1.3375412;0.51003057;0.8061235;0.051887427;1.3233827;-0.74092484;-0.47167847;0.5955008;-1.3906022;1.0713857;-3.6335022;-0.10146032;0.014420091;-4.666596;-1.283359;-1.0674878;2.4335935;0.2160404;2.0197477;-1.0051937;0.7394846;2.3802133;1.9551635;-1.1741222;-0.6290672;1.1067971;-1.6249406;-2.4478366;-0.18151315;-0.0124081345;-0.7740262;-0.5256819;-1.1297898;-0.22981353;-2.951248;-0.08352419;1.5890951;0.45196182;-0.48797143;-0.6778806;-0.97710747;1.9871035;-2.5094883;0.21760924;-2.7552931;-1.4601562;1.0353693;1.2838672;-0.8345384;-0.39077806;-2.537957;0.46680987;3.1790042;1.3500984;1.9112282;-0.62881124;-0.4569038;4.5356956;1.5733508;0.28745332;-0.94635373;0.9996006;-0.45183945;-2.5069447;0.42711717;-1.5790843;-3.4652634;1.2545493;0.65713704;-0.45864996;-1.0521276;-1.3335652;-2.8321657;2.711207;1.6368283;0.9178042;-2.7572005;-1.7018653;1.2341595;-1.333674;3.54825;0.51921326;-0.7067534;-1.168218;-0.4120783;-0.26787114;1.3449647;-2.3863528;2.4998488;1.1018958;-0.7884089;-1.379525;0.4411198;-0.6970751;0.28163886;-0.45626196;-1.9637736;-1.614651;-1.5826839;-0.38263777;-1.3974448;0.40584746;-1.6380833;1.5179676;-0.7599088;-1.0507975;0.8467907;0.32099992;-0.7156771;-1.6478201;0.67397404;-0.48105404;0.118273765;-0.8889812;-0.42649087;0.044438664;1.0897638;-1.8132879;-1.8620806;-2.8795154;3.7941604;0.072131;2.6349087;-1.2764614;-0.9180827;-2.9232388;1.0204115;0.31258056;1.5116246;1.265277;1.7953428;1.5245993;0.3105809;1.8631757;-0.37109414;-2.621901;-0.49589342;4.583287;-1.0664985;3.6153774;1.2714777;-0.022604214;-1.2646807;0.20417371;0.25110528;2.7474098;-0.4352755;-3.0374038;-0.8208519;-0.9946177;0.58903766;1.4780204;0.3736102;-2.2781065;-0.444274;-2.8113325;0.39271644;3.6268272;-1.1140718;-1.0751476;-1.4188566;0.26573062;-0.11006322;-0.97760904;-0.73078454;-1.7664474;-1.0804061;-0.32991636;0.98207295;0.5315692;-0.83354074;3.7084754;0.89644414;-1.7247442;-5.303238;0.057013042;-2.0108187;1.786657;3.3071587;2.500979;-0.03408442;1.3942147;-1.3863162;-0.15525594;-4.457579;1.6436121;0.013710715;1.1037443;-0.59022886;-0.4727273;0.7851612;-2.215844;-1.4296342;-0.9861682;0.9921775;0.29740116;-3.1075053;-2.2614312;0.25850332;2.9754083;0.033475142;0.30771455;-0.51877105;3.0646267;-0.27557203;0.4110365;0.13081187;1.4302207;-1.2164251;2.3140352;1.6063671;0.35572815;0.011205925;-0.80434895
-1.0121704;-0.5052481;-1.5894728;-4.5080094;0.16998444;-1.152313;0.8930042;-0.9426618;-0.36789024;-0.0153144915;1.6410521;0.66349673;-0.5955643;0.8857116;0.22325644;1.4066463;-1.1075933;0.5274642;3.9034317;-0.1374587;1.0087755;-1.3538107;1.657245;0.39263237;-1.7206941;0.5269386;0.8437598;2.6915421;0.52841747;-3.020155;-1.1735429;-0.31788197;-0.11142531;-0.53430325;-2.1237648;-1.191651;1.3156679;0.14944662;-0.074178;-2.542253;1.7539403;-1.6134667;3.3899095;1.2498823;-0.58764607;-0.85313416;-0.8265291;0.7558718;2.7995813;2.2320051;-0.6118426;-2.7291265;3.0540347;0.19555412;-0.53692466;-1.8465067;0.7910559;0.96668905;0.6680076;-0.62690574;0.23305698;0.4136358;-1.5728853;1.5621785;-1.5391569;-1.4656647;-0.47419432;2.1947637;-1.1479139;-0.71586084;0.53373694;-0.59078234;1.6023277;-0.79713726;-3.9674556;-4.0523214;2.8259888;0.27941456;1.2448688;0.5407005;-2.908856;2.4607823;-2.0306532;-0.93100023;3.771001;-0.1296127;1.8010104;0.9904114;-0.8078175;-1.6495733;2.399833;3.0886648;1.1139746;0.025553139;2.9882839;-1.4641571;1.7092179;1.4471189;-1.8211743;-0.06324597;-1.4033865;0.6031128;-2.1257577;-2.5419178;0.45489383;-1.3624747;1.0126989;0.6797866;-0.75696164;-1.5383372;-1.4455543;0.66676307;-1.9085281;-1.6194751;-2.1044443;-1.8786867;-0.012408068;-3.3843865;-0.429044;-0.25718376;-1.2043182;-1.7581526;-0.45296696;0.2978512;-3.2795765;1.6864936;-4.9393015;0.49418828;-4.7236266;-2.2804632;-3.234509;1.7231218;0.32460588;1.4647189;1.6348565;-0.30514657;-0.97330195;-1.6288129;0.36942592;-0.22103253;-0.94532496;0.46654072;0.7156774;-1.3850462;1.7388542;1.8469396;-0.59483224;5.894418;0.6723313;2.4385242;-2.2275321;-0.7940089;0.40279478;-0.26114026;-1.524368;-1.638817;0.051201917;0.86487734;-1.9467107;0.3795093;0.41719356;-0.2841038;-2.1264927;0.61929977;-0.102752574;0.700536;-0.06356268;0.5319368;-2.305157;1.0623894;-1.5711752;1.7889185;-0.5792562;0.13163729;-3.0700195;-0.14492486;2.0696375;-0.24117236;-1.764032;0.6930346;-0.91975176;1.2783253;-1.7034544;-0.1288311;-1.3636308;0.76039386;-2.4364724;-0.28755817;0.53004205;-1.682729;-1.4677448;-3.2176902;-0.16657402;1.2691503;-0.9472601;0.96478695;-2.7016497;-2.0174985;1.5938017;2.5603976;-1.3147266;-1.0252879;1.4639773;-0.8885706;-1.4014642;-1.1632006;1.7460837;2.239969;1.2516805;1.0857114;1.3124325;0.04913727;1.3854601;0.5075063;1.3796996;0.031102354;-0.90702116;-0.57985914;-1.0874659;1.1518335;-1.4363761;-0.2045695;1.6851776;1.5583591;1.3516088;1.2302301;1.297089;1.2535198;-1.4189281;0.19691244;1.4673074;1.4714383;-1.2198106;-1.1950957;-0.082876325;-0.024732454;-0.9129649;1.1623206;0.21032181;1.5954341;0.19078758;-0.31393746;-1.835205;-0.7886417;0.89878154;2.6122823;3.4733875;2.4229753;2.5184612;0.064481385;2.4675653;1.6186066;0.085868195;-0.47276017;-0.48480517;-0.37118512;1.780227;-0.7361468;3.0212348;1.8429182;0.44516528;-0.4704925;0.9035715;-1.3383859;0.34969783;0.5582514;-4.30836;-1.2801752;0.44475737;-0.43039823;2.6236532;3.8784058;-1.330324;0.7430721;-0.778341;2.8694246;0.11913522;-0.94174856;0.6790056;-2.1172605;-0.352414;-1.5823629;-1.583815;0.9599614;-0.4100782;0.43686366;0.19265115;0.028267227;-0.5590399;1.2889272;-0.13323613;-2.1218572;-0.008960323;-0.3791574;0.4903042;0.45266572;-0.24390885;-1.0036137;-0.40461808;-0.06408143;0.8251208;-0.1473005;-3.1660872;0.2816261;2.8412166;1.4522513;-0.56908303;-0.8804269;-3.0197892;-1.4066237;-2.1439953;0.50488627;0.3855202;2.7131333;-0.18370044;1.0965872;2.456642;-0.04100159;-0.40894696;1.9395235;-0.3939529;1.4219246;2.3123288;1.2008584;-0.9097841;0.47034946;0.40536085;-0.30111545;-8.798089e-05;1.1914989;-0.5067788;2.1551843;0.12557523;3.275806;-7.059334;0.7669052;0.5388934;1.0368159;-1.0225061;-1.0732448;0.52392036;-0.33990422;1.3200957;-1.3649795;-1.1176902;-1.0185742;1.135251;-2.4680405;-1.3164537;2.5310214;0.5429185;-0.3432658;1.3333249;-1.7247328;0.8157762;0.09493632;0.59028286;1.4724551;-0.4578498;-2.2502332;-3.2073119;-1.2624578;1.1124091;-0.84701467;2.740011;-2.2538092;-0.7702812;-1.933783;-0.5163638;-1.4980067;-0.875941;-0.9378218;-0.82661104;1.1249672;-1.0457451;-0.96086514;-1.2491286;1.3966831;0.6189221;1.9179678;-3.5510485;-1.6213272;0.57691044;1.5091279;-0.5929851;-0.3454805;-3.0714347;-0.5294821;-1.460615;-0.38256255;-1.3201699;-0.3871515;-0.69575006;-0.05044555;-2.8544478;-0.8836441;-0.40619028;1.3173339;-1.8433515;-1.2592628;0.08295161;-0.118309185;-0.8356661;0.6605794;-2.7961538;2.501663;-0.44041863;1.6776006;3.3213968;-0.90401554;-3.1416442;0.5675368;-2.8083181;-1.2839389;0.55875784;-0.08611208;-0.1819947;-1.925952;-0.5914777;2.614677;1.911443;0.18382357;-0.97671795;0.17775752;-1.450829;-0.941487;0.6467892;-1.0176944;-2.1119022;-1.185398;2.8681345;0.24723367;0.048130915;0.56052643;-0.049281195;5.376194;2.8278732;3.3894148;-1.4976974;-2.9381027;-0.3347708;-1.3125839;2.0873268;2.1254914;-1.0586014;0.71729857;0.92398334;1.5390018;-2.233885;-2.3167648;2.6536365;-1.7580223;-0.17561641;-2.827592;-1.1654063;-2.6569655;1.5509177;-4.0189195;0.7747695;0.30059293;-0.32025525;2.0926783;0.9396901;-0.72749126;-1.7835201;-2.220417;-1.0637684;-1.0362427;1.0480597;-4.371493;1.6186029;-1.0720453;0.5461944;0.8174783;0.90029943;0.84905314;-0.80975133;-1.0129247;-1.4842112;0.72749096;0.09690283;-4.858768;0.57576686;2.0616415;-0.8919035;1.8491747;0.9252063;-3.7003396;1.9831886;-1.7233095;1.5145581;-2.1888568;-2.0913208;-0.35975695;1.1047289;-0.8215532;-3.0932934;-0.69299316;-1.5310117;0.29917142;2.003016;-0.37635818;-0.93528026;0.8042053;2.077535;-1.1873912;0.72840655;2.1580212;1.5878098;1.1787069;0.08485249;0.76471436;0.4853934;3.8087816;-0.7528123;-1.4314094;0.8238949;0.98433316;2.4228258;2.6443858;-0.07326701;0.19671597;-3.1778572;1.5505431;-0.1566155;-0.84013665;0.52350295;0.6987591;-0.2910574;2.2502832;1.2176325;0.08371891;2.539656;2.474572;0.53439695;-0.06399487;-1.1019827;-2.5379622;-1.3354082;0.30311036;0.9850603;2.443678;-1.6388538;-1.6879404;-2.0023382;0.01757987;-2.8728693;1.7073145;1.343951;-0.5496734;0.42185494;-2.879553;1.3961965;2.5064914;2.073993;2.7388566;0.2015209;-3.1493814;-3.6418736;-1.1960981;1.2775694;1.0449338;-1.770585;-0.5364671;-0.22201048;-0.43700075;-1.4157965;0.3128841;-1.1229492;-0.3008949;-2.5056329;-0.75637573;0.9800787;1.3912292;0.12869225;0.8421711
-2.635701;0.21595465;0.19445397;-1.1976725;-1.762376;-1.04291;-0.84161526;-2.029953;1.7777758;1.2734249;3.256365;1.3710188;1.6026613;0.4998949;0.6382936;-0.23570333;-1.7149273;2.859906;5.004915;0.5550139;1.4366399;0.80806005;-2.1104448;-1.4210842;-1.9584576;-3.2208686;-2.4584873;-1.1005356;2.7594936;-3.4926233;-1.063141;-1.743566;0.51018924;-3.1938782;-0.16219005;-0.5951518;0.24115154;0.82846546;-2.642704;2.454292;-0.46730825;-0.14954;1.2001784;3.5990746;-0.6043755;0.72748303;1.6887394;1.0966512;1.0623181;-1.2769811;-1.7439966;0.7268388;0.020524548;1.0552287;-1.4000238;-0.9816437;3.6380017;2.955071;-0.32838103;-0.5706624;-0.19456922;1.8717339;-2.179707;-0.49467582;-0.037372395;-1.0213388;0.09994889;0.92066485;-0.22445327;0.492562;-7.007503;0.66299284;-2.2384472;-1.7824315;1.7081546;-1.4724402;1.7622085;-1.9877242;-0.16284697;0.8395793;-3.4480972;-0.27759355;-0.48801017;-0.32673538;1.5954719;1.766338;-1.3965678;2.5359943;0.9617689;-0.426491;0.0023627281;1.9574763;1.4441192;-0.3222595;-1.3785201;-1.0052626;1.3073157;0.55211043;0.53329796;-0.7536637;2.9026585;1.5547788;1.0142769;0.056144714;-1.4477057;-0.2408319;-0.42054132;-0.6464901;-0.16196106;-0.4778054;1.0591358;2.3725493;-0.23550443;3.409884;0.012733118;-1.1183295;-0.37611055;-1.0177548;3.5247307;0.17849685;0.29360464;-1.9834965;0.46451566;-0.123066984;-2.322445;0.2500445;0.25544262;1.073033;-0.28247142;-1.256963;2.4926722;1.6803186;-1.6012083;2.490213;1.912577;-0.3928637;-0.88827515;1.2772269;4.024945;-1.2279067;2.3158062;-0.25736827;1.5404456;-1.2204231;0.2607678;2.0988145;-0.48361546;2.398401;1.3215759;0.003148907;-1.9629549;-1.1738098;-1.6401334;-1.2143846;-0.65442806;-0.8323623;0.86211556;-0.38429615;1.6077744;1.23846;-0.7784377;-0.31726152;-0.5260973;-0.26261154;-0.13753416;-0.73236704;0.8387085;0.76474315;-3.9196773;1.5228842;-0.59298384;-1.0180008;-0.99614835;2.6220512;-0.16711096;-2.0073354;0.7793243;-1.844473;-0.9568873;1.1558444;-0.6768674;-1.8759619;-3.2616658;1.0764065;0.38156843;0.2895916;-4.152448;2.4518335;0.30415034;-0.037211627;1.5131339;-0.26204917;-1.3643668;1.0146778;-1.7705874;3.2511318;-1.1226565;-3.3681066;0.32193014;1.7021588;0.7186602;1.2097303;-3.4418237;0.09619935;-1.2108397;-0.7923212;-0.15530294;1.1832435;-1.5603342;0.7794515;1.8201365;-0.3021714;-0.61001205;1.5251245;1.0484943;0.7928104;-1.6436317;2.037346;3.4648983;1.9348111;2.9101899;0.11625975;-0.87333775;0.7707848;-0.8224509;3.514752;0.7670037;0.40949324;2.5636296;0.75318015;0.44798002;1.1669348;-0.008580729;-0.8393051;-0.003050445;-4.336148;1.9660585;-0.47380212;0.05616797;-0.027960604;-0.20402886;-3.325603;-1.9925417;0.32221776;2.7313714;3.1604266;3.0579774;1.2246982;-1.5697958;4.324818;-2.323708;-0.84578496;1.6240427;0.12125875;-1.3639714;-0.18553151;-0.331377;-2.6168454;1.5928042;2.6684055;1.3434561;0.01077349;0.57249254;-1.3779291;-3.914005;-0.19834495;-1.8571784;-4.4570894;0.61613727;-1.7515208;2.817087;2.4604666;1.7501888;-0.55099034;-1.3309753;1.6190231;0.005643619;2.6575758;1.1134323;-1.781979;0.79603505;-3.1648462;-0.3992064;1.6145842;3.3361263;-0.97348213;2.356701;-0.16511774;1.1943719;-0.61056155;1.2267939;-3.820945;-0.9426954;-1.9371594;1.6555265;0.44266325;1.6103572;0.92212814;2.446789;1.1589452;-0.022517864;-0.40285492;-2.284404;-3.5869985;2.993836;-0.61176664;-0.24339806;-0.63480043;2.4339857;-1.6460134;0.6711567;0.20581;-0.80456114;1.09341;0.06493102;0.25977468;-0.930504;1.3347661;-2.8055663;2.2854197;0.2619092;2.6477778;0.14785604;0.5489117;0.24465446;-0.85247326;0.4871867;0.41935253;-0.074886136;0.2145578;-1.3931121;-2.2137492;0.2872804;1.1914741;-3.3551314;-2.596124;-0.32630453;3.3086882;-3.0127883;-1.7686901;-0.1364323;-0.13667376;2.917003;0.4868322;0.45843783;0.68865883;2.2243328;-2.3443089;1.5862808;-1.4508855;0.7448244;-1.2781513;-0.34909102;-1.9708403;0.036508765;-1.9491811;0.6399279;1.5615382;-1.1793892;-3.578462;-1.0252504;-2.300718;1.2646555;2.6458497;-0.10487215;-1.0112948;1.6715505;-0.10981746;1.4025884;-1.3240225;0.20643203;-4.514159;-4.07735;0.8387704;-2.0487118;-3.6559439;-0.4488725;3.7669098;0.94647086;-0.1765219;3.2022166;0.12280204;-0.44259962;1.096746;1.1823696;0.7416568;1.5425212;0.3887666;1.1683093;2.2442448;-0.7876355;-0.28513432;0.45557883;2.1635447;-0.3710191;0.20805718;2.7097385;2.4705913;-2.056405;-1.8756982;0.45807064;0.4089371;1.2558963;1.0926446;-2.80202;1.8985671;-2.0572693;0.4399312;1.8025126;-1.3041985;-1.8124075;-1.1704866;0.6878829;-3.3816495;-0.57782936;-1.5499501;0.9147226;-0.31145003;-0.26192746;0.80260557;0.39814514;0.39180046;-1.8124347;0.1295684;-1.1140211;0.28963345;0.73933065;-0.16893855;-1.4435678;-1.245188;-0.9829032;1.0533832;-0.78883165;0.28583643;-0.6600224;-2.8910239;0.59393144;-0.2607437;-2.6490018;-2.9551053;0.6772321;0.32186818;-0.6143222;1.0243388;-2.8838387;0.5544401;-1.3082654;0.073044255;0.045395352;-0.27553326;1.7459009;-2.19524;-0.55244994;-1.4447014;-2.1115704;3.7892807;0.23565754;-1.1137938;2.6723456;0.23654056;0.66643023;1.2476563;0.42323864;0.5332095;-2.3736153;0.85479504;2.9452171;0.71825385;1.4824979;-2.437328;-0.21375823;0.44069108;-1.4069731;0.9656449;1.1769108;-0.15424183;-2.076065;-0.88857096;-1.7794671;0.54243433;-5.076911;-0.8575639;-1.5690536;0.13489749;-1.6485466;0.115742594;1.1183699;-1.2384385;-4.4276204;-0.29520455;-0.91137946;-0.43301293;-3.0404952;-2.913275;-0.19302016;0.27694944;-2.9954307;0.87029094;-2.2156641;0.7919786;-0.06092574;0.9763535;-1.1732857;-1.0382009;3.4264271;-1.9849126;-0.5085151;0.027333427;1.2347653;-1.0042491;-0.6260838;0.43035597;-1.1324538;1.3942364;1.676513;-0.2985069;-0.49935982;0.19275238;1.9723772;1.091032;1.7084292;1.3538804;1.0036197;1.5122223;1.4321557;0.53701913;-1.3921194;-1.4364432;-0.76238346;-0.0025801838;0.09377957;-0.66056055;1.4916986;-0.5671344;2.2583115;-1.2201253;-2.9824865;-0.615563;-1.9301306;-1.1360862;1.0033262;1.0655495;-1.3861;-1.0122607;-2.0858362;-2.439457;-5.440842;-0.26518714;3.1214457;-1.1968666;1.562881;-1.4888189;0.9794207;1.1800458;-1.9264643;0.28771368;5.049842;-1.6890522;2.1117632;1.6529247;0.35870615;0.1916835;1.6046175;-0.18378243;-0.25748304;-0.43650204;-1.0765477;0.0014600399;-1.2326353;1.8653551;3.5224974;-1.8831372;0.7933077;0.54359025;0.2144723;-2.4615488
-0.9533903;0.9010199;1.2043644;2.2091227;-2.6613455;-0.31093815;-0.9844484;0.42564496;0.5653608;1.1272358;-3.133976;0.99500155;1.4458731;1.1107786;0.97852296;-0.78113306;-0.34737787;1.0537655;3.375001;-2.1043231;2.742155;0.9375818;-0.5049345;0.20004347;-2.1810582;-2.0591295;0.49217856;1.5025196;1.2297232;-3.209201;-1.4991094;-0.31326476;0.69631624;-0.9730457;-1.9195224;-0.60194796;-1.8363568;-0.6095119;-0.367316;-1.8770479;-3.4246888;-0.94810396;2.1399727;0.12001572;-1.941618;2.2762694;0.5583917;-1.1402031;-1.5970916;0.59318393;0.9557815;1.0921836;0.41364518;0.5234473;0.9522551;-2.3904066;2.293245;-0.74507546;-0.8450643;-0.6864949;-1.5334882;-1.6883111;1.5196618;-0.85755175;-1.8189093;-4.6124487;2.7871568;4.445148;0.40752527;1.315724;-2.5770898;-0.6764568;0.36492258;1.8679904;2.1551201;-1.9448568;-1.2170999;0.5154686;-1.887607;0.51048875;-1.2779269;0.4340786;3.006365;0.43862936;2.0180156;0.41888323;-0.8135289;2.175917;0.061576333;0.94976425;0.49043173;1.469956;0.31465292;0.701602;-1.6904774;-2.2055447;0.5699864;-0.62938553;2.074301;-0.4842817;-1.0315235;1.0282493;1.4108559;1.183093;1.5219581;0.7822677;-0.011595997;-0.02393986;0.2743889;-0.373451;-0.6511028;-2.0823212;1.9923434;-2.3510199;0.25947252;-1.747602;-0.33356115;-2.923598;1.7720511;-0.12702174;-0.012796405;2.6191013;-0.53520787;-0.17640609;-0.15050526;-1.4239508;-0.37793145;-1.854427;-1.5598572;0.19395377;0.7948421;1.7285006;-0.004882289;1.4544039;2.0399632;-0.27651772;-1.1760855;1.8563508;-2.487648;-3.2724648;1.545464;0.19391838;0.15379456;-0.84054387;-1.6761154;1.8570188;-0.50949526;0.22930583;-0.9303553;0.8165556;0.17433308;0.7983329;-1.147954;-0.43052107;-0.9290985;-0.9060984;-2.1172721;0.22956572;2.4050913;-1.6184834;-1.5563492;2.6858685;-1.38981;0.47853217;-0.21658751;0.747178;0.14541872;-0.3642818;-0.9605606;-1.5307415;-0.8815799;0.9014324;1.4971929;-1.4720536;3.9226663;-3.7778378;0.069747604;-0.38518396;-0.9274543;-0.57735676;1.0781038;-1.232811;-0.40819255;0.6156602;-6.666569;1.4896786;-2.4352396;1.0771881;-1.9494095;-2.2402668;-4.7338505;1.1338917;-2.398991;-0.22052033;2.0517442;4.261558;-3.2604313;0.17520946;0.715595;0.70855886;0.58761936;2.0863779;-3.2851899;0.7170323;-1.0139647;-0.36428854;1.9230293;0.69286776;1.3822385;-1.3923111;0.65444845;-1.3163722;0.114535496;-1.6641893;-1.1553218;0.88588953;-3.6658952;0.034829196;-0.21366079;1.1134338;-0.49489605;0.07553785;-0.3765681;-0.3669595;-0.64630616;-0.5748636;0.45213386;0.5614794;2.6488025;-2.4982433;0.7678293;-0.5656075;2.2051368;-0.6087862;0.14413747;-1.5954955;1.3387775;1.0476787;2.6911392;0.41213676;0.5728579;-1.6138932;-2.4782867;-2.4889426;2.637786;0.97598606;3.1616817;-1.111415;1.730978;-1.6235771;-0.501127;0.9257192;0.009474549;-3.820277;2.2491915;0.8416968;-0.66393423;-3.6013386;1.5903527;2.6327205;0.36598903;1.0537958;0.36069992;0.030832732;0.35024238;0.17922863;-0.58097965;-3.4564552;-1.4167935;-0.5811241;-2.3134;1.3600106;-0.4435599;-0.37625307;1.5069001;-0.7123249;0.18774645;1.1670511;-0.96740127;-1.2362921;-0.28450307;1.1084461;-0.093477026;1.6761786;0.9308834;-0.023526376;-0.02371214;-0.08834283;-0.5440236;0.6274554;-3.6610382;0.6036192;-0.2720066;-1.467102;-1.2687685;-1.3605721;0.4267384;1.1181138;0.039952073;0.8724084;-1.0568033;1.4463094;-3.036457;0.8313918;1.8324234;1.9174296;1.2615125;-1.5892097;-0.017222933;-2.9476194;-2.219667;-1.5655652;-0.15415819;-0.54552126;1.9840847;-0.108194694;2.6571846;0.016961433;-0.6861202;-0.91331905;-0.0049020792;3.2253156;-0.6056033;0.25820366;-1.2219532;-0.34881258;1.3943462;0.8669376;1.2976601;2.5260286;-2.0935414;-1.6847318;0.80256176;3.1692715;-0.7274211;1.444856;-0.68908226;0.4883509;-3.5050201;-0.47728884;-2.170167;-0.077307746;-1.232551;0.25965455;-2.3346038;-1.7637761;0.7221552;-1.8359234;2.1589787;-1.6743214;-0.30949572;-0.0918924;2.8311305;-1.9094673;0.15250207;0.1252795;-1.1403812;-0.32822216;-0.92837673;-1.8733376;0.596986;0.10863058;0.8225489;2.0410986;0.19282694;-1.0272046;1.6955544;0.5424674;-1.3344059;-0.47322786;-0.47042808;-1.868864;-0.9121162;0.41643983;-1.1186422;-1.7070904;2.4886153;-1.2231477;-1.9952197;-1.4277356;0.93608534;0.9104386;1.9412608;0.30339387;2.4979534;0.9578652;1.1710577;-1.0591537;1.2489659;-1.121813;-2.231525;-0.058828928;2.1610413;-1.8838555;0.818725;-1.1330332;-0.49271804;2.6939883;-2.4540796;-0.821202;1.4255166;-0.8411591;0.4968551;-0.20012613;-5.0991974;2.208762;-0.6997677;-0.63132817;0.9088479;0.2923657;-0.46739402;2.2523854;0.41602007;-1.906646;3.617955;-0.82761806;0.61331296;1.6616195;-0.59664863;2.719944;0.73828125;-0.37774405;0.11258864;0.5587667;-0.40038306;-2.8005702;-1.2427543;0.5911243;-1.4187855;2.0534036;-0.23075682;0.4724228;-0.038777504;2.7837512;-0.6396675;-0.22533007;1.249461;1.0948402;-0.9874278;0.070987776;1.6000477;-0.84387696;0.2899893;-0.15035917;0.47832882;0.45050046;-0.34160134;0.72955155;-0.9204876;0.09590139;-0.41793823;-0.43263996;-1.2065463;-0.66693795;-1.4369718;2.1036158;1.2332237;1.3906881;-0.92405236;-0.8211366;0.45284098;-2.0495288;1.1258587;0.21705072;-0.4185399;-0.15394254;0.76388437;-3.2147834;2.0190623;0.047595195;0.8695119;0.48825842;-2.3567927;-1.9869221;0.8073488;0.08397862;-0.79924774;-0.7198312;1.4247067;0.23421352;-1.2549251;-2.6116977;0.44742462;0.9897769;-1.2443081;-0.6854551;1.6832949;-1.8759787;-3.685401;-1.6046693;-2.014574;-0.28330702;0.094795026;0.022315184;0.3247887;-1.5942239;-0.6961422;-0.4006847;0.22122927;1.4529325;0.7594934;-0.29400915;-0.8496153;1.2416669;-0.48679927;-2.624912;2.5337667;-1.1329387;0.97327113;1.8838236;-0.9643447;0.44868562;1.9060782;-0.12376767;1.2235363;-0.3178818;0.4961237;-0.9077099;0.22284026;0.43496972;1.5672158;-1.2788746;0.5164594;0.49462238;0.92793643;1.1243536;0.42190245;-4.5514803;-1.0375409;-0.8503299;1.0961732;0.74541336;2.6095622;2.0453696;-0.479527;-1.163681;1.0534776;-2.1604311;0.062644325;-3.6372426;-0.5442316;1.7950948;-1.2711314;-1.1462325;-1.7723836;-0.9274418;-2.446911;-1.4684323;2.3258107;0.05418265;0.82326716;1.425935;0.409728;0.95351386;1.0477909;0.82657516;1.3481767;0.46501058;-0.19204704;-3.8154223;1.3943998;0.59996945;0.11266671;0.63036287;1.4410524;1.1555122;-0.18049356;0.08729728;-0.07359213;0.91876024;0.62152684;-0.65628433;0.2973966;-0.23293178;0.46278557;-2.4972985
0.6315494;1.7077428;0.40513983;-0.40242904;-1.3085723;0.45460272;-1.5685391;1.9613609;-0.1551439;0.16106369;-1.0830537;1.3051445;1.0910355;-0.5776283;4.1638308;1.6038235;1.0965815;1.8595979;-0.163157;-1.8957329;2.0380547;1.2570534;1.6693405;0.5448823;0.38298306;-0.17869665;-0.42451164;-0.5434724;-1.8713777;-0.46626168;-0.67160237;-0.5434088;0.1655611;1.0658178;-1.9386255;-1.9464471;-2.4505644;-0.11863905;0.3865925;-3.2616487;-0.3734898;-0.021112498;-1.9180571;0.5451881;-5.2750535;-0.3812914;0.63257194;1.5688818;1.2843449;0.91301894;-0.92671424;1.2657319;3.8726044;0.78557795;-1.1367843;-1.3419856;-1.7396058;0.41563913;-1.0088456;0.25968656;1.7376614;1.0548172;0.042583484;1.6401106;0.84359497;0.31339747;-0.14368573;1.7947074;2.3703816;-0.7335274;-1.9690143;0.09769251;-1.376757;-0.5476353;1.7170107;-0.027506301;1.1650287;-0.016886258;-2.3558724;0.85975224;-2.9468682;0.0435238;-0.14426324;0.3120259;-0.36670068;-0.33924812;-1.5755728;-1.2251397;-0.3848257;0.7107649;-2.2086148;1.5250071;0.3435048;-0.72547746;-0.0017549271;-0.25549093;-0.8322823;0.9412974;0.8226181;-0.161901;-2.0160954;-0.8037872;0.18961924;4.600594;0.5825168;1.6092823;-0.96237266;-0.12801178;0.80866766;0.5646371;0.0905029;1.447766;-1.5273228;-1.5955085;3.985862;-1.4860022;-0.32206738;-3.7437828;3.1859531;-0.4990144;1.2397798;0.7194957;-1.139275;0.088745095;0.47433054;-1.1276982;0.48554042;-1.6574123;-1.3475034;1.9895176;-0.16612574;0.07335474;-0.4808908;0.02104512;0.9770749;1.8686635;-2.1270967;1.8955066;1.8063295;-8.444554;-3.0035796;0.9427948;1.099266;0.04456371;-0.904922;-0.63652265;0.027604952;1.6384541;-1.4531199;2.1510646;-0.49533275;-3.1163094;1.2259736;1.5600362;-4.0622663;-2.813136;-1.9635196;2.9105577;0.9375406;-2.2675877;-1.0280073;-2.7427132;0.13691904;1.0090193;-0.21443911;-1.113891;1.2795635;-1.3506052;-0.89644426;-0.30012047;2.221052;0.25234273;-1.0177871;-0.671961;0.9714764;-0.10827904;0.071230575;-0.7444948;-1.3843882;1.318315;0.2845466;3.8751585;-7.0021157;-1.1471635;-3.1516151;1.4348129;-1.0447721;-3.8603408;-3.7245793;0.98230267;-1.5987307;0.72836256;0.52582115;0.7389056;2.6048276;2.2499883;0.07472392;0.6951398;0.76270354;-0.3908522;0.4524826;-0.13532118;-1.6240791;-0.43122214;-0.6395299;-0.38339567;-0.18684554;0.3731138;-0.4416209;-0.3207588;-1.2095515;0.070479386;-0.5050079;-1.4985238;-1.9012611;-1.063884;-2.0643356;-0.55857486;0.22063178;2.4404752;-5.158815;0.52551556;-1.2322706;-1.1247529;-0.17835946;1.3264;0.071965665;1.8487058;1.3350228;-0.13889006;0.6864465;1.2528852;1.144115;-0.94289273;0.9411007;-0.012387704;-1.1922967;3.0557415;0.123843856;-1.2307745;-1.0122728;1.8398136;0.87619656;-0.7061325;2.4057715;2.6330707;1.1912978;0.83988774;0.10308384;0.600518;0.14846654;-0.18220155;-1.252101;-1.8245233;0.1638409;-1.0094587;-2.3174725;-1.1867886;-0.6467468;-0.76852;0.23951654;-0.11718807;0.47947466;1.8600982;0.38236132;-2.5596507;-1.940933;0.72292554;-0.7409762;-0.8426152;-0.63797444;0.017459666;0.8342401;-0.074666984;1.7059022;4.576469;0.063378066;-0.35080418;-1.2661396;-1.837215;2.7239106;2.275472;-1.278777;2.0448537;1.8940172;-1.75516;0.18757665;0.056103334;-1.7510152;2.027505;-3.7743974;-1.4570055;-0.25585362;-0.09999426;-0.65345895;-0.46459356;-2.85844;0.77002776;0.38477436;1.3797997;-0.51935685;-2.9257822;-1.0903238;-0.5372019;-0.7581929;0.2209751;-1.2669572;-0.7946665;1.1662415;-1.6658702;0.23923692;1.5633352;0.403837;0.89586484;0.62494695;-0.18964833;-0.0022222046;0.5439443;-0.78227645;-0.0047859545;-1.5838417;2.8430076;0.22377892;-1.4802742;-3.3149018;3.5387616;0.710559;0.7767263;-1.5246414;0.5511141;-0.985258;0.6829092;1.7420125;0.05191644;-5.492576;-1.042132;0.4037319;1.9537998;0.20830125;0.40059102;-1.8910991;-0.8962927;-0.99073356;0.007906162;-1.0341209;0.27319968;-3.319504;-1.7649399;1.5338566;-2.169408;-0.024749247;-0.2208114;1.4962391;-0.6096236;1.0206503;1.8263603;0.710412;0.257684;0.32022017;-1.3708022;-1.858192;0.1405363;-1.1129743;2.7841845;-0.34011886;-0.12084078;1.3212558;-3.389051;3.6775672;0.12194117;2.1700048;0.23865491;2.1627607;2.8443499;-0.26697415;-3.575933;0.6952973;-0.3965234;-2.7261944;1.5074915;-0.88722223;-1.3545755;2.0806572;0.4209263;0.0018166748;-3.4330094;1.1643803;-0.58762944;-2.6931908;-2.1555996;-2.1457007;-0.7046274;0.3631624;-3.3544126;-0.50686926;-0.44303545;0.66495776;1.3419889;1.5292627;-3.6322925;1.068251;0.41069221;0.060243815;3.448377;-4.0371046;0.13427305;-0.33931315;0.64189404;0.95124286;0.18847306;2.5862231;2.0497365;1.9222866;0.7579953;-0.7199407;-1.798032;0.028987406;2.1045532;0.9633912;1.3306497;-1.0513574;-0.7555855;-0.95844823;0.040412366;-2.8968883;-1.0346624;0.7096501;-1.4769462;-1.5960836;0.68333966;-0.204913;0.36261913;1.4080418;-1.5636635;-2.7421432;2.1756663;1.581419;-0.95693904;-0.71966976;1.8190314;-0.616556;1.897811;-1.6193509;2.508269;-0.24458623;0.32597607;-2.1567872;0.10121362;0.6859111;-0.09939674;0.31562057;-0.2256135;-0.13113812;-1.6919339;-0.7503034;1.399286;0.8366972;-0.9661254;-0.70780027;-0.5979703;1.2151475;-3.541754;1.3317726;-0.38445428;-1.2863741;-0.30158806;2.8132613;-3.7478423;-0.7860419;-3.1928523;1.1086144;-1.4062403;-2.211115;-1.4678924;0.645607;-2.863566;-1.3123906;1.1398338;2.295927;-0.8052356;-4.058507;0.66980994;0.77267456;1.430462;1.3165634;-1.4592558;0.3663487;-4.6858125;2.6074142;-0.019012557;0.265499;-3.43093;-1.2152919;0.6767736;1.6001704;0.9426513;-1.5197843;-0.94356316;0.36633936;-1.4804102;-0.93437564;0.013113959;-0.88520914;1.7725006;2.6638887;-0.4606884;1.091161;3.8690984;2.5509892;0.40198034;1.0508381;0.7278898;0.2863492;0.9895893;-0.18772109;-0.52735424;1.7915872;0.19913717;-0.04314964;-0.96678406;1.1830996;0.037555754;-4.396248;-0.25155517;-0.006561567;0.9018189;0.6000204;-1.3519541;-0.45070922;-0.7484148;0.2694628;0.444824;-0.45277953;-2.3960054;-1.0495833;0.35620892;-0.67919874;2.1893373;1.3874094;0.808971;1.871698;2.0776465;-1.2091844;-2.6638956;-2.1478207;0.22841497;-3.9303904;-0.88728124;1.9593986;2.5251398;-3.699447;4.778109;-2.1327333;-0.27435005;1.1945719;1.2822725;1.7633328;4.1550508;-0.9603122;-3.1943333;2.2392697;-1.8218373;-1.6269376;1.38142;-0.20880711;1.6102855;0.41959018;-0.17166033;-0.7698827;0.8356647;-1.2303824;1.2612475;0.56335187;3.0537684;-1.6214924;-4.3000736
0.5618767;1.507702;0.5144373;0.9158489;-0.18282089;-0.025791755;1.387308;5.2938433;0.38661596;1.2991873;-0.78730094;-0.10511397;1.2086722;-1.2212919;0.69417894;1.7341259;1.5064061;-0.4812644;1.0843015;1.5516657;-0.3226996;1.1512963;-0.2999126;1.013075;2.0284264;-1.3738582;-2.8685555;-0.17165664;-0.418456;-0.27834064;-0.04040226;-2.9674149;-0.16122994;1.6092423;0.19158436;-0.2692836;3.2503064;-2.6515298;-1.6591976;1.9002934;0.7711578;-0.65337205;0.6136281;1.1846553;-4.452229;-1.7453271;-0.8088433;1.8280967;-2.1671457;0.049675047;-0.9529777;-0.0041899043;-4.318773;-0.9409505;-0.756963;-6.6730704;-1.6936587;3.3874047;1.9978559;-0.16966033;0.64306486;1.534236;2.9237797;0.3018182;2.509038;1.4199957;1.0122746;0.7332039;-0.054319732;-1.13667;0.6298554;-0.70630455;3.6093037;-0.24642152;2.7640102;3.0137405;-2.687675;0.17842075;-0.4030526;1.0794121;-4.2378345;0.061094984;2.6549757;-0.00042900105;-0.8480471;1.0766125;-1.601109;0.50521463;0.49157986;-0.39055005;-1.0947025;2.5138695;-0.9191995;-1.2103176;0.016833203;0.2843575;-1.6376101;-0.51889324;0.15805209;0.71932447;-1.1308352;-2.5925596;-0.5858278;-0.37949812;-2.171223;1.2230672;0.19404969;-2.297189;0.98971593;-0.16441691;0.2171371;0.3796272;0.14466766;-0.03225962;1.2353603;-1.5337696;0.103770204;-3.2119532;-0.12750843;-2.5336738;-0.7298135;0.66491705;-1.5545654;-0.055161845;-4.923985;-1.5560606;-2.0500917;-1.8040241;-0.70148414;0.84542286;-2.1403062;1.08584;0.3295107;-2.4589758;2.7069395;3.9805903;1.4235296;0.8376586;0.39082626;-3.8879707;0.28599712;0.64510196;2.9222822;-0.332624;-1.827659;-5.9736376;-0.97080654;-2.52303;0.522607;-0.77703935;1.4596494;-0.2607874;-0.3767378;0.2490978;0.19912834;-0.93281347;-0.091906756;0.27104586;-3.6628447;-0.3277813;0.18381172;0.8291251;-1.3729477;-0.48261783;0.2192409;-2.255606;-0.5269957;-1.1886082;0.99526715;-0.37057856;1.3202648;0.15157568;-0.34163192;0.20672259;0.81510687;-1.3605436;1.0321193;0.41330683;-1.8735353;2.496741;0.013059849;-1.6499964;0.817097;1.6112456;-6.6196027;-0.8542292;2.2159994;0.15422317;1.0902473;-0.19238211;4.00561;0.027920024;0.23664479;1.1432066;1.5095041;-0.9748462;-0.5901248;0.26971257;0.64500856;-0.38202295;0.28252542;-0.7166864;-1.7484846;0.43461427;-2.1347919;0.5435631;0.075228944;-1.7451539;0.63902736;-3.3765035;-0.38756958;-0.31985655;0.008091307;-1.3515776;-0.30849686;-0.2831701;1.5658331;-0.10175201;-0.5053441;2.736381;1.605048;-2.0925992;0.24311385;-1.7791634;-1.0883851;1.0489641;-0.055852752;0.8519616;-1.3843648;-1.2297717;-0.5878047;0.29049706;-1.1927538;-1.8646338;0.16859166;-3.788517;-0.38178164;3.01716;-0.8143816;2.0023007;-1.4214987;0.95359427;-0.93037367;1.5646579;-3.3541522;-1.7850738;1.3875151;0.5615278;0.024256844;-1.0708956;1.4639913;-0.9070486;0.19501214;-1.534938;-3.6151812;0.042614784;3.2866962;-3.8292117;3.0159;0.024701804;2.3193443;0.52405244;0.7029363;1.9036945;0.03516087;-2.1655145;-2.4105384;-3.6460292;0.3700463;-0.72254425;-1.0905484;0.095867395;-0.9818101;-0.6308186;1.8840464;2.8764894;1.119525;3.1460404;0.7041119;-3.3146164;0.008027814;-0.14948119;-0.5114257;0.8921288;0.16946453;0.14519188;0.083115295;-0.5986816;-0.193107;-0.37113813;-0.8668366;0.5856451;0.6536475;0.78479403;1.4052826;-0.22570097;-1.5476376;2.2087712;-0.6105;1.3260095;-2.0546372;-0.7026162;-1.0001117;4.213174;-4.1470566;-1.2223277;1.6538085;-0.025440259;1.7141469;-0.5175506;-0.047199108;-0.39852685;-2.1859505;3.4990592;-0.22943904;-0.019863505;1.1004704;0.26110858;5.0150075;-0.48397225;1.0453217;1.6063703;1.4984815;0.44248223;-1.4643826;2.0568573;2.8926022;-1.3308283;2.3621716;0.009936338;-2.1741908;-2.5244834;-1.5458708;1.3603574;-3.0030506;-2.5797217;1.1988181;1.6671144;-2.1218288;0.32478586;0.78899646;-0.08373894;-0.998342;0.7313833;-2.2675166;1.6677239;-2.50181;2.0147138;0.62888736;3.1995995;0.022475073;2.3139176;0.17372733;-0.32170495;0.27975702;1.3794266;-2.4177406;0.7280117;-2.8377252;-2.8470147;-2.266383;-2.1249418;0.49221563;-0.43346515;2.0868924;-0.73866063;-0.43151772;0.8638053;1.0108908;-0.5236608;0.41057828;-0.18710993;-1.8679134;0.9526265;0.688811;-1.1150441;0.6050193;-0.28517953;-0.35527334;-0.8583931;-0.52503324;-0.78040236;5.7277637;1.789397;-0.919029;1.3542639;0.20624709;-2.2191987;-3.3367052;-0.36497176;-0.91184664;2.656289;-0.2680035;-2.0996568;0.5018846;-2.590189;0.3341538;2.0656111;0.03205629;-0.8541021;-3.9276407;-4.0465283;-1.3107693;-0.6276892;1.1941551;-0.68461597;-0.5654233;-0.19143164;-0.5067889;-0.067860976;-1.7935675;-0.08885102;-2.4837704;-2.9360454;-3.2756362;2.1464417;-2.561331;-0.85647535;-0.6088608;1.7034245;-1.0413277;-0.7082173;-2.583958;0.18227962;-0.06444325;-2.2788725;0.35283396;-0.26955897;-0.06313916;-3.7677243;1.0127646;-0.4659684;-3.2735054;-2.626359;1.8723109;0.5924035;-2.0316808;-0.2927657;-1.55296;-0.35061124;1.0465335;0.6642604;-4.295632;1.7730871;-0.5762773;1.2379098;-0.39433864;-1.1612357;0.897043;2.5366566;-0.117724694;2.454383;-0.6591808;2.1262631;1.0187259;0.98236054;-0.58916515;1.2519984;0.19464755;-1.4579086;-2.6701293;2.3511236;-0.4370355;0.50612134;0.6749197;-2.4967766;-1.2477196;-2.7145798;0.5373863;-1.8989723;0.5721556;0.822475;-0.4525004;0.20212466;0.083758;-4.319904;3.158591;-2.5594485;0.5074177;-0.026947083;-3.7678428;0.9761732;1.001791;0.86053044;-2.8081288;-2.4565227;1.0644472;-1.6412536;-0.15953773;0.14706159;2.3330536;-1.5391203;3.4550288;1.2001623;0.15413423;-1.217507;1.2560755;0.8986814;1.0668799;-0.36751708;-1.6664202;1.0097531;-2.815353;1.8415439;-1.1000713;0.7292873;-1.3078953;1.173495;1.7902732;-3.5663328;1.6367868;-0.16101174;1.8559979;0.015989047;-2.1148794;0.38863057;-0.28557697;-0.009972812;3.538208;0.71740156;1.2795966;1.8602341;-1.0977468;1.0380408;2.5617926;-2.7914422;-0.2684136;0.78878236;0.3780239;-1.8150493;1.5182239;-0.2869059;-2.0296338;1.3657053;0.9337871;0.079154;0.7013781;-2.1983974;2.2980175;-0.9174683;1.2208177;3.0364256;1.66754;-2.0670493;-2.3475802;-3.180294;-2.279508;-0.56659263;2.703659;-0.07268854;-3.3036742;2.048721;-2.2952962;-0.106489584;-1.3064907;-1.6030695;-3.5893219;0.82353765;0.63502693;-5.5551934;3.5739305;0.034453526;-2.1352932;-1.410259;0.2711009;-1.275834;1.0098324;0.19384564;-0.56873876;2.0174532;-2.6592;0.0035864732;0.11485567;-0.22337738;-0.31618145;-0.6848959
-0.32629967;-0.9514469;-0.30232036;0.7843508;-2.5420103;-0.99173325;1.6574892;1.6386135;0.17718354;0.69285774;1.9414347;0.66484684;0.41571587;0.21742937;2.541404;-0.8013614;1.0158609;0.5441663;0.1738844;-2.213563;0.08912903;0.8275967;-1.0174711;-1.7387705;-1.5451926;-1.1233006;-0.07272497;-2.3433726;-2.324348;-1.1567366;-0.38665545;-2.6130934;0.2244468;-0.31967512;-2.8206089;-0.99592894;-1.9848711;-0.505219;0.59176975;-1.5872123;0.19024217;0.63652164;-0.10916565;0.7549508;-0.25988495;-1.7465135;-2.8743193;-1.1542293;2.6580477;2.002244;0.57339686;0.2400302;1.0670282;1.4818523;1.0357349;-2.7539065;-0.18506609;0.6429397;0.48978102;0.21307047;-0.08243672;1.1509976;-0.7268816;-1.4718448;-0.3216525;0.81309974;0.63234544;-1.9580767;-0.18503483;-0.3829293;-2.0979526;-1.2039754;0.8759273;-1.8708239;-1.3869772;-0.8240578;-0.09797348;-0.44494978;-3.0278041;-0.124706134;0.2774881;1.2542367;-3.6923938;0.26452273;-1.0460347;-0.21336028;-1.7879316;0.33326387;0.057715725;-2.4005308;1.1288712;1.7556828;0.7445974;-1.6410165;0.039041694;-4.2686677;-0.6767132;-1.6192933;-0.2826917;1.5878453;2.4663737;-1.9186486;0.66276574;-1.8285933;0.39610907;4.836991;-1.0106738;1.8742081;-0.24574868;-1.0420153;-2.0937862;2.6196008;0.26842365;0.36782125;-0.52690643;-0.9462188;0.10410482;1.901253;0.70827353;-1.8987027;-1.5055826;2.3855245;-0.8383631;-0.092850424;1.9616563;1.4489557;2.1235075;-0.5709289;-3.046934;-0.6448814;1.447445;0.4283327;-1.5895303;4.363961;0.87231725;1.8597437;-0.38007912;0.9807389;0.31159365;-3.3465457;1.5310912;0.49035555;-0.52135456;-0.20798355;-0.16859512;-4.701491;-0.36236644;0.87967646;-0.90059066;-0.69841933;0.5375698;-1.622785;-1.7611119;0.82434064;1.4509839;0.11333676;0.21393588;0.41074586;-3.1826134;1.440869;0.04149659;-1.9241699;1.1231922;-0.707033;-0.096487686;1.1136248;-0.26305732;-3.0699463;0.7764824;0.6558152;-2.0651462;0.16469984;-0.23211925;1.3750178;1.6634744;-2.3847091;-2.2752082;-1.6898113;0.5627534;2.0610545;0.11391962;0.7273497;-1.4250213;-0.41096556;-1.5101746;1.2359341;1.1682502;0.27164122;-0.10957775;-1.7336066;0.9659732;0.35543528;-0.6725004;-1.4649094;3.2094743;0.27001244;0.18703109;2.486394;-0.048161082;0.7620153;0.71190757;-0.10895604;-0.81551766;0.13508856;-0.67176104;-0.058751106;-2.8047433;0.48445675;0.29159874;-0.4940965;-0.8989759;1.2531109;-0.92302823;1.0805002;-2.645484;1.362011;0.8996017;-2.502814;-0.5929931;-0.85196674;0.47969306;-1.2791287;0.03554875;1.950464;-1.3048681;-0.12945622;-2.4292328;1.1479465;-0.9835637;-0.7660345;-1.0774125;2.368943;-1.883575;0.67788804;-0.63981265;-1.5658727;-1.4322019;0.28588;2.4831407;-0.52692384;0.14560172;-2.0270357;1.1009624;-0.840425;-0.15471417;-0.9306609;3.2349453;3.5040379;0.518302;-0.80907565;-0.644471;0.55977416;1.8928256;1.2035633;-0.6023978;0.18029265;1.4983042;-0.56544226;2.3875747;-2.8321536;-0.5939149;-0.052810334;-1.0456004;3.3505282;0.48881385;-0.5739734;0.062310778;-0.9192141;-0.1756513;0.23853041;2.3421955;1.5440332;-0.37977502;0.9009149;1.4001284;1.4255514;-0.7679226;1.5924864;0.15634847;-0.7713952;1.5800093;-2.365667;0.4855274;2.3301895;0.7347538;0.2641801;1.8648196;-0.35304692;1.7509054;0.20260614;-1.0934479;-0.8405491;0.68047345;1.2129159;-1.0995158;-1.5238224;-1.7007865;-0.2906497;-3.1025429;-3.4142358;-0.84259754;-2.6173081;-2.2726681;1.5862551;-0.7850029;-1.5620571;2.3934221;1.0859658;1.4709864;2.047012;0.27192518;-2.0820887;-0.43545297;3.5401464;0.6019875;-0.3373198;1.7516127;-0.1634213;0.030935401;1.865586;1.4782666;0.7313443;-1.126646;0.45532528;0.015357597;-2.5552435;2.0556097;-0.7556889;-1.0177757;-0.29592592;0.3865467;-1.59162;-1.1990507;3.9447694;-2.325796;-2.0482087;-0.9645923;1.6629751;1.0914395;-0.35500395;0.038382225;-0.026182147;1.091029;-1.4820033;-0.55696857;1.1564865;0.13961342;-1.4283274;-0.5919062;-0.2835772;0.32661656;-1.7238618;-1.3220909;-1.4077817;-1.1599938;1.503477;-3.3203287;0.9304974;-1.825073;-4.1915855;-2.691863;1.7696981;-2.2460244;0.3147602;-1.8291677;-0.07115839;0.60771835;-2.9448175;2.984153;-1.3110411;0.07213207;-0.8642326;-3.4855456;0.11926561;-0.17624965;-5.0839686;0.23154123;0.4448082;2.2188244;0.81411487;-1.026566;-0.06681172;1.5888063;0.2550904;-2.4290495;-0.061989535;-3.1519208;-0.45270517;0.57379806;1.5866525;-2.5199697;0.0037026717;-2.5099573;-1.9327205;-1.6608579;0.59623545;-1.7867163;0.44434425;1.353134;1.621941;0.10851638;0.7290897;-0.67376965;0.51061726;5.4800587;2.165175;-0.9686568;-6.572896;-0.19906922;-2.8062606;-0.6427078;0.591596;0.4585659;-2.2082877;-0.20573464;-1.0115802;-0.34044418;-0.0084987385;0.58616537;-0.7664977;-1.5220659;0.39465797;-1.0457174;-0.5660824;-0.57975525;-1.7324035;2.1093767;-1.9621886;0.52539736;1.3761977;-0.21490796;0.47130936;2.0484645;-2.7707584;-2.9726675;4.7175584;0.24862398;-0.2063551;0.28857055;0.310971;0.6684381;1.9893782;-1.7437193;1.5399271;0.42500636;0.5107695;-2.4501307;-0.09587113;1.7945533;-0.8055693;-0.6971838;-1.6551409;-1.0061572;-1.2632208;-0.5545726;-0.23024985;-0.2271495;-0.6860699;-0.03475028;-2.0368817;0.17365818;1.3815982;2.7943494;2.5917997;-6.0690365;0.2992681;1.3007574;-1.5860075;-0.9038325;-1.6838491;1.8333527;-0.839677;-0.060273044;0.6567847;-2.1646113;0.55964226;-0.46618512;-0.068239234;-2.7413676;0.756282;2.0949378;1.9864615;0.8669024;0.506537;-0.8096131;-0.66596735;1.6393778;-0.47002032;2.0226092;-1.0507493;0.52226317;-1.5149364;1.1076843;-0.27922007;-0.1901618;-2.3620422;-2.6046798;-1.5839404;-1.5711079;-2.846511;-0.3698634;5.157362;0.61605704;0.08254973;-3.0794191;-0.49127662;-0.56026524;1.2177587;-1.470636;-0.5041487;2.187526;-2.4782474;0.9874674;-1.9491637;-0.41837746;0.9667435;1.3667133;2.07513;2.9254158;0.7842331;2.646334;-0.761418;2.074768;1.7390825;-0.79039234;-3.3203146;3.0881984;1.5948498;-1.1910347;-1.1602222;-0.26728895;-1.8340076;-4.0488935;0.7077518;-0.3040092;-2.2239172;-1.2235867;-2.577572;-0.06700988;-0.9256896;-0.32137197;1.4570494;-1.6752977;-0.36676872;1.1603553;-2.203404;-1.9110265;-0.53419936;0.73963237;-0.64875716;-0.7618142;4.2150764;3.0134115;-0.2982704;2.9792705;1.9369437;-0.5702029;1.6048285;-2.0483537;-0.017969564;0.67170274;2.5169702;-1.5954328;-0.2169907;0.8413284;1.2101189;0.93273157;1.5891764;-1.5791142;2.5828843;-0.09904101;-0.26459032;0.29756188;-1.0197146;-0.77528566;0.63343847
-1.9516264;0.74460095;1.8367457;-0.3239419;0.12507524;-3.143751;0.8069572;1.6769315;-0.27232778;1.7938701;0.9305042;1.0351237;-0.387608;1.095726;3.1767144;1.8130113;-0.93910784;0.73794365;-0.49464196;0.6572264;-0.58299494;-0.99899095;-2.6494224;-2.5706904;-0.31563914;0.23405054;-2.6590679;2.1303144;0.057653435;-4.5104814;2.1333961;0.2909941;0.4161335;1.0075766;-2.2955532;-0.2503475;0.27370924;-2.2884603;-0.93634105;-4.5088573;0.6717809;1.9133162;1.5227338;-0.98483753;2.8141534;-0.65471435;0.7017863;-1.5001284;0.21140659;0.3290846;-1.0800651;3.6479728;2.1834333;0.5656182;-0.107309915;-0.92822665;-1.217847;0.4043104;-0.9440849;0.06795471;1.7559268;0.0067041265;0.44411585;-4.822403;-0.16017875;-1.8309219;2.9610198;2.5927052;0.7229669;-2.3266702;2.152385;-0.19930144;-0.8679043;-0.6627782;1.9564441;2.178527;-0.07046059;0.6036421;-1.1493809;-0.24879402;0.62118804;-0.925757;-0.68001914;1.286843;-0.73788387;1.7953936;-0.71079326;1.1008021;-1.8072551;0.19249655;-0.32608855;2.6180072;1.1350019;0.05565691;-2.2115972;-1.8646573;-1.7074983;1.0717314;-0.6702294;1.5722783;-1.410106;1.3739228;-1.072871;-0.8112236;-2.6286888;0.868737;-0.9199665;1.4656446;0.78269047;-2.2536564;0.8279768;1.2270164;-3.8947816;0.91119874;-1.5920898;1.2238975;0.01946259;3.456445;1.0037796;2.1089983;1.0710082;-2.75344;-1.4869992;0.14234029;-2.4176924;-2.2382116;-0.3397735;-0.38133222;2.2411804;-2.129072;-1.019879;0.7885007;-0.40856284;0.4002657;0.52401567;3.1472018;2.8779671;0.8111777;0.22527303;-0.9238579;-1.4234676;1.0404227;0.43979672;-0.9055558;-2.075007;-0.6125286;-0.36122042;-1.2081581;-0.5023654;0.090237856;0.00015821708;-0.33860615;0.31693223;-1.040102;-0.6320181;1.7498255;-0.48594084;0.39692616;-0.73807544;-0.9420409;-1.093885;-0.77717996;-0.79620564;0.98998624;0.028048418;-0.15171194;-2.291765;0.6234988;-0.36571503;0.42057514;-0.9360437;-0.18872522;-0.4745346;-1.9579961;1.3767365;-1.1064239;0.23215838;-0.03853197;-2.1447892;2.0528793;-0.3721686;-0.870228;-1.1732008;3.6907272;-5.2727246;1.3411176;2.0230849;-1.2347665;-1.8880926;-0.16218457;1.9747698;0.030087879;1.9303702;0.42433074;1.599645;2.3427649;1.3605224;0.7156523;0.34401444;-1.1319149;0.5842188;1.1484894;-0.2824911;2.577865;-1.6468409;0.7016082;-4.2391887;2.0649974;1.8786163;-3.4861927;-1.8718073;0.025000641;0.5776963;1.8198831;0.2798936;-1.1513014;1.3517953;-1.1053184;2.4222434;-0.80811286;-4.05909;-0.08700868;2.2237158;-3.0362022;-1.8556576;1.4835166;-0.7545725;-0.09705906;0.15497313;-1.3166122;1.2832617;1.3392376;-4.183845;1.067986;0.77512115;-2.5652354;-0.84784985;0.369481;2.506262;1.0651344;0.34821606;1.8616517;1.4956354;-2.2247326;-1.4083371;0.5506452;1.1073223;-3.0997603;1.7077146;-4.229693;-0.011695647;-1.4161682;0.84930193;1.3133612;2.720993;0.6379057;-0.9683746;1.1352551;0.262824;1.947234;0.05822669;2.2404127;-2.1847498;1.552555;0.34720358;-3.2596676;-2.7804475;-1.2606179;-1.4825796;-0.8790677;1.3226877;-1.4196914;-0.729571;0.2930286;-0.45434576;0.8826104;-0.9434322;-0.15761016;-0.83229285;-0.36876154;0.15190694;-3.0088072;0.80630636;1.2736652;0.3987404;0.6693537;2.3539705;-0.3421458;-1.9485705;0.26186782;0.13375819;-3.8129904;-0.7187602;1.9325808;0.42808574;0.3754023;-1.3325961;-0.72751343;-1.3738549;1.2141039;0.18488693;-0.9748537;-0.11054977;0.55308443;0.52028716;1.4527563;2.1165104;-0.81287205;0.3122872;1.0918641;-0.8926378;1.6518694;-1.6098487;0.6340311;1.681957;0.72557855;0.8663189;0.9020777;2.4655867;-1.355713;0.5056637;0.4879734;0.4514547;-0.78601056;0.98195434;1.9745058;1.7390326;0.69691443;-0.027520984;1.4166605;-2.0573123;-0.0041138288;1.2013547;1.1585552;-1.2100576;0.2114759;-1.9772717;0.95977235;-1.834578;-0.345919;-1.3261893;-1.7149941;-1.6714871;-1.4640667;-0.7881258;1.9576538;0.2335083;2.5544074;2.0809317;-1.2198048;0.019756671;-0.92506546;2.091287;0.25645873;0.32451424;-1.8125614;-1.6135634;-0.02886463;-0.70524716;-6.091604;-0.30020946;0.69006604;0.47313502;3.3921163;-1.7394834;0.9405939;2.3141432;-0.025821587;2.386722;-2.7692845;1.2900593;-0.6804094;-0.39988178;-0.6031105;0.95373476;-6.7971935;-0.8673507;-0.57239187;-1.7846185;0.2209123;0.08358828;0.6514787;0.99751085;-0.2288123;-0.25575542;-0.2520063;0.6510004;1.2490643;0.85250986;-1.3785206;-2.5229058;-0.18346412;-2.9506717;0.5249671;-0.19438207;-3.728042;-0.9674195;1.3299817;2.757941;-4.7419076;-1.3299438;-0.16181926;0.4930647;1.5621741;-7.11211;0.8420815;0.4978041;-2.0318415;0.73363847;-0.1425934;0.8139019;0.9356703;0.31615803;-5.2618985;-0.29997322;-2.827289;1.1258098;0.74902004;-1.6639452;2.0296504;-1.13535;0.60525906;-3.7716587;1.015461;-0.7780586;-0.48028466;-2.4559731;-3.358919;-2.013303;-1.4445086;-0.11619185;-0.7783514;-2.3764346;-1.0479684;-0.9629619;-4.0207167;-0.25503546;0.0048817825;1.2165376;-0.89705235;-0.46248472;1.2044501;1.5069226;1.7113168;1.3157798;1.0653075;0.2563744;1.0978459;2.292612;-2.011171;-0.6205024;0.26490504;0.5522347;-1.2980936;-0.5234679;-1.2988701;-0.8324035;-2.9636705;-0.723751;-2.8485427;0.6882281;1.1638991;-3.2925627;3.4501817;-0.23609643;-1.9338042;1.3822534;-3.7670794;-0.39938802;0.52582824;1.6315379;1.8428466;1.0117221;-2.5038626;-4.195027;-0.64760995;1.0440204;-0.6278648;0.62850344;1.5285094;1.0870299;0.31518444;0.56906986;1.3397253;-0.55977666;-0.33587795;0.6761839;-1.8414385;0.09542655;-0.020932773;-0.5252465;-2.6313722;1.9773809;2.0655534;-1.0016346;-2.8906279;1.1095752;1.0507908;-0.9921984;0.6670719;-0.7093093;-4.4846115;-2.4944386;0.7624888;-0.19043663;-2.987165;-0.8814684;3.4784334;1.2712857;-0.5946408;-0.41902342;-1.1470127;-0.69629;-1.0036881;1.0372654;1.0920643;-0.34466606;1.6776779;1.6323934;1.0201281;3.043807;-2.2607412;1.2561028;-0.95386106;-0.5219472;-2.0496268;1.4895108;-1.0234277;0.8371452;1.8502094;-0.32934657;-2.302374;0.092507;1.3745433;2.7643867;0.6428157;-3.6485386;-4.60167;0.6644958;1.9465932;0.8983423;2.893518;-1.613254;-0.19347943;-1.5234994;1.646433;3.6581857;1.3150707;0.7060478;1.4240805;-4.204412;0.4912149;1.6764112;1.7213107;3.1673777;-0.211169;0.8252412;4.7443485;-0.43283117;-1.319262;0.30291906;-0.57207006;-2.0016174;1.6736834;1.2956047;3.1192605;2.085033;1.8024335;0.26517603;0.60027444;1.9912585;0.7737488;0.36931062;-0.48408437;2.2919805;1.1020056
-1.762416;2.2094505;1.3143482;2.3678925;-3.3359594;0.3725145;-0.24402879;1.89452;0.24794252;0.21838915;2.3601918;0.35126546;-1.205116;0.4794232;-1.9238589;0.60363626;-1.2931056;-1.1284502;-0.40480885;-4.2410507;0.51485145;-1.2807702;1.1330072;-0.43177447;-1.0602283;-1.2270921;2.8465822;2.364238;0.44593105;-2.8548605;-0.2621068;-0.67152375;0.1904187;0.8819907;-1.1949836;1.4900482;-1.9495268;0.4787511;-0.14016564;-0.99665964;-2.317953;-0.619266;-0.12287194;0.8417888;-1.5445164;1.2802151;1.1212233;-1.6798936;-1.0468355;-1.2655923;-0.7863268;1.980686;0.2078815;0.08768789;-0.8140177;-0.12511279;-3.054055;3.3785908;-0.057786047;-0.2985323;2.3494556;0.74027646;-2.6515605;-4.3595705;0.07904199;-2.2658677;0.524132;-1.3896962;-0.40937242;-0.24307886;2.334037;-0.9778257;-1.3808548;0.22125898;1.7230064;2.588085;-1.01895;-0.4073253;1.7683711;2.1160474;0.3809062;1.1821908;0.48897696;0.094133705;0.52376866;0.9560548;-2.357824;1.6377882;-0.23251383;1.2606817;-0.9687819;0.37994552;0.197143;2.1584165;0.75526917;-5.769858;1.5224892;0.94551617;1.4310831;-0.88690925;-2.327709;2.1448767;0.5565764;-0.20135514;3.7879202;3.139672;0.07855439;2.1691787;-1.7242125;-1.1151861;-1.1610512;0.09001112;-2.1337404;0.13577223;0.11054424;0.9065791;0.049108204;-4.8565397;-1.8636212;-5.900781;-0.9843216;-0.10125251;-0.06655603;-0.09826863;1.6571603;-1.6979134;1.4341657;-3.3533118;-2.6237662;1.2117556;-4.4772787;-0.014626975;1.876558;3.4837492;0.32585207;-0.022400098;-0.39718172;-0.18687342;0.34788695;-2.0830507;-1.1778028;0.3944511;-2.1113863;-1.3564291;0.021663874;-1.967201;-0.41258496;-0.86623544;-1.9560469;-0.47363713;0.7729515;-1.8661058;-0.40611422;1.3391069;1.0734122;-1.8647746;1.3769698;1.3208759;0.6249035;-0.11159798;1.488224;-3.0005999;-1.9875274;-0.03767067;0.4122117;0.83949864;1.313782;1.1326019;1.8482252;0.24157906;0.8021499;0.85785;-0.7194433;0.77762544;1.7635735;-2.370592;1.2031984;1.3144624;0.57155836;-0.9315545;-2.3003516;2.3866866;-0.9292127;-0.55556667;-2.6243575;3.4770234;-0.43987665;0.82364786;-0.94898283;1.3519725;-1.4573736;0.34868172;-2.4517455;-1.9224708;-0.9013066;-0.038603276;-2.546678;4.240178;-0.7221035;0.035430565;-1.3945652;-1.2997345;-0.23688033;2.3062792;-0.566462;-0.4332417;-2.1252291;-2.1267707;2.052846;-1.628209;1.1586272;0.19107476;0.30049548;-0.022143394;-1.4332389;1.3767463;1.032364;-0.879539;0.2751471;-0.8014886;0.55054134;0.5392633;0.90798265;-0.33545503;-1.878442;-0.52544874;0.7743141;-2.3676198;-0.83633053;-0.35731184;0.9127197;-0.30707693;-1.7838392;-0.04282791;1.8239863;-2.7659552;0.7354716;-1.2030063;0.75278544;-0.46159464;-0.049258605;-0.110777505;-1.288708;-2.3963292;0.1514491;0.21779387;0.1838099;-1.3975197;1.6249506;-3.3159394;2.4714117;-0.7307986;-0.9876563;-0.21729837;0.72569585;0.519253;-3.426816;-1.2760305;-0.24208738;-2.3079855;2.7675996;-0.29767916;-0.70813733;2.192983;0.07725629;-2.593615;-0.38702148;-3.2193067;1.1884753;-2.0654464;2.1225877;1.7584323;-2.4322112;-0.67716426;0.6899555;1.8624731;0.8412628;-5.682908;0.7481634;-0.6994151;1.5961535;1.3011405;-1.3953208;1.8279018;0.038176;-0.4624917;-0.036152773;-0.50457275;-0.047022894;-0.3404653;-1.0317972;-0.8448951;1.1852465;1.4279766;-0.4122737;-1.9158261;-2.3328648;-0.425656;0.97520596;0.88994795;1.143097;1.070502;0.59481865;0.30221936;-0.71483994;3.088494;0.7683518;1.06146;1.3382565;2.0096421;-0.7244339;1.3901097;-0.006455082;-0.29256377;-0.34472543;0.85471976;0.4437629;0.1679718;-1.9137521;-2.6436617;1.4555835;1.1259108;0.59555316;-0.04798575;0.65582454;0.51291496;3.6430218;2.4545298;-0.7353275;0.95458716;0.49134022;-2.9332016;1.5084745;0.12691866;-0.4636647;2.175621;0.65127915;0.51557696;1.5485274;0.016472705;0.008719181;-1.0354413;-4.381319;-1.4826413;0.9908827;-4.0029583;0.3398636;0.52464604;-0.4764972;-2.5678804;-0.05235193;0.023026176;1.9585445;-1.6478837;-1.7823279;-0.4907039;-1.1824089;-0.8065818;-0.50726306;-2.698463;-1.3872181;0.5382434;0.029324511;0.64935726;1.1076344;-1.8547935;-0.23401089;0.45328796;-0.9992612;0.5063824;-0.5244869;0.6350045;0.60592616;2.3391533;0.1576251;-0.5766472;-2.437681;-1.1297184;1.095766;1.7682726;-1.4894695;1.158553;-0.1647481;-0.1406892;-2.0978608;1.2389375;-3.0633106;-0.53545266;1.5783792;1.6458322;0.2880244;-0.50245893;-1.4072914;1.7414383;-1.001604;-1.5404125;0.11893296;1.4960588;-0.9092586;1.9840147;-0.7391695;-1.315278;-0.6637243;-0.27426845;-5.8339834;1.1061528;-0.048370928;-1.0397128;1.265309;-0.45404112;-1.1882942;0.29218948;-1.7687515;-3.1549659;-0.23500478;-1.3823296;-0.009259497;-0.31526998;1.3019551;-0.39019904;-1.1646484;1.3027148;-2.8329017;-0.8224674;-3.1349876;-2.397251;0.32643437;-1.2920728;-1.7257787;0.8042467;0.90287864;2.483254;2.321257;0.2476264;1.0913427;2.6209223;0.5748724;-0.7776321;-0.693534;0.6264548;0.25552204;1.0341328;-1.8794999;-0.27725115;-1.2555348;-1.0993623;1.5615693;0.13062891;2.9268727;-0.7286535;0.39327496;0.14887749;0.28745547;2.102582;1.1115342;-1.9677875;-0.54422545;2.6911147;0.7260339;-0.63178605;-1.2586948;-3.8606305;-1.0497766;-0.077197276;-0.050932743;0.47419837;-1.1070435;0.1778039;-1.9525392;1.9509711;1.2090272;0.862192;0.51390356;-0.9200148;0.550301;0.7654703;1.9901438;-0.45552552;-0.10306969;-1.091028;0.63661635;0.3613459;-0.5068716;2.5069773;-0.6470668;1.0896969;-0.2657758;-0.56871545;0.9713988;-2.9326768;0.5608633;1.5327754;-0.40336522;1.626035;1.0639277;0.22713181;-2.5409172;-0.3295747;-0.9009756;-5.9447145;-4.1044674;-1.5451984;-0.8531497;0.5576655;-0.83965224;0.9529494;0.33091334;1.4159182;-0.21775863;1.5837406;0.29362023;-1.1885868;1.1732287;-1.1427213;0.4503138;-1.2953653;0.30505764;2.3643744;0.50049305;-0.89734495;-0.1858895;3.4721973;2.8188758;2.4746091;1.1247666;-3.2186737;-0.4727647;1.2519372;0.74294937;0.37596413;-2.617198;-0.91046154;2.5768995;1.4462374;-1.2431959;2.5811493;-6.036635;-3.895225;1.4783796;-0.031014876;-0.3682284;0.34277305;1.92808;-1.7883912;1.9919845;-0.7440748;0.92578435;-2.2471745;-0.018325832;1.6398638;-1.739865;3.6289127;-4.5597553;1.6105515;1.6781775;3.0556507;-0.7706244;0.32081708;-0.18543518;-3.2470572;0.15097755;2.6535652;0.35694957;-2.778965;0.22773516;2.3094602;-0.2768684;-0.36084998;-0.41076526;1.5801479;-3.023647;0.2237854;-0.94591314;2.6898642;-0.076677345;-0.19532149
-0.6287428;0.75340825;2.251284;-0.111439295;0.3503746;-0.9824775;1.7065824;1.9793375;-0.34036386;0.32251576;-0.1609845;-2.4864101;-2.0496364;0.3981523;0.65140647;0.6947044;2.3919876;-2.5301535;-2.9087846;1.1573473;-0.69135123;-5.3121796;0.90354836;0.8669675;0.20698193;-0.43704647;-3.6547933;0.9377437;-1.8849559;-0.32525665;0.71229196;-0.81069815;-0.17681117;1.7087525;0.5900485;-0.42366236;-0.46291834;1.0525581;-1.421771;-0.037155043;0.3391749;0.27720085;-2.3258424;-0.5069937;-1.9866892;-1.8041766;0.76258945;0.8497237;0.42973068;0.12697296;0.8097329;0.5025926;-1.7819759;1.8576772;0.8485894;0.082722075;-1.0431056;1.4613581;1.1074256;0.2496859;2.246141;1.7718891;1.4756086;0.21865283;-0.23786987;1.3861747;-1.5583256;0.38680473;-1.1724038;-2.1200192;1.9006426;-1.1837388;0.3832888;-1.1658224;3.7692888;0.6951894;1.2817162;-0.16864286;-0.08098677;0.08751511;0.6529135;-1.9295088;0.7884982;0.81069875;0.16822752;1.9884957;-1.7429471;-2.6521266;0.40250587;-3.0590613;-0.5625284;-2.780352;-0.83937144;-0.23875062;2.2734425;-1.4267608;1.6418658;-2.6934776;1.0853707;-0.46170178;-3.336391;-2.9758449;-1.545531;-0.009636208;-0.06801153;0.98726684;0.031342745;1.280485;0.48003697;1.8208034;-4.768221;0.24622843;-0.6204004;-1.2763215;1.9344717;0.9018865;0.6247704;-3.9433913;1.306524;-0.37235725;-1.4336637;1.4681604;-0.3542771;0.28206018;0.23095143;-2.6684875;0.058777682;0.6544564;4.2924466;-3.6488206;-2.4300046;1.2466722;1.4749024;0.7963795;-0.30822602;0.17583548;-3.160261;-0.38003466;0.9991744;0.58338124;-1.1857907;0.44811696;-1.9435276;-4.4691978;1.2768006;-3.7921772;0.31139645;0.7434432;1.8303772;1.6671093;-0.47127822;-0.46536246;-2.4614658;0.09533349;-0.5822233;-1.7903541;1.5550841;-0.10594603;-0.32488826;-1.1584938;1.7408024;0.8527942;0.31366298;-0.5080244;0.43211538;1.1373997;-0.07244585;1.9725094;2.631254;-1.4619162;-0.29664963;2.6376364;-0.8202345;-2.3148556;-0.7313778;-0.4219875;-1.6792607;-0.2150848;0.19900489;0.05398304;-2.6739144;2.2363358;2.3911788;0.14698294;-1.5270883;1.2065964;-0.9360154;-1.4395789;-0.5806885;0.26955828;3.5626972;1.1235182;1.1097496;-1.9167364;1.271036;2.051822;-1.2625711;-0.13333412;2.7562115;-1.2418939;-2.527688;0.42196977;1.6077735;0.1193224;-2.4755895;-0.35665855;1.1113781;-6.1749225;2.0389686;-2.150317;1.4688747;0.63260484;1.4207422;0.8115508;3.123884;0.63043;-2.1602776;0.6805741;-1.7168916;-0.876389;-1.1266308;1.0573969;3.024601;-1.6414754;-1.8773711;3.173077;-0.32664168;1.9991534;-3.4969614;0.859128;-0.70671505;-0.052805196;-1.7182446;-1.0771258;-2.3422408;-1.0114087;2.1707335;-0.3265939;-1.3057914;2.093649;-0.067315534;-0.36999202;-0.4292259;-1.0172126;-3.6721826;-1.315833;1.2338747;-0.8074698;-1.6663771;-2.822553;1.8083682;-2.3466523;-0.47472817;-2.954341;-0.35960963;0.43525678;1.0768443;0.15451616;3.2227404;-2.2279987;1.3716872;2.7318153;-0.22687064;0.6616296;2.183584;0.76405215;-4.4653254;-0.58042467;2.3253791;-2.0143588;-0.3381297;1.1528108;-1.2776868;-0.7420762;0.21024244;-1.7078866;0.45682576;0.19980311;-1.1812959;1.1417363;0.1145905;1.2999315;2.0381086;0.57718354;-1.2646141;3.590182;-0.29391536;-0.6912964;-0.8133042;1.2518559;2.489663;-5.5025873;0.39707464;-0.056608707;1.6547801;-0.0964547;0.04511259;-0.20397148;0.2218464;-1.1808602;1.8451577;0.6135413;0.5052643;-3.1314495;0.43976358;0.053361446;-0.93675786;0.99455386;0.56165624;-0.52175295;-0.007994002;-0.35843202;1.1739025;0.33382198;-0.3594249;-0.49768254;2.559884;-0.7241884;-2.7211359;0.98827076;0.45247376;0.9390491;0.37239468;1.3612738;-0.11933987;1.1050112;0.9472394;-1.3831167;3.9275727;1.878125;3.5985267;-2.0917633;-0.105386466;-0.33964488;-0.93507445;0.81631494;0.5117608;0.5547508;-1.2062554;0.41629243;2.265471;-0.3028002;-2.188839;1.3764077;-2.0648193;-2.6811144;-1.4391726;-1.3759726;-0.11304737;-0.19184275;1.8161935;-0.6487534;-0.3311648;-0.44983608;-0.8213698;1.5397853;-0.21165931;0.99791986;-0.51647043;-5.5867815;-3.4886773;0.75416523;0.05929703;0.5761726;-1.7318273;2.2385063;-2.0445476;-0.767346;0.6745926;-0.13702911;-0.30212125;-1.2048672;0.010089989;4.479062;1.2046522;-0.77693385;-2.901027;-4.5802135;1.1312796;1.2165415;-2.9687471;-4.5548425;2.1696045;0.62910795;-0.4892451;1.0098088;-1.585268;0.10358546;2.5462534;-1.2069722;-0.61187583;0.9021126;-2.329862;0.65177244;3.4119713;-1.5090276;1.2509586;-3.811038;1.9624938;-3.6960192;1.5347563;2.4030163;1.9706914;-5.3294983;1.7092401;0.3873106;0.18807861;3.5185046;1.4151108;-1.4814425;-0.56542397;1.009344;-4.153453;-0.7070458;1.483274;-1.0602195;-0.34880704;-3.2069304;-0.36865735;-2.4887443;-0.92136604;1.2368019;-1.017759;-0.76868635;-0.07252772;-0.14272651;-2.737911;0.78832793;-0.7108442;1.4826038;-3.4580376;-1.3081249;1.9010907;-2.9664521;-0.9175765;0.53129935;-1.2729096;0.117458634;-0.4908662;-0.9888639;1.4841264;-1.3429447;0.15214306;2.3304746;-2.3295586;1.5325339;1.2114732;0.5111391;-3.8314924;0.30808175;0.40862224;1.9821724;-0.8227581;0.117898256;-0.36742833;1.1489432;-0.47253326;-1.563352;0.63700646;-0.8420365;-2.7657406;-1.6468744;-1.5501086;-0.01762018;-2.8607206;-3.036215;-1.721481;1.8624179;-0.24774171;-0.46549517;-1.1529416;-2.9729192;0.04217168;-1.4781936;1.1205701;0.36427864;1.1940815;-0.7258885;1.315617;1.4199523;-1.0343988;1.1928874;-0.057693142;1.459156;0.9992811;-1.19121;0.4823409;0.60398054;1.6325743;-1.0541676;-1.9262482;0.5246373;-2.6049843;-1.9038303;-0.44093817;0.9087844;-1.1344385;1.2696509;2.7901807;-3.5960522;0.9225372;1.8867271;-1.0792626;-2.3127441;0.43989688;2.0354753;-0.47866273;1.6510781;-0.3753329;-5.3124785;0.5043308;-0.5285129;0.9250527;-0.39934614;-0.4508257;-0.4420585;-0.7459673;-0.07099027;-0.8020075;2.575191;-1.2828096;-0.9480039;0.61379886;-0.19598107;1.6348699;1.2698743;2.4077623;0.39834806;-2.2992325;1.2883687;-2.1722665;0.5602288;-0.11222331;0.945273;-0.5145452;0.502151;-3.0721803;0.728717;1.4617132;-2.5775976;-0.17547983;-0.68441767;-1.819428;-0.5815474;3.3736694;-0.041731756;2.292579;0.9070942;0.77570504;-1.654323;-0.22579373;5.8574142;-0.03210681;1.925298;0.76847327;-0.44495547;-1.3356375;0.94354826;-2.6279988;-2.5706298;1.1067798;0.50716674;1.198729;-0.89022434;-0.19252387;0.42751092;-0.19201201;-0.069766395;0.46199828;0.18408255;-2.853806;2.1533058;1.1886694;1.7549546;1.8337978;0.17237742
-0.73293215;2.263874;1.6723313;1.1932222;0.0044528847;-0.7785237;-0.11319915;1.255721;1.323059;0.6714517;1.9531916;-1.0897554;-0.72357786;-1.5417111;2.7673664;-3.0938509;1.4501036;1.0352985;1.1971148;2.1197088;-1.4017386;-0.2965227;3.0830917;-0.9485863;0.6331656;-2.28878;-5.0698013;1.5909745;-0.4890703;-3.5722702;-1.0353209;1.5734535;-0.17647502;2.9931357;1.5723437;-1.0682561;-0.3449516;0.4662366;0.7150062;-1.3340024;1.0138398;-1.6976675;-0.12906186;0.18184675;-0.115622014;1.3321676;0.68228936;1.9879423;0.52817607;0.18589754;1.653504;-0.34418762;0.4559793;5.131893;-0.0711532;-0.9926453;1.9130235;1.1123283;0.38800564;-0.15481511;3.9388168;1.9673594;0.034555376;-2.914297;0.45113364;1.6846023;1.3101318;-0.7313626;-2.7408524;-1.856085;-1.4077804;-0.070006065;-2.413203;-1.1480806;1.739752;-1.6410166;0.085910015;1.9649286;2.5125823;-0.84614164;0.703532;2.0006166;-1.3440114;0.871166;-0.4045048;4.4896164;2.9404328;-1.6522369;0.22576585;0.7071852;-2.0382874;0.8759382;-0.26079765;-0.2524833;0.2193289;-1.2697307;1.6193322;-0.48690623;-1.009519;-0.18222736;2.6214826;0.14229156;0.68225414;1.7294338;-0.6841164;0.06752364;0.4148342;1.6769264;1.650026;-0.43769237;-0.90118814;-0.30869544;-0.28065407;1.9389307;-0.06280488;-1.3816855;0.42859352;-0.6435466;0.22890173;-0.8237684;-0.54407185;-0.85511416;-1.0643793;0.24532402;1.9985343;1.8662173;-0.5774366;2.7766128;5.1987495;-3.0074852;-1.0277127;2.194219;0.19607401;-2.1857922;-2.0129786;-1.9153776;-4.064915;-0.86430866;-1.028796;-4.975995;-1.1283062;0.5136889;1.3683361;-1.243586;0.45651045;-3.255775;0.5988704;0.49395722;1.0724539;1.2937059;-2.4891553;-0.6093227;0.4800688;1.6493391;0.70170325;1.8791168;2.6888762;-0.7688336;0.9024105;-0.98514634;0.04436033;-1.9875767;0.48388517;-0.2952099;0.0659751;-0.3726165;-0.8851706;0.7411102;-1.7055247;-3.5632484;-1.2455122;-0.40673903;-0.56519973;1.2179466;-0.23106802;-2.1244767;1.536017;1.225849;-2.719287;1.2717476;-0.6059984;1.5651952;-0.84780586;0.75771505;-5.1627965;0.025827123;2.3719816;-2.786692;-2.1720746;3.664813;0.70456034;4.039199;-0.57623076;-0.5385474;0.8201591;-1.3595357;0.34616938;2.013497;1.2805473;-4.2979913;-1.2022736;1.2739856;-1.475186;0.72212607;1.3099698;0.23527044;0.5164419;-1.9731554;-1.1033895;-1.2440434;-0.23813832;-1.449091;1.4873767;1.8865527;0.11145327;0.29850024;0.9011172;-1.3769151;-1.5731059;-2.2939644;0.12025238;0.12227232;2.448631;-0.0021359096;-1.2531581;-3.9631252;-1.3005654;2.1772015;-1.8110574;2.5838053;-1.1087719;0.037571326;-1.5106664;-1.0028096;-2.1512318;-2.5695593;1.7493272;0.43638328;0.6276039;0.38639545;1.4877894;-3.6639934;-0.54498756;0.0795932;-2.316535;-1.1599373;-3.3417215;-0.377072;-1.4979403;2.842572;1.8275956;-0.83138734;0.7960294;0.25757295;-2.5066922;0.7190165;0.8015637;0.94344497;1.4327818;0.9517207;-0.05795441;0.29116738;-0.06340831;-0.37533182;3.3793476;2.6458943;-1.4064796;-1.74159;-0.13599207;-0.080148734;-0.5139347;0.6152343;1.7674357;-0.12840894;-0.32842448;-6.6772876;0.7191196;-2.162121;-2.9884279;-0.73846346;0.15700075;-0.94522923;1.513756;0.30932316;-0.5949333;0.4783225;-0.66354865;-0.74947923;-2.7235672;2.5143144;-0.57482773;0.9926339;0.8368612;-0.7628873;-0.81130075;0.5493849;2.9643626;0.6795846;0.46091145;-2.0670912;1.4940326;1.03656;-0.49198937;0.91853726;-0.05407096;-2.3750584;-1.270167;-0.037341684;0.93153137;-1.50506;-0.80863696;1.4243159;0.729523;-1.8527056;2.6453407;0.36804423;0.10187658;0.07674402;0.85600245;2.5327644;0.6370287;-0.18018563;0.5466343;-0.5779636;0.24982701;0.28199035;1.9444859;-2.1032567;0.23978932;1.6013883;0.69385046;0.51775986;-1.4994323;0.4318696;2.0278647;-3.419392;-1.9135393;-0.12520078;0.15600249;0.5527409;0.5312618;-2.0446532;-2.7012832;-0.29955706;0.4787927;2.3471854;3.1502957;-3.2080572;0.4876652;0.040168755;0.2666957;2.1055892;1.3196783;-0.5989351;-0.28045323;-0.7576913;-0.9223852;-2.3138494;-0.62787837;-7.3080616;-1.5231757;-1.3885164;0.9695977;-2.9012837;0.11685293;-3.5168974;1.482097;1.1546147;2.9367175;0.5453945;1.296641;-1.2298735;-1.2453045;-2.4541488;3.1663072;-2.0716739;-1.7058866;-4.0307903;3.4118187;-0.900538;-0.1832078;-1.7535208;-0.70556825;0.37144107;-0.54691416;0.19122641;-0.2494751;-0.7572694;0.35437924;-1.706256;-0.46363568;-0.16108446;2.4290576;-0.8830328;-0.35857815;-3.3761466;0.7702094;-2.163639;3.1115084;-3.566429;-1.0726959;2.1515815;-0.042530373;0.2535095;2.633737;-0.33471373;0.15095381;0.43095753;-2.230812;-3.6513987;3.0180326;-3.6275363;-1.9011351;1.2308292;-0.19812961;0.9665688;-0.048112202;-1.2698762;-0.5413039;1.9734316;-1.3874428;0.8705852;-1.6750438;1.2234267;2.35205;1.7260947;1.3266656;-0.8406447;-1.453304;2.0632694;-1.8670954;-0.6760988;-1.4485039;1.8530214;-0.037862837;-2.6578803;-0.6742691;-0.039186414;3.7902102;-0.7846146;-0.10111321;-1.5890186;1.5460167;-0.6978746;-1.0844055;0.72144294;0.21889086;1.4319383;-2.4596682;-0.7641727;0.41477412;-0.48354518;-0.5112658;0.90776217;-1.3034707;2.6987185;-0.35660645;0.31286645;0.44852513;-1.0226842;-1.2246643;1.9979105;-1.1391544;1.8562354;0.87237704;-1.62737;-2.3406808;0.89937365;2.4026408;-2.82226;-0.5147112;2.231503;2.1906044;-0.5911602;2.5049038;3.4627976;0.21915813;-0.2943202;-0.040127777;1.1492605;1.1008326;0.9061086;0.5974611;2.243082;0.5432812;1.5395132;1.0173178;2.0516963;2.426436;-1.7145915;0.17955717;-0.104665935;0.9508289;0.075340174;0.52821296;-1.1993618;0.7914443;0.82367796;0.91674984;-1.7624513;1.4400297;1.0294561;0.76967627;1.8941696;0.9418285;-0.75864905;0.06596563;2.2999895;0.6233543;-1.0919521;-3.228607;-0.19369037;-1.3358268;1.2679198;0.36498824;-0.77151483;0.60408026;0.904835;0.6341321;-2.711741;1.2002902;-1.5180662;3.2436004;0.40467754;-0.7081828;-1.5099887;2.4486752;1.6771998;1.4171073;-2.0638444;-1.9283956;2.3564715;-1.6287026;0.4651094;-1.3826503;0.0037304857;0.12414127;-0.9282377;-2.199488;-2.0141585;2.1777544;0.92145926;0.5046315;-1.0378171;3.5308936;-3.8562233;-2.731363;0.48621088;0.87646306;-3.5014124;0.70751584;3.6614065;-0.09911513;0.9018926;1.0542916;-0.44391268;1.2082359;-0.8495929;-2.555656;-4.047122;1.3988346;1.7531639;-2.5327106;-0.25815806;0.25599453;-2.5034306;0.0023191515;0.10914841;1.5214635;-1.7671119;1.0379367;0.28965575;1.1212271;2.1573133;0.7570159;0.1600947
-0.26106063;1.241396;-0.3706403;0.28920203;0.15870245;0.599287;1.125136;1.4585675;-0.53358084;0.2937468;1.3681085;2.671699;1.2121764;0.83446574;1.7513325;-0.49561223;0.600505;1.1175901;2.3474278;1.8254967;-0.13401252;0.9059076;-0.9986173;2.2164881;-1.6457775;1.6155591;-2.6829193;-1.0410463;2.2422867;-2.5191936;3.208586;1.4947077;0.050505493;3.0964293;0.26213068;0.75405204;0.7019596;0.1271027;1.6873132;0.768408;-1.2481668;-0.17259577;0.21558402;-1.199827;1.4797798;1.4276047;-0.1754103;-0.8119625;0.7088114;0.30259794;1.3526591;-0.8412106;-1.5856915;0.65958315;1.8789653;-2.1655667;2.6913161;-0.54489434;-0.18259025;-0.8458767;3.4351976;0.50709945;-0.7043392;-4.7084284;2.284262;1.4564292;-0.07455418;-0.4931241;-3.498226;0.23305379;-0.44717228;-1.8809539;-0.5881479;-0.6114704;0.81238616;-2.232442;1.176009;0.16404271;0.11788326;1.8341475;0.5382643;1.2684288;0.63590145;-0.95159185;0.8529502;3.250227;-1.9917583;-0.54558796;-1.5907964;1.8362144;0.71509194;0.031421006;-0.56540763;-0.40887156;-3.2577195;0.27282348;-0.18613704;-2.0008616;0.8367249;-0.7679415;-3.9320111;-1.9414736;0.80280846;2.173028;2.7790682;0.06616;-0.7504418;2.26264;1.3873035;-0.7895412;-0.86185867;0.64684534;3.1296632;0.73550117;3.1192791;-0.27539206;-0.4734695;-3.3703163;-2.3223238;-1.1404556;0.19445121;1.1831375;-2.264507;0.1340022;-0.12804465;-0.90265673;-0.5786105;0.083106674;0.47408602;-3.4474251;-4.7979717;0.014574282;0.8999323;-1.9104003;-2.1713674;-0.20119725;-3.2084804;1.3255416;1.3058689;-3.933443;-0.85055196;-0.03477788;0.13300087;1.9691418;-0.9590286;0.5359448;-0.115441985;-0.16951653;-1.8608222;0.58748525;2.7515218;-1.7374598;0.37657753;-0.025408246;2.607306;2.1868432;1.645006;2.877367;0.33247373;1.0863016;-0.036377713;-0.8097787;-0.25532058;-0.4978527;-0.13859856;-1.0894413;-0.41350624;0.27159497;3.2799363;1.4821687;3.1868985;-0.13244645;-0.21091212;1.4667062;2.9508286;-0.93944246;1.7481073;0.62937737;-0.12453573;-1.0048227;0.13200383;2.0790453;1.044315;-0.7513199;-5.449459;3.1621542;0.43892148;-3.528671;-0.9697219;1.9653198;1.3622262;1.6101637;-1.0894206;0.5518926;-0.49852955;-0.07598064;-1.6116654;0.4276884;1.0100174;-3.5184443;-1.8862966;0.3037967;0.6284612;0.13494179;-1.0549418;-0.5134153;-3.2262406;0.22003503;-0.6273622;0.2661281;1.6582961;-2.8252873;1.0346982;-0.4362302;-2.4037588;0.17393686;1.0070486;0.50766456;-1.804967;1.2549496;2.1186974;-1.7629403;-0.4772424;-3.4087718;0.05240061;-4.5421877;-2.0766566;3.3284898;-2.343934;0.8304351;0.11621578;0.64061165;-0.33829167;-1.2521876;-1.5657339;-1.484208;-0.045407683;1.5804255;0.24671546;1.7350334;-0.51007336;-1.0057065;-1.0418885;-1.9160364;0.6125089;0.083322644;-1.2097601;-5.7730737;-0.23409928;-1.5683599;-0.23706739;-3.363872;-1.2367527;-2.9593823;1.1500444;0.8035819;0.5569441;0.8301477;0.6013072;-0.40614957;-0.21718226;-0.5991343;-0.28706953;0.09433009;-0.04798878;1.1587827;-5.0402584;0.0576525;1.6353542;-1.6363994;3.2537901;-0.33833733;-0.40206993;-0.8578948;0.61014694;0.19648732;0.1093098;-1.7217749;-3.9096105;-0.27042505;0.8140085;1.595638;0.0627878;1.3849657;-0.2934935;1.5671717;0.78173006;-0.045343563;-4.606286;2.0918984;0.22755003;3.7616217;-0.1921299;-0.07443873;1.6566302;-0.8807698;-1.2933278;1.5801861;0.49937022;2.6384356;0.51463693;-0.9107668;-1.1134859;0.028091185;-0.7014169;-2.586236;-0.24258249;0.8180908;2.5573213;0.1445171;0.45855153;-0.5150974;2.0558646;0.9705015;-1.5450245;-2.8523843;-2.100746;0.19082114;2.909847;-0.98566675;-1.1291108;2.26479;-0.15768716;0.3377214;0.39064828;0.6689156;0.06619473;0.75869733;-0.55589426;2.6629734;1.2933027;0.03938417;-1.7868093;-1.2736698;0.7463462;-0.41714147;1.3436857;3.9378173;-2.6468754;-0.010445241;-0.50315213;-0.30791295;2.5215056;-0.084216;0.43651915;-2.3492672;-0.15144007;-2.899429;1.4213964;1.3920554;1.7355497;-0.53298473;0.29852661;0.57763255;1.0374424;1.7041043;-0.44910496;0.9512094;-1.4463925;-0.21947302;-6.2270436;-3.0225675;0.59022814;-1.2184752;0.839643;-0.9272788;2.7424397;0.2280335;3.8754628;-0.37499824;-1.30994;-0.6579542;-0.56017965;-0.8601882;1.9113101;-3.4193175;-1.5034276;-3.8568847;2.021708;1.2982402;-0.5981965;-0.18302287;-0.15056653;0.37447172;-6.08906;-1.1285657;2.290953;-0.11117308;-1.4581777;-0.43781373;2.2752318;-0.46760198;0.21269043;1.3317978;2.1104684;0.12666172;-0.81158125;-2.0707574;-1.0932101;-2.704131;0.3902101;-0.71517295;2.5029283;0.4962273;0.30241188;-1.6429948;0.1532613;0.6851115;-0.77687156;-1.9906904;0.43243945;1.5896958;1.9103729;1.447804;-1.2641165;0.63771915;2.5398817;-0.8013141;0.82491285;0.742167;3.318511;-0.75784326;-2.0221646;0.13900663;-1.0670781;1.1318772;0.5307784;-0.94291425;-0.77089256;2.090031;1.1369971;0.50499713;-1.04411;-2.034343;-0.7092771;0.83646184;-3.24696;1.6251919;-3.124464;-0.6266147;-0.5697228;0.22850978;-3.9634383;-0.73182166;2.1507366;0.52129984;-1.0547669;-0.06251412;-0.18568;-0.319486;-0.06547186;1.8240641;-0.55133754;2.480691;-2.2817652;-1.1264743;-1.0912329;-1.4448068;0.43907616;3.00988;1.3251375;0.5322819;0.34155288;2.8621974;0.8569225;-1.2580932;-0.92812663;-2.1116846;0.35201663;0.7097018;-0.24587584;0.6017927;0.45208997;0.94263536;1.9836929;-1.0022564;0.9618134;-1.0702449;0.43656585;-0.2824855;0.2604087;2.0069404;-0.023293931;2.3066914;-0.8741315;0.6680045;0.5917549;0.691721;-2.2011032;1.9967898;2.1980138;-4.245203;0.041068178;-1.2175256;0.3822056;1.7475464;-0.20395221;-0.7595556;-1.6599579;0.7756592;-1.3794461;0.50393105;-1.4050632;0.822563;-1.6195123;1.5054244;1.0727867;2.8057454;1.2687334;-0.32234058;-0.643662;-1.2005357;2.238077;1.8223761;0.7859298;-1.9682486;1.088973;1.6241926;1.2188644;-1.1929729;-0.50846386;2.2413027;-2.277412;0.2654242;1.4905326;-0.658155;-0.8404204;0.20212659;-0.64568;0.87563723;1.3365996;1.0773851;-1.1571996;-0.26463452;-0.4595136;1.8745172;-0.86665356;1.1872971;1.8211915;0.63360244;-0.87061185;-2.85994;-2.5087843;-1.6302465;0.41518155;-4.708573;-0.42070794;0.3260333;1.1765461;1.3535137;2.2590754;-2.1578057;-0.25029004;0.51262665;-1.9613655;-1.5555011;2.625506;5.401038;-1.4800813;2.0928204;0.5394344;1.2887871;-1.4578798;-1.0689031;0.8352882;4.469228;-1.3994445;0.24934675;1.3565612;0.9186934;3.457127;-0.04986673;1.3354511;0.59592605;0.8253605;-1.3621153
0.9248475;-0.27068353;-0.2698275;0.54764545;-0.22440265;-3.0794492;-1.7436278;1.2543691;-0.8205879;1.4190403;-1.4934669;0.47904658;-1.9061426;-0.8040022;-0.9921482;0.5244547;-1.6747396;0.7357541;0.55689305;-0.49336678;-1.3951361;-1.7128037;0.32594442;-2.7600682;2.3780603;0.73529303;-2.1157806;3.2882583;-0.33692756;-0.8015579;3.3456645;-0.1300209;-0.068534024;1.5653389;0.44944122;0.93799084;-0.9880841;0.7086211;-1.9520315;1.004727;-2.0960462;-0.3708585;-0.6212504;0.40871316;-0.47079307;1.5863235;0.24254337;-2.5670762;0.15740946;2.82747;2.3178115;0.26215565;-2.1724782;-1.7771356;2.5069518;2.8696651;3.8150573;-1.5971771;0.22059032;-0.90905756;-0.6626758;-2.370524;0.8803359;-1.1004913;-1.376722;0.55219686;-0.66813344;-2.333881;-1.8123891;0.004101079;2.2505713;0.10772504;1.8122132;0.32295233;-0.23067936;-1.2479178;1.0611513;-0.168717;-2.7132664;-0.8374256;-1.7730184;2.4493928;-4.677217;0.39777035;0.72002244;2.37663;-1.8765142;-0.67787504;-0.5106075;-2.1159706;-0.22694133;-1.08388;-0.90380836;-1.971552;-0.12609176;2.1603637;-0.78963536;1.2885395;-1.5035133;0.7880107;-1.6855096;-4.1003904;1.7608198;3.415805;0.40352097;4.6697025;-0.7760112;1.7570819;1.5086739;-3.0171428;1.507757;-0.66075575;1.9200746;-0.5846815;-1.7309834;-0.84032226;-0.22818792;-4.8795304;0.8815701;-3.1867287;-3.232937;1.9216925;-1.4052296;-0.031535156;1.4102207;2.7994957;0.20210837;-1.4427341;-1.9777654;0.010142566;-0.9510774;-0.30956617;1.2283024;2.0578847;-0.7729488;1.8899091;1.1938707;-0.34249735;-0.05017781;-0.07182705;2.020572;-2.347573;-0.6424173;-1.0669184;2.3736143;4.500269;1.2855369;3.9492998;-0.4203229;-2.0492592;1.4652257;0.6011239;1.0174594;2.1414845;0.0038599598;0.900932;2.3555043;0.3955857;-0.063630775;1.024203;-0.5997812;2.3981266;0.85035676;-0.34215537;0.41138303;-0.70586646;-1.8324673;-0.04383256;-1.6424395;0.8711246;3.0120342;2.3094342;-0.81310874;-0.7922194;0.4902329;-1.1279987;-1.8834777;1.3967391;-0.2363096;2.413939;0.007656962;0.60496193;-2.6792111;-3.7715015;-3.2076828;1.8256102;-0.44661868;-2.1999981;3.0258758;3.597257;-2.022056;2.950171;0.1332031;0.17136817;1.4939842;-2.4575555;0.5507299;2.7559166;0.73731935;-3.8220906;1.2526358;0.85348547;-3.959494;-1.4187747;-1.1724623;0.13862056;-0.54865295;-1.4317963;-0.9395652;-4.4279704;1.5839226;0.344515;-1.4824841;0.20204063;-3.138793;-0.051694535;1.0460982;-0.44583428;1.0785693;-0.49229923;-1.3853397;-1.4798161;-1.7375388;-1.299645;0.79177386;-1.8795015;1.2404926;-1.4430989;0.24034895;0.62301797;3.0969834;0.32817596;-3.5755453;0.7206687;1.6879;0.3623878;-0.865269;-0.39595175;-0.1517962;-0.20503405;-0.5280501;0.095458396;2.718237;-1.6659968;-1.4511012;-0.20197114;-0.24168968;-2.7230237;-0.4646132;-2.22124;0.47462553;-1.9158715;2.582218;-0.5564722;-1.9975367;0.18511485;-1.5365509;1.14266;4.258154;0.07008994;1.7893806;-0.28255886;0.778602;0.884029;0.37194455;-0.5332615;-0.6444256;1.903102;-0.27913257;0.7580375;2.599158;-2.0441682;0.99803686;-3.2842875;0.2863014;-0.87385386;0.9578216;-2.898521;-5.1604905;0.30879182;-2.2782965;-3.3697135;-0.8326887;1.2226233;1.7002413;2.9277499;0.25467426;0.048928555;-4.003432;-3.1945908;-0.40291208;2.964233;0.16760217;0.30144858;0.028162373;0.19194728;0.8979095;-0.26765335;-2.3340676;-1.6724105;0.10478613;-0.5977748;-0.046529263;0.78791106;-2.140245;1.8126528;-0.56306326;-0.76392144;-0.16303249;0.97695994;-1.1085826;-0.6749843;-0.1899117;-0.86268353;1.318515;-0.14093179;-0.29385775;1.0876318;0.85543275;1.6194327;-2.8165314;-0.55939484;-0.27920213;2.100279;-1.5129981;-1.4248844;-0.9684572;0.43385747;-2.734508;1.3030251;1.873173;0.19795965;1.6113577;1.6367521;-0.31895646;0.8337174;-0.661802;2.4587035;-1.8987716;0.5545534;0.95149237;1.370395;-2.1130626;-0.14605328;-0.61449;-0.04071647;2.7375197;1.2951621;0.032020256;0.7837842;2.8719788;0.42872345;-1.5501801;-1.150159;-0.09619343;-1.8413218;1.073848;2.6434186;-2.7009616;-1.2695957;-0.15242435;0.6049059;0.70712864;-2.3718743;3.6939852;-2.7255983;3.5365586;-0.26963225;3.4266798;-0.83666927;-1.3834058;-1.1985049;-0.59328586;-1.2188793;-1.3200039;-3.3026204;-0.068310365;-2.2777631;-3.3599427;1.1360813;-0.5578364;1.6040802;0.26940435;-0.5589111;-2.520353;0.20241353;0.92056996;-0.9117729;-0.036275253;0.99639237;1.3996198;-1.3122044;1.3538302;-1.1376479;1.9071419;2.246739;0.040952463;-1.4018145;-0.19908008;-2.4606335;-2.847453;0.61030143;-0.5378271;-0.08641633;-0.11668588;-2.3672252;-0.5822854;-1.6445236;1.5817653;-1.6455556;1.8313221;-1.9071277;-3.6405814;-0.65861994;-0.94786465;0.48822978;-0.3825424;-0.2374546;-1.6040142;1.8209883;0.93125314;1.5462831;-4.296135;-0.9883612;0.53006417;0.42942962;0.92234516;-2.7682247;-2.1417692;3.20404;-1.1830242;-3.9133928;-2.9842544;0.27875796;1.1189045;1.1235557;-1.4344662;-0.40545532;-0.89407754;0.06159127;0.80725145;-2.0206952;-0.792035;0.33086023;-0.009932124;-1.2395927;-1.0534137;-1.0796785;0.8562837;0.47112206;-0.083360724;-0.42379248;0.24780464;1.651481;-0.37466294;1.9120221;-2.116337;0.8156236;0.47793153;-3.1173441;1.4968861;3.396316;1.3251525;-0.35265017;-0.66411054;2.057367;0.72183025;2.2001176;-1.9843018;0.84144855;0.13429867;1.5857577;1.3643483;1.9545301;2.7124147;-0.13773297;1.2819023;0.16686441;0.406946;-0.11812752;-0.5430503;2.1096935;-0.1732037;1.1925685;3.2616904;2.239094;0.35146698;-1.6227233;2.2343824;0.6620856;0.46659628;-2.9841213;-2.501486;-3.5064125;0.6163167;1.8792336;-3.842432;-0.13921931;-0.1905065;-1.7627461;-0.6379702;2.1922307;-1.2281152;-1.8683698;-0.87337464;-0.071997985;0.15367255;4.79704;-0.6763943;1.4269882;-0.46169338;-0.38986722;-0.06476598;0.72235835;-0.5130169;0.7476872;0.10616193;2.3080783;0.90599775;-1.2202808;0.15268059;0.87300116;0.52744716;0.7274302;-1.0013131;1.2307111;-0.5937285;1.6926169;-1.6902986;2.500664;-1.1842393;-1.2731904;-1.1665518;1.7459927;-0.5272614;-0.5958853;-0.39560613;-1.4707526;-0.93411565;3.4607844;-0.6124142;1.638827;0.33193883;0.35099488;1.0106492;-1.8352807;-3.012646;-2.2196949;1.3654319;-4.3765492;0.43117985;-1.088987;-2.7067761;-0.07241445;0.5330677;-1.8733591;-2.4197278;-1.9099473;-2.6672413;2.7946281;1.5997362;2.6751096;0.7832184;1.7920508;0.04543958;-1.4948996;1.1909349;2.1419966;0.6505791;0.8633139;2.2647722;0.06702506;-1.1586739;1.1673645;-1.9298306;-1.5813224
1.3734146;0.7753626;-1.3091425;3.037013;0.18221511;-2.2497463;-0.8674119;-0.059256125;0.6618782;-0.27102518;1.5692276;-1.5683084;-3.5374458;0.06530859;-3.090099;0.96731114;0.31186613;-1.201699;-1.0412271;-1.9536018;1.2754602;1.9906702;2.7430341;0.11789691;3.4298728;-0.768343;-0.4681146;1.6133989;-1.3797878;-1.3864145;1.8028319;0.6703224;-0.13296199;-2.5623026;0.6221259;0.2591812;0.3120667;-0.5981007;1.742768;-1.4791011;-0.6930211;-0.314037;-1.1175598;1.0168686;-0.19519283;0.8002053;2.3375638;-1.8813677;-0.7803425;2.857527;-1.4650202;-4.202344;1.4346683;0.046360187;-1.3487761;-0.36266187;-1.6262177;1.0800424;0.7012298;-0.21331137;-1.2236825;-0.0031480608;-1.0168215;-1.7604765;-0.88803345;1.5008285;1.2061058;-0.104103014;-1.4917912;-1.4590621;1.573396;-2.0885959;0.89609843;-0.5060664;-1.8005564;-0.70909977;-2.1121352;0.59842265;0.86656904;-1.2601235;0.58076966;-2.1848302;0.02465661;0.5458757;-1.4475728;2.2957575;-0.46086672;0.44699547;1.4050682;-1.2827026;-3.3104944;-0.84230494;-0.2964197;-1.8266709;-0.79718333;-1.9718174;1.0551932;0.3759982;0.36474314;-0.2995693;-1.1818622;-2.6926885;-0.72359264;1.978753;-1.2524012;-0.50196266;1.2068515;0.8208452;0.48591954;-2.512357;0.31752625;-0.53462696;1.6581209;2.8762531;-0.49959484;-0.043341145;0.2667909;-2.9114583;1.5449375;-1.8390762;-1.2246345;-0.43301088;1.2525061;0.27689302;1.8144612;1.1904038;-0.72107923;-1.7529837;-1.783322;1.035221;-1.0800438;-1.3857101;-1.5155989;-0.94075525;3.206905;1.7376876;0.031623174;0.38233626;2.9723608;1.9974043;0.13722095;-0.04122612;-0.70452285;-1.8505198;1.5584637;-2.5367186;1.8840067;-0.11650418;-1.1373903;-3.1897402;-1.0358441;0.15589158;-0.7785003;1.907856;1.9759219;1.5412304;0.25172853;-1.0492618;3.044406;-0.92561454;-0.22429504;0.35285062;1.2082973;-0.27500758;0.5521479;-0.1347113;0.97563607;1.7127963;-1.7948631;1.6142807;-2.426339;1.2510474;0.67743033;2.3316119;-1.8042076;-1.2952797;2.6168196;1.5654268;-5.323541;-0.021846283;0.43059695;0.1622755;1.4727088;-8.837123;-3.0422916;0.20906998;1.5932283;1.5975944;3.2126827;0.5374534;-1.6616254;3.1300318;0.080086924;-3.5018547;-3.0200307;-3.440723;0.67914826;-1.7066586;-1.2326987;-1.1690927;0.93482304;-1.04794;-1.3838991;-0.3448221;-1.6231037;0.10257091;0.8458468;-0.3488283;-1.5288537;-0.8052984;1.6612641;-0.18529594;0.32284766;-0.61002904;0.52265334;0.20517002;-0.23157443;1.6606517;3.331219;1.2384816;-0.5280433;0.4550455;1.0108196;-2.9110599;3.3610127;0.24431518;-2.056348;1.1478035;-0.84836006;-0.72484326;0.48016676;0.35221118;-2.461274;2.123489;2.5004761;0.36032832;0.90340084;1.407283;0.3532199;2.0822742;-0.15993091;0.21294644;0.3171211;-2.5875158;-1.0783556;-1.2799932;-1.6519731;0.91553646;-0.79376227;1.1399368;0.091793664;-1.500542;-1.6851869;-0.6096687;1.427063;0.4736336;0.90064025;-3.8777125;1.4772683;0.82986337;0.5116937;1.145528;-0.11015803;0.20807074;0.58977133;0.7228145;-0.25520518;1.6069956;1.6073297;-0.7583148;-0.19503939;1.4355974;-2.5081053;-0.48824015;1.6073244;0.9938604;1.573171;0.49801496;-8.770404;1.3818215;2.6441438;-1.8186996;-1.4200349;-0.78383195;0.4489212;1.221202;-0.25893632;1.2985759;1.6587425;-2.9877799;1.7415708;0.11999485;0.31918886;-0.62094307;-0.5702211;-0.091030814;-1.512432;1.0788114;-0.80661255;-1.2005019;0.75047874;0.4075627;0.14823788;1.4749466;-1.851609;0.85022277;1.7629621;2.0347435;-2.0944319;0.53365284;-0.49795863;2.1769133;2.25907;-3.7980542;-3.6385286;1.2814193;-1.6669413;-1.169563;-2.4137092;-1.6858321;-1.2749573;2.1585085;0.7459416;0.44536194;-3.140068;-1.4895952;0.9038512;0.25690827;0.8293088;1.5204245;-0.20725076;-2.7371173;0.19538468;-0.009334172;-0.0014839848;-0.35681668;-1.2064801;-0.006421617;-0.07441156;0.14430149;-1.5032942;0.065466695;-2.7701807;-0.9365304;0.76375633;0.79394734;-0.31236836;-1.4455237;1.3086096;1.4374456;2.1670036;0.98683035;-0.52782476;-1.0030434;1.8160857;-0.46861988;0.090007775;0.5049963;-2.1086466;-1.578935;2.7414901;0.24719572;1.6583054;-0.2347201;2.4646862;0.863845;-0.52333915;2.7966022;5.339804;-0.6841851;-0.7151234;-1.9848015;-0.11772434;-0.53343433;0.48756862;-3.5428581;-0.35379383;-1.2407278;-1.1782123;2.1552024;0.19479752;0.20414695;0.37937486;-0.6306202;-3.145126;0.96970713;2.6361809;0.5637308;2.8827665;1.2016776;1.4741986;3.1344683;-0.013411154;1.6193146;0.80783004;-2.2782917;0.54328066;2.5672195;1.9122306;0.2400566;-1.6112316;-1.4456782;-0.68533623;0.45753616;0.19653301;-0.69949883;-1.0138179;-1.8865206;2.0138557;-1.0889298;-0.43476465;2.247598;-0.55499727;-2.5327663;0.4310301;1.3823298;-1.8612642;-3.1958973;-1.4935706;1.7488338;3.2803445;1.6093833;-1.7660285;-0.9870224;-3.8098767;-0.55032754;-0.3260937;0.03698534;-2.6568863;1.8908054;-0.9056406;-2.3565059;-2.253745;0.07297546;0.6353479;-1.4033005;-0.90524775;0.12000269;0.39134642;0.3915485;-1.3608478;-1.379863;2.1718657;0.6047729;-0.7112265;0.57262784;-0.69345057;0.1268023;0.31128493;0.7395982;0.30870768;-0.6615285;-2.1618278;-0.17779987;-1.7206533;1.7186238;-2.8178868;1.1533574;0.72041523;1.5244782;-1.9714259;-1.1226543;1.3589069;1.7063363;2.5123422;-0.68453014;0.016526297;1.2938514;0.16847084;-3.6435206;0.5066998;-0.39962503;1.5230194;0.6554983;1.1855773;0.64787805;-0.07095647;0.7520551;-2.3495924;0.6352949;-0.6726253;2.8161447;0.40360776;0.15717514;3.0899096;1.3441693;-0.7043768;1.1116518;-0.19704469;-2.267146;1.3411132;-2.8958292;1.8885703;-1.9215207;0.5940284;-1.5222802;-1.6821122;-0.5572654;-1.7220498;3.1456833;-0.10312027;-1.7871186;-1.3365496;-2.4512196;-1.4015374;1.7077019;-0.12543471;3.973027;-0.0076894243;-0.54177976;-6.081164;0.56564945;0.33189932;2.686998;-2.4427905;0.34568015;-1.8878095;0.8496787;0.31843746;-0.8484539;-0.098150924;-0.92018676;0.5267854;-2.0085378;-0.18747047;4.2587266;1.8283762;2.2954571;2.048307;-0.1186271;-3.4825451;1.2384903;-0.594036;2.4780576;2.881689;0.5614563;-0.34465545;1.2947954;0.3345484;-1.016624;-0.93539476;2.3503141;0.7218968;-2.3692195;3.6587093;-2.3280087;-2.3020163;-0.29588816;0.88456666;0.011929898;1.0281787;-0.0813579;1.2449639;-0.8788145;1.4063095;1.3399544;-1.4064829;-3.0484853;0.5481718;0.59281474;1.7100496;2.518515;0.05251256;-0.6652427;0.32141027;-1.2391155;-0.22981296;-0.6696891;1.110305;-1.2435468;-1.3055449;0.81072176;0.38661078;-0.37261888;0.09237953;2.4956706
0.82858205;1.7654608;0.5324802;0.30778185;-1.0327235;-3.2633693;1.3381871;-0.760612;0.5176314;0.10449151;0.9772578;-2.324892;0.35772327;-0.6355917;1.6718913;-0.6716884;-0.34353694;0.69429576;-1.3344021;-0.5598632;1.3644254;-2.4676442;2.1778522;-1.1612071;0.6673643;-2.115117;0.74035305;-0.97141176;0.10052808;-0.9360185;0.9387902;-0.30552113;-0.0031539116;0.08132464;0.15055804;-1.2330614;-0.046269864;0.4047174;0.40951833;-0.2374299;-0.13184513;-0.19421245;0.18524566;0.40645096;-1.2545918;1.1954817;1.0647442;1.0729345;-4.892831;1.0177401;1.8879237;-0.16836512;-0.697567;-1.206028;2.0428941;-1.7245499;0.02673379;-0.017678156;0.81319165;-0.107648745;-0.22810006;-0.59859073;-0.40952206;-0.12261524;-1.8485216;1.153318;0.6246957;-0.30179757;-4.942992;1.4386277;-0.17490794;-0.5960473;0.17839724;-0.87191206;1.2544473;-5.7233634;-1.0103631;0.7086382;2.557859;1.448659;2.9586494;-0.0062902677;-2.8388302;1.242103;-0.46248758;0.6351995;-2.81076;0.12969816;1.1967137;-1.9062796;-1.2459849;-1.5977348;-0.5228201;-0.6363262;0.31708962;-1.3430489;-1.3091778;-1.2477131;-0.2412008;-0.0019103838;0.29242387;-0.14617752;-0.08171217;-0.27911505;-0.9837534;1.7086117;0.6111752;-0.9843518;-0.012303484;-2.04222;0.46149507;-0.059945095;1.789608;0.07797016;-0.49121946;-1.5563198;-0.01252922;0.59300464;1.0953319;0.47109815;0.20673531;-4.367872;-1.9355704;-0.099032864;2.7886422;1.0560462;1.9184159;0.7334396;3.1828573;-0.83280826;-2.8298137;1.0528647;-0.3718836;-0.82844067;0.096715614;1.0460624;1.4782206;-0.08537492;3.1616244;-0.2747042;-2.1543617;1.0309428;0.303042;-0.036656134;-0.32055724;-2.0677633;0.6130434;0.9935248;-0.8901149;0.3970654;0.46190962;-0.87263197;-1.9757165;-0.44691378;1.6269327;-0.35990226;-2.5595217;-2.02636;2.1196291;0.07182481;-0.72019464;-0.3585783;0.46788886;0.931968;0.093107656;-0.21153611;-0.48079413;2.0912435;-1.3436791;0.12385258;-2.1702669;-0.14219405;0.7120461;-0.37323847;-1.0955544;-2.7401772;-0.8597812;0.39913347;-4.8938165;0.22529624;0.14305739;1.7223295;0.4172664;-7.356169;-5.426032;-1.2361755;1.5602686;1.8274114;2.1300602;-0.6117298;1.5643061;3.9238613;-0.9832407;-0.16241354;-1.4288303;1.6740822;1.061721;-1.535756;-0.7927771;-2.2335567;-0.4030735;-1.8676144;-0.459176;-1.1161513;-1.1473576;-0.010813693;1.4091203;-4.053899;0.1403024;-0.80369157;0.79006803;0.30954614;0.33702844;0.96421015;1.7016972;-0.20341253;-0.40102714;-1.285411;3.479218;0.298856;-1.6467637;0.1233773;3.310837;1.979655;1.109142;-2.6882057;-1.7737826;0.98339415;0.029807365;0.6684839;0.7497193;0.92931956;-1.712256;0.2892997;0.37408212;-0.58610606;-0.97086394;1.1064221;-2.1076462;2.0363796;-0.91239595;0.15922394;-2.4139845;-0.13343371;0.30556917;-1.8091824;0.53185755;0.52239877;0.91045266;0.40409467;-2.5497766;0.61614966;0.9851372;-0.38864663;1.7730901;1.356792;0.98801833;-2.6754284;-0.13360381;0.8061259;-0.28423095;-1.1441228;-0.3258469;-1.1402515;-0.5841009;0.699628;1.5752953;0.917908;-0.02800152;-0.10831789;-2.431119;2.2660863;-0.38328096;-1.401173;0.84196776;-2.3885071;0.55120933;0.52752423;-8.719424;-0.70561045;-0.14951524;-4.20012;0.60151446;0.19842643;0.14187539;-2.9188304;-0.31281617;-0.45791414;-0.9130398;-1.9460834;-0.86110955;0.6581001;0.80153036;0.25075483;1.1126391;-0.2807853;-2.3066685;0.62545455;-2.1368718;1.6476234;0.2455446;-0.5785962;-0.37234983;-1.8963867;-0.71120214;2.353266;-0.20012279;-1.8843892;2.194382;-1.2643732;-0.053067822;2.459275;-0.79586023;0.0690464;0.16400674;0.8570286;-0.87956375;0.41914633;-1.0974118;-0.9534247;-0.37991107;0.50707394;0.7324171;0.32285354;-0.8275751;-0.8302068;0.016885536;1.1443444;2.0101256;1.5897974;0.86530465;1.6924305;0.93343955;1.5445737;0.21581653;0.5946784;-0.80435205;1.463746;-0.9383566;-0.8218079;-1.4438813;-0.22293177;1.565116;-0.75395375;1.6038157;0.15938129;-2.9780905;0.060703125;0.15912904;-0.14425077;1.9252863;1.321263;1.2917138;-1.7874525;1.3550977;-2.0687153;-0.46742353;-1.8665568;-0.6119765;0.67026;2.6438885;2.2039113;0.9334175;-0.1736855;2.0165396;2.2918463;-0.3933171;-0.34507096;3.5094228;-0.12131169;1.6125875;-4.932628;-0.783319;-0.8982677;0.8061566;-0.7237479;3.7513704;-1.5655515;0.022769384;2.9834538;3.216608;3.178292;-1.4689392;2.841556;-0.46205524;1.0130947;-1.0361892;-1.631889;1.1834599;-0.50884324;-0.718164;-1.0215259;1.7971565;0.5945064;-0.035630763;-2.9773722;-2.040445;-2.4193141;0.114318356;0.5341733;-3.152254;-0.7242327;1.0543258;-0.57693815;-1.5383388;0.7495887;-1.5840923;1.4170763;0.6883401;1.4844861;1.9227219;-3.441271;2.078244;-2.728295;-0.041410055;-0.16037808;1.5001061;-2.2563941;0.48477748;1.2631968;0.8650707;0.67693245;0.71237844;-1.3281465;-3.0743964;-0.78910756;-0.15135475;0.13104126;-1.6711895;-0.37641352;-4.2023706;-3.8655899;0.0128476815;1.4097168;-0.7779141;-0.974796;-0.6206937;0.68866104;2.3185692;0.077236444;-0.32368594;-2.967017;-1.819565;1.5128613;0.020967687;1.5626597;0.5626118;-0.9365261;2.285668;-2.221594;0.37962145;-0.7166828;1.1711285;-0.34219968;-0.4216171;1.870956;0.61250657;1.4871885;0.47728482;0.74168473;0.85837036;0.36338955;0.6029155;2.6162524;-0.7558309;-1.8844485;0.58152574;-2.0594835;1.8598293;-2.5794225;0.80818504;1.5880322;-1.1078756;0.115781926;0.8394564;2.5820913;0.4415282;-0.7008807;-2.9064548;0.10903469;0.52258515;0.20068264;0.9738774;-1.0983813;1.6891025;-0.03791103;0.40713966;1.362965;-0.8210886;-2.279102;-0.5850525;-1.3430941;-2.6420064;-1.0098239;0.6954917;-0.6941745;2.1221292;-1.9521395;-1.2097489;1.2463621;-1.0978937;-2.0308108;-1.4950794;0.9218771;0.18557161;0.46097896;-0.20353036;0.2522918;0.017502233;-0.8262193;-4.531967;-0.57964337;0.64460677;-1.6972497;-0.25088188;-0.41123846;0.5030543;-0.1984257;0.07756626;0.5178591;-0.11760891;-0.2618246;-0.05584914;-0.31515706;0.7760535;1.185152;1.4527291;1.7810651;-0.38130653;-3.699949;0.7386715;0.17899947;-0.15924096;0.19563237;-0.6414417;-0.9287517;0.92552215;0.71977913;-1.035021;-1.7501916;-1.2694743;0.8438996;-3.6277647;-0.16705759;1.4155703;1.3502262;-0.11894208;-3.4424148;1.3726282;-1.5617727;0.27800396;-0.19677454;2.6984642;-1.5793487;1.70477;1.410511;-0.749991;0.89018595;-1.5199891;-1.5898348;2.2967231;0.4144489;-2.1586924;-1.0683836;0.4133984;-2.2049818;0.39170408;-0.97369075;1.7337596;0.6063882;1.0955625;0.43323383;0.34489647;0.5818647;0.5803986;3.2001705
2.6154888;2.1807904;0.286461;0.45206368;0.42196023;-2.3478072;0.5098578;1.2821877;0.60848933;1.5111285;0.9481395;-3.437545;0.022917656;1.1742923;-1.5451181;-1.1483253;-1.8317071;-0.021689711;-1.2605699;1.2959647;0.56007075;-1.8409184;-1.131238;0.5486164;2.0962822;1.144932;0.48160988;0.05907239;1.8262905;0.6431291;0.6189886;0.19680046;0.015102013;0.17321855;0.90455043;-0.40538675;-2.105433;0.38665217;2.529909;-0.38532543;-0.25247592;0.44750044;-1.024654;0.9554106;0.7770445;0.32692853;-1.0519255;2.2065194;4.7587943;1.3186786;3.2229033;-1.1273117;-2.930142;0.2880066;-1.2322575;-0.8715308;1.3656472;0.011612501;-0.309446;0.16014971;0.6682072;0.89558864;1.4976425;-3.205125;-0.7858745;0.35535806;1.8440906;-0.46796003;-1.6432152;-0.32655898;0.8430403;-1.6976887;1.1721963;-0.7027896;0.11157305;-0.27079666;-1.7347478;0.9482702;1.6576102;-2.9304926;2.1952126;-1.3706814;1.2274603;0.75641406;0.17841117;-1.0856208;-1.9972131;-0.50012225;1.2598479;-2.027417;0.027414698;-2.3798785;-0.3295396;-1.5537342;3.7277715;3.2955587;0.25858507;-1.173194;0.9991989;0.59798354;-1.4774617;0.6720598;2.535688;-0.9687904;-2.2939289;-1.283752;-0.44405624;-1.8137927;-1.0307667;-1.6892858;2.200672;-1.3868846;0.2520129;1.1021019;-0.14529456;-2.824436;-0.2839461;-3.3867605;-0.033040196;0.4353553;0.302383;1.151851;-0.909479;0.023185354;-0.54840183;0.8211501;-1.4940317;1.8422365;0.48717067;1.3997531;0.6602773;1.7872094;-1.8347416;0.93843967;1.2531824;-0.6854559;0.38340765;1.1496519;3.6951945;-1.7033956;1.6187881;0.12932378;-2.6304667;-2.1765172;-1.4997157;-2.7178361;-1.0906546;2.3330636;-0.5985718;0.24586926;2.6909556;0.7825562;-2.6868033;-0.31343853;-0.42138818;-0.40240425;1.5790967;-0.4741057;1.0967377;0.08710679;0.112212464;-1.582077;-1.8366206;0.20222402;-0.16554089;2.4848862;1.0729662;1.0522771;0.44883254;-3.6883607;-1.8347956;-0.93146884;-0.14121282;-0.3422118;1.3268144;-1.9083155;1.0832434;2.052995;-3.8265934;0.94666636;1.7706261;0.94894975;-0.14435115;-2.8606718;-2.922472;0.35459027;-1.8576248;0.29467;0.72792166;0.088061854;0.9588484;-0.41001555;1.0320383;1.9866482;2.0485759;4.1912866;0.92469966;-1.2936412;0.49004415;-4.559158;2.0300279;0.5098437;-1.3958943;-0.12596169;-0.105190374;0.2499519;-1.8383548;-1.3165649;-0.18038169;0.9087923;-1.5282803;0.022573056;1.9442893;0.19820009;1.5380372;-0.34295473;-2.6772394;-0.6307554;-0.6485842;1.3372325;2.203901;-0.10528952;0.55818564;-0.8187132;-0.9037639;-1.6141248;-2.9368017;0.33843607;2.044185;0.28232852;-3.2405968;-1.72307;-2.2900994;-0.37790775;0.27035284;2.39251;-0.30755594;1.9394141;-0.9059317;3.1892846;-0.56200224;2.8313346;-0.86237985;0.54881066;-0.5305622;-2.284436;1.5803595;1.8123441;3.0139146;3.75622;-3.7836723;-1.4021281;-0.29429227;0.99866986;3.1427698;1.1330332;0.44330078;-0.12950747;2.07142;0.23496369;1.0824856;0.38152832;0.82272923;0.6527333;0.6395666;-1.4351785;-0.65275097;-0.09563776;0.4447372;-0.6182376;1.787052;1.080981;-0.44533414;-1.1918415;-0.70985365;-1.7193416;-0.42101735;-2.5519087;-1.8171073;1.065974;-0.93765646;-2.3328261;-0.3391765;1.3820009;0.90164506;-0.50972563;-0.86942005;0.8377334;-4.658715;1.9015629;0.30511534;-2.0258443;0.8760843;0.7036641;1.847844;0.92215294;1.368563;0.5826827;-0.5422415;-0.6316719;0.6532225;1.5290438;-0.31730768;-0.73399687;-1.2396977;0.11721469;-0.32902133;-0.087131664;1.5483667;-1.0653013;1.0698771;2.3361316;-0.6645202;-3.0766618;-0.15158772;-0.20764376;0.1277702;0.47748825;1.6132941;1.1266993;-1.8165563;1.6095386;-0.012290994;0.09418517;-0.48409495;0.14914668;0.31416968;-1.624328;0.73521674;0.9644392;1.3519866;0.6073992;0.5941797;0.16420107;-0.38342118;3.633802;-0.9159005;2.5339804;-1.1854433;-0.21751377;-0.9305857;0.973199;-1.2891589;-0.78049;0.29978338;1.2846417;-1.0556866;0.827399;0.1955037;1.1174122;-0.6857313;0.1834226;-2.8671544;-0.33704564;0.9649596;0.06401504;0.72579783;-1.9202548;-1.0273558;2.1106844;3.0869777;-0.46980318;0.42512056;-0.6290015;1.5236713;0.7005388;-2.1735168;-2.6874826;-2.2049358;-0.39219764;1.2260059;-2.082485;0.35934857;-1.9597071;-0.73392105;-0.5441845;0.11488795;-2.8250566;0.8875207;1.32353;0.5935262;1.5226027;0.38355196;0.89817286;0.6634068;-0.51679236;0.86660033;0.55025846;0.8521799;2.0821772;0.46413228;0.68886346;1.3533863;-0.6534061;2.2252798;-2.165533;0.7279976;-2.2791312;1.8168079;0.9649674;1.4991658;1.1808742;0.74913913;0.3934116;2.8581665;1.1641163;0.34885237;0.4096107;1.0737237;1.4122866;-0.17234108;-2.9640281;-0.9421358;-0.22934513;-0.32959223;0.16760696;-0.5317086;1.8331708;0.9119156;-0.5570508;-2.3977957;1.0932628;0.22573106;-0.784958;-1.7162521;-1.1356887;-0.3261612;-0.73154956;-1.0256542;2.1603694;-0.37461796;-2.498384;1.9160306;0.11316708;0.63682467;-0.9371103;-1.3597672;-0.8378407;0.011792177;2.329422;-2.2568169;-4.015853;2.5262458;-1.7293983;-1.7183414;0.6197751;-0.39253274;0.6509045;-0.2614084;-1.0063589;0.013975291;0.45821545;-1.2311546;2.0605457;1.9746786;3.2002902;0.12226557;0.45011988;0.3494463;2.708451;0.16642556;0.6088037;-0.3030514;-1.6033394;-1.5370834;-1.3338667;-0.020549947;-0.60661584;-0.33276936;-3.4424655;1.2697046;-0.12979919;-1.6663516;-0.11021688;1.7460152;-1.0374686;-1.2141242;2.0159903;-1.2678227;-0.217548;-3.3848917;-0.859873;-1.8297716;-2.022395;2.3762057;2.2351074;0.44331247;1.4221331;1.8797987;1.3308802;0.20732686;-4.2174253;-3.7013404;1.0642941;0.57076454;1.4857734;0.24383266;1.7040757;1.179333;1.296553;0.2649051;-0.35901043;-2.6145406;-1.8774217;2.2051606;0.5486083;0.8035153;1.340821;0.3349733;0.107275225;-0.94432616;0.00043032892;-0.14876255;-0.5654822;2.2598927;-0.15659271;0.16621661;2.5905523;-1.0863546;-1.8623927;0.39325276;-2.073787;0.6157188;0.04715335;-0.12849891;1.6348289;2.0952234;0.9848396;0.1725364;-0.06280441;-0.18653017;0.31142056;-0.34785518;-1.6107426;-0.26988223;-0.5070979;0.36257273;-0.87727505;-0.5143837;1.0835769;1.9873501;0.21058948;-1.5576266;-0.6630553;1.413758;-0.82739425;-0.7941506;-0.08359632;0.38995257;0.8776349;-0.37072015;-1.2040228;-2.8910558;-0.44223818;-0.89857507;-3.2919376;5.2646756;1.8773247;0.31770864;-2.0782256;2.8946414;0.54962045;-3.781742;-1.1364716;1.0516073;-1.6072398;1.4862213;-0.35331076;2.5183308;-1.4306805;2.3617694;-0.65035474;1.5614942;-0.8865295;0.0546626;1.1214732
0.42174825;0.83022493;-0.43546778;0.14980792;2.1879532;0.8288264;0.033803545;0.26508588;1.0433995;0.53475976;1.1226987;-3.2322073;1.0259882;-1.3868074;-1.3031057;1.124232;-0.41862276;0.5947441;-4.0982323;-1.3123488;0.10428747;-0.5135182;1.4631907;0.92630523;2.5668685;1.5855854;1.6503122;3.3019109;1.0809822;0.30721155;0.777662;-1.1885176;-0.11102016;-0.24275993;-1.5763543;2.2214012;-0.81846297;-0.050801754;1.1741481;1.3950635;1.5757436;1.523468;-3.081399;-0.59272027;-1.0260334;1.0426224;0.35077733;4.8030334;-0.875602;-0.5541095;-0.70992756;-2.9325066;0.06644937;0.3795329;-3.5455847;3.1711328;0.17939958;-0.5584013;1.3280519;0.1612541;2.8063333;-0.6692592;-2.6274457;-3.9937084;-2.7450862;-1.4849871;-0.7267265;-2.2574022;0.055602282;-3.0062985;0.052292313;-0.7169795;2.499863;0.531943;2.718853;2.2545927;0.99663687;-0.3498613;-0.8906038;-0.94291687;0.5809934;0.5844755;-0.325324;1.4309123;-2.494162;2.0091178;-1.2938949;0.38971406;2.298837;-1.9298095;-0.6205537;-0.5203775;-0.76039237;1.2046403;-0.7256514;1.9023303;-2.079516;3.0904098;1.9543729;0.98923033;-2.531919;-1.4567456;0.40952447;-3.0414338;-1.8377512;-1.9980172;0.9875119;-0.11951567;0.9947722;2.680288;2.0522935;-1.249703;-0.11555192;-0.016745225;2.2435114;-2.2773128;0.19681896;-2.4304392;2.2989604;-1.759547;-0.9859034;0.124965146;-5.6865206;0.07874401;0.35016936;-0.81504196;-3.587001;2.0504234;-0.43975958;0.23851345;1.437556;0.37674442;0.6062912;0.33514515;-0.74809474;0.1946607;-1.1044755;-0.60946274;2.9422967;-5.0573564;0.7997477;1.0447773;1.4800057;1.2182857;-0.240299;-0.21975577;-2.3386738;-0.93049693;-5.9148536;-1.3772231;-1.1456232;-1.7997535;0.8755228;1.7208872;-1.6174728;1.7824702;1.2512639;-1.7821591;1.1746945;-0.2938218;0.09909056;0.27644214;-1.207227;-1.1207063;0.8567983;1.2066021;-0.3582055;0.44107386;-0.7677496;-0.8414359;-0.22046016;0.37575004;-0.7727743;-1.3990612;0.21077673;-1.736058;2.228188;1.885641;-6.2506146;-1.2866979;0.44837454;0.900082;-2.6915073;-5.922748;-3.099079;-1.3689547;1.8935672;0.70658344;3.1526616;-0.29409108;4.225539;3.2865813;0.81311053;-1.3360273;1.3452923;2.3280296;-0.58357483;0.360594;0.47209212;-7.812799;0.011271676;-1.6063131;-6.3016148;-0.28178093;-1.1952902;0.031492334;-1.0637022;0.5106017;-1.7244607;2.3026516;0.4535429;-1.1590434;2.059801;-0.015998825;2.0138862;0.49166152;-2.3869684;-0.8859456;1.5387341;0.60878664;-1.2806998;-0.028077029;3.013225;-1.9797745;1.210458;2.813643;4.4314675;2.044342;0.05946675;0.94448245;2.8877678;-0.16703911;-0.6617466;-0.7292743;4.5290484;0.9278876;0.76608855;-0.1891472;-1.3038437;3.337498;-0.6194431;0.014770552;1.9829676;-1.6134766;-1.7002755;-0.5293484;-1.613804;0.64228773;1.7689408;2.6599977;-2.5415177;0.8098109;1.1926308;0.429221;0.652631;-0.023678955;1.2655525;2.3272002;0.9402784;-0.8466144;0.85055274;-0.5170969;2.3912153;0.8055495;2.4588869;-0.35910797;0.98392326;-3.4202492;1.95495;-0.2693807;-1.7354805;1.4288886;-0.08647649;-0.4158704;0.74030507;0.6831372;-0.25872487;-2.8901973;1.7728262;1.2538865;-1.2589811;-0.3904452;0.96196246;2.3440552;-0.68644804;0.13784294;-0.6764545;-0.70170325;-4.5129824;1.827163;-1.6167271;-6.8547783;1.1462996;2.2134113;3.1573515;1.4385456;2.003463;2.0425441;-0.051155902;-0.64852947;0.22765446;-0.7588601;0.57287335;0.24578969;-1.207301;1.8752126;1.956191;-2.7310865;1.5580025;0.6760976;2.556486;-0.981877;0.09323418;2.603503;0.40984753;-0.8295385;0.26534387;1.3734378;0.69374436;-1.378923;-0.14945462;2.5289924;1.6955323;0.03220132;-0.30317476;2.3299198;-1.8422203;0.38589802;5.24582;0.34158975;0.33853227;-1.5277568;0.80893695;-0.406043;-1.1383947;2.9969714;0.02259358;1.1221675;2.1133025;-0.69183725;-1.721232;-0.038711175;-3.732493;-0.19651407;0.19254501;-0.769249;1.3049972;1.2096255;0.16898957;0.68517303;-0.367692;2.9104645;-4.173796;0.46335182;-1.6250807;-1.2983643;0.5954655;2.460205;-0.3048261;0.5277174;1.4880906;-2.0163124;1.8323355;2.5008485;-0.1367408;-0.4066773;1.3194106;-1.3218473;-2.2975771;-0.86167336;-1.0885152;0.85163647;-1.6785644;1.2774273;-1.1618155;-1.718177;-2.5832813;-3.8558648;0.27231708;2.1107213;1.4429716;1.6172305;0.4144193;0.26358637;0.6186764;-2.6001136;1.9809103;-1.2089907;1.0463748;1.4743096;1.8625461;-2.5158021;3.2527645;-0.17339914;-1.4225003;-5.0923977;0.5450804;-4.217805;-2.0119793;-1.1087364;-1.3240217;-3.2417772;0.6221697;2.3301914;-1.1784004;1.194954;-0.22462912;1.4655814;0.6141413;1.4970578;-0.48659778;-1.738927;-0.100829445;0.14898863;-1.912887;2.401907;0.14995855;-1.0299448;-0.5483014;-0.14436187;-0.72970533;1.6937314;1.0146725;0.0613727;-1.5786335;0.47492686;-3.5735471;-1.7710341;-2.8605366;0.20827733;0.59581274;-1.0532905;-1.1575735;0.35008624;-0.9614731;2.0667813;0.57606506;1.8790141;-3.8511622;0.565024;0.34745422;0.12265499;1.1568952;-0.3722795;0.38224575;0.25272736;1.1375375;0.2470028;-0.8687819;-2.2704415;0.4869857;-0.70735955;-1.3904779;3.807693;1.7207772;1.5575991;-1.0659318;1.219498;0.5809523;0.5051087;-2.0925844;-0.6553189;1.3588438;1.8191241;0.6159163;-1.6765387;0.14699067;-1.8204949;-1.2221748;-3.0376353;1.168984;0.9068473;0.28473163;-0.377965;1.6037312;0.8297364;1.3702462;-4.8311706;0.6328309;-0.96786773;-0.6435732;3.0961432;-1.8083663;0.8388807;0.79255587;3.5903256;-1.1754892;-0.9147055;2.091457;1.8992356;1.0908464;0.9817522;-1.9230418;0.08218726;0.54436326;1.5825366;-1.3516059;-0.50705737;2.0706296;0.7905627;-0.8299847;-0.8304116;-1.3482575;2.6748247;-0.8306215;-0.83034813;3.0488987;-0.3396386;-3.3696456;0.17271936;-1.0547936;-0.4171256;0.513991;1.8877381;1.9074411;0.46590516;-1.0702057;0.07257792;-1.0011294;-0.13182595;-0.38687587;1.852879;-0.14616224;-1.6782113;0.21423961;-0.104994036;2.7358046;1.5498227;-1.854247;-4.8831816;0.23023587;-0.100386634;-1.285242;0.6796706;-0.041287757;0.68020767;-0.7335981;-0.43734467;1.1593603;1.020959;1.4412476;3.4483411;-4.3737826;-2.5493913;-0.7208312;-0.6382915;0.28953996;0.05109403;0.7378012;-0.29964894;-1.826603;0.19985743;2.7520974;-1.4283186;0.06621431;-4.814097;-0.6220027;0.58513635;1.7862988;-3.779718;1.1642618;0.37968457;-2.7888615;0.06460893;1.0377842;-0.82370555;1.3703061;-0.17003529;0.8903704;-0.84125453;1.3624027;1.3559967;-0.48583555;1.5044379;0.68818396;0.039134882
0.4065275;-0.44501075;1.2164776;2.2524045;-1.6269352;-0.49379542;0.40402338;-1.8040589;-0.97241205;-0.79219806;0.8771048;-0.0011649985;0.79283905;0.09746628;-2.1823137;0.17459802;-0.66820663;0.6703897;-2.6703672;3.3167999;1.233248;0.16342176;-0.78061545;-1.161606;3.7397268;-1.2378545;0.91211385;1.8889418;-1.7018205;0.44008628;5.054167;-0.8679854;-0.08959664;-2.7048168;0.007627733;-1.8872559;-0.9183986;-0.75867784;-0.16545713;-0.7881375;-1.6001437;1.2479291;0.28905997;-1.4353994;0.67910534;2.104255;-0.49249184;-1.9523071;-2.5908813;1.8698128;-0.2749766;0.33720508;3.8275752;-1.2323911;-0.7297414;0.64460146;-0.14986749;1.8275033;-0.7305468;0.038417794;-0.5800403;-0.21501172;3.6577196;-2.2030096;-0.32642692;2.8881485;0.48769295;0.7611769;0.29231527;-0.21406683;0.3249593;0.5274527;0.4924034;-0.18806249;-0.5984347;-4.3719616;-0.71498984;0.5363312;-3.5552275;2.4188488;0.3782935;1.9665995;-1.3821148;1.9543418;2.5496423;0.075201266;-1.0223545;3.3509011;2.3094885;2.460046;-1.2157137;-0.5256209;-0.14683951;-0.5301;1.723859;1.0017239;-0.67774767;0.20030358;0.2853595;1.2290133;1.3564211;0.8996942;-1.4170096;-0.064138316;2.3596513;0.7138255;0.08919141;0.2794805;-0.16675235;0.050993297;0.48108917;-0.021571957;1.9965936;-2.2504995;-0.08434266;-2.0930018;-0.18163843;2.4159672;0.38232484;-2.87577;-1.2084967;0.9536672;-0.67052907;-0.033782136;-1.166991;-0.4211836;-0.5711718;0.8963926;0.735803;2.7555778;-1.0621039;-0.4829946;1.7806108;2.1524546;-0.605792;-1.7924666;-3.9605474;-0.29089335;-0.027448837;-1.4632989;3.4787285;1.5494359;-0.120064825;1.558301;-1.2843393;-1.0253994;2.683971;1.885519;-2.5820484;0.5981232;2.4995458;1.6825348;2.7553196;-0.15936844;2.2163856;2.1231227;-1.7107662;0.67367864;1.0789444;0.4213076;-0.38500983;-0.7304519;-0.55124736;-2.112109;-0.13609824;0.7405654;0.6565084;-0.5445453;1.4063499;-1.6561768;-0.39950332;0.71519536;0.5116491;-2.922518;0.20044531;-5.027827;-0.5029893;0.078057155;-3.894523;0.12502286;1.3669093;3.5015922;-0.38875648;-0.37654138;-3.1094394;-0.66752696;-0.8890686;0.681979;-2.7018495;1.593683;-0.06086478;3.7322688;-2.8713465;0.026995568;0.09204046;0.76945376;-0.84116745;1.8661972;-0.6171758;-2.6654737;1.0478114;0.5821392;1.4400405;-0.60095453;-4.010781;0.8720277;-1.8711567;-0.25962386;1.7538905;0.6434483;1.0487027;-1.1790657;-0.64848036;-1.0138566;2.8082273;-0.8094243;-0.91247773;-0.36607003;2.214622;-0.36720443;-0.8418697;1.205244;-0.9804128;0.21039607;1.644594;-0.9660863;-0.66696066;3.5305436;-1.1463469;0.92267585;-0.031742193;-0.5186839;-0.8638092;-1.5295988;0.6789316;1.1494619;0.7621245;-0.9782492;-3.691462;0.72866297;-0.5723167;1.2502552;-1.1447427;-1.5475371;0.54227525;-1.6619636;-2.0415013;-0.0055278447;-0.28143322;1.3635842;-0.057067234;0.8519969;0.21584019;0.5370512;1.6944091;-0.61572814;0.36818475;1.3796648;-1.2664162;-2.0092995;1.307827;1.4223258;0.43892136;1.794704;1.5069735;-2.796108;0.22722465;-1.2307345;-1.7940239;-0.7769667;-1.027194;-0.8078819;-0.94398606;-0.24708061;3.3167036;-1.3677126;-0.8988311;-0.5973822;1.0209619;-1.027863;0.6168265;-1.4655105;0.69522965;-0.21457164;-2.153768;-3.1971884;0.030270396;-1.222238;0.42942294;1.5184227;-2.0000002;-4.3215694;-0.2824992;0.6793869;-0.4774063;0.49667892;1.1222962;0.28436416;-1.3084093;0.42240286;0.15868904;1.6584677;-1.0993638;-1.148422;3.5773036;0.32498246;-1.0072395;-2.685412;2.2796428;-0.7176856;-2.7601829;-2.8011236;-0.75698197;2.0777423;-0.3350955;-0.6538701;-3.7749007;-0.5453996;2.2894175;1.1939795;2.298008;1.6938044;0.19143574;-0.73686224;-3.8870924;-0.67864186;1.1111115;-1.5519675;-3.6270401;2.1007264;0.55857915;1.7465227;-0.09223097;-1.9192855;0.5222698;1.0170629;-0.64524376;3.1121159;0.35401225;-0.036609802;0.37337163;0.41336578;-2.4500532;0.7189983;-0.49832323;-2.4862835;0.49536338;0.6110074;1.1471691;0.50727797;1.7935123;1.9463207;-0.085584134;-0.6576453;-2.1234703;1.8993219;2.8640862;-1.3688768;-1.0238718;-0.2396067;-1.2119213;0.93128014;0.6187935;0.22925061;0.96764374;0.6704322;-0.367419;0.14426191;2.5917997;-1.3511641;0.09354333;-1.2906573;-3.9522717;0.03677391;-3.2631724;-5.607389;-2.7087846;-1.1998425;-4.2504764;2.1865976;1.0363858;3.35664;-1.2196869;1.9156147;0.010356115;0.3276155;1.1194755;-0.14569256;1.3668392;-1.0482154;1.4357599;-1.3409117;-0.2571455;-0.98311555;0.88857585;0.5130404;0.1718001;-2.9967551;-2.026587;-0.8928451;0.2953536;-1.3060486;2.618373;0.443022;1.7998303;-2.2375553;0.27760544;-0.33214054;1.226651;-2.090469;1.4575537;-0.5263743;2.8662593;2.9767337;-0.6535795;0.27027556;0.65680325;1.6494299;1.718237;1.2663115;2.8303075;2.4816556;3.8266034;-0.70232785;1.0162048;-0.96723914;-0.7618528;-0.7538247;-1.302353;-1.4389102;-2.4314394;-0.7981586;1.8210275;1.5380439;-1.9143752;-2.3154583;2.5925813;1.6394359;-1.9417586;-1.026383;-1.5157665;0.8765522;0.10718171;0.43687725;-0.4633417;-1.0003169;0.541918;0.75485444;-2.397815;-1.804471;-0.7404889;2.027973;-2.4483705;0.26020965;2.3432395;0.060166623;-1.9315379;2.9812856;0.406792;-3.4649985;1.3758472;3.1411898;1.7356855;4.27203;1.0207876;-1.5516877;-0.2417231;0.6901713;-2.3221228;1.4104267;0.40547207;-2.7599118;1.8165828;-0.5405487;2.072324;0.91227025;2.0882711;-0.19685683;-0.027460018;-1.0684814;2.2705464;-0.8237294;-0.96615463;1.3883159;-0.8951172;0.8532631;-1.1141181;-0.80682725;0.3892003;4.371147;0.46193475;2.413134;-0.294749;-0.79361826;-0.17335828;-1.1815344;-1.1776035;-1.5243335;0.3667549;1.0401129;-1.7970282;0.38643196;-2.5088196;-0.24950628;0.26885027;0.2220908;-0.54711014;-0.9650102;-2.4720066;2.5147095;0.84453285;0.11465891;0.5809997;-2.4434478;3.1432068;1.6034322;-0.24241714;2.967092;-1.361162;-2.4719968;-1.3700056;0.931667;1.4625243;1.3362457;-2.4066935;-0.15275237;-0.80703986;0.7526992;1.0831914;0.7297774;-0.842405;0.7985456;-2.420694;-1.2029434;1.3132735;1.6724297;1.4858046;0.38700876;1.1489543;0.88058066;-0.12453148;-1.2639251;-6.278842;-0.07763711;0.41663998;0.9231464;-1.1851472;1.4694306;0.87169576;0.23911992;0.8273629;-0.80926603;0.22976078;-1.8463686;0.80636936;-3.0571895;-1.2123088;1.08379;1.0090508;-0.91430086;0.17877428;2.983855;-1.3974075;-0.84092647;1.4100504;2.5256186;0.8284371;-0.5626752;0.3204125;-0.1976136;-0.285294;-1.4891133;0.95441777;1.989167;-0.88981825;0.60404813
0.7946988;-0.83972067;1.038522;-0.50262684;-1.5884253;-0.21948315;1.1300527;1.6431612;0.2058669;0.18469137;-2.8872094;-0.1747874;1.3213124;0.41425753;-0.17316934;0.4562783;-3.267056;-1.0813198;-3.469413;-0.43497854;2.4225736;-0.9751073;-1.280222;0.41618964;0.57390493;-2.4891684;-1.4789674;3.0401695;-0.79497826;1.2585847;-0.23632073;-0.25074178;-0.3762839;-3.2839751;0.0067302594;-1.0808318;3.080203;-0.076426305;-0.98402625;-0.029866593;-0.43273318;0.6585255;1.0053174;1.2590884;-0.07985888;-0.5017491;-0.660883;1.434707;-1.3506256;0.054136578;3.1088984;-1.3691112;2.0930848;-2.6802428;1.6032879;1.4501374;4.1575766;-0.561729;-0.60370916;-0.9471259;2.1888194;-0.50661856;-0.58067966;-3.3559623;-0.53696823;-0.040749453;0.80732346;-0.3085904;-0.2749761;-0.5692541;3.8162203;0.6577335;-0.43169236;-0.6951872;1.6017145;1.9468564;1.8949643;0.8471941;2.9623826;1.5874414;0.7328381;1.382001;-2.242845;0.05587952;0.047381975;-0.013959916;-0.49421543;0.29807627;3.73015;1.0140799;1.322492;0.8740422;-0.35969776;2.2893748;0.23976588;-1.9519784;0.13154858;0.7134229;-0.28001863;0.20671079;2.0213149;1.6399077;-0.49810705;-1.2705935;-1.5720543;2.0339208;0.5608698;-1.5089432;-2.725706;0.48482335;1.4989965;1.0869046;-0.12131546;-1.7369907;1.3178381;-2.0060503;0.026634857;-0.46480283;1.6760422;-0.3794258;-1.4399488;0.31539756;-2.343081;0.15552779;-0.8174817;-1.7540394;3.4505324;2.4888346;-0.008042079;2.027219;-2.575035;0.14824192;1.5663754;2.7593071;-2.6047108;4.0031304;-2.6039689;0.88301414;-1.6956458;-3.7120647;1.16563;5.231873;2.593823;-3.105615;1.366728;-2.2099726;2.6138854;2.8470182;-1.6904603;-0.6575033;-0.45524576;0.86859363;2.0288932;2.967595;0.9265406;-2.7651303;1.2442461;0.48886475;-2.1596768;0.9955994;-0.16834949;-1.8506231;1.3349972;-1.2081176;-0.044928104;-1.9137409;0.1296404;0.88581663;1.6400349;0.62512827;-1.7862734;1.0467079;0.79535687;2.853203;-1.4520036;-1.4441744;-1.6544982;1.327278;-1.4874681;0.31325665;-1.1600425;1.9770353;-2.9814048;0.4507607;0.55048347;0.7730882;0.5199613;0.09199751;-3.5538;-1.8761224;-1.8500335;4.347495;-1.1593226;-2.5938156;1.4622308;-1.4508864;-1.2632499;1.9832555;0.83261395;-4.312575;2.5582018;2.5062873;-2.083462;2.0503607;-1.1442771;0.7623387;-2.433548;0.47777984;-1.7301823;0.96542746;-1.9766777;0.26978582;1.1189439;0.1608754;1.4894433;-0.21343946;-0.99288714;-1.9712986;3.0962992;-2.7763703;1.9428871;1.2553976;-0.37322235;-2.7893646;-0.50948787;1.3744915;-2.110869;-0.7913151;0.67097664;3.1852918;-1.9698012;1.8293774;-0.50721425;-0.12692472;4.082397;2.09515;-2.356199;0.30390403;0.62604445;0.91590893;-2.5068758;-0.82957983;-0.25698018;0.8185313;0.4176956;-0.7960518;1.092618;3.3009207;-0.43735775;2.180673;-1.5553645;0.34961662;2.3346174;1.37228;-0.9874511;-0.947492;-5.128828;-0.48598614;-1.9221419;2.7546988;1.9078928;0.71616757;1.0530746;2.1615193;0.50403076;-0.9068307;-2.5795808;-1.8646923;-1.0849394;0.084805265;0.92582536;1.3112322;0.090001576;-0.61853176;-0.4843712;0.81346786;-0.15934299;-2.5328195;3.1972914;-1.482876;0.2413025;-0.9907712;0.6469664;-0.33527106;-0.26378778;-2.6822011;0.045527823;-0.33143777;-0.6106994;2.1415346;-0.8503242;0.1537064;-0.44874033;1.609247;0.35210317;0.37640923;0.038139436;-0.9454868;-3.3281207;-0.07923489;0.7077677;1.3090523;-0.65752196;-0.6450454;-0.7210331;-0.46373826;2.375095;2.318786;0.2636957;-0.46574447;0.9274537;1.2372423;-1.4940908;-0.19365253;0.25098035;0.49198452;0.13450244;0.22921756;1.7302313;3.9077868;2.1091495;1.5375764;0.04366588;-0.65554285;0.9521172;1.8243254;0.094505236;-1.3838313;-4.3292084;1.8611332;-0.1960132;0.4736124;-2.1381428;1.5293874;-3.8100488;0.98150325;0.27162817;2.422741;-1.7364366;2.774416;1.8823441;-1.4036826;2.645649;0.09556022;-1.4777472;-0.09582401;-2.8391466;1.0530207;-0.6917933;-1.307872;0.82197064;-0.29249543;0.7897642;0.8616332;1.5978173;1.5936241;0.6887058;-1.7256395;-1.5990881;2.2022004;-3.8610857;-0.5854894;-0.095166735;0.6624851;-0.094538674;-0.6246645;-2.726853;-2.0978465;2.0967903;-0.96657497;1.3855351;-1.8987415;0.2676345;-0.1262158;-0.4153677;1.3681741;0.8383117;-5.1470656;0.28158104;0.86211455;-0.5154688;1.1667818;-0.23056959;2.8517885;-0.5381431;-0.25617418;2.2842295;-0.2697106;-1.6098523;0.56406075;1.4586877;-0.94971937;1.0232059;0.87786573;0.036363613;0.3616804;-1.3223097;-4.97896;0.5451331;-0.99740875;-2.8077598;0.7230224;0.52063006;0.47764674;1.908495;-0.39302495;-0.25330216;1.3627125;-0.38515124;-1.4238006;-1.0510848;1.7495835;1.5242463;-1.4883884;0.0938605;-0.6272776;-1.4810292;-0.8529272;-0.24033748;1.0015792;0.73981845;2.9947422;-1.1961715;-0.6529148;0.051875092;1.6441143;-0.4649527;-0.6494462;-0.69447577;1.1425183;-4.6419725;-0.8332097;1.3168776;-0.93917173;3.076354;0.9371646;-1.0466704;-2.6337402;-1.8798789;-2.5399337;-1.0403354;-0.15788427;-2.005097;-0.74386203;0.064593755;-0.18670358;-0.2339644;0.6194747;0.49735516;-1.2268487;-0.83749807;-2.096058;-2.306971;-4.4121504;2.7808816;3.6386206;-2.5468688;1.0225085;0.0032068251;-1.0364722;0.48139042;-1.8231252;1.5908039;-0.19910431;-3.0892966;-2.0580804;-0.59064335;-1.7671163;-2.9452302;0.80920464;1.4250433;-1.1178617;-3.2184205;1.0309534;2.313936;-2.3462293;1.4606618;-1.0347574;4.2072105;-1.8663442;-0.25157422;-1.3158497;-0.019315833;-2.4896317;-0.011693202;2.9978044;0.37077084;0.39759585;0.8425045;0.031060306;1.8496572;1.275422;1.6775262;-0.8589117;-0.23855527;-1.0946192;0.6335495;-1.7051407;-0.70221865;-1.3132917;-1.0477769;-0.5083937;-3.5918326;3.388594;0.1011323;1.4499534;1.5285802;1.8262541;-4.716215;-1.0105278;-0.9401282;-0.56748784;-1.0020638;2.5746794;2.0110672;0.6177722;-1.6929053;0.31695905;-1.2010055;1.1895078;-0.70012265;0.08622773;-0.55580086;-2.1818907;-2.3769112;0.94919324;0.13725156;3.146077;2.1631777;-3.7165432;-3.2836666;-0.62714463;-1.345944;3.8425367;-2.1633327;-1.2386761;2.0519993;4.3815575;2.4542844;0.9600949;0.76908356;-1.5951724;0.12337741;-1.1246756;-2.8604925;-2.2957113;-0.5375455;2.2642434;-0.23730966;0.097110465;-0.84029585;-0.4539189;-0.059207886;-0.5939837;-2.0421946;0.07310494;2.0000796;-0.34481946;0.5275568;-1.6543809;-0.028706208;1.9111046;-2.6485324;-1.70858;0.8246292;1.2500991;0.44434258;0.09277063;1.0482949;0.53459215;2.3353705;-1.6950238;1.8411249;-0.2987374;1.0221846;1.6754478
0.7924427;1.0277393;0.9571895;-1.5682976;-0.10857672;-0.32412297;0.431305;1.0016757;1.2867326;-0.8398078;1.0034257;-1.1105413;-0.2187196;-1.0436329;3.0984135;-0.11539966;-2.5518188;2.5793452;-1.0968856;-0.34302652;3.2976964;-2.5031898;-1.8136405;-1.577792;2.2746403;-1.8783448;0.5783701;1.9024812;-0.6449485;2.2854044;0.119961396;-0.42648998;0.1912323;-0.86346185;1.6276659;-0.5313753;2.7530725;0.72628665;-0.0886558;0.098404974;-0.37218055;0.7789933;0.48898003;-1.6376301;-0.5251629;0.46573937;-1.9203848;0.78387606;0.59975076;-1.245062;1.4861325;0.93081945;3.845398;0.89227414;1.840452;0.4018858;3.0350754;0.17296633;-0.62015456;-0.97129256;0.90149707;-1.6177255;-0.30831814;-4.3989315;-2.2258801;-1.0821769;1.4595976;0.22398706;-0.3746049;0.5666418;0.5723072;-0.34013912;0.12248565;-0.58638823;3.2452288;3.3741567;0.29414183;-0.18170619;1.7727783;-1.0799994;0.3052325;0.8076367;-0.29004622;0.6185821;-0.92753947;0.4342163;-1.1974778;0.65746796;2.7559698;1.650521;0.98965925;0.8249823;-1.6142769;-0.058684215;-1.8209078;-0.5123402;0.78337526;-0.28343314;-0.9524811;0.8205014;0.5078101;-3.6067817;0.20460293;-3.4762456;0.63862485;1.0599464;-0.671708;-0.41355088;-1.2608485;-1.188661;0.7079465;0.4565585;4.7534976;1.1246711;2.3873556;-2.7602298;-0.18447942;0.5563808;2.1669447;2.2205873;-0.6589778;0.38922945;-1.28692;0.0071142935;-0.89469784;0.25684175;4.6162233;1.8778336;-0.39555553;-0.97534394;0.07827653;1.095275;-0.5693039;1.2440152;-4.0996065;-0.6749777;-1.4161919;-1.072528;-0.28681183;1.2267063;1.5021224;0.81125796;0.821156;-0.6166024;-0.8067243;-2.0372574;0.13786735;5.052664;-1.0493897;-0.06517732;-0.6317374;-0.54943013;-0.0058094957;2.35905;-0.35266322;0.020800572;2.7452083;0.4081577;-1.6613613;1.8424822;-0.16367519;-0.25724223;2.0108755;1.183973;-0.21069652;-1.6963322;-2.5796037;1.1917483;2.295784;1.1327122;-3.1378472;-0.08828272;0.71135783;-0.08172288;2.2837605;-0.3997336;1.1325291;1.0800431;0.57142;3.8889563;-1.4763551;1.0388623;-0.37278166;-0.31755853;-1.1556549;2.431049;1.5023934;-0.5193776;0.7106356;-1.7280189;-1.2476971;3.7988493;-0.41399297;1.531737;-0.6267326;0.7172127;1.6053011;1.1404922;3.7301307;-0.88877434;-0.70977324;0.41270667;1.8009074;1.4689536;0.9373762;0.94667894;1.5768732;2.4322655;1.1204256;0.58995456;2.136302;0.41226614;-1.0119604;2.2466824;-1.2782987;0.61832976;-1.5114456;1.2477376;6.1742425;1.0391202;-0.37132785;-0.21087784;-1.2192689;-3.3882565;-1.0179327;-0.27657792;-0.6965941;-0.92637575;-2.6184773;3.1749072;-0.04820883;1.948846;-1.469684;-1.0191102;0.68715906;2.6557922;0.045706164;0.39944828;-3.5242085;-0.4495573;-0.3808048;-1.08239;0.30020908;-0.17134015;-0.8671733;0.99468863;-0.65159893;-0.24181841;-0.64095473;-0.98013943;-1.7531261;0.48393747;0.22045074;1.8179748;0.9039116;-0.38410446;-1.4386377;-0.10918122;-0.75334364;1.9898053;-0.15291901;1.8544607;-2.0350685;1.5574213;0.64607173;-0.5944316;-1.4122066;-1.1657383;-0.9732795;1.0596226;1.1681753;-0.32979313;-1.0330429;-0.69613093;-0.67722243;-1.1417617;-0.6965398;-2.0393734;2.3731105;1.8566499;1.0196288;0.28936136;0.5086628;-0.18730983;0.459593;2.2770457;1.0604784;-1.5790045;1.8112248;1.7846373;1.8964533;0.47539055;-1.290803;2.1257524;-1.4191102;0.24951251;3.6653326;-0.50280416;1.6773529;-1.4119688;0.42071882;-0.34290385;0.78468823;-0.31017482;-2.1263766;0.31618994;-0.2685379;-1.2601657;-1.1130961;-0.8553197;-1.1854552;-0.2908491;0.76873755;-0.21695195;-3.7571611;-2.6752276;2.2799;-0.4271514;0.6226151;0.9400611;1.3908129;1.4751564;-1.5912427;0.7267437;0.43917623;-0.18615441;-1.5747992;-0.24249595;-2.6649795;0.72929007;0.12687115;1.8599479;0.9525972;2.2540665;1.1113049;2.3613987;-1.4027079;-0.22086121;0.037306454;-0.11110238;0.9688219;-0.69593656;-1.264491;-3.6493318;-1.1152939;-2.2102838;0.3782884;1.4418868;1.3391697;2.1752937;1.5782169;0.32145593;-1.1356367;-0.3309769;0.4918617;-2.9902074;0.5157313;-0.45482874;0.88554347;2.1450562;-2.1581175;-1.1463252;-1.0284374;-0.8416878;-0.24110995;0.12773998;-1.2918878;-1.4992378;5.865099;-0.5335186;0.025045814;-2.2844317;1.5087271;1.6690702;-2.123548;-2.9637487;-2.1426866;-3.9626179;1.5184382;0.61642236;1.5865037;1.2749293;2.9532206;1.9692746;1.8245776;-1.4729857;0.80256784;1.4022243;-0.21032403;-0.37652636;-1.0451692;0.041983437;-0.75190514;1.9530095;0.4804535;-0.013174446;1.6278082;-5.453178;0.19610596;-3.3338754;-0.5092038;1.1120273;-1.6804796;1.686647;-1.2877759;-0.8359248;-1.255478;0.89011645;-0.5637693;0.5366455;-1.8210135;-1.5597832;3.594726;-0.7722926;1.9656385;-0.13583088;-2.2235856;-0.8751872;1.2715961;-0.3836241;-3.2032206;1.2673674;0.95555645;-1.2891436;1.9246646;0.9468949;-1.0541165;-3.7058425;1.8588281;1.0027553;-1.5975877;-3.2736316;1.7344694;-0.419676;-1.6230835;-0.6136294;1.5628861;-3.978918;-2.6452239;-0.6456387;-0.010273449;-0.36864272;-0.06290659;1.7735945;0.6149798;-1.7114648;-0.655884;0.047200967;2.6578462;0.9691367;-1.1308801;-1.1695248;0.33682692;3.145059;2.1131196;-0.9730554;-1.9853604;-0.36012995;-0.94873744;2.4813912;0.1916292;-1.6818428;3.4412622;1.9696736;-1.1828521;-1.1875707;0.32715738;-2.2083325;-1.93567;-0.11719037;-0.120264225;-0.25404668;-2.3450468;2.5919263;3.7056808;-2.4359176;-0.5421473;-2.3964055;2.4330714;-2.4979415;0.8131148;1.747797;-0.860678;-1.2337117;0.1492557;-0.8898889;1.349051;2.2395074;1.7988538;-1.4736927;1.2144787;-0.9279196;0.41175258;-2.7386432;-0.028205896;-3.1996036;-1.8335054;1.7579464;0.80928487;1.076288;-0.63271564;-0.62283796;-2.4259725;2.983119;-2.2492497;-3.3166509;1.3418691;3.4244895;-0.634598;-1.0115721;0.70073056;-2.3914614;3.3233833;0.47648263;2.901474;0.89057577;-1.455139;0.5066559;-1.3561949;1.9134403;2.4821126;-0.2268588;-1.4771856;-1.0466977;-1.7486917;-0.7293525;0.46539974;1.6776353;0.0032719898;-3.6049564;-1.8442374;-0.230008;-4.168469;1.2180152;-0.31260583;1.0736091;-4.086965;4.0295587;-2.3941963;0.9163796;0.28137392;-0.79725134;-5.833978;2.5534773;-4.122406;-2.4842281;-1.4599613;-0.12764518;-3.4510107;0.26390323;-0.90446055;2.1909308;0.12472452;-0.892963;-1.3438796;-1.5648234;0.22751375;0.5414788;0.40448737;-0.34810555;1.1955544;3.3077738;-0.6903233;0.2030171;1.2199295;0.33547673;0.4199277;1.6703445;-1.3981632;0.16306974;1.9868077;-2.2370179;0.07812151;0.97648555;1.1077974;2.278704
0.6452167;0.24747442;1.8502017;-2.9629176;-0.18822779;0.83254784;-2.3198836;-0.8352982;-0.005363075;0.5876307;-0.5374571;0.9415051;0.9238404;-0.62540317;-0.0034454407;-1.519916;-1.8944587;-1.8291082;1.2857788;-0.0966695;-0.4355247;-0.09457347;0.095820986;0.96645266;-0.27156442;-0.9291292;0.6091729;2.2886503;0.3544942;1.455125;0.76363486;-0.29043385;-0.33008564;0.25089768;0.9765119;-0.7711815;1.7223583;0.5378085;-2.4003878;0.9627205;-1.4620585;0.14295055;1.5807862;1.8385923;-1.1452755;0.88906586;0.50165135;2.2436442;-0.47594923;-0.50201744;2.0957015;-1.3929721;2.7655766;-2.3776224;-2.0104294;-0.11289897;-0.3472707;0.16804849;2.385683;-0.16223803;-0.6652601;-0.112634145;-0.5895087;-2.078414;0.6693092;-0.6796677;1.0578296;-0.74391484;1.3711326;0.29010728;-2.7765644;-3.2631264;-1.8067178;-1.5140085;4.3400283;1.9209332;2.7116432;-0.74468;1.5392426;0.26781622;-1.5543948;1.1600323;0.3834397;1.0440816;-0.9996838;-1.0538874;-2.228662;0.7270642;2.4549966;-1.099449;-0.6112965;1.6352798;0.2620978;-1.9419222;0.7436914;1.5850261;-0.6916838;0.014581405;-1.8490658;0.051194176;0.3148893;-3.1013327;0.9353936;-2.0094423;2.2654805;0.9516271;1.3199419;-1.2108288;-1.7755989;0.981877;1.9642993;-0.4643126;1.2495335;0.12293937;3.0697665;-2.2215564;1.1758442;-1.8847412;-0.31051522;-2.0670154;-0.39822105;-2.2912571;0.29866433;0.2888187;-0.8607409;0.94425863;0.841776;0.38295972;-2.5898674;-0.9242733;-4.249769;0.2888656;2.3195527;-0.53329146;-1.452598;-0.0393865;-0.33704844;0.7312812;2.2791467;0.87623316;1.1234123;-3.7628446;-2.0124316;-2.4501638;0.4154059;0.84643686;1.7611349;0.92877275;-0.76032704;0.02028745;-0.45614314;-0.21651672;1.0077714;2.24894;-0.6210571;-3.7278125;4.0364776;-0.513657;-0.7102681;0.4516731;1.2107143;0.96825975;0.4329363;-1.5492934;0.66182816;-1.9163516;-2.577123;-0.97493225;1.9528357;0.521368;-0.23975916;-0.8076528;-1.3726388;-0.53764087;3.0644636;0.43217567;2.0131862;-0.78799117;-2.4022882;0.41327485;-2.0762765;1.3511982;-2.9429522;-2.5548058;-1.9374042;2.3298514;1.8543905;-0.13936758;-1.6152896;-2.4801793;0.8229543;4.525482;1.3113316;0.52106756;-1.9960253;-4.4316726;2.2559738;1.644463;0.8155515;1.4995574;-1.7729297;-0.3980013;2.0064747;0.23777458;-0.63043356;0.58819395;0.9320911;-0.7872298;0.9917066;2.5813327;-1.873221;-1.7197657;0.285923;-0.61164516;-1.0593225;2.2650497;-2.201841;1.3424901;1.6550416;-2.3047454;1.4979963;1.4970421;-0.28628823;-5.951032;-0.032595858;0.559345;1.6914364;-0.9818287;-2.516808;1.3901317;2.5081775;0.67366165;-1.1252729;-0.87242633;0.32610282;0.8407272;-0.34117082;0.68725085;0.98292184;0.5803987;-0.7457955;-0.20296235;0.8044816;-0.88114786;-3.1799283;-0.60292387;-1.2077562;-2.9203112;-0.22019327;0.7422093;0.19814868;-1.3041592;-2.9693787;0.1760157;1.3333125;-2.1217728;0.94004524;0.4334922;1.1403044;-1.4984989;0.5905239;0.48475787;-0.2728486;0.17159052;0.5247172;-1.7317764;-1.3816978;-0.9731686;-0.42997003;-1.6612822;2.2479827;-1.5877175;-0.048054095;1.1702878;-2.446235;-0.5498994;0.8133476;-0.46374124;1.0102865;0.9975525;0.57795656;0.91402894;1.8515838;0.18896286;0.68857986;1.531932;-1.0590008;-0.5486552;0.520749;3.7883527;0.8237237;-3.0911083;-0.9522955;0.09599867;-1.4638413;0.97862387;1.4013175;0.9281845;2.891178;0.1062451;0.9323869;1.6382517;-0.6729131;0.53412414;-2.5225942;-1.7913823;0.25275886;-0.07318011;2.1594594;-0.3070062;-0.07467644;-4.0981827;0.8549273;2.329695;-1.3550175;0.3875424;-0.16533121;-0.91182995;-2.3623433;0.36492229;0.45106858;-0.9861676;0.28457454;0.11655694;-1.6451863;-0.35526332;-1.8966633;1.8576597;1.2123451;1.122101;-0.630486;-0.028325273;0.7967428;0.04162302;2.623003;-0.6263066;-0.60085046;-0.9420503;0.19834669;2.1517026;2.275584;0.6285176;0.4961765;-0.15662451;1.7763277;-1.0357411;2.231499;0.3501022;2.0605533;1.2420169;-1.177712;2.042383;-2.8501241;-1.0246259;-0.92858666;-0.5146043;1.7294352;1.251173;-0.21297054;-1.0384352;-6.2439814;-1.6650704;-0.4318628;0.16762903;0.7323656;0.8431745;-2.2697225;-0.90241724;2.9475126;-1.0250269;0.6100637;-0.39460686;-2.312642;-1.0307229;-2.5960536;-6.548867;-1.3112718;0.3182472;2.738786;3.3262324;2.4835598;1.840508;-0.3921084;-0.19016252;-0.64465046;-0.64562434;-0.017613363;-1.1494442;-0.97491443;1.6591077;-0.717896;1.2520168;-1.4237295;-0.7559647;0.7718405;-1.1066716;1.0222044;-4.978978;-2.030965;-4.320849;-1.1173254;-0.91916305;-0.64713293;1.776497;-3.8031137;1.4145398;-0.07981106;-1.2825733;-0.25581396;1.2479986;1.213767;-2.0363796;2.132505;-4.3192043;-0.29776117;-2.8934357;1.9719507;0.5816354;-0.6702218;-0.8894511;0.83233213;1.9395844;1.027097;-0.34272006;-0.13522539;0.9358362;-1.8049766;0.7903884;-0.19303392;1.2511994;0.9092553;-0.6362512;3.973943;0.115698874;-0.39597267;0.5598146;0.34824225;-0.56063724;-2.8563197;-1.6787099;-0.65386784;2.6893742;-0.8944335;1.8310897;-2.3892972;0.75460416;0.6289448;0.9710238;-1.4510626;-0.40362096;0.4275815;-1.914865;-0.03748419;2.3295202;-0.53114736;-1.4625801;-0.6985815;-1.7914864;0.96738416;0.060186423;-0.82111317;-0.5912768;2.7783747;3.6781068;-5.3938503;-0.25629777;1.5853343;-1.7678165;-3.465672;-0.69830465;-0.084889896;-0.026391229;-1.0580233;1.0253463;2.0798736;-1.1550022;1.9068581;2.2169182;-2.2238975;-1.4203151;0.9648665;1.0115004;-3.6353748;-3.4060519;3.0549848;-0.6727781;-0.27060583;1.8854038;0.577472;0.4524039;2.1944902;1.2871516;1.5596682;0.2588059;0.5925267;-2.82282;1.4386077;-0.37018386;0.19067074;0.48018762;1.0983204;1.2447046;-1.3011212;0.05246845;0.019904358;0.30381763;0.70122224;0.9907461;-1.6797209;-3.49746;1.8111378;-0.59631884;1.6524587;-0.5439076;-1.062192;0.6260846;0.79460585;-0.8352919;-0.8549708;-1.9583608;1.2901441;2.3767734;-1.59088;-1.7815088;-2.1526957;1.4092581;0.2898963;0.5448633;0.43976155;-1.1037205;-2.5469446;2.1841319;-5.0438952;-1.950782;0.089604445;1.7402866;-3.562141;2.8961864;3.1930354;-0.98408324;-0.53208613;-0.17195444;-3.496575;-1.4457483;-1.8283176;-0.30117258;0.058918376;-1.5311849;0.16174828;0.31701812;-1.6198293;0.099621065;-1.7037818;-1.4033928;-0.4153713;2.4314027;1.4003079;-2.1683097;0.828076;2.0329444;1.4982033;-1.9131074;0.6064137;-1.9118292;0.33171234;-0.053754114;-0.06767814;1.4229673;-0.6478523;-0.284157;0.22028652;0.4086066;-1.1646633;0.76885486;-1.571184;0.6894913
-1.35027;0.3100713;1.803995;2.922431;-2.4530346;2.201044;0.94845974;0.7567636;-1.370003;-1.2521;-1.1472543;0.40481824;-0.5410325;-1.4734409;0.939442;-0.33733642;-1.3662844;0.05293049;-0.96852076;-0.5698096;0.89115244;0.08212662;-1.2330631;-1.2199572;-1.1638881;-2.7721689;1.3792219;1.914257;-1.2448547;1.0941844;2.2023025;-0.39221933;-0.065577;-2.7339797;-0.5947602;-1.1865562;3.3734884;0.17164457;0.84648705;2.08108;-1.1088072;-3.4498594;0.67994606;2.171602;-2.4863489;1.8122201;-1.4563766;2.9329658;1.8721179;-1.1670394;-0.31657565;2.0906122;-0.34290308;-2.5782936;-0.5596013;2.1408587;2.005822;0.42844364;0.4934321;-0.01839755;-0.1872708;-0.972341;0.010535053;-1.0148951;-0.21303308;-1.4927758;1.6433823;2.4978542;2.5927293;0.5332132;1.5298696;-3.328402;-3.4262164;-0.6045251;1.0537169;0.043001805;3.8881905;-0.68015236;1.701951;-1.7364624;0.9835337;0.5512059;0.3100936;1.165177;0.057626784;0.34826386;0.08047439;0.3050416;2.092346;-0.3020429;-0.31881893;4.080288;-1.1710154;-0.5419786;0.9570254;2.741597;2.0472503;2.3979318;-3.3075364;-0.43720585;4.0013385;-0.9308627;-0.1852498;-2.449162;1.614733;0.91392845;0.35646778;-0.17752519;0.7703984;-2.8101652;0.8892313;0.13283214;0.6655845;0.4124233;-3.3648772;-2.8818805;-0.052387472;-2.7078383;-3.3188822;0.2669937;1.7408288;0.818593;-2.945525;-0.0043539363;0.5803854;3.3914237;-0.54072785;3.0560536;0.810533;-0.28248245;1.3488582;1.9842385;0.9740716;-0.1119481;-2.6387625;4.2496123;2.1965728;0.6148339;-0.3942176;1.1650479;1.0690998;-1.2923692;-1.1175696;-0.49581262;-0.103908226;-1.2308383;1.4438169;0.8091861;-0.28997114;1.6879148;0.44971904;1.7190362;1.0508679;-0.2777271;-0.19481254;-0.39871544;0.6219058;0.59908664;-0.9693958;0.07303243;1.5255669;0.8667568;0.7497577;1.8915485;0.47332397;-3.2872994;-2.0228825;0.87907034;-2.5195081;0.35786977;0.8595963;-2.588789;-0.9653493;-0.7570476;2.374184;-1.466357;0.71573895;-2.2566636;3.0495903;3.4372559;-0.92907166;0.10551783;3.3560379;2.581082;-3.0854797;-0.2980877;0.9423638;1.174986;-0.12971818;-1.8190707;-1.2963868;5.0663056;-0.08732623;-0.9911525;-1.8447268;-1.1915113;0.19472775;2.3171337;0.0062589115;-0.6304403;-0.25850525;-1.3362784;0.20684387;1.274697;0.40334326;-0.05593888;1.0448235;-0.18282525;1.0634828;1.0508084;-0.9573119;-0.13889548;0.06304161;2.2051911;-0.4341451;-0.45013446;-1.4505147;0.08042958;-0.09755475;-1.5833129;1.3503798;-0.1778954;1.8183877;-5.861411;2.0031543;-0.0041559003;1.9729937;-3.8040264;2.8251073;-0.45547104;0.15399978;1.7237879;0.44291005;-0.49013492;0.8651111;0.03032622;0.46408445;-0.34140414;0.22644718;0.80738497;-1.5690379;0.66783243;-0.38434452;-1.8260618;0.9575041;-1.3687121;-1.3845081;-0.48408386;0.013022889;2.1421149;-0.43761232;1.4168272;-1.387685;-2.5098367;-0.83799046;-1.7890826;-2.2597036;-0.42602226;0.6034108;0.3935341;0.2768323;1.9447545;0.1498659;1.6122024;-0.47140607;0.18383005;-1.8780398;1.1379682;1.0119233;-2.4995823;0.97018313;-0.42824882;-0.42185423;0.51901495;-1.3992101;2.3458302;-0.040931284;0.29632404;0.63477695;-0.00554242;-0.5255132;1.5474799;-0.28441086;-0.6353506;0.575095;1.221459;-0.73111874;-1.7453167;0.06115264;3.5494497;0.9225789;-1.4166055;-1.5531392;1.6058848;-0.046897124;1.0382571;-1.0440749;-0.7392287;-0.034043267;1.6943864;2.1844578;0.90967023;-0.4203573;-0.047682013;1.1198013;2.668606;-2.754767;-2.564944;0.21724135;0.012970921;0.23748662;-1.0286189;1.7593024;1.66502;-0.6553438;0.3870481;-0.8324908;-0.7322285;2.7695167;0.7848442;1.5583308;-0.49558428;0.74632865;1.3764036;1.8015624;-2.4407735;2.7345805;1.7467316;0.55221283;0.10547892;2.1963747;-0.03735313;1.0161223;-2.6507766;3.2147653;0.6169111;0.4910463;-0.9712881;1.4448811;0.8986461;1.3472079;0.13368686;-0.46426132;-4.1669626;1.3569818;-2.469952;-0.3357624;2.635549;1.3987871;-1.2449236;-1.4797385;0.45617935;-0.40024748;-0.68706447;0.059350353;1.4109428;-3.0631962;-2.226158;-3.8863864;-3.1833317;0.007568868;-0.70359176;-0.160127;4.0511947;-1.6453453;0.42885932;0.50020665;-1.9650214;1.5070295;-0.30585256;0.6841082;1.1689012;-1.207268;-2.3628805;-3.7369242;-1.4885601;2.9427383;-3.126645;0.7233413;3.067794;2.6425765;-1.7888347;-0.6776532;2.189806;-0.58408374;1.7731884;0.050483875;0.3386011;-0.67870516;-0.6488391;0.92336595;-0.34101385;0.34744042;0.07533992;-3.1132095;-1.2050753;-2.1063013;-1.0008842;-0.32455534;-1.7376453;-1.270286;0.6999133;0.25368825;-1.008424;-0.23881932;-2.0331287;-0.47244257;-0.4754496;-0.682075;-0.079125375;-0.47657508;-4.999405;-0.015362119;-0.52492946;-0.18454288;-0.2684084;1.8839846;-2.2016838;-1.8228102;-0.5996379;-0.96732163;1.7873163;-0.108560406;-1.3838208;-0.40972114;0.47862437;-0.48008585;0.6251212;-0.56933516;0.49321502;1.0891858;1.6162206;1.8522383;1.0985806;0.95647365;1.2166342;0.0450532;-1.7664794;-1.0860142;3.6262672;-0.76211524;0.569561;-0.8721301;0.79073036;-0.06834374;0.15078586;2.2782543;0.20770541;1.3787067;1.3569214;-0.25203258;3.4169917;-1.1924495;-0.09041092;2.3527446;-0.4858852;0.38749155;1.1426446;2.5355299;-1.6613302;-0.15748438;1.6040884;0.41738513;3.5380259;-3.6073804;0.018463444;-1.0996605;-3.6292877;-0.63280934;1.834235;-1.2833768;1.9097996;-1.9334482;-1.039819;2.838662;3.4406307;0.32367602;2.0193594;0.4024978;0.55140126;-1.2274382;-0.65816116;-1.4416852;-3.6339943;-1.9655967;-2.4571729;-0.11946987;-0.56222105;0.42059517;0.9748965;0.45461172;1.5438298;0.09664403;0.7862942;0.62364024;-5.523892;2.930051;0.1401233;3.1037831;-4.8432894;-0.25845343;1.5749909;-1.6825199;0.68837714;-0.59006476;-1.0924133;-0.9421782;0.96942097;2.3125944;-0.868543;1.9418191;-0.4848422;0.3493223;1.3015919;-1.1553562;0.4252379;-0.78549993;-0.19473213;-0.849374;1.7675133;1.8199164;-0.860292;1.7878234;2.566734;1.0822966;-2.3346493;-0.29021218;0.3920459;0.98555017;1.1337926;-2.873974;1.8400482;-1.9085867;-1.9834288;-0.8844141;1.4133251;-0.79700327;0.5498924;3.7255764;-2.3435595;-0.18101807;0.46314126;-2.851443;-1.9051846;-0.08666062;-0.14046386;-0.46297818;-0.25811896;-0.49064603;-4.3427677;1.5899128;0.5343481;3.9690287;0.73284775;0.030684777;-0.09997793;-1.3420106;-1.7250696;0.3811146;-0.28761637;1.8827059;-1.8054005;-1.4072673;-1.4939079;-0.14224917;1.1249244;-0.42604306;-0.24089298;-0.9140572;0.048290756;-1.7416332;-2.8123357;-0.051860806;2.3403964;1.5206149;-0.99744123
0.6810089;0.74212205;-1.0347224;-1.5902519;0.59075063;1.4679973;-1.0774404;-2.8922956;0.76131743;-0.23866975;2.325529;3.3913965;2.2632496;0.14418282;3.3705885;0.78980947;-1.1922879;-0.7576746;-1.5413252;0.49452707;0.32763344;1.0515448;-0.05499749;1.0633318;1.7506311;2.0024648;2.670981;-1.6823984;-0.21286385;-0.25751507;-0.6776653;1.058559;-0.23888005;-1.4311488;2.108592;-0.93766916;1.279976;-1.290631;-2.268123;2.7175877;-1.112723;-0.45792022;0.06238449;0.10385674;-3.1879165;-0.14994328;-1.7842305;1.3728591;-0.20863578;1.9426196;0.92876023;-0.50937396;2.4726336;-3.9139314;-0.4097707;1.3270715;1.0742905;-1.3516399;1.2507285;-0.65486866;1.2300087;-0.8789635;0.2868398;1.2344395;-1.2386504;1.5116719;0.7608387;0.23648483;0.7028783;0.9843202;0.80362016;-0.12645265;-2.7514358;-1.254925;-0.26767668;-0.4228705;1.4479003;-0.0040163803;0.9829168;1.9580823;0.86733174;0.018973209;-0.33727622;0.2822088;-2.131196;0.50557053;-1.9951718;-0.63677996;0.34463787;2.2593915;-0.3897897;1.0586594;0.079288706;0.39204305;-0.055503603;0.65072876;1.2430576;1.088817;1.0041338;0.29115433;3.5352392;-2.204865;0.03389257;0.35736558;2.2297544;0.8270596;0.5526639;0.14402816;0.18854839;2.9267821;1.4852896;0.8720029;-2.8640459;2.2132742;0.38004297;-2.1496031;-0.21334682;-1.3386998;0.07717805;-1.5052787;0.34072104;2.0804248;-2.691305;-0.085232385;1.6699134;3.617642;1.32477;1.635398;-1.1755897;-1.0062486;-1.6685151;1.3841009;0.1298537;3.011972;-3.5675457;-1.3621994;-3.6550057;0.58234966;1.5526948;1.1199087;1.4009647;-0.20291254;-1.850878;0.030658836;-0.26460227;-1.8760966;-0.18167005;0.77680814;-4.0849376;1.459644;2.305994;2.1367414;0.21488057;-0.9574298;-1.3580937;0.8543464;0.34309888;-0.032935128;-0.6316983;0.7290777;-0.554499;-0.22984533;1.939235;1.685484;0.20494515;-0.8599692;-1.6413956;-1.3937103;0.22132975;1.2222183;3.2789147;1.8521006;-0.28504667;-3.129426;-1.5697197;-2.1289313;1.1020461;-2.3260767;0.432483;-4.0814767;-1.8695562;-0.83342993;-2.5551472;1.3440298;-3.2784135;0.40812373;0.5292463;0.11240326;1.1081569;-1.8489249;-1.3815801;2.0908954;0.969644;1.2299771;1.2177869;3.4385684;-2.5784013;-0.45687258;1.5772109;1.0203592;-3.1569235;0.13956329;-0.71031654;-1.7697182;0.3042092;0.2751341;0.47023863;4.107846;3.207841;2.7851439;0.02834937;0.13152409;-1.3781834;-2.2808971;2.0508204;-1.7650849;-4.2457356;0.84563;2.4652393;0.62861204;1.6583476;-1.1429111;0.4641003;-1.7029068;-1.4778677;0.5670514;-0.5223764;-3.2864583;1.0348872;-0.49055877;-1.1179929;1.7214828;-0.36336327;-0.7273631;0.7565848;0.05478996;0.08972223;1.7257531;-2.3978794;0.13331619;-0.27286154;-2.0716465;1.2281407;-1.6954123;-1.5206207;-0.3074134;0.012859357;-0.12681857;0.49041772;0.64521915;-3.6650107;-0.58498317;0.035506997;0.12130965;0.56456274;-1.2395554;-0.12828451;-0.47637776;-1.3931825;0.26168656;0.8555839;0.64462155;-0.103248306;-1.2451416;-0.051213928;0.1642927;-0.19042724;-0.042011768;0.87888485;-0.35061622;2.3444986;-2.0221016;1.5620697;-0.34610054;-1.0492947;-0.018340932;-0.81178457;0.28705576;0.5788743;-0.34974596;1.4579538;0.78749996;0.9229487;-0.8150903;0.88427126;1.085217;0.16616057;0.1297836;1.7291528;2.5035188;2.2297537;-0.7269629;0.14517595;2.5145032;-0.19860002;2.4893801;-0.4798555;0.06977696;0.23533902;1.2493052;-0.67406803;1.9569104;1.0100902;-1.0298182;0.8292025;-2.1345935;0.24391912;0.16883561;2.9830523;-2.0304456;2.4095786;1.9137739;2.6657474;-0.03911828;-0.17252046;-0.8346749;-0.79074675;-0.30087218;-0.3374816;-0.21832454;1.0357786;-1.4835191;-0.36419192;1.0336499;-0.26746604;-3.6987247;-1.0936677;0.2364486;-1.0034381;3.0913477;-1.2264433;2.529471;-0.8741229;-1.7636392;6.1150317;0.5081526;2.4203954;-1.463085;-1.236412;1.3857037;2.3105574;0.8511003;0.7120277;1.3069214;2.8541474;-2.903789;1.7227165;-2.2507799;1.5201277;0.7631046;-1.3301799;-0.59514064;-1.3856698;0.43083832;3.9726577;2.1349359;-1.6661298;0.6713249;-1.1081525;-2.5219781;-1.8962507;-0.694526;1.3357013;1.4231539;1.9787024;-0.523885;-3.259067;1.1371132;-1.6469876;-0.6194235;-0.19332717;-0.29921794;0.67809075;-2.5331378;-2.816681;-2.945206;-0.21263966;1.2185951;2.6582189;-0.82770014;0.5397747;1.898048;-0.29612434;-0.10387058;-2.6652243;0.0734306;-1.4810165;-0.95119566;0.6359327;1.3459251;0.7368373;0.9951488;-1.0468575;-2.690216;-3.0652206;-2.1837423;-2.268474;-0.24468549;-6.247401;-3.5026388;-3.9787111;-1.4220374;1.3931907;1.3653957;-0.632119;0.3414266;-0.6927229;-1.5853631;-1.8750185;0.38292027;-3.3783414;0.8234416;-1.9714346;1.6106486;2.2599487;-0.97351336;-0.6255654;0.5379531;-2.2699387;3.0012412;-1.804628;1.938801;0.71817815;-0.23462878;0.79955184;0.823278;0.17252357;0.33094016;0.8373017;-1.2295381;2.326791;0.6377888;0.59653914;-1.7107855;-1.9420208;0.05287144;2.0134315;1.2288023;-1.2110776;-3.4661825;-2.0972614;1.182121;-0.5743512;0.9627967;2.3217778;-1.9046687;0.48618793;0.23502225;-2.0156271;-0.5561794;-0.96832377;-3.5289285;-1.164034;-2.1166239;2.6025436;0.3511815;-0.013798543;-0.9960637;-0.42144373;-0.27360448;1.6478353;4.0844398;0.13937573;2.1691465;-2.2266066;-0.61076015;-0.18516803;-3.6188502;0.76263577;0.49651757;-2.472287;-0.29056966;-2.1869345;1.9509923;1.2632997;1.8063064;-4.355972;-2.6924927;0.5183125;-0.23669417;-0.7397683;1.4391636;-1.2154385;-4.4993396;-1.7834487;1.2574201;-0.3825395;-0.43856394;0.31288555;-0.7982119;-0.38459074;2.1897414;0.9642417;-3.059474;0.16014983;-0.25861606;-4.67092;0.10682855;1.9601787;-3.588354;-0.03930379;3.8349972;-0.768981;1.1325889;-2.0863338;-0.5528482;-0.2738458;1.851955;3.242791;-3.5602655;1.4623233;-1.1129658;0.4081803;-2.4701347;-1.7142588;0.28946042;-0.6996464;-1.5952108;-1.1265702;1.0248014;0.6594338;0.2289381;0.2426853;0.77684885;-1.7989177;2.6587749;-0.024009302;0.4596201;-0.6892665;1.0303302;0.6462732;0.98732156;-3.7570727;1.2907006;-0.28480378;-0.7274526;-1.5048771;0.5750633;3.0775032;0.3814872;-2.262527;-0.35517284;-0.7295876;-0.23171668;-0.27298412;-1.1107141;0.7040821;1.3637052;0.008846921;-1.7941775;-0.06695373;0.70476645;3.6787088;-1.2874386;-0.52059984;1.9787666;-0.10323204;-2.7502847;1.0195807;5.5189962;-0.017064951;-0.40499523;-1.208167;-0.26782003;0.8251363;0.8205526;0.4615488;1.7912886;0.9011655;4.0516014;-0.9952228;-1.8414602;-1.2753028;1.053453;-0.42082447;-0.36363524
1.0926782;2.017909;-0.7140316;0.7423234;-0.66224605;3.1452553;3.3264577;-1.5337657;0.24146022;-0.2523925;0.94282836;-2.6904333;-0.4870571;-0.70925546;1.8001893;-0.61340183;-1.1422566;-1.4476514;-1.9838377;1.050088;-2.5396144;-1.2638069;1.4885083;-1.0697395;0.3159258;-1.0684179;1.2414001;-4.2540355;0.057235636;-0.8700197;0.31602916;2.1571052;0.004564665;1.3023881;1.2414908;-1.4668683;-0.8822093;-0.106115825;-2.7496874;1.0128627;-4.5618668;0.8614037;0.5387346;-1.9651543;-1.6417867;1.670208;-0.20566593;4.3049397;0.97571313;0.945474;1.6386555;-2.1428063;5.5875487;-0.61552393;0.76966554;1.4585363;1.236638;0.60729694;2.238352;-0.53262687;-1.2828554;-1.0706686;0.64431876;-0.67931414;1.9445391;-0.55335337;-0.1762636;-1.6350414;-0.34547606;1.3257635;0.15870158;-1.8572643;1.6682581;-1.1812987;0.417746;0.084112965;-0.39505255;0.23926279;0.2957844;-0.6808709;2.4522724;-1.6933279;1.6829394;0.468665;1.3965584;2.2035227;-1.5942065;-0.1859015;2.1810386;1.2956927;-0.63604593;1.2548889;1.5260704;-0.9305079;2.0417688;0.89700174;-1.9952295;-0.5885303;-0.2710405;0.07145058;0.13351706;-1.1664168;-1.9713264;-0.0727851;1.7525953;2.106839;0.7418187;0.11089282;0.61699814;1.584963;0.50618815;-1.9786701;2.377682;-3.1620646;-1.3746568;-0.67717344;0.1336354;2.1134076;-0.022855747;2.3453832;0.3840275;-2.0548284;-2.9952872;-0.09306083;-1.5576606;-0.48848313;-3.8942056;3.010535;3.072193;0.41918537;-2.8074536;0.93565804;1.9271716;0.43588185;-5.116512;-0.46820784;0.6495231;0.6676272;4.4718046;1.1427454;1.2468418;-0.71811867;-2.2477937;-0.92656124;-1.9818587;-0.9854856;0.6447793;2.350844;-1.328599;0.57467073;-1.2463506;1.1966287;0.755938;1.0017844;-4.059446;-0.46672392;-0.66710794;-1.9719794;-1.9733824;0.0072530964;0.6137692;-1.2174307;-1.8392707;-0.34705558;0.03524142;-0.24760206;-1.789377;-1.6316963;1.8787618;2.1275449;-1.8091148;2.0453434;0.3718336;-0.5292528;1.0417777;-0.9095545;1.4098012;-1.8529716;-0.008730263;-1.527715;-0.436656;0.29831555;0.20052774;-2.9699078;-5.7293844;3.4044952;1.5945654;-1.3145434;2.2569137;-0.27143937;0.2238529;2.8761752;-1.3976038;1.2569875;2.30753;2.7337308;0.42128348;-0.44865888;-0.95377666;-1.1130607;-0.91076565;2.1352775;-0.7347038;-3.1144805;-0.92072517;-0.5228242;-1.6894943;-1.2029631;4.9618163;3.2106166;1.2031305;-1.9182622;-2.3954256;-2.6344044;0.028206019;0.23196973;-5.3749022;0.08077449;1.4132894;-0.42711163;2.9878554;-0.006023269;-1.8242501;-0.17058566;-1.8468177;-1.6522397;-0.23824629;-2.366496;-2.5581837;1.2242632;-0.8519829;1.6189817;0.79405224;-0.66653;0.16414389;-1.0165691;-1.0445187;-0.006438308;2.5778856;-3.0901663;1.2741282;-0.78904366;0.60099024;-0.7402471;-3.7028787;-2.3743308;1.0303727;0.8168185;0.2644069;0.9600304;0.0018710776;0.90783566;-1.6564592;2.161763;2.4922593;-0.23514394;-1.6562691;-1.0116307;-1.2896583;1.5836806;0.459496;-0.27122304;-0.881675;-0.8350498;1.5469245;0.018720163;0.5961722;-0.87843597;0.23866768;0.26998657;0.118572034;-0.2767801;-1.2327235;0.12515223;-2.175749;-2.6693833;-1.3801732;-3.4000642;-1.6437842;-0.007985126;2.3530078;-1.7693344;-1.9563074;-0.6493525;0.8810956;0.4499;-0.0049809916;-1.5975959;1.2572303;0.62143534;-0.5413697;-1.6844695;0.7335573;-0.31024235;-0.34635755;0.9207937;1.1471739;0.7925856;-1.055816;0.9671526;0.8836141;1.1296275;1.9100797;-0.8745579;-1.9032874;-0.2831163;-0.09555286;0.83470196;-0.049536314;-0.17895907;-0.2906057;3.5456555;2.9871244;-1.3677264;0.19988257;-1.640885;-0.19736904;0.45187607;-1.2450013;-4.472323;-1.7375711;0.74949026;1.0657849;-0.37464955;0.69877505;1.1150066;1.7846557;-3.8454142;1.9762512;-0.5867815;-0.20398954;-1.7149452;-2.0060854;-0.2728636;0.92330503;0.23613702;-0.33166242;0.9228849;-2.6295998;-0.07397366;0.8996452;-0.5694607;-0.5139542;-0.9757545;2.3759391;-2.6195316;1.3390024;-1.5113218;-2.5234492;1.3892516;-1.3813622;0.0027545101;-1.9666433;0.1586672;1.95552;3.8905022;0.5829119;-0.53400695;0.29651403;-0.4030469;-2.4079535;-0.58716404;1.0611981;-0.2851252;0.91054994;-1.1808908;1.556456;0.94547665;0.262597;0.06295684;-1.2748493;-1.3581188;-1.5638524;-0.084599696;0.78501886;-1.5663875;-1.4110105;-1.0418346;0.8326304;-0.6234497;-1.646958;-0.006378021;0.32111323;0.67982334;0.062294606;-0.15604663;1.3131304;-1.3611939;-1.3164604;-0.29870507;1.483132;0.19371933;0.09698247;-0.19481201;0.17641605;-3.380742;-3.722794;-0.9167375;-2.3483129;1.0011832;0.26450282;-1.271364;-0.8023638;0.06659479;2.841348;-3.1933148;-0.67754394;-0.6435101;-2.430265;-0.33676544;-3.8100936;1.4131672;-0.35564417;2.361254;-0.034504794;-5.203486;-0.37106013;-0.18199818;1.1662672;-0.5612328;0.39012656;2.0311077;3.1071482;0.14224145;0.5700665;-0.928173;-2.2902246;1.0417458;-2.9154646;-0.45173925;0.17872618;1.4080565;-0.78547823;1.230029;-3.330948;0.53025115;-0.838181;-1.4696125;0.30678672;-3.9716332;0.33004054;-1.5364747;-0.3415022;1.0529004;2.394771;-0.12994917;-0.49193594;1.0724593;0.6375903;-4.2632637;-0.68972826;-3.6500971;-1.7074451;2.6656122;-1.1114066;0.047329146;0.8472782;1.0312161;4.069005;1.3804172;-1.5280775;2.250657;-1.3233767;-0.51768464;2.988989;2.8852458;0.81340563;-1.9339508;-0.5682461;-1.6945586;0.4007014;-5.2129955;-0.40436366;-0.087027155;2.5537324;0.73000705;-3.5706081;-0.12896974;1.1200179;-0.28552824;-0.6190562;-0.036456797;-3.5524929;-2.8286052;0.39584732;1.0265745;-0.37253976;-0.6260648;1.8674446;1.5520146;-0.7411855;-0.22290193;-0.5669964;-2.116575;0.46553874;-2.6375024;-4.3915753;-0.4080651;1.4396323;-0.21692938;-2.0062454;1.3426548;-0.121887065;2.3779182;-1.4973335;-3.0677786;-0.50174576;-1.7209893;2.408474;-2.9465742;0.063147835;-1.0789123;-0.6008805;0.9106325;-4.3834934;0.50466645;-0.4126884;0.5880454;-0.5679565;1.9084891;0.099711806;0.43609464;0.16885157;0.47534037;-0.24109824;-1.2795031;3.6213112;0.18947305;0.12908264;-0.3292402;0.6679951;3.0697012;-2.5685651;1.9484252;-0.47801146;-3.0144742;0.8476883;0.0966399;2.1794963;-2.154206;-1.8906685;0.48874527;-2.006877;1.1426648;-0.66853225;3.545505;2.7354221;1.1904118;1.5182344;-1.5187885;-2.0465517;2.863923;2.4946291;0.21060807;0.8010626;1.1242821;-3.8095453;-3.2965221;3.9879785;1.078251;1.4463899;0.40854213;-1.4969893;-1.5365224;0.48281804;2.574275;0.4256341;1.2166864;1.0032004;2.1556008;0.2422786;-2.7377627;0.7794881;-0.1514226;1.6908493;-0.6455984
-1.2688826;1.2859179;-0.34299418;2.650325;-0.8444553;0.867759;4.3916435;-0.4923003;-0.442537;0.95684737;1.952547;-0.49300265;1.062816;-1.202661;0.32606265;-0.37822434;2.2067456;-1.2739403;-1.5288181;1.6363199;0.0047047017;1.9425715;-1.7241688;-1.9539211;-2.3693922;-0.35226125;0.015052489;-0.55157524;0.10760121;0.888883;-1.6110133;0.934832;0.027091546;0.9067115;-0.5853033;0.6038933;-1.5404305;0.278252;-0.09415344;0.10191918;-0.6726045;-1.30506;2.4840376;0.2285929;-3.6092052;2.9114826;-1.0482782;3.1613135;2.6825497;3.5268693;-1.5713507;1.0132548;4.306219;-4.449608;-2.0353;-0.6040818;2.1649623;0.55530995;0.38375494;-0.85169655;0.40850753;-0.69901806;-3.9686186;0.5857524;0.35291067;0.44880015;-2.972574;-1.5967349;-1.2391089;-3.135084;-2.6426036;-1.8592952;-0.5649689;-0.3473711;-1.1048403;1.1070698;-0.7409193;0.27691492;-2.1101117;-1.4784051;-1.1511298;-0.66705525;0.67080945;0.19362676;-0.8078641;2.3609862;-4.880696;-2.9727404;3.4663095;-1.6345726;1.129437;1.7648516;0.58911777;0.87931395;-1.070624;1.7570024;-0.9306376;-0.57812697;-1.7236567;1.4531698;-1.317273;-2.101954;-3.3038714;0.5597266;1.1970469;0.80882394;-0.23518367;-1.4578326;-1.9855107;-0.27977017;2.4621837;1.4251424;-1.0288012;-2.6655135;-0.11793602;-0.46708107;-0.021854928;-1.999451;1.3547958;-2.8327012;-0.11742077;1.2942966;-1.689018;-0.029936632;-0.044640888;2.205281;0.3776152;3.711719;-0.9674708;0.7162709;0.21712987;0.023054875;0.095786035;0.16146587;-5.708854;-0.29640538;1.0961745;1.8422272;0.34770453;-0.4710345;2.032426;-1.9087677;-0.964706;1.3321788;-0.47565743;-0.9845508;-0.13833113;1.84697;0.15415649;0.34173286;0.8272096;-0.7108346;-0.33761337;2.5128016;-2.3949506;-2.9130492;-2.7608943;-0.115233876;-1.4473258;0.4566081;0.4071567;0.75428444;0.3122028;0.7803613;0.054845795;-1.7206045;1.4274024;-4.114053;-1.2991287;0.5384608;1.0645875;1.3517373;-0.3444227;1.9141872;-0.1343351;-1.17717;1.9364526;-2.0716226;-1.1950138;-1.7816538;0.090345755;1.6378095;-0.32680917;-3.4299383;-5.0843115;4.4357944;0.5125166;2.3694756;1.0007739;0.38946062;1.2281837;-1.038662;0.9573937;0.733651;-1.8412738;1.3382403;-4.8441253;2.2709646;-0.9669238;-1.3275609;-0.63272315;1.3709713;1.1088568;-5.2401795;-1.4511695;-0.5061064;-3.7693202;-3.834475;2.2351892;3.197499;-2.5344224;-1.1461548;0.62141925;0.77537346;-0.9884789;0.3702684;-2.0661175;0.83486813;3.7305655;-3.0229268;0.28193927;-2.6101394;-1.133958;1.5789523;-2.2241163;-2.1315546;1.5228397;-1.1019515;-2.2791255;1.685044;-1.7866445;0.07428295;-0.2593489;1.3540107;0.37543824;-0.5981302;-0.6182602;-0.6882574;4.066532;1.1111239;0.5063819;1.2466162;1.470883;0.14436965;-2.8720574;-2.7787256;3.3594904;0.9302981;-0.6626303;-0.40957826;0.76536626;-1.5173224;1.5047951;0.09658966;1.0724778;0.9395728;0.5937855;1.1201473;-0.42939347;-0.70672935;1.9120308;1.6655209;2.1902902;0.73571837;0.85101265;-1.2398338;0.30559212;-1.6597731;1.8617239;0.5732325;-1.1075203;-3.1915312;0.74747205;-1.8097243;-1.9004232;-1.3741512;0.050165996;-0.55768484;-1.29362;-2.8273194;1.0463221;-1.4540792;-0.11910037;1.1245077;-1.2888973;-1.9911976;0.08933959;-0.75352705;-0.28282017;2.126237;-1.7236873;1.0325805;-1.9420093;0.35558534;-0.22173339;0.51161456;0.84543127;0.41227937;0.38804707;0.7616323;0.3333466;-1.3026108;0.7330571;-0.20886096;1.2036788;1.3845568;1.0595907;0.029529594;0.21357791;0.013699811;-0.3666028;0.6694133;0.4052129;0.25919887;2.1079407;-1.6854553;0.24740411;0.31440833;-1.806528;-2.83448;-0.46786338;-0.39116848;-0.6084753;0.49809164;-2.4143136;2.1100643;-0.84211123;-1.0745294;1.4057081;0.42566776;-3.105492;-0.16009226;0.0043700133;-1.0273536;0.32713562;0.3667709;4.345603;2.285009;-3.102587;3.319569;-0.24243584;-1.5622442;1.6063999;-0.33129027;2.3461013;-0.8206688;2.164804;-0.62164;0.2232935;0.6446029;-4.1438007;0.7461124;-0.56750566;-0.24262983;2.37542;1.8329583;2.4760396;2.2295487;-1.0404707;1.710591;-3.0896025;-1.6356596;-0.8144409;0.3256543;1.9067949;-2.1979423;-0.8669247;-0.042090908;1.5527894;0.21487384;-0.32231206;-1.1556684;1.9171587;1.2390513;3.0702076;-4.0880346;-1.5727375;-0.10201497;0.4268533;-0.923069;-4.047105;-1.6742483;-0.5195398;0.14790702;1.0258967;0.11770557;1.443414;-0.5330379;-0.9732508;-1.6247433;3.1324577;0.3448285;-1.2166581;-3.0421627;0.37949416;-1.9771137;0.49766117;0.70511836;-0.048806313;0.21330433;0.08903045;1.9263015;-1.1700338;-0.74629295;-0.18941182;-3.246673;0.15912846;-1.5197657;-1.0840843;0.29233262;-0.61984825;2.131749;0.37614715;-0.8203157;1.0233152;-0.090266824;-0.7065209;0.16529894;0.9070449;0.095161244;0.19190843;1.541747;1.4978598;0.3979778;0.071135625;-0.8392894;-0.31973523;-0.7317819;-3.3922799;-1.2426281;-0.7321078;1.2889297;-0.4029432;-0.9909774;0.09762573;0.2302831;3.133778;1.1495872;-2.396667;-3.7148614;0.40206757;2.423288;-2.1308942;-1.1154994;0.42766234;0.39484712;-2.5823236;1.6572423;-0.5825999;0.5915033;-0.79139876;-2.6612191;1.165623;1.4657164;1.0658902;-0.20566638;-1.5763496;1.8125402;1.6634134;-2.1043105;-0.7589737;0.21368174;-2.049789;0.64212203;0.2247743;-0.88357663;-2.1415198;-1.956934;-0.104341544;-3.2613504;1.1914729;0.46307793;-0.9719174;-0.3561991;1.2878022;-0.036365736;-0.68290514;-2.4908838;-2.7751095;-0.547265;-0.016027624;-0.37837142;-1.4350342;1.112422;-1.5165347;1.3508437;-0.6599322;-0.9730771;0.51148576;-0.057420112;1.2749995;0.20718578;-2.2067912;0.0072974483;0.35537836;-5.162557;-3.2431364;-1.4228383;0.81268364;2.807137;-3.4393394;-1.1343943;-0.8339316;1.781838;-1.3005012;2.324941;1.3808411;2.150571;-1.6382579;3.0267582;-0.5700296;0.14029005;-0.8359649;-0.5750036;-4.254979;1.2798977;1.3904374;0.8079795;-0.74386555;0.07633954;-0.14326352;1.3463186;1.3553365;-0.31426504;-0.8252996;4.2404985;1.8093947;1.7612216;1.3677864;-0.38155892;-1.4715631;3.3559635;-4.9457636;1.6183844;0.35108918;2.7242665;-1.7360699;-1.3209478;-0.29124302;1.6445557;-0.51484257;-1.9007403;-4.2154665;0.5328542;-1.7368908;0.27664232;-1.8539711;1.177458;0.93002445;-1.79771;-0.86457217;0.6314329;0.11739239;-0.7961958;1.270375;1.676856;1.9311907;-2.0112467;2.3725924;2.1630204;-0.724555;0.6200345;-2.2641888;-0.5555834;1.0008641;1.2950199;1.3494883;-0.32866058;1.2496569;-0.12712915;0.83719474;2.0221927;0.43124098;-0.36452863;0.74479634;0.17768158
-1.1025547;2.5553653;0.039257865;-2.1582732;-0.13995436;2.049303;1.0430106;0.7350143;1.199009;-0.46313435;0.8287952;-2.8768625;2.0253923;1.2292465;-0.24483135;0.47910812;-0.77036977;0.0882105;-1.779789;3.1074336;0.32268804;-1.6143336;2.3940222;0.19721316;2.008189;-1.2115093;-0.108965166;0.07301379;1.2630761;2.4384673;0.04224215;-1.5693424;0.346211;3.3632438;1.4864129;-2.99087;-1.7329823;0.7756498;0.76897377;0.57737976;-4.2830276;-0.015477554;-0.050275654;0.15214805;-5.2212377;1.7294705;0.40672505;1.5692205;-1.4558154;-0.12663737;3.9120271;0.118836425;0.52973545;-3.317464;3.4571972;0.15293655;2.8341036;-0.3745994;2.3505964;0.5421974;2.442727;-0.6154328;0.04287635;1.5896592;2.6703515;1.1314136;0.6735219;-2.443807;-0.7866476;-0.9139688;-2.6811419;1.7277092;-0.4430249;-0.850627;0.8496178;3.0621371;-0.014082684;0.6864802;-3.1453216;-0.3780047;3.769401;1.3918498;1.542205;-0.14767028;-0.84738606;0.4043445;-3.5484068;0.37467754;0.822712;1.5993433;-3.4502923;-0.57755923;-0.31176612;0.9462813;-0.4549315;0.56433564;-0.49833584;0.1295475;-1.5152826;0.6816147;-0.34109953;-0.04190187;-1.541409;-0.06195884;-2.6152089;-0.9451811;1.3480427;-1.4931773;-2.0338976;-2.451711;1.9729391;-1.1638554;-1.8036495;-0.7184426;-2.8490858;0.06434941;-0.26271892;0.321745;-4.2403393;1.8342594;1.990616;-1.3183684;-3.5935695;0.09290153;0.42842957;-3.248589;-4.0420384;1.4985535;1.765878;1.7942907;0.25911474;1.113176;-1.6930718;0.63802284;-5.6538363;4.0871778;0.93304664;0.66629994;-0.19543347;-0.55361646;2.5119987;1.7353907;-0.08042757;0.30529898;0.45858926;0.5701977;-6.4657693;2.6990585;-1.7295613;-1.9151671;0.43525112;0.17348897;-0.49442533;2.2674413;-3.5143971;2.0790098;-0.28559512;-0.8947157;-1.1505338;0.03243252;0.8185175;0.5220384;1.6899751;2.3994243;-0.31941345;-2.5621436;-1.2459066;-4.3405724;-2.091253;1.0714656;0.14325951;0.29528654;-0.16338564;-1.6322373;1.0279149;0.32061738;1.3973695;0.7828028;-0.2542769;0.045301277;2.2871497;4.0264277;2.7172875;1.5035062;-5.778415;0.6988446;-2.4994075;-3.8738008;-0.6744072;0.78762764;-1.6912049;2.02396;1.3122518;1.0722318;3.7829127;-1.8854005;-2.7019982;0.07210902;-1.1448187;-2.251533;0.4516215;-2.5434673;0.8155243;-3.810138;-2.1460824;-0.13813977;1.984085;2.177558;-0.2702746;1.823118;0.91253924;0.09721248;-2.1234143;-0.36080095;-4.250879;0.24483956;0.3182727;0.1659622;0.4245217;-0.22625116;4.4370303;-1.2903792;-2.687075;3.1037962;-2.3726866;1.3822306;-1.7216483;-1.4648756;-2.5227246;-0.7738929;-4.083825;0.6835946;2.6066628;-1.7904551;0.4684058;2.8558493;3.0929992;-1.2150259;2.4445896;-3.2658486;-0.66345894;-2.7734067;3.1508086;-1.5560119;-0.19381346;-4.1514697;-0.6550624;-3.2623427;1.6911042;1.5369573;-0.6368116;-1.2830898;2.4007046;0.24259385;0.86156243;-0.9585147;0.77051866;0.6313733;1.1669953;-0.03356156;-2.1624382;-1.7900786;-1.4958138;-1.5079939;-0.06878641;2.7225142;1.6520154;0.12574565;-2.1613352;-0.044244166;3.467185;-3.9380753;1.2697234;0.69556683;-4.366068;1.4113178;0.32997516;-1.7000786;1.3155774;-0.33000162;3.4860175;-0.07149218;-0.13595454;0.15785593;0.111816235;1.2539879;-0.12528954;0.542779;1.5050753;1.1820287;-1.1374002;1.0805004;-1.7719975;3.0127764;1.7445468;1.9510661;-0.13089643;-0.30175254;-0.3212766;-1.441009;1.5980152;1.2075386;2.2637885;-4.4981384;-3.8611147;-0.059580844;-1.658683;1.5825659;1.9486681;-0.54448974;2.4460468;2.7862694;2.8110354;1.0596869;2.8466084;-0.49295327;0.3160459;-1.2351946;3.4738002;-5.440388;-0.055399656;0.6479241;1.760315;-0.113588095;-2.2610142;-1.5965997;-0.2832426;-3.0073392;-0.8216731;-2.0118065;0.42797336;2.0060532;-0.9075183;-0.47450894;0.1563691;-1.6880975;-0.14986956;1.0700598;-1.7666793;-0.21367666;2.519121;-0.07411052;4.9807506;-0.91146415;-1.9209884;-1.9118177;-1.472162;-1.1608319;-0.6699403;1.8794475;-1.1624998;0.58070445;-1.388876;-1.2352289;0.6476408;-3.6890206;1.8815637;1.3311422;-0.025190433;1.4115382;1.8945984;0.81920755;0.3918118;-1.0889349;0.51144946;-2.7381697;-0.7301216;-0.9559694;-1.9543864;-0.037753437;1.524377;0.39245296;1.0781038;2.0984735;-0.60544133;-2.8139603;-1.8123965;-0.35991424;1.7207793;-1.5931039;0.43583408;1.875947;-0.7686903;-1.4004993;2.474897;-1.9825001;3.3646166;-3.5427465;-1.0553285;2.0998337;1.2059852;-3.5229235;-1.974256;-2.016982;0.42613453;-1.954858;0.63118076;-2.7170584;-0.4163212;-3.9879243;-2.9144535;1.4669131;0.25733;0.22752248;3.2148001;1.5549668;-1.99248;0.93838894;-1.3422464;1.2172955;-3.497135;-2.5339086;1.1253318;3.2793705;-0.40193892;-1.2740054;0.8625692;-0.5151762;-1.185303;1.8056334;1.8074107;2.412222;1.4137703;0.36848316;-0.7653233;1.4872718;0.5423598;0.9633198;-0.013796943;2.8374758;1.0555046;-0.36651284;-0.48518935;0.119051546;-4.6586833;2.1620686;0.72059256;-2.611186;-2.9912672;-3.128809;0.5079344;-2.8886738;2.2299104;0.8710703;2.1443121;-1.6504798;-1.585703;0.7303567;2.7655385;1.3330799;-1.2908926;0.043590996;0.17985661;1.9175618;2.296416;-0.27963772;-1.7913709;-2.4717386;-2.429067;0.29554346;2.3382323;-0.97522646;1.7121292;-1.5274554;-1.8658209;-1.4416881;-0.42096514;0.8432613;-1.8033913;0.9563454;-1.0029173;0.40468502;0.35644257;-0.9246336;-0.45072374;-0.7161228;-0.50450194;1.5726045;-1.5091978;1.8075489;-0.9581205;-0.10952642;1.6475686;-0.011811164;-1.9209175;0.9381183;0.5592859;0.91325974;-0.047072615;0.2754768;-2.4393058;-1.3314074;-1.9126434;-0.11967034;0.13177896;-3.2581558;-0.77671826;0.75826764;1.0680023;0.6204128;0.040782817;1.5490396;-0.82188326;-0.039296385;-1.284657;2.1906269;-0.17539622;-2.5016685;2.9376209;0.42766437;-0.37630674;-0.62991893;0.70106745;-2.022967;-4.9708557;0.011820701;0.92936486;0.9347567;0.113936156;-0.2999442;3.0023794;0.8385849;0.39674187;1.6328514;-1.4456578;5.269993;4.293579;-2.0341766;0.6805337;2.9919975;-1.4693369;1.1936358;-4.4870005;-0.953681;-0.62334704;-0.19410549;-2.3169858;0.48536363;-2.453677;-0.10117669;-1.303643;-2.4265966;-1.4200966;-0.43230376;-0.88077474;-0.21745817;-2.3691595;2.1008322;0.68752325;-4.5401297;0.16326196;-3.5103252;-4.5787315;-0.55680966;2.6399214;2.3052905;2.8587663;-6.559177;1.582384;-0.30785668;1.1114159;2.8303275;-3.8799388;-2.145457;1.0406957;-2.3404355;0.7117618;-1.9181327;0.7058989;2.8272254;-2.2155921;-3.1815407;-0.12167517;0.88741934;-0.3879324;-0.19537815
Bias from input to hidden layer.
0.12600847;0.07942435;-0.19150501;-0.11034664;0.17167063;0.002616236;-0.16007534;-0.013509729;0.10819487;-0.06202421;0.025480203;0.06716732;0.042751938;-0.14579466;-0.0073720776;0.22276679;0.0053186896;-0.013640045;0.08528808;-0.05166571;0.020783577;0.15864365;-0.076967485;-0.11085393;-0.09720518;0.17213681;0.08658436;0.21685475;0.16194652;-0.057611827;0.12950891;-0.1543858;-0.0049888375;-0.01940336;0.120705865;0.20379534;-0.012454829;0.07507423;-0.008893251;0.03220243;-0.110360906;-0.03125346;0.023522155;0.10300009;0.06831417;-0.12204602;0.045468356;0.13939592;-0.0050646523;-0.17503005;-0.054878075;-0.3673308;-0.22014296;0.05926162;0.15830933;-0.027860919;-0.05223169;0.19045405;-0.119412236;-0.050909225;-0.0065714926;0.07666232;0.23870887;0.25536782;0.28091276;-0.2951013;-0.3191759;0.1277778;-0.23918313;-0.15531445;0.16375314;0.069882944;0.26799706;0.041198187;-0.0059802583;-0.15400131;0.14128931;-0.14427356;0.1679132;0.10771567;0.066196635;-0.075412914;0.089625925;-0.0375585;-0.005274427;0.00019721132;-0.22140476;-0.17521057;0.39447674;-0.064183645;0.32975072;0.18761642;0.05934856;0.03180312;0.3334488;0.050918628;0.009053298;0.012312114;-0.09693147;-0.22050361;0.015672162;0.1486628;0.22764052;0.1221109;-0.08449234;-0.13345619;-0.16931395;-0.08161404;0.005981631;0.14385293;0.10062163;-0.08757236;0.13281505;0.11004845;0.08769305;-0.20845407;-0.011944186;0.05949555;0.20093685;0.12774986;-0.25406143;-0.011054159;0.076581776;-0.023056963;0.013713676;0.14192447;0.010916103;-0.06678102;0.011186239;-0.30256492;-0.04733278;-0.04042001;0.0757047;-0.06175388;0.2648509;0.063404776;-0.04517432;0.050046414;0.104389325;0.26942548;0.2829261;-0.2297963;-0.020270888;-0.08459488;0.11909448;-0.09853708;0.18373708;-0.11734309;0.083298974;-0.076101676;-0.12070512;0.067241915;0.12657337;-0.14520052;0.04006122;-0.20784035;0.019364567;0.11742869;-0.017123314;0.156067;0.12219026;0.00049754826;0.0057713985;-0.05475747;-0.03342599;0.18128918;0.007738984;-0.11867031;-0.15392433;0.11568626;0.14682217;-0.07876832;-0.027281716;0.21465744;-0.0015029602;-0.24646203;-0.029476427;0.15355836;-0.14544335;-0.15042745;0.22656856;0.09962565;0.20447138;0.024651827;0.16052784;0.045914147;0.0061290124;0.04971653;-0.115840964;0.067811325;0.18324873;0.009185281;0.3050162;0.090839446;0.24996553;0.0066545117;0.03342944;-0.02810802;0.029979797;0.0014025086;0.058736328;-0.08105363;-0.09174711;0.005296501;-0.2253652;-0.18789263;0.18836084;0.044361692;0.27612638;-0.107853815;0.13045101;0.36623734;-0.04993931;0.070001654;0.16607429;0.09153677;0.025270076;0.07462955;-0.11718701;0.14039558;0.0637599;0.21591645;-0.051899284;0.13641086;0.19763047;-0.14155497;-0.2385846;0.078099616;-0.0029037548;-0.07833619;-0.25199544;-0.12443403;0.1515413;-0.05695107;-0.021285828;-0.04542363;0.010535018;-0.053903706;0.05546132;-0.07299444;0.09856188;0.18603712;-0.041603882;0.048393358;-0.106663786;-0.03131188;-0.30659288;0.07143758;0.11256099;0.0041040336;0.06456736;-0.011861289;0.19775523;-0.060937382;-0.085821174;0.31203565;0.15131019;0.0577865;0.09794255;-0.076472424;0.048363533;-0.16247644;-0.0520628;-0.15093344;-0.023479693;0.07575524;-0.06660445;-0.031235335;-0.045385025;-0.06406465;-0.022627339;-0.46892783;0.054901566;0.05366514;0.16657546;0.09384823;0.06933402;0.13422357;0.18463306;-0.1388595;-0.09038394;0.42596936;-0.15750103;-0.14931765;0.038672335;-0.18768539;-0.02980655;-0.14316103;0.09097576;-0.09116944;-0.008681542;-0.04931132;-0.10850466;0.35599843;-0.15797432;0.076251626;0.00083928194;0.10742405;0.039704625;-0.108419284;0.045920815;0.057324413;0.023900421;0.042820115;-0.011132592;-0.1021157;0.02463311;0.0885857;0.025608761;-0.049107317;0.04397647;-0.33409142;-0.04993599;0.21653447;0.14314269;-0.06637246;0.17614791;0.1326472;0.11355504;0.2597414;0.07953984;-0.14062686;-0.043188572;0.18964249;-0.08495924;-0.18004349;-0.06318142;0.11981934;-0.079737164;0.07024792;0.11688552;0.1065211;0.0026131293;0.017079135;0.07165227;-0.13278194;-0.175543;0.012213214;-0.02626571;-0.16291638;0.04307598;0.17938818;-0.008744051;-0.044631787;-0.024422072;0.2506685;0.08999593;-0.033523757;-0.030451773;-0.099006586;0.18863231;0.13819455;-0.2631632;0.02976958;-0.20099281;0.105986096;-0.16184671;-0.27283725;0.22522962;0.295179;-0.10423953;0.15776508;-0.08892772;-0.1659294;-0.053383283;0.09087479;0.13528025;-0.049748737;-0.04753137;0.027650518;-0.15001683;0.012975599;0.11176347;0.06727822;0.03905023;0.11530215;-0.31535414;0.1399004;0.19791529;-0.015172902;0.051777717;-0.20555592;0.21979484;-0.1399344;-0.1279271;0.08857709;-0.455689;0.063833974;0.22845113;0.05392397;0.092095785;0.06148175;0.029415986;-0.10346188;0.15930453;0.1162525;0.06293075;0.09562394;0.08054545;0.04148646;-0.31384552;-0.06772166;0.04309271;-0.08230992;0.08705354;-0.068181574;-0.17466997;-0.009648945;-0.18114054;-0.09550062;0.06799796;0.11095027;-0.31470275;0.047500703;0.057562225;0.16352218;-0.15420192;0.12309175;-0.049410067;0.21150973;-0.1679246;-0.22406778;0.16008835;0.089169;0.058298327;-0.09179105;0.039637234;0.28822237;0.09372509;-0.1071493;-0.03661511;0.058042258;-0.022130955;0.020133393;0.06489602;-0.2388956;0.11655143;0.09405402;-0.032946955;-0.10581775;0.21498787;-0.16631;-0.13675144;0.045299955;-0.1263154;-0.008320106;0.10487546;0.012569105;0.0648343;0.009273942;0.123197705;-0.039961316;-0.04047707;-0.13951693;0.32718962;-0.13113819;0.15901059;-0.14678232;0.09528256;-0.04524222;0.15173776;-0.059379485;-0.15641423;0.083610035;0.018032834;0.2648752;-0.069936916;-0.10762334;0.03846382;0.09457638;0.09836917;-0.100622505;0.015541683;0.123285644;-0.26460892;-0.13684179;0.18677832;0.04974287;0.034341678;-0.1256817;-0.0045173573;0.10845611;-0.1875205;0.27778444;0.29677913;0.002005599;-0.08222787;-0.034311347;-0.09308432;0.06775428;-0.09181037;0.047327675;-0.14632224;0.13213713;-0.0053866114;0.15864888;-0.04388176;0.12471409;-0.14283185;-0.1264795;0.1302063;-0.06776729;0.0064860084;-0.22428428;0.1253442;-0.13773327;-0.06605832;0.13142966;-0.11743992;-0.21833037;0.06968084;-0.04409863;-0.1700977;0.15674257;0.052585036;-0.15103258;-0.016150584;-0.05219212;-0.07835683;-0.10470087;0.08908859;-0.11136705;0.028853292;-0.033835802;-0.11244468;0.1624341;0.046011295;-0.08883713;-0.019452052;0.14319631;-0.15920994;0.15336688;-0.002001014;-0.042746514;-0.027653204;-0.111223675;0.16292177;-0.19862254;0.09948576;-0.09913017;-0.08277048;-0.032488875;0.14688183;-0.014366658;-0.09904095;0.16727847;0.23892404;0.24334253;-0.29438168;0.22090979;-0.18942955;0.4038541;0.10576064;0.030429622;-0.01583901;-0.24530652;-0.043568492;0.1713665;0.03626125;0.007632451;0.023271654;0.32744178;0.055470865;0.15829393;0.09050219;0.2844618;-0.11436255;0.019435706;0.0033053665;0.03992974;0.12933865;0.14229153;0.032400552;0.040927593;-0.053357527;-0.005587105
Weights from hidden to output layer.
-1.8437856;1.0090836;2.6478064;-1.2569396
0.7566545;-1.2813908;-0.36558688;0.89600235
2.2477765;-2.5912857;0.3332089;0.40274078
-0.13903229;0.4859562;-2.306782;2.1722715
-0.52706033;0.3698968;-0.97582626;1.4718809
-1.185209;0.77378976;0.4079292;0.13490453
-0.8487523;-0.21308;1.4327406;-0.23095009
2.4306884;0.9152479;-4.463539;-2.8734298
-1.421007;1.5006174;0.1426353;-0.034118187
-0.5981273;0.00692668;0.2852208;0.38714978
-0.36895376;0.72426325;-1.4068756;1.0827221
0.018748067;-1.2697;1.846252;-0.003680099
-2.0929844;0.9437956;0.11268391;1.6763425
1.0980886;-0.51569545;-0.48465195;-0.84088033
-0.811578;0.33284447;-1.1918135;2.2734063
-3.5227523;3.5445447;0.49807236;-0.5067705
0.5002121;-4.0597453;6.2057724;0.68005335
-1.9779941;-0.19360135;3.3507304;0.36024833
0.72701955;1.2652354;-1.9696872;-1.5106149
0.44347534;-0.18903214;-2.7791421;2.1581595
-1.6744814;0.3087616;1.7473191;0.64436203
0.23423228;0.14968985;0.96641165;-2.3203087
0.23083042;-1.9227378;1.6826371;1.258907
-0.17809361;-2.0197968;4.0954847;-0.6610101
-0.1277304;-1.8449887;1.6059525;1.7512554
-0.12014228;1.0934876;3.4430106;-5.8695054
1.1063123;-0.24697264;1.6240704;-4.0310974
-1.3313469;-1.217978;1.7539895;1.874936
1.8247443;-1.5509076;-0.4058374;-0.0013996846
-1.4841093;0.9739133;0.022244003;0.52911216
-0.8954624;1.9191971;-2.8200963;1.45628
2.1300497;-1.4487399;-0.5976773;-0.59697014
0.02645592;0.025278343;0.025840137;0.025203545
-1.1821556;2.9282215;0.22070608;-2.9735415
-0.78689784;-0.231675;3.4908602;-2.0501487
0.011471772;-0.062942885;-0.71742916;1.2766178
0.28799883;1.1097718;-2.215085;-0.28680962
0.11617088;-0.3220921;-0.16114938;0.51355
-1.6744281;2.9326937;0.3946256;-2.2398899
-0.7850849;1.5855296;2.1402376;-4.369878
-0.24896784;1.7444708;-2.670305;-0.11361987
-0.35013023;-0.24843688;2.2989287;-1.2771524
0.13042805;1.6693196;-1.168616;-1.5593649
-0.046101067;-0.91384554;-0.20635587;2.1764188
1.7132088;0.17890078;-3.3320851;0.24704638
2.2863905;-3.3830583;1.7710396;-0.018889176
-1.0253109;1.7724147;1.2213552;-2.927635
1.4928334;0.15087406;-1.581206;-1.3144236
2.0715501;0.8025801;-6.8359585;0.5290319
-2.739443;1.5785029;2.4705968;-0.5760214
0.73373663;1.7452997;-2.8157244;-1.0921702
-0.9153975;-1.7120339;3.1207068;1.1416068
-0.16371636;-1.0035824;-0.7656838;2.9976516
0.32394692;0.931574;-3.2760565;1.5314767
-0.4091756;-2.2509775;1.3985121;3.200911
-0.27160284;-2.5002904;2.3624156;1.6068044
0.6652978;-2.1560416;-0.08922882;2.4320076
-1.2470962;2.257093;0.35644624;-2.0384762
-0.002427273;-0.25079113;0.13531168;0.6012776
0.27530926;-0.8694148;0.99222255;0.0037738068
-1.3203112;-2.4527571;0.99775857;6.8539567
-0.6653062;-0.6613575;0.535766;2.4354134
0.025618456;1.9599332;-2.08001;-1.689438
1.9171671;1.3629444;-2.7679272;-2.7779171
0.32389665;1.7060338;0.016672095;-4.170069
1.2898562;-4.141167;3.1973448;1.9312308
3.5608585;-3.8656788;-3.678861;3.7238965
-0.44659835;1.9441131;2.1552618;-4.4996047
2.7940013;0.028199118;-3.2032514;-2.884964
0.52556175;0.26663303;-0.7324259;-0.29855144
0.90331274;-0.26633078;0.9977981;-2.3499982
0.5025197;-1.801656;1.221492;0.9105657
-0.7879779;-1.5452781;1.5546346;1.9842939
-0.1564815;0.38205343;-0.64727366;0.41055444
1.6815739;-1.2704884;-5.2465043;5.0587673
0.27749;0.59448344;0.99935544;-3.243295
0.6313969;-1.6970453;2.0798955;-0.9032813
-0.35548583;0.174357;1.1874024;-1.5052406
-0.19352902;3.2697306;-2.196143;-3.584226
2.008379;1.5798694;-2.9966676;-2.9789329
1.063322;-0.548262;1.712776;-2.411201
1.2239034;0.66759855;-3.0556798;-0.3213303
-2.1596696;1.7432617;2.9296782;-2.0417001
-0.9638425;0.1485494;0.26248983;0.46431118
-1.6378077;-0.34945726;2.449088;0.45524243
-1.5182391;-1.1264715;2.170985;1.9139173
-3.2935774;1.1872573;1.3893204;2.371411
-1.5919499;-0.48241296;4.1934366;-0.71844995
-1.3625451;1.2932531;0.0201272;-0.07526555
1.1730245;0.33410773;-0.93399835;-2.2080448
0.54779834;0.59500456;-2.0170348;0.70335513
2.9683883;-2.4886982;-0.8876742;0.48278564
0.27629673;0.0017480573;0.035039663;-0.36301023
0.70076466;-0.1565918;-1.5011667;0.5644127
2.4894402;-0.29185417;-8.097309;3.0628932
1.1945319;0.37301677;2.4877687;-8.129072
-1.9155617;-0.621058;2.3286765;2.3631272
1.0677445;-3.2617798;2.4416087;1.4209085
0.72236454;-3.6034746;1.2086957;4.2527757
-0.3887477;0.23632069;0.02208349;0.04256773
0.50220084;-2.4463584;6.046134;-3.7108722
0.022058554;-2.3688898;-1.4067987;5.669354
2.6967924;-2.9088995;-0.045333717;0.114244185
-1.4815497;-0.995272;3.890161;-0.12182109
0.1469907;1.039524;-3.3579867;1.7552537
-1.6231126;-0.5435043;1.6368076;1.8802013
-0.13035819;-0.23542546;0.054399993;0.28548908
1.3543036;-1.01123;-2.2621686;1.649943
0.4443182;0.08700899;-1.7745233;1.2092644
0.16503991;-2.6170774;4.443682;-0.47526586
0.5773253;-0.5618081;1.0506175;-1.523612
-1.8703357;2.3228567;1.3914684;-2.6391742
-1.3761251;1.6412193;3.6897976;-4.12357
1.8296882;1.0808152;-3.2399294;-1.3956453
-0.64198506;-1.1441549;-0.21288498;4.9688125
1.6580179;-0.22451243;-1.2892865;-1.5093302
-0.048668448;-0.048980653;-0.048794486;-0.048771754
0.6857884;-1.1092474;-3.551136;4.887895
-1.2999284;0.9268756;4.3660917;-4.2223125
0.013543966;0.72235435;-2.782786;1.6284645
-0.1657729;0.7116257;0.5162546;-1.544379
-0.005516161;1.2755396;-1.7836453;0.20277756
-0.8016276;-0.22787093;0.78939617;1.6736403
-0.01733401;-0.017024724;-0.017307214;-0.017898694
3.3771994;1.4570289;-1.3111253;-8.547208
0.26765898;-0.007914478;-2.179815;1.6256427
-0.2936134;-0.67208785;-1.4225225;2.461913
1.6425631;-0.10281233;-1.8872018;-0.9017154
0.015279237;-0.1284261;1.1554605;-0.97538996
3.0860162;0.56208557;-5.804172;-4.122709
0.90419805;-0.10642434;-3.8565423;2.3228111
0.8270621;-1.0905474;0.50824046;-0.070854545
-0.9409169;3.4991164;-4.511228;-0.16624889
-1.1482852;-1.4567574;3.4724913;-0.0807473
3.3047435;-0.7834716;-3.6520078;-1.3655097
-0.8257362;0.86093575;1.6765114;-1.9970791
-1.08797;0.9321868;1.8782241;-1.6830746
3.2298753;-5.7177444;1.3171425;3.1560466
0.70059294;-0.4767662;2.7096314;-3.9271429
4.1402736;-2.0745277;-1.2389331;-2.3403726
-1.8985016;2.444269;2.1975148;-3.3787515
-0.5055603;-0.2216735;2.3321419;-1.3629779
0.8136691;0.4171612;-2.1206622;-0.44182676
-0.28933874;0.48681828;-1.4838358;1.3743402
-0.0037351293;-0.4533595;-0.22071144;0.8564358
1.4449337;1.8712381;-7.5767074;-0.47672904
0.24524705;-0.24765828;1.1237307;-1.3266101
-0.33536205;-0.26843235;-3.4956155;4.806707
-0.21548077;-0.9703939;-0.5903464;2.5468276
2.5831537;0.83147115;0.367137;-7.991552
1.1443334;-2.686061;-0.9025714;3.627502
-0.3738321;0.13112657;-0.30155092;1.4274055
0.7511637;-0.8512852;-0.9370644;1.133448
-0.20138748;-0.67929214;-0.90092474;2.5756793
0.362001;-2.2777088;3.1093574;-0.59923774
-0.21293218;1.3478136;1.8380077;-2.9178674
0.68585354;0.79406947;-0.28935412;-3.2503338
-1.4943293;-0.18100093;1.4706818;0.3169249
-2.5920444;-0.21863756;3.975984;1.3830488
0.22826687;0.1249933;-0.24041694;-0.05982202
0.08111294;-0.35706925;0.22357707;0.35778588
-0.15113676;0.40293768;-1.4627182;1.2965807
0.98249584;0.8226965;-1.6128315;-0.6974822
1.2166029;-2.8594658;2.7463856;1.2185684
-0.053935643;-0.053583708;-0.053257246;-0.053484105
0.6739169;-2.889043;1.8288984;2.6944768
-1.236533;0.6261808;0.27871493;0.37015253
0.9166439;3.1042664;-3.3296566;-3.907977
0.9890728;-3.8471134;4.3817515;0.4308383
1.923984;-1.8941343;1.3731092;-1.2567071
-0.33882844;-1.6423863;2.5521915;0.27670023
-0.56345505;-0.80290157;3.8633935;-2.1752844
-0.20914967;0.69238544;0.3528657;-1.7122182
0.04543254;-0.6789989;2.9794095;-2.3478777
-0.50514597;2.318331;-1.4647777;-1.7147915
2.074862;-0.47270057;-0.117150165;-2.9453769
1.4739116;-3.7926893;1.1787665;3.3219466
1.3556601;-2.2045972;-0.17408164;1.4369906
0.8779362;1.3134055;-2.8780963;-0.70933145
-0.13739672;-3.0271468;3.90802;2.1998918
-0.15445776;1.3397492;-0.4521644;-2.4017704
1.7602917;0.8629742;1.4721702;-8.21195
-0.5236656;0.6100559;2.6886933;-2.7022128
0.2745401;0.022318298;0.42996985;-0.67959213
3.7556717;-2.028241;-3.6089625;0.5602719
-2.3543906;-0.17811005;4.007731;-0.30668506
-0.21134536;1.5849675;-1.525941;-0.6855371
0.37662143;-0.52954;-1.5349809;2.6728535
2.053887;-3.620011;3.4277997;-0.43168005
0.91081166;-0.9865905;1.6337351;-2.0380092
2.6345263;0.9480832;-9.879502;1.8211302
0.98244613;0.578284;-0.7300926;-2.756763
-1.0908436;0.52587235;-0.37348023;1.0078763
-1.2856611;2.9709976;-1.8023584;-1.0049111
-0.2109703;1.6945004;-2.9297013;0.03291025
0.059612878;-1.3626812;-0.25194347;2.2594078
-0.5344142;2.386422;-2.8882148;-0.22847447
0.20473857;2.1177776;-7.394497;3.171796
0.14733455;-1.8747958;1.5587723;0.7429746
1.3472497;-0.94524974;-0.6347629;0.006818205
-1.1947552;0.14808317;4.054707;-2.752156
0.48055908;1.1520298;-2.2383263;-0.5317625
-0.5673107;-2.2791057;1.5237596;3.3049316
1.9267051;-3.4333758;3.266475;-0.8690146
-2.937946;0.25909635;1.7645113;2.8045526
-0.20508748;0.16348691;0.1335936;0.033039466
1.1714213;-2.251062;2.0872552;-0.62727714
-0.13190268;0.35273835;-2.1570373;1.9578835
-0.654226;1.4768819;1.7844733;-3.2892656
-1.3843626;0.005701115;2.0678458;-0.43174607
-0.56613165;2.7254014;0.74277014;-5.9671307
-2.4785106;0.4393532;1.6019018;0.91140205
-0.43860105;-0.23601118;0.2854376;0.61547995
3.7362623;-2.6914117;-2.4554422;-1.0569177
1.2890188;-2.2752388;-0.7283857;2.6992931
0.12989968;0.25060922;0.520158;-2.2112098
1.4193369;-0.15939671;0.25009757;-3.0427184
-0.19151953;0.65455854;0.09608529;-0.969271
-0.80740416;-1.0976787;1.7599994;2.229831
-1.8131112;0.81948775;-2.3765426;4.3966675
-0.38164023;2.2362642;0.13149843;-2.9225087
-1.5768732;2.4434772;1.7946763;-3.9119182
-0.2815296;-0.6367777;0.82111865;0.1225618
0.8316031;-2.4796762;-1.4031165;5.7666063
-1.0661747;-0.48672205;3.1509755;-0.47038755
0.14298882;2.1080077;1.4186933;-5.143874
-1.1306034;-1.5446235;2.2856724;1.2186497
-1.5944527;0.81889766;3.569581;-2.1422098
0.08535454;1.7416356;0.439641;-4.4839926
0.28011417;-0.37780267;0.9874622;-1.1901704
-1.1417499;-1.1240032;2.808588;-0.0765488
0.18431082;0.0013176836;-0.045445602;-0.3061653
-2.5292993;0.97569287;1.8856895;0.69860345
-0.70810944;0.13235565;0.83648753;-0.21704805
-0.8987693;0.055253103;1.8719783;-0.5832801
-1.0268598;-0.19186796;-1.1943436;2.854563
0.5827915;-0.87848985;-1.2562759;1.4539055
2.7515624;-3.7510355;1.7720512;0.43317726
2.7555025;-1.831996;-0.31674656;-1.259651
-0.14061709;-0.26557028;0.09224384;0.5697808
-0.6943048;0.5900742;1.1319363;-1.2503909
0.37744325;2.49776;-3.8732219;-1.54565
-0.050260533;0.43386656;0.39614123;-1.8777505
-1.529048;3.4418538;-3.3796694;-0.510563
-1.3405648;-0.30869123;1.2052476;0.9868588
0.043119993;1.5996326;0.43257967;-4.02983
-1.1573229;0.78206015;2.2889702;-1.9876022
-0.5328009;1.7073777;-4.9576488;2.7045662
-0.06850018;0.35378057;2.247542;-2.8721583
0.81831276;1.7076886;-4.8889627;0.39494774
-1.0814652;2.0051105;1.5964421;-2.7752883
-0.1290154;-1.990188;1.0842756;2.1994638
1.5222186;-0.83645695;-3.1704633;2.502434
-0.08582034;-0.065623075;1.1146232;-0.73771423
-0.13188295;-0.4548738;1.7108388;-1.1695575
0.8851716;-0.59369814;-0.5049303;0.03827027
-1.0358301;1.6991918;0.58666164;-1.3280007
0.11402501;0.43853495;0.3670243;-1.6668123
1.8946697;0.7285198;-2.2564194;-2.890149
1.5051141;-0.13749878;-2.8753693;-0.61435986
-0.637901;0.8363662;2.213238;-2.5186102
1.4913028;-0.5697618;2.1549368;-4.5935802
-0.8369682;0.41054273;1.714031;-0.84713554
-2.30236;1.262121;1.5994691;0.5173235
1.6300046;-1.9448777;0.5148327;-0.057303455
0.47817263;-1.4237694;3.183146;-1.5339991
0.2757048;1.5552676;-2.7782598;0.36493546
0.25174618;-0.14427207;1.2134179;-1.3184491
0.30915904;-0.45937878;-0.2842594;0.51272696
0.1661704;0.12957636;0.12743732;-0.5814361
0.4526779;1.5694984;-2.3295188;-0.5497896
2.609092;0.16939801;-2.1655304;-2.7241724
0.19221753;-1.3177545;1.6059273;0.19902761
-2.0877922;-0.41436934;1.5320262;2.5208755
1.8002656;0.65724856;-2.7198856;-1.0788485
-0.67267525;-0.5098639;2.0378544;-0.4029258
0.056482855;-0.12353801;-0.18463013;0.28614756
-1.3716047;-0.68513864;-0.074310265;3.4904149
3.7487428;-1.6730999;0.5255378;-5.4785237
-0.17201744;-0.5950738;-1.0252831;2.342315
0.105961725;3.2344458;-4.489829;-1.069411
-1.584564;0.41384134;0.83602005;0.5704224
1.8630072;-0.6882205;-3.1572566;1.270161
-1.3800094;0.7520905;0.65489835;0.70834476
0.78454566;-0.42137906;1.2597111;-2.8314319
0.120738566;-0.61694676;-1.2039919;1.9477204
0.30500093;-0.031067993;0.036574125;-0.9656256
-1.0256238;0.3868915;0.98488384;0.30843106
1.0206246;0.5599587;-0.9858689;-1.3016769
-1.6360674;1.0186542;1.8285317;-1.2723311
-0.5512926;0.016944036;-0.41723263;1.877362
0.87517107;0.33422107;1.2358675;-3.3796499
0.26078144;-0.36075976;-0.23495567;0.41150758
-0.57450074;-0.29502344;0.59351254;0.6057898
1.5354416;0.40955746;-1.0840421;-3.375872
-0.3767889;0.03111715;0.033409312;0.6808754
1.7299218;0.35762462;-2.7359576;-0.91028917
3.0947795;-0.6675938;-2.6089747;-3.8711107
-0.56654936;0.5385194;1.3664287;-1.9522146
3.6998608;0.86955583;-6.2184014;-3.181642
0.34632283;-0.8268915;0.47828254;0.14231637
-0.5049601;-0.11171137;-0.22165301;1.4356517
-1.1182997;0.595503;0.7419249;0.053964794
-0.4523602;-2.6517832;2.883281;1.8363008
0.6541446;-0.2607596;-3.033005;2.5464885
-0.7486907;-0.9248144;2.0906923;0.26753595
0.8448893;2.3555803;-1.1188706;-5.7725887
0.52044904;-1.0249614;1.2181274;-1.090877
-2.028047;0.80806595;-0.5879724;2.7479036
2.9792638;-2.930699;-3.15669;2.6874478
-1.1833391;-0.83595926;3.3944838;0.054613538
-0.124192946;2.2265308;-0.24946325;-3.4756687
-1.6563755;0.7632841;1.1762189;-0.012978961
1.9333452;-3.2909052;3.2578664;-0.9855947
0.26236546;1.0542891;-3.2609127;1.2925242
-0.42885947;-0.31614563;0.467825;0.5182916
3.8521154;-2.7100961;-1.8371584;-0.4539984
-0.39424986;1.2874799;-1.5894977;0.41480246
0.57205427;-0.22951666;-4.3244114;3.9196389
-0.29198024;1.4934675;0.8503125;-2.889416
0.83164465;-1.2067841;1.2287024;-0.87363577
-0.5874465;1.2276033;0.59245044;-1.456277
-0.08255316;-0.15096407;-0.091514155;0.36892697
0.024741743;-0.014592359;-0.68816966;0.3909775
-0.99229145;1.4799426;0.24966456;-0.9623975
-0.12511446;1.3705465;-3.4351113;1.3381567
-1.4210808;1.1141423;-1.9109863;2.5805316
0.27548984;0.8343559;-1.2563323;-0.15855995
0.074783765;-1.0013564;2.0905745;-0.24388203
-3.0316823;0.99143237;0.9980254;2.2296789
-0.34017885;-1.8531677;1.9329134;1.9426587
0.2668798;-1.1213763;0.28237054;0.8616278
-0.57743186;1.1587225;-0.5288314;0.08738418
-0.023951579;1.4343859;0.962355;-3.1309376
1.4359698;-0.07947738;-2.2119198;-0.07939714
-2.5472317;0.5864182;4.7095237;-2.0541966
-0.8936302;0.40031663;1.9073398;-1.3587792
-0.98724693;0.14809625;-0.7781616;1.6997311
1.042944;1.0272636;-1.0517524;-2.7269983
-0.77781;0.7102178;-3.7054784;3.9015527
-0.30482805;-0.30025297;0.098209;1.6423666
1.882971;-1.8068249;-0.42532402;0.31567806
0.353994;1.8447382;-7.788713;2.7384906
0.14705686;0.77006316;-0.5622584;-1.2093784
2.7413616;0.84335357;-0.5621737;-7.642657
-0.0045874375;1.4284216;-1.409909;-0.17315118
0.6939713;1.0762732;-0.9649766;-3.3956797
0.28536034;-0.16407602;1.9938042;-3.1322494
-0.12743875;0.8801983;1.3187724;-4.210517
-0.52432007;1.4058651;-0.3337958;-0.8759948
1.4591746;-1.9253415;-0.15608455;0.8198938
0.69337994;0.9620821;-0.3266926;-3.5414832
0.9650719;-2.970718;1.5031302;2.4391692
-0.2502792;0.29161078;0.4238799;-0.3334023
-0.37310687;-2.2108655;1.7370262;3.3211076
-0.4745535;0.8363932;-3.3286364;2.8631294
2.8062196;-2.5980334;-0.014638104;-0.6961437
-1.3853476;-0.34728202;4.861451;-2.2352982
-0.32032454;0.48165664;1.2168517;-1.4653455
4.106784;-1.4849453;-0.8781279;-4.663979
1.1742313;1.1156887;-4.382183;-0.24705216
1.3178973;4.5814743;-3.963187;-8.934142
-0.10319354;-0.09238827;-0.051149;0.506982
-0.36358154;-2.3096733;1.414749;2.5207088
2.1252189;-3.8729105;-2.2910016;5.2469106
1.9114528;0.20281515;-3.2927558;0.054112434
-0.9934729;1.4799148;1.1370051;-2.243631
0.91518945;0.5338243;0.95392156;-4.642724
-0.7596353;0.06537143;-1.2662036;2.8337502
0.37155154;-0.17782623;0.3862367;-1.10263
0.0066207577;-0.36326596;0.79670346;-0.23840123
-1.1955473;0.5393711;-1.6411779;3.1095936
-0.3777208;2.5478652;-3.7211914;0.2412848
1.7616955;0.9167148;0.1770199;-6.2803597
-0.21656093;-1.1947745;1.1844798;0.9781607
0.5665444;-0.3206951;1.3218095;-2.0038218
0.32733;-0.9238699;-2.6516793;4.031266
1.400536;1.0278531;-2.574533;-1.1790792
-1.0231785;4.267515;1.1270617;-7.326927
0.6538608;-1.0062538;-0.008206682;0.5129136
-0.3177949;-2.0238502;2.3393908;0.9214181
0.8789721;1.893608;-5.142226;0.46483633
4.341093;-1.467854;-4.6104736;-0.81003106
1.2686065;-0.8028071;-1.7592082;0.51683486
-0.8693027;3.366934;-4.744091;-0.18255407
-0.1841716;-0.32570508;-0.29925847;1.5789714
4.2404237;-2.3956604;-5.9310813;1.3292562
-1.019994;1.6979727;-0.6318661;-0.128931
-0.56301975;1.0326049;-1.8915418;1.3711007
-0.19601345;-0.042613134;1.5067778;-1.3966352
2.5082197;-4.386705;1.0799221;2.4237447
-0.2942449;-0.34566537;-0.24185966;1.955641
0.92589015;0.5661119;-0.31076103;-2.9852977
0.0040906104;1.739092;-1.9092689;-0.63138765
0.9845083;-2.2225444;2.998147;-1.1346061
-1.0215828;-0.85095364;2.3421953;0.98246235
0.39616898;-0.9383497;-1.3460159;1.7870364
1.4451883;-1.6762712;-0.8121967;1.0493402
-0.030059995;-0.057127543;1.4245892;-1.2799257
0.7573732;-1.9156451;-2.255461;3.6910944
1.4417232;-3.999797;5.3249927;-0.9405678
0.421151;-3.1474557;1.4486319;3.7199562
0.6493672;-0.15990245;0.1935815;-0.7782554
0.037247423;0.019703075;0.8442599;-1.1833729
0.9121794;1.5805695;-2.313357;-1.0258962
0.7707263;-0.21739227;-2.246742;1.207978
-0.97666675;0.49844632;0.2815555;0.5120398
1.1838611;1.1713679;1.0415512;-5.1284766
0.3937226;-0.92169756;0.2924318;0.44688472
0.5207275;2.3368757;-2.226915;-2.4580245
-0.65595;1.5165753;1.3769217;-4.912064
0.53358275;-2.1394598;2.7965431;0.027285887
-1.1580381;0.15485781;-1.6631804;3.411429
-0.48268262;-1.0872554;0.044150785;3.0817842
-0.7468133;0.5948608;1.5194545;-1.5605947
-0.27306822;0.5087308;1.84142;-2.9101512
1.001673;2.7496161;-2.8102715;-4.1516924
0.28374857;-1.5977895;1.8580716;0.16899922
3.1518495;-2.109911;-0.40201947;-2.5979733
1.2062237;-2.5386274;1.9288467;-0.044372853
-1.4139767;3.11653;-5.266752;2.4934764
-0.29127488;-1.3101343;1.602097;1.4917282
0.6332548;0.82338166;0.58651155;-2.726395
-0.25268847;0.109358616;0.15473877;0.06664273
0.01759179;0.9184036;0.25803694;-1.6072252
0.70104736;-0.14966254;0.9013894;-1.4846728
2.565231;-4.998058;4.0719075;-0.2786382
0.23191305;0.36536485;0.34841004;-1.5271556
0.58618766;0.22221719;0.44265425;-2.2201135
0.5392795;-2.1744235;-1.275665;3.2392993
-0.25195998;-1.7388468;1.5986377;1.0266477
-0.9457766;0.8036181;0.4291977;-0.17798401
0.8910874;2.1598918;-4.2243967;-1.4647378
-0.13567954;-1.8806458;4.071586;-1.390688
0.4643612;1.8865476;-0.26203054;-5.0733657
-0.19080974;-1.2336715;4.973467;-3.3147218
-0.46608004;1.047929;0.30689323;-1.4354056
0.9874957;0.19286755;0.3965334;-3.4378102
1.0260459;0.24236564;-2.6828754;0.5161885
0.12429556;-1.2558073;3.448234;-1.2185307
-1.9899191;0.6106957;1.6693518;0.9620114
-0.32165813;0.23750336;2.9601653;-3.8987164
0.9368761;0.5138237;-3.990221;1.0190889
2.1097393;-2.5462508;0.46972162;0.33034194
-0.1762787;0.5723964;0.11003197;-0.9191766
-0.46567202;-0.22681229;0.7138887;0.19614655
0.061863657;-0.22135034;-0.56941307;1.0284252
0.13853125;-0.24392118;0.19008562;0.11404322
-0.28021476;-2.1829526;3.265683;0.73271686
-0.3223041;0.8738213;0.48728466;-1.9702326
-0.22502132;-1.047187;0.26883647;1.7175361
1.0878835;-2.5036395;-1.6528803;4.4439793
-0.5242442;1.1397108;1.3409824;-2.5424368
-0.7425436;-1.0623486;0.4396654;1.9700832
-1.1001107;0.018796027;0.6569796;0.65577805
-1.1830518;2.1511977;-2.6316018;1.2559739
-0.2631519;-0.14239013;1.9901617;-1.5460924
-0.7936853;0.46520343;-1.1234734;2.2570493
-0.34179965;-0.47538692;-0.98101115;2.1820729
-2.5702822;2.0547662;-1.5607244;2.7358346
0.6051347;-1.740616;1.3394195;0.2984716
1.7572465;-0.21695705;-3.7395537;1.1923717
-1.875399;0.7633715;1.5857605;-0.013504997
-1.4251139;0.18806729;-0.4847241;2.2512174
1.0029094;-1.2172083;-1.5434598;1.8371521
-2.1687722;0.40009;0.55731153;3.2020812
-0.24156854;0.4964385;1.9074569;-2.353579
1.6454307;-2.6965241;-1.0365418;2.3626976
2.5667965;-2.176836;0.6782954;-1.4874171
-0.11296789;-2.9158604;5.594001;1.0730927
-1.1713052;-0.057562012;0.5997694;0.76163536
-0.09434878;0.98438203;0.32752833;-2.5164213
-0.05642759;2.71747;-2.3770897;-2.3626132
0.6529509;2.0140505;-5.9438777;0.5053987
1.5069579;-0.06732589;-1.0155648;-1.9595264
0.77527046;-0.38899127;3.6179;-5.018288
-1.0268801;2.029858;0.8466357;-2.5823905
-0.5222812;-0.92617434;2.4427063;0.24967314
0.12200136;1.3031787;-2.7037911;-0.38104022
0.27308244;-0.36822307;1.2777724;-1.1790507
-0.02640141;-2.0251255;0.5794466;2.8402748
0.9397129;1.5126022;-5.7207317;1.5101079
-2.4916553;0.6356576;1.0417312;1.1888863
3.7742593;2.0974028;-7.3954787;-5.397987
-2.1521733;0.44521677;2.9281766;0.17846212
-0.36523727;-1.5844331;0.97229826;3.3769848
0.8472436;-0.6938733;0.20669463;-0.8265688
-0.36092168;-0.37358934;2.0708978;-1.5360265
1.4501134;0.8901465;1.0906373;-6.256959
0.18748967;-0.32497394;-2.0012972;2.5578656
-0.32163653;3.388953;-3.1025941;-2.643622
0.26185063;-1.9921036;2.1394844;0.32875144
-0.14754203;-3.5733135;3.1929505;2.9537532
0.0040843473;-0.7900925;1.8015546;-0.5620939
-0.17579462;-0.55298346;-0.10618716;1.2998114
1.3364784;-1.8417584;2.5543518;-2.3804255
0.25850543;-1.9664949;2.0116317;0.0032952197
-0.7283729;0.8354536;0.28540245;-0.23572949
0.34877476;-1.5976187;1.2193586;0.28142723
3.4409735;1.296957;-6.155503;-3.031149
-0.10965123;-0.23272343;-0.5030199;0.951592
-0.87115115;1.6822623;-0.46089017;-0.63838774
1.3616569;-1.7057724;-0.0732716;0.5948912
-0.9042299;-1.9471198;4.8614388;0.14390482
-0.52562475;-0.28903404;-0.77645034;2.5207186
0.34351233;-0.83079726;2.020366;-1.3293071
0.19478126;0.3258481;0.59626216;-1.9176036
-0.4463398;-1.2020679;0.9853551;1.9634691
0.27534178;1.1285465;0.4903225;-2.781233
2.874681;0.6133601;-8.923259;1.3696312
1.5991693;-0.08977688;-0.467166;-1.3989949
-0.56204945;-0.05416813;-0.08443696;0.9345821
-0.41145238;-0.42804617;-0.07230526;1.7248906
-0.96976525;-2.0112286;2.6939979;1.7537789
1.4257351;-2.395018;1.2796768;0.51464164
-0.51199347;0.20115966;0.051918887;0.17048872
-0.5247071;-0.6888735;1.0860497;0.8469093
0.11703208;-1.0768299;2.223022;-0.6120619
1.4788202;-0.64727914;-0.8148593;-0.45542774
-0.26380557;0.2524309;-2.502407;2.7969701
1.4234918;-1.0282023;0.0228162;-0.49135193
0.3040944;0.51833284;-3.6844952;2.48225
-0.52257675;0.5632176;-3.5239007;3.1032019
-2.4869995;5.126259;-1.5631196;-3.3501196
0.16069388;1.132047;-2.8520112;0.7988898
0.27801153;0.9812741;-5.5105515;2.8072186
0.90340906;0.75446856;-2.1419008;-0.35322043
-1.533284;2.8387437;-0.845315;-0.9743606
-0.08480176;-0.17387971;0.4511806;0.19978456
0.31953076;1.8079376;-5.289442;0.90240824
-2.134026;1.9776349;-2.8194144;3.3971171
-1.1430949;1.0630007;2.208261;-2.025706
1.8669649;-0.4560554;-1.9568844;-0.57864136
0.6351742;1.3530182;0.341914;-5.0217547
0.10084958;0.9137013;0.47981024;-3.4573607
-1.5305824;5.266516;-4.4646606;-3.384058
0.49538222;1.9866527;-2.0181913;-1.6368539
0.8047997;1.2503848;-3.4129221;0.43320894
0.09732478;2.344866;-6.0658164;1.5704507
0.04920464;0.73534054;-0.08748144;-1.8583943
-1.742501;0.315476;1.983883;0.02787053
1.217817;0.37178215;-0.9034921;-2.2163556
0.91596943;0.28308743;0.33624563;-2.3293808
-0.25904006;-0.49076992;-1.1363468;2.365582
-0.0013477344;1.9827275;-2.9267173;-0.18468247
0.61705583;-1.1874866;-0.40701613;0.98193467
0.89861083;-1.2109926;-0.24212189;0.4061176
0.1516325;1.5013372;-1.9790274;-0.872868
-3.342264;-0.059157982;4.5074997;3.7446902
0.42686787;-1.5926936;0.17214124;0.99178874
2.3732283;0.020585006;-1.5565628;-3.1645324
2.4548247;1.0516007;-10.895403;2.8384209
1.8508526;-0.26622382;-9.806633;6.083667
1.4324939;-1.7853254;-0.56243336;1.4382653
0.06420851;1.7900743;-0.36342943;-4.466521
2.3342552;-4.2854743;0.1622257;3.9665017
-0.31465366;1.5380725;-2.334042;0.69395745
-0.22120443;-2.0496562;1.9954294;1.1400352
-0.3288648;-0.66526794;2.7375574;-1.6729257
0.70105374;0.08941854;-2.3718157;0.9535354
-1.216544;0.66279113;-1.2926646;2.261894
-1.474747;0.5935087;-2.8371923;4.536373
1.2258108;-3.444088;1.3222985;2.0606527
0.39075917;0.5613965;-1.3545302;0.33117056
-1.6193876;0.57765746;1.5219166;0.11134199
0.65666854;-0.31462064;2.6738877;-3.5027926
-0.3812282;0.1834678;0.09073599;0.12950626
-0.1146329;0.2966891;-0.25821897;-0.06463486
-0.82861227;0.2833647;0.7159836;-0.016574938
1.0351797;2.5907342;-4.264623;-1.3853627
0.32670993;-2.0814164;0.6738868;1.8857436
0.15703925;-0.50031316;-1.2748741;2.0068827
-1.3420635;0.40425873;1.1924441;0.260861
2.403561;0.04455281;-2.3615646;-1.3836879
-0.27893472;-0.6879667;1.3214325;-0.021726016
-0.8219755;1.7110999;-0.13021754;-1.6532103
Bias from hidden to output layer.
0.041023403;-0.014641708;-0.066775724;0.028004918
