Weights from input to hidden layer.
0.116298564;-0.11260187;0.0629841;0.06386632;0.02627669;0.13801381;-0.19614954;0.090152875;0.048323467;-0.077078186;0.013991993;-0.10574329;0.031062216;0.39352337;-0.14190438;-0.43712854;-0.7881475;-0.15817942;0.5358217;0.25205663;0.072175585;-0.012528069;0.07954048;0.040389333;-0.11898633;0.030030793;-0.0065197847;0.20377174;-0.40007243;0.23717012;-0.27598336;0.037797965;0.22199638;-0.5652866;0.09352596;0.45846143;0.36877957;0.013824008;0.12839273;0.40246156;-0.06611963;0.039327737;0.006397364;-0.33987752;0.055142898;-0.047713093;0.037646685;0.3140491;0.4328315;0.038782485;-0.01391204;0.44094074;0.27596742;-0.09221048;-0.040099733;-0.04470309;0.03733026;-0.37532654;0.5970601;-0.17147698;-0.006613074;-0.3063921;-0.02229581;-0.11766775;0.10905992;0.27822;-0.06075252;-0.106165774;0.1257517;0.0017481664;-0.4090071;0.01331682;-0.019135468;-0.043183886;-0.2889831;0.35265258;0.0015137908;-0.40230772;0.68035555;-0.030123632;-0.045440022;-0.24239299;0.17145976;-0.3523641;-0.09156976;-0.16638963;1.006986;-0.06286149;-0.015791064;-0.024647042;0.049466945;0.26943547;0.2781778;0.098995596;-0.15661478;-0.5607559;0.058930203;-0.70733356;-0.21634004;0.5131097;0.0072094575;0.4275677;0.37229866;-0.004984099;-0.03313788;0.15249665;0.00086498284;0.8670515;-0.24399514;0.010033661;0.18895236;-0.18667005;0.28540286;0.32067445;0.756486;0.2502266;0.007929244;0.6471323;-0.009696626;0.78659046;-0.10393692;0.06106446;0.56371087;0.019414075;-0.005340502;-0.040326647;-0.06131526;0.16545111;0.005932577;0.25633264;0.15251476;0.33138758;0.5995972;-0.63361853;0.018886281;0.045263685;-0.25990775;0.0067193857;0.011308959;-0.073008984;0.03085008;0.77811843;-0.5695177;-0.1256719;0.00061004923;-0.30888188;-0.13646334;0.008207697;-0.1333211;0.2185259;0.000717611;-0.045907743;0.00760355;0.042854026;0.068132095;0.02474094;-0.0023020345;0.66081107;0.7099838;0.085841656;0.3860391;-0.034298856;0.12305115;-0.013539905;0.07005244;-0.1400363;-0.067117915;0.01829543;-0.08353806;0.114485644;0.4943571;-0.00948774;-0.07326856;0.58270425;-0.26979432;-0.392271;-0.08066886;0.062325247;0.08414884;-0.013065069;-0.018795384;-0.022172205;-0.19825925;-0.038674966;0.40306756;0.512404;0.033652227;0.37439102;0.18374029;-0.03868797;0.4464484;0.049221724;-0.1833095;-0.018663544;0.046795208;0.2593118;0.30880213;-0.086838946;0.18105108;-0.069967434;-0.2068611;0.16444716;0.4638257;0.012532113;0.15159598;0.03675653;-0.13822685;0.050223075;0.28408372;0.009365059;0.035495747;0.09706319;0.07060659;-0.07295646;-0.39720467;0.06850531;0.2587323;0.42514852;0.42265874;-0.41213235;0.01895643;0.31334293;-0.6200515;-0.059199456;0.052484322;-0.046940263;-0.030210318;0.31022385;-0.0030189643;0.2526818;-0.1089101;0.01201505;0.07924012;0.81817424;-0.362109;0.59853065;0.21788709;-0.04083178;0.3966026;-0.26331115;-0.081911184;0.049940947;0.064176135;-0.054499052;0.42071658;-0.15179761;0.0076821903;-0.065341175;-0.4814846;0.09517885;-0.07426197;0.26447028;0.10888447;-0.29652455;0.29352745;-0.14952908;0.6907486;0.07549459;0.4927592;0.6110203;-0.09929247;0.0110287815;0.40876907;-0.50190824;0.7165757;-0.004959722;-0.20258614;-0.10879779;0.15736768;0.07042623;0.09838066;0.40927604;0.0058029047;-0.20588963;0.17033833;-0.077677466;-0.06854581;0.12253372;0.16858771;-0.19867007;0.040524524;0.5862891;-0.5743484;0.94221044;0.59309703;0.5600801;-0.4068759;-0.68780416;0.6351941;-0.482662;0.03369504;0.54817927;-0.29736015;-0.31581432;0.21394496;0.0044618584;0.048028357;0.05666374;-0.6033918;-0.06132681;-0.2671735;0.020645602;-0.04641134;0.66708827;0.07758503;-0.09624366;0.046621956;-0.2985382;-0.0040725223;0.42864123;-0.071008146;-0.03250858;-0.5138734;-0.3009089;0.15329787;0.22853494;-0.32252383;-0.112325184;-0.19700554;-0.038714528;0.071716376;1.0512949;-0.13004193;-0.030272909;-0.08924732;0.7472929;-0.31961295;-0.01833251;-0.025006495;-0.39800504;-0.0067978944;-0.63610756;0.2733066;0.12575507;-0.16106638;0.010235728;-0.3459551;-0.02941883;-0.5754434;-0.009598958;0.20278323;0.013991342;0.12182949;0.2765009;0.39066118;0.28349626;-0.0013194967;-0.06991386;0.0034572075;-0.06779201;-0.03506035;0.124656305;0.39033002;0.10605921;0.028880296;-0.18586756;-0.3006916;0.44604212;0.71556664;-0.44239175;-0.1202754;0.17426878;-0.043227114;-0.057940982;0.029656809;0.45450294;0.48157316;0.07148136;-0.26401275;-0.017249838;0.08577966;0.20706086;0.1850649;-0.037762;0.7237789;0.55264544;0.35069582;0.38876876;0.049184643;0.08017676;-0.07231095;0.02652682;-0.07186668;-0.04421569;0.032026213;-0.4148182;-0.034235384;0.0129596945;0.052562855;0.32850942;0.2534942;-0.29686052;0.29786712;-0.24932857;-0.013335005;-0.38030118;-0.047885586;-0.013896568;-0.03936746;0.1471289;-0.019126406;0.09409493;0.2053338;-0.08327278;-0.67317724;0.22773805;0.50124186;0.74623835;0.6274991;0.24553211;-0.09557535;-0.017758964;-0.024115333;-0.3386055;0.0013912697;-0.3930947;0.040347103;-0.059556313;-0.05798769;-0.41222918;-0.049495816;0.34964412;0.010835816;-0.2863188;-0.09788893;0.018776119;0.40107235;-0.11413291;-0.08631384;0.2110176;0.024467528;0.20452353;-0.0009116058;-0.1970635;0.008891459;-0.19661456;0.5551579;0.2728918;-0.04703555;0.098349564;0.13844001;0.14217252;-0.6600759;0.048567664;-0.48216775;0.267776;0.06540226;0.90068996;0.068247736;0.1271116;-0.624786;0.47839084;0.3986857;-0.009658209;0.36052224;-0.026522335;-0.26514825;-0.26626065;0.13507017;0.5236605;0.015463112;-0.22929771;-0.09908117;-0.19378915;0.4369982;0.9905108;-0.06542444;-0.11490593;0.72369105;0.07630755;-0.3425926;-0.043695815;-0.022598721;0.51419306;-0.014872958;-0.07220821;-0.04247533;0.017880691;-0.004849976;0.009130484;0.14516686;0.5316154;0.120254785;-0.7743607;0.059059214;0.07202836;-0.116697475;-0.24145937;0.58375573;-0.14688577;0.07855584;0.43654257;0.11277909;-0.1887843;0.057345543;0.64073104;-0.16320455;-0.006253618;-0.070569605;-0.08751225;-0.016137354;0.088475145;-0.1862107;0.0028958889;-0.2098296;0.031451464;-0.23144831;-0.2137852;-0.084043436;-0.010773753;0.2544116;0.17189151;0.0043825433;-0.28827274;0.018672423;0.19914806;-0.015098658;-0.30506834;0.23807593;-0.059174147;-0.24240974;-0.87502867;0.014095495;0.22162384;-0.78037447;-0.08742528;-0.17816333;0.3504442;-0.34053674;-0.097993545;-0.15673964;0.014003991;0.028754357;-0.76330465;0.39104313;-0.041236475;0.18452778;-0.080045454;0.016811829;-0.51801014;0.017571857;0.08335977;0.5886631;0.030545011;-0.037713088;0.122475676;0.11345922;0.010159037;-0.2351936;-0.26972234;-0.04563918;0.12930746;0.017795939;-0.39697635;0.056007095;0.5015074;0.48102257;-0.39538127;-0.35592756;-0.011823358;0.23419872;-0.25724593;-0.31333742;0.16033529;-0.38088617;5.3126678e-05;-0.042392384;0.20551091;0.039100934;-0.0582471;0.03592764;-0.1944452;0.05652524;0.033154827;0.013584773;0.19386007
-0.069129266;-0.10554629;0.21453185;0.08182706;0.03220174;0.0017201093;-0.06535379;0.0770261;-0.04808801;0.055362545;0.019456806;-0.1580498;0.1306758;0.43448934;-0.22769494;-0.23685172;-0.83548933;0.17346488;0.4507943;0.23084928;0.16560923;-0.072937004;0.18811056;0.090013914;0.0008248012;0.039529566;0.02391411;-0.013833417;-0.05807506;0.19615702;-0.15990266;-0.07351932;0.048684902;-0.4170337;-0.13219842;0.39425585;0.35225645;0.1509374;0.017444212;0.07348323;-0.049138676;-0.03497238;0.033849448;-0.14935;-0.035932686;-0.309075;-0.0069919843;0.2555933;0.36140287;-0.010479818;0.022802135;0.3001392;0.2637671;0.06219237;0.0054916088;-0.111553684;-0.053105887;-0.28602988;0.19330497;-0.21373066;0.01507292;-0.34438354;-0.059919678;-0.047858294;0.09067997;0.16114198;0.07338522;-0.11218383;0.16090477;-0.08292911;-0.4236851;-0.04868236;-0.034539457;-0.13054246;-0.19340053;0.16870509;-0.018539196;-0.3971473;0.49886492;0.03344216;0.0014398784;-0.14981732;0.31124628;-0.23041342;0.036306035;-0.13773532;0.83953166;0.056523737;0.044922832;-0.03075912;-0.014239197;0.09478364;0.21436457;0.057910353;-0.002045558;-0.51068187;0.15020615;-0.6017252;-0.3078693;0.36831525;0.060676735;0.41891012;0.23019838;-0.002049013;0.026961656;0.19060604;-0.05232137;0.8321179;-0.20491804;-0.004327038;0.11220392;-0.3793313;0.20148732;0.4016438;0.5245459;-0.02181706;0.14909789;0.5091142;-0.04308431;0.7065895;0.012183091;-0.020493362;0.33072755;0.013314345;0.045611553;0.014997826;-0.099615104;0.12602518;-0.04733087;-0.0133357495;0.092916906;0.27336225;0.56353605;-0.5037758;0.0050858925;0.23460072;-0.33817464;0.013256242;-0.0027085268;0.01889817;0.07027788;0.5554275;-0.3599899;-0.0168391;-0.030981358;-0.1864659;-0.193164;-0.010785575;0.0067395396;0.26080242;-0.04228068;0.16967866;0.06377053;0.095715635;0.021515612;-0.012030188;0.05756004;0.48745397;0.59863394;0.02151045;0.20569116;0.004626025;0.08238672;0.042690177;0.016662486;-0.09385752;-0.010104574;0.022188487;-0.16229118;0.008981546;0.4388848;-0.01088218;0.034817863;0.41939032;-0.22680475;-0.561953;-0.077780254;-0.030996455;-0.03637287;0.00521266;-0.030858822;-0.049424037;-0.13649862;0.103882305;0.31790525;0.4002686;-0.0464915;0.1870596;0.19002974;-0.029403761;0.38674176;-0.044927664;-0.3076422;-0.07049233;-0.061576862;0.2689881;0.29148182;0.0838918;0.2428349;-0.060211506;0.027260717;0.06022708;0.49092114;0.026119974;0.057758376;0.01566858;-0.26279175;-0.000431685;0.1650206;-0.08210135;0.031515762;0.2617091;-0.05492353;0.055938646;-0.34115294;-0.028438404;0.18227874;0.39383516;0.29190433;-0.448868;0.11234815;0.24183095;-0.58424497;-0.028585784;-0.033297084;-0.008308662;-0.09882672;0.22703806;0.045388576;0.2416836;0.031754855;-0.0660464;0.10390471;0.6775546;-0.077056445;0.6220571;0.25254214;-0.028601568;0.40961307;-0.13759317;-0.14174254;-0.015607052;0.008218779;0.074734144;0.30777058;0.067526795;0.011008762;-0.0137468595;-0.4589979;-0.06132736;-0.032808125;0.23293346;0.09670336;-0.3521471;0.26051784;-0.031020213;0.52772313;-0.008787871;0.17218825;0.38618538;0.049490545;0.007835781;0.37816447;-0.5038907;0.5805548;0.11715698;-0.15605614;-0.27181157;0.11646901;0.14899763;0.09076314;0.32859668;-0.033440307;-0.18883416;0.043931227;0.021088064;0.004770297;0.17872941;0.13086523;-0.19411038;0.014980403;0.6175079;-0.46267745;0.6359544;0.6650065;0.48988003;-0.4529479;-0.6683954;0.53955173;-0.28073967;-0.032304313;0.3991078;-0.1564853;-0.24961737;0.2343957;-0.23437601;0.031537093;0.04382115;-0.36032778;0.08246878;-0.25961912;-0.014635849;-0.044367347;0.5374078;-0.0027745692;0.019483272;-0.024607133;-0.03089498;-0.0073870015;0.22518678;0.0752786;0.022182852;-0.4476434;-0.082691215;-0.020433964;0.18221325;-0.23948202;0.015376111;-0.0030291332;-0.079661526;0.028120471;0.885989;-0.096591204;0.06400223;0.032689083;0.7842953;-0.10608303;0.013359548;0.008649777;-0.31484947;0.08079676;-0.49159428;0.36419627;0.20938367;-0.032437533;-0.042101208;-0.33217984;0.0093040075;-0.5436614;0.030694872;0.12982982;0.0014377563;0.14684276;0.1512983;0.43466192;0.18547897;-0.080511495;0.0077097104;-0.09414772;-0.20100057;-0.06691488;-0.037173513;0.33067352;0.100964285;-0.012577914;-0.2575404;-0.10285152;0.45174712;0.50761336;-0.16091782;-0.058272127;0.1651047;0.022106607;-0.3232243;-0.0148113845;0.3111993;0.3893177;0.06459536;-0.06747703;-0.058651075;0.05198999;0.12795173;0.038089793;0.01334025;0.675205;0.33561993;0.19204976;0.12485455;-0.041802973;0.1563452;-0.010669278;0.023877198;-0.048576713;-0.15789822;-0.077080384;-0.4219026;-0.029411094;0.05349982;0.031035546;0.14800593;0.19473611;-0.18741201;0.36442816;-0.23313646;-0.0047664517;-0.28914437;-0.040321715;-0.026152315;-0.028090326;0.17479031;-0.05346101;0.052269697;0.21344794;-0.19351372;-0.75939626;0.101302244;0.36038896;0.51669127;0.41124928;0.13918065;-0.06547902;0.11961176;-0.047447048;-0.2583289;-0.005324267;-0.43003583;-0.033548985;-0.20141703;-0.021877984;-0.44783962;-0.010689151;0.3456142;0.05090159;-0.20366405;-0.016740564;-0.15320434;0.2786006;-0.01612603;-0.1622725;0.29225248;-0.054625075;0.20623575;0.034370713;-0.05819978;-0.052242555;-0.07509007;0.3749159;0.4398191;-0.023891868;-0.056466807;0.11916116;-0.014063642;-0.4993425;-0.015673805;-0.29948172;0.097000495;0.1645401;0.8658119;0.18387192;-0.022889502;-0.6111948;0.38364103;0.28379792;-0.024068836;0.3836445;0.017886434;-0.2096483;-0.264874;0.074547164;0.4852584;0.08141302;-0.09669547;-0.24711417;-0.16054162;0.30487764;0.81196356;-0.033309765;-0.048386592;0.67925686;0.18391566;-0.20397387;-0.09852484;0.05240766;0.4859314;-0.23879988;0.050274834;0.0070116166;-0.020785615;0.04087713;-0.06701858;0.16461173;0.37355766;-0.11426816;-0.5628106;-0.013292015;-0.029355498;0.08737862;-0.18584488;0.51273245;-0.21359764;0.008776487;0.35864934;0.072547555;-0.06841242;0.30842197;0.5948325;-0.23725976;0.08207659;0.040572137;-0.18998073;0.08903992;0.06255254;-0.18004248;-0.036972437;-0.02589029;-0.029202703;-0.16170633;-0.05480268;0.03372338;0.011696991;-0.015843768;0.16090679;-0.006810081;-0.29334784;0.022362253;0.12859955;0.022715466;-0.2684116;0.2264768;-0.2537159;-0.32412705;-0.79781777;-0.054795817;0.12079236;-0.59109527;-0.10943178;-0.03992349;0.113112375;-0.105299935;0.0042945743;-0.2146503;-0.06507542;0.017105624;-0.62104595;0.37696284;-0.018817406;-0.06313006;0.07932365;0.04689697;-0.37270072;-0.02505645;-0.07380996;0.5246613;0.053996064;0.033049133;-0.046853747;0.20388405;-0.021754185;-0.20112754;-0.028282743;-0.060645334;0.09293095;0.039569616;-0.2593037;0.052634478;0.3249955;0.28760746;-0.16617149;-0.2724537;-0.015145841;0.17015818;-0.18055353;-0.27087188;0.07007102;-0.32470077;-0.07020478;0.06748853;0.08211844;-0.01199902;0.03887835;-0.025888417;-0.07734441;0.14668496;-0.019469019;0.07315691;0.23969842
-0.07451394;-0.03949518;0.219993;0.09815465;-0.016285488;0.0119174635;-0.11279893;0.10567858;0.023440287;-0.015276293;-0.021051899;-0.15609653;0.06587298;0.36572948;-0.24650593;-0.050434858;-0.7646813;0.2281235;0.3583071;0.04740439;0.066002235;0.0060963766;0.31121343;-0.04740717;0.09176523;-0.027595205;-0.06020793;-0.03191945;0.020643897;-0.040792413;-0.05437064;-0.069706425;-0.1003335;-0.50794345;-0.05057968;0.39419;0.28256783;0.15672126;0.048287816;0.075785436;0.07937837;-0.036505356;0.029978564;0.089306176;-0.019978546;-0.5005095;-0.05245235;0.18631144;0.28005293;-0.041129395;0.007655922;0.18847583;0.09134099;-0.04482207;0.07481128;-0.11184881;0.061603975;-0.1894483;-0.040977158;-0.24973473;-0.057966933;-0.1848316;0.049412888;0.026772492;-0.1331984;0.004088775;-0.000602378;-0.21874136;0.08353808;0.06492903;-0.38951468;0.053923707;-0.055730365;-0.22179484;-0.1638165;0.21627899;-0.0061665713;-0.23311356;0.49003553;-0.07888088;-0.02002895;-0.1358796;0.5050955;-0.17559418;0.0072383075;-0.09424694;0.65551233;0.023898605;-0.0019893798;0.0312622;-0.05314096;-0.112366155;0.14132498;0.044260554;0.0729734;-0.5485009;-0.06926551;-0.4392034;-0.093623;0.3668629;-0.042957045;0.23260085;0.16047919;0.030761896;-0.06855106;0.101347655;0.031468824;0.5341456;-0.039876074;-0.017832218;-0.05022348;-0.24848346;0.05251788;0.37240914;0.48967224;-0.12243697;0.1227728;0.36853775;0.019294884;0.5975912;0.112899736;0.00994039;0.27357042;-0.033907633;-0.057954963;-0.008600628;-0.09937779;0.25691566;0.061542872;-0.048351422;0.105213165;0.26841652;0.5478666;-0.39407173;-0.00032040145;0.46533847;-0.399068;-0.07692439;0.047052253;0.01898213;0.03313774;0.4870437;-0.27156377;0.17492135;-0.018843621;-0.07790685;-0.24399741;-0.06390889;-0.078064285;0.30448502;-0.007894519;0.14384736;0.0062839077;0.09438984;-0.020393087;-0.05192803;-0.06694385;0.5458183;0.3772089;-0.15764841;0.14531015;0.02743347;-0.25424257;-0.03978543;-0.001180308;-0.1822508;0.014572695;-0.0559091;-0.2580152;-0.08577517;0.43008122;0.03345312;0.088570625;0.3955315;-0.33875835;-0.56787235;0.018944351;-0.03703855;-0.07086132;0.01283824;0.05482525;-0.06400738;-0.1314911;0.016649475;0.16344602;0.26857084;-0.14254875;0.015182161;0.13380995;-0.03837895;0.36331582;-0.01804232;-0.24506707;-0.030667935;0.029776331;0.39625633;0.2760522;0.09559944;0.41752505;0.08232109;0.15758729;0.23977083;0.56832486;-0.023258187;-0.04259242;0.025339544;-0.22990271;-0.02633864;0.17920181;-0.2499804;0.005706058;0.35368755;-0.040744577;-0.09162921;-0.2074876;-0.020794852;0.08744022;0.2436449;0.21613024;-0.42784873;0.03525913;0.23438554;-0.5588943;0.028104316;0.06513821;-0.021494094;0.06295619;0.20395516;-0.04335858;0.25129217;0.017990518;0.06499909;0.058996256;0.60608786;-0.04994393;0.670973;0.09964414;0.049979154;0.42138845;-0.12099811;-0.31567734;0.037637632;0.022456959;-0.0061783176;0.20327806;-0.055472367;-0.02522789;0.007134796;-0.48560056;-0.10174698;0.04332571;0.22787564;0.15437013;-0.2540154;0.30703282;0.06456781;0.40812805;-0.03208665;0.035277966;0.29137236;0.06677022;-0.0037868891;0.21761847;-0.6679107;0.25726593;0.18881784;0.0075570564;-0.2656589;-0.06368965;0.35290533;-0.028884951;0.19152713;0.027612794;-0.26558542;-0.032161977;-0.005660083;-0.0078480765;0.28138882;0.01851452;-0.13521792;-0.13240178;0.49386412;-0.44511288;0.4428754;0.49143037;0.2528266;-0.5772242;-0.608731;0.3398653;-0.23679584;0.026290022;0.30950335;-0.087756395;-0.1214858;0.15209872;-0.21267815;-0.17959458;0.020386884;-0.34107402;0.063352354;-0.19883649;-0.0075149857;0.09001965;0.38856944;0.005676937;0.005381672;-0.042557143;0.04556337;0.006955027;0.027510872;-0.066110194;0.086663336;-0.4141465;-0.16136974;-0.16510475;0.09444872;-0.26604024;0.009994972;-0.026466975;0.012647485;0.07860822;0.6900736;0.13153113;-0.017522546;0.021881387;0.7617085;0.018181508;-0.030791322;-0.024693467;-0.14516154;-0.04224929;-0.5154144;0.31537786;0.13634972;0.22841336;0.050252546;-0.36726186;-0.012954759;-0.591111;-0.032642648;-0.04156521;0.002674596;0.16784222;0.18867913;0.43256468;-0.0113740275;-0.008934385;0.047646817;0.046609435;-0.03824196;0.003330134;-0.19355917;0.26140535;0.17748833;0.02211721;-0.54983765;-0.05176563;0.36091933;0.5574655;0.019735737;0.0024799644;0.096327275;0.03626803;-0.20072192;0.08218469;0.13103665;0.27953333;0.14934973;0.04006716;-0.17482156;-0.06393982;-0.113933146;-0.06253781;-0.01667597;0.47514454;0.39486256;0.077836886;0.11092152;-0.051982757;0.3556539;0.059997827;-0.023786308;0.059630975;-0.20521778;-0.041720152;-0.4193983;0.08172126;0.0031047163;0.32214043;-0.08758079;0.21949258;-0.12679788;0.09561807;-0.17429477;0.0032148322;-0.19951297;0.07234291;-0.07182629;0.019541323;0.30830628;-0.053619202;0.16937043;0.15307361;-0.16189934;-0.7348739;-0.053642195;0.29844648;0.35447353;0.16556911;-0.06296914;0.05402779;0.07642296;0.07761837;-0.1945513;0.03907102;-0.34955648;-0.034165442;-0.41599128;0.05651848;-0.49695516;0.02792562;0.15502729;-0.0025977534;-0.1772362;0.056890536;-0.095899224;0.37134555;-0.054100018;-0.228882;0.11161588;-0.00039618334;0.08074133;0.0062601306;-0.01183731;0.028815206;0.0061867437;0.38911426;0.35493928;0.0077502197;0.04470333;-0.058039505;0.067455955;-0.51240367;-0.034293972;-0.15081902;0.043419182;0.21559228;0.673759;0.12782812;-0.07645519;-0.4946405;0.259931;0.21253094;-0.0059157023;0.24577826;0.063420504;-0.015147304;-0.2183431;0.2721892;0.30901924;0.050992355;0.06992511;-0.27117693;-0.037446618;0.29056296;0.56441456;0.07689981;0.045891546;0.56314725;0.12136911;0.02140183;-0.17780237;-0.040856306;0.33402556;-0.30663037;0.054964837;0.04018083;0.028990464;0.13116923;0.05557786;0.15775934;0.2890408;-0.116978906;-0.6619599;-0.005215831;-0.031536803;-0.01752404;-0.20313291;0.29361942;-0.20183067;-0.062119775;0.110393204;-0.13905811;0.04791438;0.2617021;0.48889446;-0.32580298;-0.06609202;0.08234308;-0.30499858;-0.011809781;-0.13707896;-0.22014524;-0.01503375;0.08968334;0.052866306;-0.11882278;-0.06161075;-0.0096040275;-0.088860355;0.0024685892;0.09168729;-0.039283935;-0.31544966;-0.08957588;-0.06038132;-0.029959429;-0.17679231;0.21535493;-0.34715843;-0.2910176;-0.65752226;-0.014457483;0.020565776;-0.4702012;0.060887743;0.03617645;0.066032685;-0.00026777506;0.043449175;-0.22154373;-0.081848815;-0.056228135;-0.6699826;0.30000234;0.06856522;-0.042651333;0.05081602;-0.053776238;-0.17847118;0.076896235;0.03671919;0.6266559;-0.0012840119;0.030237768;-0.0842224;0.2222816;0.035507347;-0.2649852;0.18776262;0.076239236;-0.06852532;-0.04040898;0.0361171;0.21280807;0.3956791;0.17793864;-0.07856283;-0.15322158;0.04606807;0.16368032;-0.18168812;-0.27768838;0.063552976;-0.17039908;-0.09618966;0.036934823;0.040462777;0.03693364;0.038022;0.09735968;-0.11801124;0.31886503;-0.061903436;-0.043125946;0.14638479
-0.20178284;-0.15020108;0.34952676;0.047353406;-0.015989587;-0.12055897;0.11417377;-0.012895263;-0.03712742;0.022969877;-0.039791033;-0.06973049;0.025916997;0.5396812;-0.12979425;0.11315901;-0.762619;0.343166;0.30564815;0.087901026;0.19223784;0.03778473;0.4847437;-0.1345743;0.05680417;-0.004813635;-0.045846656;-0.08738734;-0.014047834;0.038574327;-0.018498888;0.06952256;-0.11755693;-0.41169393;-0.14913489;0.23749115;0.29506958;0.25990903;0.104806565;-0.07458999;0.038699724;-0.051979985;0.041953232;0.09550538;-0.017444596;-0.5468049;0.05019901;0.24591558;0.32713628;0.015380194;-0.011847416;0.18493636;-0.019971693;-0.05580489;-0.015268315;-0.16222881;-0.0793365;0.008400342;-0.12964283;-0.2713642;0.07415549;-0.1309457;0.07135383;0.1813833;-0.22110805;-0.03227416;0.003345197;-0.24320523;0.013726092;-0.059715487;-0.42366758;0.022713035;0.038784944;-0.15192685;-0.29286787;0.15226118;0.03310045;-0.21653134;0.5303939;0.073572606;-0.016295604;-0.1321354;0.53651714;-0.14448208;0.05105377;-0.028465278;0.76035756;0.04221086;-0.023432918;-0.0143244965;0.039575666;-0.2518126;-0.02123858;0.23413526;0.015337873;-0.42043748;-0.08435534;-0.5064355;-0.0651445;0.387515;-0.004139503;0.3569663;0.007820235;-0.00051895756;-0.055851217;0.078236066;-0.023015266;0.4854359;-0.03620545;0.023418464;-0.12990598;-0.22941694;0.15012188;0.29845956;0.37756285;-0.2717792;0.12754537;0.25490928;-0.027226865;0.4055909;0.17715576;0.011915017;0.17019682;0.007035386;-0.047600973;0.03817427;-0.032564066;0.123853065;-0.0221566;-0.2436859;-0.12462411;0.31310257;0.47155064;-0.34016627;-0.08984388;0.44258815;-0.33851275;-0.10424497;0.017964689;0.056787193;0.0290346;0.20133312;-0.2926619;0.29535055;-0.0054456983;-0.21384618;-0.0024862576;0.026084062;0.09133585;0.21854462;0.11257811;0.3301907;-0.09450458;0.06391903;-0.020218654;0.011946296;-0.019073542;0.49156;0.30673522;-0.23578285;0.016194703;-0.024504295;-0.14590871;-0.028571332;-0.090587445;-0.109193005;0.15965554;-0.0006810922;-0.26057088;-0.053434018;0.359101;-0.018929144;-0.02550447;0.29795927;-0.26191512;-0.6306666;0.053798594;0.025623241;-0.14105631;-0.021542348;-0.044932254;-0.16640283;-0.17571005;0.13492689;0.1781622;0.26547292;-0.20265229;-0.041715026;0.17843413;0.03975457;0.46564767;-0.009250655;-0.21605782;0.08595026;0.036940034;0.3279842;0.19565678;0.11241639;0.534396;0.07746667;0.17706859;0.20660213;0.5189902;-0.01624182;-0.14518824;0.020658419;-0.28844404;0.018739743;0.07717712;-0.42352363;-0.02773804;0.41237572;0.053508967;0.048949752;-0.29085094;-0.013909336;-0.0428572;0.08173114;0.14715552;-0.39983305;0.076223895;0.22192839;-0.49752486;0.037289925;0.027259108;0.08547068;0.053949725;0.1676326;-0.025463343;0.12534635;0.05736726;-0.08837747;-0.003949423;0.45811537;0.06311384;0.6621126;0.056054916;0.06003898;0.44993332;0.01151771;-0.39007849;-0.03086419;-0.07250768;0.015953764;0.1009902;-0.012427733;0.011018345;0.043360405;-0.4599964;-0.15163422;0.07681201;0.2613451;0.08005245;-0.23957726;0.26788044;0.07089819;0.37466767;-0.011957596;-0.14291543;0.2483358;-0.014239744;0.00027788966;0.25427258;-0.5937344;0.2527609;0.30420458;0.08135551;-0.34965786;-0.022450808;0.41266465;0.04271493;0.23572016;-0.0070484234;-0.24038164;-0.13177106;-0.059874658;0.041678455;0.32254913;0.06158459;-0.010370362;-0.30033728;0.5448473;-0.24990232;0.16613677;0.57814294;0.1299053;-0.42193592;-0.5678719;0.2486966;-0.09596231;-0.065871894;0.4336241;-0.05766841;-0.07304094;0.06943264;-0.3479865;-0.14406918;0.008865364;-0.2396373;-0.091064624;-0.21443737;-0.0005809255;0.08453088;0.36020795;-0.082601674;0.121552594;0.027084662;0.05704941;0.046830572;0.044938967;-0.015922977;0.0122170625;-0.32853785;-0.025658691;-0.19051667;0.05005185;-0.16789219;0.03718812;-0.18021798;-0.11731925;0.16931082;0.50033265;0.036587846;-0.031375494;0.01879351;0.5423075;0.088804975;-0.017849563;-0.00389579;-0.09250903;-0.011195294;-0.4576262;0.30196372;0.094816625;0.18228441;-0.08850524;-0.3244978;0.019117748;-0.4525849;-0.0453749;-0.036477853;-0.074666366;0.16430116;0.14849547;0.38144004;-0.09961949;0.058596443;-0.036792044;0.024963235;-0.12842128;0.059529714;-0.19093467;0.27614573;0.26924273;-0.061360683;-0.62178653;0.052038882;0.41240948;0.5257288;0.12242938;0.01689521;-0.0011449578;0.021721026;-0.23835704;0.19212754;0.18776539;0.2694272;0.05310291;0.06243438;-0.06016747;0.06976801;-0.097401336;-0.28299132;-0.041703667;0.3300948;0.37243688;0.10393279;0.00016118743;0.023697665;0.39903244;-0.060807936;-0.06421232;0.032710347;-0.08682842;-0.00076931884;-0.47263524;0.010105465;-0.089896135;0.26744184;-0.21722823;0.11911739;-0.13283424;0.03581453;-0.046179134;0.010228477;-0.14405777;0.0014715675;-0.07175614;0.010079785;0.26365003;0.060870584;0.26405734;0.011661566;-0.08527867;-0.8072288;-0.0068490547;0.02571179;0.37563992;0.106989644;-0.16804463;0.13662364;0.25083745;0.06636674;-0.17428769;0.038810875;-0.46860382;0.006517804;-0.39049706;0.0715325;-0.5226777;0.060799517;0.16850878;-0.07225163;-0.16570367;0.06908387;-0.12534451;0.34113446;0.075994;-0.19843985;0.12935583;0.015141096;0.057121597;-0.0042352607;0.087897554;-0.012737845;0.063107155;0.17464817;0.49703062;0.07243958;-0.073447086;-0.03788609;-0.035104223;-0.45232323;0.027210383;0.003040393;-0.025407337;0.29126903;0.5773806;0.11182858;0.04980558;-0.5686745;0.1301155;0.14592545;-0.0635339;0.369062;0.028490124;-0.17573185;-0.1560468;0.27633184;0.36081856;-0.11702114;0.08353438;-0.23338866;-0.033272214;0.27901605;0.3530096;0.095139086;-0.0841767;0.52043366;0.1327603;0.1396628;-0.17705892;-0.04927495;0.25841096;-0.327985;-0.0324992;0.028148897;-0.0042244126;0.09716937;0.054755703;0.11732929;0.19117416;-0.10631677;-0.6226641;0.004312137;0.022794608;0.10004881;-0.062350824;0.26343572;-0.32103255;-0.054359477;0.21801972;0.001914197;0.062358726;0.3385245;0.36202005;-0.46498647;0.031846356;0.083321795;-0.2740442;-0.047028925;0.034137875;-0.35887432;0.05506029;0.1348886;-0.053848162;-0.10140313;-0.03253477;0.055259164;0.03978215;-0.11268064;-0.046208743;0.020129446;-0.1733258;0.05894463;-0.060650706;-0.03515414;-0.16403688;0.24834491;-0.31715617;-0.32390398;-0.5736318;0.03586056;0.09889104;-0.43200102;0.02817746;0.06936385;0.005606676;0.05111167;0.022164874;-0.17408648;0.062423825;0.007976079;-0.5859932;0.25468108;0.013614855;-0.2023997;-0.060706925;0.030864572;-0.09811407;0.05854591;0.014973439;0.51544195;-0.0852029;0.041136034;-0.13684256;0.18223448;-0.0036269089;-0.22010261;0.15293546;0.07798397;-0.16427957;0.012887003;0.027484052;0.1059399;0.34354162;0.16704799;-0.09701125;-0.15619834;-0.017936336;0.11591324;-0.12121116;-0.16349898;0.1892015;-0.13486382;-0.021519262;-0.06738261;0.01495219;0.090537876;0.03984749;0.09578899;-0.1801525;0.35214233;0.077696435;-0.024036657;0.11561241
-0.1767001;-0.19517696;0.2946779;0.03576891;0.013253469;-0.021081852;0.047160003;0.038683847;0.031108327;-0.069419056;-0.035177473;-0.078797564;-0.03535896;0.5310321;-0.05854862;0.04925823;-0.55031776;0.4275371;0.1747229;0.04608725;0.05493927;0.09221894;0.5664289;-0.18356644;-0.037971683;0.03575214;0.058856994;-0.20526864;-0.017985499;-0.060075693;0.032082733;0.01896096;-0.29565555;-0.3379171;-0.123621024;0.40834555;0.15994298;0.24528165;0.07380095;-0.11684302;0.06356034;0.10634622;0.17680225;0.12929417;0.044041194;-0.52637213;0.012271716;0.21095419;0.29408187;0.044613346;0.00442394;0.012933217;-0.06307634;0.061063908;-0.025946736;-0.08469667;-0.057182956;-0.0586276;-0.049214974;-0.27763674;-0.017387314;-0.060503878;-0.043865576;0.23481701;-0.16820219;-0.14868559;0.07639798;-0.27014026;0.05115423;0.011181325;-0.40824336;-0.06907338;0.072536916;-0.047343977;-0.18044333;0.09724245;0.0541846;-0.090144254;0.49967402;0.03411053;0.068859726;-0.08175886;0.5366402;-0.17578004;0.01402516;-0.15903088;0.5594568;-0.025308024;-0.07129258;-0.0151412655;0.038185082;-0.2779042;-0.015500112;0.27654517;0.14816228;-0.30110282;-0.12043015;-0.37669918;0.005044987;0.33645928;-0.01672875;0.27981955;-0.09615793;-0.028270459;-0.14640181;0.02163391;0.03843458;0.4052279;0.049857423;-0.025584824;-0.1952087;-0.25204957;0.0455849;0.33553523;0.3284395;-0.1983605;0.15907615;0.30648363;0.054661836;0.40966535;0.119854905;0.0087437;0.15233262;-0.03446746;0.07087696;-0.058068518;-0.020073557;0.19305336;-0.0346678;-0.36613417;-0.17618123;0.3064919;0.47262424;-0.30333814;0.04426457;0.54694134;-0.42788735;-0.056531996;-0.07325661;-0.04391709;-0.05910608;0.037193872;-0.13851912;0.31812942;0.058794502;-0.13948564;0.0014283861;0.0674023;0.082116365;0.15529135;-0.035961654;0.28802216;-0.045941424;-0.09999963;-0.055874933;0.03826795;0.06529327;0.30053914;0.267623;-0.31239173;0.0040173656;-0.07215241;-0.25258705;0.017703548;-0.013531389;-0.17499822;0.27433634;-0.06348111;-0.3651612;-0.14298822;0.31862882;-0.04184384;0.022968782;0.32050923;-0.15539677;-0.5379434;0.055675976;-0.017458046;-0.10509359;0.016101504;-0.0078657875;-0.19277284;-0.06643206;0.12294025;0.24195296;0.061742455;-0.1487678;-0.006722061;0.1278621;0.07185314;0.3629543;-0.025143214;-0.075169414;-0.0531832;0.027176013;0.27127913;0.26286304;0.18814218;0.4294908;-0.019879417;0.23460424;0.23520881;0.38888747;0.0019828065;-0.18105076;-0.060107477;-0.28589967;-0.0013557306;0.07582891;-0.27030545;-0.118879214;0.38079572;0.046723597;0.03749305;-0.26017803;-0.06730086;-0.0061414274;0.033316907;0.16861883;-0.39980048;0.12975678;0.10854806;-0.4174948;0.025586447;0.044152237;0.07028709;0.04005897;0.11826128;0.0028984484;0.18435527;0.1545787;0.058481563;-0.068306476;0.4312217;0.10777427;0.63288933;0.07411955;-0.044066217;0.36922485;0.054610007;-0.36092916;0.0683015;-0.0721983;0.16602692;0.10847607;0.045109548;-0.029362738;-0.06924636;-0.43035558;-0.17034926;-0.030041754;0.29050037;0.09690928;-0.15935583;0.1893021;0.100517236;0.27495998;0.015752135;-0.17686543;0.24293847;-0.038189054;-0.067354545;0.14267936;-0.49081916;0.14886148;0.24704352;0.17117052;-0.33271512;0.01030843;0.41364646;0.15327632;0.18528259;-0.024040364;-0.22890985;-0.024262877;0.066083945;0.019911053;0.39878273;0.11208888;-0.04897703;-0.38211182;0.5141808;-0.11935703;0.00014092718;0.46895367;-0.008797829;-0.47564057;-0.55835104;0.23177414;-0.06733726;0.07283993;0.30987635;-0.08233578;-0.18272342;0.06353461;-0.31367972;-0.050952107;-0.09305703;-0.21701537;0.036446642;-0.24335402;-0.027979337;-0.05600741;0.18294224;0.07867455;0.16410135;0.08827202;0.029582558;-0.042198546;0.12743619;0.060699362;-0.023213211;-0.2553342;-0.027558934;-0.20618208;0.03237483;-0.19117276;0.048080783;-0.220463;-0.075144276;0.3532597;0.32934254;0.20657487;-0.055971637;0.0439842;0.60956234;0.0440889;0.051485278;0.042165082;-0.038873132;0.031302903;-0.32643235;0.2307213;-0.1095954;0.23145573;0.047850076;-0.23269586;0.038666237;-0.47606832;0.056785688;-0.17322347;0.036893968;0.16453727;0.021144202;0.33602998;-0.02281674;0.07123158;0.08040071;-0.0139075965;-0.061173342;0.02787006;-0.18905914;0.24970894;0.31779262;0.007251556;-0.49774355;-0.0003664872;0.44696522;0.3527464;0.008800154;0.10790286;0.07887697;0.0071597323;-0.22993475;0.114638336;0.17986713;0.29548123;-0.043484572;0.10447575;-0.14261977;-0.008918353;-0.27025473;-0.25420117;0.009185244;0.1664149;0.30412897;0.19072182;-0.05069269;-0.023265826;0.41163233;0.08873712;-0.06176863;0.017278701;-0.1650111;0.05659429;-0.40706295;0.0005978086;-0.17476755;0.344624;-0.109670535;0.12655254;-0.24477372;0.03450968;-0.06846817;-0.028202878;-0.19312647;0.0454893;-0.07808321;0.02992456;0.27454707;0.025194678;0.2076503;0.096827514;-0.027440367;-0.83216894;-0.051302947;0.06602787;0.36412773;0.14131112;-0.019752573;0.16130337;0.24959357;-0.05950355;-0.16112745;-0.09362256;-0.35591772;-0.055779506;-0.45133245;-0.019513352;-0.5730808;0.02743262;0.14515479;0.005865189;-0.04382308;-0.082223766;-0.20816709;0.18934603;0.09991448;-0.24992558;0.22936432;-0.03713372;0.09914943;0.025610996;0.04265987;0.049657386;0.06431641;0.29239103;0.406607;-0.09291338;-0.040050305;-0.18765883;-0.048293516;-0.3153134;-0.043758843;-0.018206036;0.09476916;0.15252933;0.36204794;-0.019284375;0.07376481;-0.4110741;0.2002362;0.07931356;0.033896342;0.3872668;-0.071623735;-0.053822625;-0.09094938;0.319376;0.35455817;-0.13945183;-0.033601675;-0.29004943;-0.046492152;0.30082235;0.23630776;0.17438771;-0.09339114;0.42034522;0.2242279;0.09452572;-0.12723975;0.049945794;0.12803054;-0.37593788;0.018357677;-0.002934869;-0.08614532;0.044171937;-0.013092996;0.019324385;0.086022876;-0.17728372;-0.62966335;-0.06206203;-0.053241163;0.11223032;0.07021727;0.29279903;-0.24094108;0.029512027;0.11425482;-0.0828587;0.0049208337;0.4300667;0.21144848;-0.55713344;-0.061632205;-0.019252812;-0.25062796;-0.0061770827;-0.0868182;-0.28389812;0.08682479;0.19871806;-0.06628491;-0.060765825;-0.0016566128;0.0353447;0.019121096;-0.072057575;-0.21397458;0.06055066;-0.1785751;-0.028536588;-0.15187852;0.031421855;-0.07164242;0.2735952;-0.26689622;-0.24709354;-0.52071345;0.04411038;0.1482514;-0.22789659;0.15239836;0.11889964;0.06710549;0.027325034;-0.013256368;-0.13398561;0.08151755;-0.03931353;-0.6152965;0.22967434;0.0072612343;-0.28113014;0.074439354;-0.003212043;-0.02283001;-0.045397926;-0.058649633;0.53757036;-0.0573377;-0.038369946;-0.1648474;0.15040578;0.015406081;-0.23663522;0.35105845;-0.028169358;-0.30496413;-0.047751322;0.22590894;0.109860025;0.27729514;0.2208683;0.05633514;-0.13602176;0.0024909175;0.07775977;-0.15530173;-0.17271426;0.07706974;-0.19068125;-0.0053565158;-0.005725489;-0.074429736;0.27056766;-0.05367401;-0.05224088;-0.27838507;0.2963068;-0.05833392;-0.06363136;0.0014616407
-0.18970576;-0.10027606;0.36757728;0.097069696;-0.023980033;0.0032662943;0.18893069;-0.0018802929;-0.06474136;0.024099953;0.0010650216;-0.029430024;-0.22583018;0.52617747;-0.16762576;0.081037655;-0.5612644;0.55408365;0.12660824;0.048137862;0.006698832;-0.044972595;0.5910704;-0.11344725;0.07761213;-0.04365313;0.0060044695;-0.19697446;0.07064763;-0.16018885;0.1606728;-0.005625176;-0.17787188;-0.41468266;-0.11969378;0.32865375;0.07867244;0.09296899;-0.039705526;-0.20329624;-0.04917594;0.02184913;0.28038898;0.079219885;-0.057949938;-0.3312518;-0.034402393;0.04987828;0.3221653;-0.029298546;-0.010985836;-0.038153544;-0.025976904;0.044027627;-0.030336177;-0.055579156;0.042502575;-0.038613636;-0.09013121;-0.3293329;-0.06403827;0.031724114;-0.0670293;0.42073324;-0.105739854;-0.27915034;0.028287685;-0.1075772;0.05883723;0.02916767;-0.26863524;-0.0076170433;0.029036798;0.018946392;-0.2376897;0.09950437;-0.006645489;-0.10809373;0.49515733;-0.002157838;0.062001497;-0.113561854;0.46286827;-0.24273828;0.03245871;-0.09931;0.5511427;0.0006192652;0.06935698;-0.010278933;-0.046932332;-0.2400834;-0.04245316;0.20188138;0.21014036;-0.25152147;-0.228756;-0.3951135;-0.060425043;0.32414114;0.013300444;0.20530237;-0.2674009;0.020581318;-0.21821237;0.098155394;0.05517846;0.27158177;0.08311011;-0.00557443;-0.13921295;-0.13900813;0.16874236;0.3360526;0.12455324;-0.27313232;0.22830562;0.34442934;0.025468571;0.23804457;0.2071315;-0.03692678;0.07644758;-0.03183093;0.044485234;0.0034493683;0.11009271;0.15835418;0.019840876;-0.4640024;-0.07734355;0.31927255;0.22615328;-0.3043899;0.029365214;0.68858206;-0.37133992;-0.1901631;-0.08404714;0.07303842;-0.07941321;-0.0042829947;-0.16028827;0.35541862;-0.033709977;-0.21373585;0.017826673;-0.021988843;0.080953404;0.2115202;-0.01179968;0.4083642;-0.027452063;-0.12417594;0.0038589635;0.00028814567;-0.05555114;0.27790827;0.31406575;-0.30692714;0.037755404;0.05701337;-0.17528245;-0.009736422;0.0064499355;-0.12630756;0.30940711;0.026240582;-0.2720974;-0.026672;0.22811449;0.042351484;-0.027125543;0.1919933;-0.21265286;-0.35798442;-0.026232785;-0.009870689;-0.093887515;0.015725972;0.010753265;-0.2816717;-0.20524669;0.2767426;0.104327776;0.0065826587;-0.2092843;-0.11316707;0.10064211;-0.025175713;0.2457936;-0.054669783;-0.03132462;0.081818715;-0.06430033;0.31161624;0.14354816;0.14695272;0.5444484;0.014405476;0.27050313;0.3079956;0.3123854;0.013400006;-0.2046134;-0.025426872;-0.36461657;-0.06574252;0.045682956;-0.35868302;-0.09493446;0.36488795;-0.071520485;-0.029201936;-0.24787737;-0.038844213;-0.0794425;0.032096643;0.2602924;-0.4112255;0.15002084;0.13535215;-0.34242222;0.07067953;0.1705012;-0.044304863;-0.0029405153;-0.10672576;0.035742465;0.27670965;0.14106388;-0.07015646;0.03658041;0.33169574;0.1183465;0.4844234;-0.019062195;-0.05863112;0.35706198;0.0943458;-0.5542757;-0.051728606;-0.024070008;0.22834739;0.09842828;0.10757851;0.060864545;-0.035325885;-0.39954793;-0.17038341;-0.005557706;0.31823397;0.18817334;-0.07911151;0.09926838;0.07657021;0.22708237;-0.066382445;-0.20854542;0.22011933;-0.04277343;0.08836866;0.25900617;-0.51896864;0.119137205;0.21433279;0.16961926;-0.3584237;0.0036149514;0.4945909;0.13812657;0.023721663;0.06465044;-0.12632331;-0.05758271;0.07857367;-0.016551599;0.42907327;0.18293747;0.03294542;-0.43153477;0.48229903;-0.03415981;-0.17757446;0.32311767;0.06191248;-0.37984425;-0.51987565;0.17890775;0.05232647;0.019208997;0.18902175;0.05126504;-0.12887202;0.007796235;-0.27997315;-0.14759475;-0.045861296;-0.11354149;-0.026775641;-0.17355502;0.03280293;0.031335507;0.16055486;-0.055891704;0.059391707;-0.05167028;0.06681653;-0.035525423;-0.052771136;-0.039663173;0.05446209;-0.15032636;0.14135078;-0.23671106;0.035178028;-0.1957238;-0.013687409;-0.14590502;0.033847723;0.34537563;0.26725882;0.2052953;0.017858477;-0.05360748;0.4557221;0.025331214;0.057268146;0.037108835;0.11382583;-0.051145047;-0.3199411;0.2608542;-0.15790245;0.40051934;0.009068602;-0.19847576;-0.043813366;-0.41610995;0.042562734;-0.19096325;0.047120795;0.19591601;-0.06797285;0.27108952;-0.026814982;0.058055587;-0.05037489;0.06369618;-0.08251092;0.037422918;-0.13601711;0.18042125;0.3868096;-0.031585865;-0.4871593;-0.06394497;0.4443893;0.44580698;0.104995795;0.071548566;0.03090477;-0.027360402;-0.18598866;0.25756168;0.04650395;0.25354794;-0.057235394;0.07156194;-0.084157445;-0.032670494;-0.18402848;-0.24433532;0.035807945;0.12228494;0.27559218;0.06832302;-0.022546265;0.014367001;0.33981597;0.023510488;0.049170233;0.020453036;-0.12607968;0.0671148;-0.4654986;0.029573899;-0.15728801;0.52160734;-0.14889511;0.07531226;-0.1515476;0.13418494;-0.031210463;0.039907765;-0.19070017;-0.08391402;0.0011161596;0.010611573;0.39722633;-0.01941733;0.23371424;-0.023082972;-0.06214934;-0.8332956;-0.06641831;0.06521234;0.32615387;0.01141449;-0.06937048;0.2108552;0.074760936;-0.039636374;-0.07381362;0.0053999308;-0.41498125;-0.0065488317;-0.6572828;0.016757123;-0.55449164;-0.06367419;0.05346302;-0.07977241;0.052874982;0.04040281;-0.11522947;0.23426552;0.006606859;-0.35779622;0.22724521;0.078604095;0.13969825;0.008221955;0.027367488;-0.049017023;0.13713406;0.21439312;0.43772423;-0.011267197;-0.035198368;-0.24088097;-0.015626961;-0.27161244;-0.030872256;0.090332;0.077591866;0.2151497;0.26212606;0.008827109;0.081412934;-0.4254534;0.16084704;-0.05760608;0.0682167;0.24494949;-0.051130194;-0.17367479;-0.09093247;0.4330748;0.21998729;-0.12668243;0.024139242;-0.21716717;0.07772486;0.4008528;0.18831454;0.1747986;0.009933658;0.49303216;0.26225737;0.00010903094;-0.06997978;-0.026115678;0.14394109;-0.35938036;-0.06020183;-0.037957124;0.039759483;0.119585514;-0.05007674;0.04921006;0.09940118;-0.046514653;-0.5250983;-0.010008355;-0.056572586;0.2206746;0.00544269;0.16030405;-0.19814073;0.084221564;0.20351896;0.001448287;0.03831128;0.40450704;0.109937996;-0.490626;-0.033084467;-0.04213136;-0.19963126;-0.014108281;-0.13320391;-0.19714576;0.017943084;0.16175228;0.054404363;-0.047967795;0.14091425;0.01481555;0.025883283;-0.11395675;-0.27238506;0.028738007;-0.06176398;-0.05226491;-0.18951559;0.006618252;-0.02994523;0.19252652;-0.2710588;-0.27147436;-0.3878267;0.02729385;0.042994533;-0.24892937;0.15390243;0.046681236;0.095474206;-0.08210287;0.06417664;-0.06397773;0.017379832;0.025150474;-0.3990319;0.06790947;-0.07645296;-0.17746268;-0.059523147;-0.00441753;0.03097936;-0.005079014;0.0052791955;0.5108604;0.018630113;0.046127427;-0.27980924;0.2039776;-0.048581485;-0.20558694;0.37253916;-0.043288432;-0.31812528;0.043294974;0.17995267;0.0310026;0.31181738;0.12147477;-0.11435997;0.047995;-0.025680037;0.02221361;-0.12979534;-0.18644303;0.15923095;-0.07850784;-0.14942667;0.017352426;-0.15677622;0.23445722;0.010633886;-0.08397144;-0.24189745;0.43571132;0.020491527;0.028995983;-0.019284764
-0.080777824;-0.08364818;0.2993581;0.08278301;-0.015210522;-0.012035566;0.25803304;0.11419707;-0.019575493;-0.0039828084;0.08009284;-0.08779684;-0.26140088;0.5745816;-0.19976221;0.20458874;-0.36249232;0.5230286;0.021814808;-0.004874548;-0.0043541463;-0.039695747;0.63030803;-0.2818502;0.08585399;-0.01462474;0.009857963;-0.3119446;-0.035818886;-0.11156162;0.14146782;0.0028803623;-0.07519101;-0.33312115;-0.1004996;0.25325948;0.07253837;0.06311128;0.09516588;-0.06900263;-0.061103147;-0.066557445;0.18582407;0.022689847;0.02810159;-0.39914212;-0.06844158;0.14487273;0.33882383;-0.0124743385;-0.0025037837;-0.075474165;-0.07260456;0.028765872;0.022474434;-0.11333955;0.05200953;0.03378109;-0.123405896;-0.2830287;0.0527771;-0.03446731;0.028772488;0.421253;-0.07168911;-0.2506262;0.0013772134;-0.06858205;0.079131305;0.05217945;-0.26375568;0.035517093;-0.081558876;0.11390331;-0.20837064;0.09719405;-0.008401503;-0.06414566;0.331166;-0.07041782;-0.028697724;-0.25431073;0.47593763;-0.22291966;0.0018611063;-0.11025865;0.43402022;-0.061632268;0.016231671;0.023162974;-0.0779339;-0.2351003;0.035924625;0.27689594;0.17012727;-0.29817235;-0.14214025;-0.18096781;0.020219803;0.25769454;-0.034672648;0.22101825;-0.28780773;0.0051602437;-0.12579948;0.10926533;-0.05517532;0.19984479;-0.0220292;-0.030347865;-0.13009447;-0.0833812;0.23205587;0.28921708;0.20143802;-0.13149428;0.09554721;0.22652476;0.009663946;0.22651078;0.09813637;-0.0746781;0.122511685;0.070037745;-0.08312196;0.050015967;0.16980432;0.0285909;-0.01975805;-0.40156913;-0.050961338;0.2241664;0.34059823;-0.23832141;0.036413465;0.6552513;-0.29163322;0.0021251698;0.01989868;-0.035912927;-0.060693003;-0.09140004;-0.06929978;0.45153925;0.06903001;-0.30540997;-0.00026431013;-0.040252425;0.17904723;0.17305863;0.0069592204;0.343401;-0.011812451;-0.15452696;-0.017861718;0.024172992;0.027374057;0.231416;0.2857388;-0.19188115;0.061337654;0.06308859;-0.16406491;0.011812027;-0.033642776;-0.031002317;0.24498287;0.011734013;-0.2320206;0.05497106;0.3096819;-0.013763832;-0.015269698;0.20859529;-0.12008794;-0.27734384;0.046512377;0.0032409246;-0.07808517;-0.019007802;0.078920096;-0.22011358;-0.10695007;0.2934435;0.18326907;0.04156717;-0.20024072;-0.03569453;0.13219811;0.026764724;0.31298223;0.073998705;0.042431667;0.06690966;-0.061694704;0.30601227;0.11356782;0.20264919;0.39713603;-0.05119935;0.22218071;0.3175219;0.12157178;0.035666205;-0.12980683;-0.022959476;-0.28487143;0.033303957;-0.022490114;-0.22183847;-0.0845369;0.35154313;-0.02119536;0.063027784;-0.1747761;0.05954821;-0.14605379;0.035102516;0.15785451;-0.40888327;0.15603659;0.12115975;-0.23225747;0.029850017;0.09009423;0.0026581488;-0.03719957;-0.12450907;-0.071168564;0.15106502;0.19409207;0.049356297;0.14863233;0.29358557;0.0218891;0.47915453;-0.12827161;0.01903678;0.28412157;0.06045796;-0.41617137;-0.02750337;0.03834685;0.19763614;0.092861325;-0.06693601;-0.04031597;-0.03466129;-0.50796795;0.0026608773;0.09152493;0.27446735;0.1882094;-0.08051199;0.15123294;-0.010852281;0.1956168;-0.023331068;-0.1711922;0.12302305;0.0100464495;-0.050730217;0.33194324;-0.31841618;-0.0011515996;0.12509285;0.36450493;-0.33157462;-0.06662345;0.3677918;0.10069447;0.10271328;-0.0070656915;-0.020275803;0.050453518;-0.019849315;0.037778076;0.5277867;0.1750525;0.061359655;-0.5553766;0.47551167;0.0045773173;-0.12388117;0.32635918;0.062934555;-0.31470183;-0.42368293;0.2434793;0.050213516;-0.03286712;0.21544367;-0.0081779165;-0.14107218;0.036838308;-0.19760202;-0.10587547;-0.09301376;-0.06542832;-0.03705057;-0.06525791;-0.046249017;-0.040638503;0.097085916;-0.06324968;-0.00014537887;-0.07457369;0.06809563;0.005380085;0.090620026;-0.0114826225;0.047700234;-0.14092107;0.22760722;-0.21121643;0.05081639;-0.214196;0.042286996;-0.020096073;0.085509464;0.2739903;0.1356204;0.30012655;0.018519381;-0.039335433;0.36275735;0.071203105;-0.07812591;0.038873192;0.031278655;0.024343256;-0.22937426;0.3153921;-0.06675911;0.34238523;0.044201285;-0.34550375;-0.005417554;-0.2757141;-0.07011117;-0.32440674;-0.059413105;0.14268185;0.12753615;0.26072183;-0.10856755;-0.06504017;0.04990041;-0.0009452004;-0.14178976;-0.014668762;-0.12684879;0.17659177;0.23003599;0.011633793;-0.44530475;0.03990623;0.49187988;0.44305885;0.09719072;0.08196695;0.19248083;-0.011641997;-0.22853847;0.1881547;0.24321938;0.21738634;0.06315116;0.1516623;-0.118898414;0.0475746;-0.32053077;-0.30541563;0.033940382;0.09891781;0.27231184;0.079972506;-0.03733143;-0.0038808607;0.32344824;-0.052410934;0.08236686;0.0071884333;-0.102091335;-0.026753876;-0.4074994;-0.03329138;-0.04906635;0.58353865;-0.12750141;0.11107875;-0.16015603;0.06254479;0.008538417;0.014952566;-0.22195113;0.071339525;-0.093168296;0.0119923055;0.38309267;0.039199226;0.23521516;-0.01699478;0.08524569;-0.7297773;-0.096160784;0.08911153;0.27574006;0.09945605;-0.074854285;0.21241982;0.16051903;-0.02219472;-0.037813134;0.043001708;-0.15278563;0.039911408;-0.6644217;-0.0715467;-0.36930332;-0.0065824846;0.096941635;-0.0024027682;0.07832709;-0.007913229;-0.13383065;0.32167444;0.05345301;-0.35632488;0.21558118;-0.038102742;0.1926535;-0.026857363;0.052458886;0.06701498;0.17464405;0.15298432;0.43563607;-0.046404377;0.063714005;-0.15245652;0.00260352;-0.20398086;0.035200913;0.078446895;0.046761263;0.08883732;0.33694744;-0.02742005;0.061557468;-0.35460278;0.08845283;-0.014003238;0.0028703643;0.19315135;0.05649177;-0.04021722;-0.16333945;0.402955;0.33219218;-0.2421103;0.008194679;-0.24210384;-0.009591409;0.30171233;0.0013932708;0.17955779;-0.08905917;0.35057858;0.23421651;0.014476972;0.019181352;0.036838982;0.0031548368;-0.14683981;0.054507867;-0.052972764;0.04038271;0.14219953;-0.034467343;0.081354156;0.032234255;-0.034416754;-0.57129705;-0.06538414;0.04463979;0.28771275;0.063896246;0.19583227;-0.18315089;-0.032518744;0.09516971;0.087312944;0.023419123;0.40842068;0.046256755;-0.46343276;0.05059139;0.024869967;-0.20143937;-0.09149614;0.01786607;-0.20951524;-0.06596532;0.05304336;5.94447e-06;-0.07533629;0.10665239;-0.07638895;0.039296784;-0.03200983;-0.2655735;-0.07962172;-0.015087792;0.020338751;-0.2851441;-0.025257844;0.10376941;0.23590785;-0.12905712;-0.088293195;-0.2708296;-0.03406761;0.16186297;-0.23220624;-0.026286103;0.08706898;0.022778662;-0.0770711;0.05789001;-0.013357138;0.020877562;-0.032580204;-0.39087936;-0.012724353;0.0027136125;-0.11894132;-0.07556622;-0.04506632;0.0048487615;0.04236559;-0.058270115;0.3274074;-0.035092805;-0.038085874;-0.2588066;0.1538786;0.0027625277;-0.047666565;0.40482292;0.056937885;-0.3208598;0.0017609628;0.1796767;-0.0059356545;0.19608268;0.19845897;-0.2873027;0.07633295;0.065940484;0.027886;-0.14309147;-0.16220286;0.02927282;-0.09421761;-0.0011760363;-0.0050568664;-0.24017628;0.10994043;-0.027959365;-0.078138284;-0.11220749;0.3987197;0.0361339;-0.052210253;-0.10289699
-0.08130328;-0.11117031;0.34215614;0.063918576;-0.03483891;0.03515446;0.13140152;0.10150054;0.0625212;-0.08150097;0.007069426;-0.049627475;-0.17547408;0.45684567;-0.16414614;0.16730292;-0.40058488;0.5356398;0.12289669;-0.013036514;-0.074564755;0.043610293;0.59748626;-0.23579429;0.009357774;-0.034244996;0.018847665;-0.28915444;-0.02781071;-0.100130625;0.12572858;0.036552906;-0.11275612;-0.31186816;-0.023745932;0.20560297;0.107091516;0.007845718;0.008803848;-0.08481388;0.035096277;-0.013926128;0.21864821;-0.006883047;-0.042421672;-0.33900082;0.056392808;0.08586684;0.31626257;-0.0026718802;0.0037000498;-0.05930571;-0.12221603;0.08330429;-0.016143002;-0.094719715;-0.044700798;-0.021392658;-0.045539703;-0.3792482;-0.034565628;0.065243155;0.046373565;0.22833289;0.0107091665;-0.3476332;-0.08409908;-0.19862688;0.29680288;0.06753013;-0.23387599;0.044146545;0.014333625;0.11116057;-0.038783982;0.090604536;-0.083087645;0.044019125;0.37299472;-0.047822878;-0.047915306;-0.28712434;0.49733943;-0.17463508;-0.040426284;0.050846532;0.41671178;0.026946219;-0.042610053;0.086725235;0.06522797;-0.15340461;0.021520514;0.2689238;0.1722078;-0.30713364;-0.24155156;-0.20276558;0.023442086;0.30973473;-0.014380211;0.34249473;-0.24268474;0.040374033;-0.18587169;0.22496022;0.044706274;0.18242715;-0.10685922;0.059707437;-0.09286945;-0.09082844;0.15418398;0.30217963;0.1362052;-0.17423227;0.12400913;0.17870753;0.006530374;0.10870053;0.13227138;0.05229642;0.14071725;0.072642975;-0.005789736;0.015078354;0.24078391;0.12647231;0.057099957;-0.40124112;-0.14847271;0.19198428;0.28505856;-0.19412823;0.0017187485;0.64382845;-0.22710218;0.0040891147;0.038683265;-0.060955312;-0.0983003;-0.24448022;-0.06709425;0.44255024;0.013857656;-0.17645942;-0.070459746;-0.032003883;0.076026924;0.1623208;-0.03615569;0.27584207;-0.007126389;-0.18364069;0.03334798;0.0122638345;0.034677833;0.16713388;0.269315;-0.18062405;0.034628347;0.015056688;-0.21576352;0.06559615;0.025047923;-0.091334015;0.45186853;0.06114067;-0.12405343;-0.03783294;0.23109882;0.067411475;-0.029779442;0.079732314;-0.24049543;-0.30975235;0.050637137;0.04200931;-0.09227723;-0.039019536;-0.038789153;-0.23091486;-0.09856659;0.35314202;0.17859253;0.07886216;-0.22325242;-0.11687276;0.20845623;0.022245614;0.25324285;-0.034510713;0.028632997;0.009453565;0.04072512;0.22038871;0.15074015;0.30863366;0.2839829;0.050533276;0.12951021;0.30714622;0.12697521;-0.05249932;-0.24523565;-0.017251916;-0.24237;-0.10510175;0.008048539;-0.18371561;-0.083166026;0.35414034;-0.04144569;-0.054814197;-0.04448491;0.03644245;-0.23130505;-0.005507366;0.21950236;-0.28281802;0.095558986;-0.066751964;-0.2234811;-0.07728403;0.02714959;-0.02197559;0.042801056;-0.13579983;0.009313448;0.05654332;0.2467657;0.046437375;0.12896699;0.3329606;0.119187586;0.50058645;0.0006458805;0.006395444;0.26802644;0.29213747;-0.40124694;0.023101078;0.052977864;0.24788186;-0.07729136;0.028622992;-0.026663462;-0.07536706;-0.3376458;0.03433731;-0.04688846;0.31873453;0.28110066;-0.031961065;0.1081592;0.024753891;0.15633367;0.059483234;-0.0751478;0.13041995;0.02814283;-0.027118925;0.3201035;-0.21182576;0.16021685;0.05976506;0.4252619;-0.3059033;0.09997784;0.4697764;0.09059846;0.071879074;-0.04502433;-0.04766671;-0.006000316;0.023524106;0.0586514;0.47007492;0.16026327;0.20657702;-0.5474828;0.35573232;0.089507975;-0.094263084;0.39192665;-0.0007527265;-0.37361535;-0.4031507;0.21653771;0.13136597;-0.0050135944;0.26106638;-0.019835945;-0.2635699;0.118605696;-0.083398625;-0.14745079;0.019277189;-0.14783342;-0.008025105;-0.13597596;0.0033791712;-0.026814828;0.14776365;0.024999622;0.054110054;0.0301106;-0.05902147;-0.064791076;0.080743685;0.048445657;0.057586946;-0.07963255;0.1513891;-0.054157823;-0.044160493;-0.12583427;-0.024216734;-0.04628589;0.12329443;0.36392233;0.05859731;0.45313808;0.04364376;-0.0673226;0.39317706;0.022252083;0.05824479;0.011539642;0.04850562;-0.030886395;-0.15042989;0.11714376;-0.06771959;0.12856747;0.038661856;-0.3117956;-0.07538089;-0.235886;-0.06236325;-0.21243335;0.03085266;0.041911125;-0.028684113;0.20763652;-0.06300008;-0.02284076;-0.05385878;-0.010108366;-0.2740077;0.018813597;-0.022451796;0.124492936;0.3112558;-0.06398988;-0.26998144;0.039836474;0.42383176;0.34720263;-0.024865545;0.016712772;0.11052151;-0.033160206;-0.16028962;0.12772061;0.13627243;0.27901608;-0.0048043965;0.09439943;-0.04250209;0.017177392;-0.28906217;-0.29799888;0.08577816;-0.00785183;0.3182734;0.2850616;0.08222036;-0.010462548;0.32567063;0.0420874;0.016240343;-0.025353678;-0.015957916;0.010559032;-0.25923964;-0.065848805;-0.057204876;0.41584945;-0.09299509;0.13834894;-0.2650433;0.040591132;-0.13682248;-0.032828722;-0.25128907;0.0057568564;-0.09285985;0.01225365;0.31288984;0.03911004;0.23076041;0.034338757;0.015770636;-0.5942505;0.045085326;-0.011942533;0.3020238;0.16202049;-0.16456887;0.080666676;0.11779025;0.031536233;-0.13931541;-0.069849044;-0.16222538;0.06259689;-0.48786774;0.054616567;-0.22610566;-0.07146872;0.07849659;-0.056222033;0.14063759;0.03906905;-0.023384968;0.2225626;0.008769757;-0.29592243;0.21658929;-0.0116622625;0.19616725;-0.00021123173;0.0628453;-0.04720736;0.12974545;0.1745471;0.3637484;-0.008756444;0.0009790544;-0.258626;0.13139251;-0.0921113;-0.06078615;0.09185776;0.17725855;-0.020027095;0.39848453;-0.10459848;0.121670425;-0.2500942;0.12152938;-0.017269775;0.048888292;0.24445716;-0.015332855;-0.09403286;-0.0852982;0.4280039;0.21367069;-0.08967817;0.012851601;-0.2869655;-0.02952794;0.31451818;-0.0052664857;0.30837208;-0.053172052;0.44121912;0.26670226;0.008830513;0.07868729;0.011388459;0.02547809;-0.16080305;0.001179208;0.08217186;0.020580994;0.1153829;0.0046356665;-0.022619188;0.03053228;-0.026840262;-0.58874863;0.070464484;0.043855354;0.22445294;0.02067619;0.04929275;-0.31543797;-0.014073756;0.035425607;0.09895014;0.0013560816;0.32634833;0.06475701;-0.5556976;-0.028187577;-0.005446993;-0.1707946;0.04613625;-0.012266352;-0.19006798;-0.0574296;0.15825288;0.023055937;-0.026490148;0.14118175;-0.0791653;-0.03900938;-0.10324892;-0.18034156;0.016567241;-0.09852965;0.081668735;-0.19908793;0.11605263;0.0821923;0.2412424;-0.11173354;-0.21824804;-0.3248182;-0.032552134;0.21704657;-0.15347692;0.00631739;0.049371157;0.09237974;-0.013694752;-0.028161857;-0.067693174;-0.021991469;0.08125906;-0.2804753;0.010053084;0.030995766;-0.25642172;0.06273936;-0.05596612;0.070975415;-0.048644558;-0.07605051;0.2633413;0.024653012;0.0023812638;-0.2658051;0.051495235;0.008734483;-0.11121421;0.31752253;0.01775944;-0.44433856;0.02051224;0.22191682;0.028524246;0.22390108;0.13928778;-0.19878921;0.12124816;-0.0029781954;0.003791089;-0.11010242;-0.15275945;0.08051232;-0.14593449;-0.044453524;0.009965866;-0.28334105;0.08530377;-0.04237875;-0.0053781397;-0.21628584;0.33186203;-0.056237575;0.03757494;-0.14569207
0.026552996;-0.022198144;0.23628715;0.18477115;-0.032219913;-0.0337493;0.22130986;0.16631977;-0.048425097;-0.04024181;-0.01144;-0.07045315;-0.29930878;0.47986218;-0.22204985;0.29762778;-0.22934987;0.4477693;-0.0007162462;0.02746167;-0.026291484;-0.061729174;0.56824124;-0.18828894;0.052452337;-0.04119245;0.055833515;-0.3139444;0.009239753;-0.20182298;0.17651728;0.018624581;0.027999789;-0.33628392;-0.12156664;0.13759494;0.14445686;-0.058287643;0.11711658;-0.18377042;0.034275748;-0.015585009;0.28798693;-0.009108643;0.0010387339;-0.3077788;-0.07640761;0.029064428;0.18895122;-0.035936452;0.052778322;-0.21128683;-0.09379493;0.035854015;-0.03423119;0.046581183;0.03500256;0.0628302;-0.0927023;-0.2677514;0.022757176;0.12108568;0.03468186;0.20043932;-0.07680208;-0.28100657;-0.04451462;-0.2271695;0.3313632;-0.045601837;-0.1366736;-0.0579024;0.07555795;0.18222193;-0.088061884;0.07685704;0.023263924;0.081324056;0.30445498;0.036369585;0.046860866;-0.20580967;0.48822474;-0.19975697;0.009034668;0.104310274;0.4272767;-0.07086395;0.022583;0.06926913;-0.05416362;-0.22129954;-0.046097886;0.43015414;0.109567374;-0.32864854;-0.065361045;0.056816887;0.122149214;0.32640904;-0.07773352;0.40291673;-0.22447158;-0.08148329;-0.15796374;0.03330571;-0.0006195178;0.19459766;0.04944812;-0.012052176;-0.13495195;-0.13588148;0.25661883;0.24667215;0.04418612;-0.20708832;0.09490445;0.22106202;0.0737713;-0.07358371;0.13840544;-0.02792614;-0.05191962;-0.014350954;0.040476225;0.023774872;0.17805734;0.039874002;-0.027707513;-0.35540557;-0.13668293;0.24285641;0.24785842;-0.17298108;-0.0801972;0.6557386;-0.347897;0.0348718;0.018670516;0.06453567;0.016053496;-0.045837596;-0.032492626;0.27827242;-0.045251817;-0.30826476;-0.010708515;0.09591674;0.043375228;0.11691072;-0.031707272;0.33914366;-0.06438219;-0.29473445;-0.03749054;0.03955951;0.007535364;0.014490449;0.30980697;-0.27875206;0.14673956;0.058420822;-0.14602786;-0.058299597;0.017093597;-0.07545603;0.3074374;-0.078471676;0.07748945;-0.045391925;0.2584328;-0.044488795;-0.01144555;0.060934413;-0.07957568;-0.14054415;0.0021805102;3.8210437e-05;-0.10605115;0.059541337;0.06692954;-0.18334946;-0.0849869;0.5069764;0.05507513;-0.0304779;-0.11794462;-0.15769559;0.098912425;0.051885556;0.26968148;0.030240972;0.044900514;-0.021497676;-0.07442915;0.21576053;0.10698512;0.32482928;0.3518767;0.041008998;0.1996445;0.18092012;-0.07255907;-0.055195805;0.02010889;0.056829687;-0.15480475;0.051801402;0.09562138;-0.052191537;-0.09629406;0.41868043;0.038067166;0.017136676;-0.06578281;-0.03741951;-0.23377603;0.026427552;0.12956719;-0.25616288;0.15792796;-0.11542482;-0.17255875;0.0005384494;0.029517727;-0.009479271;0.017178541;-0.15406065;0.045051847;0.12639903;0.16462097;0.050269883;0.10041801;0.38641334;-0.0090435315;0.37168232;-0.017579148;0.07582028;0.2537822;0.15537746;-0.40024164;-0.04452416;0.007742349;0.35555944;-0.06842026;0.06722845;-0.03910041;-0.012023963;-0.31783882;0.026937187;0.040372763;0.34629318;0.2704214;0.0030937386;0.07956079;0.03218623;-0.021591;-0.012085717;-0.06843693;0.062307745;0.049720656;0.038779024;0.44316226;-0.114114575;0.01160432;0.14832324;0.23408993;-0.22536866;0.1570425;0.42041853;0.16859698;-0.02419799;0.073605224;-0.11256626;0.05455196;0.013477091;-0.013708574;0.40242606;0.16895528;0.23994388;-0.5445535;0.29036105;0.04870544;-0.17570984;0.39661008;-0.16037622;-0.38105536;-0.40135786;0.23035471;0.32841522;0.019383712;0.27395722;0.018514125;-0.14074281;0.1069018;-0.04586671;-0.13766187;0.04705349;-0.22870539;0.02803776;-0.047883287;-0.012778987;0.05496535;0.14850795;0.031000642;0.068026766;0.008903302;-0.0071890093;0.077577196;0.035552993;0.012827229;0.19485192;-0.07047457;0.075489655;-0.10778911;0.018804975;-0.0979677;0.060901448;-0.11692783;0.101151586;0.2887027;0.16917814;0.38160855;-0.023172252;-0.027385736;0.31763098;0.05577113;-0.018911665;-0.040239193;0.01805601;-0.0419099;-0.10454371;0.12581493;0.12064704;0.16405706;-0.042025022;-0.4044938;0.044860046;-0.24826112;0.059483964;-0.29386935;0.007264057;0.074872896;0.11592529;0.121929795;0.025046151;-0.014256546;-0.03657138;-0.06633501;-0.24365546;0.008288232;-0.118859075;0.21940334;0.17552666;0.02895206;-0.19973525;0.009442388;0.3542692;0.3235686;0.006289388;-0.05400552;0.1043203;-0.019495763;-0.16695617;0.14024492;0.18506257;0.2773611;-0.047543883;0.07588824;-0.040378068;0.2028022;-0.13960646;-0.3422523;-0.014286244;0.08677713;0.35221767;0.2636962;-0.049892057;0.025873143;0.30860728;-0.0077390703;0.029822284;0.04421588;0.018448487;-0.03388348;-0.25658828;-0.010920876;-0.18730852;0.330452;-0.082525834;0.07990424;-0.21916193;-0.093196645;-0.03512243;0.03312253;-0.28720415;-0.037515927;-0.1505318;0.052110996;0.41596618;0.06892567;0.29718912;0.036361665;0.05527475;-0.408906;-0.08328741;-0.14613238;0.33104828;0.09994321;-0.32039553;0.065697245;0.18775114;0.016542882;-0.11743746;0.08321559;-0.10001325;0.065738805;-0.55063933;-0.04333529;-0.2227422;0.023120604;0.04895039;0.020909823;0.062032405;0.07408547;-0.09249352;0.37404788;-0.03007356;-0.24038719;0.03941927;0.035164904;0.2927139;-0.053590108;0.0035019175;-0.012782067;0.21872899;0.16298293;0.41002643;-0.06383995;-0.007377308;-0.2365362;0.07322946;0.062187146;0.047538612;0.13836622;0.020268522;0.10558145;0.14685358;-0.12816559;0.08026073;-0.24652441;0.075160146;-0.10917782;-0.026197726;0.24222349;-0.03467408;-0.18844163;-0.118020326;0.5046722;0.28394383;-0.13943286;0.06226612;-0.22273594;0.012378583;0.24134609;-0.049976815;0.25667652;0.10350716;0.43792078;0.2824212;0.051372718;-0.094353795;-0.0060142474;-0.04317134;-0.047551934;-0.042622264;-0.03162622;0.01716347;0.11443373;0.023670001;0.017856654;0.07586725;-0.04857353;-0.53798234;-0.018118989;-0.0011069356;0.18672903;0.08319976;0.042201538;-0.16191144;-0.03503155;0.10623002;0.26829788;-0.029442454;0.20720735;-0.035142504;-0.4868656;0.0032667452;-0.024343053;-0.1300616;0.028225323;-0.04435767;-0.14651376;-0.029982377;0.10850311;-0.050975274;0.15310034;0.1129702;0.061040588;-0.026326038;-0.1353597;-0.101550706;-0.051678058;-0.043450918;0.030738182;-0.16587113;0.023437498;0.26330355;0.3150756;-0.2787131;-0.11801764;-0.26289093;0.060696144;0.17800055;-0.23459382;-0.04289526;0.05250739;0.21663605;-0.039904587;-0.08479822;-0.05892144;0.020642612;0.019558165;-0.09355664;-0.079057194;-0.01623258;-0.12938976;-0.02170035;-0.0049728653;0.15057757;0.053674653;0.076748684;0.268425;0.03876336;-0.07428857;-0.21979551;-0.045757588;-0.011596065;-0.11428313;0.28994864;-0.046663743;-0.4487629;-0.06556138;0.20061229;0.06374684;0.08403667;0.19660375;-0.24355029;0.25397086;-0.036165323;0.0638587;-0.2624921;-0.079690665;0.15718047;-0.13682306;-0.06727991;0.017659895;-0.17476358;0.100775056;0.018809222;-0.0044532893;-0.28393817;0.290371;0.0119499555;-0.03874955;-0.16715331
0.100429215;0.07874755;0.13622896;0.12288601;-0.016536307;-0.066727616;0.3089879;0.17086975;-0.0109904315;0.0831323;-0.047511213;0.013464379;-0.103887014;0.44810593;-0.12732585;0.14286499;-0.22233757;0.4774061;0.08192777;0.01710276;-0.0065958668;0.027466025;0.48836005;-0.07116901;-0.02878425;-0.049915716;-0.08054066;-0.24493009;-0.010484046;-0.13975781;0.0632746;-0.01943259;0.06496924;-0.16733798;-0.09586902;0.16281971;0.09982346;-0.09967117;0.05833169;-0.12709215;0.028147683;0.054753248;0.23945647;0.053417712;-0.010552829;-0.22809358;0.035382427;0.15911745;0.21064878;0.045029618;-0.059157692;-0.20932673;-0.25241175;-0.053051457;0.09847091;0.0062614284;0.062458213;-0.06460217;-0.09677858;-0.22911373;0.06403112;0.009773618;0.020527765;0.17569387;-0.064941205;-0.2386528;0.05203021;-0.18745658;0.27743772;-0.035514604;-0.16213799;0.06594591;0.01427248;0.26644292;0.02769659;0.089259066;-0.06366672;0.10673916;0.41091198;0.042182416;-0.023918366;-0.19663909;0.51724124;-0.1405271;-0.007723337;0.21804766;0.4046886;0.035389066;-0.0073620533;-0.0017955924;0.080056824;-0.17815334;-0.051456828;0.34560668;0.13602002;-0.33217576;0.054234527;0.035440184;0.18250309;0.29086334;0.040691778;0.42102206;-0.2133038;-0.0627776;-0.10349989;-0.052670453;-0.014537748;0.24419476;0.00503016;0.048743825;-0.07720223;-0.01432807;0.30996186;0.34560093;0.17347527;-0.09408407;0.12009344;0.2060235;-0.031078001;-0.12164548;0.2424827;-0.034673866;-0.124512814;-0.032124978;-0.025200611;-0.06953116;0.1374123;-0.028113842;0.02286649;-0.4662923;-0.073608406;0.03244555;0.2977255;-0.055889226;0.07871215;0.6107321;-0.25130537;0.05248761;0.075512566;-0.048263907;-0.07420061;-0.023603275;0.046537954;0.13852307;-0.010827386;-0.34036613;-0.1549946;-0.025155459;0.073618464;0.096455716;0.04486858;0.43566316;0.09643683;-0.28901404;-0.0066789337;-0.060312923;-0.02667494;-0.02307211;0.4107274;-0.18633838;0.13484582;-0.02554374;-0.10569146;-0.012211836;-0.020841401;0.07852547;0.43347558;0.04936929;0.1843956;-0.0061925026;0.32234323;-0.025658973;0.070332445;0.059425425;-0.061372597;-0.19398937;0.0022627832;-0.011232264;-0.041767173;0.03404438;-0.06252741;-0.18678561;-0.16222805;0.45672455;0.1592947;-0.06139239;-0.0104985405;-0.15134218;0.2425393;-0.009593395;0.28495923;0.04675817;0.05697379;0.071867965;0.04898588;0.26852873;0.17348325;0.32541087;0.35317525;-0.04250625;0.13745172;0.19433215;-0.012201159;0.009891408;0.14312397;-0.0364626;-0.062643;0.017016407;-0.042465474;0.061812125;0.08201462;0.5657938;0.025548;0.03270589;-0.20332228;0.012219578;-0.261348;0.1237201;0.24745211;-0.07834719;0.21463633;-0.08331616;-0.098840855;-0.044951506;0.10685298;-0.017547177;-0.032376945;-0.14353561;-0.017818224;-0.029858347;0.22215313;-0.0205343;0.042795554;0.43932095;0.08738313;0.45556846;0.0043186327;0.06277402;0.21148717;0.12803061;-0.35220477;-0.058642015;-0.009129296;0.54996854;-0.032766756;-0.016473273;0.07263507;0.023117045;-0.29132277;0.10795725;-0.07005583;0.32091066;0.3070822;0.041033026;0.022605292;-0.03089328;0.050443877;-0.070079565;-0.055616755;0.09586543;0.06954222;0.029295564;0.464459;-0.21920879;-0.09683523;0.16082639;0.23939411;-0.22341989;0.27422193;0.4321753;0.19401176;-0.040835023;-0.05790073;-0.03543044;-0.020103363;-0.010259982;0.030218681;0.49165288;0.11174576;0.05120777;-0.56726044;0.13778703;-0.04743599;-0.104652196;0.3883355;-0.09688239;-0.34857;-0.36015135;0.1525257;0.32420585;-0.03368007;0.37586388;0.034045145;-0.31620795;0.30260187;-0.019247172;-0.0654652;-0.0733608;-0.23124067;0.010728528;-0.030897308;0.031555817;-0.050631598;0.12383434;-0.05181956;0.05945833;-0.03918412;0.07978184;0.011920644;0.059300996;0.029711783;0.09469163;-0.09961431;0.028243633;0.023076935;-0.015986474;-0.22548993;-0.025047006;-0.10883186;0.10469427;0.15276085;0.12826951;0.4901874;0.031604666;0.061643887;0.29399014;-0.0020872408;-0.02698139;-0.09561793;-0.18418847;-0.040680006;0.038685266;-0.078383535;0.2259811;0.22289519;-0.033808526;-0.2576275;0.069827564;-0.26469812;0.031707056;-0.27286527;-0.0696912;0.029247195;0.1931537;0.06094319;-0.022483746;-0.041026577;0.07364583;0.061368328;-0.20658408;0.017824648;-0.057854842;0.24214904;0.1098148;0.04190003;-0.15449497;0.09312629;0.29904738;0.23612583;0.102361485;-0.049616147;0.06877829;0.051378995;-0.1309464;0.17429815;0.10843049;0.1890587;0.021082459;0.09070584;0.038028054;0.12680402;-0.25439373;-0.23884842;-0.035300285;-0.0055716904;0.26927716;0.2276407;0.057659883;-0.06094607;0.17237517;0.010451151;-0.033320017;-0.039616387;-0.032373305;0.02239794;-0.24317409;0.08158952;-0.11438848;0.40091246;0.09121186;0.12880221;-0.25510985;0.03004825;-0.2506264;-0.0014774961;-0.30974874;0.05513622;-0.06725166;-0.061343815;0.33406314;0.03140418;0.26506522;0.17759028;-0.0049031773;-0.39238966;-0.18932928;-0.16017348;0.17193043;0.039127238;-0.29305023;-0.03570196;0.28771806;0.06675332;-0.04522016;-0.057638098;-0.18702091;-0.07163005;-0.39898092;0.050005022;-0.08772824;0.06841064;0.19894668;-0.016910214;0.036031667;-0.0845145;-0.025660226;0.29529625;0.076915726;-0.109740205;0.05438875;-0.00683126;0.24349119;-0.048559923;-0.038286038;0.059459396;0.23745677;0.18569031;0.31364682;0.010700608;-0.03671841;-0.26339468;0.1280799;0.053041656;0.07660312;0.31321454;0.009806933;0.059866346;0.16442089;-0.111740485;0.107303716;-0.18013874;0.06091647;-0.006790866;-0.017347654;0.24905325;-0.0667867;-0.20429648;-0.18133493;0.4996333;0.18234973;0.033848602;0.050217394;-0.17360313;-0.033615515;0.26357812;-0.12500766;0.2115202;0.052532747;0.43055078;0.3476572;0.08183247;-0.054550793;0.036541022;-0.033587325;0.14267682;0.06356166;-0.02410737;-0.014742105;0.07663978;0.06800038;0.073183745;0.012853223;-0.060155313;-0.55620515;-0.07884933;-0.064351246;0.22721332;0.03238871;0.07355364;-0.22522767;-0.041204173;0.12659955;0.15080962;0.02785213;0.29797757;-0.0023897304;-0.2944379;-0.0410816;0.10284216;-0.09183769;0.01065454;-0.07053765;-0.07465072;0.037614625;0.07840803;0.009697136;0.14220567;0.07197708;0.013336869;0.05813955;-0.061551977;-0.14103313;-0.026329428;-0.2721603;-0.042121533;-0.16717337;-0.04839089;0.18698077;0.24431688;-0.24867411;-0.07200043;-0.1793472;-0.040257163;0.23004805;-0.2204128;-0.06869933;0.03763077;0.13927485;-0.01946496;-0.004467971;-0.101704404;-0.07051903;-0.036318306;-0.1272124;0.06220079;0.049100712;-0.15625603;0.05474254;-0.024614222;0.18335205;0.176554;0.061898705;0.3756208;0.016120264;-0.009544129;-0.158152;0.0059889085;0.01327606;-0.060627706;0.39541623;0.077527516;-0.37085235;0.036704853;0.20136294;-0.04206235;0.0040759533;0.038413085;-0.39857355;0.18110171;-0.037422303;0.20514587;-0.39880353;-0.25417325;0.15343285;-0.29284403;0.13911855;-0.046691343;-0.14480896;0.03162251;0.014863734;-0.032910254;-0.33390722;0.32576486;0.01332824;0.055561136;-0.1824053
-0.01451835;0.020237839;0.17326532;0.14004035;0.012885347;-0.09456199;0.3697348;0.2004077;0.028994596;-0.02055724;0.03765025;-0.003653603;-0.13288018;0.45075867;-0.12953348;0.07941175;-0.28799066;0.30655614;0.043853823;-0.015553029;-0.011479134;0.016538993;0.61058193;-0.10729715;0.053259283;0.021392724;-0.01473693;-0.23319954;0.02507391;-0.11181695;-0.040938247;-0.007756042;-0.06986993;-0.29572043;-0.0827961;0.06304495;0.26002458;-0.102218844;0.0792246;-0.13822642;-0.057087507;0.026171526;0.35181457;-0.045918517;0.012144573;-0.31333908;0.046663474;0.22570522;0.1253031;0.033978824;-0.014896978;-0.28598443;-0.25977135;0.0024795297;-0.031996403;-0.043311324;-0.035206065;0.08376565;-0.13520066;-0.27473155;0.0068775327;0.0666663;-0.045522764;0.10426486;-0.0125654265;-0.10568561;0.03636719;-0.20464477;0.17996863;-0.0246288;0.03249237;-0.06894439;0.0151583385;0.28880066;0.05003899;0.17943487;0.052610125;0.165591;0.35009834;0.0389943;-0.017689612;-0.07951587;0.43659478;-0.21630807;-0.063172735;0.14382553;0.37525433;-0.05753058;0.010530344;-0.054772973;-0.040794905;-0.13152328;-0.13549173;0.3515378;-0.118611306;-0.40188372;0.064435594;0.08797417;0.25111303;0.14798598;-0.047334887;0.34078863;-0.31100765;0.06248323;-0.013296561;0.033019986;-0.043417893;0.1565308;0.011723328;0.012696205;-0.06745118;0.013362884;0.22335258;0.24214408;0.16174333;-0.2859665;0.07551807;0.14933574;-0.027081702;-0.17860967;0.06065369;-0.07983793;-0.1770145;0.004155103;0.045574542;0.023748353;0.18008217;-0.012671367;0.008852121;-0.42193142;0.007038237;0.0700717;0.321982;0.003075076;-0.052491967;0.6156804;-0.36958605;0.09108396;-0.057224374;0.037104797;-0.002109296;-0.07800123;0.069253676;0.13150151;-0.0061535873;-0.26715988;-0.14381418;0.0047577308;-0.04443513;0.067872904;-0.005599068;0.42907143;-0.0075439923;-0.19825473;-0.021509359;-0.031794358;-0.0079983715;0.09742327;0.3887794;-0.22599454;0.1656192;-0.018508846;-0.022211883;0.08720392;0.014057117;-0.06963511;0.41650677;0.04366126;0.08193125;-0.019759728;0.22998542;0.037584685;-0.02988998;0.051750965;0.079184555;-0.06594299;0.052393746;0.011864484;0.01285375;-0.06365958;0.017103482;-0.19196823;-0.11498914;0.58820564;0.15005058;-0.003966444;-0.044519;-0.12184472;0.28170085;-0.081006296;0.26865682;0.030298246;0.21250603;-0.044455994;0.007992158;0.24506144;-0.07637352;0.36371797;0.33973575;-0.06312047;0.13578211;0.21039131;-0.23821226;0.06185154;0.11563911;-0.041025963;-0.03384066;-0.05493608;-0.068462804;0.10839384;0.056556225;0.36582884;0.004100752;0.031323414;0.020435298;0.06948032;-0.37895548;0.08195594;0.1656446;-0.17103593;0.16881987;-0.13953005;-0.013210306;-0.00988103;0.1435215;0.009932777;-0.069439374;-0.025833355;0.048644718;0.033831622;0.18683398;-0.002098548;-0.031781785;0.42829588;0.04841887;0.2913608;-0.03715733;-0.0475743;0.21287389;0.11974529;-0.47492346;0.040193878;-0.02561487;0.3943012;-0.07083959;-0.0048919716;-0.018458053;0.08293401;-0.16485618;-0.027132962;0.04349405;0.30878466;0.26314852;0.08418683;-0.027623547;-0.019051844;0.011801966;0.06879941;-0.09258779;0.036835004;-0.054532066;0.037000455;0.41353872;-0.03314298;-0.043577485;0.22455776;0.20070659;-0.2588129;0.26537567;0.480031;0.0114009585;-0.065266624;0.030666267;0.052915677;0.03334636;-0.022327611;-0.001733997;0.550177;0.15812857;0.14831096;-0.48981708;0.14816351;0.045448337;-0.19659343;0.32421556;-0.09627364;-0.37022123;-0.31843883;0.14565793;0.31418195;-0.028994044;0.3522617;0.11279069;-0.18030015;0.250608;-0.15016045;-0.0052478435;0.051797744;-0.06857899;-0.033334393;0.07935796;-0.029161513;-0.011938195;0.05857138;0.08432244;0.027975215;0.012147284;-0.039721195;0.0056191767;0.0509363;0.009980908;0.08463499;-0.061645277;0.07118415;-0.020274758;-0.011767446;-0.122509375;0.04847771;-0.14816557;0.072172865;0.22113344;0.020340195;0.43666008;0.047547568;0.013742596;0.22759561;0.00046667934;-0.01514855;0.031090003;-0.13116832;0.08035834;0.09225997;-0.044240292;0.15652268;0.17814493;-0.032607693;-0.3659376;-0.07387235;-0.2134429;0.050539687;-0.21408543;0.053264204;-0.083315;0.15433331;-0.023135157;-0.035899032;-0.0160234;-0.05109795;-0.047432955;-0.29966772;-0.0343452;-0.08849496;0.19857068;0.121138215;0.004664036;-0.17848238;0.11275217;0.26089767;0.27153948;0.14173207;0.07059127;0.056757748;-0.020162303;-0.15741651;-0.07622423;-0.059479233;0.08392025;0.038809612;0.008165225;0.12242699;0.22624208;-0.14358327;-0.25883663;0.074419945;-0.026132504;0.2541552;0.12356137;-0.08976173;0.06041262;0.20435742;0.031719044;-0.07293886;0.023406371;-0.16720511;0.044131145;-0.34214357;-0.0074893646;-0.18824022;0.40452838;-0.032677434;0.075378425;-0.17752099;0.032451764;-0.15273285;-0.028902307;-0.13298833;-0.047606073;0.009741133;0.036815424;0.30153862;-0.08196683;0.16467671;0.11709064;0.055465817;-0.372465;-0.15628617;-0.20003408;0.3246819;0.077691615;-0.40861446;-0.078800865;0.19091867;-0.031522673;-0.07176893;-0.03931287;-0.06264994;0.07212378;-0.38610002;-0.04635133;-0.031519208;0.0020837726;0.15492187;0.006496711;0.041293204;0.026909864;-0.057766996;0.22193672;-0.01749555;-0.15477024;-0.05275409;0.05505315;0.32908085;0.05114049;0.068690434;-0.019351872;0.4157462;0.2867674;0.4223647;0.04117261;-0.0267819;-0.2063162;0.13870223;0.024486966;-0.0075000967;0.23110686;0.00036237435;0.017486813;0.13214731;-0.061231937;-0.002131823;-0.081795536;0.16350164;-0.010350785;0.03857085;0.02327365;0.06279076;-0.2207705;-0.16309895;0.3512828;0.1986459;0.062174924;0.047768705;-0.030106362;-0.00016790706;0.23957236;-0.0051959804;0.25465128;-0.018386727;0.44904205;0.19035491;0.06610429;-0.013023406;-0.009385021;-0.13125342;0.12568355;-0.014913828;0.07052881;-0.053766884;0.12726003;-0.020525899;0.041842446;0.073179804;-0.017535;-0.50221485;0.058290195;0.06508084;0.056104187;0.036110155;0.002635306;0.034954377;-0.004124607;0.11830248;0.19613673;-0.03524892;0.14133197;-0.016251277;-0.40725118;0.031505223;0.03408497;-0.09247957;0.010921195;-0.16460821;-0.118080005;0.054236326;0.109268695;-0.019833084;0.11173428;0.017172517;0.07086316;0.030606762;-0.07865479;-0.11890143;-0.025270345;-0.20044418;-0.0035747942;-0.32280535;-0.028931914;0.28849563;0.29277164;-0.1753023;0.07556406;-0.16592064;0.045754876;0.18963398;-0.1399033;-0.041523453;0.07522209;0.09216424;-0.039526604;-0.026816774;-0.1282319;0.04763917;0.054247297;-0.061932243;-0.043073513;-0.07872897;-0.31411254;0.0029899196;0.010445716;0.00924348;0.16941538;0.019247662;0.25014144;0.07702534;-0.06820868;-0.30340368;0.10131495;-0.018817203;0.029073816;0.4546117;-0.057859432;-0.36327285;-0.020840287;0.24068649;0.08308137;0.0033163035;0.05676854;-0.3417296;0.22750331;0.08131541;0.261842;-0.3074992;-0.29007658;0.067214325;-0.19006205;0.070393674;0.009887449;-0.08333817;-0.013812355;-0.02407;-0.06368181;-0.1552287;0.30477512;0.0010262695;0.006788207;-0.09160335
0.022501264;0.13062604;0.09501877;0.17013128;-0.012262973;-0.15532385;0.3483851;0.13665512;-0.0046614157;0.019899728;-0.015530333;0.047492925;-0.15124638;0.3219662;-0.08220089;0.13115501;-0.08383377;0.43285134;0.04293683;0.038633462;0.083206385;0.0038428565;0.583278;0.011608325;0.10323736;0.078662924;0.0124157285;-0.13765146;-0.034250997;-0.08043472;0.057417594;-0.021280954;0.111283675;-0.25538033;-0.13451967;0.0046059084;0.27463502;-0.11625011;0.14482267;0.049637165;0.07063361;0.048494305;0.4815203;-0.031462207;0.067612454;-0.22846018;0.0077838544;0.20787032;0.17450447;0.056482133;-0.03501401;-0.31138405;-0.22992666;-0.06435475;-0.040857006;-0.09624773;-0.055776805;0.06755909;-0.11581586;-0.18918583;-0.04814671;-0.0314296;-0.014821722;0.07747102;-0.04016012;-0.18187338;-0.076619186;-0.16979668;0.26969174;0.047585078;0.05091327;-0.043801595;-0.059567016;0.2639028;-0.08151672;0.061399013;0.01925659;0.077840194;0.20734598;-0.022456607;0.064581245;0.077589;0.25355422;-0.30038851;0.049800873;0.28945428;0.28892213;0.07563422;0.062026467;-0.0477039;0.030737584;0.0096166255;-0.058152277;0.47615594;-0.13147618;-0.23923205;0.049263515;0.21581966;0.29232153;0.14667588;0.0630741;0.4187393;-0.19539231;0.032591574;-0.096315116;-0.12279044;0.06500844;0.2013644;0.011221248;-0.014360253;-0.11120089;-0.11339061;0.2689629;0.340612;0.15179074;-0.16955963;0.08021216;0.123756684;-0.064873725;-0.18655577;0.27201444;0.037151553;-0.14796476;-0.047196124;-0.057273015;0.059284046;0.23087473;-0.020565638;-0.0059679323;-0.4916128;-0.047579415;0.048588917;0.18083219;0.19016163;-0.015619639;0.52600336;-0.2598916;0.1516867;0.045176297;-0.025204824;-0.066195965;-0.037314758;0.08857934;0.12108716;0.06799286;-0.37007132;-0.1919572;0.00014555326;-0.07096783;0.09277392;-0.05018511;0.4491721;0.07037818;-0.16859217;-0.03083068;-0.043243665;-0.028379813;0.019901056;0.27654067;-0.3273648;0.2434934;-0.042195078;-0.056494292;-0.043695245;-0.0050164806;-0.113228954;0.30865628;0.0027802677;0.16265257;0.031083409;0.24873881;0.0057315086;-0.017925471;-0.053126473;0.0629496;-0.059130173;-0.03393897;0.009297272;0.10952047;-0.06862659;-0.039965454;-0.17027885;-0.030217668;0.5252027;0.19756201;-0.08801535;-0.045775913;-0.14205612;0.24863939;0.072934315;0.27110624;-0.008093447;0.09462251;-0.044182744;0.028164875;0.10224554;0.007912299;0.37628192;0.19901252;0.054994542;0.13081482;0.20715204;-0.21120961;-0.024895877;0.1290762;-0.04736818;0.0971879;-0.004843107;-0.055890046;0.025309516;0.0626299;0.33503175;0.04435718;-0.03896587;-0.01480829;-0.0658177;-0.1943717;0.26717433;0.14410236;-0.17345572;0.05906547;0.04723685;-0.10985431;0.01581865;0.20010208;0.013229386;0.0027270732;-0.021391869;0.05743972;-0.07483744;0.2281327;-0.0021710622;-0.08725063;0.30579442;0.06352865;0.26231074;-0.044431143;-0.023399454;0.12633543;0.24497844;-0.36490518;-0.025354024;-0.041275505;0.49095276;-0.057129923;-0.041566595;0.0781452;-0.002504098;-0.08824217;0.079679474;-0.060099453;0.43054357;0.32806048;-0.05924709;0.046175703;-0.08768006;-0.0295821;-0.05076435;0.01976873;-0.052390646;0.009866158;0.02410354;0.61396754;0.0025525193;-0.07534796;0.13913803;0.097746104;-0.13989493;0.27084392;0.4052719;0.21418789;-0.007414996;0.04160004;-0.009168547;0.08714356;-0.009091348;-0.035908394;0.45955682;0.074802615;0.033605475;-0.4847321;0.08725397;0.008068152;-0.20013778;0.4151448;-0.13863572;-0.22261617;-0.20798343;0.124343276;0.36477157;0.04312816;0.33711982;0.029929768;-0.2908146;0.35356763;0.027661301;0.046869297;0.007990473;-0.0057141734;0.045886703;-0.053734493;0.04806092;0.00022647352;0.13924865;-0.06679306;-0.017821273;-0.022349298;-0.05239084;0.059289537;0.09199331;0.0022217585;0.047282886;-0.15678152;0.0040707113;-0.00560263;0.031955622;-0.063156255;-0.053822614;-0.11608487;0.19190799;0.08673744;0.1977706;0.49175078;-0.025065737;0.05338807;0.090522334;0.08297309;0.03346676;0.015017235;-0.1640909;0.013315483;0.041097146;0.03199657;0.22653659;0.14329596;-0.011546642;-0.30967298;0.03259916;-0.09286912;-0.0060941037;-0.22277671;0.019097088;-0.029355781;0.2919394;-0.101740636;0.11751335;0.04673663;0.040258568;-0.0064037894;-0.2356798;-0.060612135;-0.022066483;0.20237058;0.03873817;-0.016374992;-0.019034695;0.10150537;0.22067533;0.35734004;0.111748844;-0.09061711;0.14711289;-0.044781175;-0.088408545;-0.007740672;0.06682573;0.17403;0.036423285;0.067249805;0.17232652;0.29519933;-0.09842649;-0.19458784;-0.056877766;-0.0074269525;0.23034048;0.17924841;-0.03778773;0.057220623;0.21669778;-0.07245922;-0.02895253;-0.006726249;-0.16107775;0.029332228;-0.23565334;-0.028066838;-0.10231627;0.44949746;0.16737062;0.03681764;-0.10174219;0.05752579;-0.3505951;-0.07284073;-0.085887685;0.010682937;0.121524915;0.014862539;0.21957278;-0.01503814;0.21714681;0.087540776;-0.06541763;-0.21485509;-0.14606693;-0.05660556;0.3482696;0.112060234;-0.29009682;-0.029716203;0.16495386;-0.08513634;-0.050329637;0.019072779;0.015859772;-0.036487084;-0.361073;0.01847069;-0.0021266683;0.03397545;0.11987936;0.12571037;-0.010933258;0.014159375;0.08672562;0.19597772;-0.037371863;-0.09046617;-0.08110964;-0.026054714;0.27522695;0.032831065;-0.00024317663;0.00846842;0.3434326;0.24127766;0.45656484;-0.056622013;-0.057369165;-0.199666;-0.053520907;0.20039827;0.031158403;0.22765519;-0.04323308;-0.010549459;-0.013420738;0.041839868;0.11285228;-0.047217898;0.12109042;0.05871969;-0.08842379;0.13102464;-0.015293726;-0.251878;-0.22047558;0.46388692;0.21372895;-0.019069063;0.08478197;-0.10497999;0.07323474;0.104867995;-0.10570026;0.23591532;-0.013572814;0.4830061;0.12678118;0.021790463;-0.08912582;-0.064633995;-0.25136933;0.1175934;0.017227989;-0.03336174;-0.05210106;0.16839035;0.016043616;0.071965694;0.094080225;0.1944631;-0.3546246;0.046664063;-0.036139578;0.15935856;0.14329326;0.017563593;-0.02255211;-0.023339633;0.11010988;0.17081815;0.011913252;0.06636223;-0.03381138;-0.33230188;-0.0138305;0.010363452;0.022777101;0.033443045;-0.19383827;0.12240162;-0.032796245;-0.023649095;0.009831107;0.20914614;0.0800666;0.05863954;-0.036460474;-0.14556126;-0.09299223;0.08135586;-0.29020032;-0.05373836;-0.24301831;-0.049623117;0.29260236;0.25718346;-0.17391941;0.14580481;-0.07953862;-0.05783002;0.3466606;-0.08919297;-0.17534515;0.1417055;0.23137595;-0.012617328;0.05079802;-0.002082052;-0.0764109;-0.035899818;-0.019771907;-0.060059663;0.049643617;-0.17712557;-0.02448473;0.023095025;0.17974126;0.056860432;0.033743024;0.23726836;0.0099944305;0.07614563;-0.17682771;0.06854306;0.035662323;0.092484;0.28046593;0.006949266;-0.21714112;-0.033841945;0.21684155;-0.024935793;0.0042676404;0.009323903;-0.39035943;0.29636717;0.0031613233;0.12737365;-0.2973686;-0.29508293;0.03556203;-0.35435063;-0.0045304145;-0.042832036;0.0912676;0.007071766;0.051457595;-0.21407852;-0.26657647;0.28597504;-0.060585808;0.050073028;-0.037166525
-0.013226286;0.09693006;0.041598037;0.097321406;0.06662729;-0.07656876;0.43124896;0.15049958;-0.0020170219;-0.028370634;0.05420499;0.10179238;-0.084424816;0.2967032;-0.023366705;0.11135566;-0.10898473;0.25569606;0.04592834;0.034548596;-0.044052724;-0.014408237;0.4530712;0.17390445;0.07313355;-0.01376193;0.00069092435;-0.18613341;-0.012080963;-0.096954554;-0.027600821;-0.06407516;0.033034693;-0.22750714;-0.11144617;-0.06069113;0.2803078;-0.13191903;0.09951979;0.08435944;-0.03427835;-0.012434877;0.4069345;-0.037524298;-0.007090892;-0.18403971;-0.033073965;0.06698325;0.17349513;-0.06276124;-0.010956091;-0.21903378;-0.21938366;-0.075881496;-0.001490584;0.010748506;0.017361932;0.082988985;-0.009278326;-0.108023494;-0.05517619;0.016507262;0.020809889;-0.08699333;-0.04124705;-0.21471193;0.027583009;-0.024861358;0.2242461;-0.03493135;0.1624497;-0.023362845;-0.01914477;0.28664818;-0.07464716;0.10701328;0.03082086;0.073137365;0.31382957;-0.020216092;-0.0010807441;0.10332235;0.057347693;-0.14615895;0.038184937;0.30256256;0.28831705;0.0799884;-0.037219092;-0.030609228;-0.038508598;-0.026255202;-0.025484936;0.41048652;-0.07004556;-0.1415248;-0.025977928;0.10733779;0.3162699;0.15455955;0.0728757;0.433898;-0.31373325;-0.014445859;0.06415016;-0.19633064;-0.022767538;0.21197125;0.08098266;-0.015638847;-9.780983e-05;-0.094077215;0.36651084;0.31941223;0.17841911;-0.17129393;0.13612074;0.17102297;-0.0019460685;-0.29054612;0.15729058;0.085470445;-0.2116411;-0.057891674;-0.0582481;-0.060408156;0.16473946;-0.09629332;0.02305157;-0.4593347;0.026933901;0.06314491;0.33125645;0.17213112;-0.05027836;0.59512705;-0.30006903;0.13464896;-0.060181633;0.030690536;-0.08775114;0.011184894;-0.024207791;0.008762128;-0.03605075;-0.34035817;-0.052929275;0.009389938;-0.14139882;0.14339145;0.03715983;0.29312477;0.034291197;-0.24352837;0.03816882;-0.013451599;0.024314813;-0.06751353;0.20020323;-0.27344283;0.18606044;-0.04659679;0.08975677;-0.072124355;0.029891297;-0.02027415;0.3730245;-0.010792514;0.2740403;0.063023716;0.24088383;0.045360103;-0.017997993;-0.012176223;0.01821019;0.1113997;0.0018007815;-0.064978026;0.046332013;0.048034962;0.07481389;-0.08853826;-0.18555214;0.43959385;0.19688357;-0.10890835;0.032933295;-0.043326903;0.115830116;-0.004230825;0.15904474;-0.027882328;0.052799117;0.024976375;0.023382872;0.19921567;-0.0236215;0.33070967;0.14230876;0.07957741;0.14789866;0.25937906;-0.16538158;0.015812906;0.27161646;0.07708021;0.10934672;0.08986441;0.04537683;0.036958024;-0.034700233;0.22439227;-0.041950356;-0.001696139;-0.13561763;0.07765994;-0.20419028;0.20439272;0.043548588;-0.07772137;0.10466301;0.05431464;-0.16270702;-0.035383437;0.22264452;-0.019563777;0.028170701;-0.09372514;-0.036623728;-0.09768639;0.13283427;-0.06998202;-0.19764665;0.3708334;-0.040098738;0.3443937;0.041582435;-0.046136327;0.1764924;0.21107243;-0.24784032;0.022119964;-0.003106546;0.4313526;-0.18097498;0.09263339;-0.039531507;-0.019028144;-0.10674748;0.033989757;0.020123404;0.41242513;0.4123199;0.073004186;-0.009006219;-0.055316314;-0.049843114;-0.004937205;-0.09608073;0.031723592;0.05931625;-0.067016184;0.48434803;0.013972814;-0.0064060236;0.20836528;0.19728139;-0.03051246;0.25846225;0.3527453;0.15842564;0.0059448844;-0.013656695;0.08769197;0.06861628;0.045150265;-0.03406314;0.4406841;0.17943306;0.119191885;-0.40624723;0.07947612;0.09583116;-0.12689923;0.34337607;-0.23570746;-0.14512812;-0.11903797;0.065389;0.4808482;-0.029558962;0.305055;0.14669877;-0.20809;0.3376961;-0.01737097;0.123551086;-0.02372682;-0.024125138;-0.038208634;0.06708608;0.020165954;-0.015199249;0.0827162;0.009532184;0.023159176;-0.017292436;0.037184495;-0.059754677;0.13533962;0.026143365;0.0312445;-0.07151534;0.011937999;0.13413443;0.09928766;-0.06541219;-0.09115367;-0.21230511;0.049932554;0.07953902;0.096892506;0.44147015;0.042176038;0.035637792;0.052785426;0.07280164;-0.036709085;-0.004971189;-0.17866622;-0.021589851;0.2342538;-0.041221593;0.30965942;0.06689092;0.052108772;-0.38084367;0.041506056;-0.04324284;-0.0657972;-0.12712151;-0.0033744741;-0.10692188;0.36051965;-0.1447877;0.07635807;0.040858194;0.02310082;0.00406518;-0.24162818;0.03839755;-0.059274025;0.17603627;-0.015330772;-0.011721613;0.04693995;0.08751077;0.22092232;0.4325323;0.1094162;-0.012960925;0.08154059;0.036005236;-0.010011309;-0.024828037;0.098259516;0.12132239;0.024230294;0.053614724;0.16123956;0.26216602;-0.15002632;-0.32827228;-0.024067327;-0.10268963;0.17624545;0.11192999;0.033033367;-0.05097627;0.07141773;0.010184281;0.034587473;-0.030779347;-0.10871911;-0.09286989;-0.30493328;-0.044035528;-0.015734572;0.4845586;0.19662519;0.1375089;-0.09126356;0.04125137;-0.30771685;-0.036895473;-0.17526041;0.038561296;0.11862561;-0.11884616;0.25888124;-0.072114676;0.15198441;0.22312301;0.09717495;-0.23805495;-0.18167041;-0.11321672;0.3219461;0.034857146;-0.3513968;-0.19130483;0.1670296;0.05458236;-0.06515785;0.04578069;0.04564119;-0.039095014;-0.19992639;0.0209902;0.012303687;0.04294006;0.17937142;0.13159926;-0.10751297;-0.053515323;0.022915797;-0.011181432;-0.041855525;-0.22730689;0.025093783;0.038214277;0.2189666;-0.01047094;-0.054297756;-0.016497964;0.39588633;0.12364169;0.29758283;-0.123782866;0.08505414;-0.24476263;0.024349716;0.08548656;-0.060303673;0.14051081;-0.0668962;-0.015190971;0.016240494;0.058646068;0.03790219;-0.027011137;0.17971696;0.13183673;-0.004147794;0.08087524;-0.02096391;-0.31409314;-0.104930766;0.46101734;0.20719431;0.012361958;0.046395443;-0.07577441;0.02538761;0.008065149;-0.1336177;0.24875946;-0.024111534;0.41921735;0.2549882;0.044195566;-0.027341384;0.054179832;-0.39923477;0.21186613;-0.08547313;-0.067955725;-0.038691945;0.100508146;-0.099283256;-0.05838862;0.1327599;0.27982908;-0.50393254;0.03839129;-0.003126487;0.050353963;0.042472087;0.087546915;0.10648174;0.05846282;0.10832145;0.22646788;-0.003946254;-0.048821595;-0.041933298;-0.14591123;0.06548597;0.008652788;0.012804311;-0.014443777;-0.083795324;0.062040824;-0.04343338;-0.023012033;0.0350592;0.2091367;0.029769387;-0.035763416;-0.03266786;-0.18951936;-0.030826753;0.00418723;-0.37714764;0.0568261;-0.15960084;-0.021680621;0.32711035;0.100063816;-0.17524523;0.2604029;0.09279826;-0.03961915;0.2882668;-0.011931921;-0.18197945;0.09362167;0.27459052;-0.0526599;-0.014997456;-0.06500409;-0.025002785;-0.058511596;0.018883316;0.020256622;0.025499135;-0.16299967;-0.015408493;0.048396893;0.12467632;0.05609586;-0.006156834;0.19952852;-0.057402615;0.02999627;-0.04334358;0.07465922;-0.06712857;0.06705753;0.29502228;-0.0969435;-0.1881874;-0.012486578;0.2192432;0.007894254;-0.07169906;0.018739648;-0.28068346;0.35196778;-0.05259322;0.12864453;-0.23657176;-0.20835567;0.17534873;-0.34479913;0.19850306;0.041408837;0.03223331;0.07380985;0.011983972;-0.24012797;-0.22034664;0.2897734;-0.0028457958;-0.055481933;-0.07324065
-0.03637313;0.04698182;0.037884284;0.08440269;0.054731794;-0.020591715;0.37796876;0.29606935;0.027666781;-0.16445532;0.014044823;-0.051590066;-0.06373184;0.26618207;0.047526754;0.015006045;-0.09329854;0.2797893;0.05322072;0.027716711;-7.132896e-06;0.03170264;0.4481556;0.15968631;-0.03583731;0.025174567;0.013375063;-0.2032288;0.04310899;-0.18606412;-0.09824829;0.0528857;0.070417725;-0.16719376;-0.19067204;-0.015709655;0.3022803;-0.20263626;0.20427516;-0.029931197;-0.043244325;-0.048354637;0.42560625;-0.17825788;0.010895033;-0.211659;-0.053581845;0.13773608;-0.05563239;0.019929528;0.052874804;-0.27146867;-0.1531386;0.030073842;0.035554484;0.020832293;0.03977838;0.10622501;-0.018384703;-0.039534904;0.043818947;0.11043944;-0.061455123;-0.0022101249;-0.040479332;-0.12188129;-0.0068140756;-0.015090622;0.19531427;0.04815118;0.08168271;0.055228423;-0.025112774;0.3072067;0.036142122;0.15163004;0.021487253;0.1759544;0.18242049;-0.0040163794;0.030618696;0.05508966;0.027013492;-0.22133748;-0.08240709;0.28310102;0.287507;-0.04944762;-0.049473144;-0.050708856;0.02550625;0.012807532;-0.024195245;0.38834456;-0.06938282;-0.16388243;-0.06877393;0.10375597;0.322422;0.11567781;0.036887653;0.355768;-0.21700479;-0.051109605;0.06970634;-0.21425782;-0.02317465;0.15381983;0.098798856;-0.046274476;0.06299241;-0.032594167;0.17368469;0.24530824;0.15763076;-0.13990964;0.26220006;0.10546303;-0.06565223;-0.28127176;0.26930788;0.062296525;-0.30290046;0.043335214;0.0394128;0.06601178;0.18540503;-0.1517661;-0.021408908;-0.4965794;0.036002778;0.0053521967;0.14860964;0.22788419;0.058858987;0.43592754;-0.32638952;0.13268535;-0.010076;-0.06454799;-0.08455079;-0.04952578;0.023994874;-0.064133465;-0.03742387;-0.39484057;-0.10286759;-0.03768709;-0.12027413;0.00934812;0.06466824;0.39752382;0.044494107;-0.19084372;0.045501865;0.0008141271;0.048473053;-0.07517593;0.33627695;-0.32059607;0.23517768;0.021642799;-0.0879069;0.03911076;-0.024069048;-0.10881137;0.47188392;-0.052292608;0.1680838;0.012607181;0.29719102;-0.065314665;0.013654264;-0.0076415506;0.09302174;0.082167745;-0.07290801;0.007899998;0.07960664;-0.048289295;-0.012313577;0.016295638;-0.084395476;0.3306632;0.1798018;-0.057860516;0.027871683;0.003262851;0.029594624;-0.06619174;0.12507649;0.06296558;0.014835679;-0.06838196;-0.015200851;0.19199269;-0.11302201;0.33503053;0.31959862;-0.05634202;0.15395118;0.3243432;-0.20061846;0.06491138;0.22218555;-0.01454977;0.26489297;-0.061230317;-0.09867307;0.05296684;0.08844389;0.29196918;0.07485925;-0.010570394;0.01539557;-0.06071406;-0.23516032;0.19008939;0.102225944;-0.07269302;0.21852246;0.12079101;-0.09263807;0.004090631;0.16716428;-0.031682663;0.041822083;-0.046173826;0.0051169023;-0.20343696;0.26512375;0.036696658;-0.19123003;0.30991042;0.03395148;0.34897345;-0.010985132;-0.031418297;0.08384624;-0.024616992;-0.14967483;0.004677854;0.024675503;0.43138054;-0.09157598;0.0683256;-0.021287166;0.038584102;-0.004897236;0.13291426;0.04788099;0.3811015;0.40233254;0.060708914;-0.05560787;-0.031125732;0.046798486;0.04579761;-0.055834208;0.06451457;-0.026502829;-0.05293824;0.3751146;0.08192396;-0.08868018;0.26265308;0.05739264;-0.0116968285;0.12173789;0.3917876;0.107242055;0.029959403;-0.049635842;0.035396744;0.078474075;-0.018775593;-0.005738129;0.42613032;0.17807816;0.04616084;-0.5179464;-0.041494917;0.10237435;-0.24057986;0.42056325;-0.2443036;-0.13800043;-0.005892795;0.15997985;0.34119466;0.010018578;0.10546793;0.23154686;-0.27419463;0.19103281;-0.034188688;0.04787752;0.0058444603;0.010818926;-0.019860862;0.04196737;-0.037118018;0.05203866;-0.13792074;0.03980623;-0.029582962;0.0030993095;-0.08962453;-0.03645091;0.20384498;-0.010249759;0.044746213;-0.11561704;0.012945068;0.011340266;0.058535032;-0.11074123;0.05207098;-0.19617172;0.06494806;0.05176593;0.05662635;0.3081366;-0.06284034;0.04651469;0.08139023;-0.08971349;0.012252841;0.040380575;-0.13857149;-0.051745936;0.25923;-0.01617056;0.19078878;0.04122779;-0.0005119736;-0.37789565;-0.039852772;-0.14479841;-0.039830636;-0.19900258;-0.061596822;-0.10835034;0.25500703;-0.17380482;0.020504413;0.05186221;-0.047292944;-0.004456496;-0.20221141;0.036044918;0.08212447;0.041391794;0.15610926;0.020135408;0.044496033;0.061376497;0.019387381;0.37749112;0.043925636;-0.034530926;0.16730745;0.054581057;-0.040657032;-0.11920724;-0.0073253107;0.05180658;0.03562278;0.033199895;0.07246724;0.3135106;-0.059681255;-0.35952285;-0.043657005;-0.03811878;0.22185439;0.16276404;0.003767163;0.062183697;0.12998345;0.07760379;0.034630675;0.02626127;-0.13916747;0.049472835;-0.18353912;-0.035390962;-0.09523526;0.35879603;0.11737677;0.02525822;-0.17866307;-0.040495664;-0.23269369;0.08634251;-0.1538671;-0.014678732;0.09108725;0.011902748;0.15998934;-0.038037278;0.046681218;0.16410731;0.10039611;-0.109942794;-0.2298067;-0.17967916;0.3224571;0.064479165;-0.33321556;-0.13879995;0.03612728;-0.019062955;-0.14633405;0.04198762;0.021702407;-0.046348657;-0.18894412;-0.016381694;0.040567104;-0.02622753;0.16584085;0.17311083;-0.123733215;-0.012747673;0.0521936;0.07532135;0.016803656;-0.18749337;-0.051091615;-0.07911293;0.12988856;-0.014617963;0.011053416;-0.030061174;0.39000103;0.238753;0.5011305;-0.09086254;0.07965237;-0.2181707;-0.092988;0.07296696;0.03711711;0.10656888;-0.034189705;0.058803625;-0.031084161;0.18218783;0.0893393;0.03928202;-0.03467471;0.09516593;-0.006002722;0.021059213;0.0061171744;-0.2675853;-0.11807084;0.5076775;0.04561956;-0.047851074;0.07140274;0.021007476;0.14252292;-0.03635671;-0.21539623;0.22457315;0.072509505;0.40351284;0.13961843;0.0035831318;-0.0025327;0.022476295;-0.29505014;0.1430903;0.027194839;-0.013736016;0.09529865;0.17006224;0.047590032;0.008053981;0.24313267;0.17347874;-0.46486828;0.063155994;-0.0039278576;0.013683949;-0.023226323;0.053864107;0.112625495;0.008017016;0.080439575;0.28749675;0.035169404;0.00851253;-0.01636107;-0.2387944;0.06476492;0.0111753885;0.06434071;-0.026081188;-0.19940247;0.02174955;-0.0033403034;0.054187074;-0.022541752;0.14686882;0.03935712;0.015932849;0.054349184;-0.15008171;-0.09842;0.023691699;-0.43606558;-0.03891259;-0.26979244;0.084872864;0.25311944;0.15542437;-0.18596031;0.25701195;0.15450454;0.098552935;0.3260954;-0.013928188;-0.1959846;0.03894895;0.16093527;-0.13093495;-0.0009587987;-0.13493052;0.05342159;-0.062449064;0.08428695;-0.0045841862;0.012934355;-0.068696;0.048588037;0.028610729;0.10526328;0.12130962;-0.07665991;0.14103311;-0.05079909;-0.023668157;-0.07999464;0.028964525;-0.0057256687;0.064258;0.24492559;0.03983736;-0.11686289;0.07216974;0.24492933;-0.00047569696;-0.2001217;0.063406885;-0.24551244;0.3077308;0.058106743;0.13559973;-0.22881788;-0.3788019;0.18791783;-0.28514558;0.11789696;0.016556911;0.1716559;-0.14118828;0.06997548;-0.31685725;-0.18168078;0.2877425;-0.01253022;0.031639505;-0.13423169
-0.013134875;0.09315943;0.22979212;0.039847516;0.010311444;0.0124333175;0.37852624;0.3149717;0.046127047;-0.09946165;-0.07210281;-0.062256623;-0.021414286;0.24827915;0.053232376;0.081507586;-0.07912378;0.15108563;0.15730771;0.024446258;-0.10634685;-0.03245106;0.3000279;-0.018779071;-0.046564363;0.06434102;-0.02796553;-0.25568005;0.056987956;-0.092818335;-0.007975618;0.0015568673;0.019587753;-0.20735227;-0.038381986;0.121508025;0.20157321;-0.20844547;0.17466424;0.057210658;-0.044301398;-0.04129216;0.40394548;-0.30219218;-0.042737503;-0.14912422;0.040899806;0.07313258;-0.03580268;-0.055236097;0.046943698;-0.32720384;-0.14257833;0.018316668;-0.052573856;-0.14054464;-0.008485661;0.20959593;0.017190825;-0.09859899;0.0019362267;-0.031572215;0.04861757;-0.123610176;-0.008088983;-0.28815246;0.06538231;-0.15544164;0.16195269;0.03336913;0.10224102;0.05090422;0.031265683;0.3405614;-0.10795666;0.103249416;-0.031119674;0.16195866;0.26240987;0.034894507;-0.051344026;0.05627055;-0.020299977;-0.0889115;0.06335372;0.2686188;0.3010142;-0.038591474;-0.06412756;-0.007534797;0.0054180636;0.16935682;-0.044347137;0.454482;-0.17531757;0.014881371;-0.041775543;0.12400128;0.32309332;0.0513599;-0.015852032;0.26855016;-0.23469235;-0.004978616;0.040326834;-0.13837455;-0.00901605;0.1948861;0.054026544;0.059376597;0.03845394;-0.010366927;0.17335361;0.26220027;0.24349125;-0.096036054;0.36620408;0.23866801;0.051318858;-0.2340477;0.14135261;-0.033090085;-0.39086497;0.013653639;0.08995965;-0.04361464;0.17234568;-0.28154016;0.05301414;-0.5748467;-0.08352913;0.053366017;0.16121349;0.14027886;-0.058908723;0.38356772;-0.18102889;0.12910011;0.015602013;0.045390893;-0.08664417;-0.0026023723;0.13744476;-0.18260978;-0.062639795;-0.28961843;-0.13162918;0.07343628;-0.21047187;0.033390306;-0.092468195;0.2951078;-0.03993816;-0.1957722;0.02633736;-0.011403592;-0.08192671;-0.040029526;0.22268033;-0.2855718;0.222193;-0.021718651;0.06115467;-0.021625046;0.02661047;-0.116097264;0.4542553;0.01561108;0.28773203;0.04360832;0.2966716;-0.036898084;0.02856794;0.093953684;0.044741128;0.2532551;0.011884901;-0.018638259;0.19710106;0.07565263;-0.015697576;0.025560765;-0.07443405;0.39785966;0.25972477;-0.040438753;-0.07084741;0.015678592;-0.032238632;-0.026060753;0.13405845;-0.048291493;0.13485211;-0.0742763;-0.052749585;0.09609944;-0.25029305;0.1772378;0.2355132;-0.058860175;0.10715877;0.21853173;-0.18353137;-0.09151993;0.21865839;0.022293514;0.20594877;0.07806468;-0.0847152;0.113448635;0.057315335;0.18648987;-0.071636654;-0.039090235;-0.037379507;-0.05604313;-0.17140993;0.09664619;0.1275856;-0.08271106;0.027866393;0.0952906;0.012588937;0.0089203315;0.25959834;0.02413504;-0.03711327;0.03577417;0.042041507;-0.020134753;0.16542242;-0.05119396;-0.13547482;0.18129274;-0.0051302756;0.29571617;0.23763782;-0.039236847;0.033690568;0.080584176;-0.16811702;-0.05928612;0.033602048;0.4088429;-0.1433403;0.022400498;-0.06391666;0.077165395;-0.108709045;0.07549356;-0.09433875;0.32735908;0.45184207;0.046359606;0.027497511;-0.023942716;0.15921815;0.006323379;-0.067856416;-0.00884847;-0.06491131;0.024280999;0.3468744;-0.022890877;0.05286019;0.28043696;0.08133093;-0.06914784;0.13975719;0.26846424;0.22307487;0.03859796;-0.049548768;0.058963586;0.15961027;-0.03541569;-0.014853806;0.43382597;0.23925415;0.0830398;-0.4393072;-0.030901086;0.1353974;-0.15618747;0.4742376;-0.29604736;0.014900895;0.04153204;0.10422031;0.40023348;0.023215318;0.13535295;0.16628602;-0.1563472;0.2652895;0.0012361405;0.020550938;-0.026173387;-0.018592956;0.065858416;-0.015984695;-0.03521036;-0.06239503;0.039337557;-0.06238473;0.011937414;0.015250963;0.07534246;0.069005825;0.19208832;-0.058956005;0.06278734;-0.050459415;0.006153134;-0.01631978;0.047103025;-0.10762678;-0.07185319;-0.20349582;-0.063322894;0.02187361;0.057569254;0.39285514;-0.064727575;-0.0032176992;0.07776846;-0.01826667;-0.044105195;0.03493019;0.000691996;-0.014824398;0.3050871;-0.123246446;0.2104347;0.011108914;-0.035216935;-0.3243851;0.046419658;-0.15753391;0.016190054;-0.1884924;0.02308096;-0.02865088;0.23350036;-0.17404765;0.10097217;-0.07484791;0.02069512;0.058008328;-0.11262492;-0.044368166;0.10596195;0.05536491;0.08667418;0.033374052;0.052430626;0.018357286;0.07712875;0.24904114;0.12594739;-0.095005736;0.113576144;0.026852073;-0.1094339;0.023069568;0.09789894;0.04532717;0.16452387;0.07063181;0.12429878;0.2810961;-0.12770347;-0.21877824;-0.051703062;-0.08165967;0.18901002;0.07250522;-0.03571996;-0.05155131;0.162116;-0.055776276;0.05486176;-0.021968132;-0.17930101;-0.022502162;-0.05053026;0.052700855;0.014870701;0.515323;0.08327452;0.06955993;-0.15392353;0.058061335;-0.29153687;0.082987264;-0.20305468;-0.0826298;0.1959327;0.022750841;0.15682869;0.017829245;-0.08482674;0.16372599;0.13729742;-0.12510653;-0.18012609;-0.12968472;0.3149815;-0.07107284;-0.27668652;-0.17538142;-0.04694836;0.0022761826;-0.16230753;-0.049148306;0.10108728;0.06637217;-0.14171551;-0.033375558;0.078158185;-0.07897715;0.21316831;0.07199968;-0.04451938;0.0661042;0.1538977;-0.023644144;-0.087357536;-0.3209852;-0.11381147;-0.03630547;0.1721031;-0.017541695;-0.06381263;-0.04437633;0.3495178;0.29442745;0.4372521;-0.22939624;0.008587417;-0.14497454;-0.116028115;0.08022851;-0.00015603028;0.15429282;0.08214898;0.12427674;-0.09446915;0.15705809;0.2219359;0.10973704;0.07804199;0.14975728;0.053874344;0.1949089;0.07729354;-0.22399181;0.025788141;0.2833331;0.06796602;-0.17144004;0.017181473;0.0076755723;-0.053852748;0.12377993;-0.2059011;0.17657281;0.06455396;0.37420422;0.24337602;0.005215024;0.032609005;-0.053216808;-0.4537531;0.25329408;-0.00037433824;0.064851195;-0.0005321099;0.08651005;0.018073967;0.0073200148;0.23709646;0.24701141;-0.4043638;0.021273388;0.030602941;0.12362649;0.08567125;0.0011016111;-0.02663453;0.009212863;0.19230175;0.16540389;0.08734191;-0.118222214;-0.12468353;-0.19890022;0.023654101;0.029265316;0.017584253;-0.07669224;-0.215965;0.010869131;0.009678622;-0.010238736;-0.002411291;0.22578295;-0.060986873;-0.08433527;-0.04036474;-0.086065926;-0.11487876;0.011304061;-0.46102962;-0.06416526;-0.33203614;0.00090448366;0.33946216;0.22644958;0.015543219;0.23971693;0.06800483;-0.025822375;0.30123243;-0.007842267;-0.2877164;0.060921323;0.19663866;-0.120789126;0.028253224;-0.09075822;0.029354792;0.04586166;0.04528249;-0.050625984;-0.0067510926;-0.07690143;-0.0077872067;-0.03897614;0.21635437;0.107215196;0.050183643;0.29338396;0.0058521093;0.010081869;0.032116387;0.15025555;0.01617018;0.18678115;0.26555255;0.02619356;-0.09662139;0.0028638784;0.30579382;0.13581942;-0.13817893;0.051869284;-0.25233608;0.2926406;-0.031917963;0.15485455;-0.1642193;-0.34075132;0.27751884;-0.38500085;0.07987556;-0.030478815;0.07354875;-0.06662889;-0.08305294;-0.250219;-0.24823973;0.19267397;0.047678884;0.021654375;-0.08537915
0.013839551;0.20355463;0.2622276;0.12038749;-0.012193546;0.08634875;0.30399317;0.31563428;0.034873497;-0.015937574;-0.0067679635;-0.12832418;-0.0259514;0.18837146;-0.01148818;-0.0783257;-0.14029257;0.11209471;0.10259924;-0.0145048015;-0.089840986;0.008714786;0.2245976;0.053788394;0.06380592;0.0030940713;-0.026860887;-0.37607932;0.016854402;-0.20467742;-0.0063580377;-0.03250478;-0.011581411;-0.26178452;-0.017103335;0.12824501;0.22866797;-0.38054886;0.17176384;0.037402593;0.0129793845;-0.039082512;0.44646183;-0.26966548;0.016162556;-0.23049137;0.029844135;0.009578241;-0.030617801;-0.011865638;0.030191649;-0.2576209;-0.14949504;0.0549272;0.0525333;0.018629085;0.06969753;0.20811304;-0.10030027;0.0076260646;-0.008137713;0.036575846;0.02188128;-0.12661216;0.019936793;-0.28540957;0.0139712505;-0.030358057;0.11373951;-0.04612264;0.19010046;-0.0035589908;-0.01466322;0.311833;-0.06536272;0.082630076;-0.008455143;0.07044219;0.2274161;-0.031689733;-0.062210444;0.008863649;0.018851807;-0.14072914;-0.010428655;0.15871632;0.1426139;0.00405529;0.06149699;-0.005269238;-0.050964236;0.040604044;-0.0870473;0.32373756;-0.25790352;0.09560545;0.100768305;-0.00039532915;0.26176095;0.12757216;-0.05314216;0.38184434;-0.23591073;0.007094905;0.08859791;-0.12673874;-0.0074324766;0.010366361;-0.051443916;-0.031142145;0.14646247;0.03313985;0.052834015;0.22361535;0.29421964;-0.10144524;0.34858966;0.091129616;0.030964388;-0.18677162;0.30345044;-0.05880693;-0.51544225;0.049598508;-0.033422943;-0.04987852;0.08669919;-0.23496377;-0.025702849;-0.44285026;-0.023346549;0.16101713;0.19677171;0.1764519;0.018480737;0.2601115;-0.21004343;0.16096756;-0.05625721;-0.06279464;0.038343992;-0.07474341;0.019828059;-0.08117969;0.04321996;-0.13101853;-0.010512753;-0.018008828;-0.14718781;-0.1483469;0.046730697;0.28374222;-0.04212867;-0.16229077;-0.03254449;-0.07059722;0.028414749;0.07050419;0.18473135;-0.32384178;0.31509763;0.021208607;-0.0910856;0.034489546;0.012539079;0.0051918407;0.42598876;0.0606444;0.25637344;-0.013968596;0.17191873;-0.04345219;0.016601533;0.06807058;0.09033536;0.20198981;-0.0076722098;0.04165329;0.115979195;0.028064221;-0.06377842;0.11682423;-0.103990905;0.37879694;0.27309957;-0.053546365;-0.017573487;-0.031579673;-0.15208897;-0.0025172476;0.06527518;-0.012955264;0.12407186;-0.00043128725;-0.04818871;0.23966688;-0.20013916;0.22571;0.16044347;0.03961021;0.15721197;0.15917459;-0.06047904;-0.0020470107;0.12673517;0.059864692;0.19310972;0.060643088;-0.19556572;0.027702535;0.09805362;0.33143237;-0.0027656408;0.036187254;0.062263086;0.06015198;-0.32940775;0.17346601;0.29601777;-0.015976118;0.08445217;0.21461387;-0.06989371;0.077913895;0.18484116;-0.014240512;0.045621697;-0.063358;-0.03787773;0.006839706;0.28541481;-0.022276761;-0.18105939;0.11342302;0.07321795;0.17586832;0.21777198;0.065075755;0.04552971;0.041280545;-0.28911012;-0.025069216;-0.0082436595;0.31685063;-0.16544323;-0.053325545;0.0404776;0.025546212;0.08700365;0.04054316;-0.043638233;0.22783253;0.48163283;0.03319489;0.046207264;0.046753086;0.056957368;0.04236205;-0.11009768;0.07302494;0.004511879;0.0016800654;0.23352188;0.06478377;0.05199322;0.22594513;0.18299617;-0.11399678;-0.052974284;0.31877443;0.1338723;0.0828741;-0.038069572;0.14100695;0.15710577;-0.058055595;0.0064213746;0.26378512;0.13797383;0.15532522;-0.4467436;-0.097927816;0.0077588777;-0.34937266;0.42715454;-0.22478355;-0.008719881;0.11211309;0.02271379;0.44112307;0.039871767;-0.011899945;0.025039243;-0.16691372;0.1766258;0.051914822;0.0009613098;-0.022569692;0.051916663;0.016110795;0.013699363;0.052740846;0.037199277;0.012468802;0.055526175;-0.13260433;0.038295623;0.040734477;-0.035382196;0.28159183;-0.07349396;-0.03548446;-0.20095584;0.09832658;-0.014190516;-0.06883864;-0.040472496;-0.03771777;-0.16750462;-0.0057340083;0.010474996;0.049796198;0.30118352;0.024280474;0.028218001;0.10975201;-0.047925416;0.016295226;0.0016267893;0.09649178;0.02791952;0.28399545;-0.047854144;0.16607697;0.072495155;-0.021974437;-0.31292787;-0.050699785;-0.1553471;-0.009151941;-0.076916695;-0.014705909;-0.10656033;0.06925383;-0.17048253;0.023192104;0.013191851;0.037532713;-0.06528942;-0.2014251;-0.017805642;-0.00023827015;-0.088875994;0.14003503;-0.032153748;0.02531646;0.059314575;0.0383434;0.33727482;0.03354835;0.026415631;-0.049279124;-0.04412682;-0.07021001;0.03612185;0.07648954;0.16028668;0.17647098;-0.026815189;0.083373934;0.26946414;-0.053949285;-0.30915466;0.07724513;-0.10671535;0.28161427;0.098976746;-0.04780161;0.06317844;0.04078431;-0.050586265;0.01160038;0.06786634;-0.043089267;-0.05302736;-0.16631937;0.052728742;-0.201367;0.45067373;0.02395594;-0.021219663;-0.11917201;0.08988665;-0.38392514;-0.000672286;-0.03914748;0.038159277;0.34034407;-0.0127436165;0.20502871;0.026415369;-0.09745143;0.024869645;-0.005168103;0.17722142;-0.084840305;-0.08921385;0.31286788;-0.012394673;-0.35748267;0.008838968;-0.06449143;0.02438921;-0.10304013;-0.025653558;0.10298029;-0.02744917;-0.2853713;-0.04342733;0.10842917;-0.037378065;0.14650567;0.09501235;-0.15008427;-0.06078275;0.13168657;-0.06961599;-0.016175115;-0.30328828;-0.18621668;0.014306458;0.30057064;-0.0066044102;-0.0144229615;0.06480042;0.26191416;0.15662135;0.38160655;-0.14577357;-0.0060795434;-0.26857188;0.014668065;0.057678293;-0.031196648;-0.030411856;0.083187126;0.103997;-0.10815789;0.103091404;0.3201626;0.030287651;0.12055653;0.19921535;0.06242099;0.18450704;0.057296585;-0.1484485;-0.010958341;0.24937166;-0.09994561;-0.18367589;0.055391576;-0.020502748;0.10008595;0.0071275425;-0.28458437;0.13797592;0.03944988;0.4416868;0.29258594;-0.08938713;-0.013534703;-0.048479598;-0.3426832;0.08058518;0.019170925;0.013568077;0.050001558;0.13310134;0.009880708;-0.054800954;0.2601673;0.23247065;-0.30887106;-0.06373101;0.011485161;0.10186632;-0.053237036;-0.008108748;0.08319593;-0.0105340965;0.27153423;0.22408429;0.021233717;0.04846779;-0.046168886;-0.33674696;-0.07478823;0.047661107;0.040032316;0.046963263;-0.21968342;-0.07879138;0.040604543;-0.12765503;0.027354805;0.15824008;-0.028748687;-0.0042506447;-0.049799405;-0.0907216;-0.18218608;-0.03212431;-0.40693936;0.06509507;-0.39236262;-0.015013857;0.2732106;0.1761281;-0.0056084273;0.2386248;0.25365618;-0.035217173;0.30492714;0.05670878;-0.1272005;-0.034898385;0.09741126;-0.121807;-0.022160588;-0.18786754;-0.01084374;0.043494936;0.16858853;-0.089440785;-0.01798445;-0.15340333;0.027346967;0.033831585;0.08931715;-0.032189284;-0.03888845;0.22514594;-0.04123978;0.058963057;9.037152e-05;0.115836985;0.03238861;0.20191647;0.32873806;0.022758953;-0.10268416;-0.02277134;0.23861216;0.10497744;-0.12978385;-0.072763406;-0.10459189;0.32678792;-0.066392146;0.025466997;-0.12723373;-0.43745896;0.35567418;-0.3779733;0.13621192;0.028583487;0.08352498;-0.31493136;-0.03217894;-0.1886876;-0.20435049;0.15535757;0.017709365;-0.051860936;-0.12266508
-0.06372187;0.23549488;0.30817813;0.15089047;0.02263676;0.0048941667;0.30409998;0.19549924;-0.023121161;-0.018931383;0.01428687;-0.003587925;-0.095929995;0.038862664;-0.064413235;-0.007844493;-0.16495183;0.051835082;0.04378205;-0.027581776;0.10419244;0.0024535423;0.0753443;-0.012306381;0.051826;-0.08052618;0.07841643;-0.29764143;-0.0023857872;-0.07095619;-0.03511645;-0.013323041;-0.01170342;-0.098459326;-0.12765227;0.062113483;0.33076167;-0.3362924;0.21740608;0.10772199;-0.028721547;0.036844853;0.43138725;-0.28950998;-0.06605162;-0.18985175;-0.05992863;-0.04936077;0.01691672;-0.03980584;-0.07326341;-0.32450196;0.02566725;-0.060787015;-0.041520186;0.0016156749;-0.0783537;0.2281615;-0.059336036;-0.08010071;-0.009386268;0.098527;-0.04939843;-0.050085384;-0.055992313;-0.32882184;0.025692824;0.040772486;0.016297374;-0.065571226;0.2455399;-0.050473075;-0.019489931;0.18773006;-0.054024693;0.053957157;-0.011770185;0.14563687;0.16303398;-0.04289035;-0.02419645;-0.0027984958;-0.10831758;-0.07969339;0.06018685;0.11937861;0.14957164;-0.055399254;-0.00941703;0.050250363;0.0442489;0.12535948;-0.061832342;0.36308935;-0.1662597;0.09422824;0.061655756;-0.08880344;0.35823083;0.1316615;-0.045137692;0.15538247;-0.30109608;0.06225615;0.031570747;0.045912806;0.047870316;0.052807517;0.032686576;-0.051257618;0.040144634;0.040730607;0.11576244;0.10802872;0.26771533;-0.0309885;0.44262794;0.085803635;0.038703915;-0.109232046;0.27684376;-0.06821604;-0.53252494;-0.0068999487;-0.056432053;-0.033684995;-0.045430336;-0.29075193;-0.0058181966;-0.33549932;0.07278197;0.17508511;0.1124536;0.18463533;0.0014165901;0.4082103;-0.21179359;0.03614564;0.026528982;0.061022487;0.03999066;0.04539531;0.019351263;-0.11840163;0.036633946;-0.15454186;-0.15323818;-0.053037;-0.29725823;-0.20752414;0.01713779;0.28709856;0.10112152;-0.1539171;0.009178702;0.06951245;0.011924663;0.16144355;0.11291768;-0.5294408;0.22514862;0.04267218;-0.10981915;0.008498515;-0.06240823;0.027619464;0.29766575;-0.042513665;0.2471097;0.05031921;0.12931676;-0.01999476;-0.052798413;0.024389911;0.0459778;0.35429177;-0.045011662;-0.06208875;0.11390394;-0.027147802;0.08112256;0.15576267;0.047575627;0.47899002;0.11302495;0.1264057;-0.04198372;-0.07225057;-0.19708495;-0.073287636;-0.025178822;-0.029364571;-0.03517265;0.0010299482;0.007916552;0.2189935;-0.15290141;0.18022963;0.25454217;-0.013606262;0.29249492;0.28878164;-0.004655594;0.045945715;0.0144386785;0.0012722278;0.2455756;-0.08970688;-0.3812367;0.12335414;0.04709629;0.26772368;0.018513113;-0.034065958;0.04237243;-0.055730946;-0.22168437;0.13580644;0.24520819;0.12822072;0.020197088;0.11834027;-0.017964501;0.03618647;0.22162071;-0.006718407;0.061873917;0.06444967;-0.035329863;-0.0648316;0.33123475;0.07300934;-0.19947648;0.03995185;0.10815393;0.0909329;0.134307;0.015204965;-0.013909145;-0.04977597;-0.2981607;-0.03425745;-0.025425998;0.31076097;-0.07979491;-0.03462594;0.0061149816;0.08334772;-0.007638565;0.046173465;0.06218295;0.28999305;0.4259927;0.050554413;0.1477705;0.008695708;0.11317867;0.053936347;-0.12309248;0.12576875;-0.05450371;-0.046666645;0.14171457;-0.02393172;-0.00028814346;0.33609653;0.31639278;-0.16661963;0.060833376;0.2674539;0.026940307;0.106959306;0.04744723;0.042403333;0.21839885;0.045353655;-0.043583713;0.3328401;-0.0068153306;0.0455031;-0.4347494;-0.27994427;0.02217016;-0.24908438;0.3649607;-0.2801156;-0.114975944;0.12701288;-0.14613186;0.37205705;-0.0527796;0.10708232;0.11369581;-0.11505812;0.11947228;-0.054517414;0.0948753;-0.016867744;0.107142426;0.015768945;0.11615335;0.0105505;-0.074416876;-0.09122112;-0.010699431;-0.080219306;-0.03536897;-0.031428907;-0.023978058;0.29860792;0.05909864;0.037282653;-0.14372623;0.029619217;-0.004818783;-0.109885104;0.098050825;0.090078466;-0.13503926;-0.048205737;0.053240124;0.019345345;0.30931544;-0.019339133;0.07225774;-0.014047969;0.0026514598;-0.01332528;-0.04829943;0.15842563;0.041277107;0.35023633;-0.005525691;0.11921799;-0.016899647;-0.010789588;-0.31735823;-0.024578407;-0.2293094;-0.052187197;-0.18831708;0.0059213345;-0.10271343;0.023968028;0.0216834;-0.07991041;-0.05449572;0.00092769717;-0.019529201;-0.05717731;-0.06313484;-0.06385002;-0.08858352;0.09687553;0.028824084;0.0488276;0.028631883;-0.03060119;0.30418152;0.12141426;0.009233434;-0.11691422;-0.057026025;-0.09466531;0.090893485;0.004125542;0.044811442;0.13077584;0.01021539;0.11660458;0.21636291;-0.11081054;-0.20620489;0.012682119;-0.19382048;0.2111377;0.18625805;-0.051288754;-0.03948115;0.11196443;0.0073352773;-0.03952994;0.026565468;-0.019867238;-0.034863945;-0.013573187;-0.008084566;-0.1951384;0.50562483;0.10371059;-0.04844755;-0.19537546;0.030078113;-0.2766722;-0.028460661;0.051508605;-0.040546607;0.32260785;0.015571096;0.16751935;-0.0065686465;0.028394712;-0.011682774;0.073852524;0.1432735;-0.14834191;-0.061187863;0.19505028;-0.15149745;-0.2927444;-0.005119595;-0.05376102;0.02014555;0.022748299;-0.032442138;0.10567502;0.008584688;-0.18471311;0.03482659;0.018953357;-0.003493774;0.17031935;0.09696419;-0.12055284;-0.04915374;0.10865403;-0.085982226;-0.027359728;-0.27298045;-0.1897577;0.050961684;0.18814655;0.04905193;-0.008750758;-0.03205285;0.3674577;0.23301485;0.4173562;-0.084643744;-0.021527693;-0.15048507;0.00042567236;0.035658184;-0.04076299;-0.018691769;0.1359738;0.14324866;-0.090939745;0.10293903;0.36173216;0.10150213;0.025848271;0.012399734;-0.031608492;0.059234105;-0.066704;-0.13964373;0.0014235384;0.16341364;-0.15567052;-0.18597019;0.022904335;0.101221904;0.105018236;0.057204008;-0.21436732;0.21915781;0.10454748;0.19985166;0.33751184;-0.011987587;-0.11003701;0.011889479;-0.3516599;0.2117228;-0.025336154;-0.052606303;-0.026671676;0.09830292;0.00572111;-0.04572767;0.26439416;0.15328954;-0.12577575;-0.053900585;0.034895606;0.08865638;-0.060747672;-0.034339692;0.12145465;0.052159037;0.17670636;0.17805922;0.08478312;0.06520673;-0.17647925;-0.2965325;-0.05583073;-0.0019663365;0.03877458;0.00078954455;-0.07010539;-0.13699861;0.027376851;-0.1367814;0.007690204;0.12734368;-0.03283258;-0.03373707;0.03321235;-0.20484595;-0.22052197;-0.056175917;-0.43372303;0.0197744;-0.3362046;-0.039127797;0.35028067;0.26137817;-0.024638768;0.26637945;0.16236517;-0.04153454;0.24537477;0.034243386;-0.24789475;-0.08886113;0.12864362;-0.09169566;0.00045671893;-0.12871785;-0.01703393;0.041656908;0.21148285;-0.058117237;0.045088764;-0.2581645;-0.04338564;0.025281694;0.1481928;0.017869709;-0.022469528;0.1737762;0.004264013;0.028500712;0.003994379;0.11446942;0.030759074;0.25175643;0.31699058;0.03999368;-0.14914949;-0.006555889;0.26915148;0.099934034;-0.064767584;-0.016837984;-0.12798278;0.24363633;0.016134234;0.08197121;-0.12930256;-0.31232515;0.2338143;-0.3461819;0.059495993;-0.04789328;0.02876915;-0.38534477;-0.02584758;-0.20582001;-0.104207925;0.25545228;0.054848686;0.06527636;-0.02329999
-0.0495109;0.118914716;0.19052622;0.084389426;0.0119707845;0.0026514775;0.40468612;0.25858125;-0.020499665;0.08586809;0.025576215;-0.0389269;-0.049603734;0.028742146;0.0049874666;-0.038086135;-0.15227252;0.1533757;-0.03493253;0.14135966;0.055206176;-0.005145092;0.030984461;-0.092452355;-0.030311355;0.009953988;0.038562104;-0.32037944;-0.044973847;-0.0029085956;-0.0069610863;0.00282283;-0.14891376;-0.17158327;-0.19060165;0.019932048;0.34187666;-0.32744348;0.32969835;0.05235283;0.00037689254;0.033158198;0.32703167;-0.34050417;0.07918636;-0.22846985;-0.020644367;-0.034343008;0.021409413;-0.026662972;-0.002096303;-0.30946797;0.104316555;0.033033393;0.012581213;0.007505929;-0.063830614;0.17918228;-0.011406692;-0.0039259098;0.02919226;-0.03940521;0.03731905;-0.1699091;0.14485584;-0.32806036;-0.041149937;0.11083678;0.13131785;-0.015324687;0.33169618;0.029721988;-0.015330988;0.20667455;0.055573735;0.005167857;-0.035417143;0.11111593;0.28345302;0.047718555;-0.0031882676;-0.02115987;-0.016176425;0.04308741;-0.03253173;0.14504269;0.11646948;0.06420653;0.066748075;0.016035333;-0.001139499;-0.0386012;-0.18713951;0.24037239;-0.18204749;0.11455228;-0.08073559;-0.13771757;0.30242968;-0.0060817907;0.047441266;0.2737859;-0.31736618;0.035432495;-0.06962133;0.022232963;-0.02691868;0.06576877;0.093295164;-0.032458987;0.11542124;0.084843434;0.17573932;0.098136865;0.18340768;0.010061634;0.37460023;0.090540715;-0.019718882;-0.28738058;0.3121374;0.0069058337;-0.5033584;-0.03311171;-0.05703037;0.0061176247;-0.06638351;-0.32290486;-0.012075393;-0.25263482;0.030027067;0.2217882;0.0899661;0.37174892;0.043258656;0.31278494;-0.12835094;0.07965313;-0.030287214;0.04487449;-0.008561402;0.08075586;0.027759375;-0.008526728;-0.03801136;-0.09937615;-0.05437612;-0.0014051173;-0.10625306;-0.10477863;0.05706388;0.30390233;0.011860611;-0.18224123;0.063713364;0.035746552;-0.016817803;0.15251268;-0.049579993;-0.46215293;0.18807977;-0.012278538;-0.0037651618;-0.0319951;0.03622158;0.026712984;0.319674;0.016522529;0.26325306;0.01764778;0.2395466;0.067356065;0.04211832;0.030315204;-0.036220796;0.3863106;-0.04575569;0.060028363;0.16619606;-0.0856515;-0.06389134;0.051930178;0.06480999;0.3667192;0.18720646;0.008373024;-0.051415667;0.0656978;-0.19933383;0.046747476;-0.12911196;-0.07655138;-0.13738309;0.05589936;0.035743807;0.26608965;-0.25070167;0.15611455;0.18254423;-0.060998924;0.21594177;0.101288594;0.004872839;0.0044319103;0.0036683092;0.031706225;0.17680365;-0.0044706385;-0.30237922;0.17535987;0.068679646;0.30575123;-0.031892877;-0.043063667;0.015338773;0.026991129;-0.33825323;0.13309722;0.2541509;0.057322003;-0.0365581;0.084380634;-0.03723826;-0.05961608;0.13753234;0.0359399;-0.06981304;0.028467992;-0.035554368;-0.18970937;0.29810557;0.024348186;-0.1508885;0.094381474;0.046169374;0.18370238;0.22421426;-0.037600607;-0.036502838;-0.05405868;-0.20029458;0.029624566;0.088139616;0.27181432;-0.2153495;0.033812627;-0.0012401921;0.11477897;0.11496358;0.0517431;0.029199501;0.28703746;0.4272484;0.04779688;0.21944371;0.043551162;0.060868267;-0.05887066;-0.05352905;0.09489021;0.0066623087;0.015933666;0.16014488;0.058522206;0.08394246;0.31395283;0.27669123;-0.12248795;-0.045973834;0.22617613;0.049334794;0.064010605;0.018386189;0.084631026;0.26963374;-0.0096985;-0.019601645;0.25566983;0.056147736;0.065872796;-0.3859418;-0.30313864;0.02299325;-0.24479574;0.381593;-0.21994032;-0.1282031;0.002442562;-0.20134951;0.2880975;-0.035257895;0.069665335;0.13223644;-0.024913907;0.19197777;0.014759105;0.0031157997;0.016649464;0.12673749;-0.05832744;0.07217046;0.036737915;0.051478397;-0.040908474;0.03294593;-0.12352364;-0.038161602;-0.07259354;0.00737391;0.20626381;-0.0110642;0.010129058;-0.20751497;-0.016690077;-0.14348747;-0.18095672;0.15673624;-0.015993927;0.033381317;-0.13726243;0.08754153;0.0094164405;0.22728509;-0.020142013;-0.05418258;0.05454679;0.05851517;-0.03774351;-0.041905772;0.1421834;0.041863177;0.16112272;0.045963172;-0.037364375;0.1005221;0.041797455;-0.30313593;0.0056886007;-0.14256272;0.042321656;-0.11221147;0.057364177;0.04513202;0.011072125;-0.10495915;-0.050194923;-0.007366765;-0.0681074;0.042264182;0.0099174585;0.0222942;0.11400479;-0.13079268;0.08467721;0.058966637;0.108757466;-0.079501286;0.004971703;0.26288453;-0.008998816;0.083453305;-0.06624202;-0.06482344;-0.17971335;0.18896784;0.0577882;0.048438445;0.19307579;-0.09617398;-0.044327818;0.23207432;-0.04211988;-0.114488855;-0.049897928;-0.17534915;0.118338205;0.17015454;-0.094511375;-0.009174006;0.12780109;0.02063422;-0.07841785;-0.055331323;-0.014739739;0.05092081;-0.10609931;0.040149417;-0.13207467;0.36301124;0.056275193;-0.09142996;-0.111654855;0.22629476;-0.36457464;-0.054276116;-0.10923826;0.0011311645;0.36930588;0.023899332;0.051222168;0.023304759;-0.12655924;-0.00042391915;0.02349804;0.093883425;-0.21549292;-0.02171383;0.22719796;-0.041651905;-0.28858572;-0.08413389;-0.17023912;-0.041529194;-0.057296958;0.018479472;0.0411506;-0.04733277;-0.22264878;0.032001734;0.07061373;0.020057749;0.17327778;0.08148493;-0.13292472;0.053268835;0.09230291;-0.12634078;0.073965825;-0.1370172;-0.33468977;-0.017505424;0.23463817;-0.02035739;0.033880137;-0.0011503601;0.18399405;0.18869944;0.45682076;-0.007948615;-0.022071067;-0.2074332;0.009653213;0.084072895;0.0019783152;-0.0374546;0.12287433;0.1685814;-0.1704965;0.03159138;0.29362488;0.09975774;0.05283599;0.12892105;-0.06837761;0.13061282;0.0047281533;-0.10052083;0.07437492;0.10622806;-0.25480247;-0.25537017;0.033095233;0.07387495;0.10469295;-0.025029207;-0.13127859;0.1161386;0.2479382;0.23196469;0.17869496;0.017587345;-0.08840843;-0.048940904;-0.38080627;0.20854239;0.08064689;0.043307275;0.034312367;0.09827344;0.012265007;-0.13684258;0.2161144;0.112361595;-0.026820417;-0.036960255;-0.045355737;0.2051411;0.09608423;-0.08976738;0.15620233;-0.10796237;0.2356228;0.21175088;0.04288559;-0.07125372;-0.17314383;-0.33510116;0.008981346;-0.058105227;0.09755166;0.045411035;-0.11450048;-0.11048746;-0.050875906;-0.09450818;-0.024081085;0.050355583;-0.069062084;0.088106066;-0.0046537905;-0.050228275;-0.26908484;0.0012353581;-0.5201963;0.0004127181;-0.40048018;-0.06979331;0.35942078;0.268579;-0.02877133;0.24505869;0.2240756;-1.17386035e-05;0.22905804;0.12974598;-0.32060078;-0.10214674;-0.0005736273;-0.0023996728;0.023035841;-0.22389832;0.058866423;-0.026376633;0.14237547;-0.015614155;-0.0718639;-0.13888511;-0.019441431;-0.07028594;0.08858269;0.08661318;-0.001703727;0.1429998;-0.038746707;-0.063227065;-0.11673742;0.18614829;0.0383741;0.15994357;0.30288795;-0.012448097;-0.051160086;-0.031258054;0.21629387;0.19434439;-0.11285914;-0.073417015;-0.123273976;0.21873842;0.045455914;0.10576514;0.049350392;-0.21689273;0.39095205;-0.21396393;0.028417816;-0.025738953;0.020419247;-0.38933757;0.057794135;-0.32014236;-0.017732423;0.21110822;-0.044392094;-0.067801066;-0.10941861
-0.0022763473;0.24526735;0.27952337;0.10701896;-0.028022882;0.049327254;0.28254142;0.262167;-0.0033664564;0.08271113;-0.03874952;0.04418871;-0.13084564;0.07433845;0.060810123;-0.045890775;-0.06316401;-0.021936195;0.10071692;-0.022745913;0.17603101;0.010322483;-0.12088534;-0.05966314;0.049061485;0.018517159;-0.04877781;-0.36532468;0.030121792;-0.050500657;-0.024139617;0.071900934;-0.087388895;-0.21626876;-0.035955105;0.035680648;0.18287133;-0.31852448;0.33749193;-0.01830685;0.032576147;0.02996992;0.28728113;-0.51401645;0.011464819;-0.12753178;0.08784828;0.015655827;0.042179897;0.080869116;0.06477123;-0.21665496;0.03465862;-0.030255448;-0.0400354;-0.08690749;-0.06327194;0.0908216;0.068806455;-0.026823511;0.055088818;0.050547883;-0.044188373;-0.053598937;0.14914788;-0.35160762;-0.022318535;-0.02917095;0.025198808;-0.052635137;0.23302595;-0.028756002;-0.03894169;0.22280167;0.06405636;0.025400719;0.025861582;0.070389554;0.32036877;0.0103387805;-0.0090420665;-0.008932033;0.0667268;0.01789464;-0.05886309;0.0668948;0.0057299454;0.040371757;-0.058011748;-0.023598598;-0.037449587;0.010633824;-0.13970506;0.29133388;-0.1519693;0.08328126;-0.114035405;-0.2500683;0.2939653;0.03387377;0.026264649;0.24075194;-0.21948057;-0.0021920511;-0.038107026;0.027390497;0.034089502;-0.13086525;-0.056570288;0.03486308;-0.01566402;0.14170879;0.12634829;0.15961777;0.2881448;0.01806909;0.30802718;0.0751225;0.008054756;-0.1912246;0.22901657;0.05064961;-0.38349682;-0.06631948;0.028542265;-0.011813988;-0.095210485;-0.3261802;0.0055632754;-0.21891563;-0.11823497;0.28641585;0.13541624;0.20859845;0.01734402;0.39449382;-0.08732511;0.026216736;0.09130304;0.020737864;-0.068446666;0.037885465;0.018919;-0.058403052;0.07905984;0.044883918;-0.045095805;0.045939878;-0.27829686;-0.21869014;-0.012354029;0.19096434;-0.019892389;-0.21307348;-0.041707862;0.051361263;0.052063424;0.10637385;-0.1125398;-0.26066092;0.16558573;0.008088045;-0.017626539;0.023271212;-0.07880049;-0.13181967;0.30616564;-0.06022135;0.26257977;-0.023002181;0.17869262;0.023914674;0.020922363;-3.9214756e-05;-0.17741536;0.28189275;0.07303208;0.060674444;0.2628067;0.049966052;0.03699636;0.16200534;0.056576453;0.33624053;0.24955802;0.0030279967;0.11470353;0.00034784083;-0.33111483;0.049357306;-0.08158613;0.077404454;-0.028949033;0.050279967;-0.015908038;0.24388245;-0.25688982;0.089828834;0.01907737;-0.021950118;0.2697669;0.20059857;-0.0381737;0.021832053;-0.034827806;-0.040166713;0.1937961;-0.011116816;-0.3132805;0.16148648;0.05390153;0.37970006;-0.028416788;0.017457366;0.031765588;0.08107052;-0.3896211;0.077463455;0.25160006;0.19576825;-0.10620235;0.019394761;0.04093292;0.017495148;0.15145183;-0.0054541915;-0.003912771;-0.035218365;-0.051230233;-0.050911922;0.26950192;-0.025481364;-0.13253225;-0.03252345;-0.0052139843;0.2694255;0.15884066;0.039102376;-0.03039166;-0.084481984;-0.20637834;-0.009125894;-0.01021167;0.32194093;-0.14914636;-0.07887842;-0.013937191;-0.03055732;0.17153794;0.08745742;0.02961713;0.3037378;0.27872893;0.0074763307;0.15223846;-0.043453272;0.038938586;-0.061349288;-0.13695307;0.19032839;-0.0057948343;0.05102667;0.14560811;0.11700464;0.15917706;0.2841518;0.32897136;-0.09273762;-0.105542116;0.19398624;0.07130872;0.09163203;-0.0049081193;0.0379369;0.26669702;0.034753278;-0.023669647;0.22672458;0.032626126;0.12087856;-0.44964552;-0.19096923;0.054581914;-0.25172168;0.34617522;-0.18524094;-0.02989641;0.01128933;-0.22254539;0.3807957;-0.0076355734;-0.032769028;0.10565099;-0.087848894;0.20287049;0.029974967;0.030223599;0.060761876;0.019684749;0.03412027;0.05772397;-0.06298069;0.040375374;-0.05498957;0.036078073;-0.087425694;0.048122402;0.045900334;0.026688637;0.15599911;0.050124604;0.17225452;-0.29178625;0.14358172;-0.15603867;-0.07111885;0.122717895;0.06423793;-0.02366177;-0.05069546;0.086452715;0.0069006146;0.1990424;0.07524979;-0.11059839;0.10657262;-0.039566316;0.08554008;-0.042101342;0.19199519;0.0061319615;0.25212538;-0.023962256;-0.02137806;0.15605997;0.037956804;-0.20751445;0.028857442;-0.08867963;0.052853517;-0.11766349;0.058808286;0.00056981295;-0.14142022;-0.032405533;0.03688173;0.07567812;-0.04503727;0.06007762;0.013934839;0.07521115;0.10559138;-0.112981945;0.023535104;-0.06673666;0.077685274;-0.04604683;-0.07024243;0.24682423;0.017777788;-0.016891174;-0.058572296;0.08878112;-0.20340998;0.13494927;-0.05354478;0.16015664;0.20759135;-0.04432793;0.12793784;0.25422034;-0.037531216;-0.11961803;-0.0038414206;-0.21704882;0.1979513;0.08817679;-0.11921986;-0.012650081;0.036794886;-0.011407766;0.029333595;0.0316679;0.08802779;0.062274706;-0.11050629;-0.03318506;-0.26884207;0.33725017;-0.031913463;-0.20657648;-0.12658614;0.21060848;-0.48691356;-0.03438096;-0.14824833;0.048778713;0.36262107;0.042871285;0.22684297;-0.0046158703;-0.1730637;-0.099027805;0.03291409;0.1675929;-0.17218107;-0.11827347;0.20011157;-0.18271868;-0.16552004;-0.12065625;-0.25315583;-0.020392267;0.07560786;0.01866963;-0.052449644;-0.037252266;-0.119990885;-0.017064342;0.18951619;0.01842112;0.1648779;0.092757985;-0.23097734;0.08363643;0.07029322;-0.2064488;0.018425854;-0.18268727;-0.28550136;-0.059068564;0.1445762;0.0064351214;0.0075673317;0.024894666;0.2309893;0.19337201;0.3861577;0.053148255;0.023795404;-0.22944777;0.20714507;0.10514645;0.04829686;0.021844456;0.19365557;0.14817894;-0.13407105;0.044554483;0.33039045;0.119341455;0.055047832;-0.046105012;-0.009130499;0.14518158;-0.018174617;0.0073714126;0.20074442;-0.025763625;-0.3002669;-0.26482517;-0.029526507;0.14991459;0.1464298;-0.03374347;-0.14837883;0.059537113;0.21211065;0.21709909;0.3088106;0.0432679;-0.12061105;0.053090136;-0.18615657;0.23825313;-0.050515212;0.026932767;-0.072185144;0.117197566;-0.06528668;-0.10742055;0.10875119;0.114957854;0.0027621398;0.01821138;-0.005599719;0.21818629;-0.044182967;-0.11003161;0.18640316;0.024320463;0.2859771;0.38066846;0.08735227;0.06571817;-0.09028644;-0.4069119;-0.043066714;-0.057815608;0.1418663;-0.016820475;0.0004699094;-0.04814844;0.0028177535;-0.08325518;-0.045532577;0.11398594;-0.09362516;-0.057931554;0.024742635;-0.11859976;-0.28519323;0.07952334;-0.43232605;0.030842073;-0.41316807;-0.003931854;0.33533216;0.27605993;0.09013496;0.09949926;0.41536653;-0.034422748;0.2700553;0.13061562;-0.27429768;-0.11547048;0.053223003;-0.12222164;-0.067435436;-0.28955156;-0.023063371;0.016374622;0.24943331;0.004538413;-0.014459862;-0.21806341;0.012343959;-0.02471401;0.07694894;0.017169237;0.085367806;0.3123122;0.042732716;-0.07292255;-0.04160932;0.17368874;0.048958816;0.21628472;0.25983688;0.016912082;-0.012640395;0.03221434;0.31009033;0.061855752;-0.09985775;-0.07697819;-0.17384282;0.10111302;0.017817818;0.08998478;0.07483694;-0.14075194;0.27857313;-0.27376366;0.04455612;0.036659356;-0.015207786;-0.39179015;0.034840107;-0.22004558;-0.09213202;0.19151329;0.01637992;0.037814625;-0.06671287
-0.01599698;0.36810526;0.2761766;0.09416703;-0.009234834;0.06604858;0.33465365;0.15824574;-0.04479342;0.1351306;0.0371983;-0.03431257;-0.14522827;0.13523276;0.047231413;-0.053635545;-0.052504472;-0.05089411;-0.016779497;0.10172666;0.13106039;-0.017526535;0.020829886;0.059351332;-0.014064514;-0.059319858;-0.07531218;-0.3325221;-0.07208736;-0.048175268;-0.14381339;-0.030733617;0.09337368;-0.25268015;-0.094772056;0.111909114;0.2680718;-0.501554;0.29166195;-0.047991045;0.088695854;-0.034653444;0.1737903;-0.65319234;-0.07064384;-0.110678405;0.03494406;0.05716306;0.037378214;0.018850189;-0.06805039;-0.28359675;0.22148453;-0.02411917;0.039407518;-0.115567;0.03646994;0.035798945;0.122569226;-0.034984015;-0.046542842;-0.020884603;0.04748295;-0.1436247;0.1131652;-0.34622;-0.07490977;0.085560426;-0.02866733;0.03641323;0.2119215;0.031166555;-0.0019180961;0.08094435;0.016640302;-0.052983176;0.025130574;0.004432452;0.26259443;-0.052255914;0.047913548;-0.021638963;-0.006343093;0.015822683;-0.090712324;0.016307842;0.05692629;-0.07071514;-0.028393336;0.047850538;-0.034875557;0.15300526;-0.17069852;0.18694368;-0.14871544;0.16505302;-0.062072136;-0.075044475;0.29074445;-0.057918392;-0.044901524;0.3110242;-0.18275982;-0.07154167;0.1314918;0.027317971;-0.02727946;-0.109690055;0.0034338972;0.020251371;0.035503462;0.16303346;0.11505015;0.16839322;0.17893526;-0.011910468;0.30632353;0.17741318;-0.021764973;-0.25656304;0.1801605;0.0022898028;-0.15779738;-0.007582448;0.07100578;0.03230935;0.007883174;-0.40320656;-0.018361611;-0.1618799;-0.2016687;0.25606838;-0.005116939;0.28735653;0.01822314;0.30557728;-0.042525265;0.07651782;0.03344876;-0.056152295;-0.20400596;0.10456386;0.11724578;-0.058527328;0.035189494;-0.10776207;-0.17920206;-0.061589334;-0.24730691;-0.11916354;-0.05127192;0.22371744;-0.06742426;-0.38261998;0.003990694;0.03502938;-0.07691185;0.16123496;-0.07358505;-0.10542915;-0.00018523066;-0.048792478;-0.03498067;0.017935509;0.0071244845;-0.019347895;0.21099505;0.06755627;0.18721494;-0.0012621328;0.2354299;0.058990616;-0.031611428;0.0143635;-0.05129732;0.301061;0.044335216;-0.059811816;0.34894946;0.032456283;-0.012560125;0.11784626;0.0626573;0.3873171;0.15738349;-0.07223486;0.026469227;0.16455008;-0.3224865;0.009991138;-0.11403576;0.071050376;-0.053727232;-0.06444952;0.053122554;0.3277249;-0.123186134;0.064957485;0.100022264;0.07403992;0.22488892;0.06149136;0.008231141;-0.0417425;-0.11417919;-0.02473696;0.05922483;-0.048196893;-0.2715076;0.16983272;0.07534662;0.27093247;0.008229812;0.03219488;0.0967672;-0.040691685;-0.25738433;0.086270854;0.37822318;0.08766579;-0.13558647;-0.054514408;0.012609877;-0.052964307;0.24784245;0.027957052;-0.048324935;0.08394795;-0.039368905;-0.0149105005;0.19007236;-0.035071146;-0.08690746;0.077227;0.0060245693;0.31915146;0.05212799;0.0097066015;-0.089397736;-0.082820475;-0.1794936;0.06454506;-0.041661784;0.4446158;0.031581882;-0.07115889;0.034474652;-0.04227823;0.15254457;0.10406676;-0.028019141;0.2648131;0.28781652;0.1728797;0.18098079;0.02363194;0.099382296;0.02422942;-0.013831958;0.08779748;0.005493927;0.020599611;0.10238075;0.22913492;0.10020853;0.25720087;0.23010127;-0.07606888;-0.097008266;0.14891976;0.030754143;0.14959575;0.062894255;0.06330761;0.31999168;0.04747018;0.06956231;0.17098789;0.10162991;-0.002149523;-0.22854401;-0.122685485;0.007956147;-0.25752887;0.31569183;0.057625532;0.0034659249;0.17133208;-0.2468595;0.40373582;0.06933409;0.012291055;0.014461785;-0.0997541;0.24117367;0.053080507;0.031706;-0.008620385;0.10009259;0.023834402;0.07331401;-0.0017832918;0.03094574;0.06078415;-0.084948696;-0.04968922;-0.03227402;0.024913719;0.0043993727;0.11876869;-0.032430604;0.13260354;-0.2994201;0.1629397;-0.1243319;-0.08323029;0.17082472;-0.039095376;-0.10003304;-0.115281396;0.010042156;0.09331367;0.20725328;0.059305757;-0.13182014;0.066080794;0.00973374;-0.031811047;0.060269825;0.12259268;0.017768595;0.053694993;-0.12733157;0.03840808;0.114388384;-0.06714022;-0.13693923;0.03813906;-0.11088561;0.024366;-0.15296374;-0.05448461;-0.033274516;-0.0868785;-0.09059653;-0.039344642;0.049650203;0.016762126;-0.036468122;0.08318249;0.05357156;0.07355256;-0.16850235;-0.02220264;-0.046938747;0.13347794;-0.010390817;-0.05345654;0.19555704;-0.0022940924;-0.038430173;-0.13285385;0.06511096;-0.20692642;0.12692404;-0.01530887;0.09699753;0.21899842;-0.070430085;0.1294775;0.26528302;-0.08579105;-0.14025384;-0.052778993;-0.22809584;0.2169363;0.19289315;-0.14964221;-0.02096459;-0.046870105;0.040296685;0.025380049;-0.051954154;0.08117056;-0.05528449;-0.06499583;-0.06042841;-0.18115301;0.2798409;0.020476814;-0.18554123;-0.20702946;0.32264432;-0.4362474;-0.0003558462;-0.2637679;-0.07478762;0.3184966;0.030720212;0.21728002;0.009419609;-0.18327896;-0.064689316;0.08142051;0.0044489964;-0.10589116;-0.027891371;0.1590303;-0.050877318;-0.08585805;-0.15262587;-0.27752835;0.03751877;-0.06449189;0.04649083;0.10881655;0.04646681;0.00926083;0.023644535;0.11962387;-0.00062770717;0.12414765;0.2481769;-0.25583425;-0.059142288;0.13961703;-0.21702375;0.02525526;-0.08727298;-0.30891106;0.032694757;0.18731193;-0.022160126;0.044299304;-0.07268139;0.17227224;0.024903847;0.36565644;0.04006153;-0.031606395;-0.17509605;0.19058302;0.18185824;-0.07301126;0.017406266;0.1864277;0.21900363;-0.19935662;0.032008473;0.2872873;0.103118375;0.07213782;0.09777602;0.034270123;0.09506845;0.048805777;-0.08472448;0.2030932;-0.030934911;-0.24780573;-0.030092366;-0.049719945;0.1448353;0.12872499;0.024620045;0.028840963;0.06745019;0.076162696;0.22461523;0.2759163;-0.07234324;0.04522842;0.042951044;-0.22434898;0.19576006;-0.0358203;-0.053769022;0.06505661;0.01358767;-0.011602594;-0.03472132;0.15520173;0.19065154;0.007348669;-0.05923508;-0.008024057;0.25778374;0.12147326;-0.07851223;0.11287701;-0.0017519026;0.2428987;0.37555456;0.080842145;-0.03153331;-0.2037484;-0.26781514;0.021267988;-0.039980005;0.15671492;-0.011936151;-0.018132998;-0.035484295;0.023858663;-0.26968938;0.05748585;0.090991676;-0.034894586;-0.03760086;-0.012933543;-0.060387887;-0.28117937;-0.066609524;-0.53537446;-0.039313473;-0.3350501;0.06257018;0.36413988;0.27817407;0.14431827;0.22392529;0.5264791;0.09682177;0.25416192;0.17905495;-0.41899064;-0.05676035;-0.015293201;-0.021702915;0.025861958;-0.1412178;0.056772422;0.009706786;0.27099824;0.0728743;-0.083949655;-0.023817154;0.009433116;0.056439586;-0.05713448;-0.020956403;0.011509403;0.22365484;0.04629911;0.045628235;0.050647274;0.1288859;-0.09033433;0.07725342;0.2340518;0.008508546;-0.04721251;0.06949331;0.2834893;0.12471094;-0.1653696;0.1263139;-0.27581155;0.15405457;-0.066196315;0.08538244;-0.0063476586;0.0071399966;0.41909474;-0.16636918;0.11626718;0.03095361;0.023162981;-0.34167492;-0.04856106;-0.28709725;-0.07015423;0.1002462;-0.023025537;-0.07325468;-0.03489258
-0.032222327;0.38863593;0.30109677;0.2444964;-0.033910207;-0.052799296;0.3603758;0.13400835;0.019649513;0.047043942;0.042565066;0.033275787;-0.104594134;0.041602235;0.04809816;0.0013347534;0.02019969;-0.14576791;0.106501825;0.14492202;0.10297748;0.04638398;-0.17294659;0.22095424;0.04807619;0.06289204;0.06099848;-0.2599843;0.010012556;0.057689354;-0.013985538;0.010260917;-0.002819153;-0.27736032;-0.08183979;0.13343708;0.2066587;-0.3273187;0.17690215;-0.06492136;-0.00959376;-0.02771148;0.23158944;-0.63761765;-0.0066409917;-0.14205334;0.08759177;-0.10137111;0.08539102;0.006563497;0.037600245;-0.2973028;0.2218685;-0.02398398;-0.015831491;-0.029679902;0.045444448;0.020182151;0.026243674;-0.0625718;-0.064639;-0.09966622;-0.039583106;-0.06623355;0.0829221;-0.15712838;-0.071702205;0.047028042;0.029288838;0.06525876;0.25526223;0.009893225;0.05979048;0.26844683;0.021772565;0.0891047;-0.043494225;-0.06664423;0.195543;0.0008016757;0.048143927;-0.06368691;0.01862686;-0.04308432;0.05365975;0.072527915;-0.07976029;-0.021053148;0.02147982;0.023379501;0.06959759;0.05393902;-0.08168529;0.14011627;-0.10594581;0.18252602;-0.018765446;-0.20129432;0.29409495;-0.079209514;0.05123543;0.23852369;-0.18482843;-0.062205404;0.1170042;0.088962875;-0.02730388;-0.063450806;0.057281036;0.050473075;0.15772796;0.06252951;0.12236402;0.028223306;0.22621158;0.08481937;0.38663325;0.009017997;0.022709075;-0.16172738;0.13373715;0.034934323;-0.14273767;0.058784056;0.052859336;0.006927727;-0.0013593552;-0.39309794;-0.061929572;-0.08809443;-0.15599024;0.22133465;-0.020628506;0.2728049;-0.06543467;0.22007628;0.010903249;0.005366333;-0.052753206;-0.044287622;-0.1400899;0.1826128;0.06628925;0.07407893;-0.040026296;-0.014209137;-0.20065361;-0.030587051;-0.3428787;-0.10343422;-0.00682222;0.19370106;-0.09131506;-0.24700683;-0.008318543;0.026607512;0.0100870645;0.13048835;-0.07281554;-0.12373104;0.1469787;0.056963112;-0.055954777;-0.0798903;-0.0060087116;-0.03726109;0.20570558;-0.041501656;0.1620107;-0.012786226;0.05075083;0.020841705;0.015961803;0.11632425;-0.10601338;0.2376259;-0.06411678;-0.026245037;0.34133697;0.06398549;-0.04605467;0.2223786;-0.058060233;0.30336505;0.16728148;-0.10623169;0.08679064;0.14247283;-0.22881426;0.05133983;-0.03871059;-0.04538518;-0.04423448;0.018141054;0.045502104;0.32464546;-0.09399134;0.05923832;0.01251888;-0.048868008;0.27117985;0.18952024;0.06353986;0.032202;-0.0062888935;-0.05455657;0.06504912;-0.001371848;-0.3296113;0.099543534;-0.113484874;0.41154435;-0.004277486;-0.03232889;0.20452884;-0.017350497;-0.2592245;0.08820386;0.36978438;0.010933262;-0.04215932;-0.06122288;-0.0005556483;0.042146765;0.14708973;-0.0127012525;0.021304013;0.048980813;0.016183898;-0.023247192;0.23036674;-0.078229725;-0.10798719;0.14029758;-0.05263933;0.21307671;0.08459619;-0.042679578;-0.00060436415;0.01838231;-0.090760656;0.069450356;0.013757884;0.4165582;0.085864164;0.026320934;0.03550591;-0.032593314;0.23805961;0.06891527;-0.0024448773;0.27847445;0.2970825;0.24012353;0.31152087;-0.08396374;-0.01546006;-0.037284497;-0.13866149;0.045400914;-0.025378043;-0.029578548;0.19516249;0.24598616;0.17501378;0.23992692;0.39932007;-0.16169386;-0.15961847;-0.0019978248;-0.03760493;0.13894667;-0.08374172;0.20534994;0.3415364;-0.03877907;0.01667637;0.10345098;0.05502641;0.0439927;-0.31047326;-0.1533459;-0.060502578;-0.202882;0.32577673;-0.087872826;0.076656766;0.081024155;-0.29191768;0.49551755;0.01688049;-0.02160092;-0.0019474557;-0.139437;0.07252421;-0.036028657;0.12892793;-0.017320009;0.15755542;-0.05649849;0.17989838;0.031793494;-0.051645875;-0.026767358;0.048061185;-0.11891627;0.04822666;0.0647044;-0.0489418;0.1260242;-0.048148405;0.267229;-0.32402694;0.1951263;-0.17139456;-0.18412058;0.18001418;0.05845217;0.007505833;-0.19488536;0.0729729;0.1122707;0.13412087;-0.07774483;-0.061499383;0.15927237;0.093626186;0.061693177;-0.030007439;0.1602607;-0.024360018;0.08457437;0.01774414;-0.06950929;0.08027276;0.06024917;-0.18113714;-0.04757449;-0.15750098;-0.030075675;-0.14922701;0.008329152;-0.010140388;-0.15674844;-0.08912768;0.06530044;-0.04191496;0.07259188;-0.06423354;0.047362823;-0.055103;0.14760812;-0.06333113;0.07029255;0.00677979;0.02064911;-0.1385515;-0.11058737;0.18584748;0.013917209;0.06042064;-0.09432212;0.022622352;-0.29995248;-0.025340833;0.0024401392;0.18918505;0.2325485;0.013835966;0.14112537;0.28749567;-0.05611597;-0.015303025;0.06672792;-0.24930553;0.24231277;0.14902179;-0.09979741;-0.069453105;-0.034928918;-0.041359935;-0.006525559;-0.032558024;-0.015176028;-0.060876332;-0.017191367;0.0060945535;-0.09764442;0.13315772;0.08589209;-0.14493565;-0.34026;0.2953598;-0.55385566;0.039944064;-0.1432005;0.04721457;0.3469358;-0.043500874;0.23248358;-0.0026175578;-0.13980089;-0.049285837;0.14755085;0.17037266;-0.025319822;0.011033293;0.13870975;-0.19209425;-0.22293639;-0.1197273;-0.34047335;-0.013441958;0.025344856;-0.06852679;0.030448083;0.0017229855;-0.02271986;-0.030647257;0.13462344;0.013590705;0.085388154;0.115082815;-0.34276965;-0.037025638;0.14170003;-0.3550215;-0.08353664;-0.019056201;-0.3336006;-0.040926006;0.20350857;0.06917564;0.034029573;0.066880845;0.09088498;0.06057508;0.27136952;0.09203149;-0.06254619;-0.051724337;0.25933078;0.12737297;0.068990625;-0.009249114;0.20437507;0.12624073;-0.2603528;0.042440824;0.2794047;0.18057123;0.051088102;0.029635593;-0.030509537;-0.08113978;-0.056493044;-0.11856978;0.098939784;-0.13590689;-0.26837817;0.032864112;-0.054791413;0.12366729;0.23819347;-0.053149186;0.06360909;-0.07074065;0.11164921;0.27410445;0.35380498;-0.02698584;-0.074861355;0.048774682;-0.21589261;0.21796694;0.014988092;0.021396372;-0.0685294;0.05303315;0.08799453;-0.09130942;0.10300017;0.15445104;0.15241282;0.08403575;-0.008932971;0.14595428;0.09583159;-0.16423635;0.089215614;0.04692278;0.263277;0.34226412;-0.0018942329;-0.0655236;-0.15512992;-0.35532033;0.07493981;-0.070087604;0.17691451;-0.0439959;0.083394416;-0.006921188;-0.072999194;-0.14537577;-0.0030562838;-0.05444941;-0.07108653;-0.037828654;0.008104131;-0.15410028;-0.29798952;0.039465778;-0.44508883;0.007118859;-0.36053053;0.054127183;0.3039988;0.4223765;0.1470082;0.25620645;0.42814925;0.026069775;0.1608879;0.25894052;-0.32901302;-0.06440085;-0.11023499;-0.010921563;-0.014953926;-0.13471815;-0.07825235;0.04340413;0.32969788;0.1257882;0.05258342;-0.13608633;-0.03405443;-0.06961305;-0.044837523;0.018586269;-0.0698248;0.18639624;-0.013001142;-0.04437038;0.09503811;-0.019261165;0.044670716;0.07643008;0.15527415;-0.009598993;-0.05819765;-0.042290248;0.23322071;0.038776986;-0.12831151;0.06514248;-0.189806;0.25032404;0.0614989;0.03939836;-0.03397906;-0.18318999;0.25516143;-0.22253689;0.10003469;-0.00074909825;0.053281683;-0.3986016;0.0052027423;-0.29987;-0.032628763;0.006335101;0.038455002;0.021763045;-0.03338818
0.13678966;0.34506994;0.2945825;0.14776117;-0.018751156;0.01799843;0.18256877;0.18832967;-0.05595423;0.15319559;-0.040571738;0.010484815;-0.06369964;0.03395363;0.11971389;-0.09373103;0.08076055;-0.021712244;0.18248238;0.042426176;0.025256159;-0.095588654;-0.14013976;0.18081965;0.08861603;0.030947074;-0.0814474;-0.3503603;-0.14053537;-0.02407801;-0.021538327;-0.018651795;-0.071357645;-0.10776642;-0.08872444;0.1935934;0.16972558;-0.3501415;0.23710412;0.048557214;-0.058205932;-0.01221388;0.1623527;-0.6864726;0.037696056;-0.22053458;-0.051894017;-0.21926852;0.012063587;-0.046134453;-0.018316943;-0.26413116;0.14499363;0.016518572;0.041146625;-0.043950256;0.011348582;-0.0853879;0.15093336;-0.05021243;-0.029474594;-0.053804554;0.027191045;0.0440382;0.12245729;-0.112727456;-0.0015822973;0.11495997;0.0013311461;0.017884811;0.24992523;-0.007893224;0.040500764;0.24805136;-0.11608967;0.02574355;0.050073955;-0.040437397;0.32660925;-0.00075486867;0.046917737;0.015088342;0.10904071;-0.053709142;0.04092637;0.015854178;-0.14558776;-0.030016515;0.087710984;0.014971434;0.023907842;0.09639749;0.0071254144;0.18008782;-0.075284906;-0.01227814;-0.09131826;-0.166126;0.32846275;-0.018552022;-0.01998971;0.2536486;-0.054377448;0.054167174;0.13141234;0.09279263;-0.02444251;-0.08810884;0.083625235;0.05198832;0.046944294;0.017954545;0.19865023;0.017105991;0.18662791;-0.070353836;0.35459837;0.10140948;0.011474874;-0.14045164;0.15648285;-0.0031787243;-0.18645863;0.040144823;-0.012294596;0.019330664;-0.011928255;-0.3528017;0.030593965;-0.104426496;-0.04822723;0.28770822;-0.008209049;0.40374365;0.054309297;0.136716;0.01681219;0.079808794;-0.040358037;-0.0050660665;-0.054130588;0.057691805;0.074946135;0.010775527;0.0076029534;-0.01934892;-0.089937195;0.01672549;-0.29767004;-0.20949885;0.013130501;0.1598639;0.0519888;-0.29019305;-0.05488524;-0.045302033;-0.02865353;0.1744712;-0.009237071;-0.060378883;0.067454256;-0.049937453;0.0016752715;0.044616994;0.048586812;0.1103063;0.18953907;-0.06374589;0.1958256;-0.033676893;0.07428558;-0.073004745;0.028679216;0.008127751;-0.10917705;0.16863799;-0.053005155;0.01563374;0.3091337;0.02302682;0.10065898;0.18025891;-0.07704956;0.36660677;0.22864239;0.071459986;0.08878176;0.053166315;-0.22963344;-0.0070802136;-0.14768243;-0.077636026;0.012185299;0.058000136;0.00779583;0.20996013;-0.12737407;0.052723896;-0.11719851;0.0066730096;0.2568244;0.1260085;-0.05577575;-0.016569672;0.0008335481;0.00758934;0.06346368;0.05146231;-0.31175056;0.13335288;0.017214065;0.36672074;0.016889637;-0.012608915;0.09101573;0.019394819;-0.19196819;0.11406808;0.3467703;0.22856939;-0.041888665;-0.028236859;0.078631036;-0.047469385;0.2774604;-0.017385818;-0.059856337;0.015452686;0.035022423;0.03657844;0.23759593;0.04789929;-0.172031;0.08033113;-0.03160513;0.2594736;0.12549342;0.055103835;-0.054111972;0.008049074;-0.14611863;-0.0038306857;-0.04312299;0.35558447;-0.03946319;0.040667795;-0.05677927;-0.032125108;0.22802632;0.22365966;0.014848395;0.27081883;0.14868373;0.20228328;0.21576352;-0.008913685;0.03378384;0.016634855;-0.057245206;0.0582157;0.0021620016;0.04236451;0.23720752;0.25539562;0.06864306;0.331878;0.24358152;-0.09047725;-0.116878666;-0.05079221;-0.11716389;0.060248006;0.023839677;0.07233305;0.2587044;-0.04670998;-0.031163035;0.0961312;0.06240881;0.16924433;-0.23818938;-0.20749682;0.089419566;-0.16999108;0.26517248;-0.060711235;0.11915209;0.12596807;-0.2165697;0.48662487;0.024501866;0.098772876;0.04377355;-0.07435498;0.1499888;-0.0076779416;0.13919905;0.10635974;0.20034741;0.021774039;0.22933657;-0.09212404;-0.02592882;0.040112797;-0.0010761179;-0.03883423;0.03033985;0.0269675;-0.008517692;0.15305881;-0.004377634;0.25060123;-0.29652694;0.1294978;-0.1584996;-0.11262656;0.26226476;-0.055322047;-0.02814927;-0.10301974;0.08839172;-0.011442696;0.09435863;-0.04291121;0.0057204603;0.16157082;-0.054695223;-0.0073423907;0.053175677;0.17216948;0.0016715156;0.11526179;-0.007089392;-0.0300321;0.25913802;0.03417097;-0.21032572;0.016242519;-0.06339666;0.0053692386;-0.24206956;-0.06953579;-0.08284612;-0.32197312;-0.056938585;0.047745846;-0.044633444;0.024351595;0.055190384;0.21315959;-0.045935784;0.14988275;-0.047963887;0.11779162;-0.004332348;-0.026899915;-0.07261434;-0.11478559;0.29063115;-0.06497514;-0.0514975;-0.15040313;-0.012120188;-0.14548221;0.10804387;0.046450254;0.21009023;0.2406104;-0.02858315;0.19108568;0.14013149;-0.08843047;-0.16915219;0.01980173;-0.28901765;0.19880253;0.09130986;-0.11131302;-0.037574034;0.014784009;-0.032095917;-0.044882096;-0.045572758;0.04927288;-0.067103416;-0.14720999;0.036000457;-0.094565906;0.1564025;0.007390112;-0.12936491;-0.18643992;0.4182092;-0.56544375;0.010765803;-0.097052656;0.07050222;0.34105277;0.012125363;0.120041676;-0.009527037;-0.22866136;-0.08218766;0.1488822;0.16297336;-0.03780755;0.0738691;0.08826053;-0.20465787;-0.23321378;-0.1672589;-0.39812696;-0.05206271;0.05560206;0.07608425;0.08298853;0.011286871;-0.17067955;-0.056594733;0.016857406;0.053303782;0.13082933;0.15283926;-0.28644922;-0.04614153;0.10716687;-0.38505548;-0.0041033905;-0.022652397;-0.3072002;-0.036382493;0.19778237;0.026979087;0.043121878;0.0526376;0.017033804;0.11338891;0.31040567;0.11341627;-0.0070979907;-0.043494098;0.30786505;0.21195418;-0.055574343;-0.010786601;0.20845601;0.12512356;-0.2221865;-0.019536637;0.23097816;0.10229149;-0.015028666;0.117875315;0.020663045;-0.0047368584;0.025988646;0.01757095;0.19175571;-0.27610633;-0.25372887;0.022059549;-0.003798377;0.09777922;0.1846145;-0.06405956;0.15155327;-0.104966834;0.11930444;0.10231679;0.26323172;0.014593302;-0.111192;-0.0817742;-0.31203046;0.21706162;-0.04078213;0.054006007;-0.0051452266;0.08716529;-0.055102628;-0.023838937;0.21946613;0.04776218;0.19035922;-0.020982664;-0.0612915;0.1934807;0.021064477;-0.17963712;0.18638265;0.0064997394;0.25442374;0.27593166;0.047397487;-0.017102722;-0.25623614;-0.32680798;-0.020943701;0.0037798788;0.17485228;0.017378341;0.020881627;-0.007721219;-0.025494501;-0.20858115;-0.06572248;-0.08815301;-0.01372243;0.07787089;-0.014875637;-0.009398392;-0.1135334;0.003621091;-0.52111024;0.0050233235;-0.23758547;-0.011304999;0.251302;0.33803007;0.21704671;0.118866056;0.30888683;-0.030930175;0.17683741;0.19282666;-0.41591415;-0.11829394;-0.0018149202;-0.1278554;0.001449492;-0.13914435;-0.013532596;-0.012383567;0.19997355;0.10747614;0.041646432;-0.1271002;-0.00081295567;0.00608854;-0.04374231;-0.076394804;-0.055051968;0.08596318;-0.01517079;0.0198367;0.18884692;0.03313416;-0.0490284;-0.02729399;0.049018387;-0.020447697;0.07307285;0.025011195;0.23328395;0.040730707;-0.2592498;0.098526806;-0.24608757;0.183917;-0.07378665;-0.06711748;0.07834245;-0.22144444;0.2348613;-0.11233892;0.17943095;0.0008195701;-0.07221477;-0.39431116;-0.0041593243;-0.34822157;0.027273973;-0.038239866;-0.0021675164;-0.08033202;-0.09132197
0.0226637;0.529259;0.11398895;0.27587107;0.012318968;-0.011610907;0.17732555;0.08259836;-0.0051244856;0.08387002;-0.04018473;0.08155758;-0.15304324;-0.039028842;0.06726708;-0.06802813;0.025287144;-0.056099426;0.12283311;0.064528026;0.05049587;0.048743427;-0.08468572;0.27126834;0.034980375;-0.063622214;0.0027581686;-0.22833788;-0.017054545;-0.12574513;-0.058773424;0.085395925;-0.05228374;-0.23467927;-0.018215138;0.19182701;0.23602928;-0.43842813;0.22645855;-0.026093097;0.012405422;-0.017160153;0.17087568;-0.71518266;-0.0046288813;-0.19516484;-0.05634214;-0.20959876;-0.022416783;0.03837071;-0.038077023;-0.38730955;0.1769556;0.023739988;0.030844985;-0.13793398;0.043077953;0.049879603;0.09343215;0.01957746;0.00057747314;-0.1771261;-0.06437994;0.017178064;-0.03333616;-0.10093418;0.043318596;0.1274176;0.12588824;-0.030101884;0.10446292;-0.05608017;0.006978382;0.09467914;-0.14455925;-0.06418076;0.013032193;0.1417431;0.3678171;0.043959465;-0.07286025;-0.026659995;0.16309518;-0.008896068;0.06451128;0.10830118;-0.24681596;0.04981226;-0.022635296;-0.01894235;-0.07230558;0.07809372;0.05545123;0.10083019;0.053222846;0.08576703;-0.11317863;-0.3103157;0.42921713;-0.050151005;-0.05059807;0.12677093;-0.048335377;0.028924828;0.15261298;0.18460973;0.031594172;0.07240521;0.07716678;-0.09088746;0.19710387;0.0307428;0.13609117;0.0066715614;0.20658392;-0.006531835;0.28032506;0.021318002;-0.056320306;-0.10111278;0.16075599;0.073248334;-0.21756077;-0.028780088;-0.028307421;-0.05718077;-0.062863536;-0.23567364;-0.05320028;0.057289276;-0.21010211;0.2695484;-0.03339091;0.35124436;-0.06750221;0.06164237;-0.11353456;0.07360644;0.06543173;-0.053722564;-0.08896009;0.16955797;0.1378236;-0.031150011;-0.058080077;-0.029018957;-0.13197607;0.034711797;-0.33947256;-0.15262051;0.009312631;0.031311084;0.04873309;-0.2993112;-0.040043045;0.046837967;0.042361442;0.21592054;-0.06399905;-0.23329066;-0.016980156;-0.039173376;-0.14701721;-0.06336231;-0.013942439;0.035413966;0.22487003;0.024351815;0.070864856;-0.06979802;-0.03277751;0.047503594;-0.050449476;0.05514901;-0.029907208;0.29454616;0.044957653;-0.01844889;0.3020457;-0.027532682;0.016716346;0.25226933;0.11802882;0.36913338;0.118435934;0.012747074;0.17953123;0.14598101;-0.16296455;-0.02267614;-0.061082948;0.025209421;0.14560108;0.0065377695;-0.038694143;0.3840174;-0.016624501;0.010575302;-0.055995695;0.016405517;0.28145376;0.07688371;0.037680052;-0.07063847;-0.18617296;-0.016025782;0.06459451;-0.028923044;-0.41377464;0.22430846;-0.027641112;0.39954233;0.016605996;0.060003664;0.16236709;-0.03974889;-0.14832656;0.12429105;0.29281384;0.19195151;0.18081716;-0.06831391;0.080725454;-0.015242412;0.23896928;-0.02992684;0.055288114;0.013095254;0.048017077;0.057941414;0.22008707;0.053940874;-0.22170384;0.098387934;0.045867763;0.19616914;0.0708786;0.03456733;-0.12396289;0.020478679;0.00028806555;0.06255311;-0.038226996;0.35788694;0.06643824;-0.060213823;0.010811805;-0.039090723;0.15420769;0.21166946;-0.009658962;0.30012807;0.13747293;0.13083042;0.21954936;0.008768296;0.003563645;0.03083752;-0.0017603615;0.17140792;0.03724488;-0.077110186;0.12729101;0.2875871;0.11064735;0.3190301;0.34617326;-0.067366146;-0.028888859;0.025001295;-0.14250584;0.19871695;0.019994475;0.13279201;0.2972415;-0.045445833;0.062330704;0.15456372;-0.053254213;0.12068782;-0.27761397;-0.2072891;0.1357472;-0.14508982;0.26844406;-0.01641757;0.050908495;0.15417868;-0.26756555;0.42903897;0.0007565269;-0.016282573;-0.067213275;-0.07502429;0.058637157;-0.019141605;0.09062545;-0.0009678041;0.30028254;-0.042343166;0.2232185;0.0027079827;0.014654107;0.20119758;-0.026072735;-0.031332802;-0.045922216;-0.08756993;0.025429472;0.17899472;0.054580413;0.115202546;-0.30485642;-0.08623592;-0.069744065;-0.17325059;0.32325783;-0.054372866;0.091652855;-0.16557424;0.07661276;-0.085022524;0.058617715;0.0700902;-0.028624997;0.19837376;-0.036078926;-0.0050129746;0.07912966;0.32652113;-0.0580564;0.054579068;-0.059625804;0.031533163;0.2581027;-0.0069801523;-0.23562193;-0.044088002;-0.029945334;0.012094631;-0.17160888;0.039607216;0.0822933;-0.4878387;-0.17352898;-0.0995262;-0.010125594;0.025219778;0.0053382427;0.107909754;0.06628736;0.13056917;0.12287419;0.13460828;0.03693736;0.03628001;-0.13714866;-0.0016161078;0.24418983;-0.025627945;0.07175601;-0.26884997;-0.031913605;-0.16455753;0.035099927;-0.025984649;0.217122;0.30907738;-0.14900093;0.29854807;0.18037042;-0.06832532;-0.1131592;0.04688926;-0.34192106;0.13207583;0.13477391;0.0070124674;0.07069366;0.050284438;-0.035243116;0.07881549;0.025291711;-0.0060721114;0.08235659;-0.20664462;-0.024720572;-0.15615414;0.15264265;-0.00017410534;-0.19561201;-0.26998767;0.3900861;-0.5623936;0.057993643;-0.076069295;0.031965915;0.31942913;0.043850023;0.060610622;0.03647207;-0.17934544;0.09407113;0.095771305;0.08786085;-0.013622486;0.120758206;0.090247974;-0.2619623;-0.29642117;-0.20388004;-0.37681136;-0.027310919;-0.021205623;0.04458071;0.03233758;0.030830892;-0.06548333;0.076601475;0.12652859;0.028145712;0.13183677;0.2497813;-0.2316214;-0.030599764;0.10632041;-0.4956287;0.033321694;-0.058747493;-0.22813672;0.05259238;0.25442758;-0.012999274;0.02644987;-0.0015192827;-0.090302564;-0.02858709;0.1757091;0.064838864;0.052447915;-0.12148201;0.26782316;0.19497919;0.057596117;-0.07715156;0.21145909;0.15727624;-0.2915565;0.009329062;0.17987394;0.018519316;0.08472653;0.08980202;-0.034248542;-0.038623918;-0.021121807;-0.12080243;0.31140527;-0.41808465;-0.26919174;0.07104344;-0.07203574;0.122272834;0.26170427;0.068380274;-0.0050561405;-0.10480455;0.18898058;0.057425816;0.23882122;-0.05146009;-0.023684928;0.032511063;-0.19948958;0.13883872;0.030077467;-0.038344216;0.04934508;0.14292529;-0.016762724;-0.1281621;0.20706227;0.07269033;0.07701827;0.03455846;-0.02109812;0.2066066;0.103289604;-0.12541279;0.09947696;0.030892791;0.105168656;0.3559346;-0.034069844;-0.057263587;-0.30077046;-0.30156967;-0.017940994;-0.04267781;0.19730109;-0.030371893;-0.02342663;-0.06331849;0.05704382;-0.040530983;-0.05659374;-0.02495569;-0.053596865;0.05636392;-0.043575346;-0.05757141;0.06376459;0.04810712;-0.4659856;0.058747593;-0.2241476;-0.025338724;0.18006302;0.37719712;0.24907887;0.06850194;0.21005827;-0.028643737;0.14071457;0.12779173;-0.39635733;-0.061764535;-0.10681618;-0.15709008;0.02666058;-0.2395058;-0.0440175;-0.07296325;0.22708406;-0.015122454;-0.014975817;-0.22457479;-0.04357025;0.014982329;-0.08428021;-0.03495276;0.039159838;0.12989417;0.058979888;0.033860583;0.09361859;-0.017728196;-3.2126904e-05;0.07449934;0.0023851003;-0.07769043;-0.053042624;-0.06935983;0.21025841;0.15037844;-0.19618297;0.026921209;-0.08511206;0.12092608;0.065306835;-0.24653633;0.0813732;-0.2727146;0.31283003;-0.0667899;0.15829366;-0.0013971897;0.0052611846;-0.3853554;0.049271226;-0.3390896;0.019035347;-0.13373998;-0.04729785;0.074701585;-0.11021333
0.17298342;0.44316223;0.09344035;0.19548266;-0.04252127;0.10663176;0.12847912;0.2008825;0.0022787482;-0.026491009;0.010468825;0.07032828;-0.20215836;-0.15202719;-0.046917953;-0.08893308;0.005874184;-0.053540185;0.1314809;0.11979662;0.073790394;-0.020292655;-0.14108065;0.28455034;-0.051395494;0.059393805;0.03442115;-0.15615164;0.025732871;-0.10357289;-0.043298546;-0.03572326;0.006311228;-0.24010241;0.15042022;0.22490637;0.23542304;-0.44226038;0.1331121;0.017344724;-0.06529352;0.080567114;0.28998873;-0.71874344;0.05317513;-0.15959378;-0.055124365;-0.1303072;-0.07676999;0.0011838535;-0.006829668;-0.38342857;-0.0014425021;-0.065752536;-0.024902554;-0.1830205;0.036531553;0.05348732;0.08403613;-0.053289052;0.046768606;-0.1420238;0.06228942;0.08433247;-0.018158432;-0.013260497;0.010549168;0.047360882;0.10919825;-0.046430446;0.1869971;-0.020675031;-0.06775161;0.16598009;-0.16990829;0.04724712;-0.034770254;-0.033809114;0.29251114;0.013703612;-0.008113638;-0.014704249;0.21079347;-0.10907822;0.024666028;0.031812333;-0.23844355;0.051962614;-0.056820173;-0.07021408;0.016675817;-0.05123318;0.04758089;0.06477545;0.15064909;0.029843139;-0.15978673;-0.123539165;0.289512;-0.084003255;0.02630454;0.20195305;0.08404989;0.039942954;0.19407144;0.16646002;0.010624838;-0.015319667;0.04383333;-0.01748879;0.096535735;0.10668217;0.028844438;-0.0029504201;0.120360106;0.026972339;0.21023309;0.07407158;0.044196565;0.07326546;0.14967489;-0.012021158;-0.15558924;-0.047266416;-0.04500757;0.06453754;0.11825199;-0.25446945;0.03663064;0.06568648;-0.09894476;0.21044022;-0.10455083;0.39225015;0.04053214;0.001153572;-0.08023538;0.1639236;-0.033311494;0.08725998;-0.04045891;0.07176838;0.09947515;-0.14528964;-0.048863094;-0.00817196;-0.059781328;-0.04834028;-0.2168438;-0.14773253;-0.012858225;-0.026399808;0.03224701;-0.44445115;0.05591171;-0.020668669;0.035585918;0.13419217;0.033092123;-0.22702259;0.05350082;0.05479828;-0.169241;0.07517694;0.022857463;0.066062614;0.15094893;0.024485284;0.07101507;-0.18773828;0.028481739;-0.10309059;-0.009874586;0.047060307;-0.059616532;0.31345424;-0.03599695;0.03321109;0.25776437;-0.026311388;-0.03190753;0.2861288;-0.011491144;0.2663478;0.19693598;0.025923174;0.20956534;0.21140672;-0.1183827;-0.010168533;-0.06681086;-0.050427243;0.15125524;0.036038637;-0.015895262;0.39236248;-0.06723382;0.049908772;-0.17022136;0.047316723;0.26849362;0.2302633;0.03078015;0.07519458;-0.031206334;0.021888494;0.02335086;0.03630062;-0.39392626;0.31323957;-0.036883347;0.3096311;0.02191912;0.0164412;0.1361802;-0.032020774;-0.15493423;0.20025975;0.18621682;0.22118908;0.022072146;-0.09159136;0.015521679;0.004734453;0.2818784;0.06568684;-0.027231926;0.1019264;0.03736528;0.039217815;0.08748545;0.010217726;-0.31148687;0.066762194;0.10006767;0.039853033;-0.006267855;-0.048380453;0.010909001;-0.013945621;-0.05106128;-0.09145486;-0.024245447;0.32448247;0.037166853;0.09990567;0.012625458;-0.040021352;0.08112871;0.10400955;-0.02578001;0.30001044;0.09582653;0.18117614;0.111798145;-0.05930372;-0.044693984;-0.061264;0.03639;0.01299382;-0.0039334754;0.06459414;0.16750477;0.18818308;0.04823268;0.3174411;0.26083103;-0.12619002;-0.080500364;-0.14501639;-0.08981058;0.07374882;0.015271865;0.17803404;0.30405924;0.018785708;0.02682324;0.13189974;-0.01784306;0.05402468;-0.24879377;-0.35465938;0.06550829;-0.134908;0.083370306;0.017594313;0.09389722;0.123016946;-0.23031285;0.31707853;-0.07200959;0.024006372;-0.004165301;-0.12877992;0.06892182;-0.033586644;0.15277116;-0.021423547;0.2191658;0.003305368;0.1693011;0.033200543;0.055100344;0.10998152;0.040499117;-0.043166395;0.06964309;0.0064659896;-0.047939662;0.13699406;0.0037626312;0.008056159;-0.20237455;0.012910397;-0.1599877;-0.22315377;0.24663256;-0.0027933684;0.08862296;-0.027133973;0.02302629;-0.025142837;0.13631286;-0.040898472;-0.021827586;0.09734523;-0.058427334;0.018002033;-0.021776091;0.37319756;0.0040125092;0.06771064;0.0056640944;-0.012896058;0.2758225;0.040261395;-0.20161416;-0.02324782;-0.06252528;-0.047500297;-0.18418139;0.024552068;-0.0877471;-0.33769315;-0.19517037;-0.018945627;-0.05723713;-0.07077366;-0.012634528;0.12599935;-0.0418397;0.12168768;0.21390514;0.050987065;-0.042590085;0.10614815;-0.08138683;-0.117327265;0.20651637;0.006489087;0.018189942;-0.21878631;-0.014393148;-0.17437805;-0.04789763;-0.06199313;0.0782102;0.361218;-0.011002965;0.3132736;0.14067386;-0.031797063;-0.12256299;-0.06832211;-0.22054207;0.1979814;-0.0033356792;-0.1111499;-0.015556546;-0.012915339;0.046324205;-0.008409151;0.057596184;0.043837145;0.0877544;-0.07545871;0.030580487;-0.009598762;0.0553054;-0.03139071;-0.12841524;-0.06801926;0.29765922;-0.4693531;-0.049229268;0.026068171;-0.031869438;0.19221717;-0.060985994;-0.048429;-0.036309686;-0.26691753;0.0570627;0.22145835;0.085367024;-0.05444251;0.13354841;0.04386794;-0.24378592;-0.3346751;-0.15970582;-0.38224497;0.040953834;0.021375254;-0.0940928;0.108763866;-0.06904596;-0.09563675;0.01616286;0.16278039;-0.058513626;0.0837969;0.25266993;-0.28459227;0.028266147;0.22860737;-0.45209083;0.017077556;0.0024442803;-0.37034437;0.047695007;0.24967444;-0.0076701245;0.01598533;-0.051234722;-0.07863896;-0.053767625;0.30513617;0.08739359;0.033275858;0.053257417;0.34446126;0.1125903;-0.018271958;0.023052897;0.23898287;0.14179608;-0.2102445;0.0026242593;0.12510912;0.020738253;0.1579831;0.20799327;-0.072182834;-0.13627037;-0.011957748;-0.05883125;0.20277871;-0.25582558;-0.36983284;0.12479582;-0.0037473824;0.07704677;0.20697334;0.021380352;0.034350205;-0.063243404;0.09281864;0.06715615;0.19819516;0.0015645371;0.004875423;-0.023665665;-0.3201161;0.011499504;0.09036034;0.024053453;-0.06167667;0.19018137;-0.032797668;-0.0592889;0.2641625;0.020372754;0.19342837;-0.03892658;0.087847546;0.15414563;0.1681629;-0.1594988;0.07116766;-0.061224263;0.15279882;0.2598463;-0.028128771;-0.020163134;-0.13853084;-0.39584887;-0.061720997;-0.031338982;0.13936162;0.0018227855;-5.8454192e-05;-0.10620377;0.03719536;-0.11089751;0.0736988;-0.04464051;0.08291037;0.03035347;-0.064659275;-0.009211436;0.12117404;-0.002046538;-0.4184133;-0.07804666;-0.2214129;0.046486624;0.17402062;0.31400394;0.11330197;0.024503164;0.3041608;-0.040950928;0.096646;0.16003849;-0.30067274;-0.073286235;-0.21220008;-0.12581122;0.019001305;-0.17726776;0.033094615;-0.07188672;0.35039684;-0.041506935;0.026371248;-0.28779203;0.068146035;0.04609271;-0.023315616;-0.16380805;0.08000884;0.20530419;-0.05213515;0.018450918;0.0078235725;-0.011744513;-0.009277424;-0.0045767017;0.101046;-0.022064995;0.06008606;-0.03382529;0.13654035;0.07276295;-0.20360506;0.0749704;-0.18772988;0.030174667;0.032771394;-0.3104439;0.017759355;-0.19686009;0.24874817;-0.068749815;0.21756788;0.01974244;-0.13486405;-0.2999683;-0.062454168;-0.2390836;0.11463392;-0.12530246;-0.03887445;0.008909261;0.010532969
0.01880518;0.38525754;0.032579012;0.1800597;-0.054872416;0.07473751;0.11104659;0.04686577;-0.057868894;0.09055571;-0.008158195;0.013171842;-0.19242126;-0.06843036;-0.09726404;-0.0982759;0.11431152;-0.10683068;0.081294715;0.103239134;-0.036137357;0.047022946;-0.15438683;0.29252118;-0.002696536;-0.07436585;0.021837948;-0.27716753;-0.030990608;-0.17861073;0.10128236;-0.002565981;-0.058848772;-0.1889673;0.101500675;0.23616792;0.26881987;-0.23405896;0.07691615;-0.090389;0.047916636;-0.038918715;0.29389355;-0.60025454;0.037757255;-0.16317914;-0.023031725;-0.11233121;0.078774355;-0.028554972;0.010864897;-0.46472406;0.043282956;0.08496169;0.008217679;-0.028418006;-0.064302586;0.0026249662;0.051728137;0.086671904;0.04371116;-0.18631211;-0.0046780705;-0.07711602;-0.023287915;-0.005431099;-0.010261832;0.079813175;0.0990837;0.080210395;0.15044887;0.037761774;-0.042967886;0.13440351;-0.09632876;0.056477968;-0.009248758;0.11867665;0.37157345;-0.044811677;0.066842504;-0.050205316;0.080521695;0.12398311;0.05421534;0.012827985;-0.17984313;0.047713842;0.0087276455;0.008090895;0.054198653;0.03181552;-0.07871548;-0.06561926;-0.00705528;-0.019516328;-0.147743;-0.20115396;0.4197768;0.0008725531;-0.05093383;0.08890605;0.12957811;-0.05704842;0.10344567;0.21007152;0.0471042;-0.046258196;0.029777871;0.083812036;0.13566886;0.0652431;0.01480495;0.010732732;0.1055748;-0.07989737;0.3166211;-0.10075572;0.07803233;-0.05588309;0.2445829;-0.045167077;-0.13325994;0.030380901;-0.038209617;0.05267571;0.12123918;-0.16843057;0.018879337;0.085805506;-0.06660294;0.21846564;-0.10814309;0.40006277;-0.012315497;-0.057181235;-0.06594996;0.074532405;-0.028067239;-0.060850643;-0.20466177;0.07794827;0.18627231;-0.19289918;0.00014843539;-0.017202005;-0.1314874;-0.005712167;-0.30932978;-0.16580585;-0.04550114;0.04698186;0.04976267;-0.3572934;0.05168193;-0.10058017;-0.05407722;0.23712386;0.050564397;-0.30125466;-0.08579799;0.051415227;-0.1394604;-0.015845586;0.008019175;0.00956529;0.13637924;-0.05365491;-0.108444795;-0.18666035;-0.16365647;0.0025065588;0.003079624;0.013020202;-0.09405515;0.1777931;0.07376152;0.01962223;0.19295686;-0.05724237;-0.03694354;0.15666327;0.1036824;0.22592628;0.036949407;0.09552352;0.14795195;0.13997838;-0.10724788;0.049469173;-0.015617177;0.015016815;-0.01131758;-0.066888176;-0.00016473644;0.28352875;-0.075574875;-0.09971848;-0.06891668;0.0075779133;0.26845643;0.18961829;0.031648215;-0.013198985;-0.15747672;-0.071956664;0.0034789748;0.05152079;-0.34997872;0.20911886;0.014399408;0.37064558;0.03744294;-0.06591517;0.18642189;-0.024503205;-0.10034561;0.02474736;0.15152411;0.080072;0.08711191;-0.042344257;0.16392653;0.01567655;0.15630637;-0.054823846;-0.039502565;0.17396466;-0.03995205;-0.06070515;0.24604431;-0.06552084;-0.24854277;0.034342997;0.23024303;0.13277468;-0.03383604;-0.036954958;0.12732673;-0.08746528;0.095438;0.003355318;0.059774302;0.3789573;-0.09090392;0.07125643;0.045718506;-0.025344357;0.14685133;0.12989701;0.0037103344;0.12314641;0.011569817;0.07910561;0.18699479;0.088061646;-0.048665997;0.009721561;-0.021842485;0.15786491;0.027442105;-0.013598006;-0.044039838;0.23658796;0.06324983;0.364272;0.21191534;-0.12115873;-0.09639098;-0.051637962;-0.2116127;-0.0061568213;-0.0012023316;0.031557076;0.27136356;0.021053357;-0.048078872;0.2178294;0.053630322;0.15028597;-0.17737105;-0.30627885;0.055248443;-0.030101752;0.011511451;-0.09163192;0.17354925;0.11300898;-0.27647236;0.35816503;0.023183793;-0.106113546;-0.041301746;0.047750555;-0.09555832;-0.0759133;0.09363652;0.0069917715;0.17923072;0.04425491;0.15896378;0.06031101;-0.045900747;0.08515334;-0.026852662;0.072239146;-0.06570577;0.0038170335;0.018935332;0.12891456;-0.06050274;-0.013471207;-0.23703273;-0.034274146;-0.09491358;-0.14750206;0.34218532;0.0435194;0.09263149;-0.080765314;0.0025358603;-0.18229279;0.14937101;0.070299506;0.03401156;0.10634204;0.030461296;0.007697944;-0.046066467;0.44127446;0.040609945;0.07469762;-0.08541352;-0.046277333;0.23427953;-0.04872211;-0.23668788;0.01964736;-0.15040343;0.018022098;-0.10384332;-0.062616035;0.048571486;-0.45931703;-0.13186115;-0.16052026;0.07892142;-0.057528403;-0.037672285;0.06853463;-0.027786449;0.108919926;0.19130874;0.0851832;0.001719262;0.13585521;-0.05968716;-0.14535862;0.05471303;-0.03648965;0.01774714;-0.30877435;-0.052382357;-0.23116305;-0.07209705;-0.023477677;0.0853757;0.3068029;-0.07132513;0.23900737;0.13482861;-0.08703327;0.029416036;0.059002418;-0.23834917;0.16602021;0.021373212;-0.16508453;0.032951318;-0.007084684;0.048626695;-0.060492877;-0.034275055;-0.017483074;0.095754944;-0.12505662;0.04961861;-0.110166;0.0859374;-0.004398029;0.0002277569;-0.16359037;0.3119692;-0.3262796;0.030400617;0.06748552;-0.02454913;0.16150236;-0.063636586;-0.041654;-0.038001314;-0.17232546;0.13486652;0.039249115;0.23739022;-0.015053364;0.08709772;-0.0649476;-0.23330101;-0.262149;-0.11744151;-0.2614801;-0.01692221;0.00732247;-0.030101376;0.11493651;-0.029731747;-0.02424001;0.04811708;0.20084594;0.017977124;-0.022508603;0.21431737;-0.23927277;0.03493066;0.047688287;-0.41724145;-0.027435685;0.046425026;-0.29504207;0.05380246;0.16596901;-0.022133261;0.049095627;-0.033835866;0.084695056;-0.058417883;0.28428185;0.142006;0.0121171875;-0.001778561;0.40803555;0.18736699;-0.036619842;0.036724634;0.19414477;0.111693546;-0.3547328;-0.04648098;3.5830104e-05;0.012548185;0.07237687;0.0785171;0.063862815;-0.03455865;-0.010007663;0.00092779374;0.15712215;-0.23425779;-0.30536348;0.023351163;-0.061125;0.121157646;0.17784089;-0.05922563;-0.012062363;-0.086485386;0.22151819;0.027479656;0.08786334;-0.009985529;-0.15864374;0.06465417;-0.21898425;0.0013895123;-0.002063091;-0.05638716;0.055976115;0.13609488;-0.04121491;0.056295443;0.2048552;-0.010453739;0.13629279;0.04359502;0.05697803;0.11595239;0.06194579;-0.16953856;0.1403537;0.04416864;0.0788882;0.1911656;0.006097531;0.011901265;-0.17610228;-0.528091;0.043754656;0.07413344;0.13927308;0.076410145;0.05435022;-0.16896105;0.05917464;-0.046140585;0.072186105;-0.15972926;-0.059138205;-0.01761765;0.09547414;0.15106495;0.14314707;-0.050371766;-0.36786458;-0.066330515;-0.24076064;-0.0096864095;0.2191755;0.36405116;0.15993188;-0.1415912;0.17714275;0.053014833;0.0562185;0.13544732;-0.21083537;-0.09185569;-0.17223065;-0.056879915;0.01515618;-0.16673456;0.046272296;0.00856494;0.39743236;0.07065043;0.012362742;-0.29543072;-0.017879292;0.02710716;-0.17074405;-0.15034619;-0.036438476;0.17784083;0.023634244;0.052099306;-0.0639832;0.055385165;-0.068855055;0.13145839;-0.020068387;0.00024082277;-0.051685814;0.03738915;0.23487344;0.11158213;-0.16417028;0.023494877;-0.011694151;0.18800852;-0.015446901;-0.13335435;0.12038259;-0.26370895;0.2676169;0.017649593;0.14138898;0.011673038;-0.025620127;-0.49844873;-0.002245762;-0.3180062;0.14155723;-0.060858537;-0.050593626;0.056667347;-0.019208087
0.09513403;0.20481072;0.1319696;0.100648254;0.035178434;0.07895521;0.017815301;0.13578247;-0.0033407118;0.020184614;0.01638456;0.13015708;-0.10619034;-0.028465088;-0.14967163;-0.06039033;0.054147594;-0.14397037;0.046128497;-0.053488582;0.09465069;-0.05633906;-0.09395252;0.21316385;0.032525025;0.030982675;0.04351933;-0.31400955;0.105987705;-0.08669019;-0.005492843;0.008857586;-0.04818755;-0.2476395;0.17741124;0.17247617;0.30511776;-0.21738371;0.12320039;-0.07543678;-0.0016065829;-0.008671998;0.11525333;-0.40003407;0.00076634326;-0.23745896;-0.009291256;-0.14768702;0.037879203;0.029071413;0.047722246;-0.40551716;-0.02288112;0.00811826;-0.021498056;0.058797378;-0.04231412;0.07828763;-0.03130898;-0.047958173;-0.0035582187;-0.19973117;-0.02749279;0.08073878;-0.13135801;0.11416663;0.056908775;0.12813339;0.2010481;-0.058197424;0.13016494;0.038331907;0.056448195;0.11859324;-0.03473369;0.056147892;-0.0051647336;0.18629272;0.38737282;0.02840472;-0.04839879;-0.16716547;0.14214018;0.054952923;-0.06332903;-0.14544167;-0.22813074;-0.053509835;-0.020524602;0.049901925;0.0024781623;0.045632847;0.07394852;-0.17844456;-0.023149107;0.05472191;-0.10386965;-0.15746894;0.33271748;-0.10352373;0.026163548;0.17581485;0.10582707;0.060390912;0.2601563;0.26593587;-0.00040090663;0.019653352;0.096845105;-0.022878043;0.023932287;0.17965412;0.08539216;0.026522906;0.03805219;-0.067013055;0.23493113;-0.101282395;-0.07433903;0.115780964;0.13605037;-0.06144586;-0.18758233;-0.04728718;0.02174313;-0.055063788;-0.030549068;-0.17248286;0.020144392;0.072403386;-0.21650454;0.14318205;-0.023382196;0.38926366;0.025994651;-0.106742114;-0.008217449;0.24176583;0.058327094;-0.022516133;-0.13588858;0.1001701;0.18565416;-0.28176776;0.073829174;0.038560066;-0.04939749;0.038255576;-0.16641025;-0.20393823;0.003980495;-0.018569253;-0.11351941;-0.30733868;-0.025697397;0.060869746;0.050526515;0.061083175;0.070575766;-0.29502463;-0.03397999;-0.0030645365;-0.13650328;-0.044815786;-0.0049184314;0.07849468;0.17061672;0.041531358;-0.13669574;-0.19823663;-0.08291816;0.0012427652;-0.054123294;0.07547472;0.009687669;0.25916114;0.001785424;0.008117018;0.20951326;-0.05109903;-0.03553835;0.20292877;0.03701844;0.11690788;0.0868612;-0.0065996;0.30163768;0.085528314;-0.13772905;0.06087917;-0.00092795613;0.068197414;0.044109512;0.033405807;-0.023565171;0.36645055;-0.19373986;-0.13965125;-0.24191713;-0.00068884064;0.38921523;0.1511924;0.11745644;-0.038848303;-0.20302626;0.008965062;0.073254116;-0.091856904;-0.41907206;0.3319429;-0.05787232;0.3040125;0.042584088;0.06003836;0.22699028;0.023057055;-0.15344658;-0.0029183263;0.11352171;-0.027977837;0.15290874;-0.16730855;0.0485533;0.063530326;0.23913231;0.079902455;0.07252076;0.12340265;0.013247521;-0.042077377;0.17246562;-0.013711114;-0.2853121;0.115315005;0.18809068;0.11353876;0.048539832;-0.0419866;0.100226045;-0.15810916;0.056093425;-0.052550543;0.09407227;0.37162673;-0.07933895;-0.078834884;-0.053335205;0.029760307;0.11815386;0.077624775;0.0063970992;0.14636979;0.01342998;0.0971644;0.09877259;-0.0047552055;-0.044714656;-0.031178059;-0.08027966;0.024457403;0.038668223;0.031380434;0.085249476;0.28154278;0.17653684;0.37429276;0.2554284;-0.11008021;-0.009122442;-0.2437233;-0.12852359;-0.03467003;-0.033537935;0.065790914;0.32874438;-0.02267072;-0.06285556;0.17038845;0.07996911;0.12300721;-0.22078055;-0.38778326;0.08740506;0.051857006;-0.02603658;-0.2026742;0.20255695;0.19280219;-0.21458736;0.23531845;0.0063065845;-0.08620018;-0.07980459;-0.0013499853;0.027059183;-0.021876857;0.047141835;-0.0010652936;0.1897428;-0.044522703;0.31721777;-0.038229898;0.00651198;0.14073019;0.014056206;0.017151283;-0.03971026;0.036008272;0.041697744;0.115221106;0.067820534;0.069423534;-0.12130838;0.0067268023;-0.115162864;-0.24649726;0.36018917;-0.03135357;0.18010436;-0.0023917402;0.08604079;-0.20572022;0.031828187;-0.055508833;-0.015405526;0.10073217;0.07341703;-0.035702776;-0.027783083;0.43782234;-0.08840075;0.11859706;-0.06474263;-0.0586147;0.22088492;-0.012588449;-0.12974492;0.0035208154;0.008743398;-0.033446927;-0.04385745;-0.04676733;0.025276804;-0.44387665;-0.060486346;-0.1743387;-0.028888348;0.06131861;0.024835203;0.06843704;0.005566701;0.13504496;0.117958024;0.24560684;0.026432613;0.23832606;-0.09773485;-0.050499167;0.10173239;0.032002542;0.056139864;-0.20748398;-0.020718932;-0.15323614;0.042570632;-0.06991259;0.1827377;0.19623855;-0.14837733;0.16156375;0.023735883;-0.20773308;0.01717722;-0.0024060784;-0.3257326;0.26354414;0.0024062556;-0.14700297;-0.030729566;-0.03543798;0.0037580926;0.000931904;-0.0081973635;-0.09894545;-0.05946704;-0.14479116;-0.02311631;-0.15109804;0.15856662;-0.054603893;0.10572787;-0.08465023;0.219989;-0.46039706;-0.038605843;-0.008402929;-0.06544061;0.18018962;-0.06423065;-0.08262484;0.041438628;-0.13834965;0.14374827;0.17763393;0.18712054;0.024005383;-0.03324805;-0.09435293;-0.2539627;-0.25190097;-0.15042701;-0.34305206;0.017509703;0.01729851;0.004985753;0.06850308;0.031961046;-0.08625514;-0.063670814;0.24112165;-0.08005901;-0.056793906;0.16716987;-0.28771377;0.076214306;0.22670889;-0.45557573;0.041678168;0.10246174;-0.34731972;-0.026393272;0.13598052;-0.07562534;-0.011220858;0.078193225;-0.029844284;-0.0045476495;0.17359632;0.22464415;0.07009564;-0.018262735;0.23948656;0.09626604;0.06289686;-0.09110772;0.1556288;0.19092238;-0.28435895;-0.036387276;-0.053585794;0.035776686;0.16035265;0.05641089;0.05472323;-0.070029184;0.046828434;-0.02934857;0.25160512;-0.31446669;-0.32540822;0.047872726;0.01164482;0.13813788;0.21032;-0.099085115;0.047708496;-0.019868184;0.31129825;0.000673185;0.14954723;0.046421103;-0.10926849;-0.06814621;-0.13294153;0.07290996;-0.014829318;-0.029336875;0.015090134;0.08678897;0.068599656;0.019606385;0.20353161;-0.005558233;0.16263314;-0.035765238;-0.065299116;0.04793791;0.16730043;-0.27400365;-0.0072718337;-0.043665826;0.098471;0.26202664;0.046347804;-0.084749;-0.25149032;-0.51128787;0.005959546;-0.054754976;0.057247233;-0.05492382;0.08256215;-0.00873026;-0.051602095;-0.020513715;0.041678376;0.025971672;-0.042188015;-0.026074639;-0.012932596;0.17536266;0.13674086;-0.017733613;-0.35304394;0.07159334;-0.1670002;0.007936784;0.045711447;0.42072636;0.15804644;-0.06770168;0.2185404;0.099282995;0.08552561;0.19084169;-0.23017459;-0.079896316;-0.16976319;-0.093445;-0.0027261553;-0.15693918;-0.07054986;0.042151365;0.33712766;-0.071440406;-0.0701541;-0.17761533;0.025245147;-0.0044214185;-0.05572961;-0.22274105;-0.065472044;0.05903158;-0.026134826;-0.028905537;0.07685572;0.007050145;0.021204833;0.11030084;-0.027280543;0.016137054;0.028386705;-0.019082261;0.1717873;0.074265055;-0.20198692;0.046286914;0.009013012;0.13683966;-0.06343327;-0.2051986;0.1823376;-0.355328;0.19187512;-0.049290072;0.29545733;-0.08386179;-0.1407236;-0.48216376;0.0025689742;-0.3033512;0.12462384;-0.1610237;0.05633333;-0.074403934;-0.098969825
0.15430056;0.24570258;-0.11175329;0.19292681;0.01842739;0.17162462;0.05217838;0.08621072;0.06723356;0.11124106;0.005751736;0.040729135;-0.24066976;-0.0603424;-0.10653213;-0.077449314;0.09692122;-0.122200064;-0.023143789;0.0823689;-0.038221013;0.0338679;-0.037356187;0.31433308;-0.07455462;0.01836348;-0.035610348;-0.16362038;-0.0068218377;-0.010809882;0.16831252;-0.027582934;0.05187758;-0.17950596;0.33481985;0.21228187;0.18218023;-0.24384707;0.1408259;-0.103872515;0.08658397;-0.009874161;0.099029295;-0.41056752;-0.09186154;-0.06323896;-0.063651025;0.015625918;0.17957805;-0.053985164;-0.03914744;-0.35421792;0.013244828;-0.037334986;-0.040463135;0.011927244;-0.0117611475;-0.060055446;-0.03929392;-0.03420846;-0.016743995;-0.24653552;0.03545879;0.067172214;-0.052094005;0.16497225;-0.057746638;0.26974717;0.13775526;0.026360823;0.2100263;-0.076653555;-0.024808016;0.005999216;-0.06867874;-0.03993688;0.011962388;-0.023570227;0.34307787;0.012164931;0.0351138;-0.061692454;-0.07534971;0.15446198;-0.057687346;-0.15806358;-0.15688416;-0.0024627175;0.07186451;-0.0021207733;0.041874748;0.19540979;-0.011162167;-0.20135313;0.11768005;0.043524485;-0.05579663;-0.21557648;0.30154815;-0.10062989;-0.034471348;0.18101771;0.071442895;0.011137646;0.21514794;0.19412251;-0.0022327143;-0.03217807;0.07021839;-0.054658286;0.18666288;0.12946713;0.07659567;-0.045242492;0.06653351;-0.07505345;0.24638374;-0.059610203;-0.039619494;0.13201895;0.12059248;-0.029197492;-0.18108691;0.056175556;0.039551433;0.028842743;0.06799266;-0.16377042;-0.058800273;0.07477057;-0.18462302;0.110255875;0.03618199;0.34565094;0.057883874;-0.07281775;0.09999999;0.17206517;-0.05477307;0.078120984;-0.046471037;-0.0116877025;0.19405936;-0.4548406;-0.021596715;0.012741988;-0.010870687;-0.019498667;-0.07253262;-0.068062976;0.042493846;-0.027679391;0.07105919;-0.17183796;0.014507333;-0.02751105;0.022649584;0.16039847;0.09798403;-0.16491826;-0.05302716;-0.026209088;-0.13694184;0.08048539;0.046215903;0.19801858;0.17292592;0.0379413;0.0039499807;-0.04584897;-0.12902589;0.08121473;0.06528268;-0.048731606;0.08861336;0.2149728;0.015664982;-0.05634385;0.2799589;-0.046495166;-0.05445929;0.1591573;0.03961853;0.096993126;-0.065032244;-0.04314254;0.26998028;0.15158781;-0.11218737;-0.07456246;-0.18729575;0.046771403;0.013314965;0.01935514;0.02738798;0.33226386;-0.20832716;-0.24258892;-0.14752007;-0.0026719084;0.38525495;0.1662784;0.1877279;-0.059636515;-0.15542057;0.05259662;0.0038603917;0.05714083;-0.23268946;0.31776488;0.079590224;0.32482466;-0.05263145;-0.021546872;0.183411;0.06523565;0.083503254;0.01511874;0.13295433;-0.12811397;0.12982333;-0.023319317;0.02091116;-0.056832254;0.0710833;-0.06288448;0.044005696;0.14351803;0.019724537;-0.05111698;0.20405933;0.029573923;-0.26117966;0.079780385;0.3209925;0.17003427;0.08831317;0.04013552;0.09969261;-0.09328709;0.15325859;0.026927836;-0.035462555;0.3233508;-0.03939008;0.04005596;-0.011370718;0.024062216;0.112490796;0.14128567;0.0014156378;0.091613956;-0.05428916;0.13612273;0.114074886;0.10037182;-0.044758614;0.0731905;0.041019455;0.014988476;-0.04386992;0.013370098;0.081388995;0.2769161;0.025815777;0.28007764;0.21535851;-0.035177432;0.0773033;-0.28883216;-0.15665898;0.009382455;0.055658817;0.11017836;0.26009583;0.019706633;0.07564099;0.24231738;0.06489712;-0.044059113;-0.116264746;-0.23331988;0.118933804;0.100510605;-0.021065446;-0.16844809;0.121869564;0.35271132;-0.1343472;0.2930643;-0.09754021;-0.14512113;-0.09196501;-0.024767574;-0.0804827;-0.08021024;0.10739715;-0.07893886;0.135843;0.007324686;0.28196582;-0.030104693;-0.012232253;0.16413546;-0.032347616;0.0006235361;-0.0015015547;0.14074545;0.05141671;0.06807246;-0.007784108;0.067101546;-0.13963501;-0.08115414;-0.0066604186;-0.18007085;0.18085551;-0.02490942;0.113433376;-0.021833647;0.063673444;-0.17641217;-0.019106196;-0.023443917;-0.0017946735;-0.021482704;0.11553522;-0.026311392;-0.05371518;0.46535584;0.03825393;-0.13448155;-0.042189967;-0.1007555;0.3214126;-0.042690456;-0.020116545;0.009998383;0.027573487;-0.007532817;0.030455405;0.025611991;-0.10442529;-0.2913124;-0.03222715;-0.11340446;-0.015211725;0.030503966;-0.080690876;0.124874294;0.07603901;0.13635336;0.2579455;0.1240436;0.064506784;0.16977401;-0.024580859;-0.053501245;0.108079374;0.054755665;-0.03386195;-0.007610121;-0.00724716;-0.033921227;0.02237369;-0.050745286;0.2071343;0.24027051;-0.046762906;0.19741254;0.094845615;-0.20730011;-0.014115724;-0.060059026;-0.30327544;0.14916904;0.016189525;-0.08240629;0.06864874;0.109476484;-0.017392414;0.040865343;-0.028613746;-0.07634291;-0.033081543;0.05572793;-0.06791917;-0.07969103;0.13880274;0.13647246;0.07218227;-0.042211365;0.23442852;-0.39426103;0.08212752;-0.0061010187;0.04076838;0.12628755;0.0025891478;-0.033009507;-0.0112251025;-0.11687548;0.2096405;0.18058884;0.051105775;0.085094325;-0.061847426;-0.029267767;-0.28642324;-0.17987631;-0.08243302;-0.2867866;0.0004935441;-0.00085780205;0.010442606;0.09231404;0.0726285;0.13226312;-0.060068637;0.28257847;0.035499208;-0.13445686;0.13259077;-0.25486198;-0.035460867;0.185847;-0.34773675;0.055427406;0.040079344;-0.20019571;-0.06332532;-0.009536209;0.06813633;-0.023779118;0.012125966;-0.03612694;-0.113562636;0.1467284;0.18337438;-0.0780226;0.1409274;0.26226065;0.19834356;0.0336884;-0.086522706;0.054526575;0.039530843;-0.25904438;-0.015306676;-0.15546446;-0.021292236;0.058455538;0.15811068;0.056435537;-0.084725484;0.01357995;-0.0038113636;0.17455272;-0.24971892;-0.28275865;-0.09260921;0.08473084;0.2096963;0.14583905;-0.079159096;0.053852882;0.008779902;0.09534486;-0.048162747;0.004001035;0.00698874;-0.10903109;-0.0038563139;-0.2609327;0.13015671;-0.009628499;0.033122823;0.0004710226;0.16826092;0.047445048;-0.06591152;0.10489062;0.067965165;0.25329772;0.016170748;-0.017810484;-0.00061310077;0.080192484;-0.26595226;-0.014275028;0.077874005;0.03310604;0.23558038;-0.018777087;-0.008744567;-0.21830305;-0.48646474;0.015618416;-0.04513001;0.11609511;0.0013065449;0.10067004;-0.010710905;0.020706033;-0.12190148;-0.05651556;-0.045560904;0.123289555;-0.064059325;0.088135764;0.05848231;0.06467725;0.02665898;-0.3479434;-0.053834338;-0.101201154;0.012236903;0.12413292;0.21411552;0.1465254;-0.09037503;0.28911296;-0.06605947;0.043432806;0.25091442;-0.2560123;-0.04368434;-0.24424167;-0.109400496;-0.00033903142;-0.029146934;0.024198567;-0.031405967;0.30615708;0.020274628;0.033127367;-0.094064966;-0.07291199;-0.08867891;0.11414637;-0.24853928;0.057247743;0.14311525;-0.052404813;0.019051565;0.044668056;0.003420957;0.036597587;0.15352635;-0.1396331;-0.08321569;0.039821066;0.004925237;0.19813876;-0.078562066;-0.18907522;0.122652285;-0.08591257;-0.0032574954;0.016414268;-0.24010919;0.0261127;-0.2565795;0.24437673;-0.060223777;0.153434;0.0414757;-0.053439975;-0.4531134;-0.00010475112;-0.28872436;0.21709321;-0.03641054;0.041943472;0.06266514;-0.050430827
0.14757104;0.12089119;-0.0756358;0.09427911;0.06864749;0.19722497;-0.010393236;0.01678633;-0.029904254;0.20142274;-0.031429198;0.08122807;-0.13459942;-0.084754914;-0.1772801;0.052399386;-0.010302397;-0.13372546;-0.028255526;0.03714828;-0.08959282;-0.06408639;-0.037343152;0.28948903;-0.063178614;0.06409153;-0.0034241644;-0.07901313;-0.007962767;-0.024860494;0.19492161;-0.028999103;0.0653187;-0.06249607;0.31173468;0.3838256;0.19035146;-0.19375387;0.0674332;-0.082733855;-0.057806112;-0.0678067;0.08342659;-0.29641786;0.032767136;-0.04591712;0.018141998;0.02778972;0.14171821;0.018538967;-0.009593438;-0.38105047;-0.056182437;0.011232932;-0.02758387;0.06395745;0.046721548;-0.06785595;0.022879206;-0.032899164;-0.039454963;-0.29114357;-0.003655625;-0.015972726;0.012766787;0.10882875;0.04343303;0.288969;0.24106291;0.022475323;0.18370657;0.03236646;0.06269832;0.02806433;0.022493243;0.019288419;0.05784738;0.1049557;0.31051573;-0.09361826;-0.050174538;-0.275486;-0.11351677;0.06897659;-0.04634571;-0.14705984;-0.2810358;-0.021717079;-0.068427615;-0.009035606;-0.061651908;0.27739453;0.05368649;-0.25528565;-0.05137257;0.0829329;-0.07688646;-0.20798853;0.3441706;-0.17934018;0.06555131;0.08796922;0.19030543;0.023236467;0.19562218;0.25162435;-0.04451818;-0.1492509;0.08952041;0.03845805;0.093290135;0.066577725;-0.06604542;-0.05715635;0.06082577;-0.15028693;0.09438334;-0.17769642;0.0019339025;0.1892894;0.2070661;0.06777714;-0.1992279;0.029081348;0.07423075;-0.051517997;0.042342715;-0.16042863;0.05836171;0.09950507;-0.27299276;0.1001817;0.01627224;0.33574963;-0.044602606;-0.09476507;0.115920775;0.29505414;0.05506217;0.040567942;-0.13256353;0.08521562;0.0893647;-0.38652542;0.044255063;0.04461494;0.03265677;0.015913898;-0.049355205;-0.01051307;0.049281042;-0.0807161;0.020154446;-0.1837291;-0.06133608;-0.025435712;-0.05453782;0.16279657;0.058094017;-0.23600592;-0.1442902;-0.046132486;-0.1119336;-0.02437563;0.07326552;0.26168597;0.14258388;-0.05655412;-0.07325719;0.016002195;-0.066055894;0.06633296;-0.0074128215;-0.076203935;0.13063835;0.19121508;0.067633815;0.0021078442;0.15726857;0.06608632;0.07522184;0.099018045;-0.028798703;0.18186642;-0.0858308;-0.086855404;0.27693844;0.133676;-0.2634575;-0.025191884;-0.15664634;-0.035324723;-0.0031764817;-0.034590807;-0.028956763;0.3006464;-0.0627459;-0.12991196;-0.191654;-0.056950796;0.30501327;0.06968124;0.15644461;0.07431149;-0.18519455;0.056049343;-0.08696389;0.009262417;-0.17324506;0.29319167;0.045001008;0.3040487;0.007887598;0.02488556;0.24233145;0.0013089912;0.116144694;0.040839966;0.056035664;-0.107162744;-0.0072907475;-0.08719951;0.07097931;0.013556905;0.03723341;-0.023092054;-0.04626039;0.10793754;-0.045643184;0.045300063;0.13481407;0.04120236;-0.2913162;-0.0015329932;0.30769184;0.1856543;0.052237276;-0.030095315;0.19913957;-0.07836472;0.0938032;0.011073197;-0.030058773;0.35138318;-0.020781185;0.011884133;0.012761858;0.012877558;0.011928175;0.15963225;-0.036654167;0.17058189;-0.11384025;0.08375697;0.12336081;0.023993945;-0.05948513;-0.012248069;-0.026820295;0.018247446;-0.040954147;-0.05172645;0.022301903;0.08022501;-0.05071857;0.4339368;0.19147749;0.014844989;0.04227871;-0.23713998;-0.19710165;-0.0761229;0.026471142;0.17608552;0.3074874;0.033260737;-0.007322047;0.15194535;0.14400426;-0.056649018;-0.21682385;-0.1953193;0.020206245;0.11127942;-0.13707717;-0.3018995;0.03340113;0.35290164;-0.12456605;0.14611448;0.034941033;-0.080638625;-0.10746552;0.13849027;-0.19770055;-0.082923226;0.14523071;0.04150921;0.2312591;-0.01484448;0.1909688;-0.038015466;0.069223255;0.24064897;-0.0111103505;0.088817865;0.020424739;0.12486455;-0.025849013;0.10571533;0.05078355;0.0822217;-0.1636586;-0.10162182;0.15648626;-0.21791938;0.3101749;0.05030696;0.08412869;-0.044168763;-0.0950386;-0.07464256;-0.10996633;-0.00043582404;0.031815503;0.067918725;-0.010570809;0.011017381;0.024348112;0.50001436;0.062316455;-0.21456005;-0.06661709;0.0147481;0.408534;0.04042784;-0.0082919225;-0.00022210785;0.09637338;0.050881464;0.16125983;0.04995537;0.012910476;-0.39164677;-0.094761804;-0.029785134;0.02686197;-0.05038325;0.075236745;0.04550109;-0.03661339;0.11357385;0.21820952;0.21685255;-0.08428896;0.21952148;0.03956831;0.0052724127;0.15137224;0.075069755;-0.057186518;-0.033960734;0.031942558;-0.07844712;-0.006340992;-0.09736464;0.08296683;0.19821236;-0.008276774;0.13882037;0.015650257;-0.122098215;-0.096082;0.036136936;-0.3642968;0.17578942;-0.0358086;-0.025481217;0.010489095;-0.028841903;-0.02169124;0.05897209;0.0042045973;-0.09088151;-0.035345953;0.014912499;-0.032311026;-0.18947391;0.14021026;0.11738156;0.09750162;-0.11443746;0.15099524;-0.28411898;-0.03276647;-0.047586694;-0.042316943;0.03718334;0.05329447;-0.1722711;0.039930686;-0.28069863;0.17388174;0.23050179;0.118455745;0.070192344;-0.031463392;-0.06048688;-0.1868184;0.0007013608;-0.030871551;-0.38060632;0.055116594;-0.04807961;0.053785212;-0.052460708;0.035341524;0.10549261;0.07446108;0.24488859;0.030623617;-0.18352564;0.28117415;-0.2586371;0.016271805;0.17973784;-0.40723768;-0.06687495;0.079332404;-0.1643397;0.033605684;0.072826795;-0.03488471;-0.036110684;-0.041735835;-0.13721322;-0.10632359;0.21655478;0.15693395;-0.03357322;0.24550115;0.17325138;0.08996516;-0.074302934;-0.1764953;0.11516607;-0.001867175;-0.24828953;0.031897053;-0.15178633;-0.08004168;0.08341108;0.16165851;-0.028586736;-0.13270797;0.033568665;-0.090579934;0.12578492;-0.2319954;-0.3924449;-0.22795697;-0.050040636;0.11201277;0.13015877;-0.117076814;0.054567963;0.09715392;0.24879958;-0.035692304;-0.027445797;0.10919997;-0.04473954;-0.030591056;-0.16289322;0.25521803;0.008093601;9.988861e-05;0.044690937;0.19287041;0.034977537;0.06977252;0.050024826;0.15406255;0.26715246;0.020291554;0.046127424;0.086860105;0.113484986;-0.2082634;0.030059945;-0.053110242;-0.0056244656;0.23092672;0.026527425;0.17765127;-0.24291784;-0.48557904;0.017952617;-0.13563359;0.21235774;0.0189691;0.03575256;-0.04977989;-0.061909866;-0.15669253;-0.023708818;0.00021361685;0.1194864;-0.02249906;0.00276793;0.14620203;0.13878101;-0.024279887;-0.24223092;0.057476666;-0.14379929;-0.055330638;-0.0027596822;0.21642002;0.086611174;0.0040343935;0.33190832;0.0068655116;0.023983633;0.20154051;-0.18115345;0.070931695;-0.34209284;-0.14632773;0.043376926;-0.025443505;-0.054937977;-0.0025679052;0.3064767;0.011867604;0.031912778;-0.07599788;0.058726516;0.046524685;-0.044302005;-0.29116523;0.016302953;0.11163021;0.030604465;-0.075468816;-0.009806895;0.0046867677;-0.02155893;0.02057721;-0.11816223;0.018000968;-0.11589576;0.022344057;0.2099075;0.04303813;-0.18173356;0.11563216;-0.01744333;-0.00302315;-0.022199536;-0.24024907;0.13074464;-0.2136814;0.04576278;-0.059401643;0.22824399;0.058483496;-0.18244833;-0.4783491;-0.010729866;-0.18077996;0.20607181;-0.017093044;0.037382606;0.045870725;-0.19642544
0.1212776;0.10663529;-0.22443259;0.11250327;-0.03343672;0.19389087;-0.12972578;-0.07261493;0.04621143;0.30303636;-0.001568486;0.0683018;-0.12646091;-0.010392249;-0.23220208;0.011058589;0.14006522;-0.19970086;-0.013781129;0.07820527;-0.014670303;0.047570784;0.041792918;0.21630073;0.019159649;-0.08381319;-0.050224505;-0.15315945;-0.020126252;0.017444964;0.081127435;-0.0036319871;-0.046160843;-0.06003254;0.2747178;0.23836301;0.078853294;-0.038432945;-0.01536465;-0.050567757;-0.028833741;0.08017521;0.14172252;-0.17205718;-0.03424673;-0.1884303;0.051087957;-0.02838878;0.08642946;0.056681305;0.03901313;-0.22732121;-0.08088584;0.029527683;0.05255911;0.16436858;0.05209027;-0.0320328;0.054279994;-0.043779057;0.080060646;-0.27860257;-0.042827748;0.0021210213;-0.120571576;0.26829857;0.010766466;0.37108883;0.19639407;0.020799791;0.2301451;0.063073605;0.009442541;0.032493677;-0.16763674;-0.044173155;-0.039826833;-0.014639421;0.27625665;0.030808926;-0.025834586;-0.33700448;-0.13893956;0.06706133;-0.048225384;-0.22819482;-0.23551507;-0.022289695;-0.03698199;-0.011150397;-0.070223585;0.23486938;0.0564642;-0.06803377;-0.06387058;0.23842621;-0.024879342;-0.23137462;0.31881034;-0.035228178;0.02938589;0.16034164;0.13017981;-0.06363491;0.18658149;0.34642196;0.04406573;-0.047581952;0.051464923;-0.04694438;0.15014228;0.1006;-0.0071639917;0.025604252;-0.07581186;-0.103143185;0.2427956;-0.23753528;-0.044078883;0.08309158;0.2125677;-0.03547517;-0.041976135;-0.028061226;-0.064816974;0.03349438;-0.06682925;-0.1302701;0.034175266;0.18453151;-0.19122931;0.22741567;-0.10018369;0.36332208;0.05549499;-0.029375754;0.038553383;0.226655;-0.054967683;-0.036169704;-0.24494906;0.068522;0.08321469;-0.37623912;-0.02289423;-0.065214716;0.20086779;0.014853629;-0.06367704;-0.10348033;-0.06738794;-0.08154617;-0.046471834;-0.13183378;0.013180051;0.08049199;-0.06539789;0.18801388;0.08702286;-0.21065749;-0.038609654;-0.0397175;-0.08704157;-0.049798902;-0.07347783;0.35994503;0.15370648;0.011067027;-0.07024274;0.0024752903;-0.051244363;-0.051084906;0.020588852;-0.060037263;0.07850969;0.17621206;-0.054770425;-0.032652784;0.1498917;0.009255158;0.05034542;0.075550586;-0.16882119;0.16402228;-0.007078857;-0.051770844;0.25177073;0.047338042;-0.18547381;-0.04278127;0.0018807555;0.017710732;-0.060113505;-0.06341252;0.00234256;0.2642049;0.013140758;-0.167406;-0.26646608;0.1002442;0.30296963;-0.06107396;0.123451956;0.0056789336;-0.13482222;0.047308862;0.01657628;-0.022197543;-0.07670059;0.2531462;-0.005390446;0.16068622;-0.031770643;-0.032735977;0.17473145;-0.07194929;0.30522203;0.08938781;0.1410256;-0.18328683;-0.15233599;0.02832964;0.03522889;-0.05068736;0.12343204;-0.024934014;-0.0063954825;0.02713381;0.019105688;0.11988762;0.17735703;-0.009263997;-0.21829778;0.052876912;0.15380235;0.1913829;0.11774775;0.01891769;0.14021365;-0.12410805;0.014682038;0.06652857;-0.00177964;0.41038996;-0.10197526;0.021056779;-0.002718691;0.07155708;0.088478126;0.09544854;-0.038706098;0.10023112;-0.050697863;0.19721903;0.15492079;-0.058516525;0.007184689;0.023898479;-0.14862336;-0.11881294;0.02362749;-0.03752289;0.048397604;0.111425854;-0.018277692;0.33276427;0.1482663;0.05919317;0.06707707;-0.1814072;-0.08139938;-0.17830746;-0.08658162;0.09757678;0.23635013;0.0224096;0.015398996;0.22145039;0.25269008;-0.04318144;-0.20232588;-0.21454;-0.024869123;0.12777029;-0.05607224;-0.3268159;0.02369784;0.4373695;-0.022598458;0.175713;0.046291053;-0.25893122;-0.1059665;-0.010294689;-0.20236732;0.026843078;0.05966089;0.023188382;0.14418876;0.01744471;0.14565139;0.072701305;-0.014650632;0.27368316;-0.0037440402;-0.0055677053;-0.05522426;-0.009813307;0.06519365;-0.002616962;-0.0634663;0.07618232;-0.102032766;-0.20811448;0.089126945;-0.13410427;0.2973183;0.08054394;0.23762783;-0.09050143;0.011564742;-0.0058928058;-0.0696914;0.026403198;0.033280082;-0.024502248;-0.0047141784;-0.0058345436;-0.0068824044;0.35882398;0.040331144;-0.116998844;0.023792505;0.051876027;0.42490616;0.009866067;-0.040404808;-0.040792003;0.080308065;0.033837516;0.15001507;-0.07621351;-0.1409651;-0.40661982;-0.046841465;-0.012674119;0.011449855;0.04845545;0.04066321;0.12988266;-0.06862965;0.1313863;0.18219198;0.21478051;0.029564423;0.11489011;-0.0044569126;0.043317005;0.10363268;-0.06715128;0.043842547;0.17728144;0.032088134;-0.075938545;0.023276364;-0.21554507;-0.06457571;0.22541477;0.00067017355;0.112201564;-0.10084651;-0.059004344;-0.045811586;0.07008528;-0.22593144;0.2547326;0.028598202;0.01707268;-0.05198926;-0.10645243;0.042678826;-0.02997243;0.018800529;-0.01196391;-0.03490104;0.054131713;0.07109838;-0.12970398;0.21636747;0.10389833;0.10062399;-0.08388357;0.23825905;-0.29234454;-0.0075363955;-0.042749856;0.025112415;0.012742763;0.04383439;-0.043840565;-0.07131282;-0.13589568;0.18685019;0.1996663;0.11709606;0.104050234;-0.00882332;-0.16958001;-0.19798926;0.010862528;-0.097128645;-0.348713;-0.055522315;0.019077523;-0.011597541;0.0053608525;-0.053270493;0.06299256;-0.06056424;0.2685454;-0.040172275;-0.24789548;0.24618357;-0.26136667;-0.018786374;0.13502629;-0.33867648;-0.016202716;-0.02436568;-0.005076481;-0.05648317;0.08021551;-0.0638282;0.087340415;0.053696364;-0.022169624;-0.14926834;0.08861551;0.122048035;-0.05097463;0.2660666;0.28821406;0.164304;0.04504931;-0.08792364;0.1266162;-0.068784334;-0.053374253;0.043714877;-0.10932685;0.053788923;0.06001502;0.16576073;-0.03248626;-0.18973655;-0.05063256;0.043722898;0.09411001;-0.29967138;-0.3803377;-0.20169461;-0.016721673;0.16972049;-0.009841155;-0.11240839;0.14042003;0.038557284;0.178403;-0.08302086;0.013610507;0.059749752;-0.1744704;0.07862984;0.007153596;0.269563;-0.05933634;0.07237538;-0.015506994;0.10947469;0.013507074;0.08241312;0.04879676;0.029686105;0.21561499;0.04939392;0.033769865;-0.09675662;0.13728668;-0.26130912;0.003435589;-0.027456867;-0.02776706;0.18984634;-0.028282292;0.054609567;-0.2504761;-0.344291;-0.05375628;-0.018656226;0.252157;-0.016480047;-0.052244198;-0.041490417;-0.03820724;-0.11477868;0.021429138;-0.074443005;0.02890879;-0.037321318;-0.07587651;0.08909841;0.14018859;-0.028888915;-0.1301208;-0.026417375;-0.10409665;0.05410835;0.091928676;0.16594887;0.09978003;-0.0347949;0.19789869;-0.059562005;-0.09679827;0.17872268;0.02551149;-0.01541294;-0.23650235;-0.12205372;-0.08584443;0.024380203;0.06854169;-0.06426133;0.27881306;-0.14173597;0.04523589;-0.020768475;-0.034427043;-0.016363746;0.013528907;-0.26829594;-0.005094309;0.0032315638;0.06532076;0.012254726;0.16038562;0.0040656985;0.015798578;0.04405675;-0.13449046;-0.0007254997;-0.04793314;-0.023617763;0.1586706;-0.12932909;-0.19843785;0.12039196;-0.102193445;0.023037903;-0.0388721;-0.29171628;0.0060323435;-0.32175407;0.014217571;0.031767514;0.20968458;-0.034811813;-0.061462056;-0.40726846;-0.010002938;-0.08136362;0.27162644;0.023481136;0.033591144;-0.02943721;-0.12700677
0.017169796;-0.07774153;-0.20801939;-0.0355882;-0.015321355;0.15094888;-0.057137217;-0.021928348;0.0656363;0.17993985;-0.034240134;0.08725224;-0.115759775;-0.10452015;-0.22676584;0.08254406;-0.044932824;-0.05389874;0.06813057;-0.038530383;-0.031651035;-0.030169249;0.050491568;0.3355647;-0.021709058;-0.024834057;0.060288567;-0.079170175;0.048461653;0.12875804;0.03889358;-0.026740097;-0.07803492;-0.11878746;0.21124491;0.19177352;0.15202034;-0.023318194;0.019347323;-0.004538252;-0.07105912;-0.03251943;0.09255452;-0.031278558;0.031588513;-0.15264337;0.03262685;0.020776602;0.11936034;-0.059935294;-0.054115668;-0.21748643;-0.0748337;-0.029814212;-0.03791845;0.074807964;-0.0031252264;-0.02255982;-0.0046609957;0.04239985;-0.032646354;-0.16680735;0.014701537;0.0066416096;-0.10708173;0.35939595;-0.033601094;0.2195862;0.23892835;-0.08480371;0.18546031;0.00046137423;-0.034432128;0.15804037;-0.1174271;-0.107512884;0.028081056;-0.05646214;0.1179878;0.041654278;0.06044393;-0.38964358;-0.2142724;0.053172745;0.029182006;-0.105748616;-0.328396;-0.085508764;-0.007885732;-0.066450596;0.02492762;0.23123936;0.18970476;-0.1599454;0.030127399;0.15656333;-0.027766613;-0.24239941;0.21503673;-0.21042061;0.037763376;0.20966125;0.027277278;0.0026930377;0.2074481;0.23567136;-0.07511724;-0.06622215;0.08155032;-0.046986092;0.13230254;0.12651774;-0.032862503;-0.0730966;-0.1547729;-0.11282545;0.15478414;-0.16497427;0.0019493857;0.17815898;0.27690148;-0.0055178734;-0.16372044;0.03751677;-0.057024077;-0.062365405;-0.007135087;-0.045801394;-0.02203309;0.065888435;-0.2390976;0.17145121;-0.11989631;0.36856663;-0.019810734;-0.10419166;0.1516839;0.27580228;-0.016000435;0.08874021;-0.23776436;-0.057404924;0.15953726;-0.33686012;0.0050427695;0.007452164;0.07972725;0.0518263;-0.13607362;-0.09047776;0.061589196;0.04203724;-0.0072624763;-0.1854142;0.022766972;-0.07044094;0.044959404;0.26954064;0.118641265;-0.20177302;-0.09335624;-0.029742965;-0.039005257;0.055001598;-0.064127974;0.3422401;0.16102731;0.051952913;0.030164223;0.021782486;-0.046872776;0.022687003;-0.040448237;-0.08516405;0.09597703;0.23522358;0.07370764;0.012120061;0.112112395;0.06897235;0.0125382105;-0.06883334;-0.13932893;0.09958662;-0.025238095;-0.07478294;0.3028297;0.099057175;-0.19179867;-0.06686985;-0.051073264;-0.028632592;-0.084162086;0.020740567;-0.068446465;0.23637348;-0.026811805;-0.22995481;-0.36897367;-0.040191274;0.2862782;-0.017192377;0.07498349;-0.03450323;-0.156911;-0.033804;-0.09934377;-0.049193896;-0.017959522;0.2596444;0.0024178019;0.20879371;-0.031228399;-0.05106311;0.15668002;-0.0012613983;0.30799246;0.042745903;0.0128559265;-0.26734927;-0.07593952;0.058292273;-0.06094643;-0.016524049;0.0018442072;-0.05510677;-0.0073019364;-0.06745348;-0.052803457;0.15812175;0.2549049;0.047851574;-0.21970487;0.19363858;0.19057547;0.21267423;0.12577873;0.028811028;0.1762515;-0.12480899;-0.0381176;-0.041145198;0.02978628;0.3656868;-0.01695018;-0.07244375;-0.08494409;0.009283595;0.15500705;0.06917243;0.06812926;0.124644995;-0.1886692;0.13113154;0.14144678;-0.08558072;0.068137735;-0.031231226;-0.06437738;-0.12977286;-0.0040366147;0.023960538;0.0543709;0.023196036;-0.057970863;0.37897357;0.19973277;0.06599511;-0.008634363;-0.32969183;-0.16342142;-0.15303878;0.010521162;0.10559707;0.1977343;0.022668833;-0.065911345;0.26376396;0.24361205;-0.1450751;-0.10220364;-0.3281489;0.04059686;0.088304065;-0.114600256;-0.3310023;0.044916462;0.31728223;-0.0080630295;0.24495222;0.023105152;-0.09782283;-0.018764338;0.006219057;-0.06900003;0.039059393;0.16631894;-0.08716031;0.19529092;0.013355953;0.15764341;0.0017788634;-0.035294868;0.2834538;-0.066248454;0.02133606;0.04090306;0.006826093;-0.069593236;-0.088188544;0.038865503;-0.015285366;-0.17825736;-0.17714961;0.05678534;-0.13103236;0.16116789;-0.048237633;0.21806195;-0.034154058;-0.053343806;0.0025064906;-0.024797915;0.020309256;0.05691674;0.05998778;0.015485204;-0.065414324;0.014268446;0.48041904;-0.06672806;-0.2107665;-0.06050195;0.072907746;0.4240982;-0.02064606;-0.020991981;0.016430117;0.09100022;0.011706194;0.107671924;0.021974856;-0.06783901;-0.3268479;-0.2370178;0.051121455;-0.041768443;-0.035735566;-0.024915356;0.0903481;0.04790074;-0.015666729;0.22677505;0.22903672;-0.02594813;0.18251194;-0.03851162;0.068643756;0.22307117;-0.0625505;0.016783146;0.118154764;0.01670551;0.020586118;0.075226605;-0.17903958;-0.15884809;0.2795678;-0.11929223;0.1362412;-0.025572581;-0.08134052;-0.016994618;-0.0659521;-0.26983264;0.34522054;-0.08217159;-0.069689296;0.03839682;-0.11808049;0.058021028;-0.034294773;0.06615828;0.0270299;0.0031596005;0.12703717;-0.05392195;-0.19597381;0.19512604;0.07068953;0.07886275;-0.10176418;0.059264068;-0.34965184;-0.052753255;0.007255077;0.0016841623;0.09476612;0.047550406;-0.10341702;0.041651294;-0.32920453;0.088325426;0.21558069;0.013704466;-0.03307621;-0.0751424;-0.12570809;-0.12949143;0.041173443;-0.102126956;-0.27527896;-0.0073998375;-0.033142474;0.01053257;-0.012368392;-0.072814696;0.14101158;-0.023323718;0.26081917;-0.03354097;-0.18190183;0.11406782;-0.080226555;-0.001236159;0.23733212;-0.311514;-0.018303229;-0.012902907;0.098319806;0.05582285;0.040981602;0.03237171;0.09255931;-0.013021794;-0.055573463;-0.1199771;0.1746886;0.16565457;0.044904705;0.387502;0.13861753;0.2222485;0.063861385;-0.08346239;0.122781806;0.069243364;-0.0449117;0.0018968141;-0.19761308;0.062009923;-0.0056042536;0.08364866;-0.0061049024;-0.21061842;-0.08066415;0.03611899;-0.0438814;-0.20547828;-0.38293773;-0.2367504;0.07525398;0.2553955;0.08112625;-0.20366393;0.109244086;0.042331025;0.17910361;-0.039120868;0.12424702;0.026644677;-0.07356009;-0.03121497;-0.03265003;0.24703743;-0.047408454;-0.0687634;-0.01898464;0.03945275;-0.02545411;0.026575696;-0.030173386;-0.07079948;0.26200458;-0.0033329362;-0.040470984;-0.08597652;0.13039897;-0.19121999;0.123249404;-0.012844028;-0.07829729;0.25570136;-0.09335981;0.07215489;-0.14787558;-0.3580183;0.051415216;0.054327883;0.26288828;0.067571715;-0.1303048;0.09152978;0.032284398;-0.09081535;0.017345907;-0.06992789;0.0028366207;0.082508184;-0.036780678;0.25365493;0.16415024;0.05063239;-0.24513091;-0.020937432;-0.040237725;-0.023834476;0.0024563556;0.11190203;0.03032409;0.045822114;0.32158253;-0.028317463;-0.15799527;0.13256653;0.029405048;-0.026783852;-0.25857356;0.015968168;-0.017743632;0.026677039;0.061805367;0.07981635;0.16800606;-0.12846015;0.030457795;0.117828764;0.037042886;0.013363466;-0.05127871;-0.17373662;0.04186451;-0.14622733;-0.04916397;0.0045302897;0.14030512;0.09109079;-0.062734745;-0.105233505;-0.24430786;0.0037938552;-0.027530821;0.06878198;0.10178747;-0.1520362;-0.13831918;0.13940665;-0.08826181;-0.01545183;-0.0152752455;-0.15926264;0.06348852;-0.26827854;0.10427591;0.102169976;0.14541446;-0.014651217;-0.17181513;-0.37734511;0.0038688935;0.07163746;0.31548497;0.0011193323;-0.088023506;-0.038077414;-0.20139208
0.08421456;0.042305794;-0.19657464;0.15792522;0.06967973;0.15270244;-0.1726333;-0.010567054;0.020627916;0.29254386;0.07318392;0.080070496;-0.11889842;-0.09480229;-0.10020404;0.05153782;-0.05504467;-0.16395588;0.0145984;-0.0013282049;-0.16546555;0.011842425;-0.007825779;0.23201902;-0.053091053;-0.051602162;-0.011048863;-0.1271143;0.035587355;0.18227525;0.08927745;0.014270101;-0.016926957;-0.048131928;0.2996803;0.27567384;0.14622468;-0.067930505;-0.019592214;0.008544455;0.07233761;0.08697058;0.15032806;0.020740792;-0.08778747;-0.025458276;0.0082042515;0.15736784;0.017767526;0.019986238;0.036018133;-0.20731178;-0.118816264;0.026681485;0.011844655;0.08232758;-0.05064069;-0.19535984;-0.030283604;-0.030396208;0.07509163;-0.34907854;0.04315571;-0.09403234;-0.12952167;0.31005144;-0.057588607;0.18580215;0.2902457;-0.05031598;0.2310847;-0.037828494;0.029953167;0.11613881;-0.20591226;-0.16188332;-0.064153165;-0.12014901;0.19757958;0.040431887;-0.025945218;-0.44592986;-0.2600908;0.0986913;0.019064358;-0.21293882;-0.3136957;0.03376294;-0.0269984;0.07154136;0.028550992;0.26998404;0.08589705;-0.09117568;-0.08273771;0.22350635;0.07904243;-0.24589324;0.17845626;-0.2456025;-0.03816373;0.1764279;0.0156484;0.0063457107;0.2712639;0.27654073;-0.035438973;-0.09258736;0.012286171;0.06697224;0.24819838;0.023604024;0.033730593;-0.06561828;0.0010222426;0.081597604;0.22661932;-0.17650227;-0.038876723;0.1030327;0.27314737;-0.019630792;-0.037883893;-0.05349686;0.026809458;0.0010551858;0.0030514123;0.02623648;0.002661639;0.12164391;-0.25456443;0.19761871;0.08601685;0.3566232;-0.07914501;-0.20619424;0.080806956;0.2038724;0.007827332;-0.04444402;-0.26127508;-0.010042917;0.09768535;-0.40843418;0.053112213;-0.08967277;0.08960358;0.011340744;-0.08395622;-0.064620666;-0.030829296;-0.03702449;-0.04403592;-0.25661868;-0.03594784;0.0710548;0.018016096;0.24363853;0.17134498;-0.095367946;-0.08369303;0.077047944;-0.04810624;-0.025731597;-0.0368814;0.25881028;0.21537517;-0.008198198;-0.061230015;0.07375297;-0.0010159384;-0.051266655;0.06442288;-0.04243314;0.1570169;0.15124805;-0.061143912;0.038626123;0.087966084;-0.0004450204;0.038476128;-0.1411607;-0.079655044;0.13650016;-0.0017026545;-0.057340533;0.19461443;0.09417117;-0.067208804;0.061432548;-0.030888505;-0.014671232;0.028781012;-0.035773654;0.07301014;0.123101614;0.10596291;-0.17630643;-0.38071397;-0.042458523;0.16833432;-0.043642048;0.22559191;0.025875814;-0.14862783;-0.028301517;-0.07918203;0.030830203;0.062831804;0.15451737;-0.02872181;0.2814468;-0.021069698;0.05695451;0.07770254;0.007525645;0.29800594;0.004663647;-0.068742745;-0.09152354;-0.10269386;0.22614822;-0.0842943;0.067106456;-0.005183502;0.028059078;-0.05016753;0.031912252;0.052592654;0.124086015;0.2516191;0.044811815;-0.21979563;0.14155814;0.314482;0.23427969;0.14020127;-0.024195569;0.13951482;-0.15561911;0.042406444;-0.016257724;-0.039735377;0.36317348;0.0043892604;-0.08887668;0.01335627;-0.021627279;0.15844366;0.08815374;0.045043718;0.18106285;-0.17871238;0.15822093;0.024721364;0.015368907;0.1281879;0.05593424;-0.13469052;-0.037315395;0.06392818;-0.031556338;0.061510142;-0.045157626;-0.22660819;0.2078045;0.32622126;0.023293573;-0.030109476;-0.31853825;-0.02197285;-0.1143073;-0.020000648;0.103156;0.18538713;0.025967881;-0.030731814;0.14929625;0.2662526;-0.11545013;0.082974985;-0.2784937;-0.11103489;0.112185486;-0.089623794;-0.23036285;0.04824906;0.3742911;-0.018226087;0.13562874;-0.068179436;-0.13578774;-0.08719596;0.020528968;-0.12024475;-0.023311459;0.08760807;-0.00687111;0.08125078;-0.06265457;0.1620387;-0.05457011;0.050486702;0.30440575;0.015916659;0.012535692;0.010989461;-0.07565618;0.008649077;-0.022904834;0.04196043;0.033883285;-0.09886624;-0.2514527;0.22820924;-0.13274324;0.21219686;0.09506047;0.07557211;0.040749535;-0.074618675;0.12249646;-0.030752491;-0.07079859;-0.045771744;-0.033331204;-0.10611159;-0.03556976;0.00051698665;0.34164402;0.011685501;-0.033312477;-0.0974522;0.010398932;0.38225642;-0.06286142;-0.0018197371;0.02309328;0.066847004;-0.06906194;0.033787724;0.009216259;-0.107170045;-0.29134798;-0.18687928;0.041300185;0.04115837;-0.047975495;0.015268118;0.16963898;-0.016266067;0.10052665;0.30575773;0.30189064;0.05095858;0.21168746;0.017103713;-0.049101807;0.1191586;-0.045809224;-0.078788765;0.15416905;-0.034750182;0.20796868;0.10937451;-0.14191356;-0.084810145;0.27200636;-0.10372674;0.18609537;-0.031677365;-0.10320117;-0.0094362935;-0.048301663;-0.275883;0.31612784;-0.044313196;-0.10267532;-0.021235647;-0.029933473;0.0303566;-0.0032987539;-0.028082106;0.026411755;-0.001698584;0.12714373;0.027127335;-0.10092856;0.10097975;0.05560833;0.108437665;-0.13978235;0.14763667;-0.31486222;0.08964156;-0.09901935;-0.06599671;-0.0142898625;-0.08448202;-0.04204515;-0.0109248115;-0.33608398;0.101450935;0.15689494;0.14852771;0.06795468;-0.16400328;-0.20326431;-0.19387531;0.079564966;-0.054222167;-0.30637497;0.07584078;0.036915425;-0.009618929;0.069277994;0.035938412;0.16826616;0.037300017;0.2797625;0.07031367;-0.16324896;0.24508996;-0.22435892;0.01596843;0.20445481;-0.32981008;0.0676777;0.002239588;0.037523877;-0.0024361138;0.049225077;0.029094521;0.012440062;-0.05306995;0.024834203;-0.037158046;0.1257885;0.15103222;0.06744439;0.4462749;0.20303616;0.16812147;-0.02221343;-0.0700435;0.08332526;0.020772954;0.06883387;-0.029558588;-0.03370636;0.031838454;0.115732156;-0.024971953;-0.001596359;-0.16078955;0.07754673;0.0198463;-0.08954945;-0.30480507;-0.41403353;-0.23027761;-0.020657415;0.16381192;-0.018360568;-0.17678796;-0.04524475;-0.09018022;0.12216696;-0.10443952;0.056912288;0.023922024;-0.017239193;0.01652016;0.029409543;0.16674964;0.065176435;-0.05710265;-0.07170603;0.080299094;-0.021670021;0.014447783;0.035205405;-0.100617565;0.23162197;-0.066972665;-0.03127112;-0.07674451;0.2353496;-0.19155325;0.06589545;0.0065843193;-0.11329381;0.22871017;-0.08656722;0.10339547;-0.26504877;-0.2947495;-0.039763495;0.04507845;0.2671341;-0.046198092;-0.12313959;0.09794069;0.020705968;-0.1803162;-0.028951194;-0.025884487;0.005034585;0.043690607;0.08529725;0.23970582;0.07969957;-0.06103038;-0.23361006;0.03141718;-0.06082623;-0.020052508;0.013279534;0.088216946;0.17769554;-0.015059255;0.41476318;0.04497976;-0.18255381;0.17135094;-0.043245453;0.063825645;-0.3652575;0.013733486;0.0126172;-0.11453642;-0.029191902;0.06997063;0.14653201;-0.19393967;-0.051100932;0.074767046;-0.0055900165;0.036446616;-0.08440386;-0.25158644;0.010409201;-0.15342006;0.08033065;-0.025541564;0.1738658;0.09786515;0.039886586;0.013555461;-0.20787056;0.04538257;-0.058100507;-0.090370834;-0.073557846;-0.054614395;-0.25673658;0.17748003;-0.16223691;0.0730885;0.071386896;-0.25494152;0.09670416;-0.14583384;0.08596273;0.09142891;0.059511844;-0.024774227;-0.11318765;-0.13775419;0.088138014;-0.013912992;0.24367388;-0.009442022;0.047227465;0.026078982;-0.20425998
0.10928546;-0.03287652;-0.09348968;0.103327714;-0.00026692392;0.13574007;-0.055755354;-0.03881649;-0.06390807;0.20476058;0.054310787;0.032199174;-0.16040191;-0.15005258;-0.057642017;-0.028127825;-0.02420445;-0.15977648;-0.00080175465;0.020973988;-0.13111499;0.054290373;-0.04706716;0.2392088;-0.060517136;0.058281958;0.052798964;-0.01365264;0.0014057219;0.2112364;-0.016137311;-0.017368611;-0.0754323;-0.11839694;0.29390574;0.3057427;0.18719982;0.06291874;0.014985459;0.11379897;0.05410294;-0.015389447;0.08874755;-0.032923065;0.0028777001;0.15850773;0.057151362;0.07992245;-0.023987198;-0.06959012;-0.02437747;-0.10058532;-0.16250496;0.041623;0.0053310073;0.08444188;-0.029868593;-0.24311897;0.010632494;-0.11328031;0.019546993;-0.38607958;0.046733744;0.0011267663;-0.25339106;0.1734348;-0.09247515;0.14907426;0.2333154;0.0660961;0.18165715;-0.010072805;-0.036096074;0.18367429;-0.14045352;-0.1925081;0.03758844;-0.11844386;0.1532091;-0.09007031;-0.063255884;-0.2931561;-0.21355475;0.073778056;0.040989786;-0.21592237;-0.3875878;0.03780028;0.03165395;-0.029960025;0.028346227;0.31863493;0.08914369;-0.042479787;-0.10071771;0.29514217;0.14436743;-0.080980934;0.04743474;-0.13449;0.03837577;0.12622531;0.07285201;-0.039351474;0.19156131;0.34743688;0.019688051;-0.0561317;-0.045850866;0.07623119;0.24789836;-0.032282878;-0.043924723;-0.020594358;-0.14073597;0.14284183;0.1769949;-0.36855578;0.042425238;0.10217159;0.24180424;0.037023503;-0.15163116;-0.050168034;-0.0068337065;-0.02049368;0.034213934;-0.012538443;-0.0215846;0.056176662;-0.18012902;0.19822617;0.11826029;0.29282323;0.042708583;-0.12953104;0.12319854;0.18871145;0.11121653;-0.0663847;-0.11184742;-0.12649594;-0.055002954;-0.47145435;-0.08082746;-0.086034045;0.15538207;0.022472218;-0.060997624;-0.18368712;-0.061725885;0.021852331;-0.01997889;-0.22061504;0.024987714;-0.031062549;0.038027614;0.24438396;0.013105909;-0.09940166;-0.15175335;0.049246486;-0.013979941;-0.013822241;0.026901525;0.34376577;0.14784147;0.004583155;-0.030965166;0.18501024;-0.13393159;0.011956392;-0.062401373;-0.14286469;0.11801345;0.2008958;0.032559592;0.057005282;0.14407611;-0.024506016;-0.05363074;-0.18719938;-0.17775482;0.06447469;0.109534554;0.039273728;0.19142023;0.105402224;-0.14334278;-0.010873692;-0.033205602;0.018330501;0.08549291;-0.017513795;0.043695994;0.29865378;0.14725877;-0.22103319;-0.407906;-0.04134594;0.20904854;-0.031155052;0.1595623;0.03907841;-0.19154939;-0.029722666;-0.06158139;0.02317546;0.105667725;0.12239147;-0.037220668;0.28692815;0.044494443;0.02341;0.015090424;0.05237249;0.19300821;-0.08865715;0.052186444;-0.16351289;-0.07919594;0.038879756;-0.08606853;0.01571689;-0.09396176;0.072137386;0.039757043;-0.028808134;0.043824624;0.082114756;0.23464325;-0.020449935;-0.15315653;0.16498058;0.19978169;0.16178368;0.23851296;0.030675411;0.16347976;-0.13235715;0.009925746;0.097306065;-0.004361845;0.34736982;-0.06788529;-0.07366233;0.055713948;0.039565578;0.00095944;0.033286974;-0.033485334;0.12932107;-0.2926137;0.17684478;0.09269186;-0.09504229;0.08305722;-0.028025463;-0.13007478;-0.09755133;0.015710866;-0.047887247;0.08977882;0.036213465;-0.34297237;0.11227989;0.3025971;0.1439738;-0.030893523;-0.3292664;-0.03921641;-0.15438586;-0.008963987;0.2267283;0.20270495;0.005434046;0.04929799;0.14195271;0.1730691;-0.1304059;0.04307259;-0.36375818;-0.0629908;0.23911642;-0.11915132;-0.33742213;-0.01508349;0.3485168;0.076913126;0.075504184;0.027009854;-0.15392186;-0.010417792;0.08249021;-0.0928888;0.07437361;0.09708759;0.0015026657;0.123945;0.047079634;0.049637;0.023878066;-0.061277714;0.2336604;0.08595934;-0.0700143;-0.026293712;-0.071779475;0.0051760413;-0.105378196;-0.011469845;0.032936044;-0.07828039;-0.30100548;0.3110593;-0.27723035;0.20260885;-0.04968679;0.04403564;0.06504771;0.0318006;0.14925157;-0.134266;0.030515304;0.00043136004;0.05418205;-0.09984184;0.0678927;0.050636563;0.3577587;-0.035602033;-0.0123551125;-0.15853766;0.11058662;0.3509769;0.09022473;-0.050066553;0.002904407;0.049646746;-0.016641157;0.0065465383;0.06950818;-0.19835386;-0.3619332;-0.30216268;-0.011017725;0.05316011;0.06381383;-0.0029459381;0.17964318;0.038669422;0.08825391;0.22066918;0.3298033;0.056114834;0.3323958;-0.09975416;-0.06299904;0.12675944;-0.03210538;-0.0037017006;0.10314883;-0.047608025;0.28342578;0.14048989;-0.11563245;-0.25928363;0.28626955;-0.030839775;0.10778265;-0.05601371;0.08569962;0.005201913;-0.06396729;-0.18807234;0.35925305;0.01015311;-0.07448895;-0.031190857;-0.072563045;-0.058032155;-0.018350018;0.06397081;-0.034571745;0.070311934;0.1824683;0.05819326;-0.13112752;0.1412325;0.09084871;0.0133063095;0.0101823;-0.024323074;-0.3613273;-0.06324422;-0.13755253;0.04932371;0.029951707;-0.03676947;-0.058811247;-0.06372118;-0.2039092;0.2311366;0.124229915;0.1702462;0.05261949;-0.19733062;-0.14684312;-0.12543222;0.15674596;-0.13977957;-0.3010069;-0.034273203;0.054292068;0.02155989;-0.086331144;0.007252495;0.185706;-0.004181094;0.15853457;0.005598301;-0.28968918;0.17549604;-0.15923357;0.021159148;0.20541047;-0.19043794;0.056961875;-0.07194248;0.0450207;0.004668497;-0.010788868;0.007827172;-0.05725952;-0.07491387;0.07030074;-0.07330247;0.15842013;0.09106276;0.046762403;0.4430269;0.30777588;0.15212551;-0.05849621;-0.15846395;0.006754997;-0.063067034;0.10948934;0.009471272;-0.14561673;0.15692954;0.16320875;0.03659651;-0.05613574;-0.32947895;-0.056976825;0.0009732296;-0.14906627;-0.2516408;-0.37001944;-0.22635569;0.056170892;0.13839605;-0.055449232;-0.2808324;0.018518722;-0.11732439;0.1108296;-0.15786621;0.13936234;0.02556411;-0.0502545;0.027818492;0.07487726;0.1557668;-0.037084494;0.0635063;-0.005788544;-0.0380485;-0.04480267;-0.117656425;0.004468818;-0.22654931;0.21175581;-0.05424858;-0.01574286;-0.22474287;0.17673858;-0.1427044;0.031273536;0.0018550743;-0.14810818;0.20419915;-0.114244916;0.04004403;-0.20078552;-0.13179827;0.07757014;0.067309216;0.22676145;0.017101424;-0.082150325;0.0807448;0.061581373;-0.08903823;0.023564488;-0.010067656;-0.110280514;0.032978084;-0.020480763;0.2672723;0.11890215;0.00263428;-0.1459387;0.06304841;-0.023869108;0.041935563;0.052567344;0.14901564;0.019528432;-0.065969564;0.3388488;0.020450532;-0.18600449;0.12889442;0.027470773;0.034804814;-0.36272314;-0.04921694;-0.040000804;-0.1773163;-0.046108328;-0.010928352;0.312605;-0.18481447;-0.054971844;0.068138465;0.036126178;-0.089867465;-0.05831887;-0.17321025;0.0129725095;-0.13912357;-0.0037000894;0.039055604;0.12770548;0.10340373;0.03182551;0.01555427;-0.114949055;0.0034791748;0.02285231;-0.010388135;0.018787185;-0.19689512;-0.25907746;0.14583713;-0.10020615;0.04286651;0.027206559;-0.098502465;0.12948659;-0.10180209;0.011492776;0.08490808;0.032204628;-0.0055514164;-0.034160588;-0.00090812315;0.0073509915;0.075729825;0.15829164;-0.056977183;-0.069794364;0.014694825;-0.12647173
0.09653658;-0.10186278;-0.2679153;0.21026833;-0.030092942;0.12407941;-0.0704583;-0.10419697;-0.015820907;0.12720954;-0.002129838;0.030008247;-0.15429771;-0.20660569;-0.11683615;0.009145806;0.013328906;-0.08582219;0.02153947;0.017268764;-0.17471933;0.030799245;0.01026172;0.18770197;-0.15020655;0.0341149;0.0035672497;-0.049564984;0.054269664;0.23593743;-0.026146412;-0.0004575655;-0.04725659;-0.05542651;0.226769;0.37566462;0.20443183;0.15840246;0.04023764;0.12751539;-0.09527608;-0.02676969;0.057520214;0.08771203;0.039922297;0.10523128;-0.008730658;0.09815369;-0.06308542;0.020664543;0.08109892;-0.32337582;-0.17884111;0.02675439;0.049808737;0.103178024;0.045218516;-0.19469067;0.082231715;-0.2219006;-0.056875836;-0.3266703;-0.091936074;-0.13004552;-0.2770737;0.31553513;0.03692482;0.22432584;0.33457482;0.06089504;0.17765947;-0.06456121;0.03998847;0.1626879;-0.026965773;-0.23424123;-0.026191184;-0.05461253;0.18549243;-0.026262205;0.0049118935;-0.39261222;-0.17043649;0.17428567;0.0018506879;-0.030515406;-0.44621655;0.04528935;0.0345722;-0.028499732;-0.040501934;0.15405221;0.20211524;0.112864025;-0.031672638;0.15377492;0.24777567;-0.014859904;-0.0022146187;-0.05330909;-0.06552448;0.2343796;0.06185645;0.022857487;0.11415168;0.30086625;-0.068443425;-0.12767242;0.0013139657;-0.06499393;0.26849207;-0.059448875;-0.033048946;-0.039679598;-0.09489344;0.13366145;0.1468194;-0.32470262;0.061350748;0.09193795;0.20874201;0.008304367;-0.2427248;0.042087056;-0.07347031;0.012339772;-0.02322292;0.15146695;-0.05018481;0.06342548;-0.22557206;0.15713133;0.0019977312;0.23378061;-0.07123935;-0.07379521;0.083126344;0.29273593;-0.0072258166;-0.034499206;-0.21089484;0.04020831;0.0045216195;-0.43549773;0.026077434;8.2782564e-05;0.28567597;-0.024045896;-0.08309152;-0.23595591;-0.02970693;-0.016955942;0.02419178;-0.08939287;-0.027069133;-0.058019653;-0.052999727;0.17180547;0.03441246;-0.081185535;-0.20640025;0.004906064;0.079498895;0.010011953;-0.069670856;0.13615392;0.1916895;-0.043241195;0.035299458;0.14053674;0.0028891729;0.036435965;-0.0018375603;-0.13797858;0.18776008;0.22507988;-0.009595791;-0.04716212;0.127014;-0.054134395;-0.06741303;-0.16188051;-0.2572731;-0.0063562347;0.065657094;0.049912382;0.13290392;0.15463209;-0.14306678;0.020626018;0.036338214;0.052414626;0.04225384;0.06707504;-0.065445796;0.19116552;0.2350368;-0.18243735;-0.4041906;0.029041618;0.21365128;0.051252726;0.029229594;0.03684811;-0.21615101;-0.040430233;-0.09084028;0.014123416;0.112759024;0.22368503;-0.13113683;0.14485219;-0.029125854;0.015024669;0.08198455;-0.042528246;0.18011434;-0.10050769;0.017171403;-0.049663533;-0.17025733;-0.07768789;-0.12129764;-0.018709984;0.0019470272;0.06666266;0.049586255;-0.06946195;-0.030925242;0.09876803;0.19196032;-0.07268804;-0.20067675;0.18571311;0.15581825;0.109702535;0.27245334;0.023156;0.075466394;-0.18812989;0.02118378;0.075206585;-0.044089273;0.359498;0.05089413;-0.024906525;0.024142284;0.014746625;0.09422811;-0.04511701;0.06898529;0.0954697;-0.29534206;0.21181834;0.15128538;-0.03887539;0.083486795;-0.019937806;-0.021403007;-0.10259225;-0.04226826;0.05125319;0.22512607;-0.19386981;-0.45472357;0.15484193;0.26515675;0.03369959;-0.012129573;-0.34771156;0.037536003;-0.20635672;0.03393024;0.13382706;0.20568553;-0.07391675;-0.02575558;0.037978865;0.13766421;-0.2755978;0.14629595;-0.23631641;-0.04334299;0.21809676;-0.23346445;-0.28079385;0.097434215;0.31949005;0.039733242;0.114836775;0.034152105;-0.019563919;0.052305866;0.094476916;-0.05569492;-0.028461639;0.054404743;0.016824676;-0.00532495;0.026682144;0.02450081;0.015168769;-0.045092586;0.26145574;-0.05144978;0.05443068;0.02806528;-0.095934354;0.0077953045;-0.05459659;-0.05137885;0.08890396;-0.1931895;-0.35719004;0.22418451;-0.21681286;0.13908738;-0.01574019;0.10885826;0.010858272;-0.07602351;0.07512104;-0.14352182;0.028303755;0.045432687;0.009061132;-0.08686865;0.042162005;-0.049532723;0.24459736;-0.026576275;-0.049565703;-0.035883658;0.036276113;0.27035114;0.09174658;0.040669516;0.03888163;0.086772114;0.0052165096;-0.060766924;0.007956381;-0.07122305;-0.38781735;-0.22885853;0.075886734;-0.026680246;-0.0072967065;-0.0020032723;0.02235555;-0.03649112;-0.027125215;0.17373197;0.21731733;0.022519989;0.35187426;-0.039492957;0.048717074;0.0504387;-0.0033389446;-0.021161905;-0.0050359066;-0.0050740023;0.18145502;0.12114085;-0.13710137;-0.27428234;0.23603418;-0.082704775;0.1809888;-0.11356609;0.11036382;0.01436034;0.06671174;-0.26052377;0.3347282;-0.15765065;-0.10688552;0.052607574;0.027600233;-0.07550741;0.04689995;-0.07383;0.04917578;-0.012947304;0.12792374;-0.072890885;-0.2183904;0.10172871;0.025899962;0.104564905;0.020801688;-0.012041433;-0.3108115;0.003538224;-0.13196714;0.049530894;-0.058983054;0.06471994;-0.10515984;0.07185435;-0.27484393;0.15640913;0.05224452;0.13150801;0.032964032;-0.18950218;-0.18005611;-0.07499491;0.09018071;-0.23342831;-0.17590955;-0.034400143;0.11883198;-0.028550465;-0.10343645;0.06554437;0.2005371;0.05105088;0.23221192;0.021515291;-0.33218914;0.17366354;-0.03126715;0.0074303956;0.2724801;-0.10885176;-0.004314356;-0.09851037;0.023040501;0.0037678322;0.060513914;0.03035874;-0.12543513;0.07576055;0.0023916115;-0.10493596;0.1691853;0.15570377;0.003561371;0.28320053;0.18339856;0.12372698;-0.060256276;-0.20812938;0.06300495;0.08027096;-0.065139696;-0.07854011;-0.15339074;0.20128734;0.16427389;0.10796963;-0.042074434;-0.2439329;0.047735073;0.10056565;-0.09400337;-0.14095058;-0.4445109;-0.18504335;-0.06554472;0.14891076;-0.08610771;-0.18455918;-0.048572622;-0.21354777;0.014280131;-0.07319697;0.08307829;-0.004651491;0.036905322;-0.040351488;0.08881982;0.13360909;0.038967736;-0.03927144;0.04659013;-0.06439055;0.033909004;-0.050441578;0.05757378;-0.24347475;0.11344933;-0.024313949;0.045256056;-0.3263215;0.10035558;-0.0774282;0.1586849;0.009276591;-0.1448096;0.23314577;-0.05264745;0.014645897;-0.13282314;0.055547833;-0.07024182;0.03525915;0.27733874;-0.044746134;-0.019022701;0.12782541;-0.008757543;-0.14406554;-0.032143313;0.08405285;-0.05871028;-0.03634018;0.031611785;0.24113904;0.047075313;0.074576296;-0.17146882;0.0036795156;-0.016760498;-0.037207775;0.02729127;0.07178898;0.0066355825;-0.0043014735;0.29267544;-0.0499552;-0.14599732;0.103372075;-0.121813856;0.029051758;-0.36804748;0.026034536;0.0087486915;-0.22908837;-0.031493977;0.051093813;0.21474844;-0.2111127;0.062485922;-0.06446519;-0.03213077;0.043629695;-0.030974576;-0.031747874;-0.06821251;-0.07952176;-0.04832816;0.009649935;0.069944315;0.012518979;0.055237103;0.078018785;-0.094024524;0.015303147;0.046868008;0.028620856;-0.1139294;-0.25590906;-0.34582296;0.11420991;-0.18231083;0.058827538;-0.03077379;-0.14911856;0.14568402;0.06358317;0.07116478;0.04002042;0.065978885;-0.025798546;-0.070511125;-0.13365465;-0.00883486;0.13727988;0.13647066;-0.01694465;0.072647706;-0.026060937;-0.16408603
0.20700498;-0.18687691;-0.22349736;0.2128317;0.03337304;0.26108342;-0.11949729;-0.09134991;0.03121577;0.10861951;-0.07150803;-0.012242848;-0.026980849;-0.16529787;-0.023234306;0.0021396773;0.08278165;0.0153532075;0.013445912;-0.0132885305;-0.1279294;0.0026965886;-0.047581192;0.29340136;-0.039851435;0.070457526;-0.03813402;-0.117593154;0.102212235;0.1386547;0.101676315;0.05631213;0.119879834;0.083172165;0.23407014;0.22206877;0.15917061;0.10924406;0.009486845;0.048302475;0.02116243;0.078539595;-0.11611748;0.07517899;0.03067203;0.16207547;0.075551614;0.15099105;-0.025654314;-0.020744476;-0.037495606;-0.15920685;-0.16921353;-0.047883272;0.06578145;0.009278528;-0.026789661;-0.30412763;0.05821984;-0.22572707;-0.059688985;-0.3651071;0.065134004;-0.014945203;-0.17032886;0.24078105;0.007939408;0.08483427;0.21833156;-0.035664294;0.024217822;0.059071336;-0.06741204;0.2058039;0.0045747994;-0.20966983;0.02737996;-0.13432686;0.23544198;0.059512574;-0.018424183;-0.33385405;-0.08107703;0.11953532;0.057126783;-0.090472706;-0.39756513;0.017778354;0.035413247;0.01686075;0.021281026;0.16646267;0.13678186;-0.010387526;0.013451342;0.18095174;0.20452034;-0.022277273;0.15553539;-0.113558464;-0.0034989843;0.11311463;0.08359368;-0.04566895;0.1370419;0.25287616;0.04329187;-0.089250594;-0.04244758;-0.03121065;0.2918688;0.024769811;-0.0821414;-0.19227748;-0.08025677;0.22583233;0.14215942;-0.4027749;-0.0630921;0.011631464;0.1638253;0.05964839;-0.30671123;0.001171428;0.054048866;0.03128601;0.018011972;0.0755456;0.07255306;0.15659457;-0.23126622;0.13006002;0.12856075;0.05596251;-0.03860146;-0.13681428;0.075694196;0.19857214;-0.03215874;0.08838599;-0.13551742;0.044200014;-0.057730287;-0.56648564;-0.03156271;-0.04989438;0.16145778;-0.030577067;0.041505937;-0.29559937;0.014753441;0.04065268;0.09070009;-0.17743774;0.046381723;0.008944844;0.030056408;0.011199659;0.056273684;-0.13922289;-0.12462361;0.016927877;0.14436686;-0.004673815;0.09068624;0.20372911;0.17732877;0.043856494;0.03066841;0.25749576;-0.073619395;-0.00088208786;0.00282114;-0.21490261;0.16798903;0.13919185;-0.015874332;-0.04345069;0.15421192;-0.02149737;0.024298044;-0.08205343;-0.2634661;0.06185111;0.05506244;0.06393739;0.1497059;0.053096093;-0.2920256;-0.041311465;-0.03418699;-0.084523186;0.059076916;0.023365393;-0.019126765;0.3462099;0.22731893;-0.22797611;-0.5216025;-0.031305715;0.1896605;-0.078198776;0.0351468;-0.0996817;-0.06945382;0.034200896;0.0009903517;-0.012310945;0.0748602;0.20213822;0.04555641;0.14978172;0.034975003;-0.0060985526;-0.054646574;0.042286303;0.09851459;-0.06573092;-0.072460555;-0.03067639;-0.06955067;0.01101621;-0.24811864;0.018864963;-0.20017326;-0.023993997;0.041561;-0.12140731;-0.04091028;0.09334685;0.08528728;-0.06298607;-0.2976736;0.12153527;0.034284554;0.19062239;0.27097765;-0.036689818;0.16895725;-0.1133241;-0.05591555;-0.0286538;0.012829647;0.22694185;-0.12117409;-0.0040758704;-0.06550012;0.056160074;0.08193386;0.057247147;-0.055193625;0.08441824;-0.3364647;0.13168709;0.08148383;0.07211764;0.026336966;-0.0053233146;-0.0627017;-0.08303843;-0.045052927;0.09366077;0.2856719;-0.123518385;-0.34019393;0.009396656;0.009627497;0.12840892;0.010817797;-0.14345117;-0.04964704;-0.21339639;0.00025532118;0.03738953;0.1442607;0.006443327;0.056824703;0.051081017;0.08554177;-0.24948806;0.23104402;-0.22551945;-0.08450152;0.120069414;-0.06375523;-0.35043433;0.12756048;0.33818412;0.041001815;0.012381422;0.01277835;-0.013424698;0.17225549;0.08655869;-0.12948327;-0.07968986;0.2005382;0.040425222;0.011950064;0.000229729;-0.13633287;-0.01574814;-0.030713841;0.33767962;0.052509233;0.04592335;0.003258188;-0.010387982;-0.009934472;-0.051006358;0.0052299756;-0.022058114;-0.09325852;-0.39313892;0.35833952;-0.16088888;0.10502541;-0.038175013;0.09153358;-0.06609391;-0.04941112;0.07069511;-0.18952888;0.016654905;-0.005634545;-0.037946653;0.032344807;-0.0071451874;-0.004078525;0.33948803;-0.044506177;-0.12596731;-0.1059859;-0.021349424;0.17970449;-0.0613153;-0.0095768925;-0.000121806515;0.14234273;0.05274465;-0.03281164;-0.030686878;-0.08359101;-0.32804337;-0.42867294;0.046540286;0.027029889;0.0037012266;-0.06763833;0.17792656;0.056871623;-0.017525401;0.16767423;0.1518531;-0.03223366;0.36314508;0.018355094;-0.08359741;0.089672126;0.06274861;-0.10360302;0.08259368;0.03838815;0.25973293;0.175168;-0.21400753;-0.2199219;0.3368826;0.008914607;0.2452855;-0.028406523;-0.02577867;-0.093813464;0.06567444;-0.18915845;0.31144106;-0.109095596;0.0019930804;-0.018760126;-0.04944523;-0.042821992;-0.025643783;0.010984539;0.06879825;-0.03039331;0.20939797;0.02169653;-0.1088004;0.13736148;-0.028217865;0.11014369;0.0860504;0.10616072;-0.41063905;-0.04120568;-0.18649718;0.017155644;-0.24740621;0.02764567;-0.11926116;-0.028703557;-0.30031538;0.15632339;0.11394831;0.11617773;-0.06694372;-0.21205673;-0.07060374;-0.14673226;0.17938483;-0.23711552;-0.19951767;0.052448593;0.13704547;0.022440523;-0.24710616;0.034750108;0.24189888;0.021831486;0.23910658;0.01567223;-0.1998194;0.29082045;-0.16392885;-0.046611745;0.2568372;-0.02581215;-0.059185464;-0.017299246;0.07240362;0.029570576;-0.0013328876;0.05507847;-0.05985533;-0.039184876;0.048712462;-0.10449761;0.111468256;0.18035097;-0.024838857;0.4711184;0.23840442;0.08296185;-0.017088642;-0.07043566;0.008294115;-0.011329427;0.0033600484;-0.12765068;-0.09055951;0.08103852;0.13703275;-0.031053072;0.060920767;-0.24398299;0.030353839;0.111891806;-0.06163106;-0.1766442;-0.3972767;-0.11726962;-0.02919826;0.08127579;-0.029886618;-0.26283976;-0.09133664;-0.0471983;0.019983808;-0.09387529;0.15651372;0.06273418;-0.024249695;-0.030425016;0.14834575;0.0014042952;-0.03894346;0.04358205;0.021076469;0.12227692;-0.05336416;0.042550087;0.027578438;-0.23934758;0.1561414;0.067562185;-0.05520322;-0.38552767;0.053729575;-0.0058731004;0.12891267;-0.015766045;-0.24063082;0.24843621;-0.039311174;-0.010384567;-0.12494396;0.07288353;0.037516672;0.0005446146;0.25913557;0.002421371;-0.079728216;0.19917087;-0.029668069;-0.06396902;0.005003658;0.14040805;0.008194692;-0.011949188;-0.069363005;0.22521941;0.07467814;0.0036407462;-0.13538726;-0.016191354;0.014761708;-0.025264002;0.013135998;0.15416512;-0.02505914;0.0005705381;0.3578019;-0.05104997;-0.15742894;0.05148805;-0.09146587;0.050299324;-0.3468174;-0.055171072;-0.04306331;-0.23436262;-0.00021773105;-0.035283603;0.20301929;-0.14854711;-0.06402565;0.022428822;0.03354836;0.001242719;-0.03937852;-0.049135555;-0.07525499;0.045707043;-0.039392494;0.042309206;-0.0005340843;0.10728632;-0.018525818;0.10776137;-0.12594946;0.015418853;0.25655428;0.0014478015;0.007246795;-0.22968657;-0.26281503;0.1209557;-0.17173521;-0.050694432;0.004798731;-0.13565607;0.20796373;0.13341734;8.269883e-05;-0.02034642;-0.008920075;0.07389844;-0.0031221283;-0.113196515;-0.06593573;0.12902072;0.16427886;0.12081368;-0.058903486;-0.019747676;-0.15026522
0.193702;-0.21331228;-0.251759;0.25244236;-0.040223107;0.18636075;-0.18211648;-0.13945392;0.020915538;0.1731301;-0.05971671;-0.019130189;0.048021138;-0.20298204;-0.050280865;0.015905382;0.1252283;0.020902175;-0.054564297;0.033474296;-0.10983491;0.022693241;0.07922624;0.26248205;-0.1431123;-0.07383821;-0.0018527618;-0.19219692;0.10940333;0.1510859;-0.01904824;-0.07682123;-0.09740904;0.017607646;0.16349678;0.23697999;0.06312625;0.11636149;0.07077848;0.09095926;0.058346983;-0.059129506;-0.03269792;0.068287954;0.052292537;0.11974798;-0.055464298;0.15962626;-0.050841074;0.056116857;-0.07236025;-0.29323113;-0.10595571;-0.056286603;-0.02656003;-0.12908582;0.041694365;-0.09342865;-0.0012694588;-0.20871341;-0.050425228;-0.43003222;-0.0297642;-0.09417142;-0.13892858;0.13845755;0.010516627;0.18120599;0.14734936;-0.019880846;0.13397938;0.040569164;-0.035094284;0.19772768;-0.003917686;-0.2746068;0.048670508;0.064958036;0.10465793;0.012665617;0.026961686;-0.3745996;-0.19897996;0.10358894;-0.032630883;0.10171341;-0.47174782;0.03362885;0.022459913;0.07283946;0.02182364;0.11716102;0.18065552;0.12635481;0.055029277;0.16875824;0.29897487;-0.0064437687;0.03570468;-0.13652217;0.0065445164;0.13929813;-0.038796276;0.020917516;0.10013875;0.25403816;0.05078758;-0.12926766;-0.026506778;0.06851769;0.18761165;-0.11738323;-0.0511026;-0.17143889;-0.067324504;0.03962118;0.11242387;-0.36673;0.049242083;-0.044035744;0.16719852;0.008215361;-0.3944445;-0.04951999;0.06027722;0.02158184;0.08915758;0.25514036;0.04053115;0.12025521;-0.16912593;0.08162506;0.11006881;0.08223976;0.077612564;-0.182905;0.09099241;0.2587729;-0.024675628;-0.022552483;-0.056295324;-0.023852289;-0.058512248;-0.63096094;0.013315569;-0.03581444;0.29434043;-0.04513227;0.06578454;-0.28922492;0.034285296;-0.017911118;-0.045926612;-0.07201599;-0.011807169;0.018744612;-0.002895122;0.10947348;0.0051554497;-0.15232833;-0.29212105;-0.0146199325;0.0149244955;-0.024152718;-0.07087309;0.25862122;0.09361097;0.020959543;0.113655716;0.21367297;-0.06923906;-0.07878885;0.07105919;-0.16001138;0.04912017;0.18176784;-0.048026845;-0.030710105;0.048438497;0.055129357;0.08201258;-0.074826606;-0.15412013;0.054893356;0.035964422;0.0754996;0.06986876;-0.016912745;-0.26450637;0.0140535;0.09567003;0.050068542;0.08995522;0.0060549267;-0.0032093744;0.33628744;0.21326885;-0.21355341;-0.3662313;0.063562445;0.16464421;-0.005236209;0.04182082;0.064386584;-0.13905911;-0.03384383;0.09158482;-0.051934745;0.08274245;0.19217134;-0.11863772;0.08684055;-0.029344585;-0.10607447;-0.0050710803;0.0370619;0.11120608;-0.050419312;-0.05725234;0.051594954;-0.024666483;-0.07767998;-0.15623511;-0.0028847484;-0.10613072;-0.06340227;0.014708968;-0.13874862;0.022186588;0.05947577;0.14718568;0.028506478;-0.21961154;-0.031957917;0.03535804;0.1745643;0.32429647;-0.020810459;0.030796707;-0.11012662;-0.08880526;-0.028438175;0.05698768;0.20643917;-0.09485344;0.047941044;0.0025033671;-0.019254193;0.11134173;0.14512047;-0.030136958;0.0706972;-0.3528856;0.21677414;0.0727679;0.027294882;0.102782086;0.010361644;-0.13705882;0.043667637;0.021841494;-0.045445938;0.20323925;-0.22831257;-0.48305112;0.047611374;-0.055536475;0.13198854;-0.10913907;-0.13801672;-0.1822606;-0.2102051;0.0054587424;0.024636893;0.28637603;-0.0208454;-0.022498002;-0.01649707;-0.08258509;-0.22258583;0.24056704;-0.20296901;-0.19194423;0.07130046;-0.059444148;-0.36936164;0.029298643;0.26609132;0.15340796;-0.11642289;-0.01277919;-0.03274312;0.19386706;0.20393494;-0.10164759;0.0053762426;0.18639497;0.050365552;0.112441525;0.010128635;-0.06185179;-0.07793044;0.0057270997;0.37815025;0.07763295;0.11014787;-0.0079025775;0.033204798;-0.014192568;0.051367514;-0.010169957;-0.0075728283;0.002263004;-0.3661162;0.31954944;-0.21252076;0.0988036;-0.06400316;-0.054399505;-0.12618566;-0.061252058;0.028204406;-0.17734262;-0.024242837;0.05378045;-0.012314227;0.010848939;-0.027212037;0.063905105;0.20756139;0.055643655;-0.20610373;-0.09495357;-0.030079272;0.16142689;-0.05294243;0.04208228;-0.0313129;0.2296751;0.033664268;-0.00080100814;0.02371927;-0.05576887;-0.28169397;-0.31807247;-0.027198315;-0.007866045;0.016361794;0.09009996;-0.018341152;0.005267774;-0.14625664;0.15880673;0.17504247;-0.072081015;0.27670196;0.09070577;0.002849341;0.17438997;-0.037600547;0.04803724;0.083032995;0.022702962;0.2084652;0.07137324;-0.11706603;-0.12719585;0.26470503;0.0014269333;0.11942878;-0.04648342;0.03920778;-0.103649855;-0.093062356;-0.11336131;0.38360643;-0.078814626;-0.114070736;0.029495977;-0.022506496;0.013152142;0.009810514;0.046111125;-0.033121735;-0.07544272;0.17073871;0.015857914;-0.027880214;0.09849575;-0.05554799;0.12691545;0.0141499275;-0.087024175;-0.38803458;0.006405793;-0.095826484;0.034540378;-0.1727792;-0.032054815;-0.09533296;-0.0015083456;-0.37361246;0.1830126;0.115227304;0.056192882;-0.0723527;-0.18364537;-0.09810858;-0.14981079;0.097356856;-0.26576024;-0.18436065;0.024011321;0.047665622;-0.018697694;-0.26064432;-0.06404267;0.041653436;-0.037818912;0.27404228;-0.055799708;-0.14358763;0.13889354;0.005414918;0.00964836;0.22198638;-0.025416488;-0.0050436896;-0.037668716;0.011353162;0.010854845;0.046943493;-0.08636084;-0.031757016;0.06435727;-0.018730992;-0.17764029;0.25059018;0.12516738;-0.04787546;0.4130993;0.17440668;0.16719952;0.07047329;-0.15861613;0.14543706;-0.054569244;-0.095055364;-0.09267544;-0.06818154;0.09328389;0.022044456;0.059236795;0.078478016;-0.22771099;-0.055932093;0.106651686;-0.14154269;-0.016895909;-0.38803053;-0.038595922;-0.012150287;0.043327037;-0.0946731;-0.30282262;-0.053694177;-0.025644973;0.061049037;-0.053884577;0.14422232;0.10985342;-0.009135195;-0.010952095;0.03840522;-0.010258875;-0.009698214;-0.0031236487;-0.08419734;0.06446011;-0.040094033;0.01982778;0.035722394;-0.16996041;0.07559734;0.057631366;0.033875924;-0.48723203;0.07942456;0.09060747;0.15231784;0.013495249;-0.108752176;0.18628249;0.02466979;0.062383853;-0.14684434;0.18030407;0.01669672;0.11186497;0.119687654;0.055459674;-0.08657209;0.08099318;-0.017758092;-0.052461464;-0.0365953;0.24333559;-0.020791152;-0.00018162206;-0.028397076;0.23077266;0.094811134;-0.007177906;-0.15320885;-0.012526093;-0.044317324;-0.011011494;-0.01366275;0.07555584;-0.089389384;0.0372608;0.37855;0.05880508;-0.12223785;0.0860814;-0.036465928;0.07914898;-0.25405747;-0.112619504;0.06426626;-0.23880504;0.043756843;-0.03139025;0.0908124;-0.13877463;-0.059752673;-0.1361665;0.027318338;-0.015805915;-0.06622419;0.081183836;0.047834415;-0.09257264;0.07123657;0.04358713;0.120152764;0.03919686;-0.020568838;0.1671126;-0.23523779;0.0052787354;0.25319242;-0.015444743;-0.018114671;-0.18163462;-0.2537375;0.018088639;-0.16525137;-0.04208566;0.06935204;-0.11117118;0.10403002;-0.001805997;0.10440235;0.10410538;-0.0039241915;-0.023154896;-0.05109294;-0.09599356;0.040322594;0.21723726;0.2218173;0.03624112;0.029560639;-0.05527476;-0.10317396
0.022425337;-0.17645474;-0.23164502;0.24254705;0.022894453;0.2873021;-0.20264205;-0.14366153;-0.03769876;0.06604019;0.036327925;-0.0147862695;0.05517099;-0.17857225;0.017506493;0.048732404;0.17428909;-0.15003186;-0.09859413;-0.039661102;-0.07218619;-0.046844773;-0.06653147;0.22216572;0.016094081;-0.0102336025;-0.029710365;-0.036875892;0.071133465;0.11130361;-0.009085721;0.02187529;0.012326506;0.048088364;0.10135287;0.29535282;0.059802763;0.023804616;0.06975233;0.11201398;-0.0846116;-0.006507391;0.029119158;-0.04875235;-0.07759394;0.09386389;-0.028013831;0.07113295;-0.1360437;0.07780231;-0.02455008;-0.1576341;-0.08847858;-0.058739334;-0.016987199;-0.015158023;-0.067034565;-0.05640667;-0.060727064;-0.2709133;-0.0055591394;-0.42060217;0.011903417;-0.12645173;-0.22881639;0.09209131;-0.029875008;0.032616425;0.08906322;0.060824487;0.2166326;0.029561859;0.027222842;0.16388544;-0.06831437;-0.22710541;-0.0634335;0.017484728;0.16692668;0.033720046;0.01824394;-0.3391135;-0.17339979;0.21205352;-0.06358615;0.14093181;-0.4198344;0.007832845;0.018306728;0.015449547;-0.042651698;0.12027386;0.18536168;0.07509686;-0.0756362;0.315001;0.13802968;-0.023067439;0.046707883;-0.07099234;0.0037639688;0.15499136;0.03695171;0.04980088;0.1471458;0.18091865;0.0057436605;-0.14371835;-0.010369116;0.016720045;0.30053174;-0.13156202;-0.11144288;-0.22491461;-0.079483636;0.077128924;0.07835422;-0.36254337;0.038483698;-0.099737436;0.03876857;-0.03184493;-0.31191224;0.073539756;-0.0018183627;-0.023440665;0.0657894;0.23486489;-0.06502991;0.090178035;-0.26038978;-0.028928842;0.1635329;0.05101585;-0.02874379;-0.1435864;0.002445212;0.16793413;0.041580766;0.010482212;0.0037993065;-0.088686265;0.15550153;-0.5908732;0.023859765;-0.03872409;0.31448227;-0.014527429;0.105170675;-0.25052992;0.03475903;0.06791379;-0.041544896;-0.029445793;0.04815858;0.013365825;0.017517071;0.075677805;-0.0070312126;-0.1301576;-0.21200207;-0.061399966;0.12513196;-0.04301315;0.05336326;0.12421311;0.26056823;-0.08342244;-0.01745775;0.1180791;-0.17923817;-0.04713262;-0.0046128104;-0.120415546;0.013887132;0.055717833;0.0038114623;0.04607216;-0.0079629645;-0.041750558;0.03805549;-0.1081435;-0.21747689;0.07544218;-0.06981611;0.17764805;0.07374032;0.14330383;-0.2792484;0.0509641;0.04019599;0.009681168;0.074481346;-0.026500942;0.023000551;0.15644433;0.15871407;-0.091963165;-0.50009495;-0.051072787;0.16329183;-0.02162246;-0.013910693;0.017700307;-0.2607587;-0.05878333;0.06684029;0.067851104;0.043015003;0.07902957;-0.038775165;-0.07058611;0.033324156;0.046336528;0.09133343;-0.018493488;0.15325947;-0.06067105;-0.029433124;-0.005780677;-0.07466311;0.09130253;-0.14901826;-0.025983486;-0.08336124;0.035206232;0.020997902;-0.18693203;-0.011613447;0.02880801;0.067515746;-0.04977273;-0.282773;-0.00332074;0.10724113;0.025382834;0.2188335;0.04544134;0.11863844;0.09346801;0.083575375;0.008648666;-0.014460325;0.11925689;0.06778251;0.032455724;0.040089987;0.041303545;0.15295126;0.1964058;-0.0029924812;-0.031333372;-0.25694332;0.1255272;0.08343934;0.050184097;-0.04207521;0.014164924;0.038510326;-0.079912305;-0.008115267;-0.007839259;0.11563368;-0.17871445;-0.34586853;-0.11632768;0.04753163;0.17429006;-0.0661443;-0.1080477;-0.12433758;-0.11831971;-0.06400885;0.034596078;0.3831587;0.069224335;0.010515887;-0.16570498;0.055455524;-0.15165778;0.22180848;-0.112135775;-0.052194092;-0.028819492;-0.038696717;-0.33241338;0.20087479;0.27821165;0.24103227;-0.14403026;0.026816083;-0.08471716;0.13804476;0.22567402;-0.17922948;0.13409817;0.04765413;0.054554556;0.087425135;0.02677854;-0.018997414;0.0039370167;0.057988696;0.26024592;-0.03981774;0.026302475;-0.047787085;0.031629298;-0.034272283;0.08961601;-0.07551151;-0.08455217;-0.028224047;-0.28733975;0.3030113;-0.15087746;0.1910082;-0.056931183;0.050189786;-0.026383266;0.041936893;0.14109719;-0.25297013;-0.00079773663;0.061611798;-0.2077614;0.030180488;0.025371175;0.007887341;0.3197813;0.025833793;-0.118240066;-0.025127377;-0.16380537;0.07421504;-0.013602588;0.041248277;-0.00731967;0.19513986;0.0011724392;0.1272917;-0.016263824;-0.18197244;-0.23638111;-0.37412226;0.0175144;-0.07284034;-0.020261023;-0.009782964;-0.042066272;-0.055937022;-0.07358323;0.012050459;0.23915602;0.016062254;0.10820798;0.13716453;0.017805737;0.17581518;0.035330225;0.04092212;0.08017452;0.010048116;0.22158256;0.030859752;-0.22047454;-0.18216303;0.33102876;-0.04232609;0.24378507;-0.07091645;0.083686344;-0.039814834;0.032881495;-0.23965082;0.31548998;-0.008823136;0.045856256;0.009028126;-0.11988693;0.063430734;-0.043880668;0.038102794;-0.0043922155;0.045361266;0.37274975;-0.042153187;-0.074193306;0.15804668;-0.056827556;0.06354621;0.057605732;-0.12919872;-0.4147586;0.028810142;-0.18873039;-0.063654184;-0.20514771;-0.007397992;-0.2057638;-0.015910113;-0.45072612;0.27247402;0.15150103;0.022322739;-0.01777381;-0.10457655;-0.027624795;-0.12235443;0.19257452;-0.16519806;-0.25113663;-0.042307932;-0.11458239;0.00217932;-0.06056837;-0.062720485;-0.07338547;0.047726713;0.20383446;-0.03332408;-0.051231652;0.2331813;0.038515154;0.005848172;0.22505169;0.082187;0.026997205;0.0053638685;0.02847824;-0.012322364;0.016247047;0.02190232;-0.1148011;-0.06043391;0.10599763;-0.106579505;0.27545938;0.08844265;-0.014650552;0.4327349;0.25076818;0.20204957;0.06942318;-0.05190967;0.17042038;-0.13097006;-0.15212207;0.08193241;-0.021055529;0.19073085;0.0059014177;0.084385835;0.047396675;-0.103860535;-0.034728132;0.08477891;-0.035663;-0.024702976;-0.36764485;-0.06858077;-0.077828705;0.035962608;-0.16940534;-0.2249568;-0.02314737;-0.097965956;0.124710724;-0.12864882;0.02696183;0.06601983;0.09992576;0.062752;-0.008329866;-0.079848476;0.031614877;-0.027879018;0.009744594;0.08485553;0.075378634;0.069633655;0.088236034;-0.2061289;-0.029531766;0.039891556;-0.0664582;-0.475491;0.025651291;0.033050276;0.06580509;-0.0021861007;-0.12662947;0.001893697;0.0396828;0.025264556;-0.013260628;0.22212099;-0.04717929;-0.02724188;0.21182649;-0.06569256;-0.09200498;0.05747419;-0.03403215;-0.101443835;-0.027403535;0.21313563;-0.057131067;0.00791485;0.056740016;0.17823508;0.16461948;0.0012803725;-0.007941681;-0.04171587;-0.056680538;-0.03886537;-0.056893084;0.080930606;0.09241407;0.0012461821;0.29424796;-0.012576629;-0.04814455;0.08051178;-0.030665735;0.09991917;-0.15553653;-0.07768056;0.07983646;-0.32791096;0.020585025;-0.02913142;0.13632162;-0.0070597394;-0.014471814;-0.082969435;-0.02761346;-0.0009941222;0.018143496;0.05758688;0.008590012;-0.09702102;-0.052568216;-0.05578637;0.045490395;-0.128031;0.00537388;0.065708905;-0.24070083;-0.041371603;0.29695228;0.04179491;0.012986742;-0.20259282;-0.25367445;0.066808686;-0.14716035;-0.08795559;0.031343184;-0.1356271;0.2196441;0.015676633;-0.04983281;0.009260079;0.055078544;0.038106486;-0.07813241;-0.06172357;-0.044088315;0.07765551;0.16013749;-0.028430182;-0.020605909;0.022731096;0.001103838
0.04544764;-0.2171409;-0.105703145;0.14878711;-0.015324607;0.22561714;-0.11333634;-0.22032064;-0.02173542;-0.057782404;0.03833703;0.049192574;0.004989417;-0.023594977;-0.12712668;0.1018339;0.21385375;-0.05490574;-0.031604227;0.027484851;-0.12275412;-0.050091952;-0.14923126;0.15385526;0.03953957;0.025528293;-0.035907894;-0.19192795;0.098728575;0.032249205;-1.8933637e-05;0.06291982;0.018334398;0.11121965;0.090779565;0.19644128;0.07971565;0.15534967;0.063281976;0.018339194;0.060879745;-0.040754728;0.017643066;-0.012494669;0.062681034;0.124534234;-0.0699583;0.104486145;-0.04588714;-0.07701648;0.023746932;-0.26648962;-0.13809691;0.040727697;-0.032788493;-0.044894386;-0.05857789;-0.024348289;0.039659813;-0.2597196;0.058662083;-0.37042105;-0.0466115;-0.23648539;-0.2383339;0.14440335;0.0096518425;0.1929632;0.07251212;-0.045872275;0.12191953;-0.05480552;0.045452517;0.14855295;-0.028513806;-0.110303506;-0.064023934;0.13001555;0.06932795;0.02623271;0.056409195;-0.37659317;-0.22298735;0.264147;0.064674355;0.033266515;-0.42872956;-0.09250208;0.029838184;-0.067518085;-0.032957148;-0.06602219;0.035015866;0.20068823;-0.07013406;0.27457133;0.17948426;0.1333669;0.11004343;-0.10277498;-0.015513746;0.039502308;0.08790226;-0.052540306;-0.03190475;0.2130027;0.04441691;-0.081273094;-0.0050840876;-0.0073835445;0.1608959;-0.14296818;-0.24189569;-0.2517737;-0.18583201;0.11032174;0.08247223;-0.33341005;0.033237766;-0.066990264;0.1856827;-0.045303375;-0.32675135;0.061707526;-0.0036105455;-0.0005066996;0.013628992;0.19983184;0.03203423;-0.0022283692;-0.24020848;0.090478085;0.12847148;-0.05715471;-0.04675025;-0.15135701;-0.017424382;0.11208617;-0.043850817;0.054383583;-0.06717345;0.052387286;0.15883826;-0.5834092;-0.02894396;0.06357313;0.22901253;0.049404144;0.08308948;-0.17543775;-0.014737829;0.08700896;-0.028858906;-0.20601417;0.038542315;0.06303884;-0.03390835;0.026309246;-0.1711638;-0.10231967;-0.12860136;-0.0032299838;0.010073529;0.028655587;-0.077932045;0.2460021;0.2138634;0.04814353;0.08154393;0.040796403;-0.2010034;0.061968636;0.035929777;-0.17606291;0.06418814;0.10452948;-0.0076931934;-0.035489615;0.023839088;0.048417468;-0.07347257;-0.2123633;-0.21020134;0.10864941;-0.106253594;0.19844384;-0.033075884;0.013798171;-0.2081711;-0.00835775;0.10057574;-0.041632857;-0.04927926;-0.020000033;-0.047737658;0.13596308;0.1360644;0.0029968405;-0.46100333;-0.022391107;0.0719061;-0.19744378;-0.069989204;-0.018037712;-0.3051483;0.072791494;0.022318654;-0.0372252;0.16417293;-0.00022056556;-0.05737423;-0.07280532;-0.03408346;0.02875178;0.08708648;-0.04739658;-0.015291972;-0.08533837;-0.0053041;-0.02453044;0.0069847344;-0.051166315;-0.10156956;-0.02619603;-0.1796065;0.0053135348;-0.02369632;-0.2671388;-0.054694775;0.030359745;0.031235885;0.04787482;-0.1989427;-0.15799424;0.21405494;-0.1076699;0.26983413;0.026070137;0.076665364;-0.010226032;-0.04723023;-0.072637774;-0.044303473;-0.007327937;-0.076071724;0.03251014;0.03750592;-0.053044707;0.21589985;0.15694305;0.0077138566;-0.048716456;-0.39526156;0.11496289;-0.06664113;-0.075502284;-0.036549255;0.00015235554;0.013500804;0.023609363;0.042272877;0.05253445;0.21682906;-0.08339604;-0.38993832;-0.18950084;-0.036003258;0.13548522;-0.1058198;-0.15488361;-0.07286706;-0.062110703;0.051856346;-0.15659499;0.25401345;-0.06421184;0.0063935313;-0.23909114;0.074751236;-0.13655366;0.12470423;-0.050437137;-0.059807513;-0.109286025;-0.08273176;-0.36978695;0.1437027;0.2498428;0.23592362;-0.11913992;0.008629017;-0.026341196;0.16844918;0.23963049;-0.10327299;0.066860415;0.044003583;-0.009856334;0.1739706;-0.052019153;-0.09930587;0.06590702;-0.026785662;0.25829178;-0.023701167;0.0014388893;0.05687217;-0.04357958;0.088010594;0.05488156;0.045902833;-0.18703808;-0.06422051;-0.31952056;0.1741848;-0.16655155;0.08285249;0.06992954;-0.05668314;0.034161665;0.06178879;0.050844226;-0.19227922;0.03813808;-0.02810859;-0.19107978;0.02149216;0.035722796;-0.04256704;0.22560962;-0.040492352;-0.30340385;0.024916898;-0.16944957;-0.015296967;0.027816275;0.08107118;-0.008270534;0.17013584;-0.09012114;0.18433222;0.006074129;-0.13200644;-0.2179234;-0.27769968;0.011587465;0.04387024;-0.05710605;-0.0468195;0.049600083;0.05135538;-0.07440809;-0.036832083;0.29874286;0.006836021;0.14239044;0.045773145;0.033419825;0.21712865;0.051478848;-0.041786812;0.1366543;0.029415539;0.2571089;-0.023627287;-0.15074961;-0.12257101;0.30387083;0.054157868;0.10578774;-0.019454489;-0.004147301;-0.15609357;0.051251892;-0.15797015;0.25671467;-0.0528335;-0.023567664;-0.036318205;-0.1000633;-0.046150897;0.009683126;-0.056273043;-0.09423709;0.05359165;0.2844399;0.08144432;-0.016803732;0.20284633;-0.14674585;-0.051648203;-0.025379283;-0.2048552;-0.34773877;0.0182196;-0.20950176;-0.09023371;-0.19545373;0.027440432;-0.21278583;0.0063790344;-0.39096108;0.22327173;0.07284748;-0.060832754;-0.035401657;-0.026169099;0.029768277;-0.15121439;0.21231467;-0.12789306;-0.19269748;-0.009734831;-0.17032708;-0.03922046;-0.12612532;-0.01797122;-0.03916344;-0.018780362;0.18094331;0.017934345;-0.09152166;0.2244701;0.01555248;-0.022582836;0.2514604;0.056840494;-0.08584073;0.08674118;0.040109128;-0.021156166;0.12107049;-0.027993575;-0.09452782;-0.010076727;-0.034261115;-0.13078788;0.28863737;-0.0015970751;-0.059504483;0.34281483;0.06389966;0.24273555;-0.036905896;-0.09586376;0.10787898;-0.07241463;-0.21883462;0.0019891472;-0.034205284;0.115999065;0.017538214;0.13492057;-0.016225673;-0.09877182;0.08538261;0.16823064;-0.0298158;-0.03875366;-0.3451475;-0.045757487;-0.012228831;0.017002955;-0.16565244;-0.19909936;-0.13156678;0.016985439;0.12772888;-0.08556871;0.1188412;-0.0055795778;-0.048344184;-0.068352245;0.012208171;0.018056206;0.02368115;0.050533183;-0.0062877056;0.044431303;0.03739533;0.07337903;0.035153914;-0.18796214;0.029488549;-0.06670588;0.028531723;-0.3948832;-0.11294855;-0.01332783;0.021464694;-0.017358962;-0.19252591;0.062212996;0.084540226;-0.004968301;-0.078245856;0.10771025;-0.064475454;0.07833748;0.23677778;0.05690216;0.09307157;0.13015021;0.022324162;-0.20161633;0.08806122;0.16476043;0.0032397206;-0.020082345;-0.04992313;0.21259329;0.17029518;-0.028151896;-0.13342918;-0.028718526;-0.12907296;0.060652804;0.005953357;0.034621593;0.06875891;0.030121647;0.2575432;-0.05779841;-0.20481652;0.09408802;0.09862513;0.08090272;-0.2517371;-0.15361755;-0.021853684;-0.35774705;0.067941055;-0.056171976;0.19162789;0.0029212777;0.064369455;-0.21236458;-0.063201286;0.0030263027;-0.055117033;0.1045541;0.051515065;-0.06076667;-0.013085829;-0.010444554;0.112404816;-0.10650686;0.044701327;0.07570964;-0.28390262;0.029939998;0.27300093;-0.048900332;0.16179499;-0.20590216;-0.24585116;-0.004125291;-0.095724195;-0.15647927;-0.050511714;-0.2582841;0.2705357;-0.024245668;0.0079694055;0.039274897;-0.024395166;-0.048135042;-0.09888152;-0.08933317;0.05857578;0.17299801;0.17033678;-0.07155084;0.072216526;-0.034839835;-0.02414174
-0.04180178;-0.37391564;-0.21540587;0.26768506;-0.029888544;0.15409859;-0.16677175;-0.12662667;-0.005093895;-0.048632868;0.08009944;0.03308093;0.012062046;-0.04106548;-0.060528997;0.0038507844;0.16879778;-0.11457119;0.07718451;-0.00341635;-0.05669958;0.08864828;-0.08287756;-0.049304437;0.04635079;-0.049590316;-0.012526363;-0.07879753;0.098419085;-0.052969355;0.0917765;0.039171193;-0.020061377;0.02090812;0.026873872;0.06995176;0.0869149;0.19511175;0.03137192;0.10354581;0.02459944;-0.017371867;-0.10752014;-0.0030067493;-0.07464677;0.046765406;0.020536587;0.09516011;-0.100221984;0.06467033;0.029787581;-0.19551185;-0.1272557;0.06513234;-0.03687238;-0.04176271;0.050653707;0.010692404;-0.06778245;-0.3435722;-0.0027204065;-0.27723765;0.014860522;-0.15918042;-0.22681141;0.16261864;0.072310425;0.09185882;0.12740503;-0.057916965;0.10470563;-0.08726733;-0.062099397;0.15314165;0.053706914;-0.15206043;-0.03582767;0.15521969;-0.006190044;-0.0739044;-0.046126917;-0.49047238;-0.35466;0.16483203;-0.013161001;0.034916878;-0.48291078;0.024832334;-0.0058984654;0.051112264;-0.002012861;-0.11876104;0.032256782;0.07757909;-0.11570079;0.18264486;0.15237647;-0.026539192;0.095060885;-0.026702821;0.030595826;-0.03601773;0.12400533;0.008800327;0.03136299;0.1774926;0.025922097;-0.14241853;-0.060125113;0.017266322;0.20148729;-0.19818066;-0.19548455;-0.28448242;-0.18535446;0.118923746;0.08239498;-0.21700117;-0.07400317;-0.1316795;0.081544474;0.010442933;-0.301586;-0.035117008;0.0043012365;0.05805204;0.08963911;0.23148668;-0.02424926;0.06461699;-0.31169006;0.07361256;0.101313785;-0.041693937;0.03795708;-0.15340906;0.010138701;0.17406942;-0.04630785;0.012720886;-0.011363476;0.023455238;0.23402739;-0.5078893;0.07746799;0.13137655;0.3025511;-0.043567758;0.06277503;-0.28636676;-0.025125256;0.04169311;0.03329599;-0.08600931;-0.05255707;0.014515392;-0.048381492;-0.0050791563;-0.22879165;-0.060945123;-0.16732459;0.005081184;-0.06672939;-0.003575949;0.08080015;0.07254371;0.20453963;-0.08403366;-0.026502548;0.10249567;-0.20342849;0.068896614;-0.07409795;-0.12728766;0.003630837;-0.01131855;-0.03241819;-0.029112542;-0.02466304;0.061798982;-0.029944267;-0.10005334;-0.17624602;0.048829783;0.03883706;0.16757008;0.0032835442;-0.04059373;-0.21577857;0.0060115624;0.034901075;0.043027595;0.02892067;0.044074323;0.0472062;0.15895243;0.024398228;-0.035289373;-0.3932387;0.060370173;0.08577196;-0.24340317;0.009067136;-0.025498578;-0.35745996;0.07737159;0.07783891;0.008785301;0.08396221;0.03235314;0.025448151;-0.16566555;-0.0073636537;-0.08364983;0.16139725;-0.039487164;0.02756186;0.013470112;-0.074065454;0.0036015573;-0.030611433;-0.028516062;0.030497774;-0.02658095;-0.11631781;-0.060775336;-0.066115506;-0.28469026;-0.07107917;-0.029876538;0.054060694;-0.02822915;-0.26153514;-0.091127194;0.2501045;-0.23178263;0.22889204;-0.033939082;0.04238578;0.09224691;0.08153173;-0.022571225;0.055550274;-0.008913928;0.005688532;0.025850603;0.035394426;-0.0834677;0.16253434;0.17707196;0.06539903;0.09421137;-0.2397177;0.13879128;-0.14734161;0.07086587;-0.08192975;-0.01660538;-0.11293161;0.046720807;0.02306503;-0.0048685037;0.13685052;-0.11701371;-0.29731983;-0.24970727;-0.042809688;0.30430472;-0.1904644;-0.035997905;-0.032471985;-0.20215426;-0.00067920465;-0.12940635;0.25520363;0.06044628;0.034621313;-0.18630867;0.09436474;-0.186532;0.10684788;-0.10150869;-0.01759273;-0.121816784;-0.12973236;-0.36887065;0.21813874;0.19668292;0.15651082;-0.2518269;-0.050336473;0.01689441;0.06684901;0.23913632;-0.28276804;0.084814124;0.072795495;-0.07511045;0.1702668;-0.014163087;0.012134867;0.05012755;0.035621207;0.29408225;-0.028839443;0.0036212795;-0.01366359;0.07126572;-0.051546518;0.18779846;0.03574295;-0.13544121;-0.027420793;-0.3062653;0.19416049;-0.11848047;0.15313455;-0.011990621;0.025416367;-0.020084906;0.021322206;0.10763007;-0.27500188;-0.010364217;0.05722689;-0.26199263;0.020631744;-0.042029824;0.0018791374;0.34210667;0.0636226;-0.15085043;0.061945397;-0.14298064;0.04709008;-0.043582026;0.16507587;0.013605778;0.29932028;-0.05836167;0.15936114;-0.020662993;-0.03567296;-0.29372606;-0.24550071;-0.026005315;0.026874285;0.03724592;0.011280839;0.05404527;-0.08291044;-0.16763514;-0.119569995;0.30252033;-0.025477381;-0.047228243;0.10549173;0.047359277;0.27896813;0.060877394;0.07121795;0.04720781;-0.007667148;0.24432603;0.028621256;-0.158811;-0.14152378;0.42895;0.08174594;0.13191243;-0.018381724;0.0462316;-0.17709582;0.03726038;-0.24003282;0.1527598;0.052454032;0.012345332;-0.045185834;-0.14914969;0.07087734;0.0015077816;-0.0729997;0.005716117;0.015918095;0.3275485;0.037881535;-0.081603125;0.22741386;-0.24799338;0.0155031225;-0.027289385;-0.16511676;-0.4072553;-0.037295222;-0.15726715;0.053721912;-0.19640413;0.06511194;-0.12938246;0.067486376;-0.42445618;0.18066597;-0.03518805;0.0031616054;-0.00037409042;-0.19390737;-0.014880237;-0.23706883;0.19984917;-0.16999857;-0.18611202;0.02106307;-0.12625399;-0.007795459;-0.0492036;0.047129363;-0.14400944;-0.08269943;0.10619732;0.06403507;-0.0690769;0.17067733;0.027137835;-0.0615001;0.17109776;0.034418035;-0.015729958;0.08031558;0.00632722;0.013952983;0.0055626477;0.026737731;-0.010021854;0.026414867;0.11765826;-0.115163736;0.38675454;0.02514105;-0.036280807;0.3559483;0.055206362;0.198636;-0.03213217;-0.08454523;0.0985507;-0.12044704;-0.098245956;0.018205453;0.023393568;-0.009699715;-0.10474522;0.16770416;-0.04244291;-0.15930307;-0.014095215;0.11646205;-0.08549702;-0.20099497;-0.430064;0.055983063;-0.02847123;0.018023659;-0.16880709;-0.2565476;-0.2504487;-0.03642564;0.16507016;-0.2538473;0.030973028;0.04539331;0.03122555;0.023165949;0.002226545;-0.15295829;0.07015898;-0.053288642;0.027308553;-0.1475898;-0.028234903;-0.018366588;0.06984834;-0.1494137;-0.051415134;0.0050868485;0.05593261;-0.51181;-0.1296419;0.107246675;0.0062546562;0.019390315;-0.13296984;-0.120383464;-0.04037577;-0.06894414;-0.10666892;0.14825624;0.06375947;-0.050350163;0.17362015;-0.029807001;0.059923615;0.056657758;0.06587795;-0.031061988;-0.0045207813;0.16312438;0.03399088;-0.0018402974;-0.017021516;0.2192064;0.2491093;-0.045865588;-0.11312658;0.04440801;-0.14466964;-0.04115869;-0.055285838;0.073948346;0.0819976;-0.10640111;0.10945632;0.015935829;-0.16720386;0.097487174;0.10502545;0.109770186;-0.22027558;-0.1300184;-0.007802985;-0.31525084;-0.06549998;0.015605679;0.23177634;-0.01109386;0.06862528;-0.20362815;-0.041046597;0.046293974;0.01747873;-0.024869634;-0.04127952;-0.015316499;-0.028479878;-0.033827797;0.02240867;-0.19917233;-0.019168293;0.087009646;-0.29699168;0.08444613;0.25223476;-0.047528133;0.15863292;-0.110149875;-0.21524063;-0.05576494;-0.1242217;-0.18710946;0.0016084529;-0.24082883;0.27876344;0.039122663;-0.04255489;0.0038614708;0.015871458;-0.068120345;-0.03574073;-0.10242455;-0.044099726;0.13090076;0.16843645;-0.092116244;-0.011075234;0.059210405;-0.13191901
-0.12445505;-0.39942673;-0.17287728;0.11160054;-0.013232994;0.13363747;-0.17463954;-0.15187034;0.026083998;-0.11953737;-0.03793545;-0.019073753;0.10263832;-0.10845406;0.0065036514;0.10652475;0.014781143;-0.15898527;0.0686703;-0.023761189;-0.037406273;-0.051050834;-0.22024585;-0.04449744;-0.040119637;0.05846733;0.065423794;-0.06067118;0.13953431;-0.0015166495;0.068942055;0.04360728;-0.048883572;0.1518972;-0.026595885;0.1632843;0.012798653;0.13649741;0.078371845;0.0375702;-0.043738913;0.08278032;-0.07905278;-0.19443497;0.07446882;0.08674028;0.006234269;0.07076341;-0.19226244;-0.03845151;0.032120727;-0.11257422;-0.2028432;0.0055571604;-0.024603635;-0.01031642;0.049981646;0.19093007;0.041634507;-0.31489468;-0.0035080612;-0.20367621;0.010216612;-0.17302026;-0.22242668;0.1437842;0.07904485;0.15998039;0.07428643;0.053471103;0.15498878;0.021602357;0.03338721;0.28881204;0.07784345;-0.22955966;0.039129276;0.13943614;-0.053441174;-0.011918207;0.009154439;-0.35518077;-0.39655724;0.20670615;-0.002515808;-0.007909172;-0.42436755;0.012142245;-0.072000936;-0.04278153;-0.018448861;-0.11855069;0.03678906;0.12177345;-0.087189816;0.2285412;0.1444655;0.13608648;0.0037687963;-0.044901744;-0.031005636;-0.08863695;0.041354436;-0.0011750518;-0.044508424;0.24235459;-0.013056884;-0.17663404;-0.12626112;-0.052081246;0.21173744;-0.16992953;-0.17164204;-0.30656305;-0.10845746;0.06839211;0.09474192;-0.31628683;-0.020668129;-0.06374058;0.10578364;0.0062553906;-0.30163786;-0.02282594;0.01743768;-0.06529983;0.1670145;0.323394;0.013865629;-0.10546753;-0.34628323;-0.010923918;0.079958655;-0.01862257;0.02271479;-0.20447057;0.012727007;0.17936559;0.08962175;0.0025601862;0.12530576;-0.059292786;0.31309637;-0.620816;0.029287387;0.11653946;0.2215329;0.025099969;0.17489359;-0.18665949;0.012909667;0.009583348;0.0055984505;-0.13752237;-0.019101255;-0.026522556;0.082810424;-0.109400794;-0.2602026;-0.05140639;-0.16716744;0.022945484;-0.024120767;0.02642141;0.048714474;-0.022429438;0.27829856;0.035799433;-0.0053557656;0.13511159;-0.2349803;0.040543307;-0.07297423;-0.24613677;0.17890154;-0.015311938;-0.042120233;0.08588049;-0.15050645;-0.03414662;-0.08193948;-0.19738162;-0.24690272;0.04176334;-0.06334332;0.13964808;-0.028331157;-0.016782202;-0.28746957;0.0149029605;0.082295;-0.042849433;-0.027964674;-0.08440526;0.00833206;0.1256791;-0.010044324;0.08361356;-0.4539606;-0.01224697;0.09922435;-0.1585401;-0.12471355;-0.00088175555;-0.4351853;-0.03621656;0.038752288;0.03354449;0.16553289;0.02023336;-0.036714442;-0.20946309;0.0038977033;0.004782961;0.19148865;0.012664303;0.0022709554;-0.0784559;-0.11261452;0.026866464;0.020092683;-0.022554329;0.082116015;0.06428124;-0.08451118;-0.020382855;-0.06633254;-0.37522355;0.07764268;-0.19338472;0.15621667;0.03810336;-0.18822512;-0.2387452;0.29445168;-0.1868807;0.14327057;0.0130501855;-0.023336299;0.04414498;0.05653084;-0.07307843;-0.03204362;-0.07032996;0.08523529;-0.064262666;-0.002887411;0.05062204;0.20025761;0.23792428;0.030550556;0.031899374;-0.13866292;0.17248939;-0.16526258;0.06657484;-0.12588693;-0.029542329;0.07852225;0.029411402;-0.05626066;-0.0076628714;0.11142983;-0.121538274;-0.37041467;-0.28522927;-0.03742331;0.20734413;-0.22709744;0.007651878;0.09780769;-0.17376767;0.024927728;-0.10323547;0.30171448;-0.058551468;-0.046941116;-0.28190902;-0.033116538;-0.15900508;0.18683596;0.010512149;0.03940227;-0.17536488;-0.086719275;-0.27525377;0.22785528;0.14394133;0.2898903;-0.13780433;-0.03245948;-0.003944296;0.082552865;0.2941466;-0.3472743;0.18524289;0.034607306;-0.0042633642;0.038559236;0.011544405;-0.03747973;-0.02396494;-0.0062076002;0.27618375;-0.052148707;0.07333533;0.04997662;0.004697282;-0.03115104;0.1643627;0.017506644;-0.08819353;0.07617133;-0.18001376;0.09331088;0.052127466;0.27657285;0.01864077;0.11431879;0.050915778;-0.028548628;0.002995582;-0.19692077;-0.044816118;0.05418818;-0.21780288;0.036231674;0.068344966;0.06579978;0.3446464;0.024819102;-0.21212974;-0.14256929;-0.24290751;-0.06953963;-0.048597395;0.1334477;0.05468282;0.30400756;0.06464539;0.1262849;-0.050406598;-0.09334978;-0.19898653;-0.30665383;-0.009349493;-0.043248054;-0.054507118;-0.060755484;-0.015548396;0.07394355;0.013560225;-0.082775585;0.3320559;-0.0012335879;-0.036697123;0.10655703;0.099089056;0.29579803;0.047516704;-0.043000914;0.15602995;-0.019822415;0.23482065;-0.034061525;-0.05993625;-0.033692665;0.33795327;0.016670486;0.03798417;-0.08722847;0.06492238;-0.052206233;-0.023892285;-0.17889027;0.10596299;0.0379129;0.03128128;-0.063531734;-0.19026619;-0.033599257;-0.0044229133;0.07457109;-0.09896657;-0.038036224;0.2974461;-0.05630005;0.0006628951;0.3246144;-0.16742577;-0.057779826;-0.027856821;-0.16332796;-0.4091109;-0.025405891;-0.18353607;0.04422502;-0.28275144;0.045876008;-0.14298739;0.021047268;-0.49946967;0.2589703;0.016234366;0.06695537;-0.079212755;-0.15640555;0.0032275345;-0.30798158;0.22792557;-0.11628848;-0.28918132;-0.06265773;-0.15246204;0.08562899;-0.052274622;0.0035148428;-0.0831692;0.06143123;0.0019349954;-0.07154696;-0.14479655;0.12674327;0.07276682;-0.016191866;0.1742154;0.16196401;0.042829137;0.16289593;-0.060954664;-0.015958805;-0.054687425;-0.059692305;-0.12203524;0.017264837;0.0378907;-0.10709155;0.31592777;0.053712342;-0.0036941234;0.19358274;0.016839169;0.20473441;0.07945192;-0.046829876;0.14204152;-0.101511516;-0.10508482;0.10566569;-0.06614396;0.078382745;-0.101119354;0.17205726;-0.044733975;-0.1300747;-0.013767232;0.12850465;-0.04211882;-0.12055856;-0.3553203;-0.09716014;0.0005360611;0.05400128;-0.29240584;-0.37891805;-0.21934246;-0.024698196;0.3163639;-0.20736624;-0.051494442;0.011668361;0.07920992;0.024306072;0.07525744;-0.13129845;-0.031130979;0.020585522;0.04806851;-0.100282334;0.009515914;0.10968517;0.06413846;-0.06656976;0.058836315;-0.07509194;-0.02429699;-0.48829103;-0.18302508;0.039624207;-0.004666634;0.067501165;-0.13450384;-0.23313223;0.066312425;-0.014190524;-0.17988437;0.13819954;-0.01934435;-0.006369507;0.22914527;-0.03513653;0.045395177;0.055401955;-0.039880943;-0.0622907;-0.057484485;0.23065445;0.002818596;-0.053572852;0.01383586;0.112365685;0.13762711;0.011264875;-0.042519063;0.027549569;-0.06577386;0.082128845;-0.12840064;0.04431612;-0.006819938;-0.1156234;0.15831862;0.05761048;-0.22466147;0.13834538;0.12638153;0.11304082;-0.10596242;-0.068591096;-0.04577284;-0.29909745;-0.06337134;-0.061378844;0.26465982;0.026425555;0.012125155;-0.21710227;-0.015607057;-0.06773476;0.0013086107;0.087373585;-0.043637063;0.08295333;0.034559075;-0.056714922;-0.027951846;-0.24161883;0.011709456;0.14590284;-0.14204809;0.022478921;0.21234865;0.063847445;0.18080713;-0.05301095;-0.20394932;-0.15580626;-0.017034063;-0.07155899;0.026205394;-0.30019453;0.32046527;0.10055429;0.005372754;-0.012390013;-0.07403043;0.06521407;-0.0720833;0.0004640037;-0.062006854;0.06160152;0.25922942;-0.124496244;0.06350619;-0.0015921961;-0.083173275
-0.16299176;-0.45928052;-0.023742605;0.14663476;0.018738583;0.20664355;-0.06079403;-0.13478859;0.025527092;-0.17019008;-0.01674132;0.0024391585;0.12994629;-0.06554434;-0.04450862;0.021318026;-0.014752627;-0.23652895;0.015454095;0.06848498;-0.10600174;-0.01618192;-0.16486992;-0.06990199;0.08570819;-0.01332885;0.008623267;-0.06845534;0.2202882;0.056129824;-0.0025352498;-0.076526135;-0.025826914;0.19771852;0.11838066;0.06544523;0.008161157;0.17923158;0.020389365;0.1390288;-0.012765986;-0.06007277;-0.17948161;-0.25858128;-0.02415543;0.0899215;-0.0214209;0.12718205;-0.24870211;-0.013915322;-0.05845208;-0.060266137;-0.12157819;-0.0741228;0.075932786;0.00055294397;0.037282377;0.0137165645;0.0038639265;-0.3353227;0.028564196;-0.15277642;0.019725114;-0.31810844;-0.2599077;0.004258439;0.0654371;0.128099;0.123464555;-0.038093936;0.18097115;0.03579158;-0.018625073;0.27936476;0.14291507;-0.08214443;0.02834091;0.11557671;-0.09569387;-0.056209236;0.044172656;-0.4211339;-0.37203383;0.21772486;-0.07048284;0.03805561;-0.2870574;-0.07782638;0.0063069826;-0.04674174;0.05891581;-0.19000638;0.017466212;0.13758123;-0.041250084;0.23783258;0.007227893;0.15963168;0.012739945;0.0061437297;0.042238563;-0.09613069;0.0028464873;0.0637427;0.033746153;0.20394202;-0.0031029512;-0.07097004;-0.23181427;-0.040247116;0.11935827;-0.14383882;-0.058500703;-0.32178035;-0.050419997;0.13894351;0.024686327;-0.19828577;0.06333193;-0.07563782;0.12074843;-0.0062804883;-0.33389777;0.029480867;-0.011911574;-0.031361893;0.21773544;0.34313822;0.053842507;-0.061842512;-0.45542765;-0.018415188;0.13140662;-0.011463661;0.05585241;-0.091405354;-0.046998;0.10912175;-0.03494391;-0.07187855;0.08624975;-0.1654648;0.29101625;-0.6380778;-0.05156405;0.04598616;0.3082093;-0.028311156;0.21624635;-0.32160094;-0.0383082;0.06251258;0.014566119;-0.27377978;-0.06770915;-0.021509673;0.007688032;-0.1552155;-0.15393217;-0.0036249226;-0.26857626;-0.045887336;0.11047713;0.042634945;0.01000547;-0.08855822;0.26292202;0.044689946;-0.07607751;-0.009099865;-0.16075708;-0.061871838;0.035462707;-0.31708336;0.18113387;-0.0053625787;0.030769655;-0.050062656;-0.058974948;-0.044317525;0.031169679;-0.2706217;-0.1462612;0.08067761;-0.05935957;0.026017373;0.04369437;-0.060746327;-0.16924797;-0.059466645;0.031740095;0.020059517;-0.11563331;0.050780818;0.060458284;-0.022753762;0.051679067;0.02263794;-0.3850192;-0.005544263;0.1105304;-0.24628837;-0.2743481;0.022138413;-0.42747915;-0.020486271;0.08417588;0.028297951;0.19553035;-0.044791933;0.024071962;-0.07680468;-0.03459811;0.031277187;0.068546526;0.07730523;-0.035108004;0.011605417;-0.19049463;-0.023647929;-0.070691586;-0.07529063;0.06702129;0.012093535;-0.14107858;0.025026364;0.007077713;-0.21981153;0.026824692;-0.12355064;0.16832656;0.051042322;-0.10224836;-0.15733686;0.2216301;-0.19004785;0.20257144;0.021105425;-0.08585136;0.015924549;0.020256318;-0.025301214;0.03539295;-0.019304348;0.06547512;0.053577237;-0.06078729;-0.104603514;0.1550445;0.112571664;-0.033677217;0.16731739;-0.15361688;0.23598574;-0.063218564;0.0881842;-0.08120668;-0.012471948;0.013528077;0.047725037;0.01629177;-0.01094669;0.032352608;-0.13352308;-0.28214192;-0.28936172;-0.09798733;0.2756003;-0.13103588;-0.09847526;0.2967452;-0.27278182;0.012921802;0.050581224;0.102567144;0.0145349465;-0.011565986;-0.14394026;-0.0062727714;-0.16815588;0.17697808;-0.0674936;0.07264185;-0.032633446;-0.21506713;-0.23533268;0.2989856;0.15184903;0.26366034;-0.08872127;0.028068045;-0.010399841;-0.027724104;0.2348697;-0.33335906;0.20012988;0.09312129;-0.04284782;0.11840114;0.037922256;-0.07175489;0.010834535;0.028558511;0.2579737;0.040334128;0.035714198;-0.06982103;0.053853422;-0.004788271;0.09177827;-0.031768404;-0.117522575;0.04765879;-0.14152753;0.07209668;0.067981854;0.13517594;0.076243326;0.14091416;0.03986358;-0.042031188;-0.02322462;-0.14509995;0.019945526;0.020193858;-0.18203935;-0.032499734;0.056920465;-0.058018766;0.3104346;-0.018467512;-0.09768755;-0.15806605;-0.23292606;-0.013650088;-0.0018078771;0.07757153;-0.081736416;0.26058885;0.0126997465;0.13211001;-0.019459179;-0.03449281;-0.25769165;-0.2616137;0.014072412;0.0484176;0.07139296;-0.0016247535;0.036607295;-0.086537376;-0.071102984;-0.17879139;0.2842501;0.057076633;-0.101289906;0.13954525;0.12303954;0.21262391;0.10962326;0.06303222;0.124860406;-0.019486247;0.13972764;0.025371794;-0.004576726;-0.11401378;0.25651363;0.010155721;0.06947229;-0.12204652;-0.020075025;-0.101953276;-0.026893498;-0.10761849;0.13018516;-0.0011387131;-0.08933751;0.071800604;-0.21340926;-0.019980593;-0.050236963;-0.03751816;-0.067965955;0.01647521;0.29767346;0.01027191;-0.012863745;0.29939654;-0.20413835;-0.079915024;-0.06606165;-0.1592903;-0.29509896;0.06480221;-0.12415627;0.029313661;-0.23843254;-0.04230213;-0.004706271;0.007749961;-0.42297056;0.20939468;-0.14234662;0.07560639;-0.13565488;-0.21752045;-0.06618954;-0.17742717;0.124110356;-0.006265893;-0.2892858;-0.06747818;-0.14831233;-0.061404888;-0.06999624;0.027697617;-0.11270524;-0.06408671;0.031058123;-0.0028479437;-0.08084455;0.19307537;0.017712962;0.026086597;0.1298694;0.14032762;-0.03666428;0.16185717;-0.20535055;-0.046095777;-0.014467421;0.011813284;0.0056497306;0.019114504;0.05510491;-0.09357158;0.39537477;0.13693938;0.0523625;0.16111368;0.15997525;0.22200881;-0.062721;0.003323936;0.108270384;-0.0963939;-0.114562824;0.13262971;-0.0031412013;-0.052644473;-0.036871936;0.14283504;-0.020992758;-0.12369013;-0.067341566;0.16317599;-0.0020637074;-0.1368673;-0.37307262;0.0051801517;-0.006841129;0.040894132;-0.2759981;-0.4160158;-0.27834767;-0.0787775;0.21844092;-0.14688246;0.12797306;0.027059892;0.032101266;-0.05497965;0.08018577;-0.14569941;0.0036154536;-0.033468474;-0.059980433;-0.09885743;0.050531812;0.15746675;0.1171166;-0.15185773;-0.0036908754;0.066130005;0.030859366;-0.3905292;-0.10753055;0.0128239915;-0.115273654;-0.013504061;-0.18974854;-0.22925043;0.00038717425;-0.07985207;-0.11450931;0.14315335;0.013447998;0.078259684;0.14388317;-0.035710994;0.059870172;-0.024331532;0.02542068;0.003997818;0.018432075;0.12553348;-0.026599856;0.042483553;0.031031618;0.15335383;0.22824356;-0.029177548;-0.22718059;-0.055733364;-0.026609858;-0.018843554;0.021466957;-0.0053006583;0.054282255;-0.08240667;0.14364651;-0.0012952185;-0.21748868;0.1274498;0.10430424;0.1842339;-0.121358454;-0.08190211;0.014593289;-0.27750972;0.053921632;0.0879665;0.21153396;0.063028626;-0.03407261;-0.26488054;-0.020533826;-0.002682499;0.08717901;-0.0074355262;0.06494288;0.07105843;0.010913001;-0.04804355;0.038741518;-0.2445254;-0.028594058;0.15633178;-0.23899929;0.00026921203;0.2098161;-0.016269771;0.13751176;0.027684456;-0.13188255;-0.15950193;-0.0991185;-0.06383939;-0.062341183;-0.3749341;0.20151502;0.084401414;-0.041617442;-0.062327072;0.0029300512;-0.013719551;-0.1459132;0.012366823;0.041619968;-0.03883649;0.23515992;-0.118806444;-0.06353028;0.0202285;-0.17503442
-0.20582022;-0.3624293;-0.14718658;0.08998066;-0.059343334;0.18053758;-0.19827242;0.07453926;-0.052105267;-0.13673507;-0.019111061;-0.007925795;-0.0792996;0.11323813;-0.04974379;0.04321024;0.03334077;-0.22071329;-0.07650101;0.1028095;-0.08756554;-0.06441072;-0.40470207;-0.024898242;0.07463531;-0.03146771;-0.03216056;-0.05971608;0.0332025;0.09409931;-0.009878988;0.01491902;-0.023336377;0.15557553;0.08793451;0.09841922;0.093089454;0.17057517;0.02218361;0.016339742;0.03346415;0.017892994;-0.19911659;-0.25273752;0.0776423;0.16491513;0.06442702;0.08757644;-0.15726794;-0.037382297;-0.035797037;-0.008693736;-0.012524127;0.058336284;-0.00011277056;-0.11923237;-0.005361592;0.042857602;0.08750461;-0.32806167;-0.078170456;-0.2385226;-0.04439735;-0.29749763;-0.04731653;0.09919335;0.0073836045;0.08710786;0.21117628;0.051985674;0.16315375;0.065248854;-0.039093595;0.19916637;0.100959435;-0.118389815;0.011367989;0.08896699;-0.08257688;0.048125528;0.017676467;-0.38432348;-0.4984809;0.24947539;0.064163566;0.019709516;-0.22512989;0.059665337;0.021343399;0.0032581214;-0.01548323;-0.1648911;0.015398216;0.18420835;-0.1235056;0.24725664;0.084023476;0.068023235;-0.0060264505;0.013668818;-0.023077149;-0.06916391;-0.002266025;-0.034585264;-0.15068056;0.22938561;-0.067302674;-0.14533083;-0.108712785;-0.030049682;0.19346856;-0.19542411;-0.063002236;-0.30361208;-0.031127496;0.16752887;-0.09232357;-0.24410379;-0.0064923214;0.012240718;0.20643348;-0.04384867;-0.28117457;-0.0127334725;-0.050275892;0.07434494;0.24694504;0.3414423;-0.09179975;-0.04826017;-0.48197943;0.016412642;0.13646075;-0.118478045;0.009988249;-0.2400172;0.05496582;0.079471774;-0.027077178;-0.05816492;0.12685476;-0.24785511;0.2125404;-0.56876665;-0.0644434;0.039456215;0.1751328;0.0859502;0.17477621;-0.15590407;0.043403145;0.0966787;-0.042301476;-0.20178135;0.03690988;-0.03164353;0.023075974;-0.22986394;-0.11792697;0.044799432;-0.2765949;0.030239826;0.1454595;0.041589674;0.016337357;-0.083808064;0.21945101;-0.022758963;-0.071964964;0.04923123;-0.07532392;-0.021142734;0.056781966;-0.21617962;0.29950815;0.07732707;0.055190258;0.009286293;-0.14908013;-0.002570755;0.030546634;-0.24718556;-0.098401114;-0.029784491;-0.11036311;0.062168244;0.008201489;-0.0025929548;-0.2729334;0.049723327;0.0817704;-0.055045374;-0.04855933;0.045213375;-0.06967741;-0.027435144;-0.05222437;0.08290386;-0.62927634;0.027041811;0.23913878;-0.29072922;-0.44576854;-0.025484985;-0.48601902;-0.024238028;0.06951458;-0.023734255;0.18958583;0.025549013;0.054077614;-0.13594522;0.016025955;0.053153984;0.11855219;-0.010543787;0.080896914;0.061071783;-0.2128327;-0.0056391563;-0.12719941;-0.024636243;-0.018113133;-0.0111618005;-0.15270641;0.06634655;0.00093736756;-0.28643557;0.029080693;-0.0643787;0.183604;-0.051857535;-0.12041793;-0.11205836;0.24951088;-0.113671735;0.16317296;-0.0023528913;-0.121292315;0.1496649;0.031130582;0.031190284;-0.028922135;-0.010712968;0.12072691;0.009370783;0.022383077;-0.073337436;0.30086097;0.028854856;-0.04482924;0.11681903;-0.06430213;0.19374533;-0.011001167;-0.007073162;-0.015239934;0.058898073;0.0038902564;0.038342707;-0.022115467;0.01167417;-0.08879281;-0.19016102;-0.24892129;-0.3772824;-0.097264014;0.24936126;-0.13158545;-0.13110654;0.24608296;-0.27893326;-0.070914;-0.055068366;0.095339924;0.050996482;-0.033408683;-0.2024664;-0.041868076;-0.096305005;0.28695232;0.060442667;-0.03325718;-0.094807066;-0.1655105;-0.10684162;0.24660547;0.12885821;0.21354395;-0.09569851;-0.05980211;0.074495;-0.054815404;0.06914044;-0.273429;0.24344403;0.08400463;0.06340095;0.0035017394;-0.006381652;0.027241655;-0.02685674;0.022225903;0.21761602;0.02017997;0.0997587;0.01108758;-0.04607916;0.06264562;0.119066454;0.07015853;-0.08831265;-0.028874489;-0.055896346;-0.06309763;0.0926851;0.25203907;-0.023249086;0.20095922;0.0553884;-0.035597652;-0.0014599051;-0.24493642;0.0098447595;-0.04950489;-0.16936283;-0.06647831;-0.012315238;-0.022210713;0.18888699;-0.029439788;-0.24660671;-0.19273038;-0.24580778;-0.011711794;0.040091902;0.14762463;-0.009395921;0.19599448;-0.028427247;0.119686246;0.041010205;0.013218835;-0.19418934;-0.20495939;0.039635994;-0.029870644;-0.0067917956;-0.0010773458;0.07004413;0.03997697;-0.076594226;-0.20633514;0.31170374;-0.0051866486;-0.069161706;0.06929454;0.16100897;0.28382075;0.07795598;-0.05798943;0.08814036;0.010531543;0.14097568;0.10151814;0.03310567;-0.0010818297;0.2925597;0.11127403;-0.056994148;-0.19560602;0.13886158;0.03942012;-0.008846885;-0.094368085;0.14061883;-0.113614134;-0.124043174;0.0005927326;-0.36811557;0.016856572;0.018048335;-0.0453895;-0.122569755;0.011327104;0.12978739;-0.038615253;-0.04395552;0.101538695;-0.22598606;0.088764645;-0.060987443;0.009401698;-0.37826425;-0.026768794;-0.14183408;-0.017116211;-0.16882111;-0.04219073;0.015303222;-0.0036931145;-0.43899447;0.14738646;-0.018248636;0.15532734;-0.19644897;-0.17789134;-0.004173353;-0.15457293;0.17812355;0.033277296;-0.35192427;0.046915732;-0.10486313;0.030257864;-0.1316863;-0.041540038;-0.031655744;0.025702609;0.09064594;0.033897635;-0.1789759;0.2019384;-0.11378795;0.040161546;0.12977023;0.096056595;0.032551963;0.26063892;-0.10409165;0.032859687;-0.012878434;0.03900565;0.00033465432;-0.0022757964;0.11774771;-0.066871725;0.26360863;0.22539741;-0.01358922;0.082084656;0.14675641;0.3434611;-0.013089664;0.025568405;-0.015077263;-0.18284217;-0.09082807;0.104650296;0.018238261;0.052336138;-0.101658486;0.078860536;-0.028555352;-0.07484562;0.088405326;0.05613256;0.03915584;-0.24468242;-0.42526513;0.122144274;0.010786898;0.020506538;-0.39957345;-0.18192308;-0.16420415;-0.13362037;0.2519498;-0.1434;0.1365527;-0.0040413854;0.04599916;0.035716683;-0.056502704;-0.21845499;0.03997198;0.07155119;-0.010725566;-0.18490326;-0.080240004;0.06030215;-0.026296573;-0.090624556;0.16761483;-0.017085984;-0.015042251;-0.24934319;-0.1871765;0.029364575;-0.03158472;-0.046930943;-0.03215368;-0.13502373;0.06534411;-0.07437702;0.0654818;0.034586202;-0.011987594;0.07005242;0.16118217;0.018072093;0.023020325;-0.06722828;-0.033262093;-0.06737076;-0.009963399;0.10164253;0.007144957;0.02543377;0.055933695;0.09651414;0.1514488;0.038392384;-0.1621225;0.0564916;-0.025869768;0.014963025;0.102419645;0.055220407;0.04548882;-0.028803233;0.1375027;0.03002503;-0.18532625;0.02108586;0.035383064;0.03067973;-0.084945485;0.0020696283;0.019414702;-0.39275166;0.029403603;-0.0051889834;0.1633121;0.08423546;-0.052418523;-0.25349325;0.060153957;0.054291073;0.2398479;-0.036009893;0.034511577;0.10823534;-0.07367934;0.07903122;0.10848731;-0.17173657;-0.047448337;0.054688662;-0.110595584;0.06345383;0.13409786;-0.03349478;0.17364372;0.065019235;-0.12819435;-0.15703657;-0.023892706;-0.23807979;-0.020462545;-0.39329103;0.2462866;0.0510737;0.0065223128;-0.009866095;0.0035448575;-0.07238122;-0.098057784;0.03160702;-0.0008020728;-0.03565684;0.21247907;-0.116795905;-0.050030373;0.017439831;-0.22253262
-0.22996326;-0.25872764;-0.12758592;0.22126707;0.049461406;0.17653213;-0.1890365;-0.028769055;0.010672138;-0.0061546434;-0.024348177;0.023564657;-0.10349157;0.053426392;0.035016708;0.048183624;0.040187303;-0.18933606;-0.09104037;0.10504642;0.09816227;0.024107786;-0.30307865;-0.011950535;0.0035513514;0.09073732;0.022033446;-0.1123564;0.009626131;0.03703854;-0.0285328;-0.013138663;-0.069359675;0.125664;-0.014854923;0.099783;0.075159065;0.12572703;0.04277567;0.06841674;0.004295995;0.008238275;-0.06460403;-0.24088852;-0.047166783;0.108783215;-0.039530374;0.15462321;-0.09759196;-0.004576942;0.013742163;0.04569988;-0.07274513;0.009915825;-0.00033313138;0.032955784;0.073085345;0.121729136;0.10445315;-0.25125095;0.07151829;-0.19024071;-0.024148468;-0.38120234;-0.013096513;0.070685074;0.06335597;0.12146256;0.08315236;-0.038012955;0.03215109;-0.0022143577;0.061201558;0.15640078;0.12422378;-0.05477506;0.028197762;0.063603945;-0.11773684;0.029397424;-0.053942177;-0.29911137;-0.4452525;0.31104517;0.012115115;-0.05433108;-0.20607492;-0.010100148;-0.078406915;0.0054576616;-0.049181722;-0.12193;0.06908934;0.17054258;-0.12720568;0.2609866;-0.039074;-0.035193138;-0.04468498;0.0017009662;-0.042838253;0.040573645;0.015202183;-0.026202144;-0.023235181;0.22591676;0.02391235;-0.14776313;-0.07475472;0.07439387;0.097731575;-0.14015676;0.0106967725;-0.38410842;-0.010893649;0.146598;-0.11055513;-0.19948286;-0.0052595693;-0.10210688;0.09704743;0.071515895;-0.28057387;-0.026189608;0.050997246;0.022044064;0.04598893;0.29780927;-0.0547094;0.047562912;-0.42019117;-0.075648345;0.1892464;-0.14485998;0.01758833;-0.31027633;-0.029021248;0.091453396;0.001831492;-0.05915695;0.022647405;-0.052022487;0.10608567;-0.52716297;-0.06604753;0.09581598;0.15326953;-0.040767416;0.2556298;-0.18103595;0.021165535;0.07959902;0.027009698;-0.37177008;-0.020261105;-0.032892536;-0.013732941;-0.19260897;-0.1617029;-0.07800807;-0.1794206;0.00015751849;0.035273608;-0.08612068;-0.047407728;0.033100802;0.2687655;0.038867388;0.031278104;-0.040797517;0.035204146;-0.029912718;-0.04831566;-0.12920693;0.21239257;0.09189361;-0.0012580481;0.0021092356;-0.12915383;-0.033776753;-0.002968795;-0.27521446;-0.1842098;0.09154553;-0.03703416;-0.026717352;0.014743636;-0.037881695;-0.09432845;0.0573779;-0.036842488;0.028420636;-0.04832827;0.029894521;0.080809794;-0.042902023;0.0663979;-0.015208212;-0.5395983;-0.07697905;0.16648374;-0.411518;-0.45153534;0.0066287904;-0.40511596;-0.05160393;0.017976575;-0.055533342;0.22342242;0.057765782;0.056124207;-0.006317782;0.05962479;-0.09844228;0.09593503;-0.00797469;0.061846647;0.13448307;-0.22811405;0.09542514;0.031976108;-0.03729874;0.12912981;-0.013241548;-0.14123167;-0.050237235;0.021587461;-0.1011783;0.013425411;-0.034065574;0.13054457;0.060723636;-0.050509218;-0.12771405;0.16631034;-0.08294618;0.072651096;-0.012101975;-0.2343773;-0.019339994;-0.054749247;0.0072079794;0.027991747;0.13956136;0.17291434;-0.061642542;-0.06266926;-0.065295346;0.3008014;0.10837835;-0.0046853367;0.14671825;-0.0039233537;0.19800466;-0.011486735;-0.022860195;-0.05594905;-0.07781542;0.10811742;-0.02889103;-0.05677218;-0.06324376;-0.096585274;-0.095928274;-0.26264438;-0.37315565;-0.14531079;0.18787237;-0.20920423;-0.065057136;0.2510889;-0.20625961;0.08065669;0.0114644095;0.0534139;-0.055867102;0.009973764;-0.11983451;0.072139464;-0.117120095;0.16737254;0.15191709;0.08846456;0.051121157;-0.14962435;-0.10085303;0.09480898;0.060149673;0.18988891;0.0052127284;0.07387562;0.108510144;-0.020388253;0.13188624;-0.25362536;0.14367107;0.1768402;0.023107428;-0.03650259;-0.01626193;0.037604216;-0.019252062;-0.11074558;0.27203155;-0.0491513;-0.017139481;0.02556487;-0.00989066;-0.034652553;0.21142863;-0.06238171;-0.16898426;0.009677225;0.0069053452;-0.03745196;0.0941592;0.24305372;-0.092778236;0.20600243;0.010630956;0.07726323;-0.0696391;-0.21626619;-0.074308716;0.0033598715;-0.089018986;0.025977707;-0.068473384;-0.05442087;0.1801917;0.021406244;-0.28905758;-0.095128365;-0.253466;-0.05408184;0.059803378;0.056770805;0.00945473;0.30868918;0.01193429;-0.03411369;0.043495916;-0.021815702;-0.287219;-0.008058543;0.08906388;-0.049417913;-0.0016030663;0.02059068;-0.04407319;0.016822373;0.065892994;-0.2159095;0.327886;-0.0813667;-0.0904623;-0.035833504;0.06512868;0.18885997;0.06579334;-0.03689991;0.16879699;-0.028569385;0.15609628;0.08305683;-0.048468664;0.013472896;0.24562712;0.062408805;0.07018989;-0.1254139;0.08836858;0.115909755;0.073945485;-0.16510564;0.24579848;-0.031085217;-0.12421306;0.027278218;-0.38890743;-0.01295596;0.060891308;-0.059727095;0.003635587;0.025402255;0.22249438;-0.03194753;-0.09430982;0.21998079;-0.2992755;-0.117718905;-0.06291558;0.077044696;-0.24712649;-0.030291988;-0.23873019;0.030128703;-0.13066027;-0.07305307;-0.003304169;-0.07671057;-0.53288215;0.14589413;-0.070778154;0.034391638;-0.1615986;-0.07780953;0.036389016;-0.068147235;0.17569265;0.016275505;-0.37020093;0.07718117;-0.18326184;-0.017368516;-0.24171156;-0.023076138;-0.061020274;0.054001417;0.016077586;0.055599097;-0.2322151;0.18252583;-0.057426594;0.025365127;0.2252988;0.18249765;0.01434269;0.2184694;-0.089961864;-0.06095119;-0.1325249;-0.04126392;-0.085441746;0.04957435;0.05603571;-0.054620903;0.2676774;0.116054244;0.032835785;0.1459712;0.17094716;0.31675604;-0.04340338;0.0318658;-0.051464252;-0.0696622;-0.014476576;0.18427086;0.03289895;0.03518652;-0.103688024;0.019008225;-0.008128002;-0.027236393;-0.036854994;0.16644965;0.10792355;-0.36662316;-0.37776992;0.16222961;0.053043675;0.06384628;-0.36289325;-0.22501163;-0.034030613;-0.13954644;0.13078323;-0.11427258;0.1672511;-0.07182567;0.07769858;0.06581004;0.042145748;-0.21033616;-0.033956707;0.020575527;0.069736674;-0.13106592;0.030526211;0.12038141;-0.0136320265;-0.059437722;0.022588586;0.0043781972;0.003455162;-0.24382983;-0.13325673;0.047786266;0.019374665;-0.0067655714;-0.020532515;-0.25128737;0.0008934557;-0.023786396;0.0057121213;0.0022388254;0.055033572;0.08391348;0.24569806;0.05025515;0.040027503;-0.09451665;-0.022800246;-0.07375249;0.027765209;0.15457046;0.009918998;-0.045932412;-0.039055202;0.14792822;0.20235604;0.039376486;-0.12486164;-0.06396213;-0.0744255;0.04135559;0.030287385;0.023940125;-0.07243823;-0.052417193;0.17956252;0.072364934;-0.11693371;0.10924587;0.09585688;-0.062094312;0.071145274;-0.04973959;0.06346626;-0.32515842;-0.026854679;0.04053504;0.15824416;0.13568908;-0.028197965;-0.3176518;0.011669589;0.046497922;0.16345495;0.030773003;-0.092825204;0.10686407;0.032142;0.0134468535;-0.0029618083;-0.19562633;-0.019161873;-0.0131631335;-0.24344808;0.076225825;0.08553155;0.019294577;0.12192196;0.036656786;0.03549916;-0.19343312;-0.019426819;-0.18977764;-0.0025578218;-0.293948;0.25810182;0.08444251;-0.05467092;-0.07132956;-0.015967218;0.06641524;-0.12206195;0.09065897;0.05410661;0.050386567;0.26131818;-0.05411808;-0.03242265;-0.041442044;-0.14869195
-0.19755134;-0.43479797;-0.15657565;0.25161415;-0.016411014;0.2323547;-0.08232642;-0.13762963;-0.05209418;-0.13389874;0.04044293;0.10754065;0.07279066;0.10498065;-0.11773941;-0.07870636;0.08670759;-0.11053761;-0.028138524;0.09037493;0.06436224;-0.06763304;-0.34199893;-0.077617854;0.08835707;-0.032063477;-0.016534157;-0.13848996;-0.017523902;-0.046892446;-0.040615853;-0.019084297;-0.10488009;0.20727383;0.014427137;0.07522364;0.12042524;0.10658666;0.0075010797;0.0020305417;-0.010559234;0.019600822;-0.082191065;-0.32394508;-0.05168887;0.029656291;-0.04118315;0.08325719;-0.15087324;-0.0054510413;0.033690937;0.029628217;-0.09974751;0.023056258;0.011094368;0.027362129;0.00864096;0.029550498;-0.005300906;-0.15087318;0.032147117;-0.22110286;0.05003575;-0.35839394;-0.08931374;0.05904533;-0.02332395;0.0026611339;0.15397523;0.03133402;0.07015882;-0.02413869;-0.03128569;0.08080428;0.15784709;-0.010390299;0.040129025;0.15556262;-0.052962355;-0.014930004;-0.023267904;-0.49342084;-0.3744522;0.25538886;0.08841473;0.06062093;-0.11545547;0.017632386;0.060839064;0.0690883;0.033656668;-0.17941776;0.14610367;0.24229428;-0.06606997;0.28499842;0.030835845;-0.13627486;0.022881022;-0.0037270712;0.004533977;-0.06806933;-0.011622635;0.04307289;-0.20703028;0.27891907;-0.04467788;-0.33028236;-0.10843943;0.030962653;-0.020143293;-0.07145689;-0.013559846;-0.30495474;-0.056381393;0.15232854;-0.03404798;-0.23471896;-0.005750402;-0.06705882;0.11761519;-0.06961819;-0.36180028;-0.024770014;0.03928793;-0.021673083;0.10815186;0.25399888;0.022004675;-0.078618266;-0.4153768;0.004941964;0.09541224;-0.18793392;-0.028755661;-0.29944512;-0.06563403;0.06661382;-0.04116615;0.046500444;0.071187325;-0.1885521;0.19994731;-0.3846292;0.06410172;0.16519682;0.18328251;-0.006502293;0.20211047;-0.30729586;0.00635412;0.20106371;-0.034444045;-0.19632713;0.034835037;0.050396077;-0.05957533;-0.30117327;-0.17333211;-0.110214576;-0.33394986;0.051641982;0.025603438;0.06604527;-0.02081325;0.024374418;0.18428995;-0.009846044;0.06775142;-0.0028563552;-0.014972957;0.04729747;0.0530066;-0.0839117;0.21339856;-0.09056474;0.049238324;-0.0061362917;-0.24448489;0.05376023;0.021462256;-0.26549843;-0.078850694;-0.036362298;-0.0926443;-0.10513555;0.03660622;-0.06271585;-0.28747466;-0.018146278;-0.09634425;0.047727052;-0.1251274;-0.010561374;-0.052539192;-0.08548846;-0.06488766;0.0879281;-0.48559326;0.07628327;0.21458238;-0.33270124;-0.4147458;-0.057441887;-0.47241694;0.044301163;0.05363094;-0.022861332;0.14475615;0.08130802;0.060659736;-0.019957481;0.038368445;0.009672286;0.1043755;-0.052190047;0.036775745;0.114167355;-0.2424791;0.18556505;-0.05255198;-0.13703771;0.14036885;-0.011071417;-0.129188;-0.04257884;0.08027875;-0.23968108;0.020062555;-0.1034904;0.053945597;-0.06581608;-0.18516058;-0.051164;0.12817499;-0.16213402;0.06575938;-0.083019696;-0.1653796;0.035242517;-0.15213728;0.007781396;-0.0372692;0.120241836;0.16463518;-0.046620112;0.061220326;-0.08132067;0.2958256;0.07821488;-0.03437076;0.16743985;0.006760024;0.218054;-0.03382702;-0.054216158;-0.03678907;0.051458567;0.0075021912;0.060819555;0.025488563;0.046377026;-0.036218982;-0.22126581;-0.20632556;-0.41623554;-0.08709301;0.16809618;-0.14710039;0.059706442;0.14580528;-0.15179935;-0.059436895;0.11926667;-0.008932311;-0.04066923;-0.008860067;-0.22584333;0.030983666;-0.12694295;0.12837233;0.1980773;0.1093671;0.022853326;-0.17960814;0.022681583;0.18525027;0.08486439;0.09332675;0.088948116;0.0046898117;0.15053895;0.012431164;0.07583428;-0.17267393;0.19872788;0.027529327;0.06444927;-0.11401738;-0.033648357;-0.0036010428;0.042202756;0.036280956;0.301147;0.009427962;-0.037142728;-0.008121137;-0.056075513;-0.010956817;0.12910402;0.033711124;-0.07726933;0.072399;0.009766463;-0.03038662;-0.0004246679;0.2537878;0.061890896;0.12434573;-0.07978817;0.13556542;-0.019389236;-0.09879684;-0.010881022;-0.02389123;-0.1678187;-0.07387396;-0.014828785;0.0061038192;0.23422465;0.016949842;-0.2022348;0.007575042;-0.25894642;-0.14544295;-0.07711666;-0.008989985;-0.003631625;0.08068052;-0.03940373;-0.033316404;0.01765803;0.05895194;-0.37494174;-0.015615742;0.018773947;-0.017861106;-0.056956306;0.081523634;0.053947747;-0.019730419;-0.06560288;-0.31333277;0.33945864;-0.024375781;-0.06540095;-0.03998289;0.11884923;0.23388772;0.082192555;-0.061359536;0.034447603;0.010550331;-0.015367881;0.21281175;-0.08046373;0.03355353;0.12746042;0.04282943;0.042419165;-0.18278602;0.13764963;0.18082291;-0.06243264;-0.19272055;0.23095295;-0.07568733;-0.009635268;0.066658996;-0.2970188;-0.032390732;0.044792652;0.09091755;-0.02185777;-0.09853774;-0.00035543277;-0.038873106;-0.23168541;0.28190377;-0.21425818;-0.16549255;-0.014558521;0.15411165;-0.20609167;0.02606075;-0.037355144;-0.049094994;-0.07490507;-0.018200347;0.09455595;0.06847131;-0.40993354;0.1480122;0.00601868;0.14323175;-0.22214125;-0.2108409;0.09818026;-0.15109342;0.33648857;0.07552926;-0.31829408;-0.0064775716;-0.10706443;-0.026161928;-0.40434787;0.031392813;-0.1492763;-0.025707506;0.18528658;-0.010748878;-0.13594784;0.122928314;-0.11005177;0.0044820565;0.0834277;0.19948082;0.03038284;0.16601901;-0.20741121;0.01805947;-0.03363357;0.0037485645;0.02309641;0.031250425;0.11083502;-0.16555864;0.28734306;0.1317894;0.032342754;0.0040830453;0.13581946;0.2864245;0.066320494;-0.038496185;0.045031242;-0.21160296;0.05722757;0.20993288;-0.004165479;-0.009635772;-0.21801001;0.07741816;0.09313742;-0.12241892;0.033011593;0.18648969;0.26478624;-0.3302954;-0.42499954;0.007584685;0.043427248;0.053632177;-0.34765822;-0.17148753;-0.06638975;-0.13977554;0.17154478;-0.22413039;0.1454806;-0.091812365;0.08801641;-0.09014854;0.06436566;-0.13868597;0.012922415;-0.07047904;0.06840307;-0.0806631;0.033540037;0.15143071;0.04793923;-0.12945542;0.1476573;0.027496215;0.059833393;-0.26793826;-0.09826137;0.030620977;-0.029661942;0.009628478;0.1099842;-0.25081474;-0.006451309;0.076315485;-0.015235527;-0.014738749;0.068654574;-0.034897022;0.30060366;0.0063564754;0.11423676;-0.09620836;0.0064973733;-0.075388744;0.0537056;0.025864495;-0.0019204064;-0.04776959;0.037936926;0.03436607;0.046518754;0.058886994;-0.17392302;0.06525846;-0.13730869;0.00066538074;0.13323429;0.0008807699;-0.04548049;-0.11713569;0.24704054;-0.057905518;-0.08716639;0.24889833;0.0849789;-0.07838221;0.046309877;-0.02024567;-0.045565158;-0.40631175;0.016084678;-0.04412932;0.09622196;0.012305817;0.05058459;-0.3653124;-0.055296827;0.017927697;0.2566094;0.13149543;0.049955186;0.06016329;0.059843473;0.036662966;-0.0023151608;-0.18888095;-0.034828432;-0.03290726;-0.11659973;-0.007855773;-0.046309777;0.064872794;0.10993023;0.04854429;0.16896908;-0.35408556;-0.0041650604;-0.051483437;-0.05230356;-0.26903206;0.23317435;0.05583695;-0.018062092;0.01808977;-0.0037534274;0.06308818;0.021270921;0.16308221;0.04180643;-0.01240015;0.22608024;0.12980278;-0.058118157;0.0546971;-0.2092509
-0.1897056;-0.34373096;-0.19605064;0.19111456;0.032239303;0.23932019;-0.06891481;-0.18443236;-0.0019737226;-0.00739362;0.0017147211;-0.049553942;-0.010771645;-0.0326993;0.0060265055;-0.08850972;-0.0035040257;-0.19598116;-0.18926877;0.13119484;0.16105384;0.010085073;-0.2979419;-0.14859018;0.07684526;-0.026423208;0.003317705;-0.1257952;0.11558456;-0.078319125;-0.041413043;-0.02281576;-0.105184846;0.09379743;-0.07074683;0.088190325;0.03450912;0.110872395;0.038792197;0.039963856;-0.043704264;0.017805075;-0.15642995;-0.22343974;-0.02341803;0.14042264;0.06897;-0.059027415;-0.22346973;-0.05238153;0.014229927;0.08897402;0.015260256;-0.064506225;-0.04342967;0.14409545;-0.02713201;0.05215356;0.066622615;-0.14399824;0.016831852;-0.14112051;0.0260026;-0.31971127;-0.039522633;0.10891313;0.06318001;-0.077614896;0.00436174;0.07356999;0.115809724;0.025403185;0.039209347;0.12352123;0.12945518;-0.029119914;0.012799151;0.15574153;-0.10414778;-0.01180593;0.025021732;-0.49645582;-0.37152407;0.27902466;-0.057773203;0.09802954;-0.20329553;0.044473037;0.028475769;-0.0017511803;0.06392988;-0.18671997;0.21069595;0.27154124;-0.061019167;0.2174823;0.036139775;-0.02095732;0.067877285;0.03033012;-0.009131139;-0.059125595;0.060820553;0.0011314349;-0.18992193;0.17373903;-0.033831727;-0.31670192;-0.14551868;0.02025565;-0.069010295;-0.036583886;-0.028554099;-0.3188679;-0.09189995;0.074479446;0.0016458967;-0.1772461;-0.05962539;-0.085987836;0.11281629;0.02693782;-0.32566437;0.0039146063;-0.06805555;-0.02922867;0.03953563;0.27954888;0.002429221;-0.062699646;-0.31280056;-0.09463654;0.09624557;-0.24680232;0.048659123;-0.19009423;-0.005984901;-0.09494753;0.0022283508;0.0213423;0.061039876;-0.12356692;0.092400625;-0.34413236;-0.045030434;0.16710034;0.20383133;-0.046383407;0.06667644;-0.21024439;-0.069713764;0.10255361;-0.122439995;-0.18784228;-0.07190172;0.034338824;-0.044108193;-0.26269096;-0.23157753;-0.031540215;-0.30257294;0.019122243;-0.017530752;-0.0023865078;0.074690215;0.0026033772;0.32879138;-0.0020081485;0.08806312;-0.07533268;-0.040235985;-0.031535476;-0.060047086;-0.0288365;0.2652853;-0.037901092;0.007308472;0.080071986;-0.28424913;0.011814326;0.053958584;-0.25118724;-0.05191711;-0.026847668;-0.18674998;-0.02999158;0.0019426353;-0.07649434;-0.082715206;-0.056227513;-0.058990087;-0.028248677;-0.09592957;-0.013199701;-0.06561647;-0.0915694;0.09267703;0.014456534;-0.4728812;-0.028978614;0.25872055;-0.31364846;-0.48151278;0.049564715;-0.46530265;0.037835274;-0.07666399;0.0077614123;0.1589915;0.015861515;0.018805167;-0.018126106;-0.052788172;0.051444635;0.05480705;0.020902017;0.106833175;0.058858633;-0.21343976;-0.0021369075;0.08740326;-0.059962004;0.084613234;-0.04509972;-0.103761576;0.078097;-0.05774317;-0.16487592;-0.05439234;-0.05823638;0.15735869;0.045685317;-0.17728171;-0.16779715;0.13418043;-0.14682434;-0.059146766;0.064877205;-0.162349;-0.007819171;-0.24417539;0.044550646;-0.009548625;0.09848316;0.18237579;-0.09963116;-0.06597704;0.05146704;0.19576232;0.035259925;-0.07084824;0.08972919;0.07927765;0.28400376;-0.04990111;-0.09684064;0.009490279;0.05196825;-0.010174299;0.05269205;-0.005238552;-0.060043328;-0.10328395;-0.119071946;-0.25542033;-0.39374563;-0.036402673;0.03804443;-0.15101962;-0.008925993;0.063113704;-0.17029218;-0.014467271;0.14703606;-0.17898497;-0.02388751;0.04372798;-0.17131998;0.04459192;-0.045073286;0.25229567;0.14625482;0.20696336;0.017555736;-0.18746495;0.03990582;0.052369017;0.024735356;0.18533994;-0.01980825;0.024962863;0.14273103;-0.11836772;0.060775056;-0.07362101;0.24339332;0.083828405;-0.011100517;-0.08595654;-0.042107258;0.0017542009;-0.022941427;0.031116404;0.23618513;0.056048743;-0.016165908;0.033945918;0.03334814;0.024651008;0.006832679;-0.066671684;-0.15723933;0.031626258;-0.09491842;-0.031248102;0.079181485;0.13448292;0.045138028;0.21150216;-0.011589336;0.032616362;-0.112147726;0.008368799;0.03445197;0.027330004;-0.16137956;0.009277341;-0.041980106;0.044980276;0.17282717;-0.0010405014;-0.21231697;-0.13150845;-0.2465806;-0.12158104;0.06024385;0.06743631;0.036943264;0.06622273;0.04123001;-0.03537261;0.007393936;-0.0357389;-0.3842282;-0.009167173;-0.016061991;-0.046769343;0.063912734;0.05049204;-0.13406831;-0.016571485;0.07570593;-0.22536851;0.18943593;0.03519339;0.008870985;-0.020957228;0.108380795;0.3056906;0.04516653;0.0884579;0.0171022;-0.039235003;0.04054356;0.16119651;-0.04907058;-0.054002844;0.15867218;0.034869894;0.05387413;-0.09043719;0.2244714;0.15364005;-0.06706993;-0.19462141;0.15180309;-0.12338132;0.06968862;-0.08700559;-0.38734278;0.0719752;-0.03706596;0.003043511;0.016176216;0.036348917;0.09441824;-0.015632505;-0.12524776;0.0929271;-0.20867352;-0.17187475;-0.006146998;0.037814125;-0.17661463;0.064949505;-0.12736107;0.005238719;0.04581407;0.07696274;0.14027144;0.03242364;-0.4306425;0.08547172;-0.04600548;0.097279884;-0.22580516;-0.2885951;0.12693891;-0.18889648;0.1572699;0.015010323;-0.22329585;0.012792711;-0.09164101;0.0045210836;-0.372458;-0.032452043;-0.15346962;0.040752616;0.24838999;-0.059708815;-0.1916216;0.120985396;7.350059e-05;0.075790204;0.13161936;0.17935605;-0.017534077;0.17515008;-0.12359234;0.0013968;-0.058516856;0.040516835;0.00997266;-0.06953867;0.2578277;-0.17063124;0.13248052;0.16280663;0.047208685;0.063704856;0.03801426;0.3292527;-0.0055326545;-0.04833153;-0.084929615;-0.2729775;-0.02974032;0.29336363;-0.0793424;0.13867265;-0.21042438;0.022552129;-0.02835422;-0.29308176;0.08113929;0.085498184;0.20982786;-0.33837828;-0.4941768;0.24925515;-0.0014645471;0.13552476;-0.16677168;-0.14532061;-0.08248062;-0.21614851;0.24731773;-0.15289608;0.21233119;-0.1251895;0.050679076;0.025817022;0.10349114;-0.043124214;-0.06132364;-0.02875469;-0.056345116;-0.032715455;-0.049048483;0.053334728;-0.0033305301;-0.19129878;0.13794671;-0.008738605;-0.029097104;-0.24732687;-0.09305732;-0.03393789;0.10282261;-0.06730189;0.08659283;-0.22934493;-0.06295886;0.14527477;-0.09950797;-0.101256214;-0.06635247;0.008836504;0.33022788;0.025405036;0.09356298;0.0092716385;0.0024773907;0.010111208;-0.0018515784;0.05443316;-0.019240085;0.0815641;-0.014278498;0.04469529;0.12658828;-0.054503247;-0.1309877;-0.014091039;-0.07056111;-0.05096001;0.09498271;-0.007882723;-0.030611305;-0.059518524;0.25038323;-0.06712435;-0.100823;0.06338758;0.082642525;-0.051241435;0.051270127;0.09063803;-0.025947781;-0.33090705;-0.03310133;0.059466973;0.116843276;0.0024696975;-0.04438255;-0.39222956;0.08078079;0.008708719;0.12592784;0.10140607;0.029849812;-0.063619636;-0.022189531;-0.049374983;0.12973733;-0.26368102;-0.039660923;0.040257946;-0.22913834;-0.081929974;-0.08925302;-0.045950174;0.054106377;-0.021091377;0.15193886;-0.3549357;0.06250799;-0.014688191;-0.05648899;-0.23467326;0.27372506;0.03367264;-0.08153316;-0.16970809;-0.009696557;-0.009268957;0.17934299;0.09384998;-0.046343002;-0.010039483;0.2642145;0.074763425;0.06029779;-0.023082098;-0.14184391
-0.12970713;-0.19561522;-0.28764555;0.11754842;0.003837279;0.22190693;-0.09046517;-0.17706116;-0.012094939;-0.0054660616;-0.032174222;-0.11929243;0.10563157;-0.11035005;-0.10197527;-0.14081551;0.09116371;-0.30256248;-0.10389695;0.08713436;0.040102802;0.055677474;-0.3600438;0.054499816;0.11574971;-0.007422531;-0.0040780692;-0.05312072;0.019362649;0.09710154;-0.044349395;0.02681573;-0.27247602;0.10591927;-0.18006608;0.02078382;-0.042248834;-0.071933724;0.046354514;-0.07360434;0.02066962;0.0061278655;-0.07828037;-0.28067073;-0.041844748;-0.018438188;-0.075695045;-0.056678314;-0.11693;0.06781845;0.019091656;0.083803676;0.045731038;-0.037444517;0.041950516;0.041082807;-0.059764408;-0.013382285;-0.05158432;-0.21403019;-0.01642084;-0.23559052;0.02321389;-0.14670603;-0.0665702;0.1576825;0.08170049;-0.12242321;0.008194743;-0.08301321;0.029777292;-0.09466775;0.065995626;0.0714836;0.10186793;0.049591217;0.012892679;0.1774739;-0.187163;0.024715161;-0.033518538;-0.4021053;-0.28012028;0.30874825;-0.035244267;0.087512605;-0.17049664;-0.03619241;-0.05477285;0.023542494;-0.042769637;-0.060014337;0.24299987;0.290072;-0.020255473;0.23630023;0.07884744;-0.121705644;0.03785427;0.007351776;0.08786304;-0.061184596;0.09534705;0.048736744;-0.17514054;0.24884915;0.026634688;-0.1343623;-0.04192407;-0.026270457;0.03736291;-0.10017609;0.10710856;-0.2646833;0.09900552;0.18465535;0.0009776371;-0.27020434;0.0106531875;-0.061207388;0.13616963;0.01836399;-0.2754319;0.03725894;0.004440598;-0.0111549245;0.028291691;0.3054151;0.074096955;-0.0888559;-0.20724848;-0.15159379;0.034290552;-0.15355164;0.016340105;-0.2545933;-0.052653436;-0.09600225;0.05736906;-0.011614799;0.13486223;-0.003452826;0.18282749;-0.2022954;-0.036663357;0.0025494571;0.07377483;0.015807938;0.13547586;-0.18729231;0.04721536;0.03351876;-0.019697813;-0.25784966;0.022836857;0.011504316;0.07854638;-0.28670013;-0.16929643;-0.098290674;-0.28217825;-0.04715868;-0.10718702;0.025528152;-0.036631625;0.06115628;0.30204317;-0.016071819;0.03412882;-0.04584181;0.065037236;0.0014127815;0.08727267;-0.06168695;0.20030226;-0.015314858;-0.0040537016;0.05015102;-0.23508088;-0.04585983;-0.03460783;-0.23309724;-0.05339064;-0.040721614;-0.15641701;-0.06839489;0.14701013;-0.113683455;-0.08184504;-0.0015700533;-0.0837659;-0.035785306;0.053160917;-0.024572616;0.072921716;-0.06823257;0.28286007;0.13643885;-0.4531689;0.086970106;0.2577527;-0.22809452;-0.40122953;-0.03537798;-0.34348813;0.041845087;-0.06572431;-0.031695146;0.119158976;0.08965275;0.011396535;-0.084083155;-0.045240883;0.053177424;0.02788165;-0.043805256;0.20675594;0.076170795;-0.16338222;-0.024105733;0.018104563;-0.11825825;0.15250693;0.037009582;-0.11585465;-0.03685244;-0.026147038;-0.2134947;0.031701494;-0.04531085;0.12873119;0.0023462249;-0.112596475;-0.1217984;0.18672256;0.004313243;-0.10347598;-0.02119121;-0.122818984;-0.08842468;-0.12766492;0.02017325;0.06900679;0.13832965;0.19918993;-0.00958193;0.011145332;0.041016065;0.17889506;0.032736514;0.07686508;0.20735759;0.12347323;0.25963172;0.03268172;-0.014236952;-0.0035803872;0.06153376;-0.06358468;0.018346857;0.09488032;0.023036605;-0.06968661;-0.18459655;-0.12757288;-0.37037915;-0.13166179;0.12066165;-0.055162054;0.070739746;0.16118164;-0.25393128;-0.061035477;0.10277915;-0.17891537;0.013635953;0.015394873;-0.26467395;0.1389579;-0.18641552;0.30078414;0.23280542;0.13226432;-0.13864139;-0.046992436;0.11237119;-0.02694064;0.017616084;0.07786057;-0.11838824;-0.060621712;0.23097408;0.013973154;0.020439249;-0.08747766;0.2803931;0.06243986;-0.007277175;-0.23868887;0.08993739;0.15680967;-0.025659002;0.05228988;0.24809322;-0.019607741;0.029667938;-0.019956876;0.067150675;-0.0066425046;0.011249934;0.00012556955;-0.16708891;0.0228762;0.03526863;-0.17528944;0.0707002;0.18690379;0.01935669;0.173945;-0.08039621;0.017397678;-0.07942718;0.09231365;0.0546417;-0.027746432;-0.12000055;0.073567815;-0.060331546;-0.010703204;0.20879073;-0.055756614;-0.20942327;-0.052687164;-0.25930133;0.0067593497;0.057814337;-0.006579555;-0.017496126;0.081219405;0.0030184172;-0.033250988;-0.07438255;0.019454634;-0.31508657;0.016247021;0.071619235;-0.033403914;0.06981376;-0.052252643;-0.024785692;0.023268966;0.0345407;-0.27456298;0.24985003;0.04237977;0.05753486;0.056065857;0.026945284;0.18503112;0.06924816;0.06910093;0.11995033;0.030863306;0.1302829;0.05140466;0.011348977;-0.12873134;0.1059366;-0.0067279693;0.1638031;-0.15486218;0.2975234;0.15434106;0.002044231;-0.2136847;0.17479166;-0.09006366;-0.036305975;-0.0067385174;-0.37793595;0.0460714;0.06317965;0.019636156;-0.03293551;-0.042055476;0.08817661;0.0027006222;0.10150988;0.14769934;-0.18508705;-0.020952536;-0.029766776;0.079323314;-0.22345178;0.018235376;-0.03854139;0.0111576775;0.12371077;-0.06330266;0.057349194;-0.07753044;-0.26199156;0.20323858;-0.072424404;0.087257884;-0.18976775;-0.11581034;0.03580906;-0.0019362842;0.16699484;-0.07684782;-0.07249746;-0.0223164;-0.03359106;0.022394003;-0.2761978;0.019123575;0.01787907;-0.03432426;0.306848;0.0029847182;-0.13107584;0.21215963;-0.0137172695;-0.052591838;0.19097993;0.17569211;0.051673032;0.14209336;-0.08942107;-0.021870859;-0.10155615;0.0275434;0.012450617;-0.062154237;0.20740531;-0.17663056;0.09172016;0.111464776;-0.019052874;-0.07553921;0.07761071;0.2537425;0.043917365;-0.042308673;-0.10887581;-0.22464131;0.056802794;0.2635551;-0.045968834;0.21026061;-0.23809181;0.14830895;-0.045197457;-0.3283841;-0.051464293;0.10974818;0.14385936;-0.3642633;-0.3494603;0.28500304;-0.009533618;0.18158667;-0.27523118;-0.028684692;-0.02076897;-0.15705615;0.066225685;-0.19922203;0.2258073;0.02444857;0.007119258;-0.015796816;0.028261043;-0.14081478;-0.052710958;0.031146903;0.023389788;-0.09094182;-0.0036316998;0.100305505;0.17178887;-0.2946089;0.11703904;-0.011062549;-0.026038595;-0.13203754;0.011075106;0.09723356;0.06662519;0.036953248;0.042818826;-0.030164005;0.052456383;0.056817897;0.0011554743;0.002231284;-0.03389648;0.09762811;0.25621185;0.009128725;0.2152031;-0.011398956;0.068846494;-0.12580343;-0.013421565;-0.070259415;0.04488261;0.08512275;-0.046919946;-0.138927;0.18880324;0.045511216;-0.26379725;-0.013009651;-0.029044682;-0.020511277;0.021458792;0.06572981;-0.1475743;-0.037528004;0.2375661;-0.044484477;-0.14180641;-0.04946593;-0.05810486;-0.03679038;0.14859876;0.050169434;-0.04215776;-0.39869472;0.038297154;-0.00239492;0.03030718;0.03392195;-0.026389917;-0.36609963;0.076080255;-0.041950766;0.13416795;0.030546721;-0.06623911;-0.103209384;0.03396472;0.002071875;0.14695242;-0.19747047;0.09929388;-0.03685323;-0.08222517;0.02072834;0.024512693;0.009665798;-0.01819518;0.01449632;0.17512959;-0.2919868;0.09681879;0.040761333;0.018519096;-0.17519403;0.17255963;0.013629508;-0.09827663;-0.23971975;0.052762978;0.013327938;0.14553419;0.28559652;-0.07553722;0.11344712;0.23768726;0.09770125;0.07656673;0.07112224;-0.12582247
-0.051198453;-0.29420778;-0.22634993;0.16656168;0.056495104;0.25202572;0.049004324;-0.26161033;0.025230965;-0.12890486;-0.056969423;0.015923694;-0.01413521;-0.18492714;-0.013055598;-0.15433732;0.14400123;-0.24251148;-0.15477943;0.21550998;0.11601407;0.054510392;-0.26180285;-0.09527623;0.114772856;-0.0029440145;0.043535735;-0.085528195;0.044900678;-0.020687276;-0.15627831;-0.078342296;-0.30176207;-0.07908209;-0.00965109;0.09035972;-0.06572104;-0.08612479;0.03381547;0.012572521;0.04973939;-0.053505618;0.106845774;-0.11725908;0.065443985;-0.0010314414;-0.034663312;-0.009730112;-0.13956659;-0.0020166533;0.009745574;0.17045036;0.11514091;-0.015244371;-0.05640799;0.059528835;-0.061600164;-0.115739316;0.04612641;-0.07512621;0.01082391;-0.12889068;-0.026156925;-0.103675455;0.0043208105;0.09266881;0.03957077;-0.091265745;-0.11109325;-0.029790567;0.020862304;-0.039103232;-0.021067241;0.028495308;-0.0030466262;0.12679772;-0.07619551;0.11740454;-0.087905064;0.04888752;0.011795236;-0.34046248;-0.27649385;0.1645487;-0.03311591;0.08067704;-0.27118048;-0.05535173;-0.07761764;-0.067438744;0.056062087;-0.18328543;0.23058629;0.12992543;0.077302806;0.30641726;0.09614017;-0.14296192;0.07109344;-0.044877425;0.039411936;0.028464291;0.14943759;-0.059768423;-0.25873548;0.11990313;-0.066263564;-0.20249508;0.06341338;-0.030361623;-0.09773331;-0.13102533;0.030773072;-0.29405484;0.16501603;0.21086097;-0.12010099;-0.25488934;-0.007142313;-0.07452251;0.04076478;0.021128008;-0.24333046;-0.04347688;0.0016483178;-0.007840986;-0.0103759;0.24533556;0.024366083;-0.052436795;-0.25384155;-0.10784618;0.051341407;-0.1341965;-0.0661024;-0.2450593;0.01213602;-0.017872958;-0.0077185924;0.049319547;0.08103072;-0.091477476;0.002077558;-0.21864873;0.05650595;0.05953996;0.10797111;-0.014721576;0.106764644;-0.25755534;-0.05144285;0.13201296;0.0008043337;-0.06937337;0.0037698622;-0.04577145;-0.017965687;-0.23011653;-0.15781018;-0.07325911;-0.19024234;0.017076887;-0.061086725;0.024991872;-0.061180796;0.083552845;0.28377494;-0.08695748;0.07379915;-0.106527306;0.015435892;0.05552628;-0.048060972;0.034393758;0.17687853;-0.010080947;-0.03146683;-0.061242074;-0.25574234;0.0478401;0.00919968;-0.19274472;-0.115063675;-0.07202458;-0.083666064;-0.044531178;0.083397314;-0.0017859011;-0.0581414;0.02139813;-0.08440855;0.077333525;-0.04475163;-0.0036287033;-0.0038999673;-0.1132815;0.3272667;0.10404596;-0.39065906;-0.057322886;0.15802896;-0.26893848;-0.3338347;-0.0073272125;-0.4028978;-0.040593524;-0.082304336;0.052324187;0.11161541;0.11789349;-0.1038329;0.0022721142;0.08678627;0.030864893;0.006902621;0.0763748;0.1814589;0.14930429;-0.23361944;-0.10443069;-0.037410095;-0.22447754;0.09698571;-0.033169474;-0.21499391;0.032462463;0.00081509247;-0.23489763;-0.062891655;-0.0515137;0.029671494;-0.038396116;-0.15069804;-0.064357616;0.10679197;0.044432815;-0.054577056;0.0026013025;-0.008663365;-0.07416601;-0.18928641;-0.01893376;-0.010732569;0.15181272;0.21951564;0.015098874;0.034938388;0.0023916087;0.22378875;-0.013780452;0.06845725;0.14737776;0.0018651005;0.1605885;0.09573134;-0.012496829;-0.03190385;0.031358503;0.003532015;0.061837137;-0.010517757;-0.03721944;-0.13063768;-0.18090133;-0.16429432;-0.40015775;-0.14000534;0.06396526;-0.102494165;0.1940059;0.13160351;-0.21985565;0.007313611;0.11481501;-0.24829586;0.055653248;-0.034170598;-0.21544127;0.13701047;-0.2443931;0.41591927;0.10834309;-0.023328364;-0.09876265;-0.1177463;0.16484177;-0.054113552;0.06495768;-0.02670074;-0.07994203;0.069748834;0.21529162;0.028672114;0.046324912;0.012890077;0.26786003;0.13924392;0.0010422529;-0.26213393;-0.042430174;0.21943179;0.0070919353;-0.0026517545;0.19765282;-0.014225699;-0.041157383;-0.024070242;-0.01770512;0.020367991;0.021527998;0.06393122;-0.19237582;0.036694005;0.007709241;-0.09701846;0.0808306;0.06716887;-0.032598466;0.24601299;0.008468443;0.06731048;-0.11755941;0.136501;0.044705093;0.03570457;-0.068520695;0.057699874;0.0073787565;0.025563696;0.0457957;-0.01481603;-0.13786398;-0.007608622;-0.15034579;0.08717401;0.005744385;0.051783793;-0.05037705;-0.013053493;0.03816693;0.030409038;-0.029540127;-0.030857807;-0.24692838;-0.013609266;-0.058880787;0.06945625;-0.07783583;0.016503409;-0.14321071;0.022620218;0.04004727;-0.12518464;0.19427115;0.008280822;-0.0029857415;0.0559305;0.06882782;0.3098844;0.02774964;-0.03156935;0.038880415;0.016658397;0.109533675;0.10152673;0.06409858;-0.14668013;-0.0032050337;-0.008098579;0.079266615;-0.14176983;0.28189048;0.018808097;-0.03354086;-0.023229107;0.29950467;-0.17859687;-0.0056952755;-0.039747294;-0.36864236;-0.053100478;-0.07966206;0.0748685;-0.071039446;0.043805815;0.033873804;0.08128349;0.12659384;0.004716225;-0.09481193;-0.042935397;-0.19304289;0.16070572;-0.23213866;-0.05796204;-0.124853;-0.040031113;0.0769014;-0.04293095;0.07856772;0.060214218;-0.25154984;0.137843;0.0045981877;0.025267052;-0.19603989;-0.097386464;0.036280498;0.023889221;0.23059833;-0.101948485;-0.14656696;0.018876605;-0.10334044;0.048016436;-0.34428313;-0.010458346;0.05935989;-0.04312955;0.33957765;-0.060806617;-0.12488987;0.17222008;-0.02648254;-0.06764479;0.13748178;0.24474151;-0.04873276;0.24676871;-0.12915844;-0.013728521;-0.241632;-0.04780157;0.028167218;-0.02936913;0.29754034;-0.21541603;0.12051187;-0.035105124;0.050501555;-0.065088965;-0.07612881;0.3227529;0.0002629573;-0.032369323;-0.04415331;-0.10357991;-0.053405233;0.18152124;0.0020866846;0.11830072;-0.2577282;0.06010917;0.002328056;-0.16417556;-0.033788413;0.14650477;0.058684368;-0.38974303;-0.27782074;0.35671043;-0.022077724;0.043231506;-0.23909438;-0.06631745;-0.04904914;-0.15008013;0.06879103;-0.03777343;0.16908048;-0.07210933;0.04378596;-0.008666454;0.07203171;-0.026589787;-0.02533229;-0.016330903;0.040339425;0.17169015;0.050694946;0.013831607;0.21377787;-0.24157232;-0.06898806;-0.028367568;-0.0058551813;-0.059025794;0.046779476;0.04513576;0.050748147;0.040994443;-0.041221134;-0.06275503;0.04336687;0.14960414;0.12822425;-0.045441177;-0.04019879;0.039442983;0.30404353;-0.051140256;0.15383406;0.00068020215;0.015126679;-0.06290803;-0.006823515;-0.040953238;-0.04968336;-0.069877215;0.044308912;-0.15352593;0.19294924;-0.011454355;-0.18426016;-0.030949643;-0.0548789;0.012765079;0.020779626;-0.0123970155;-0.20156832;-0.030806394;0.21726808;0.04356045;-0.03172232;-0.11094926;-0.0565633;-0.06649455;0.029876579;0.09819805;-0.026440332;-0.5231625;-0.05403198;-0.055603046;-0.052379318;0.09618593;0.07393011;-0.35824502;-0.06722676;-0.017881386;0.032223653;-0.0058139353;0.04364334;-0.20387077;0.028675575;0.028960878;0.19893403;-0.16840304;0.02518268;0.026991377;-0.09866052;-0.025727378;0.057137668;0.0066514323;0.022664322;0.00011658986;0.11340385;-0.27049467;0.1309729;0.020398224;0.05832377;-0.27330074;0.22407159;0.06431734;-0.14636509;-0.2264468;0.0046894895;-0.03256493;0.1563289;0.19754408;0.041511964;0.1229772;0.0377166;0.23384643;-0.039518546;-0.06672418;-0.046549696
0.13685668;-0.21102518;-0.23023748;0.1480106;-0.009855003;0.116812006;0.08614453;-0.2612926;0.059119776;-0.17958237;0.01403367;-0.09293476;-0.0075078234;-0.18344101;-0.014926373;-0.08239965;0.3037084;-0.1988108;-0.08546363;0.14349143;0.069701396;-0.0073887366;-0.3105604;0.089080416;-0.052442566;-0.006994805;0.013419253;0.015383438;0.045516007;0.07571624;-0.27560455;0.05902218;-0.19963712;0.084007576;0.030714514;0.05589299;0.057775017;-0.013693863;0.054235335;0.007124878;-0.01778163;-0.022011848;0.049128857;-0.08328873;-0.030108847;0.14484842;0.049518615;-0.011061334;-0.17853554;-0.021724015;0.072281726;0.032454368;0.010750862;0.064835444;0.05930208;-0.0030853164;-0.050929505;-0.21042474;0.083100446;-0.19683675;-0.070954025;-0.26902014;0.0026733594;-0.18361294;0.09916451;0.033987284;-0.032976452;-0.21528871;-0.024470348;0.016000053;0.057303082;0.06583225;0.034366995;-0.08913928;0.07974515;0.21023889;0.019132534;-0.12077513;-0.1966144;-0.0877592;-0.03776701;-0.38328668;-0.16109811;0.2575694;-0.015491762;0.05101729;-0.29335335;0.003057617;0.018088533;0.022285819;0.06398895;0.0013320235;0.23289931;0.18869573;-0.0002919114;0.35056877;0.1330569;-0.016684592;0.10423476;-0.040762518;-0.054087054;0.019299777;0.26309517;-0.092007935;-0.17629653;0.11351817;0.04909241;-0.21722598;0.039348938;0.041908383;-0.048296317;-0.12023856;-0.008995995;-0.13818263;0.23644105;0.09527181;-0.123555996;-0.25537205;0.04222522;-0.045566175;0.12660483;0.008325688;-0.36094874;0.057143904;-0.06062585;0.008451876;0.036109503;0.22235642;0.023690078;-0.24821173;-0.23460491;-0.2745313;0.0010519052;-0.21521291;-0.007414866;-0.16413404;-0.04711139;-0.14369626;0.016060086;0.056706898;0.23027521;0.006524914;-0.06093207;-0.08460161;0.07101045;0.0040661357;0.048367824;0.04926692;0.0736124;-0.23481907;0.030047331;0.106297605;0.03350818;-0.010162313;0.05408441;0.029899854;-0.04888575;-0.35838744;-0.05288637;0.017948397;-0.20020236;-0.045569222;0.037134003;-0.050890416;0.04641371;-0.12641394;0.14071235;0.015316465;0.16395411;-0.06206884;0.15078346;0.04866565;-0.050867107;-0.08931077;0.17743845;0.1447283;0.061438285;-0.01740009;-0.25193325;-0.07140224;0.020893978;-0.13766794;0.009869401;-0.16597398;-0.10125018;0.036015138;0.0063966303;-0.08223172;-0.03492232;-0.037213247;-0.061539993;-0.023843108;-0.07622184;-0.04572555;-0.03488534;-0.08368071;0.31293553;0.1525227;-0.3732361;-0.041353997;0.14581424;-0.1352523;-0.22194508;0.016252298;-0.33171377;-0.027678035;0.042675603;-0.05690001;0.008727214;0.07447896;0.041525487;0.046431266;0.0130109275;-0.004814462;-0.14314486;-0.016194375;0.314726;0.02671218;-0.33300883;-0.0055113444;0.028143896;-0.27395695;-0.08141056;-0.00482105;-0.24936418;-0.023886759;-0.014957;-0.20933647;0.070991375;0.017403767;0.13113378;-0.007301895;-0.31158963;-0.057342164;0.23572722;0.09331922;-0.021405587;0.025244784;-0.006901449;-0.008587684;-0.17546012;-0.01825742;0.05193551;0.15223208;0.21012542;-0.017584953;-0.04709313;0.049751278;0.2347285;-0.07255432;-0.07510689;0.09268217;-0.032350693;0.24500257;-0.0083004935;0.08706148;-0.051534005;-0.07888323;0.07331637;-0.046545528;-0.023488617;0.04892232;-0.1645479;-0.13856673;-0.30666998;-0.27740145;-0.15041171;0.13809402;-0.08002552;0.20082621;0.11148762;-0.080346;0.08147183;0.20032786;-0.3076056;0.027339492;0.07319363;-0.13300794;-0.058228504;-0.21810251;0.4671154;0.012011388;-0.0036996547;0.06230269;-0.0072224652;0.19028854;0.062227994;0.10971306;-0.058572352;0.06152224;-0.011686985;0.15097901;-0.025578331;-0.08455225;-0.03670226;0.23106357;0.11134294;0.049532834;-0.37665376;0.011737854;0.18881;0.04184549;-0.08282241;0.29222924;0.04916478;0.046623837;0.0023495893;0.06003816;0.018222738;-0.031194102;0.065712474;-0.19073963;0.009420719;-0.031988718;-0.14179768;0.06009541;0.06960274;-0.032963745;0.18641907;0.02463815;-0.113480754;-0.114875376;0.053967264;0.0013765785;0.036785938;-0.07461376;0.023768941;0.044348594;-0.04949751;0.07008011;0.041755278;-0.18685235;-0.09334976;-0.17807277;-0.14054106;-0.0669986;0.062793165;0.0449943;0.07691041;0.022908235;0.03754257;0.03162545;-0.13203275;-0.1217171;0.008201905;0.052456636;0.048526518;-0.0040986342;0.004109178;-0.18667504;-0.07797752;0.036344662;-0.10965141;0.16532005;0.0142882075;0.054416694;0.06565573;0.1460794;0.33115134;0.04045763;0.09029114;0.09891008;0.043542687;0.2287905;0.22283553;-0.023765188;-0.2037416;0.049112257;0.13388324;0.072309814;-0.03752587;0.42036706;-0.06905666;0.0699342;0.04580831;0.31285107;-0.20361476;0.058536954;0.04400469;-0.43487388;-0.040665187;0.012772658;-0.04959524;-0.028852552;0.029541453;0.019088475;0.01577373;0.14750148;-0.012250436;-0.06272896;0.060199402;-0.042654667;0.17905304;-0.23704435;-0.025262773;-0.12476411;0.007368613;-0.039288215;0.058304828;0.069166206;0.01842545;-0.19274102;0.13311821;0.009347809;0.0010531478;-0.32565868;-0.04612905;0.021930145;0.12091602;0.14242218;-0.031601164;-0.09103095;0.023430798;-0.056146327;0.018305883;-0.3815966;0.006192847;-0.00011246998;0.013177998;0.28601256;0.04661786;-0.10128371;0.09874352;-0.018309154;0.07524426;0.20147869;0.13888448;-0.007414672;0.27758697;-0.14721496;0.05935145;-0.21306878;-0.0152945295;0.016520837;0.048456855;0.15668675;-0.048592344;0.09881358;-0.04060294;-0.06350535;-0.052182317;-0.109988146;0.30654788;-0.070185766;-0.051121935;-0.08481885;-0.1375387;0.03697991;0.32493144;-0.13985212;0.24898046;-0.16805567;0.11045653;0.056962952;-0.13943754;-0.061973464;0.0857327;-0.025816945;-0.32194453;-0.15715258;0.30363747;0.08045494;0.14663637;-0.15442587;-0.03980074;-0.056797154;-0.23294316;-0.09778598;0.018053168;0.1290617;0.0827142;-0.040082842;0.07085641;-0.08598157;0.049440976;0.05359404;0.032416847;-0.0027605293;0.23520342;-0.049896624;0.101121694;0.23046117;-0.20011052;0.06710753;-0.011566169;0.0514804;-0.054302413;0.028717378;0.21422856;0.009575585;0.02368637;-0.06981437;0.0075184978;-0.075563736;-0.041293994;0.25633734;-0.030185778;0.0625081;0.111366816;0.32213974;-0.03119951;0.13220571;0.049494665;-0.07394099;0.09168312;0.013115337;-0.018183243;0.09675976;-0.067449205;0.004100243;-0.18289573;0.13102134;-0.07639297;-0.297329;0.0096609285;-0.042746425;0.015190066;-0.05949472;-0.1684386;-0.27847818;-0.0804012;0.21351203;0.05094154;-0.09663816;-0.26115978;-0.1447063;0.04942932;-0.0051988997;-0.001342279;0.0008364892;-0.48799315;0.016984437;-0.041462284;-0.17234646;0.051236626;0.058505915;-0.32501975;-0.041637316;-0.06610642;0.06951887;0.01755951;0.04314985;-0.26693782;-0.03995672;0.026365073;0.16834067;-0.0026553604;0.045542404;-0.03845739;-0.078886285;0.012899018;0.13560404;0.003396696;-0.17545685;0.113746725;-0.0041557658;-0.3434601;0.17672262;-0.044732414;0.055713393;-0.13656296;0.2378892;0.10954576;-0.09317944;-0.25371516;0.01645775;0.030273374;0.1096316;0.14519274;0.02457621;0.022835698;0.020006958;0.22161777;0.03569957;-0.04961324;-0.101635136
0.08570556;-0.20821166;-0.27574572;0.099398844;0.040958047;0.30302963;0.028729543;-0.19944699;-0.0202829;-0.09589145;0.039735693;-0.011153598;0.13777861;-0.24291134;-0.05107033;-0.12527463;0.38985097;-0.20529689;-0.13838208;0.2664297;0.15675408;-0.015056212;-0.3058857;-0.06592993;-0.0996365;-0.010817967;-0.06989394;-0.09658657;0.094913594;0.017691338;-0.22287188;0.018543478;-0.18754153;-0.041284952;-0.09644989;0.13478447;0.039487056;0.111523606;0.05566456;0.0062556607;0.031585988;-0.023963897;0.02746619;-0.015113259;0.05257797;-0.009890464;0.03635482;-0.01621149;-0.05293134;0.06376005;-0.017806139;-0.006329856;0.0520967;0.082402214;-0.04290098;0.056304954;0.050522212;-0.18870363;0.014207508;-0.067308314;0.058774166;-0.19304526;-0.04707482;-0.055585455;-0.034960303;0.09414772;-0.06880518;-0.23209934;-0.11828488;-0.00955908;0.1596475;0.04664381;-0.03703063;-0.10173259;-0.033094358;0.0755563;-0.05545165;0.022657031;-0.09292227;-0.007368764;0.07973193;-0.39894927;-0.1400158;0.15264682;0.0051932307;0.047554806;-0.29959416;0.041365795;0.04963847;-0.013867915;-0.065607324;-0.1567104;0.106222585;0.13835728;0.1688371;0.35682154;0.11282202;0.056598358;0.052356362;-0.10681804;-0.032419752;0.0006348145;0.33617312;0.025367178;-0.19261803;0.15431328;0.047340468;-0.14974824;0.10135939;-0.04846984;-0.07795299;-0.09537071;-0.098851554;-0.1621814;0.22962998;0.1772161;-0.13325751;-0.24982584;0.039723877;-0.024072276;0.15789518;-0.04173081;-0.3746968;-0.054597456;0.06146649;0.0055325017;0.118533745;0.18813823;-0.025549028;-0.1660052;-0.050250646;-0.21904385;-0.20633987;-0.19985099;-0.02399188;-0.017046561;0.027412236;-0.16883633;0.031931706;-0.052968033;0.26244915;-0.075796455;-0.09279559;-0.14081255;0.0060870266;0.004271395;-0.02664316;-0.0156227015;0.012351878;-0.34505308;-0.073050134;0.1891766;-0.00931308;-0.096025124;0.021898234;-0.03781601;0.040459566;-0.4936117;-0.039067302;-0.12649317;-0.040709745;-0.007346236;0.0009382344;-0.05522554;0.0141351;-0.062475584;0.17818831;0.05195905;0.03663601;0.05681553;0.1280965;-0.077618144;0.033483908;0.03337973;0.20611615;0.17539763;-0.079249434;-0.025044125;-0.12596901;0.035943214;-0.019643104;-0.13131915;0.02921865;-0.26542976;-0.044606954;-0.011262721;-0.022077447;-0.10489889;0.0794959;-0.03127489;-0.20215057;0.03687438;0.053787366;-0.044641756;-0.04674161;0.012740343;0.3878924;0.23732878;-0.40418074;0.0096482495;0.25037035;-0.07686813;-0.31731755;0.007998863;-0.28455788;0.044457823;0.10687973;0.06842031;-0.0039093723;0.015569988;0.08252312;0.11651402;-0.040839467;-0.070839725;-0.047460612;-0.044689953;0.24161325;0.120529115;-0.37612724;-0.040826593;-0.009351634;-0.39756206;-0.05627137;-0.012416399;-0.0879001;-0.0031428824;0.053503383;-0.14913994;-0.018981282;0.08208416;0.11875504;0.055493437;-0.2732933;-0.025035894;0.061926585;0.037461534;0.03073282;-0.036152493;-0.17536621;-0.16441643;-0.24744539;-0.065910034;-0.07460993;0.034557033;0.20155287;-0.020094058;-0.022196827;-0.043134976;0.15073143;-0.028758764;0.0057748826;0.13378383;0.0064703007;0.30138266;0.022339161;0.028768172;-0.13791735;-0.086748265;0.012067544;0.011616732;0.011206611;0.011042782;-0.053317357;-0.22886893;-0.24773817;-0.21772225;-0.15778027;0.049158044;-0.026053602;0.3001619;0.18273541;-0.08426762;0.011912379;0.18198647;-0.33213854;-0.038209837;-0.07012185;-0.08104057;-0.026654096;-0.24040493;0.42700225;0.007731711;0.036637653;-0.1066316;-0.10660784;0.21574269;0.08242874;0.019864703;-0.16129695;-0.064213246;-0.04934931;0.18317981;0.012260871;0.03115609;0.021774715;0.28793943;0.09457254;-0.002748456;-0.24868505;-0.042717792;0.15414093;-0.042858966;0.0567944;0.2484164;-0.047894675;0.08466292;0.039463613;-0.051198773;-0.08481062;-0.049044076;-0.083838746;-0.19454202;0.061421663;-0.053290304;-0.18026216;-0.040326867;-0.066811725;-0.002506234;0.27305478;0.10083372;-0.05480852;-0.23401527;0.12480336;-0.009869343;-0.06742966;0.019005159;-0.04065017;0.05311187;0.010960185;0.01920047;-0.056413673;-0.18469416;0.09757292;-0.0579303;-0.1681441;-0.013958266;-0.028778503;-0.0033958924;-0.062192153;-0.021769546;0.024229677;0.07499366;-0.114439465;-0.18773131;-0.020702234;0.014756054;0.056821544;-0.074349985;-0.044178102;-0.206242;0.061875924;-0.115015335;-0.12199855;0.23529743;0.016284663;0.18195502;0.023606438;0.045514323;0.19995388;0.04949855;0.04275552;-0.03762328;-0.072450854;0.13387899;0.24114402;0.020950204;-0.13951361;-0.08658626;0.016553752;0.06666891;-0.15243562;0.329244;-0.09737116;-0.014951879;0.027297352;0.2143865;-0.25065413;0.025391303;0.05228883;-0.40127042;0.019587308;-0.037559908;-0.10673843;-0.09691033;-0.013127877;0.006939016;0.068016164;0.2608645;-0.08412586;-0.10466639;0.05749921;-0.051662363;0.14741947;-0.2512753;0.06373738;0.04793327;-0.05037551;0.03528145;0.016405772;0.11147939;-0.0091815535;-0.0350309;0.113008924;-0.13589802;-0.03488558;-0.3433828;-0.16048868;-0.051698796;0.06814157;0.12141092;0.06875927;0.0003873951;-0.060562056;0.016732004;0.023732524;-0.2832563;0.025329307;-0.095368564;0.07432008;0.20849912;-0.01968805;-0.120393254;0.21733513;0.048445;0.04696669;0.14118464;0.1361219;-0.0064290366;0.26839384;-0.079967625;0.061144117;-0.153172;-0.024433764;-0.05368866;-0.009848879;0.19935486;-0.02000133;0.1746953;-0.098352894;-0.04206273;-0.041237034;-0.028122304;0.27783102;-0.059117913;-0.02591625;-0.09410842;0.0047178366;0.049586717;0.23298584;0.029532824;0.2614224;-0.18639168;0.09584305;-0.02618397;-0.2557545;0.009373456;0.16958319;-0.03295338;-0.30634505;0.0012350803;0.24449897;-0.022721589;0.039811272;-0.29771575;0.053748235;-0.015503047;-0.14311573;-0.046754353;-0.13510752;0.046256505;-0.02455537;-0.044029027;-0.06872385;-0.09355759;0.0115107745;0.05648267;-0.013681815;-0.027534612;0.23488654;-0.012755132;0.14111905;0.27259365;-0.16157423;0.08757008;-0.044859283;-0.06919704;-0.11968316;0.14281796;0.23480195;-0.06362196;0.028432226;-0.1693593;0.009544989;0.025469068;-0.047409367;0.15882446;-0.06573688;0.025068605;0.12258402;0.2877214;0.052538216;0.036566336;-0.0073428354;-0.045427248;0.059307035;-0.038867384;-0.009350217;-0.034386203;0.009738935;0.0024600613;-0.1511715;0.16836612;0.02863861;-0.21587324;0.063802965;0.0019386598;-0.0075675393;-0.13221699;-0.21343988;-0.27423364;-0.18792704;0.25205588;0.01728639;-0.11909573;-0.14555694;-0.05975465;-0.082005054;-0.011191892;0.013612539;0.086010575;-0.5448897;0.063094094;0.016555322;-0.17401783;0.0986351;-0.0053843106;-0.3768994;0.06923418;-0.029243102;-0.0857227;0.11477282;-0.07501956;-0.18849057;0.04288993;0.042878456;0.08530405;-0.015947184;-0.02572777;0.13270472;0.03147138;-0.029796984;0.16823307;-0.051562898;-0.19387305;0.12771736;-0.06802862;-0.29728585;0.28094944;-0.09060083;0.037788965;-0.14900194;0.23023471;-0.036772568;-0.08172019;-0.1997167;0.119827405;0.04650334;0.24544449;0.123028435;-0.046241075;-0.036819138;-0.044319626;0.09709346;0.05783802;0.058749683;-0.023099208
0.052526876;-0.20144375;-0.3954882;0.16876036;-0.032648485;0.31549552;-0.004570534;-0.31739807;0.01688566;-0.14964457;0.03766172;-0.17202933;0.06954936;-0.24238126;0.013207297;-0.13188714;0.29544196;-0.35060808;-0.12198711;0.131971;0.13142769;-0.024337064;-0.3896591;0.0227648;0.0014068619;0.046240516;0.07765648;0.010009991;0.15474579;-0.13323674;-0.18514423;-0.07602725;-0.19820254;-0.024786567;-0.015775656;0.22744307;-0.010404678;0.078028575;-0.07896176;0.054476626;-0.008628195;0.034227666;-0.014468784;-0.007156263;-0.08023204;-0.09962789;0.0026893676;-0.08194041;-0.042937372;0.021252524;-0.054470394;0.019677162;0.03790634;-0.047299407;0.027130123;0.0790841;0.06743661;-0.03563705;0.04678468;-0.15077686;-0.03965906;-0.19354674;0.014231495;0.008429479;0.032045007;0.047464866;-0.09073221;-0.11941642;-0.17785014;-0.05027205;0.21494927;0.010300978;-0.06527866;-0.08646456;-0.052434154;0.15734045;0.018423654;-0.082542114;-0.14442268;0.020522295;-0.009123764;-0.33508626;-0.14933744;0.31094995;0.01145977;0.04522302;-0.25662795;-0.009653259;0.034841806;0.07168475;-0.02409309;-0.13447845;0.18495412;0.051211506;0.19463569;0.39488736;0.13360035;0.059107933;-0.054100733;0.06025376;0.059822045;0.023226043;0.20020494;0.027341727;-0.120667756;0.11092394;0.05733522;-0.025166892;0.06150442;-0.001921302;-0.15927345;-0.114270434;-0.19537053;-0.111270376;0.1773892;0.113282576;-0.1054074;-0.1731147;-0.0030842982;0.034738503;-0.027856836;0.029885609;-0.3021199;0.032672282;0.036711596;-0.042203635;0.13019925;0.19864467;-0.008623342;-0.15210925;-0.06375215;-0.1648919;-0.17380215;-0.07763317;0.06815432;-0.121113904;-0.044243194;-0.12185365;0.012219726;0.0539704;0.19786707;-0.030917503;-0.027367843;-0.08704634;-0.0058255587;0.07653898;0.062971;0.028728941;0.055946257;-0.25657377;0.06697415;0.16552596;0.01026074;-0.010995339;0.0030608508;0.007903726;0.06468376;-0.3442562;0.05209622;-0.13244195;-0.101512566;-0.00021413018;-0.052023005;-0.08031696;-0.04872926;-0.049712878;0.12291241;0.036767438;0.099911585;0.03963806;-0.0019293188;0.057343636;0.004201366;0.09017577;0.067858405;0.1430588;0.067433454;-0.017345933;-0.18490472;0.021159876;0.009688176;-0.09454074;0.0051544905;-0.183195;-0.2128959;0.025876509;-0.014560256;-0.08712977;0.24436842;0.052637234;-0.24019098;-0.04533269;0.12354134;0.023748219;0.033069123;0.014507532;0.3773707;0.18884714;-0.37494916;-0.004889088;0.26621118;-0.103882164;-0.34800437;0.03990052;-0.19976331;0.03403928;0.1023363;0.011561365;0.03643543;0.042830937;0.039640896;0.038995933;-0.0728585;-0.01797176;-0.025469925;-0.049809054;0.11588409;0.0691175;-0.25284758;-0.09626448;0.005303873;-0.35802838;0.015725516;0.013573585;-0.049705897;-0.004002681;-0.05903507;-0.042730924;0.015702467;0.17120121;0.11350437;0.03947901;-0.19613923;-0.13239452;0.17948511;0.107233614;0.075149074;0.02559417;-0.1028011;-0.11662638;-0.14577052;-0.053129945;0.030417671;-0.06014414;0.08208862;-0.0048574223;0.0499074;-0.029372182;0.20822917;-0.080643795;0.008617027;0.022731615;-0.02023031;0.18878229;0.07303631;0.030919643;-0.17071234;0.039473124;0.021896996;-0.11014605;-0.03209029;-0.016067272;-0.13205004;-0.21082307;-0.22002666;-0.2955232;-0.17529655;0.13426551;-0.06061948;0.25075886;0.11697872;-0.1258742;0.052621428;0.058851052;-0.35382175;0.025598083;-0.017764684;-0.066679746;-0.07552055;-0.10996685;0.37052095;-0.039679788;-0.089235;0.05695905;-0.143691;0.26529452;0.078940235;0.07201577;-0.09225156;-0.12151483;-0.05993042;0.18293199;-0.1473103;-0.0125553515;0.061125394;0.35866144;0.068897;-0.08227177;-0.23518108;0.015667832;0.14749238;-0.051902052;-0.023680452;0.24037358;-0.014639094;0.04655708;-0.064850174;-0.049452912;-0.005189028;-0.0676172;-0.014472873;-0.13733876;-0.016115062;-0.10226089;-0.22934465;-0.030304162;0.05023709;0.038771264;0.22696556;0.10210965;-0.06625646;-0.31308365;0.0020087345;-0.048865985;-0.030023364;-0.05843884;0.00021001669;0.038826916;-0.058388174;0.103567;0.028767379;-0.12906452;-0.022438882;0.0341512;-0.21791315;0.044443082;0.1316016;-0.036515098;-0.10978269;-0.013223555;-0.03147755;-0.036065154;-0.0718186;-0.2672642;0.006986286;-0.11630891;-0.026828531;0.0061583025;-0.03803085;-0.12524018;-0.032551438;-0.13477351;-0.115410276;0.27418;0.0621508;0.1569127;-0.024616526;0.21799974;0.30946916;0.106286384;-0.06908026;0.052723464;0.03540167;0.13220817;0.263554;0.108209535;-0.12092854;-0.0029389104;0.033305;0.038293403;-0.16642182;0.41766813;-0.09610227;0.03265033;-0.0443885;0.17797881;-0.24777581;0.04417602;-0.046514135;-0.40578592;0.09713617;0.010603452;-0.00023061637;-0.06683371;0.027445659;-0.027339416;0.04128834;0.2425239;-0.026323147;-0.08010096;-0.09126567;-0.120590225;0.12728347;-0.17646937;0.0007848443;0.12516555;0.04770836;-0.01863837;0.02773236;-0.020788252;-0.0011058276;-0.0003314928;0.011196204;-0.08279189;-0.058019727;-0.27785337;-0.13102801;-0.022390265;0.015542614;0.07861744;0.039595272;0.07085585;-0.004908775;-0.10480872;-0.10292618;-0.303243;0.031765;0.061660357;-0.08292422;0.23633555;0.016870625;-0.12443638;0.095314704;0.043857712;-0.045930464;0.1751107;0.084182195;0.0421391;0.23000585;0.0126008;0.07520767;-0.23495843;0.023600029;0.027637491;0.004946713;0.040326335;-0.018179867;0.19174407;-0.06999523;-0.014936471;-0.07552384;-0.11788424;0.32970586;0.07140414;-0.02400218;-0.042806543;-0.032510776;0.07376866;0.21923037;0.09198208;0.2712006;-0.057936944;0.26594874;0.07336394;-0.22272713;0.010461421;0.057838336;-0.05758491;-0.2160573;0.055001438;0.20193774;-0.038385976;0.005958843;-0.22329785;0.069062255;0.043285;-0.20337273;-0.0906917;-0.072603256;0.061082445;0.02291531;-0.047069043;0.055204254;-0.055491965;-0.027589763;-0.032997116;0.030077979;-0.03596784;0.18111299;-0.052308206;0.08311958;0.2670432;-0.17384605;0.066197746;-0.01662457;0.018071422;-0.028460396;0.063241765;0.115697935;-0.07604001;-0.06483843;-0.09656653;0.031534664;0.0353458;0.12873164;0.23481587;0.008679092;0.01551327;0.0855835;0.23013733;0.037311386;0.19894092;-0.055229526;0.05249726;-0.07977382;0.03717718;-0.13486692;0.01003463;0.052809376;0.047543872;-0.26721486;0.29621086;-0.040118575;-0.04820732;0.07875658;-0.14208724;-0.066926904;-0.11987863;-0.13536018;-0.113752194;-0.021778654;0.21953194;-0.07963904;-0.023773516;-0.27567893;-0.15405895;-0.06511735;0.10783847;-0.010631302;-0.07070903;-0.60186034;-0.040325105;0.031938978;-0.11086474;0.22989966;-0.028241372;-0.38031992;-0.07142042;0.033526417;0.06830465;0.002502073;0.008307761;-0.15765542;-0.088103026;0.041914366;0.09433539;-0.0010900865;-0.032811858;0.17729717;0.038833857;-0.11854962;0.07503671;0.057676096;-0.16191497;0.082478926;-0.02868009;-0.32362708;0.23111008;0.058119267;0.024420913;-0.24349815;0.26216102;-0.038356926;-0.12237548;-0.27448866;0.08863565;-0.064852715;0.2079837;0.053275753;0.06176879;-0.02823114;-0.035666816;0.044586316;-0.072011344;-0.030005196;-0.07092292
0.14642005;-0.23702683;-0.2871087;0.1931689;-0.03380225;0.3786063;0.09605928;-0.29431593;0.07027631;-0.1835773;-0.031165954;-0.16797055;0.18447524;-0.067850105;0.06639127;-0.11626403;0.30579436;-0.3396069;-0.2802874;0.19636214;0.16881485;0.03130963;-0.33258328;0.047497798;-0.065368116;-0.06364493;0.0018976456;-0.03810461;0.03648515;-0.041102458;-0.18837932;0.07881599;-0.261667;-0.016889732;-0.061792538;0.30165607;0.024711298;0.1776317;-0.03336004;-0.03502194;-0.06657582;0.067330174;0.051273424;0.19005519;-0.008137727;-0.077401176;0.049082104;-0.2618152;0.13110198;-0.08038383;-0.05602137;-0.21780707;0.0026968094;0.07436542;0.056034293;0.11792621;-0.077466644;-0.08201409;-0.019284101;-0.032066353;0.031638145;-0.015106252;-0.034768496;0.09706995;-0.058750913;0.1050918;0.009678344;-0.041721653;-0.20953465;0.030161025;0.062162295;0.046580132;0.043890756;-0.19204739;-0.053370498;0.14703147;0.058238618;0.091324046;-0.03816282;0.0066912654;0.046001233;-0.30836537;-0.11264179;0.2729225;-0.028002763;0.10522151;-0.28515655;-0.0025547275;0.014767371;-0.01933107;-0.028925272;-0.10366716;0.074220754;0.13272673;0.16081491;0.47576115;0.16063783;0.01591717;0.10817023;-0.0039602714;-0.015356141;-0.05733775;0.21434814;-0.088868566;-0.16769828;0.053322624;-0.084102675;-0.091486;0.014928182;-0.04810325;-0.14075391;-0.1601243;-0.17023091;-0.11291082;0.08113568;0.14236405;-0.0749187;-0.12665549;-0.06278189;0.12860769;-0.041779943;0.086238205;-0.47239178;-0.029205602;-0.019017307;-0.008830936;0.18345024;0.084572986;-0.044829477;-0.11998969;-0.011513758;-0.17873894;-0.17175423;-0.1429572;-0.013234473;-0.025247533;-0.0011075543;-0.21411344;-0.015805949;-0.04154267;0.25013223;0.07720962;0.09331615;-0.017635489;-0.021090282;0.116523504;0.20204456;0.045515727;-0.07199624;-0.25000232;0.016460896;0.14860496;0.012608001;0.045009166;-0.059718244;0.057086617;0.03600862;-0.2730704;0.009160726;-0.2395609;-0.07471075;0.06059446;-0.067941636;0.074252136;-0.047364984;0.023872009;0.13640656;0.0072127967;0.10791383;0.08575548;-0.011455005;-0.06644883;0.003914054;-0.018139971;0.12106455;0.10462543;-0.06924966;0.008694085;-0.25882778;-0.02992442;0.050528087;-0.07209433;0.007163096;-0.2804845;-0.3023076;0.06534672;-0.1859646;-0.10678194;0.35591447;-0.0103342775;-0.28290898;-0.010124858;0.043982007;0.01054102;0.058590494;0.19801116;0.4686048;0.17929843;-0.21400382;-0.0031800605;0.3305179;-0.13997525;-0.32444805;0.036731698;-0.18650635;-0.067678146;-0.056510035;-0.0063547725;-0.07771026;-0.028403603;-0.064692445;0.078390144;-0.041438732;0.004381579;-0.037304603;0.007144669;0.15797845;0.046519637;-0.3950931;-0.029513381;0.0108531965;-0.42404756;0.071929485;0.034199167;-0.016908605;-0.035710197;0.06566966;-0.04995184;-0.026385775;0.090729155;-0.026703598;-0.05836083;-0.27085003;0.0069526928;0.17698234;-0.07240086;0.12191687;0.1024157;0.016875854;-0.09748499;-0.2514007;0.031771384;-0.062024638;-0.10295597;-0.00014316733;0.107151575;-0.03451371;-0.075332165;0.12069328;-0.035050303;0.0076049743;0.13241132;-0.08801304;0.21659848;0.016231725;-0.07150481;-0.11163141;0.0039129346;0.066371754;-0.018930387;0.0065693473;-0.015460158;-0.1544277;-0.3323148;-0.21200347;-0.23888165;-0.17819671;-0.040766153;0.0554708;0.2239815;0.06668893;-0.16556254;-0.046527263;0.117913134;-0.32759658;-0.00060499256;0.009852183;-0.067263335;0.025300324;-0.060126767;0.15557617;0.03614723;-0.011722805;-0.08820264;-0.3438058;0.16137774;-0.03263416;0.12255827;-0.20418854;-0.19997032;0.053672537;0.07061821;-0.061750844;0.0057520415;0.11274355;0.3381103;0.003107491;-0.018721173;-0.3361922;0.05704473;0.18565531;0.050945006;0.04037802;0.2238467;-0.023646928;0.11573231;-0.027137676;-0.0820255;0.031429335;-0.17082457;0.054771848;-0.16311245;0.022664582;-0.14662604;-0.25290358;-0.07541732;0.008890719;0.039255235;0.20551276;-0.023790646;-0.20005964;-0.37279245;0.070208125;-0.019297382;-0.033886332;0.017206037;0.038404632;-0.10859156;0.06456774;0.112537265;0.043683317;0.005164037;0.08682047;0.043059237;-0.33378723;-0.026066087;0.12240894;0.070489384;-0.24634647;-0.012101588;-0.03850413;-0.04109429;-0.030849539;-0.23691274;-0.048153073;-0.1107318;-0.00825894;0.026755452;-0.027296921;-0.2525805;0.08363796;-0.15722543;-0.10209464;0.27639452;-0.07953457;0.03065713;-0.07280596;0.18700291;0.19625272;0.07132271;-0.06226972;-0.05887236;-0.045103267;0.17148729;0.3197184;0.14993815;-0.091975406;-0.032887932;-0.0038886766;0.12091842;-0.09797747;0.39874765;-0.11909768;0.048397545;0.0009399976;0.20314662;-0.39286423;-0.032287154;0.042128213;-0.37512568;-0.03345663;-0.06495992;0.04946992;-0.06920938;0.023029044;-0.024429265;-0.053168148;0.23719364;0.04855889;0.015900252;0.0054209945;-0.10851483;0.046521645;-0.10170862;-0.03146662;0.019042652;-0.019368252;0.037107922;-0.03934519;-0.01844537;-0.05551845;0.022828871;0.08936064;-0.15676284;-0.20024478;-0.13255668;-0.15469187;-0.08793452;-0.0060980506;-0.096245505;-0.07578209;-0.0229533;0.0028537298;-0.09566245;-0.051168144;-0.39580962;0.009677799;-0.0027674143;-0.008982874;0.24066293;0.008761891;-0.09308841;0.11209418;0.09500496;0.04783674;0.22396699;0.028400822;0.04894768;0.23686604;0.12007214;-0.038978253;-0.2599659;-0.00016049953;0.1152801;0.011171878;0.13133875;-0.04452773;0.12315967;-0.086937815;0.022067554;-0.16853642;-0.056010384;0.2996647;0.008487888;-0.19203342;-0.07403041;-0.007875063;0.10608613;0.23828232;-0.010018203;0.19318965;-0.119708076;0.2297672;-0.0421884;-0.23502274;0.07037411;0.16704686;-0.015577431;-0.23206407;0.09793819;0.26387608;-0.11493278;0.051163148;-0.14539133;0.13951017;0.012736109;-0.0805506;0.072758764;-0.05480175;-0.016192041;-0.06147739;0.091385365;-0.03643088;0.09265494;0.09994813;-0.017357353;-0.004324524;-0.04010738;0.11467755;0.057174556;0.07236669;0.11851589;-0.08768447;0.14202541;0.044892654;-0.05635117;-0.03175296;0.12214453;0.14143518;-0.10485848;-0.04139479;-0.22339818;-0.048623107;-0.12146672;0.090195626;0.14205843;-0.005493491;-0.026054835;-0.013290455;0.06138473;-0.054015175;0.10106238;0.09900194;-0.003518604;-0.05985134;-0.031567432;-0.085998185;0.009283783;-0.03465658;-0.07192058;-0.14142303;0.22119041;0.000981229;0.07317029;-0.06643422;-0.025326485;0.012796821;-0.23312843;-0.14139862;-0.19635093;0.0078022224;0.1490089;0.017577033;-0.038777467;-0.11797152;-0.039000276;-0.0596825;-0.009206645;0.109253384;0.0031737247;-0.5780902;-0.017266069;0.043945495;-0.06513856;0.14020763;-0.051121645;-0.44667152;-0.011446724;0.03972791;0.0007097389;0.09770641;0.034460537;-0.29937893;-0.07192562;-0.057550717;0.13551486;0.035960536;-0.011851478;0.24487299;0.028229166;-0.026677111;0.19204834;-0.0058217896;-0.10126831;0.14434466;-0.14410086;-0.30276707;0.2734088;0.036371704;-0.03193616;-0.14518373;0.32705092;-0.08424495;-0.050072514;-0.1852314;0.109920934;0.00857577;0.23131311;0.1458117;-0.021568587;0.09225682;0.044578042;-0.026559096;0.012250266;-0.02666504;0.026951754
0.16911538;-0.14053723;-0.37853765;0.193637;-0.056925986;0.35906836;0.03821305;-0.2571315;-0.025157463;-0.07240965;0.06553289;-0.13666357;0.12760222;-0.21709466;0.0059114937;-0.118814416;0.15397845;-0.32946435;-0.24721332;0.25656125;0.046776142;0.048847437;-0.40318382;-0.044384357;-0.0020586718;0.06088043;-0.057772737;-0.060448896;0.109319694;-0.08853018;-0.1339915;-0.060933173;-0.15714905;-0.0038240454;-0.070739545;0.24320371;-0.03957909;0.104370505;-0.036934122;-0.017870901;0.03095717;0.02424987;-0.004402341;0.29704854;0.040563703;-0.18725581;0.003954724;-0.13481319;0.12892218;0.0682657;-0.059641756;-0.17412691;0.029128931;-0.05038636;-0.056119237;0.057506315;0.029727183;-0.05237217;-0.05790655;-0.016222272;-0.012167816;-0.13858761;0.060998924;0.16963771;0.11395491;0.051222235;0.058114998;-0.04792851;-0.21331702;0.049399514;0.1644816;-0.10644872;-0.063891344;-0.1885494;0.10809732;0.11324702;-0.09025516;-0.08455115;-0.110250734;-0.011468613;-0.047194798;-0.15955836;-0.24505462;0.29438546;-0.0070275916;0.16898124;-0.4005749;0.012408841;0.007106225;-0.059174754;-0.0027195879;0.039900668;0.08175611;0.1482659;0.2385797;0.5262787;0.20479743;-0.014268311;-0.0013283722;0.016932264;-0.032235943;-0.010905377;0.19863874;0.058304332;-0.03573052;0.03823262;0.009383011;-0.12462687;0.105660886;0.06486341;-0.28259227;-0.15106587;-0.124755904;-0.12765034;0.19894473;0.18123546;-0.13012157;-0.16452879;-0.0016204964;0.12542105;-0.005185614;-0.054260828;-0.4337512;0.036318745;0.004844064;0.033763457;0.20756812;0.069409065;0.08062408;-0.12081509;-0.17545354;-0.18505162;-0.25480214;-0.059010077;-0.071177274;0.087632515;0.01981818;-0.19527934;-0.055509;-0.0811788;0.2010148;0.18590064;-0.06329141;-0.068538554;0.041212317;0.10205153;0.2102044;0.043656245;-0.039631166;-0.20549516;0.043970127;0.08265509;0.09557036;0.02519091;-0.026614394;-0.020499034;-0.06494619;-0.2646495;0.023805566;-0.22655366;-0.0745955;-0.047976002;-0.10056572;-0.0070446916;0.024918767;0.058083884;0.13809535;0.01896745;-0.060799215;0.0033008803;0.07394776;0.07036894;-0.0040844027;-0.059850592;0.048921864;0.08785359;0.039822463;-0.050233524;-0.16686814;0.006042258;-0.037207708;0.046624724;0.07585911;-0.1508151;-0.2783142;0.027634649;-0.16093652;-0.010658356;0.34629896;0.024492005;-0.298338;-0.04849585;0.063703746;0.0717908;-0.06177395;0.13368139;0.41294712;0.14958318;-0.18736538;-0.010757197;0.3966266;-0.111790106;-0.35499763;0.010829842;-0.12340163;0.007493273;0.054909594;0.020671781;0.054968853;-0.074807666;0.040015884;0.12686071;0.046084076;3.9923485e-05;-0.110246085;0.0637238;0.1349615;0.09162504;-0.2277442;-0.076712064;0.02357727;-0.3220756;0.12555008;0.026122455;-0.053175956;0.03479507;0.033285752;-0.01813293;-0.06285236;0.096107155;-0.053617693;0.031919558;-0.13963613;-0.025852734;0.16924223;-0.037179183;0.10523441;-0.051985115;0.004322606;-0.14931746;-0.112312555;-0.009971243;-0.038865164;-0.0068217674;0.10566822;0.05635596;0.034887943;-0.10922221;0.15155882;-0.14246058;0.044278044;0.12187092;-0.0034245558;0.14585379;0.09503237;-0.020767147;-0.038938306;0.03572277;0.062535405;-0.09447813;-0.061607588;0.047918398;-0.20065437;-0.33604622;-0.1024269;-0.068136804;-0.21061407;0.09123927;-0.04556682;0.19105019;-0.02537728;0.0104354955;0.010112276;0.13907878;-0.37227765;0.05838207;0.025563832;-0.044593744;0.011202864;-0.13769262;0.13686946;0.09878128;-0.14504433;-0.14542598;-0.31803513;0.17785786;-0.046464622;-0.024969613;-0.23796119;-0.054028597;0.038084593;0.060737118;-0.0032694407;-0.051759813;0.18313113;0.32545725;0.056836676;-0.07793405;-0.33188006;0.004712664;0.07690836;-0.04506851;-0.019702466;0.28693727;0.07095791;0.13010544;0.08883719;-0.028589929;-0.0049835923;-0.15270185;-0.056790385;-0.093242384;0.09274609;0.044609;-0.1627168;-0.05561357;-0.06821551;-0.0037815347;0.2169707;0.06176299;-0.16870543;-0.2083858;0.042072013;-0.033780895;0.043285042;0.010589513;-0.05199734;0.0134478295;0.0496087;0.02196908;-0.009445865;-0.011158302;0.078685924;0.15308747;-0.30089754;-0.006591314;0.042347997;0.021109931;-0.3119946;-0.012360344;-0.029871525;0.039050303;-0.10355559;-0.16213493;0.026831599;-0.0012063467;-0.015006899;0.033816814;0.032009576;-0.13307135;-0.049745858;-0.07672196;-0.0811957;0.24526414;-0.04940523;0.048864044;-0.033477217;0.1617869;0.1712977;0.19438544;-0.041745562;0.12703182;0.03748067;0.057630762;0.30089805;0.07895553;-0.08796424;-0.084057;0.13839918;0.06425709;-0.1273299;0.2642487;-0.13651526;0.033368394;-0.0889782;0.1408985;-0.31545326;0.10432231;0.047133945;-0.3980918;-0.050075073;0.07741591;-0.01844968;-0.14557727;-0.039160915;-0.09881309;-0.0695448;0.3104592;-0.058155812;-0.09535036;0.042050198;-0.053835303;-0.014946796;-0.0824204;-0.003766813;0.0468905;0.050109982;-0.016928595;0.08652693;0.063365474;-0.044629015;0.08691261;0.0040028095;-0.036630012;-0.1358383;-0.13957387;-0.034936603;-0.13908319;-0.12165031;-0.056804024;-0.15812433;0.108919285;0.01184444;-0.21048214;0.0170075;-0.33676198;-0.03856197;-0.06677039;0.021709839;0.27137527;0.075608335;-0.18093498;0.10806852;0.119359665;-0.07566303;0.14741814;-0.08461183;-0.06511737;0.20146587;0.18517883;-0.0476784;-0.13661052;0.038682;0.061746478;0.075205825;-0.03240812;-0.032674953;0.09076587;-0.06638905;-0.054673757;-0.03393976;-0.20160955;0.1888653;-0.08828536;-0.011211746;-0.14894505;-0.11471533;0.17566504;0.27517506;0.1193312;0.2605773;-0.120687455;0.15320377;-0.055794075;-0.3030255;-0.006736961;0.16795579;-0.07638037;-0.21199086;0.09311042;0.27969483;0.027684517;0.11828902;-0.28331354;0.20339876;-0.1117274;-0.14223124;-0.033364963;-0.02650659;0.06167428;-0.06614541;0.15009454;-0.04053676;0.08145148;-0.040999465;-0.056978654;0.016240802;0.0008800321;0.13870583;0.041213058;-0.021192895;0.068728425;-0.14967185;0.035294574;0.063572176;0.051870283;0.0036320481;0.11603921;0.11936525;0.05873192;0.006200534;-0.19256753;0.07839412;-0.08319524;0.10119896;0.18688434;-0.079096094;0.003486404;0.0111878365;0.19449434;-0.046298932;0.12551102;-0.023491;-0.017122554;-0.05451672;-0.04312608;-0.23244217;-0.07460757;0.017216098;-0.037021402;-0.10663081;0.18467289;0.04493493;-0.045852337;-0.02884346;0.008769781;0.039539706;-0.23982105;-0.34450474;-0.26777226;-0.011996357;0.23511778;-0.037381995;-0.00042562085;-0.24966116;-0.011022125;-0.06085466;0.01904465;0.042111374;0.0030920892;-0.5290564;0.022305686;0.035559848;-0.17413962;0.12786151;0.045615505;-0.4123948;0.0313382;-0.03863734;0.063098855;0.008513975;-0.008421418;-0.17809832;0.04883766;-0.0832728;0.031625237;0.09785373;-0.0321245;0.18623373;0.018119408;0.049809743;0.14370447;0.0028959515;-0.17260776;0.10597006;-0.05171787;-0.31150904;0.35441875;0.036999725;-0.06959188;-0.23799428;0.2510572;-0.11864775;-0.101834066;-0.23503792;0.118353374;-0.013356219;0.21542655;0.10169445;0.05042493;0.014820169;-0.035897348;-0.032970883;-0.014323853;-0.012119481;0.19130781
0.041327007;-0.29282334;-0.35203016;0.1268471;0.07241351;0.34552225;0.09231256;-0.24515304;0.030163286;-0.054652374;-0.06922818;-0.25661674;0.2397767;-0.11795063;-0.050363954;0.00441267;0.17008664;-0.2239361;-0.22964877;0.26644462;0.09364101;0.026085278;-0.40582517;0.0037864498;-0.06220947;-0.06482099;0.039228227;-0.08291468;0.13993257;0.004677506;-0.19149336;0.052880324;-0.16948424;0.01655472;-0.027220549;0.25200754;0.06613802;0.10030957;-0.038406864;-0.017002221;-0.008613227;0.017133659;-0.16940787;0.35025603;0.033814624;-0.075785466;-0.031834252;-0.24197803;0.04225455;-0.012331899;0.06307503;-0.10404642;-0.022385305;0.007246623;0.018841665;0.2603539;-0.005800621;-0.023669884;-0.09197959;0.0311069;-0.013849992;-0.029135907;-0.046167754;0.18182553;0.08271713;0.10798727;-0.032850377;-0.18072312;-0.18112467;0.01320721;0.1617539;-0.0029089686;-0.052995667;-0.23466204;0.17451052;0.105520375;0.023936547;-0.020280052;-0.10781865;0.0264303;0.04852631;-0.19489673;-0.20170638;0.21078569;0.04086528;0.20839582;-0.3832144;-0.076260164;0.03413487;-0.05899048;0.048072487;0.017449694;-0.002158019;0.034129295;0.16417399;0.54872054;0.16194461;0.0074091773;0.07904501;-0.036463268;0.022373393;0.03291428;0.13997881;0.051747743;-0.096500136;0.09247734;-0.010243599;-0.16673315;-0.024437772;-0.018570311;-0.24245554;-0.102020346;-0.12896487;-0.0070654075;0.25364175;0.18129957;-0.01543662;-0.17368247;0.007749907;0.07982183;0.06550972;-0.010076021;-0.40950447;-0.06451646;0.05253421;-0.01670697;0.14507718;0.22963367;0.081998006;-0.16809633;-0.1367759;-0.2307387;-0.3221224;0.013938853;0.048045732;0.00792766;-0.020526178;-0.1109764;0.06659619;0.037210304;0.23605794;0.14144117;0.020438848;-0.10029106;0.0055269115;0.077147074;0.2113427;-0.03883665;-0.00552556;-0.2509096;-0.07720402;0.1755874;0.046710376;0.033782147;0.0074167964;-0.042716525;-0.05346449;-0.2859203;0.04164049;-0.38232663;-0.031512;0.052587565;-0.21847223;0.061438147;0.03472963;-0.043764707;0.27229622;-0.084777534;-0.06599305;0.08225054;0.049702283;-0.048968624;-0.0040429896;-0.057738144;0.07746154;0.049109682;-0.083606474;-0.005213871;-0.25300512;-0.06893823;-0.051509228;-0.0050823917;-0.04300465;-0.13243602;-0.30314285;0.11110744;-0.17553289;-0.0771619;0.30066755;-0.032348607;-0.18102632;-0.028392784;0.0645628;-0.0031616183;0.03739521;0.0650787;0.43420285;0.16128601;-0.11272676;0.046506718;0.28933853;-0.05207284;-0.267426;-0.0723655;-0.17378782;-0.034451094;0.039794546;0.044109035;0.0026959518;-0.118985884;-0.04440024;0.0032530918;0.046679318;0.030993992;-0.050542407;0.030369855;0.032686982;0.087483115;-0.16765916;-0.035396293;0.043062054;-0.3225853;0.21452107;0.027575554;-0.056116432;-0.037614223;-0.057801813;-0.07855089;0.038584758;0.03482278;0.06492402;-0.031286772;-0.029748298;0.0047010593;0.04317719;-0.00032663537;0.0011761205;-0.052222256;0.06579297;-0.16133644;-0.097034864;0.071723804;0.047835074;0.030960998;0.093880996;0.0281103;0.062253375;0.039437663;0.27640414;-0.09222841;0.08351802;0.03661286;-0.012333001;0.15972836;-0.0029845866;0.00019945155;-0.11396817;-0.012250425;-0.011780124;-0.13366406;0.0014387183;-0.004347049;-0.15219581;-0.2708221;-0.10102261;-0.113184415;-0.31109318;0.045947194;-0.07228245;0.27748933;-0.01980343;-0.039150905;-0.063850716;0.15280952;-0.43449998;-0.0065907766;0.05249538;0.06290819;-0.006870778;-0.09984413;0.1396659;0.19165832;-0.17690909;-0.0715823;-0.23091647;0.2765198;-0.033567198;-0.11175483;-0.2749636;-0.06366148;0.030202094;0.041937377;-0.1272852;-0.04132451;0.12473715;0.24615185;0.05027962;-0.014105937;-0.25746998;-0.034670305;0.13895153;-0.014726532;-0.07414037;0.0696151;-0.039827872;0.120565005;-0.034814328;0.050384384;-0.048041932;-0.057790183;-0.042003915;0.09246228;0.03472474;0.019610053;-0.17506567;-0.054063067;-0.17276798;-0.07628295;0.09143686;-0.031679604;-0.24156031;-0.18357953;0.006813521;0.0446209;-0.019183159;-0.012470166;0.0005604507;0.02667612;0.028447116;0.09484269;0.019463912;0.020202994;-0.10179784;0.1716463;-0.23864311;0.003614916;0.0063489443;-0.007970792;-0.29897436;0.051660534;0.14810017;-0.0133624105;-0.17227943;-0.12818599;0.015268994;-0.09944846;-0.013289514;-0.023987742;0.035258435;-0.21598019;0.0020671682;-0.08524128;-0.14099239;0.28043422;0.037326045;-0.10880508;0.016914468;0.14426583;0.26325238;0.09222781;-0.011233434;0.022903264;-0.035939343;-0.0005935059;0.28379992;0.1879484;-0.056834914;-0.1598405;-0.027195709;0.05877771;-0.109530084;0.31362188;-0.15926771;-0.038082942;0.016418258;0.098806195;-0.29308897;0.039584327;0.04159764;-0.32979724;-0.0019604983;-0.055241946;0.015232729;-0.109868474;-0.041211557;-0.09308661;-0.061548084;0.29625067;0.05832375;0.13671468;0.123059906;-0.073778145;-0.060509305;-0.11965119;-0.013637078;0.095720045;0.008632655;0.11070642;-0.042271107;0.07140925;0.029976778;-0.020601386;0.0056756595;-0.07808584;-0.17717187;-0.082252435;-0.05971424;-0.2227991;-0.2140389;-0.050604858;-0.07890383;0.094120555;0.057680562;-0.24399169;0.03441881;-0.20168586;0.0035062945;-0.09908554;0.045396876;0.165614;-0.011910319;-0.07629458;0.19801225;0.18173727;-0.011544841;0.19536352;-0.15713926;0.079016946;0.2490982;0.14718258;-0.057960406;-0.19891495;0.04358685;0.039213616;-0.051948063;0.027410306;-0.0834509;0.1749674;-0.06153296;0.08971801;-0.15218629;-0.20196025;0.28864858;0.017453225;0.031421233;-0.2073369;-0.028107418;0.103739895;0.17307284;0.13878901;0.16614698;-0.14267395;0.2640909;0.08437483;-0.24075203;-0.06685188;0.099786304;-0.08730639;-0.10710691;0.08298261;0.18232843;-0.028875807;0.19556153;-0.22468652;0.08950113;-0.07921463;-0.03186537;-0.0396833;0.008306391;-0.03772999;0.03871808;0.027950315;0.072056256;0.01256341;0.034774616;0.013116393;-0.0057805716;0.050811384;0.22231804;0.044044085;0.109271966;-0.071141;-0.034903854;0.098040774;-0.047565233;-0.032581344;0.054808483;0.14333935;-0.010116601;0.08863462;0.06861564;-0.058298334;-0.031214764;-0.06961455;-0.009682065;0.20286848;0.0069559775;-0.06579573;-0.013295495;0.20836651;0.048921037;0.16616441;0.006711958;0.06666928;-0.03243125;0.013627106;-0.10273565;-0.06591132;0.0009827713;0.04799295;-0.1251673;0.15060619;-0.00889412;0.08269956;-0.06544192;-0.11386447;0.044775836;-0.13641685;-0.40555277;-0.2676949;-0.03107265;0.30212468;-0.0028834702;0.032363176;-0.12992172;-0.05766606;0.018898936;0.01939393;0.13367288;-0.010108513;-0.57272196;-0.028185183;-0.09354468;-0.10517037;0.12775579;-0.028345682;-0.2590531;-0.066157155;0.019062968;0.042950362;-0.0133698005;-0.03507543;-0.2584879;0.042645417;-0.035755463;-0.07302787;0.07653541;-0.032133237;0.23743455;0.10573714;-0.009643814;0.11510368;-0.022145184;-0.20662749;0.070302635;0.03181746;-0.18804134;0.46530262;-0.023062274;0.022399899;-0.19606724;0.34708282;-0.076273985;-0.1495911;-0.14814499;0.20214704;-0.041922443;0.11085894;0.12953433;-0.016127497;-0.10798099;-0.015873551;-0.049504735;-0.018852938;0.019144421;0.21537621
0.019730804;-0.189139;-0.23774016;0.06810841;-0.0694032;0.3629868;0.08871161;-0.16425145;-0.05246553;-0.00090105674;0.018341003;-0.20072827;0.071939744;-0.07112454;-0.051955175;0.07821611;0.11467325;-0.24205717;-0.17017859;0.12706874;0.0014981608;0.03577042;-0.41394138;-0.017511366;-0.0953704;0.049378708;0.06519291;-0.061065074;-0.021090133;-0.0029764404;-0.19986011;-0.023385713;-0.22250502;0.08372233;-0.14770979;0.31999612;-0.017650198;0.13427848;-0.03099035;-0.09228558;-0.018280728;-0.020861426;-0.057192277;0.17203787;-0.0060308203;-0.010619393;0.0049067424;-0.23884244;0.010813002;0.038882803;0.018869014;-0.07908762;-0.044632394;-0.0654944;-0.013707406;0.14070418;0.01947795;0.015306575;-0.06398128;-0.059107546;-0.006677877;0.00026444628;-0.043843996;0.24656284;-0.018191272;0.17450693;0.009367971;-0.046100732;-0.15860799;0.0457294;0.22402525;-0.028859233;0.0200692;-0.22710799;0.19350217;0.14748794;-0.017363174;-0.18671133;-0.14449355;0.008743855;0.015550216;-0.13922183;-0.26764557;0.31506845;-0.0049877334;0.10782491;-0.36398667;-0.02006145;-0.018271117;0.038991526;-0.015466274;0.027411262;-0.046678826;0.17997763;0.19170201;0.40212646;0.23868509;0.0072726505;0.06237882;0.026292728;0.0029818285;0.12798785;0.033274032;-0.036370266;-0.040882602;0.1729571;0.06119869;-0.19180489;-0.08095797;0.010324099;-0.231807;-0.14766614;-0.1351878;0.05918809;0.11473206;0.106762365;-0.084749974;-0.03728346;0.027974438;0.07373192;0.06382296;-0.059372675;-0.26178235;-0.0010179769;-0.039344158;0.009864744;0.13198337;0.1519816;-0.06932172;-0.1898765;-0.2205084;-0.1677467;-0.20669042;-0.08091104;-0.050973177;0.016879883;-0.010017239;-0.119756036;-0.03344413;0.04634233;0.26556763;0.19095814;0.0096489955;-0.16944808;-0.0028870075;0.013230902;0.120997384;-0.013352736;-0.15987957;-0.2621442;0.051511243;0.014637028;0.08067376;0.0022315902;0.04662504;0.04941428;0.050574165;-0.35381266;0.08369002;-0.28400788;0.12170403;-0.007078586;-0.11661715;0.0454369;0.03134483;-0.0519469;0.24114467;-0.03331858;0.03948598;0.04691907;0.0025269666;0.019876253;0.047966707;0.07187336;0.093336426;-0.027514372;0.03057751;0.023250798;-0.27671763;0.038214035;-0.013284409;-0.039022636;-0.075790316;-0.19374046;-0.32620296;-0.065840065;-0.19210164;-0.03145644;0.36927152;0.025804298;-0.07054826;0.056394216;0.1259777;0.037089963;0.00058063347;0.13934457;0.433351;0.15822871;-0.31332454;-0.058391284;0.28454888;-0.18316767;-0.38097855;0.06669076;-0.0832469;-0.008173691;-0.0018811967;-0.030694263;0.10970086;-0.04768543;-0.043766864;0.10914139;-0.071094796;-0.031349186;-0.0022417428;-0.02641761;0.13668264;0.027200963;-0.15514718;-0.12847005;-0.08608226;-0.0598763;0.23858914;-0.0057563786;-0.034924652;0.03246809;-0.008369708;-0.0699835;-0.039181393;0.07771563;0.016027538;0.03048782;-0.024553454;-0.08046677;-0.031282596;0.0030187964;0.08777363;0.056539237;-0.03848548;-0.030131606;-0.196198;0.05427631;-0.032749668;-0.08208745;-0.011296198;0.024869084;0.014450141;0.06162413;0.22803606;-0.03975281;-0.07423601;0.11492486;-0.048024993;0.30423424;0.07864695;0.042864777;-0.11082148;-0.05545929;-0.009983284;-0.21555722;0.079865694;0.017674237;-0.037249543;-0.14768893;0.05942994;-0.017262682;-0.30753624;-0.007987752;-0.06444624;0.15436499;0.10509237;0.07497085;-0.013760088;0.061339792;-0.3599399;3.081665e-05;0.05915761;-0.017025676;0.045415163;-0.11092906;0.10815669;0.19022255;-0.1802048;-0.009568644;-0.23983064;0.1173942;-0.031726215;-0.0015007154;-0.20696202;-0.15441811;-0.026539152;0.095237024;-0.16353378;-0.12704621;0.071923554;0.4038906;0.06525029;0.029340636;-0.27896196;0.03597395;0.118128635;0.07946307;-0.004449194;0.0754329;0.055156186;0.027497945;-0.03275415;0.052286994;0.043154147;-0.16615024;0.03371972;0.08336489;0.00940315;0.1090601;-0.054604962;0.040376674;-0.035204783;0.0050176987;0.0766835;0.13292982;-0.18294226;-0.17184262;0.0031058236;0.031408116;0.0008186804;0.070777185;0.025869096;0.026335374;0.05252733;0.068697095;-0.06641784;-0.13511832;-0.038971215;0.059584282;-0.4346443;-0.031095037;0.1595881;-0.07572941;-0.26536167;-0.09601213;0.10486282;0.003746551;-0.10222056;-0.19088411;-0.12561803;-0.018302064;0.023010587;0.022128532;0.009511394;-0.31386495;0.025201287;0.04992952;-0.119729035;0.30609065;-0.03601311;-0.05721932;-0.08599418;0.22201835;0.2516361;0.1138659;0.07672064;0.04090437;0.039092038;0.02691466;0.23980036;0.15636405;0.051708456;-0.2561868;-0.049729656;-0.07447634;-0.10558566;0.20319399;-0.041049063;0.02239738;-0.06000826;0.07854199;-0.37323746;-0.052498203;-0.028932244;-0.4001717;-0.058602612;0.01467909;0.05256933;-0.028376162;0.020263003;0.015702544;0.019572888;0.21480717;-0.07119169;0.0704356;-0.013310259;-0.06467016;-0.09529209;-0.024950374;-0.04027891;-0.10914206;-0.01109528;0.10288908;0.0284614;0.06915655;0.05017132;0.13139218;0.0027199234;-0.037706323;-0.1829883;-0.10596738;-0.023453748;-0.15336096;-0.04748039;0.14991862;-0.093173586;0.13209115;-0.06855196;-0.18184485;0.032570053;-0.30550835;0.0026238267;-0.0058561205;0.030655194;0.16757557;-0.031161688;0.06710765;0.14541575;0.10700577;-0.08447633;0.14373723;-0.13502161;-0.032434206;0.3011537;0.23251475;0.077220686;-0.083512954;0.053985603;0.041835777;-0.06939683;-0.060664754;0.1335532;0.06665154;-0.21760362;-0.02060321;-0.11045699;-0.14381325;0.23173676;0.05189838;0.0071397703;0.0024199362;-0.09364307;0.018155772;0.21406233;0.25230175;0.2343072;-0.041809052;0.19886328;-0.03423856;-0.26463333;0.007856144;0.13973665;-0.04516812;-0.087581344;0.057445597;0.28550556;0.057596974;0.24136962;-0.21881008;0.15336326;0.061387204;0.0543997;0.01265262;-0.06705329;-0.015835159;0.0147364475;0.24116996;-0.014276305;0.13263512;0.066453256;0.0521444;-0.08928259;-0.05848305;0.10062151;-0.009960877;0.04837309;-0.16288143;0.04656164;0.17236757;0.061611116;0.0015044984;0.049362663;0.270009;0.022270104;-0.008696697;-0.009790454;-0.026215998;-0.006826996;-0.093463354;-0.1366144;0.037142657;-0.0062004225;0.045449335;0.017661005;0.28195092;0.013336502;0.14575532;-0.05711259;-0.01618611;-0.020889878;0.019764008;-0.23910859;0.01603456;0.012974162;-0.07672386;-0.047897186;0.22873789;0.042166;0.15680397;-0.012796847;-0.111157835;-0.002565563;-0.0787517;-0.32613012;-0.15931615;0.051467694;0.2516443;0.04429875;-0.059197605;-0.121499285;0.019419953;0.038101;0.056004878;0.19623147;0.053667612;-0.6121341;-0.046702392;0.04639427;-0.21003187;0.01572679;0.05189589;-0.17800356;0.018137338;0.01867678;0.081499666;-0.042847037;0.048095923;-0.37259945;0.011869515;-0.03211067;0.105508216;0.086200535;0.046178684;0.24094005;0.018065872;0.001946437;0.20519543;0.018463058;-0.19452567;0.095458135;0.016337;-0.1974457;0.40233538;0.033227436;-0.033768117;-0.2350275;0.28875378;-0.020588676;-0.10823873;-0.1545278;0.23042244;0.038692087;0.035296127;0.10733923;-0.054045625;-0.019461526;0.020522019;-0.1331592;0.008252816;-0.008621786;0.12954246
0.09078143;-0.12773895;-0.21523389;0.08239637;0.038996585;0.35323074;0.13262644;-0.24861139;-0.04330188;0.028906897;-0.073303245;-0.16989242;0.06779734;0.021617383;0.02122037;0.011486032;0.083164714;-0.3439786;-0.2247836;0.17589305;0.1235614;-0.08205353;-0.297507;-0.018732509;-0.0077267704;0.00987357;-0.049408704;-0.1340734;0.12620156;-0.02759356;-0.15601303;-0.0034020077;-0.14101005;0.03731042;-0.107053004;0.3118675;0.06500105;0.31457755;0.06744511;-0.09322213;0.019866472;-0.055689123;-0.1700869;0.29217112;0.05044171;-0.08046241;-0.007953817;-0.17917071;-0.053228833;0.00018216636;0.04061158;-0.13271528;-0.035642866;-0.016425533;0.0310246;0.16424903;0.032646388;-0.02992798;-0.114725314;0.026046129;-0.033182044;0.17939825;0.04820851;0.20800121;0.052020743;0.17257698;-0.021996548;0.0015341669;-0.062354226;-0.041145116;0.31708384;-0.0040858514;0.048545033;-0.17819233;0.20364833;0.07501453;-0.002374174;-0.21168955;-0.012893626;-0.005021538;-0.043443;-0.23141485;-0.23369619;0.21258709;0.05944649;0.07522627;-0.35257202;0.06303983;-0.014203303;0.022016063;-0.037655775;0.06394532;-0.07817307;0.14309832;0.13600107;0.3418882;0.13166952;-0.028650489;-0.07885399;0.034760937;-0.002214274;0.0033889646;0.08809797;0.066246316;-0.11368379;0.10284822;-0.009843046;-0.13333772;-0.049379468;0.009674639;-0.10676622;0.039868373;-0.2112455;0.045432802;0.064128906;0.17217393;-0.05825953;-0.1174469;-0.07656171;0.0006978217;0.10387851;-0.038373638;-0.36825666;0.07080562;-0.037062377;0.0542297;0.0482902;0.053433355;-0.049477212;-0.09197286;-0.060251165;-0.10708993;-0.29727137;-0.03610869;-0.046445;0.085179456;0.04185359;-0.01805284;-0.052593987;-0.012929278;0.14303467;0.11655886;-0.07056844;-0.04660214;-0.033175882;0.027357047;0.19151947;-0.0748137;-0.16149089;-0.31499735;-0.07043553;0.029319888;-0.032515813;0.016580323;0.010030757;-0.014564123;-0.041467868;-0.3062902;0.11955746;-0.4046686;-0.017577974;-0.046256807;-0.101053804;-0.03820601;-0.07111649;-0.058303073;0.29689622;0.056289144;0.030599266;0.11973647;-0.0047240527;-0.041834924;-0.03393471;0.1343362;0.0889387;-0.01331784;0.03222099;0.06297857;-0.27377185;0.052951418;0.028290916;0.11154853;-0.049012396;-0.05846771;-0.30528048;0.045566592;-0.1559691;-0.09233385;0.44596043;0.0504789;-0.13951078;0.042369664;0.09251024;0.029357182;0.01795609;0.15610845;0.2865682;0.2898264;-0.24944845;-0.0195706;0.26301306;-0.13479151;-0.1676236;-0.057975546;-0.09850968;-0.0055792057;-0.0013111084;0.06552726;-0.12021505;0.044102065;0.015344124;0.06782616;0.0816872;-0.027195975;-0.05682811;0.07414047;0.12613665;0.058612645;-0.22457418;-0.11456647;0.012442974;-0.12991877;0.13966465;-0.05608869;-0.04844535;-0.037300695;0.04250288;0.066679984;0.04488284;0.1558119;0.049705617;-0.06442591;-0.02193132;-0.09943456;-0.026844505;-0.067190394;0.090001464;-0.025200877;0.004352787;-0.037954606;-0.031070108;0.035027523;0.088423006;-0.041572396;-0.008730022;0.031289928;0.041164514;0.0443327;0.33343044;-0.06834968;-0.0328183;0.13497536;0.01615078;0.31760946;0.13730586;0.07010987;-0.09957154;0.01916577;0.039476372;-0.2861003;0.09306485;0.007912681;0.016295046;-0.09989486;-0.008616765;-0.007146963;-0.28007156;-0.095997475;-0.09213243;0.15972084;0.06823837;-0.059186634;0.05678378;0.033081327;-0.25903025;-0.09004689;-0.07251921;0.08909095;0.07816961;-0.049981683;-0.024503933;0.16354714;-0.09281844;-0.1380097;-0.23414987;0.09861956;-0.06691184;0.0122853415;-0.18643819;-0.17782646;-0.079404175;0.020536065;-0.15709764;-0.11717545;0.23916769;0.28723222;0.04639177;0.0477234;-0.27361324;-0.02789269;-0.027400289;-0.046491653;0.07011049;0.1180667;-0.0045664115;-0.025554206;-0.045964245;-0.056439087;0.028464273;-0.14946866;0.041615583;0.046352338;0.12969531;0.046127062;-0.05381758;-0.06762431;-0.04144082;-0.010686057;0.16713528;0.10853309;-0.16748491;-0.22641484;0.032457832;0.04427216;-0.03353195;0.049039315;-0.0080615645;0.011777699;-0.070248924;-0.047573984;0.030931016;-0.0188937;0.086871676;0.13975486;-0.3366092;0.021539662;0.054026973;0.06890636;-0.33195508;0.042770114;0.10925499;-0.026103927;-0.042396992;-0.27761114;-0.027450994;-0.1614197;0.025743196;-0.020736018;-0.059687294;-0.20502046;-0.013355323;-0.0703032;-0.05094466;0.2804823;0.00045836667;-0.16115856;0.003771933;0.15941453;0.4076827;0.09602747;-0.023307607;-0.021845967;-0.008474439;0.057604153;0.14800967;0.19750325;-0.030662088;-0.24750069;-0.03266515;0.034190353;-0.07322759;0.11437554;-0.0614654;-0.011241231;-0.052356645;0.10061498;-0.2627639;0.09097201;0.012862449;-0.3927401;-0.042378772;0.035140574;-0.028657647;-0.08131457;0.05871695;-0.013550431;0.01899855;0.17944452;0.0108253155;0.14222857;0.022750605;-0.14430183;-0.105083406;0.07825464;-0.009654722;-0.007739012;-0.06508074;-0.0179904;-0.07789437;0.026568566;-0.02175095;0.07986361;-0.09936744;-0.081065826;-0.23989803;-0.0052062096;0.026962651;-0.16850252;-0.09354395;0.05605071;-0.17042026;0.106193416;-0.012376911;-0.25899017;0.040995583;-0.22823124;0.060218018;0.035906963;-0.058375016;0.2681725;-0.03355044;-0.13810126;0.086172074;0.12694164;0.069817;0.21827486;-0.039659638;-0.033121057;0.2713567;0.028319508;-0.005134616;0.018990956;-0.08574018;0.034236073;0.060453884;-0.07431881;0.06520504;0.018110394;-0.10029427;-0.050688896;-0.13878286;-0.11275903;0.23025414;-0.024889765;0.028217193;-0.1360226;0.07934427;-0.008582719;0.27159575;0.10654471;0.09356818;0.018102333;0.12900722;-0.017417539;-0.21592538;-0.05827895;0.09892862;0.12843712;0.027157433;0.01527451;0.05451545;0.04913624;0.2435072;-0.2121467;0.1586032;0.06056757;0.047294915;-0.052678116;-0.1085285;0.039292037;0.031026939;0.2424627;0.046020254;0.21493615;0.023623804;0.059732772;-0.035115425;-0.05633816;0.14448217;-0.025327094;0.1618676;-0.18398473;0.013022185;0.13789253;-0.015450624;0.037351053;0.030833352;0.22315046;-0.06326266;0.090794876;-0.07996464;0.060721297;-0.058406446;-0.04771235;-0.16694355;0.17108735;-0.017594906;0.027087841;-0.060093526;0.31709474;-0.07280793;0.13472468;0.07952586;-0.0061165933;-0.032235887;0.00279172;-0.2570299;0.01804747;0.015514197;0.052692614;-0.03669699;0.05358308;-0.029935306;0.1222961;-0.0065655787;-0.16995224;-0.012350566;-0.118188314;-0.2909561;-0.09912865;-0.12148017;0.08672135;0.009973066;-0.09311983;0.0795654;0.01361981;0.04263881;0.07403435;0.17694406;0.012592414;-0.49132776;0.030462481;0.048940517;-0.11072814;0.008121914;-0.05501871;-0.28379297;0.042506192;-0.045940157;-0.051013865;-0.00944584;-0.069114484;-0.25973713;-0.0059302975;-0.0138085745;0.014418879;0.09071091;0.056950502;0.19491401;-0.09869594;0.054166753;0.20875898;0.008936954;-0.118265204;0.035184354;0.060934763;-0.20962232;0.29716185;-0.060794484;0.021431176;-0.047756214;0.38880032;-0.14889798;-0.09661137;-0.09379509;0.08280062;-0.03544002;-0.03135884;0.04524194;0.009605724;-0.026783975;-0.110827;-0.11865603;0.036991555;-0.03131425;0.2639081
0.12371043;-0.10049373;-0.31791982;0.1629995;0.042347983;0.29969132;0.23443723;-0.1042716;-0.0050346865;0.026697129;0.047669612;-0.23293544;0.044307563;0.019311752;0.024787989;0.088037446;0.110088564;-0.32687756;-0.15879826;0.23059909;0.026412426;0.014985757;-0.20105866;0.13145593;-0.04373179;-0.026036145;-0.07056615;-0.06653459;0.08061298;0.056751512;-0.0868018;-0.00091438787;-0.1533299;0.084470704;-0.02293981;0.38132015;0.06723005;0.27087402;0.041504588;0.056359496;0.06448551;-0.026754668;-0.1418119;0.2794303;0.025438301;-0.034728985;-0.018669663;-0.25880125;0.05125605;-0.034881834;-0.06532965;0.029781159;0.15922996;0.05242739;-0.084612936;0.19429469;0.0523936;-0.1636137;-0.07817166;-0.03780505;-0.046832033;0.24608286;0.05880028;0.26263022;0.03396024;0.07339593;-0.06112132;-0.02691719;-0.006476942;-0.10088359;0.21334398;0.0693591;0.007972213;-0.109999135;0.11223827;0.08378181;0.053175263;-0.17926109;-0.054122966;-0.01846451;-0.06668596;-0.07285313;-0.27337605;0.24059609;0.017177403;0.24559726;-0.23919998;0.06465994;-0.0013199052;-0.0062313285;0.0973977;0.07744848;-0.04226524;0.22038315;0.21216743;0.4568268;0.22336458;0.063264966;-0.15372433;0.14577469;0.007083311;0.042969175;-0.03365779;0.008996169;-0.04475476;0.025213439;-0.029555392;-0.2159768;-0.06980289;-0.017148497;-0.11605279;0.008048259;-0.07827703;0.017174669;0.1295458;0.23596962;-0.032691564;0.038482625;0.04859547;0.1799592;0.0057769404;0.024297014;-0.25233525;-0.056956757;0.060855914;0.02063818;0.039842777;0.08315452;-0.06272576;-0.06498632;-0.113683574;-0.10458732;-0.18629284;-0.04636691;0.039140966;0.0676611;0.089818455;0.0172977;0.036684737;-0.052029803;0.18455437;0.18505591;-0.26369867;-0.11220786;0.03661221;-0.038179345;0.19080137;-0.03801625;-0.11034106;-0.20567854;0.050392665;0.030894686;0.008481774;-0.08004953;0.05504919;-0.046735067;0.035704367;-0.4376264;0.115137175;-0.3540162;0.042972524;-0.04004411;-0.08939808;-0.024153978;0.022000894;-0.107415326;0.09041874;0.03522917;0.002918425;0.05322768;-0.001811554;0.036143232;-0.036084715;0.07265358;0.10809443;0.06613914;-0.015380701;0.019655608;-0.3296285;0.096708745;0.020408396;-0.005233064;0.044532184;-0.07556023;-0.35396567;-0.025506318;-0.086004384;-0.03338229;0.379562;-0.0357867;0.0137271155;0.020022592;0.2263036;-0.0072338684;-0.041349217;0.17445312;0.28724176;0.22207066;-0.12792905;0.027364343;0.22446284;-0.01111576;-0.13789137;-0.019221561;-0.00885701;-0.047563855;0.13414274;-0.03149987;-0.04547434;0.07005584;-0.07093646;0.2004817;0.034623582;0.016060079;-0.052108157;-0.03017835;0.022943184;0.08511455;0.012431547;-0.08759013;-0.10254878;-0.06150694;0.1380618;0.02395222;-0.10618361;-0.02482136;0.050716627;0.08558035;0.040391855;0.026134072;0.006861861;-0.034620207;0.14603157;-0.1007493;-0.04020775;0.04816257;0.20702216;0.058681972;0.06605723;-0.097903974;-0.082686774;0.027481843;-0.039570436;0.097058214;0.024237767;0.037328336;-0.026145127;0.05543961;0.19611962;-0.117068395;-0.0473323;-0.023027206;0.15615661;0.38350835;0.15528086;-0.028163997;-0.21334411;-0.037707634;-0.0056110853;-0.21997732;-0.04798205;-0.03447847;0.04867493;-0.031209495;0.036650732;-0.12245261;-0.27208987;-0.0015389412;-0.034126453;0.16241893;0.09251283;0.016744023;-0.0485603;0.066016026;-0.22128808;0.00035463608;-0.028247533;-0.06315851;0.10387365;-0.037945602;0.033376217;0.13949077;-0.20784862;-0.064213224;-0.19758599;0.28875765;-0.06309284;-0.0047404966;-0.14890896;-0.07035681;0.011874509;0.08796198;-0.19588959;-0.14542165;0.2247266;0.3102486;0.19408128;-0.029045932;-0.28861657;0.084119454;-0.01882566;0.015652357;0.0067879916;0.21106733;-0.07122277;-0.0016552791;0.0149316015;0.00018069516;0.040544104;-0.04020883;0.045929264;0.2676005;0.017215014;0.022063209;-0.081060305;-0.035487525;-0.13078313;-0.04207383;0.07975999;0.06461233;-0.20688696;-0.07027936;0.03840477;0.029803373;-0.06461948;0.15017521;-0.024352433;0.02001606;-0.02578261;-0.12149538;-0.040588178;0.09620298;-0.019618725;0.21077989;-0.5091504;-0.06370819;0.049483128;0.040974792;-0.32872447;0.02048576;0.05154875;0.07320456;-0.05362901;-0.17337735;0.028309138;-0.013091582;-0.06445335;0.027931994;0.02932454;-0.17134039;0.0040163943;-0.02401584;0.005151173;0.14899448;-0.01635425;0.00835839;0.04060066;0.18716645;0.23546939;0.09941921;0.042640835;-0.011527728;0.023115993;0.1575334;0.36831543;0.20299841;0.031667855;-0.21434356;0.06201449;0.034050692;0.007479634;0.14012352;0.0078096273;-0.07841615;0.059641276;0.16689537;-0.28678405;0.010823801;-0.06884229;-0.35407045;0.010107783;0.06427438;-0.048491523;-0.14174435;-0.040842414;0.012539116;-0.007720483;0.24763882;-0.0760203;0.15327597;0.0639002;-0.13110736;-0.12952825;-0.07519976;-0.01684366;-0.097831674;0.071713366;0.07760614;0.009892941;0.02614885;-0.0944435;-0.07110404;-0.05784509;-0.03437766;-0.20911874;0.0072987983;0.055589184;-0.10297864;0.15652661;0.25730735;-0.13297427;0.21611658;0.022175904;-0.19303949;-0.034562103;-0.2478073;-0.042303216;0.08773944;-0.06569468;0.29382718;-0.016688783;-0.0057157474;0.11281464;0.004942027;0.036416166;0.106264696;-0.15854093;-0.074349135;0.2383965;0.20421027;-0.027821243;0.014537955;-0.036252752;0.048592962;-0.06466328;-0.17339231;0.23159757;-0.01096353;-0.10987086;0.008063423;-0.111749955;-0.1528228;0.21175645;-0.015545943;-0.013793321;-0.05425573;0.12068624;0.122304395;0.1620037;0.19446637;0.21268407;0.07445898;0.087200634;0.01753854;-0.09071446;0.0662911;0.13032778;0.036564894;0.043175567;-0.013802266;0.1989484;0.058229055;0.20295297;-0.36133832;0.11664265;-0.042392183;0.06483178;0.033095874;0.03499184;0.122158006;0.03437123;0.17431378;-0.016700901;0.1691861;0.00089679396;-0.050550796;0.0492032;0.047786847;0.11225251;-0.030477848;-0.0037474162;-0.11648746;0.10457882;0.15910375;-0.046616677;-0.0106349075;0.065453686;0.2686798;0.10803236;-0.0019168423;0.071331054;0.12905385;0.19448832;-0.062003236;-0.3392384;0.22787257;0.11057971;-0.0011784411;0.040882304;0.23780152;0.07878424;0.1456973;0.04299449;-0.028940976;0.0144494;0.025979277;-0.15061373;-0.003915185;0.015379279;-0.010878633;-0.012277109;0.16598569;0.023430608;0.060849164;0.038363863;0.00843938;-0.0012086994;0.08872394;-0.22145158;0.043103553;-0.05245128;0.19514656;-0.035420153;0.060365748;-0.025594056;0.02840514;0.02118657;0.0924921;0.18999214;0.034546673;-0.42169848;0.011014452;0.011836187;-0.14989708;0.011396322;-0.0009391;-0.11511744;0.013198643;0.03922823;-0.08728765;-0.009152946;-0.035957;-0.21901494;0.026585577;0.04481956;0.02987631;0.053139474;-0.046616923;0.269996;-0.06662988;0.05125451;0.20519687;-0.049611606;-0.3645117;0.047637295;-0.022889625;-0.2148294;0.36112022;0.01456006;0.012330066;-0.23241478;0.25236228;-0.07920931;0.065389514;-0.010151893;0.115032375;0.0077056307;-0.09487976;0.18099399;0.049765367;-0.051428825;-0.13201481;-0.21413691;-0.02085532;0.013131649;0.17239214
0.19616476;-0.0635627;-0.3307916;0.23186769;-0.036605;0.41428182;0.28051907;-0.07699012;-0.0017964549;0.0067261443;-0.0108315945;-0.16511633;-0.01351151;-0.09875915;0.029202225;0.008638849;0.11908282;-0.21091421;-0.13597804;0.20909025;0.17694953;-0.08082604;-0.17844938;-0.011943867;0.01078881;-0.0040134965;0.06312418;-0.08598659;-0.029315284;-0.0055214795;-0.052498262;-0.012372013;-0.017870385;0.12210485;-0.027749998;0.28906232;0.09848826;0.119789466;0.015041888;0.031742577;-0.034890573;0.01568444;-0.16854301;0.2144296;-0.00029838228;0.11955413;0.032253087;-0.22463347;0.09468299;-0.054042697;0.009279464;-0.04083295;0.13517788;-0.06617702;-0.05130179;0.10200853;0.00027778765;-0.22699946;-0.026326772;-0.03969603;0.05304004;0.19025788;-0.030761601;0.21813264;0.17889029;0.02412887;0.017919267;-0.06370388;0.06281545;0.032072227;0.2667352;-0.043405134;0.048275393;-0.060947943;0.17769094;-0.023827463;-0.0190372;-0.3149693;0.09830993;0.03197482;-0.0067438665;-0.04369406;-0.24631941;0.23780659;-0.01963134;0.1986436;-0.22692758;-0.041322004;-0.014998058;-0.015781134;-0.019321516;0.06787463;-0.0133451745;0.07924153;0.12338356;0.3124027;0.27750227;0.111077614;-0.17925398;0.12714395;-0.03430935;0.19846503;-0.078799665;-0.024997571;-0.10527139;0.027532266;-0.056274112;-0.23298508;-0.08249213;-0.0018557783;-0.09560897;0.01777126;-0.08770689;0.15243557;0.16690306;0.19582061;-0.049196884;-0.04844737;-0.018357122;-0.013364489;0.025577014;0.010228327;-0.22071859;-0.0066279233;-0.04460265;0.04359849;0.052135784;0.08130646;0.005318025;0.02631602;0.020998036;0.04292564;-0.29016712;-0.07455885;0.06414132;0.057562165;0.0145702865;-0.06101108;0.0108923195;0.02780188;0.21373709;0.11014715;-0.2513377;-0.1338742;-0.0725263;-0.009758952;0.20167233;0.066706486;-0.14895394;-0.31970158;-0.05466395;0.040482927;-0.016079038;0.0030859618;0.0129856365;-0.022076733;0.025277121;-0.2991513;0.11455598;-0.22790244;0.11038537;-0.019443983;-0.14684464;0.030468445;0.016345147;0.011801025;0.05071534;0.054116964;-0.09007459;0.09761577;0.08680338;-0.055382047;-0.043237478;0.118027166;-0.058591187;-0.062274013;-0.006420718;0.028393416;-0.20180294;0.0070049013;-0.024214195;0.09770295;-0.0012751655;-0.005593021;-0.25748008;-0.058792777;0.08103824;-0.015938314;0.26973182;-0.051513024;0.053284913;-0.039686017;0.09754876;-0.07510505;-0.053709257;0.18980688;0.38299644;0.16338836;-0.20179729;0.043195553;0.055484157;-0.12465098;-0.04542669;0.043118473;0.13084558;0.045473583;0.09599789;-0.005093927;-0.10453774;0.028765883;0.04164199;0.056949895;-0.03949134;-0.0013151418;0.035179865;0.01869197;-0.023934176;0.17220472;0.051702067;0.04489485;-0.09224172;-0.11734281;0.08292865;-0.028344722;-0.178568;0.08222518;-0.045682404;-0.018071638;0.057578325;-0.014472493;0.053892773;-0.016535271;0.09919861;-0.008103399;0.004341895;0.004913661;0.15530159;-0.033228587;0.06396635;0.020444255;-0.06574002;-0.042788506;0.030193003;0.086539805;-0.08593929;0.043940872;-0.03149913;-0.035739146;0.40121737;-0.030198568;-0.032006633;-0.022624847;0.064974695;0.32875934;0.22541316;-0.07767692;-0.15124372;0.021795612;0.0019356259;-0.16106522;-0.035926774;0.011871932;0.15736066;0.025229907;-0.121117674;-0.059464127;-0.26137626;-0.0032046672;-0.18555605;0.1505109;-0.045891248;-0.13713373;0.09168162;0.06912464;-0.2806356;0.0038590163;-0.067997664;-0.048059434;0.15246983;0.009354459;0.101893805;0.10912494;-0.36215723;0.073194005;-0.066105455;0.14444278;-0.13305488;0.0024732347;-0.15221521;-0.13406244;0.016559504;0.14372411;-0.15031151;-0.11813846;0.2448111;0.27265787;0.062123552;-0.011394243;-0.32983786;-0.057724334;-0.065269105;0.0676878;-0.04281288;0.19619402;-0.046359934;-0.06718238;0.05942879;-0.100297526;0.011791794;-0.21954055;-0.030333724;0.098293796;-0.020611685;0.12916398;-0.101824634;-0.13680704;-0.05578508;0.07572064;0.053656124;0.13208184;-0.19180253;-0.028732754;0.051326305;-0.049080107;-0.045652755;0.16608566;-0.092332534;0.0019414063;0.011763578;-0.05325965;0.07924094;0.08033244;0.14198175;0.1633417;-0.4400598;0.033200014;0.009561129;-0.044390436;-0.24615858;0.042570837;0.034652248;-0.024577182;-0.11714712;-0.22370756;0.053317223;-0.11608027;9.4699004e-05;0.038830716;-0.016411921;-0.13228466;-0.09522288;-0.09764949;0.081125036;0.18527845;0.06366909;-0.01954747;-0.07119512;0.25234762;0.3238097;0.00737543;0.038393542;0.01968642;-0.014918003;0.09855458;0.28559235;0.11029427;0.07498937;-0.20322552;-0.0040207985;0.039674465;-0.05704787;0.09225536;0.11750028;0.057466738;0.088770576;0.08429558;-0.2793707;0.050799534;0.01851099;-0.30138916;0.035078034;-0.035316825;0.033964705;-0.070134126;-0.0572887;0.12398083;0.05237677;0.06933444;-0.11116329;0.1347452;0.019839562;-0.04299847;-0.15986994;0.0041997945;0.028784422;-0.15954125;-0.048834343;-0.021917304;0.071099654;-0.06715471;0.0393517;-0.013372366;0.0020754614;-0.12121069;-0.11370221;-0.037192233;0.067865;-0.16273402;0.24026662;0.13678998;-0.11282556;0.18722892;-0.056768455;-0.173378;0.016610142;-0.17083311;-0.05308239;0.19132042;-0.04280881;0.28602812;0.00611751;-0.1473607;0.18699986;0.039553486;-0.0814155;0.09238393;-0.12381699;-0.042977206;0.24549803;0.09501097;-0.03010353;0.21570385;-0.031009845;0.038755044;0.030704044;-0.093563;0.1763485;-0.11096764;-0.06801593;-0.028588591;-0.12556216;-0.1271661;0.21657285;0.033852797;0.042230915;0.059305735;0.17223655;0.013648856;0.26420262;0.09521394;0.2013977;0.031628758;-0.008226365;-0.0012367645;-0.12854621;0.03955844;0.07029281;0.0021632672;0.022669375;-0.040648565;0.01503651;-0.061928432;0.20297109;-0.2374934;0.11806445;-0.041506607;0.08885946;-0.09387271;0.07216059;0.05890066;-0.04608096;0.14559618;-0.018004732;0.29763362;-0.076845095;-0.0025053804;0.03332344;0.07125307;0.24601927;-0.009980318;-0.01902725;-0.13694936;-0.08984473;0.27227905;-0.0033233056;0.038831986;0.027270405;0.28758207;0.096554354;0.16332409;0.02657702;0.08740637;0.08925355;0.03673826;-0.25349042;0.20375924;0.07159418;-0.021144021;-0.029649194;0.16850883;-0.053898532;0.0646685;0.16483298;0.009544994;-0.034743518;-0.041273322;-0.12394453;0.03849867;-0.070435025;0.0459259;-0.011894321;0.15177967;0.010093373;0.09390442;0.033747528;-0.09562931;-0.071270436;-0.054614678;-0.31082973;0.15802173;-0.18876772;0.14730361;0.062895775;-0.00427652;-0.020418113;0.003120965;0.001686944;0.038611874;0.1760736;0.022385212;-0.49740598;0.04320453;-0.0937166;-0.060821842;-0.00032560687;0.0049903896;-0.1583196;0.0005693555;-0.02890386;-0.024387857;-0.041372005;0.06776599;-0.19193642;0.047975916;0.06836353;-0.054728825;0.2035006;0.075042725;0.1684771;0.06788888;0.02113164;0.14440459;0.016700616;-0.28087354;0.14190963;0.025713943;-0.16792303;0.31264663;0.017444959;0.038570803;-0.2702105;0.37840047;-0.06234122;0.066136405;0.061845377;0.095881104;-0.01585693;-0.08407687;0.111120515;-0.03575236;-0.045926493;-0.013875699;-0.07194627;-0.030311953;-0.053579055;0.22423407
0.1810208;-0.07628865;-0.27753988;0.27830005;0.014411833;0.30610728;0.31126675;-0.07348522;0.082849465;0.04251835;0.06287553;-0.21159467;-0.013312554;-0.06052905;0.036934342;0.08472432;0.14237456;-0.17851828;-0.06460058;0.20631528;0.18756235;-0.022868691;0.0021163954;0.12232766;-0.019987771;0.04848211;-0.05762046;-0.12709625;0.035532452;0.044987693;0.051712252;0.0047288146;-0.06336623;0.12022201;0.13157979;0.36807632;0.18718132;0.19994827;0.0045310007;0.038383834;-0.07587368;-0.07370868;-0.08422444;0.1954296;-0.06778829;0.14823498;-0.05048878;-0.2638583;0.14825094;0.07362721;0.04120655;-0.031718727;0.15743741;0.05745827;0.02322363;0.15494126;-0.06186307;-0.26485434;0.0012424772;-0.15654713;0.031601854;0.2778513;-0.06812422;0.24030304;0.15602423;0.056739286;-0.032077346;-0.04172792;0.06104725;0.027669014;0.13478869;0.06713615;-0.05460453;-0.10206474;0.121331036;-0.019831616;0.0043313354;-0.2035377;0.049771998;-0.008654291;0.030226646;-0.15821402;-0.07632014;0.21715091;-0.03487789;0.33370695;-0.14188027;-0.03686935;-0.02616988;-0.024980364;-0.05379;-0.037599757;0.0023972867;0.07916821;0.16972792;0.27979386;0.12526663;0.13584566;-0.15039144;0.06923131;0.031229582;0.20734802;-0.049157534;-0.0053602587;-0.17481217;0.031499363;0.08027781;-0.24220535;-0.005773301;0.028211813;-0.05585609;0.00038442516;0.044426076;0.26271856;0.25719273;0.1980533;0.0042492053;-0.01594495;0.04078083;-0.03175484;-0.0725772;0.015504424;-0.1990439;0.05662247;-0.006542323;-0.09138086;0.044969887;0.004401687;-0.05481357;0.06728632;0.1634617;-0.07749216;-0.2856154;0.080842964;-0.030800119;0.083868586;0.02530081;0.03414278;-0.058428746;-0.033687092;0.20848688;0.17791685;-0.16233796;-0.093700364;0.08163075;-0.01675523;0.13518645;-0.028703297;-0.1527311;-0.25471762;0.022511115;0.015358048;-0.082099065;0.0036975238;-0.05434608;-0.050074633;-0.05380106;-0.24249588;0.08296613;-0.28085;0.058241833;0.022475699;-0.16020401;-0.0291027;0.015349383;-0.03175096;0.13937189;-0.06286831;0.031407274;-0.030229721;0.015953343;-0.029193962;0.030668177;0.14274475;-0.015142204;-0.044464197;-0.032618333;-0.06343122;-0.37618718;-0.052240334;0.016735844;0.06048243;0.07961743;0.018825797;-0.34852207;0.08630491;0.009172715;0.072606824;0.25210503;0.05349746;0.038814075;-0.0042937417;0.022329025;-0.022124533;-0.01569786;0.2887456;0.28142008;0.089410335;-0.17424762;-0.03013936;0.11396809;0.04807685;-0.09010176;-0.06650066;0.077950515;0.081723504;0.07648326;0.0016892841;-0.018129626;0.14500006;-0.12552738;0.2560239;0.04748018;-0.06289562;0.039563064;-0.08354278;-0.026082218;0.0028730955;-0.05845121;-0.037391618;-0.190705;-0.04579758;0.033335276;0.0050469986;-0.14556937;-0.06114368;-0.025726873;0.07547041;-0.048551716;0.0950509;-0.06694644;0.08687845;0.17385341;-0.06717079;-0.07946538;0.0077099013;0.18638949;-0.020526106;0.10384108;-0.004086571;0.019874156;-0.008123627;-0.020549279;0.20642202;-0.111221455;0.030422775;-0.040322892;0.0327675;0.33330593;0.10147841;0.05670434;-0.0915179;0.08209347;0.3687165;0.22700843;0.02043903;-0.19599886;-0.026673166;0.097849004;-0.17984147;-0.06431486;0.0021581321;0.13447827;0.033463832;-0.10163118;-0.0030887278;-0.17374362;-0.09651571;-0.1865028;0.17187653;0.10708287;-0.12698072;-0.008129765;-0.06465816;-0.3477175;-0.06649384;0.06427674;-0.03217079;-0.015901376;0.029020784;0.047799535;-0.085214816;-0.2626659;-0.0523841;-0.15866308;0.23105264;-0.069580406;0.05619009;-0.17860799;-0.0008727169;0.030386558;0.20576155;-0.25671786;0.0017475878;0.21810725;0.31716654;0.071605265;0.070968725;-0.22256689;-0.01784046;-0.0838004;-0.011515336;-0.024597812;0.12804602;0.060768194;-0.10194134;-0.015315804;-0.045851704;-0.05329662;-0.10292943;-0.07944623;0.18783411;0.08894804;0.11736171;-0.085106224;-0.108832896;-0.16518195;-0.029519489;0.1822748;0.043445993;-0.20905389;-0.10705109;0.0031014017;-0.048388336;0.024235414;0.13372098;0.057896428;-0.013542658;-0.052090026;-0.12433795;0.02847126;0.061056167;0.11131249;0.08033084;-0.45322785;0.00047359162;0.04662636;-0.07876042;-0.23352242;-0.07859292;0.023408137;-0.06402156;-0.058189888;-0.29267228;0.0813998;-0.13294849;-0.0018216647;-0.029938558;0.05039536;-0.109578334;-0.0078422185;0.018402299;-0.01711672;0.15403666;-0.05033015;-0.072689;-0.030938106;0.16169211;0.1975728;0.042460073;0.0019149675;-0.0052830866;-0.031787794;0.10252322;0.37893185;0.11204748;-0.01678295;-0.16900049;0.085114405;-0.002073574;-0.0008672297;-0.0061682533;0.07085238;-0.06511404;0.06710658;0.12176709;-0.17269003;-0.025988651;0.032698855;-0.075956844;0.043912347;-0.020909738;0.027006647;-0.050352074;-0.030291192;0.012057444;-0.06496531;-0.015844062;-0.14628795;0.15461844;-0.06179065;0.0034999237;-0.03469396;0.13583809;0.02282321;-0.18281665;0.058299657;0.015657501;-0.036088206;-0.10666107;0.05137279;-0.023289738;0.010014609;-0.043427136;-0.13391028;-0.12987086;0.08171329;-0.22817166;0.3022238;0.21189758;-0.27969202;0.21485458;0.07254348;-0.12005531;0.0063200356;-0.1541759;0.076272264;0.124756955;0.06783718;0.29925936;0.0883669;0.023888074;0.12925313;0.018225653;-0.010239662;0.16235231;0.030357348;-0.032335777;0.27009168;-0.05565116;-0.05759458;0.18927377;0.04247242;-0.044349167;0.038965914;-0.18288101;0.052847207;-0.18950753;-0.060689714;0.021084793;-0.24535106;-0.08789701;0.12964003;0.051634446;0.094636515;-0.027277412;0.07668519;0.011666625;0.13582611;0.034008965;0.21416573;0.09913911;-0.04194788;0.04968327;-0.042037077;0.04292213;0.11246091;0.053696275;0.032338504;-0.021610498;0.082392216;-0.0855487;0.14675304;-0.24991272;0.14837869;-0.015586993;0.16974;-0.029184464;0.16436115;0.12823424;-0.038323577;0.045865808;-0.029996913;0.24743506;-0.036516484;0.09054236;0.0056647398;-0.01277778;0.17070103;-0.030509148;-0.04987293;-0.22470343;-0.10499368;0.3733453;-0.005172642;-0.04063726;0.09963529;0.25252768;0.03812232;0.1576746;-0.03379585;0.12550844;0.023163058;-0.08172273;-0.27806878;0.067846626;0.107889384;-0.013371942;0.082299955;0.24861053;-0.0049676728;0.06959935;0.15268621;-0.02860969;0.08256706;0.060360745;-0.0402878;0.021304479;-0.016032608;0.035033885;-0.17999987;0.15103957;-0.056147017;0.06303109;0.06446089;-0.091973916;-0.03431857;-0.050198648;-0.16378203;0.1908871;-0.18856177;0.13461354;0.04300114;-0.055279955;0.19158372;0.10988301;-0.0379623;0.056263532;0.18360108;-0.012496776;-0.39264882;-0.024523685;-0.094126485;-0.21473855;-0.0949998;0.051744528;-0.19730408;-0.05453658;0.07731925;0.010062698;0.0056600347;0.059852697;-0.14757743;-0.096932;0.060375795;-0.114361405;0.25293007;0.04776221;0.21535362;0.16256414;-0.07828835;0.12826332;-0.014284886;-0.11587871;0.05246255;-0.017562496;-0.28662843;0.33205473;-0.090685815;-0.02221828;-0.17368218;0.31312028;-0.1037617;0.1367901;0.128587;-0.02682625;0.040738035;-0.25237098;0.080650605;0.043836806;-0.01623644;-0.006204757;-0.119669184;0.05026728;0.046948306;0.1613852
0.11187768;-0.19101061;-0.21271367;0.24555144;-0.080266215;0.4845961;0.29854771;-0.065296255;-0.051291797;0.03717972;-0.05312926;-0.35768175;0.044684395;0.012766387;0.03417662;0.06348167;0.048987452;0.078835756;-0.19954863;0.040453807;0.12284332;-0.07648967;-0.059308212;0.14249843;-0.030684648;-0.08453083;0.029188825;-0.14161403;-0.026715774;0.03600902;0.0045627034;0.020005846;-0.059206672;0.07693131;0.19368306;0.5186675;0.21153283;0.12710881;-0.032497082;0.042334143;0.024617027;0.0912843;-0.018881252;0.18912888;-0.01566903;0.08308055;-0.032658186;-0.20856594;0.113323875;-0.05514424;-0.009428277;-0.06689508;0.16969745;0.005375748;0.033301007;0.115463786;0.08249908;-0.30413318;-0.022401867;-0.11625712;-0.008143612;0.31885967;0.06411445;0.2782415;0.087247565;-0.06889059;-0.03944532;0.08862066;-0.076995;0.040916085;0.24418159;0.018715546;-0.024591377;-0.08564193;0.05780784;0.06473393;0.0008017594;-0.08761634;0.14614634;0.02508235;0.048519164;-0.01645447;-0.15794195;0.21404132;-0.04088824;0.32811952;-0.2027465;0.044506922;-0.045434367;-0.012146017;-0.050760716;-0.13916175;-0.09877403;0.16633683;0.07277807;0.27034527;0.19757783;0.14544159;-0.04370889;0.09888206;-0.018918373;0.15377028;0.0011376777;0.045256615;-0.24994706;-0.0024493032;0.004974878;-0.22342947;-0.05165463;-0.07804217;-0.08447302;-0.15796426;-0.03313359;0.28912735;0.30779046;0.20478487;-0.0014785689;0.050009545;0.07985076;-0.008314567;-0.021034876;0.0036665823;-0.21454628;0.0052800253;0.003619897;0.008668739;0.062400743;-0.038191102;0.023300448;0.09858227;0.17055435;0.018518928;-0.24379237;0.06850594;0.032683298;0.15601456;0.07777164;0.09414232;-0.033940732;0.0008140736;0.35517552;0.104842424;-0.04917722;-0.06112776;-0.06158611;0.009650628;0.29518253;-0.0073437467;-0.2932297;-0.25158268;0.03012436;-0.030795066;-0.033080723;0.052163552;-0.08779059;0.04333031;-0.044402212;-0.2777016;0.0138016045;-0.28661662;0.010522202;0.07658103;-0.11556109;-0.010516443;0.027081354;-0.10080185;0.12523574;-0.04832557;0.041090038;-0.051804755;-0.013973481;0.06351143;-0.042600874;0.04460192;-0.16183342;-0.19033065;0.043486014;-0.0047843712;-0.31754887;-0.035703737;-0.061340667;0.012248654;0.032315347;0.07318185;-0.28692722;0.12870584;0.13155556;-0.06289948;0.20648931;-0.062203668;0.026131066;-0.009428139;0.014676485;0.0505146;0.042191178;0.39790404;0.23756488;0.19613567;0.05186728;-0.057872433;0.039067432;0.10214132;0.066938154;-0.029592894;0.062892586;-0.021997482;0.007976412;-0.080374345;-0.15662456;0.07466688;-0.12847897;0.21161361;-0.05639773;0.025070282;-0.022538714;-0.02901137;-0.13721058;-0.027160566;0.03621417;-0.008824043;-0.21980684;-0.13189104;0.02055206;0.023731543;-0.1420333;-0.032502037;-0.0005028359;0.14260389;-0.09978447;-0.055425595;-0.048921872;0.035907038;0.32331148;-0.15457444;-0.022709118;-0.016336387;0.31735423;-0.046066776;0.1536874;0.17035545;-0.096154794;0.0816526;-0.010699563;0.068097875;-0.053582285;-0.020729227;-0.05323813;0.075178124;0.30029193;0.1457487;-0.030288706;-0.115177795;0.07592731;0.2825552;0.11522523;0.04223731;-0.16956083;0.10555406;0.12016718;-0.15475813;0.03675854;-0.01653453;0.22884601;0.10411422;-0.21518207;0.030659612;-0.26839253;-0.087961815;-0.15516412;0.15003312;-0.0025146543;-0.004039752;-0.06267139;-0.09497206;-0.3491923;0.05820405;-0.036201593;-0.038374983;0.0022966038;0.03760079;0.05382138;-0.13419925;-0.2763236;-0.08034114;-0.05826465;0.1979039;-0.07749257;0.040180273;-0.16743708;-0.08533302;0.018326651;0.14475745;-0.25713584;-0.008495071;0.14746375;0.3356324;0.13366728;-0.0076199826;-0.28535792;-0.04540634;-0.1267531;-0.021251097;-0.010709511;0.16853356;0.00096611615;0.0136311045;0.04267428;0.048368696;0.0070560505;-0.21870536;-0.0024029727;0.16746166;0.10020337;0.04614941;-0.046938095;-0.18742533;-0.13761483;-0.01734136;0.042607952;0.22351524;-0.2246096;-0.27299228;0.11300088;-0.0037001832;-0.038363762;0.054658853;0.03906275;0.009379247;-0.022149911;-0.09221873;-0.026221339;0.1437129;0.14062804;0.042450182;-0.38412768;0.03351601;0.15271012;0.07300251;-0.16783182;-0.023898466;0.0032076058;0.0042271726;-0.118381575;-0.2180689;0.05902326;-0.14091367;0.006572289;0.06432894;-0.0069154734;-0.12004633;0.026875747;-0.12849398;0.20254722;0.1969574;0.032569576;-0.0022313718;-0.060320936;0.10934007;0.23276559;0.029635137;-0.053696916;-0.07933234;0.046725225;0.08190761;0.33868057;0.12825738;-0.012699468;-0.11740053;-0.064938754;0.058441732;-0.015777064;-0.00762135;0.18745166;-0.0034094644;0.11589073;0.060535528;-0.13884528;0.07429471;-0.02586701;-0.09933855;0.030966686;-0.05901368;-0.026109958;0.053901937;-0.04008541;0.048938233;0.058831275;0.07860998;0.057318993;0.057388384;-0.18967892;-0.12161786;-0.07705074;0.06723395;-0.016698958;-0.21291104;-0.0074774516;-0.11201382;-0.037319683;0.040524334;-0.044842534;0.06285329;-0.1268272;-0.1886621;-0.23162885;-0.014660215;0.059230104;-0.24073716;0.32597178;0.13160698;-0.15075825;0.09349825;-0.027878521;-0.124140434;-0.04285883;-0.20596765;-0.07076622;0.15887533;0.023899246;0.1982088;-0.057175174;-0.058273133;0.15113321;0.10105802;0.036934;0.1144193;-0.14132178;0.038380537;0.24812447;-0.07780015;0.014677487;0.22924013;-0.053825185;0.068539314;-0.026927436;-0.14093976;0.07555107;-0.1948159;-0.10229535;0.015933707;-0.1481181;-0.09840761;0.27121514;0.03544804;0.12658873;0.10842882;0.21510766;-0.026543858;0.09101985;0.098554745;0.12488297;0.020020138;-0.14659232;-0.07049151;-0.12876083;-0.029533375;0.24942042;0.0069584404;0.12670478;0.07606243;-0.034859043;0.010929206;0.04152403;-0.19919424;0.2814447;-0.01134838;0.23506728;-0.07384708;0.15866953;0.10192867;-0.050182197;0.056535553;-0.0011144747;0.25210774;-0.15077247;-0.042985376;-0.03650627;-0.0019285784;0.21647632;0.07940836;-0.11120907;-0.21204369;-0.1474354;0.22467774;0.06623207;0.006876566;0.09870785;0.101933666;0.037643995;0.11613696;-0.0004495708;0.1481724;-0.078804865;0.073830076;-0.2494003;0.066185385;-0.018370064;0.030125912;-0.06073357;0.08714334;0.013090974;-0.017617352;0.20950411;0.015770085;0.031437896;0.004295451;0.020330288;-0.020364828;0.00068802823;-0.06937337;-0.1448329;0.024292873;0.043075483;0.10873086;-0.08477459;-0.107242845;0.044484336;-0.0071202433;-0.25161913;0.16479334;-0.25508526;0.15991813;-0.008159732;-0.07500411;0.087275445;-0.00794514;0.07409633;0.035890106;0.11250273;-0.058405995;-0.40144557;-0.05006503;0.05605703;-0.11584855;0.015398338;-0.025999693;-0.17499411;-0.018634306;-0.06474645;-0.05476811;0.055792917;-0.055871487;-0.17935988;0.012999521;-0.093650006;0.016985035;0.3088015;-0.07117131;0.21957861;0.14970537;-0.09024732;0.2948678;0.03645753;-0.025331065;0.050535876;0.07624207;-0.24474987;0.3793872;-0.013087656;-0.05909858;-0.20910715;0.3499566;0.03667405;0.20160605;0.12915075;0.11556679;-0.02182416;-0.18055408;0.017171567;-0.02317869;-0.02272428;-0.059152447;-0.22497985;-0.050393097;0.02027413;0.1622387
0.18431076;-0.18906575;-0.17543486;0.15300575;0.07378726;0.54866976;0.24869637;-0.1315871;-0.022278449;-0.028906837;0.03827232;-0.26021573;0.0027284012;-0.06351818;0.031973593;0.10128757;0.031415466;0.19311734;-0.1875146;0.06807118;0.14593436;-0.038560044;0.046203654;0.10096339;-0.0799895;0.016303105;-0.024709035;-0.216651;-0.059227157;-0.07063368;0.038607374;0.003584848;-0.046985507;0.03868742;0.11877311;0.4038042;0.26102677;0.07792617;-0.05977049;0.014435095;0.034537364;0.025695097;0.108021624;0.30603635;0.018692812;0.18351877;-0.08514413;-0.3678875;0.109808564;-0.026224246;0.04967427;-0.056564853;0.083515875;-0.019571275;0.011960973;0.10464128;-0.041767325;-0.22226909;-0.08509114;-0.09278705;-0.053494524;0.1867511;0.0066142706;0.20120926;0.16930644;-0.00041390417;-0.022173865;0.15658821;0.03417309;-0.061519135;0.20315613;-0.05769492;-0.005873834;-0.114269;0.063538775;0.018364856;0.029733112;-0.1369597;0.117728956;-0.050682995;-0.09693954;-0.0015129945;-0.18976068;0.14872462;0.0049834377;0.37068173;-0.13526067;0.034438986;0.053728305;0.02671139;-0.008522783;-0.12527056;-0.04219178;0.1508414;0.09274759;0.23948449;0.081539676;0.23088543;-0.10471519;0.0037364934;-0.028553195;0.18983363;-0.056594133;0.062352523;-0.21294013;-0.024144677;0.013397075;-0.1815304;-0.058003526;0.013853513;-0.065127514;-0.16002283;0.014331394;0.16650619;0.24642114;0.19624004;0.08704105;0.02471063;-0.06454665;0.004625468;0.063393116;0.026967742;-0.088908434;0.009574001;-0.041176487;-0.02576781;0.12208312;-0.081585355;-0.006376628;0.11507244;0.118536726;-0.07983151;-0.34991807;0.08850165;0.014874034;0.02029379;0.025927925;-0.02169948;0.057718087;0.027335277;0.29121083;0.14671081;-0.03752315;-0.1034963;-0.057444204;0.0043765195;0.2719572;0.079591975;-0.2646531;-0.2693614;-0.032777313;-0.008333146;-0.08851495;0.10588235;0.050225582;0.03653618;0.02683988;-0.25160015;0.013731238;-0.24180265;-0.010192836;0.023864409;-0.24226032;0.011831907;0.027959995;-0.11038992;0.04238995;-0.04972894;-0.03959699;0.04026381;-0.05924901;0.029328173;0.019504674;0.105828494;-0.07216103;-0.24656418;-0.06138483;0.051997665;-0.24886061;-0.039820477;-0.0177092;0.1254699;0.095588565;0.118057586;-0.24733801;0.058587372;-0.019174527;-0.087157436;0.2450359;-0.0029124022;0.0942512;0.04931238;0.028562812;-0.056599084;0.040336657;0.32599264;0.109430216;0.16018596;0.098071866;0.06233959;0.077058725;-0.03112979;0.16293015;0.058848485;0.07054678;-0.0045175115;-0.07567375;-0.080935754;-0.13776688;0.18524128;0.006352477;0.2143027;-0.021756094;0.020982213;0.1204787;0.07364032;-0.18518826;0.0018712732;0.07777721;-0.08861558;-0.2898762;-0.16106099;0.19039166;0.030681668;-0.03845628;0.021257076;0.0077089816;0.021327589;0.046107795;0.026284393;0.043097902;-0.014368223;0.31342983;-0.14633502;-0.029698143;0.04130358;0.21758196;-0.05305017;0.2581973;0.21337104;-0.0028732324;0.036036883;0.038464416;0.26843557;-0.13582371;-0.0006291725;0.030633155;-0.023936974;0.4020909;0.12552683;0.066731706;-0.16124101;-0.012656005;0.22159529;0.19766241;0.021225927;-0.2595935;-0.03998776;0.00034357255;-0.16876061;-0.02917013;-0.013670538;0.14560357;0.009408906;-0.2088941;0.0868834;-0.16667895;-0.050026514;-0.21254706;0.0793467;0.103755735;0.039131418;-0.004626811;-0.11108247;-0.2554117;-0.0034574703;0.009142754;-0.06900619;-0.06482651;0.22209315;-0.10347785;-0.1683937;-0.2189261;-0.09944205;0.06424412;0.063931175;-0.12270741;0.1086619;-0.17805621;0.008815249;0.025457626;0.23710428;-0.07716743;-0.015707048;0.17107213;0.28118548;0.057247546;-0.049655877;-0.0802901;0.05606457;-0.10035337;0.065501355;0.009131337;0.10567957;-0.026961409;0.025440302;0.042680845;0.0763458;0.004269559;-0.24844445;0.0255702;0.2626394;0.002705608;0.018372184;-0.10344041;-0.3055727;-0.07928407;0.10669801;0.1378143;0.086957134;-0.27787676;-0.1438497;0.07089936;-0.016559938;0.111586004;0.057360888;-0.030945623;-0.009193863;-0.06310942;-0.14014494;-0.036178946;0.11497283;0.13751593;0.1236712;-0.35969728;0.07585409;0.15467907;-0.029818356;-0.13957453;0.012468308;-0.06806971;-0.031640045;-0.10594698;-0.16162172;0.14111662;-0.011341045;0.038834725;-0.003145515;-0.0204168;-0.17274393;0.0373593;-0.0533902;0.12661979;0.15284374;-0.0345867;-0.098306276;0.08177641;0.10219012;0.22599627;0.07287297;-0.046144806;-0.15983906;-0.04889865;0.044805266;0.3848028;0.08163886;-0.025018474;-0.2054734;-0.08007823;0.05892222;9.648876e-06;-0.079931796;0.1356981;-0.04617881;-0.038979888;0.015752945;-0.05903383;-0.02417249;-0.010532026;-0.0147892125;-0.034923457;-0.045872707;0.03583266;-0.09237759;0.07236855;-0.032411985;0.03184847;0.07688676;-0.10455202;-0.008899212;-0.17765574;-0.090435624;-0.090532;0.20091823;0.030530479;-0.07840236;0.052440513;0.028611645;-0.05006091;0.028317455;-0.014105117;-0.049194954;-0.12891395;-0.085591696;-0.16157755;-0.02595556;0.11402096;-0.15305795;0.12801085;0.18645422;-0.24184263;0.1854814;0.08285072;-0.14844584;-0.057540845;-0.18331212;-0.007968985;0.04453383;0.061562795;0.18088897;-0.0047623455;0.044352777;0.124688245;-0.025735036;0.06191436;0.07866398;0.0026564032;0.05775478;0.27834004;-0.1353741;0.019972602;0.27327636;-0.005772339;-0.002194644;0.051647168;-0.07076023;-0.046898413;-0.1994926;-0.12557086;-0.036964834;-0.22380076;-0.19093747;0.15345721;-0.045961954;0.24122652;0.14741528;0.1983085;-0.10746603;0.090156734;-0.016814528;0.16226892;0.0053336564;-0.092351586;0.047285628;-0.09608964;0.0535595;0.13928522;0.17254539;0.080220215;-0.029819397;-0.10626955;0.023719622;0.19941072;-0.20354353;0.2528143;-0.1169763;0.35983375;-0.033387996;0.05926866;0.0058234953;0.05034788;-0.015461434;0.018900728;0.110433646;-0.14948362;-0.035919458;0.03611436;0.0763533;0.2675331;-0.027822752;-0.07939904;-0.32508206;-0.13545206;0.2356042;0.020127425;0.041227046;0.020822732;0.10749432;-0.059308983;0.060776174;0.04964185;0.07587139;0.0023376087;0.13910283;-0.25747618;0.039990883;0.06630131;0.042345587;-0.079412214;0.24983434;0.028338341;0.027251842;0.28731793;-0.053138573;0.03537409;-0.086228736;0.019906173;-0.03296274;-0.072117925;-0.06727138;-0.16392452;0.17338276;-0.04063604;0.12536763;-0.0026196574;-0.15223514;0.013727759;-0.056275617;-0.23536868;0.21024701;-0.26980633;0.071300164;-0.037651867;-0.097281255;0.10279558;0.050552532;0.028176028;0.14065635;0.20205797;0.0058135074;-0.24087635;0.06011306;0.049484853;-0.118634105;-0.08519714;0.042245567;-0.20365281;0.030553417;0.067685746;-0.036299255;-0.03044156;-0.0044725505;-0.15435913;-0.051646188;0.05078566;0.03833088;0.28497407;-0.06663579;0.25458774;0.20798604;-0.0032181193;0.2582361;0.011219578;-0.10337222;0.004965034;0.012919738;-0.1056561;0.25779578;-0.11028675;-0.04203769;-0.15290354;0.33882296;0.033954468;0.33904487;0.2599966;0.08223951;-0.06820681;-0.2188785;0.01091358;-0.022925133;-0.18451855;0.049956124;-0.32232848;-0.01443757;0.04046159;0.30971146
0.12296852;-0.117540166;-0.12772685;0.090427876;0.059480477;0.58821774;0.32489717;-0.119611174;-0.062876314;0.028374668;-0.0039015862;-0.2006439;0.12367825;0.048083466;0.09413457;-0.020646207;0.021842659;0.23045816;-0.10170938;0.04517145;0.0855112;0.08281996;0.07753475;0.049007937;-0.023536496;0.0014400948;-0.05392394;-0.11384911;0.08152849;-0.13710044;0.117136;0.04025958;-0.0860119;0.16673179;0.16743006;0.44220287;0.24445304;0.017538723;-0.10445422;0.02461833;0.08763339;0.014540879;0.1194539;0.28787965;0.025009984;0.10248382;0.033034407;-0.23359491;0.10303706;-0.040096004;0.06622758;-0.1433406;0.051592007;-0.028698448;0.03245237;0.11507249;-0.015277682;-0.2439216;-0.021220269;-0.08242658;0.043645054;0.2561188;0.041454203;0.20031285;0.12479617;-0.16276085;0.0018908232;0.02556623;-0.116793625;0.019639194;0.3144524;0.02794624;0.036335703;-0.07330176;0.020336218;-0.010601105;-0.06610809;-0.036701318;0.22804406;-0.0163709;0.053899337;0.122523986;-0.060665913;0.009843627;-0.027417105;0.36667836;-0.14834921;0.020121306;0.030067412;0.011060281;0.10101771;-0.12885068;-0.15489724;0.14604744;0.044398833;0.060544584;0.061392173;0.27257723;-0.0814992;-0.08870032;0.026787609;0.16623332;-0.1245978;-0.047049213;-0.16394643;-0.015153973;0.017051242;-0.053282052;0.09650094;0.020709155;-0.05067508;-0.10712486;-0.076125;0.27959958;0.28123716;0.14838777;0.11146362;0.08460641;0.014203854;-0.11722201;0.013448538;-0.06753473;-0.038882248;-0.009145306;-0.010530484;0.007936913;0.2063067;-0.22193013;-0.028802615;-0.001993571;0.21164069;-0.104879364;-0.3686111;0.13801435;-0.049322356;0.042538837;0.12678677;0.043997027;-0.004701398;0.073313616;0.26868972;0.008816502;-0.14390616;-0.101641804;-0.024237052;0.07211145;0.11743221;-0.047621597;-0.2700478;-0.2004218;0.08301115;-0.079459295;-0.038025398;0.045530915;9.6929354e-05;0.06844926;0.026824111;-0.25803208;0.0446194;-0.14612801;0.12815872;-0.074876584;-0.22958082;0.07351814;-0.102440946;-0.095950164;0.18078166;0.0014436123;-0.07885726;0.020035764;-0.07354574;-0.055373076;-0.011298338;0.13971317;-0.1582908;-0.18694346;0.03612051;-0.045263838;-0.17360072;-0.0026594899;0.032724287;0.1721799;0.036070254;0.04694937;-0.34783864;0.22121325;0.017040478;-0.15710412;0.22037984;0.045403495;-0.05915003;-0.028650487;0.15570118;0.026602415;0.07605657;0.32945248;0.15749118;0.18801253;0.07337821;0.019264791;0.088224195;0.013547614;0.2802264;0.0039705057;0.11132229;0.0034676858;-0.025912102;0.066861734;-0.18705297;0.1265131;-0.054697808;0.11538456;0.0030497473;0.031853084;0.048203625;-0.034874193;-0.06577845;-0.00023765302;-0.029661974;-0.2418505;-0.199426;-0.153191;0.12346509;0.041983746;-0.07050165;-0.041736055;-0.049015194;-0.004124379;0.010896586;0.04691599;-0.08848867;-0.020510936;0.41419968;-0.14404832;0.08155242;0.028647423;0.13554826;0.049197923;0.29603016;0.21670337;-0.10094444;-0.08424185;0.04335731;0.25008774;-0.15478389;-0.094680265;-0.013408107;0.10428738;0.35802135;0.18517669;-0.0525389;-0.105832435;-0.112969;0.20998901;0.20437294;-0.0029808467;-0.23421614;-0.0054973136;-0.031156776;-0.33642676;-0.06931309;-0.020229245;0.26509288;0.098301806;-0.19465;0.08962301;-0.27992898;-0.08642116;-0.10377759;0.026292887;-0.023725241;-0.06537298;-0.045932844;-0.08587064;-0.38906586;-0.025009293;-0.016950892;0.024203284;-0.14339475;0.17875594;-0.05381286;-0.179536;-0.24346282;0.09352228;-0.011081433;0.040860977;-0.049114324;-0.0077074114;-0.07501378;-0.0576178;0.0060893437;0.2714035;-0.17000964;0.012659942;0.14128992;0.31311104;0.15981299;0.046451885;-0.18830864;-0.0008860271;-0.123150155;-0.07286893;0.07586748;0.11604891;0.046452757;-0.07317182;-0.057735898;0.11287144;-0.0008329741;-0.25520143;-0.014795312;0.09166713;0.021611817;-0.09527848;-0.085492164;-0.18509264;-0.049637463;-0.020562109;0.05481224;0.0312554;-0.23985468;-0.23259829;0.00091528223;-0.0145063745;-0.0013843875;0.12204213;0.09994215;-0.038124118;0.03583297;-0.23134726;-0.02451674;0.13313936;0.28027797;0.15398544;-0.39452955;-0.018881708;0.26087546;0.008094634;-0.09670654;-0.0038443652;0.03524963;-0.012436673;-0.05136186;-0.062707566;0.10709415;-0.1480959;-0.026315875;-0.051007908;-0.03711885;-0.025896514;0.05221886;-0.12552729;0.19055161;0.16742812;0.07079009;-0.11594192;0.022591595;0.17471358;0.089777336;-0.065867655;0.06199501;-0.057592195;0.02840741;-0.013562208;0.25329554;-0.06926493;-0.08481635;-0.2547305;-0.035715993;0.018910943;-0.14993186;-0.038492188;0.13087854;0.04112116;0.024929889;-0.15148908;-0.14047639;0.0011686408;0.02128935;-0.10556469;0.02340513;0.06079174;-2.5682915e-05;-0.1271375;0.025390927;0.104976736;-0.056922987;0.1384009;-0.15134652;0.031149415;-0.1928676;-0.056034327;-0.05790291;0.27502903;-0.0004086845;-0.17479366;-0.071930006;-0.151912;0.06405284;0.005351909;0.02521916;-0.032610986;-0.064737655;-0.027467106;-0.30352792;-0.087531865;0.16629653;-0.15924023;0.14896265;0.18148105;-0.10048145;0.107313976;-0.040488016;-0.13107172;0.057935648;-0.042425223;0.06696705;0.16919392;-0.043942668;0.18471111;-0.008800869;0.07951666;0.18932177;0.028635552;0.004134892;0.11363812;-0.10725492;-0.0054097716;0.23683126;0.01879866;0.03235172;0.26897556;0.0009546714;-0.028324397;0.010894575;-0.20373479;-0.04451879;-0.18887927;-0.16856574;0.063307635;-0.089537896;-0.26010793;0.28046814;-0.0352056;0.19161266;0.1749583;0.25600138;-0.19121721;0.21520227;-0.041962534;0.19630973;-0.026757019;-0.16777107;-0.044031028;0.0032305082;-0.054998998;0.23638399;0.08826319;0.18694688;0.040288523;-0.054289043;0.030371148;0.17956838;-0.18765315;0.24909605;-0.13981852;0.30991554;-0.062768914;0.20030113;0.03729989;0.015518946;-0.06058236;0.009431103;0.14006186;-0.19931674;0.000677455;0.036611523;-0.037542786;0.11299067;-0.044190936;-0.049355436;-0.3147415;-0.027776295;0.28430957;-0.063170165;-0.048830565;0.10887792;0.07439838;0.061515372;0.16812667;0.019885495;0.101445004;-0.1796832;0.054406542;-0.23120762;0.008069278;0.11284988;-0.032377806;-0.1518363;0.19384593;0.04107331;-0.004355995;0.28713572;0.048786525;-0.056395836;0.04743058;-0.065366134;0.022545539;0.030918889;0.05307885;-0.17537053;0.065361835;0.00509614;-0.012064957;-0.014238042;-0.027188912;0.0027889253;-0.2003069;-0.26971364;0.08961102;-0.25148672;-0.042240612;-0.06610673;-0.087760516;0.098728724;0.04079999;0.103259504;0.05261449;0.07594097;0.016779069;-0.03440916;0.015390648;0.029767968;-0.16145298;-0.053148314;-0.0019496087;-0.24684428;0.04182985;0.038502634;0.022627449;-0.08730396;0.034442496;-0.070870675;0.046024233;-0.04552097;-0.0031984989;0.21027806;0.05333825;0.21932276;0.15203473;-0.030925505;0.16337362;0.06502789;0.0880249;0.08050884;0.15574032;-0.03872084;0.31932545;-0.08821599;0.06257476;-0.2625177;0.2218757;0.03820068;0.29587764;0.17160228;0.033223107;0.031152546;-0.25666505;0.09085276;-0.034519326;-0.08397951;0.16575572;-0.3234645;0.046561107;-0.014952647;0.34118113
0.09802646;-0.15300831;-0.094925165;0.075015366;-0.050343227;0.52072835;0.2083484;-0.028524581;0.08147852;0.052479938;0.060647354;-0.37037018;0.13773657;0.039315466;0.103649385;-0.005673189;0.0030972487;0.29466158;-0.09486276;0.05670273;0.13372912;0.0814746;0.18624762;0.074069135;0.05507656;0.064896174;0.038567297;-0.10323172;0.01974256;-0.00887313;0.13975728;-0.07695412;-0.03910655;0.17909315;0.07962839;0.5034204;0.28803802;0.09090843;-0.042247616;-0.053061604;0.0022560183;-0.019748412;0.045719393;0.2678102;-0.07417688;0.20545524;0.052530754;-0.22995672;0.20456861;0.039466366;-0.07651858;-0.110353224;0.08420455;0.08905856;0.06169656;0.18286386;-0.015517373;-0.23573245;-0.0014985603;-0.21356402;0.032567605;0.17265885;0.009180549;0.1678398;0.10293131;-0.08813304;-0.106229894;0.07040159;-0.014973989;-0.09221558;0.2199072;0.056446664;0.0006248737;-0.021238528;0.051583473;0.024655452;0.056428224;0.08594596;0.14992358;0.008264473;-0.0010029158;0.17871852;-0.1436906;0.024682347;0.05833051;0.4290308;-0.17721371;-0.06572509;0.018827146;0.040948696;-0.0068414337;-0.2229063;-0.18798572;0.19861561;-0.057489995;0.21235506;-0.017857926;0.14392202;-0.12666932;0.04332;-0.04496024;0.12729348;0.0043572136;-0.033924956;-0.18748131;-0.11426938;-0.044339325;-0.17838332;0.079638876;0.062824614;-0.12783758;-0.11684123;-0.25425026;0.093792334;0.32930085;0.028418405;0.05567119;0.11255987;-0.043851927;-0.03808605;-0.0012655912;0.04474364;0.00020491182;-0.049493205;0.021715434;-0.017584119;0.24257377;-0.24084453;0.06315813;0.0594424;0.16686328;0.006305545;-0.22680283;0.13362183;0.050931502;0.08127323;0.02678106;-0.050473657;0.07864302;-0.06169793;0.26708537;-0.0043861596;-0.007001415;-0.09066124;0.0020327575;0.04358697;0.17510353;-0.020368576;-0.26233748;-0.022099957;0.018378684;-0.15074562;-0.05697372;-0.017418483;-0.07326053;0.06380808;0.046086904;-0.2850868;0.1254019;-0.28049335;0.013258919;-0.02524563;-0.1836933;-0.05480079;0.061151613;-0.043081235;0.107886784;0.06718983;-0.16236883;-0.13854878;-0.1668594;-0.085199066;0.05100984;0.17160946;-0.2021003;-0.17035563;0.0542757;0.011905198;-0.2618075;0.026512768;0.053475156;0.18020031;-0.039532945;0.0061430163;-0.30709377;0.23655969;0.0029932903;-0.12036809;0.13114125;0.025739728;0.11729785;-0.013765385;0.13440892;-0.05039423;0.027245248;0.34111613;0.11900818;0.1333992;0.19928524;-0.06092199;-0.015180035;0.14013949;0.32756191;0.02353676;0.057979375;-0.0054729;0.020856768;0.043758407;-0.33016247;0.014810124;-0.042766433;0.21440719;-0.049991988;0.04207467;0.14192167;0.029887082;-0.19792663;0.05384524;0.12099616;-0.22703826;-0.24615197;-0.0928635;0.0801207;-0.04611985;0.0072098;0.068248495;-0.022374477;-0.11442128;0.031568825;-0.08732886;0.052574772;-0.03199845;0.40036243;-0.11317492;-0.00692176;0.08549769;0.26794508;-0.01161912;0.14701189;0.15907577;-0.06347609;-0.06271874;-0.0140415635;0.0899541;-0.24538492;-0.11719651;0.046742264;-0.0055474173;0.42898262;0.20047484;-0.015680172;-0.13076085;-0.12739684;0.21824266;0.16506077;0.0011234143;-0.37523425;-0.0025535228;-0.0131410295;-0.29748392;0.06354456;-0.05098221;0.29933733;0.10411173;-0.13994841;0.04577495;-0.14638604;-0.11644141;-0.21881928;-0.036516543;0.037461676;-0.04925253;0.05899248;-0.14586665;-0.3322612;-0.015774101;-0.0074778097;-0.023079105;-0.17063633;0.33152002;-0.11668905;-0.1604065;-0.107388176;-0.031062804;-0.0541671;0.080257975;-0.06776003;0.06710417;0.04962973;-0.08951005;0.038209286;0.14200981;-0.11811666;0.07413861;0.1876525;0.4479437;0.11286491;-0.0011147425;-0.09774368;0.029630253;-0.12886012;0.04301096;0.020534908;0.035574526;0.010900108;-0.0077870446;0.050762314;0.090342484;0.033258386;-0.17664073;0.030480308;0.18674946;0.008509825;0.08508995;0.028170511;-0.1697985;-0.11036703;-0.041286502;0.061928306;0.124919556;-0.23515986;-0.2220306;0.08971104;0.00810836;0.07761319;0.07973229;0.103977196;-0.000951099;0.06387863;-0.18576853;0.01005021;0.121909656;0.16083829;0.12092176;-0.36303872;-0.05226047;0.20297277;0.016025258;-0.20176594;0.049040616;-0.036746666;0.04037213;-0.046062164;-0.009331836;0.15497994;-0.14222243;-0.011765881;-0.005928364;0.011324023;-0.013160671;-0.039904296;-0.2333368;0.091219544;0.10032609;-0.023035815;-0.1249157;-0.00016058706;0.1837246;0.09190376;0.0050090295;-0.059951298;-0.10561289;-0.031281933;0.11872218;0.2722305;-0.0437823;-0.07609625;-0.1730307;-0.117249;0.052239973;-0.12487222;0.01886685;0.226693;0.037771218;0.032055598;-0.06649315;-0.011072595;0.13460633;-0.07043864;-0.009606165;0.016854199;0.06776894;0.05122594;-0.13607895;0.046284784;0.06660708;-0.03756585;0.15260969;-0.15893324;-0.055588767;-0.19590855;-0.19617544;-0.18858267;0.27369615;0.04247039;-0.072718345;-0.062002502;-0.06200626;-0.041878927;-0.12222006;-0.029797077;-0.02021823;0.035997972;-0.07988138;-0.3040675;0.072713345;0.079848066;-0.10882109;-0.046522357;0.010336383;-0.04664932;0.14655016;-0.019646706;-0.15670168;0.015659828;0.05586842;-0.057492774;0.10547903;-0.010781408;0.21712494;-0.0071006427;0.062485833;0.074920654;0.039105948;0.012209564;0.11298932;-0.020848686;0.060257796;0.2868485;-0.12150579;0.023927076;0.1994955;0.046193376;0.053636722;0.019783102;-0.1753412;-0.06799023;-0.36137414;-0.08530175;0.0009391224;-0.15783963;-0.30246297;0.30365783;0.010977429;0.14005713;0.12336114;0.07113256;-0.09068967;0.07829949;-0.073655434;0.1288106;-0.06337635;-0.07209604;-0.060263734;-0.05814523;-0.047007304;0.20110473;0.029547246;0.1763019;0.1569022;0.07130185;0.07488615;0.2703852;-0.14544399;0.18551467;-0.097117834;0.24503969;-0.12333893;0.055396512;-0.07809514;0.0724682;-0.113561295;0.052070107;-0.07894652;-0.13620608;-0.029228065;-0.03590261;-0.042545274;0.08881268;0.057990815;-0.014749434;-0.3068629;-0.17840502;0.3862612;0.031147994;0.06104005;0.0064026737;0.10966201;-0.12403041;0.12583712;-0.050087538;0.05301453;-0.20625938;0.0812426;-0.17597774;-0.15729567;0.0025642745;-0.03394781;-0.18785265;0.14778762;-0.04503586;0.07881128;0.30155197;0.0718758;-0.16634175;-0.033827472;0.056121316;-0.015484644;0.0208093;0.00358478;-0.17141886;0.18395914;0.022320032;-0.008338343;-0.03155316;-0.20321046;0.020956643;-0.06809764;-0.27486086;0.21885644;-0.2704823;-0.020875806;0.049019;-0.14782436;0.10742695;0.05187877;0.12885539;0.0974237;0.012098614;-0.020684483;-0.009294494;-0.028254092;-0.03313703;-0.24336374;-0.17759831;-0.058770202;-0.34202418;-0.07802641;-0.018845903;0.09748859;0.012483105;-0.057304174;0.004049704;-0.0044436846;0.03254364;-0.06294371;0.17765059;-0.054197807;0.32964742;0.12755919;-0.05227959;0.18391137;-0.004161682;0.048571095;0.07798426;0.21758421;-0.071184956;0.20809628;0.007011181;-0.053965505;-0.2804928;0.20424004;0.18344915;0.3916874;0.26580206;0.106870465;0.07305442;-0.26990694;0.15779413;-0.0085351765;-0.19931093;0.09219017;-0.27587217;0.002629275;0.04167138;0.30135447
-0.0037415314;-0.14101511;-0.10639864;0.08570683;0.022525227;0.56906754;0.29685128;-0.07497458;0.014518701;-0.020574471;-0.020857368;-0.1954884;0.22760037;-0.068238065;0.13045518;0.07800657;0.036344435;0.34133318;-0.06323451;0.14353406;0.21913071;0.074123226;0.22560634;0.001145072;0.03071377;-0.08309343;0.053973906;-0.16051766;0.08616136;-0.036246333;0.23121476;0.005684475;-0.08692927;0.10313264;0.11776294;0.53954047;0.14146866;0.061511114;-0.08848671;-0.10899927;-0.039331727;-0.06044583;0.14872065;0.37970188;-0.073108256;0.22875255;0.03763678;-0.18076499;0.11640627;0.052570555;-0.047191653;-0.096039854;0.10919162;-0.045418307;0.018248282;0.07930193;-0.069193415;-0.085877605;-0.108892925;-0.20800719;0.045511432;0.22587621;-0.01931392;0.1897947;-0.059045706;-0.11323518;0.023862772;0.16392188;0.0023611574;0.001797359;0.28964016;-0.014485388;-0.0027046623;0.024263445;0.07659556;-0.0173193;-0.05637352;0.056248676;0.15542047;-0.010974174;0.00593967;0.36079004;-0.15690354;0.05192831;0.00240279;0.3686975;-0.2532976;-0.052177228;-0.07035208;0.04537213;-0.0044271536;-0.10446444;-0.14808115;0.21003069;0.035269976;0.11613648;-0.12249536;0.29748884;-0.1506682;0.18356296;0.023950897;0.045548514;-0.12170843;-0.04549234;-0.17665218;0.017170236;-0.026869684;-0.083115906;0.041075822;-0.049788754;-0.090859964;-0.03855498;-0.1451673;0.17351854;0.21596584;0.10818497;0.050363265;0.17374277;-0.019411156;-0.07452284;-0.060907625;0.039212327;0.078841254;-0.007895458;0.03999465;-0.07052205;0.14126316;-0.22789718;0.00541704;0.06753791;0.04926565;-0.0860659;-0.18397972;0.03202144;0.016410217;0.07178064;0.046343543;-0.056487225;0.026529023;0.02325175;0.16817504;0.07068352;-0.02442482;-0.1398496;0.061894428;-0.0043445276;0.19752981;0.056131702;-0.16007847;-0.17773639;-0.047957018;-0.041078277;0.012707641;0.022375325;0.058917392;-0.012678018;0.03644585;-0.36374462;0.012458631;-0.103904136;0.042697437;0.018429797;-0.3092767;-0.018727025;0.068209045;-0.03173077;0.062737554;-0.033020638;-0.027232448;-0.13469422;-0.2511174;0.04569427;0.039739385;0.023616197;-0.15420574;-0.099011846;0.02830465;0.04006549;-0.1613869;-0.054174475;-0.005568426;0.25749502;-0.07536027;0.1576848;-0.2414648;0.15493214;-0.07359652;-0.14416255;0.21712062;-0.040734153;0.061446093;0.049865983;0.1808988;0.010294038;-0.06729198;0.30513224;0.048659965;0.0881315;0.21776302;0.0119861085;-0.082103096;0.06428226;0.27374616;-0.039845787;0.09272834;-0.016167013;0.028741518;-0.01420851;-0.25104898;0.036659203;0.07984381;0.12274426;0.025910517;0.004662525;0.06303389;0.056693185;-0.08015504;0.016231842;0.052222725;-0.18097204;-0.24931355;-0.1267213;0.08776246;-0.04552907;0.07310064;0.010328228;0.055622168;-0.05657726;-0.027234767;-0.040075127;-0.060702592;-0.036614645;0.45592135;-0.04003032;-0.0023823916;-0.029739548;0.19488856;-0.0103196995;0.14220686;0.070737205;-0.0705458;-0.021654544;-0.050759967;0.049897674;-0.094376385;0.04209755;-0.035816967;-0.024370255;0.45524862;0.2120665;0.06626167;-0.08061319;-0.089339525;0.08145002;0.09360078;0.003768538;-0.31726006;-0.0049999063;0.07153187;-0.23168167;-0.00725221;0.089754544;0.30991364;0.12370813;-0.117518164;0.19243641;-0.19319956;-0.04196676;-0.048941143;0.105367735;-0.06854341;-0.04355724;0.026714481;0.020155082;-0.38768145;-0.062168;0.012243812;-0.031333566;-0.12565547;0.22604439;-0.06505367;-0.09130577;-0.062359296;0.08693866;-0.032679267;0.021740695;-0.029362999;0.034243654;0.0032819028;0.0042505455;0.03080285;0.20995983;-0.01126764;0.03937627;-0.0053987033;0.44878814;0.15772903;0.020108368;-0.11581309;-0.05950181;-0.10433157;-0.062590376;-0.035062518;0.045750752;0.023892837;0.0113396235;-0.05205621;0.13026337;-0.043382168;-0.13210055;0.021088233;0.15778148;0.108549155;0.11142901;0.015597354;-0.27064422;-0.046352137;-0.047047753;-0.008510021;0.10038431;-0.11220773;-0.17522554;0.11455963;-0.027750427;0.043029062;0.06631013;0.074048035;0.047463194;0.031364955;-0.18958068;0.014177873;0.054620586;0.31550592;0.08742215;-0.2531727;-0.008099935;0.22514372;-0.040107265;-0.21948041;0.019914698;-0.040958457;0.06180231;-0.046664245;0.041638497;0.224883;0.013526678;0.000705685;-0.029376933;0.07844282;0.021006515;0.03248846;-0.15414923;0.1025578;0.2031273;-0.0753956;-0.09660087;0.05836914;0.17100832;0.09984159;-0.056335848;-0.06557519;-0.2514664;0.06373478;-0.031601902;0.13135193;-0.090966195;0.036735486;-0.17399171;-0.13429868;0.12008255;-0.23344567;-0.013791091;0.1697745;0.027337871;0.012786342;-0.124265425;0.053571798;0.01605619;-0.06002908;-0.09151108;0.07246039;-0.0038872135;-0.027791731;-0.17732036;-0.0038525425;0.23351969;0.027927436;0.08402543;-0.14526317;0.022528088;-0.17150739;-0.14714697;-0.15564701;0.32279024;0.02189006;-0.013918444;0.068930045;-0.05035763;0.04816792;-0.03701875;0.055512644;0.09797855;-0.0063239965;-0.15118878;-0.2437852;-0.020612678;0.15840521;-0.037757616;-0.18861951;0.09273066;-0.081338294;0.11197957;-0.05090765;-0.28053656;-0.030163385;0.020784004;0.0743413;0.14747614;-0.029433427;0.13450088;0.009970512;0.10738835;0.088942654;-0.03499972;0.00621001;0.055476975;0.09016773;0.019532701;0.21452744;-0.19776766;-0.00016880668;0.2638537;-0.022165589;0.01272197;-0.08311423;-0.18938239;-0.17115517;-0.28956968;-0.15218483;0.040231492;-0.12798646;-0.3929782;0.22618036;-0.06493383;0.21284966;0.19204998;0.08858009;-0.06358529;0.18194611;-0.13246793;0.16934127;-0.14949578;-0.046179973;0.036913898;-0.111285575;0.050437924;0.2627669;-0.14076237;0.2886688;0.15106511;0.09605433;0.08255154;0.2800722;-0.050165925;0.2263265;-0.0868723;0.32706112;-0.093820006;0.108441405;-0.038982376;0.0490421;-0.12701128;-0.061158653;-0.1290342;-0.1006467;-0.009686428;0.038445685;0.05957656;0.11817373;-0.01938246;-0.009827875;-0.1874315;-0.08497155;0.39306825;-0.012150689;0.040139303;0.034791365;0.10046301;-0.11421792;0.06566526;-0.04804029;0.12667954;-0.16420418;0.18319543;-0.015544798;-0.16194715;0.13090648;0.022260666;-0.212285;0.1527862;-0.052510373;-0.04075986;0.30533883;-0.021446956;-0.20641717;0.04591217;0.056616046;-0.082116604;0.039843105;0.068693265;-0.2103588;0.13107248;0.031601664;0.013019906;0.051150717;-0.14180492;0.003477919;-0.11400304;-0.20503862;0.13479206;-0.16952196;-0.06436611;0.010458471;-0.1820926;0.17575367;-0.023219291;0.06849431;0.05074052;0.012680018;-0.04244107;0.12450731;0.0585071;0.0553472;-0.11852535;-0.18851216;-0.06443658;-0.33172363;0.048858594;-0.08150748;0.113033056;-0.018573578;0.023663705;0.10975041;-0.0074626347;0.03222497;-0.03570078;0.16255471;-0.025296697;0.2358802;0.13514496;-0.046356235;0.111227594;-0.046236552;0.013062436;0.047356267;0.16923063;0.054880276;0.23918395;-0.011869055;0.042660333;-0.2592552;0.30200928;0.20393461;0.2876517;0.18111958;0.11101623;0.00725308;-0.14749195;0.1248511;0.025274757;-0.22514522;0.20315638;-0.41467652;-0.03805396;-0.029476661;0.13643166
0.021470007;-0.09429251;0.040633377;-0.021923065;-0.044846043;0.6134913;0.17887871;-0.08175142;-0.020222142;-0.02928147;-0.028503703;-0.15898205;0.30408055;-0.0049663633;0.10346266;0.070347235;-0.026235294;0.31352752;-0.022300057;0.15457028;0.22151507;-0.07491223;0.18207878;-0.08118145;-0.043031253;0.015873395;-0.0067466632;-0.19792986;0.00014047166;-0.06751377;0.12491692;0.06092884;-0.0036267294;0.08873578;0.14757743;0.52284455;0.24304633;0.1717506;0.06373044;0.030037368;-0.016985197;0.08634938;0.09875451;0.34017196;-0.022921657;0.21220505;-0.004103837;-0.15900375;0.1452658;-0.00084266515;0.020759081;-0.0024777683;-0.1003036;-0.040145908;-0.017950118;0.18005504;-0.004152483;-0.105082996;-0.014452644;-0.16909951;-0.07523943;0.23700736;-0.0123342415;0.07677494;-0.043924056;-0.15159047;0.04733286;0.16364552;-0.13980387;0.04483297;0.33892974;-0.03949968;0.021861412;-0.13054956;0.1581668;-0.084698215;0.045861274;0.12129363;0.20858103;0.059596144;0.032422915;0.25775445;-0.3329705;0.065163985;0.035410218;0.24148686;-0.115087405;-0.021312326;-0.0657538;0.03640712;-0.0336179;-0.12900689;-0.099548936;0.039946053;0.02301568;0.041523598;-0.11061214;0.19147706;-0.074902266;0.16338578;-0.053416923;-0.17102188;-0.030329993;-0.038785376;-0.15309188;0.062925555;-0.024346529;-0.101026215;0.039216254;0.013625906;0.039465964;-0.0848386;-0.17140827;0.14161387;0.19247381;0.132728;-0.010164938;0.04150112;0.010456402;0.049688943;-0.08915769;-0.056403473;-0.02911383;-0.038260844;0.033637468;0.05721109;0.22692405;-0.1490907;0.055491097;0.0016050915;0.11803281;-0.119342186;-0.1086515;0.12075617;-0.027557213;0.11558333;0.075377755;0.045745127;-0.05888632;0.0025965571;0.060958087;-0.0492332;0.17378108;-0.23842372;-0.03810172;0.14635336;0.23193944;-0.040700227;-0.18140103;-0.09003519;-0.06500641;-0.085633755;-0.12431282;0.038172375;0.038145833;-0.057847142;-0.109501086;-0.31280214;-0.10967453;-0.12278694;0.036108352;0.0073978794;-0.24563369;-0.03932821;-0.049530677;-0.042682644;0.086850114;0.05454118;0.012703118;0.0024321743;-0.18443246;0.07250431;-0.010492341;0.090360925;-0.11850409;-0.08089924;0.01681848;0.013227494;-0.2632239;-0.003902897;0.06266346;0.21396701;-0.033965703;0.010638496;-0.17320515;0.11335504;-0.11444061;-0.094405755;0.026634546;0.041379638;0.02029377;0.038944002;0.14552703;0.076747835;-0.015474669;0.2741345;-0.019213198;0.15814017;0.19875024;0.046128172;0.052860815;0.06691386;0.35526377;0.028421506;-0.07663035;-0.046337273;-0.0314874;-0.079354204;-0.20083258;0.003621798;0.018578723;0.07869601;0.043232467;0.01200938;0.19106641;-0.051267877;-0.09055876;-0.051283717;0.14896683;-0.07782802;-0.15528701;-0.085284375;0.2019594;0.00992494;0.11244196;-0.026528373;-0.021901974;-0.13273086;0.027199978;-0.128333;-0.039912004;0.017895803;0.3063456;-0.10743495;0.17243348;-0.0011776556;0.14141719;0.06838718;0.20210238;0.10619919;0.018879699;0.009686684;-0.06240529;-0.055558395;-0.15249863;-0.012298518;0.018678261;0.03700498;0.36820054;0.1057145;0.03284309;-0.0628248;-0.07810068;0.111032546;0.14752947;0.04057791;-0.30597708;-0.026714973;0.059320617;-0.22502786;-0.008270316;-0.00749676;0.1026805;0.10800763;-0.04281075;0.2880379;-0.16450487;-0.15846212;-0.16258463;0.031736042;-0.02449552;-0.06340653;-0.04946867;-0.05315427;-0.32232442;0.07216215;-0.021329818;0.007757559;-0.29063472;0.26196957;-0.08441445;-0.20050366;-0.031444434;-0.013338372;-0.07820302;-0.0732026;-0.14245865;-0.062701836;0.10490334;-0.07983962;-0.039212614;0.006264601;-0.15623496;0.05283383;-0.064798206;0.3408733;0.08431909;0.067894325;0.07965426;0.06363555;0.0055442504;-0.041802466;-0.027095908;-0.061630815;-0.014026546;-0.093301676;-0.017155986;0.13134377;0.02655089;-0.14722799;0.07533031;0.0113450885;0.18910548;0.051797267;-0.028043862;-0.10696016;-0.008166214;0.052883286;0.15902457;0.002559983;-0.19778013;-0.025955468;0.07873903;0.08540301;0.071649246;0.031597156;-0.008487681;-0.05275938;-0.071066126;-0.10958781;-0.003941809;0.19697304;0.22344741;0.03133465;-0.3449967;0.010931643;0.17052694;0.038185377;-0.21889314;-0.096465334;-0.1110162;-0.004934105;-0.1240999;0.035616487;0.24387015;-0.099862;0.0464292;0.01567926;-0.0049312995;0.06686124;-0.009696206;-0.17650233;-0.004971596;0.19376975;0.07051029;-0.025012378;0.12060015;0.0866991;0.33432433;0.0049471604;0.09561896;-0.28362846;-0.040837076;0.0025462206;0.058383707;-0.031476784;0.056625433;-0.25308853;-0.10984895;-0.109365314;-0.21467398;-0.079361424;0.13031526;0.04054804;-0.025018511;-0.18274629;0.042093433;0.10305488;0.041782126;-0.2336867;-0.037992835;-0.035736185;0.004355814;-0.10904517;-0.056075063;0.10863429;-0.0147022605;0.082438774;-0.17212619;0.0023454283;-0.12135734;-0.18180121;-0.17056638;0.3271038;0.033671923;0.006449781;-0.026641475;-0.13480645;0.05086466;-0.1816796;0.021741087;-0.10010248;0.05138015;-0.19124435;-0.18551369;0.046909902;0.040856857;-0.1564583;-0.26263157;0.0881548;-0.010136617;0.12664075;-0.032522522;-0.22016788;-0.0058100363;0.012211794;-0.05298558;0.1450045;0.0133163165;-0.035973832;-0.050974645;0.14852832;0.101470254;-0.024507154;-0.054016784;0.1577781;0.11377124;0.025516232;0.18290712;-0.14631233;-0.007537796;0.099039525;0.06552015;0.050215468;0.010531225;-0.19892046;-0.11188029;-0.37284383;-0.07575274;-0.007879963;-0.09829276;-0.273999;0.14266844;0.028167784;0.103301205;0.18407515;0.18864056;-0.052340284;0.28109458;-0.10702548;0.17277741;-0.10288573;-0.04746039;0.051865913;-0.016766869;0.031599887;0.18761753;-0.02086152;0.2616705;0.09397573;-0.021777581;0.057163883;0.37982517;-0.061800316;0.08833409;-0.10121687;0.42482826;0.052061755;-0.04011662;-0.08347451;0.11240012;-0.033212963;-0.040078934;-0.15236159;0.010933988;0.03478162;0.031071927;-0.06263341;0.007989552;-0.040737107;-0.033008616;-0.28324625;-0.07152876;0.3670554;-0.04308554;-0.0533375;0.11515253;0.055125322;-0.16795437;0.01489487;-0.04530058;0.2378699;-0.28672513;0.027648527;-0.039183103;-0.16149573;-0.05612788;-0.046425715;-0.21734838;0.17849259;0.06433803;-0.08365832;0.24798192;-0.041479483;-0.3237607;0.016245274;0.04798945;-0.0038343456;0.006161055;0.05714313;-0.16055425;0.11622522;-0.026749099;0.08452267;0.06683422;-0.0008394692;0.063337475;-0.13816756;-0.18964684;0.18150528;-0.13719754;-0.18933679;-0.029553378;-0.2584527;0.17616841;-0.007449057;0.07794433;0.018146241;0.07969249;0.027598089;0.19857079;-0.014398586;0.026692122;-0.16754249;-0.14142296;0.08347724;-0.30775028;0.06923726;-0.069297515;-0.013837868;-0.096966945;-0.058196094;-0.04452977;0.047987603;-0.037691794;-0.064098075;0.31094596;0.04628276;0.24810089;0.07701814;-0.03401378;0.07218058;-0.023472134;0.0802038;-0.08886231;0.23771511;0.09888823;0.2086033;-0.035559244;-0.0067930603;-0.19096102;0.27808413;0.22146478;0.33200845;0.13514687;0.09429411;-0.06470938;-0.2500709;0.16524048;-0.046474554;-0.1945629;0.33900484;-0.3375932;-0.05772753;-0.07029632;0.018881897
-0.02864447;0.0075718644;-0.031610448;0.0063212146;-0.020996856;0.48228326;0.1587799;-0.23959744;0.0036076852;0.029705523;-0.03631832;-0.19818841;0.17532118;-0.012760091;0.21690084;-0.055230696;0.06221817;0.41763178;0.03919359;0.26232553;0.35368723;0.036988832;0.19697206;-0.03197995;0.07293337;0.07764383;-5.6958906e-05;-0.110954866;-0.04375057;0.073564015;0.08162528;0.008205728;0.042257186;-0.004980996;0.20004813;0.3879795;0.34974766;0.033380207;0.07041311;-0.07795727;-0.027856389;-0.032884635;0.085101984;0.19443256;0.08006847;0.16902725;0.048029676;-0.01624867;0.1242961;-0.08350949;-0.04068637;-0.07441769;0.015477522;0.04373171;-0.0069422387;0.1891082;0.0025755223;-0.099523745;0.009075477;-0.1648551;0.060156267;0.19319387;-0.036006913;0.09406763;-0.0066922647;-0.1566194;0.066722415;0.06268947;-0.070874035;0.029569443;0.2936725;-0.042379513;-0.020381669;-0.08452949;0.23749615;-0.07651685;-0.0070426;0.12722786;0.10573025;-0.016627764;0.029791025;0.23315124;-0.33663177;0.0055127135;0.006322906;0.22380196;-0.12024704;-0.004123134;0.011714082;-0.005255263;0.037255585;-0.16345394;-0.2450876;0.093253516;-0.02729937;-0.022835609;0.05921853;0.18163186;-0.15683803;0.19045055;0.082372665;-0.20791848;-0.20538695;-0.06622973;-0.13837005;-0.04277555;0.023285309;0.023860486;0.053807788;-0.051844757;-0.09354213;-0.10578699;-0.17826131;0.17076325;0.11973388;0.12630472;0.12125312;0.08469813;-0.011599893;0.037228897;-0.047268696;-0.027994085;0.028814454;0.073494315;0.0046027494;-0.015622644;0.15520562;-0.16355452;0.017589623;0.03426888;0.071728885;-0.05355747;-0.08914142;0.05236105;0.01305175;0.09476631;0.18562396;0.06702161;-0.062479563;-0.03117282;0.017933529;-0.036633715;-0.027728327;-0.1987014;0.049441755;0.14666131;0.11206569;-0.03987053;-0.17623077;-0.20444824;0.06558112;-0.051236372;0.0040155854;-0.012309539;0.004508093;0.006047495;-0.032991823;-0.39727864;-0.092776;-0.1672225;0.12747407;0.035945293;-0.12301557;0.05224175;-0.017201414;-0.08137803;-0.018001873;0.055718977;0.00078723655;-0.05729043;-0.1737692;-0.034741834;0.00016967866;0.012646157;-0.12462291;-0.10940858;-0.003565068;-0.032029685;-0.21791127;0.061416026;0.0071184128;0.39105663;-0.046417627;0.09418637;-0.15738693;0.1313782;-0.2088182;0.06025921;0.13121541;-0.027826294;0.13222168;-0.05261222;0.08705366;-0.07970928;-0.072179995;0.2309124;0.08257417;0.08744563;0.18154334;-0.09198998;0.0025631266;0.02690485;0.29898846;-0.048593577;-0.012083846;0.05449968;-0.16310851;0.02143068;-0.39189273;0.0162827;0.06318316;0.116613664;-0.0023763943;0.028984325;0.25357524;-0.07627376;-0.21818385;0.0014965492;0.26872998;-0.0782511;-0.19546041;-0.020047627;0.1477137;-0.0147050535;0.21004929;0.046194077;0.02406353;-0.02381242;-0.09197158;-0.1342702;-0.1306628;0.06047915;0.35453725;0.04111025;0.22079866;0.011705505;0.09378517;-0.031359605;0.16102055;0.020478163;0.035870604;-0.090199284;0.041797485;-0.013031757;-0.16803719;-0.043948583;-0.015163871;0.096301064;0.27937698;0.08497206;-0.001830099;-0.010924637;0.00398029;0.033225764;0.09363653;-0.0013429797;-0.28515005;0.030663813;0.13109335;-0.34568796;0.0667402;-0.085691966;0.20782448;0.22582208;0.032888148;0.22725938;-0.13045423;-0.1540753;-0.053159624;0.07186977;-0.0076697087;0.010239137;0.0030316643;0.12766716;-0.23731276;0.07178967;-0.004886599;-0.0066891746;-0.3574321;0.14343078;-0.13175254;-0.1419523;-0.10850673;0.12148115;0.007694923;-0.0599199;-0.15827255;0.009583386;0.08292057;-0.020375807;-0.081199005;0.09525697;-0.20092018;0.13029459;-0.07078902;0.43043336;0.034590807;-0.07286192;0.036885433;0.0044066757;-0.047241505;0.0492687;-0.013843603;-0.04623865;0.050545584;-0.15664959;0.015110306;-0.015612422;-0.074491866;-0.12462034;-0.044079293;-0.015579567;0.07305584;0.11888177;0.06467586;-0.038240902;-0.10790264;0.04243178;0.09281403;-0.0582563;-0.19689159;-0.016050255;0.09480635;0.04425842;-0.072577946;0.103732646;0.10667689;-0.05733164;0.07059085;-0.12408443;-0.06275309;0.17551738;0.0979396;0.11770865;-0.18074182;0.017025298;0.30471408;-0.010872368;-0.21767263;0.070653394;0.029475661;0.01474066;-0.077641994;-0.084548704;0.2845931;0.07187522;-0.0124987215;-0.03517973;0.016889287;0.22120531;0.021953698;-0.17545967;0.077540286;0.23234294;-0.006012756;-0.052664287;0.041512255;0.07685596;0.34332904;-0.06011341;-0.030225622;-0.24514075;0.043928366;0.045610275;0.11441215;0.036408775;0.03367097;-0.23584284;-0.041847795;-0.078653835;-0.22585124;-0.05806235;0.18428327;-0.03477664;-0.03970834;-0.037231423;0.20993635;0.074559696;0.004359619;-0.09881499;-0.060423795;0.02267324;-0.04427422;-0.22475658;0.0071905595;0.21261066;-0.029831463;0.023494735;-0.32122335;-0.05620091;-0.036843058;-0.15687545;-0.11469888;0.27850798;0.012752802;0.018565612;-0.02597401;-0.20191723;-0.087230645;-0.14312156;0.008695518;-0.0640255;0.017652772;-0.06512087;-0.0474932;0.059113003;0.029477881;-0.13273376;-0.26367736;0.05056539;0.06671554;0.21969274;0.04423356;-0.29354092;-0.041640185;-0.010192562;-0.00357644;0.19815022;-0.022460122;-0.009704988;0.066409305;0.10091934;0.2153049;0.018478043;0.047908105;0.11659814;0.08796803;0.050789054;0.2245374;-0.066395;0.01752491;0.059655726;-0.009016013;0.0076247575;-0.032276385;-0.27533755;-0.18312988;-0.32583383;-0.16841474;-0.005096275;-0.12882148;-0.3073726;0.057462655;-0.052550547;0.21035284;0.28100047;0.06900408;0.062030785;0.276317;-0.17893256;0.15060955;-0.22439137;-0.08449112;0.01233919;0.04325964;-0.042822216;0.23695141;-0.09742071;0.2525095;0.16393709;-0.058699455;0.049177933;0.33107796;0.05134463;0.111315906;-0.0030704318;0.3757338;-0.033045374;-0.003830229;-0.110541865;0.1299047;-0.113063216;0.03343179;-0.2193252;-0.04794018;-0.03374024;0.023361402;-0.040984955;-0.0030888615;0.051265713;0.023110176;-0.18973598;0.0283313;0.44422722;-0.056844015;0.017296346;0.09731556;0.13786441;-0.2431424;-0.05562974;0.021837505;0.24161907;-0.2280069;0.14126103;-0.061326426;-0.15444991;0.018460495;0.011908085;-0.25729108;0.26098937;-0.0054175234;-0.039010145;0.25699332;-0.017861586;-0.27735892;-0.032202147;0.023685629;-0.0021748233;0.0048902323;-0.023711145;-0.17070624;0.14045645;0.046365533;0.06352981;-0.06840525;-0.08192714;-0.021012789;-0.070521615;-0.058566753;0.18525913;-0.120194905;-0.101645894;0.017367791;-0.2333448;0.11486477;0.11149398;0.12575763;-0.009476712;-0.00011624796;0.021732816;0.18870461;-0.036753684;-0.05238036;-0.11642026;-0.1657105;-0.02069067;-0.19680634;0.054129332;0.05633878;0.12055637;-0.0662855;0.012702235;0.12985338;0.016872723;-0.078261174;-0.09075882;0.15602021;0.035256445;0.3070426;0.118099414;0.010568728;0.09550247;-0.018282732;0.10274554;-0.045030165;0.2682779;0.17624447;0.2181433;-0.015884286;0.01272782;-0.13566151;0.38333824;0.10045854;0.37569654;0.14644901;0.0870218;0.067608334;-0.08956759;0.17081864;0.048942614;-0.09527959;0.27905092;-0.38256943;0.0030488437;0.014531377;0.103714876
-0.05079779;-0.0432644;0.0056481096;0.08506774;0.06749344;0.46640146;0.22110145;-0.25189063;0.038858574;0.003511961;0.003184353;-0.1128559;0.19159532;0.12505937;0.09500741;-0.06644817;0.106091365;0.36209238;-0.0070238337;0.3070421;0.24163172;-0.01520685;0.093352355;-0.005318146;0.047710337;-0.062351324;0.028710036;-0.10402547;0.02125481;0.19575217;0.008529724;-0.07601245;0.04950087;0.0040655206;0.26375946;0.33925414;0.30033585;0.06356895;0.13462837;0.051212776;-0.005136247;-0.036118347;0.016222533;0.07893428;-0.017726826;0.11777836;-0.035046373;0.025618225;0.20473546;-0.007881176;0.0062933196;-0.040992837;0.054976217;0.03508683;-0.071999855;0.30648375;0.027644953;-0.16639332;0.070865445;-0.17042288;0.0045327405;0.37994546;-0.038322166;0.009742582;-0.035610393;-0.082002334;-0.03623082;0.09182589;-0.040887658;0.017938895;0.33745012;0.045382436;-0.04884614;-0.18293259;0.20328607;-0.018043468;0.009586298;0.12306396;0.16582824;-0.04896457;-0.058346856;0.27237356;-0.4979138;-0.014432822;-0.07121581;0.17744721;-0.2458707;-0.03330498;0.073878914;-0.058209844;0.028506018;-0.0749586;-0.22969657;0.2119541;-0.106037855;-0.08416394;-0.06447683;0.22311187;-0.11787904;0.13300224;-0.034868944;-0.117825;-0.18965715;0.054631997;-0.078145154;-0.05318678;0.03912783;-0.049339857;-0.0135308;0.031515997;0.00026357995;-0.043590087;-0.18015288;-0.02416635;0.12236108;0.18727152;0.08517205;0.055528127;0.06854319;0.03488318;-0.059589125;0.07112282;0.10384206;-0.04701974;-0.0039880183;0.04388308;0.2590953;-0.19301878;-0.05615273;0.11353012;0.19451946;-0.1767636;-0.0093232645;0.11740774;-0.034685448;0.0676194;0.119337924;0.02739582;0.060505353;-0.059888378;-0.06582625;-0.037061147;-0.0015152341;-0.2956669;0.060679454;0.07512806;0.03770634;0.0032779365;-0.16319114;-0.18665646;-0.029758342;-0.16231574;0.02323386;-0.007829205;-0.06375135;-0.011976443;0.044031795;-0.386173;-0.020196239;-0.062772706;0.05286336;0.07209535;-0.19063272;0.041891243;-0.030783197;-0.023283968;-0.14140247;-0.04004489;-0.026437301;0.031410776;-0.14252193;0.072550036;0.0135980295;-0.07347522;-0.065243274;0.021417279;-0.047390506;-0.071261875;-0.1810328;-0.051135458;0.008999732;0.35267258;-0.19216694;-0.02131414;0.003510616;0.009364329;-0.059036255;0.08953032;0.071972966;-0.07825511;0.021032343;-0.030969521;0.18256041;0.061937604;-0.072393045;0.13713823;0.028949864;0.18538341;0.19169472;0.02438328;0.08916423;-0.19452943;0.24579445;0.031915322;-0.111396536;-0.026577242;-0.020652195;-0.003820014;-0.16376786;-0.0788744;-0.04358372;0.043716643;-0.0024697385;-0.060396142;0.27280444;0.07911671;-0.22568856;-0.013864046;0.29657578;-0.22930087;-0.17896913;0.011988638;0.05366614;0.005439333;0.35771576;-0.029911082;-0.052225456;0.053834148;0.019283341;-0.024916656;-0.032552406;0.04541841;0.43149805;-0.03362353;0.1957552;-0.02202978;-0.070987776;0.023517765;0.09498234;0.06913893;0.102749355;0.016608717;-0.032704998;0.024227817;-0.18490945;-0.081782095;0.060705695;-0.075593196;0.33555487;0.12235516;-0.074468076;0.15976684;-0.15061124;-0.011531168;0.17101668;-0.041669525;-0.29664838;0.034871634;0.19777928;-0.3026707;-0.019811064;0.029350879;0.10620651;0.20591067;0.031605765;0.2585706;0.018301114;-0.08859937;0.05799928;0.01543203;-0.012243036;0.12908815;0.02123703;0.13926187;-0.1474258;-0.07166512;0.08087631;-0.0770642;-0.45762298;0.14976588;-0.15581016;-0.10719394;0.012413838;0.05713285;0.0539558;0.021226622;-0.2054664;0.053792354;0.080735534;-0.017498465;-0.017446924;0.06889732;-0.23249876;0.20292875;0.0038523555;0.42815343;0.13096961;-0.06944067;0.11491037;-0.050163824;0.09710056;0.00024615473;0.0047562933;-0.16003129;-0.06334761;-0.0200253;-0.07558884;-0.021411065;-0.012988674;0.062098842;-0.037866574;-0.091005914;0.058632463;0.12301085;0.059950884;0.03455922;-0.051030584;0.06658735;0.09423318;-0.17849815;-0.18124874;-0.07963036;0.10465699;-0.050178234;-0.077208795;0.015483994;0.0529106;0.0035263062;0.027845386;-0.085284345;0.033891775;0.25111425;0.040640112;0.12448455;-0.20423524;0.051394206;0.35860595;0.05815937;-0.10032602;0.00026534955;-0.11686529;0.010896808;-0.14400585;-0.04851052;0.23804376;0.12820844;-0.045150418;-0.06301216;-0.010968583;0.2742782;-0.018537445;-0.07564158;0.011955982;0.24375452;-0.013118776;0.10489467;0.037137575;0.08657231;0.33637133;-0.010759646;-0.016727258;-0.34570113;-0.036511306;0.14876357;0.15388352;-0.058860675;0.12884097;-0.37619692;-0.10474015;-0.08581746;-0.3571804;-0.09281606;0.22908154;-0.07105687;-0.10763801;-0.10840202;0.22032572;0.090452984;0.017960344;-0.12380774;0.0026683172;0.016496478;-0.03938674;-0.18244949;0.043652203;0.03290465;0.00036111317;0.028324693;-0.33320257;-0.00425237;-0.14570802;-0.075297974;-0.04595897;0.27195147;-0.031014351;-0.13008176;0.016656464;-0.18022025;0.049194697;-0.111822695;0.054033324;-0.004381022;0.108051196;-0.0014749916;-0.05476008;0.017521799;0.03554874;-0.051215757;-0.21919046;0.05003922;0.053834874;0.11911481;0.05101851;-0.25749108;0.03808197;0.020092461;-0.04656405;0.15183727;0.05932987;0.10282583;-0.027787546;0.25148132;0.17455746;-0.004063315;0.045695964;0.2137529;-0.0034019009;-0.074410535;0.2726074;-0.14832267;0.0016708081;0.07585642;-0.04706647;-0.033035126;0.010100928;-0.23978277;-0.21422178;-0.31457227;-0.068854555;-0.04574466;-0.1268119;-0.16668735;0.067489706;-0.012030524;0.11719969;0.3539957;0.067764945;-0.04675305;0.3342305;-0.26110968;0.123337746;-0.19677402;-0.13417546;0.03195492;-0.0070773344;0.029315772;0.19328038;-0.3006111;0.23267315;0.21245213;-0.04279635;-0.06698872;0.3604302;0.0103153195;0.12780808;0.0368545;0.49896625;-0.017817104;-0.118825465;-0.09069419;0.0811554;-0.016998418;-0.009732859;-0.24071062;0.073854916;-0.0328364;-0.08433597;0.035286736;-0.14313692;-0.050992146;-0.054870218;-0.26323977;0.056590766;0.3517456;0.07578251;-0.073375195;0.08061129;0.15021557;-0.28415558;0.04989537;-0.06813058;0.15997228;-0.2850488;-0.034436904;-0.018361205;-0.16091155;-0.047124036;-0.017581584;-0.18969014;0.17811464;-0.085141964;-0.08272003;0.28418723;0.038055215;-0.4055332;0.05688106;-0.01772513;-0.027768157;0.046529043;-0.031677045;-0.09479615;0.04304031;-0.061335485;0.0523584;0.026588323;0.017319748;-0.029804168;-0.06366503;-0.17388083;0.21924148;-0.08876364;-0.11889339;-0.029354235;-0.2239075;0.076741464;0.066556275;0.0010634577;0.038651407;-0.07422134;-0.04668898;0.2506144;-0.06371536;-0.03500333;-0.12454484;-0.13896206;-0.0029978438;-0.24433804;-0.08328682;0.005309394;0.16527696;-0.004196406;0.050359122;0.10473332;-0.040439576;0.057753388;-0.045341555;0.18735383;-0.041215584;0.3481612;0.105342835;-0.05020103;0.028252607;-0.02846279;0.004551075;-0.06421479;0.18741718;0.25489584;0.11411445;-0.06922186;0.05130026;0.017904643;0.32878697;0.15730451;0.25915945;0.12737155;0.09360094;-0.038928706;-0.060886998;0.15677436;0.059705265;-0.13232504;0.23779644;-0.37476796;0.048012394;0.06799946;0.06816339
-0.0362989;0.008896449;0.051682312;0.07948564;-0.011589605;0.44577;0.1264682;-0.3548156;-0.021566072;0.10944592;0.029731669;0.061772086;0.102963984;-0.01032148;0.26939893;-0.037347563;0.16901831;0.49209344;0.011921705;0.2948406;0.24734896;0.0416577;0.09991126;0.060384464;0.079757035;0.0004312821;-0.03869419;-0.040129386;-0.14802942;0.16895738;0.11695618;-0.020598399;-0.052961063;-0.00080855173;0.1909622;0.24179268;0.3753313;0.057680935;0.029783074;0.053368565;-0.007302231;0.031673383;-0.11290852;0.11402058;0.04118265;0.09628751;-0.02520276;-0.097181946;0.2402539;0.040508952;0.05059123;-0.024885016;-0.010596022;-0.065343164;0.07197964;0.29272553;0.042290498;-0.044964176;0.031148374;-0.14620635;-0.07253932;0.34520268;-0.035169043;-0.055720683;-0.021642765;-0.066063836;-0.03336589;0.07447975;-0.12452003;0.0551304;0.3220211;-0.03081868;0.061065383;-0.21101482;0.15820514;-0.07430278;-0.09100421;0.11444824;0.098835796;-0.020922711;-0.0060492824;0.2601164;-0.4150457;0.036788758;0.0400852;0.09772078;-0.16010699;0.03359236;0.015135056;0.022608409;-0.003823993;-0.14829005;-0.15984647;0.06926705;-0.067687385;0.022757906;-0.009493505;0.19555004;-0.07276645;0.1893245;-0.041717466;-0.24262916;-0.24580324;-0.027115373;-0.033637926;-0.042954154;-0.04695467;-0.052960258;-0.05445464;-0.010387019;-0.07672908;-0.045352146;-0.15952812;0.042481814;0.054270424;0.18588474;-0.057138685;0.039022423;-0.05650726;0.114718094;-0.13424078;0.00086360367;0.0974794;-0.0658916;-0.010953213;0.047584966;0.18222536;-0.15197738;0.06970912;0.20730723;0.17400548;-0.11976181;-0.06893951;0.108168036;-0.0054868925;0.048821803;0.14947172;-0.090941414;-0.0018830326;-0.03860327;-0.046475947;-0.012770299;0.08474706;-0.28777087;-0.014149519;0.19747765;0.08122674;0.0769461;-0.24719211;-0.026856612;-0.0069165053;-0.054512177;-0.027565256;0.12872638;0.049157225;-0.06897359;-0.016816003;-0.36316994;-0.023437763;-0.020486033;-0.027522637;-0.017225824;-0.013152164;-0.006240515;-0.027536549;0.10743026;-0.109272994;-0.026566643;0.06293603;-0.053402785;-0.051810946;-0.0748015;0.056979828;-0.15940994;-0.0202875;0.065418124;-0.021884587;-0.03846322;-0.17472014;-0.0097928215;-0.0731553;0.297409;-0.1529263;0.06661492;-0.06612424;-0.050097696;-0.11406789;0.043103855;0.052964598;0.081542835;-0.070818245;-0.022891778;0.022918375;0.0160792;0.02750022;0.12698351;0.11124676;0.19899386;0.18069245;-0.011349993;0.075728364;-0.16843654;0.1788947;-0.025812179;-0.078927286;0.011489208;0.048854485;0.059495114;-0.08662403;0.055465296;-0.02278089;0.029795084;0.07387617;-0.07823231;0.17600316;0.04457575;-0.22987461;0.10669875;0.32575837;-0.013934285;-0.097245745;-0.041983858;0.08009202;0.009494433;0.3991565;0.015301626;-0.013927225;0.018008301;0.04644728;0.05003556;-0.13210149;-0.044952836;0.35195926;0.03526277;0.22241926;-0.0030849143;-0.023425525;-0.008598052;0.079567604;-0.0308199;0.06633353;0.016282413;0.032756418;0.039416157;-0.19872631;-0.059828278;-0.011954921;-0.08422261;0.34435117;0.040087894;-0.038694847;0.15999527;-0.23304841;-0.0038234522;0.19897445;0.023238616;-0.24061324;-0.04415803;0.09319374;-0.23238128;0.056862697;0.03689331;0.121827446;0.1310772;0.15133204;0.2602685;-0.020329652;-0.11100355;0.072868675;0.028474227;-0.15776889;0.25538546;-0.03653651;0.07471871;-0.3033519;0.039479356;0.03484411;-0.12785804;-0.40228498;0.23917235;-0.23507202;0.031149667;-0.07059713;0.12769769;-0.07492324;-0.057240065;-0.11952663;-0.021127863;0.068509966;0.12644641;0.07086681;0.1427695;-0.25085154;0.14119457;-0.14347313;0.37894753;0.14137499;-0.003180614;0.08338745;-0.04553783;0.16315374;-0.017969325;0.0068055713;-0.18381354;-0.007588731;-0.13318881;0.08008092;-0.08937032;0.0108250575;-0.02819947;0.012397473;-0.018852627;0.16117553;0.1852494;0.07346071;0.04226697;0.01039525;-0.051943175;0.0424627;-0.16575505;-0.16714244;-0.057334855;0.017663341;-0.017233152;-0.05221541;0.08850784;-0.03964479;0.013054256;-0.04994563;-0.17683558;-0.04987973;0.2053703;0.015051756;0.1119366;-0.1544924;-0.026788145;0.39319116;-0.040716898;-0.12963833;0.017915765;-0.06319496;-0.005374681;-0.13177015;-0.054656617;0.268161;0.13158622;-0.01810952;0.06698725;-0.0052893166;0.2695862;-0.04026848;0.03711988;-0.094443806;0.26938072;-0.022113211;0.104845665;-0.09101422;-0.013432506;0.28347978;-0.1036237;0.009480551;-0.311785;0.031460565;0.033057455;0.18197043;-0.096334174;0.19062424;-0.35081425;-0.04122223;-0.19255508;-0.1998825;-0.09194545;0.19326057;-0.011352118;-0.08640094;-0.0035623522;0.20214692;0.015585663;0.046343945;-0.18248528;-0.04527214;-0.04143075;-0.019214505;-0.14824238;-0.008812484;0.06955033;0.039808255;0.037231963;-0.3755806;0.079626724;-0.17361926;-0.1593412;-0.043440305;0.30353406;-0.067582175;-0.085397184;0.07647686;-0.24029039;0.038989503;-0.049043767;-0.050338626;-0.052581582;0.14814185;0.048496734;0.061633665;0.14659604;0.11832065;0.023353726;-0.11122668;0.08484356;-0.112726636;0.049271453;-0.009992131;-0.23599988;0.02661577;0.049291797;0.06426612;0.20843385;-0.056650955;0.09993938;0.0067996853;0.19347304;0.2743139;-0.034806293;-0.056984957;0.112992555;0.067831464;0.00044630383;0.3509954;-0.1334336;0.032968592;-0.030166473;0.07122042;0.026549775;0.08197194;-0.26318944;-0.29405025;-0.27415282;-0.12006861;0.036079377;-0.0952701;-0.165348;0.14713742;0.041956387;0.11350348;0.3171066;0.07724044;-0.027991636;0.23672347;-0.19924502;0.053199198;-0.22383876;-0.040965;-0.07089221;-0.05929734;-0.01783463;0.25015044;-0.15743765;0.1408056;0.20315073;0.054256737;-0.060439765;0.22555743;0.1240089;0.09181126;-0.019781535;0.41972157;-0.13122271;-0.06624914;-0.13493875;-0.051202316;0.020723252;0.031814713;-0.31604078;0.11870575;-0.0049150363;-0.015482241;-0.011171851;-0.111298315;0.019097835;-0.0787028;-0.23967125;-0.07839685;0.23916827;-0.05344118;-0.03841399;0.017118808;0.24225987;-0.17447715;-0.042498406;0.033313666;0.23464096;-0.2601577;-0.007466999;0.034129813;-0.11280913;-0.046938132;0.03859155;-0.30736384;0.32458538;0.05267087;-0.021091973;0.34957;-0.007952473;-0.33859518;-0.06638013;0.05583482;0.0046460996;0.03884079;-0.022187572;-0.0020795702;-0.02548937;0.017744103;-0.027307635;0.014756652;0.06742567;-0.022096552;-0.04114693;-0.12311162;0.11933057;-0.014304033;-0.19117025;0.049378797;-0.1376484;-0.01643745;0.07010236;-0.07620595;0.042953987;-0.025153141;-0.0020653761;0.38372016;-0.0037861858;0.018647995;-0.07890251;-0.139931;-0.00205535;-0.31673566;0.010264403;0.01617784;0.06464926;0.012382558;0.051321525;0.11657474;0.056696925;-0.0062499945;-0.08570741;0.21404146;0.021844067;0.23282075;0.04104168;0.022510298;-0.020411411;0.038556606;-0.0079263905;-0.18645018;0.19301046;0.24028225;-0.0381201;-0.034497112;0.046230476;0.0724067;0.3493599;0.13163778;0.38403878;0.22786115;0.23239288;-0.06369689;-0.14143394;0.02924947;0.026335318;-0.20261475;0.31712815;-0.26671138;0.018117333;0.0064879144;0.08311807
-0.0058779316;0.17130621;0.037276227;-0.009636609;-0.06704811;0.42896184;0.04453477;-0.33251628;0.004813942;0.22478715;-0.05414104;-0.016541516;0.11841482;0.03517577;0.16096562;-0.18850563;0.16529632;0.5011526;0.11893436;0.34677294;0.40530974;-0.06921034;0.131865;0.054216653;0.038543005;-0.044776767;0.045298208;0.05388948;-0.01132445;0.21816239;0.08542805;0.044566367;-0.041802;0.06259617;0.31245512;0.14334743;0.2535839;0.11832754;0.08662272;0.08736151;0.029840797;0.03471025;-0.120952435;-0.058060344;-0.035853203;-0.028521625;0.056725014;-0.18524778;0.33833203;0.020432418;0.010501294;0.0522519;0.10584363;-0.017222246;-0.02837594;0.32633042;0.004321417;-0.18009734;0.0496548;-0.2252701;0.05417838;0.34982723;-0.030493187;-0.10780699;-0.09809067;0.006384024;0.07788147;0.062869966;0.024613006;-0.074040286;0.3385486;-0.043724384;0.017790696;-0.15231079;0.061264712;-0.069424;0.051893175;-0.003723158;0.051048983;-0.010074852;0.0004954355;0.21964154;-0.4373744;-0.088669986;-0.0064577465;0.09920755;-0.16720542;-0.006835887;-0.064154856;-0.073759206;-0.035026617;-0.12481587;-0.18409956;0.24187477;-0.06449877;-0.076774105;-0.025762003;0.16988976;-0.18768723;0.09166185;0.035948616;-0.14813302;-0.13112447;0.05598873;-0.032195825;-0.088059634;0.021446224;-0.01465244;0.054556232;0.027992819;-0.10336145;-0.12426925;-0.2645996;0.07053707;0.07145002;0.0798732;-0.011888335;0.15530124;0.001962243;0.115603276;-0.05803941;0.0135959955;0.10918727;0.04753622;-0.029635293;-0.028052552;0.260476;-0.24563883;0.033893038;0.32014942;0.13665916;-0.08218216;-0.00826311;0.09232528;-0.0736367;0.039876904;0.24092147;-0.13753605;-0.011442148;0.06651091;-0.0013652615;-0.10093576;-0.0116799725;-0.30720946;-0.052082676;0.07515325;0.059143595;-0.009248175;-0.13854617;-0.13660198;-0.048094865;-0.13837352;0.08101037;0.18165559;0.05402348;0.022699347;0.04338941;-0.35740647;-0.04190305;0.13355999;0.012340707;-0.064546235;-0.0375589;0.0008994461;-0.021108527;0.14475645;-0.19782403;0.024808938;-0.0207773;0.044119045;0.029096192;0.07450082;-0.0841646;-0.18292564;0.04706179;0.046651125;0.013225088;0.061124083;-0.14211968;0.058232527;0.03809966;0.2151981;-0.08043245;-0.055196382;-0.09540996;-0.14317279;-0.036409486;0.03716071;-0.03834551;-0.03138107;-0.009897519;0.09361942;0.05467199;0.021576371;0.090596884;0.13035733;0.14279798;0.23168153;0.09120427;0.058595028;-0.056365326;-0.111803524;0.30321288;0.06431829;-0.1025275;-0.063357696;-0.0053924085;0.08048756;-0.18177198;0.021647288;0.14872265;0.015204322;-0.050293654;0.032051805;0.08113772;-0.06421878;-0.19846442;0.09606725;0.3150364;-0.028226897;-0.19537312;0.113332056;0.051585183;0.0129914945;0.44661784;0.01908834;0.077126734;0.04787118;-0.017735755;-0.01784169;-0.1371857;-0.0023302243;0.27776346;0.06331904;0.2607756;0.21752676;-0.19731013;-0.0050476473;-0.045775335;-0.013856203;0.007624153;0.018362401;0.0071843443;0.14784704;-0.015954427;-0.061150737;0.009196718;0.02515542;0.31509826;0.09589292;0.064260036;0.28542322;-0.27266845;-0.13738129;0.18181583;0.046307053;-0.33436754;-0.03960852;0.17662312;-0.27366206;0.060391527;0.039368965;0.17415169;0.1411413;0.21193823;0.46101198;-0.05041752;-0.08243061;-0.1093362;-0.015483676;-0.22378156;0.28666708;0.040136266;0.018329015;-0.23210445;0.060351737;-0.046834838;-0.15526605;-0.5531335;0.11134435;-0.21348085;0.027855746;-0.08054117;0.034294292;0.026629671;0.043352988;-0.13797638;0.07326843;0.045094177;0.17281562;-0.030181503;0.07262463;-0.2698237;0.14498045;-0.052812487;0.2971592;0.19106741;0.09056048;0.11757906;0.017717106;0.21490397;0.057659;-0.040943507;-0.18440008;0.028035274;-0.11452422;-0.024435546;-0.032932866;0.057876978;-0.18841018;-0.00250809;-0.1462898;-0.03950692;0.22013505;-0.034912836;0.02612348;-0.18118668;-0.083856255;0.1774192;-0.23905066;-0.103570685;0.014606571;0.010597865;-0.027567415;0.060896598;0.07073372;-0.10978057;0.033600934;0.018163936;-0.14268139;0.052351918;0.27553836;0.1557814;0.19216745;0.015209933;-0.050813675;0.37756523;0.038280144;-0.07836676;-0.05181968;-0.19674353;-0.055895887;-0.0394451;-0.039727185;0.3044493;0.17030892;0.017178733;-0.028603334;-0.035963364;0.3457512;-0.06367646;0.11402788;-0.11796164;0.30875492;0.07314963;0.021822575;-0.0910874;-0.028161716;0.23443618;-0.030147484;-0.02918771;-0.2626323;-0.06896267;-0.049368303;0.16285098;-0.14674103;0.21089518;-0.23840679;-0.049990106;-0.3385282;-0.0919879;-0.21358056;0.2428814;0.031693332;0.034137957;0.07083927;0.18993716;0.043066796;0.07645497;-0.14109191;0.016488872;-0.07330512;-0.024896989;-0.1355386;0.006389667;-0.10461338;0.05270509;0.09541365;-0.4894619;0.10944608;-0.20049316;-0.083299965;-0.066547245;0.34713534;-0.010267548;-0.06310109;-0.054633915;-0.34941825;0.0156083265;-0.13516647;-0.046167206;-0.12710115;0.18417367;0.09982367;-0.02360058;0.012600029;0.21268073;-0.030296467;-0.22128168;0.080653496;-0.1257844;0.17423452;-0.059603944;-0.29404876;-0.007702499;0.075860776;0.006811897;0.06417232;0.017127918;0.10660614;-0.024632845;0.32325602;0.13429055;-0.1692012;-0.072788596;0.10352193;0.05656166;-0.072933644;0.32957032;-0.012161505;-0.034183774;-0.008097684;-0.046215344;0.020201202;0.000372633;-0.33964735;-0.33375192;-0.28103092;-0.14435875;-0.065097176;-0.0034675782;-0.016142385;0.21091697;0.060519192;0.18175355;0.32752076;0.061421204;0.1101899;0.31999758;-0.2849661;0.1892281;-0.35951683;-0.16244005;-0.025328863;-0.09481247;-0.04202869;0.24430183;-0.12561032;0.22980508;0.27870217;0.023117233;-0.03082103;0.32991216;0.18889166;0.27666885;0.048558682;0.49900892;-0.08244314;-0.03422246;-0.09846637;-0.088846155;0.030530984;-0.0019795485;-0.20631531;0.0030820274;0.028198956;-0.071931854;0.060936313;-0.10340119;0.07366271;-0.1818714;-0.23493984;-0.0150649445;0.23727076;0.08141373;-0.004809734;0.037139732;0.13460289;-0.3086502;0.021263458;0.07984701;0.28324783;-0.2564861;0.03329975;-0.0573805;-0.1903741;0.030392474;-0.0591848;-0.31383744;0.42349705;-0.046101786;-0.2160553;0.46432638;0.064684466;-0.31916893;-0.07559292;0.066238806;0.06466139;-0.054934233;-0.048031483;0.03248326;-0.07243622;-0.038197063;0.000718934;-0.088326745;0.13360319;-0.014701829;-0.03438951;-0.06657278;0.17252666;0.040449604;-0.09465805;0.0035508831;-0.038222246;-0.016248591;0.100316815;-0.08238177;0.14604326;0.0070692883;0.013482617;0.4362671;0.032591;0.057682782;-0.06924724;-0.20892724;-0.008422652;-0.3721582;-0.04705559;-0.028634777;-0.0008506341;0.12449383;-0.06690897;0.117868364;-0.026749784;0.025545644;-0.07814437;0.15086041;0.020328838;0.3126383;0.056021117;-0.00020862944;0.16052064;0.008508943;-0.02914771;-0.22568265;0.26848054;0.10670556;-0.075406976;-0.022724869;0.049558733;0.16940536;0.2813409;0.10615763;0.26486853;0.22464693;0.23947382;-0.012548485;0.009762546;0.059278376;-0.02896079;-0.113761336;0.26719326;-0.121726304;0.002405058;-0.049093846;0.07433472
-0.047914986;0.25052416;0.10583657;0.2354752;0.014848218;0.4025376;0.05434495;-0.3924364;0.041038927;0.19861951;0.014372693;-0.0036511815;0.09124249;0.07273144;0.22296396;-0.015748853;0.16138884;0.42822942;0.06186338;0.39236712;0.3085868;0.025332091;0.0984475;-0.038255207;0.008813604;0.031076757;0.00097392715;0.0236976;-0.17703107;0.20435712;0.116854735;-0.02309158;-0.101705015;0.04553543;0.33826378;0.14907195;0.22160691;0.13176931;-0.041577812;0.05706916;-0.038736634;-0.08080308;-0.12065304;0.011495397;0.06519233;0.03120633;-0.0057549863;-0.15667062;0.4025982;0.06758378;0.035606366;-0.08218721;0.1318164;0.022052648;-0.03090524;0.24148764;0.019036759;-0.18722068;0.12318314;-0.2660225;0.00037766012;0.2632588;0.03594135;-0.047202285;-0.033429574;0.07202656;-0.0076286974;-0.027333157;-0.0762591;0.03020429;0.24700569;-0.001194534;-0.020220583;-0.1450169;0.16563779;-0.026531234;-0.018514851;0.02369606;-0.049219556;0.08555905;-0.0040973793;0.2447009;-0.40659624;0.03225111;0.041497283;0.13264917;-0.18121856;0.058920007;0.024722494;-0.02015031;0.0038261598;-0.02162484;-0.2794058;0.27669662;-0.055021085;-0.025289958;-0.06539501;0.16456082;-0.016486695;0.014268497;0.07650402;-0.12731308;-0.17855848;0.014166919;-0.0637919;-0.118910745;0.011479821;0.02975475;0.093595386;0.048447095;-0.13365814;-0.1610887;-0.15373346;0.106226996;0.100082345;0.20072146;-0.025761755;0.09369675;-0.053219542;0.041672904;-0.17445192;-0.013693862;0.02672807;0.058020134;-0.054356202;-0.026749155;0.2876927;-0.18269067;-0.033494994;0.23390262;0.2145707;-0.031541012;-0.17063025;0.17029718;0.021675711;0.109574474;0.22710842;-0.30177435;-0.013377013;0.047405384;-0.000862349;-0.14822684;-0.10002927;-0.22663459;-0.028394919;0.2009244;0.038269885;-0.021366898;-0.26327178;0.015847836;0.008900122;-0.15562044;0.058465283;0.20649838;0.00010549934;-0.027483718;0.062925935;-0.34729117;-0.10092839;0.115315385;-0.06908694;0.025968105;0.024407322;-0.04768902;-0.0076516257;0.22598575;-0.19385818;-0.058346678;0.019573431;-0.07564929;-0.040712588;0.07040869;0.03365944;-0.14325216;-0.0034427752;0.013264954;-0.054236174;0.023455627;-0.13228984;-0.016604302;0.02056828;0.23376755;-0.19106151;-0.0019812542;-0.041228224;-0.16098513;-0.11934748;0.007045769;0.12871613;0.03313163;-0.09706271;-0.060510285;0.016756637;-0.026594045;-0.071752176;0.025727486;0.20769586;0.16787519;0.034730617;0.055302974;0.0010705664;-0.3024753;0.32368904;-0.009727116;-0.053327978;0.036580376;0.046389345;-0.043214377;-0.04970377;0.10024247;0.048277475;0.0576136;-0.06576514;0.041307002;0.19725941;-0.056667347;-0.28085792;0.030883828;0.35463336;-0.14623587;-0.15833963;-0.0030776653;-0.08156225;0.0118061025;0.43074432;-0.057118572;0.0506536;0.08880369;0.016354864;0.076635204;-0.07314911;-0.063676886;0.16025002;0.20619296;0.1976685;0.1471006;-0.14679046;0.004326282;-0.1431449;-0.037277058;0.08476566;-0.008363261;-0.025424626;0.15386169;-0.10374256;0.016619645;-0.024482979;0.041033946;0.2116859;0.12381472;-0.05483447;0.35729873;-0.29262498;-0.18251124;0.25782245;-0.06451413;-0.31881768;0.07169333;0.16158822;-0.34583777;-0.062120605;0.014226605;0.12586105;0.25870535;0.18370079;0.3854471;-0.07933019;-0.074886456;-0.09654376;-0.063765235;-0.13857083;0.4284792;0.067394905;0.10668802;-0.35961005;0.041635215;0.07065694;-0.1830312;-0.3660512;0.11967327;-0.20437498;0.03492487;-0.08829009;0.10987583;-0.11374674;-0.022788657;-0.20813572;0.18577331;0.12978232;0.13443458;-0.020868322;0.13008797;-0.3318984;0.27034873;-0.17560959;0.4209412;0.084735684;-0.044484112;0.13613126;0.024968415;0.26686475;0.07848588;0.015514962;-0.11204439;-0.03332159;0.011185703;0.07854019;-0.07447335;0.0017106906;-0.12695369;-0.01018433;-0.105569944;-0.019750692;0.30011496;-0.03422791;-0.041817434;-0.07471114;-0.067421205;0.07367546;-0.2544356;-0.023572635;0.03142076;0.014055199;0.018010695;0.028045986;0.057886954;-0.10175525;-0.026614726;-0.023530066;-0.20560163;0.013096717;0.2527247;0.0104058;0.17841473;-0.04948817;-0.08472282;0.30189317;-0.057619255;-0.074932694;0.014533628;-0.22821401;-0.011636985;-0.12614517;-0.09521139;0.2431321;0.13341047;0.02262072;0.037577078;-0.04604167;0.40569884;0.04587221;0.03147597;-0.043641113;0.25217023;-0.07539181;-0.022520535;-0.121630035;0.033313073;0.25883204;-0.05931689;0.03032088;-0.22240795;-0.06674039;0.10169579;0.23402959;-0.13955116;0.15096651;-0.21926698;0.05050445;-0.35178134;-0.08077063;-0.14178182;0.22626606;0.024386888;-0.09941133;0.122922145;0.0688873;0.06426101;-0.033710036;-0.16309279;0.055068765;0.08332279;0.017776683;-0.069295056;-0.04654885;-0.14080429;0.008792731;0.29750583;-0.43254912;0.13612105;-0.071399584;-0.23343669;0.069568984;0.27863443;-0.06562038;-0.10548242;-0.0757471;-0.3896983;-0.01978788;-0.062885456;0.019167384;-0.053825423;0.14869013;0.13640735;0.08539467;0.08004201;0.13368139;-0.00038321334;-0.22023493;-0.036176458;-0.18561308;0.20211081;-0.035365153;-0.1924841;0.010692409;0.1698972;0.035840977;-0.073722504;-0.031012326;0.1412883;0.057183158;0.2908111;0.28179565;-0.01748778;0.068485044;0.1386533;0.047661778;-0.03628104;0.30935636;0.05716265;0.045854114;0.051092144;-0.029883735;0.01835536;-0.06111914;-0.34434953;-0.37587902;-0.28211048;-0.23818572;0.03392205;-0.033109043;0.027912514;0.2083736;-0.034729246;0.047019277;0.4295349;0.016227515;0.16014178;0.33228484;-0.11651846;0.09009701;-0.31542802;-0.0007065553;0.0057158736;-0.17773518;-0.05276234;0.2504841;-0.23343764;0.17971784;0.21010093;0.08275566;-0.04916261;0.27256575;0.18345574;0.2693419;0.06382082;0.42806625;-0.20824553;-0.029536866;-0.25945923;-0.16257776;-0.028656099;-0.00062734704;-0.25353473;0.09040156;0.0709497;0.013051831;0.01132829;-0.07926422;0.03543762;-0.25651088;-0.14746925;0.021239996;0.15531652;-0.0472429;0.036551926;0.1786203;0.27264982;-0.14450051;-0.028054995;0.06661307;0.21049874;-0.14159127;-0.10920694;-0.16758992;-0.1905611;0.032570854;0.019614205;-0.21082434;0.48161045;0.049150545;-0.13868469;0.37742037;-0.022211133;-0.44080412;0.07216549;0.076248154;0.015855921;0.026806029;0.049047012;0.002934406;-0.038683742;0.03237724;-0.0019701936;0.02285331;0.055826753;-0.022189373;-0.11545088;-0.011956539;0.33223733;0.062221587;-0.1270817;-0.06551657;-0.100572675;0.10994646;0.085042045;-0.0764608;0.085916094;-0.039166294;0.0010056032;0.47328243;0.08332427;-0.053259335;0.06308699;-0.20058312;-0.013326268;-0.44650784;-0.06434021;0.023089806;-0.05383334;-0.004342511;0.0030258119;0.21932812;-0.04243534;0.013577421;-0.14796594;0.13055569;-0.068860486;0.22658435;0.05063057;0.027988276;0.035572674;-0.016116222;0.011085396;-0.22568285;0.21154578;0.067793295;-0.0542037;0.012429179;-0.10142845;0.16061886;0.26867965;-0.026426282;0.2407524;0.29349664;0.18621434;0.051913425;-0.012683721;0.036172964;-0.03260162;-0.11638259;0.280753;-0.19887587;0.03739243;-0.02238068;-0.013234867
0.033120204;0.41418004;0.1946553;0.22303607;0.057293147;0.3674219;0.075706504;-0.4198845;-0.039151274;0.18297242;-0.052646454;0.04503001;0.08431799;0.008153349;0.16920638;-0.085938424;0.1586038;0.39902055;0.1693077;0.561514;0.33350348;-0.07835285;0.05476791;0.0044719568;-0.07514034;-0.007461504;-0.0223463;0.014797194;-0.15087236;0.2462582;0.1576987;0.030434476;-0.12868623;-0.017129049;0.33582535;-0.038266934;0.16128458;0.18654701;-0.102867305;-0.056193873;-0.04513417;0.019975694;-0.11925636;-0.060273018;0.020786885;-0.14185588;-0.049614117;-0.22501063;0.39902675;0.03589323;-0.073041275;-0.013387508;0.14541987;0.0020002625;-0.0630526;0.2352207;-0.060695082;-0.21724041;0.12931456;-0.2617426;-0.06545108;0.34787235;0.017452953;-0.12040927;-0.13617025;-0.008755804;0.032405417;-0.10572616;-0.015696475;0.06318403;0.338148;0.05221698;-0.03120032;-0.18792208;0.08751548;-0.13169196;-0.013082749;-0.07292508;-0.09625976;-0.011627884;0.08360908;0.2382227;-0.51779556;-0.0137775885;0.01590021;0.22265333;-0.27040017;0.0701298;0.061541196;-0.044769343;0.040948007;0.04894742;-0.20046759;0.23660481;0.018104045;-0.017995467;0.00943107;0.08110847;-0.09336757;-0.020676825;-0.05457611;-0.18349478;-0.27566698;0.03161521;-0.12480846;-0.18959098;-0.0008874392;0.054966893;0.08963471;-0.05459775;-0.02298908;-0.15018508;-0.24746026;0.03933443;0.19385599;0.011432826;-0.021680059;0.108082525;0.058539383;0.21113996;-0.23736347;-0.028869366;0.1313002;0.03511724;0.055707444;-0.011339514;0.40484345;-0.1673609;-0.035382148;0.35110417;0.2942891;-0.004909224;-0.1970933;0.20767538;0.06504892;-0.0033889026;0.14399046;-0.2554908;-0.054981012;0.042666998;0.049912408;-0.20126756;-0.17999224;-0.058229923;-0.007063523;0.1401352;0.050961543;-0.008476799;-0.28861755;-0.06611829;0.0550297;-0.001982205;0.031151071;0.27246737;-0.020530654;0.04652485;-0.06214595;-0.17258169;-0.09118473;0.13190486;-0.0070931776;-0.07018179;0.050846405;-0.057270445;0.090666145;0.20328316;-0.2489626;0.043370605;-0.14116296;-0.13296695;-0.035766326;-0.028537221;-0.0589602;-0.25680724;-0.050614912;-0.11351202;0.059509967;-0.042268332;-0.11891806;0.005669164;-0.06897688;0.17551816;-0.15274727;0.09888858;-0.16805801;-0.12736967;-0.11578296;-0.13636972;0.13545328;0.036471587;-0.21516891;-0.053278122;0.052330207;-0.005497421;0.02022422;-0.011559263;0.19219287;0.08398524;0.09007769;-0.015210145;-0.058786254;-0.24726258;0.24916804;0.060441274;0.038334087;0.03494064;0.08741019;-0.017639853;0.043723036;0.1012709;0.06685423;0.18457538;0.018509239;0.033362437;0.17758031;0.08325883;-0.2983665;0.060881007;0.21175629;-0.028615255;-0.029864725;-0.0026723018;-0.026977139;-0.05590395;0.29283518;0.06397353;-0.058847856;0.13626035;0.065654896;0.0345401;-0.2037915;-0.032992262;0.2875811;0.21214272;0.21600708;0.17680866;-0.2166434;0.048672464;-0.050295107;0.07983623;-0.052539557;0.035666138;0.013182178;0.19113897;0.08520913;0.1573339;0.007880359;0.02950387;0.33353657;-0.0012135964;0.06423856;0.43681225;-0.40042785;-0.038814515;0.24735254;0.047982488;-0.19430244;-0.031419784;0.2696237;-0.232181;-0.09672506;0.0018306605;0.14391534;0.16739193;0.20626491;0.4425459;-0.02908071;-0.17074868;-0.14532986;-0.031781193;-0.24439666;0.49270096;-0.0551924;0.12772836;-0.42305073;-0.068891615;-0.06368888;-0.16750373;-0.499308;0.19768976;-0.26548594;0.12000104;0.017867154;0.053360164;-0.1192872;0.08303304;-0.19238201;0.08361078;0.120639056;0.08386336;0.0056479247;0.07987035;-0.20063679;0.26869294;-0.1187738;0.37907887;0.06722499;-0.018235808;0.29065356;-0.007263036;0.23303765;-0.06737986;-0.0082867;-0.10879608;0.0005436686;0.083800286;-0.00465009;-0.061749235;-0.014145392;-0.06711585;-0.052813783;-0.05927676;0.031403538;0.19125752;-0.064164;-0.04171763;-0.15441701;0.048467197;0.0866507;-0.17293476;-0.07277484;0.01301601;0.09540073;-0.024625398;-0.05329284;0.081121355;-0.09696476;0.051612873;-0.024342135;-0.29230434;0.018831393;0.33288538;0.1914054;0.22922105;-0.015959445;0.054441467;0.35557315;-0.015642729;-0.045577623;0.0052370625;-0.1532326;0.0612722;-0.07509967;-0.30997455;0.27933156;0.0499807;-0.04905588;0.046201438;0.015843967;0.41216552;0.029845305;0.18449655;-5.7618327e-05;0.13988344;0.077516794;-0.015120709;-0.06549292;0.07122854;0.32808554;-0.13987188;0.07255112;-0.2962415;0.06922899;0.101906866;0.30587047;-0.08602338;0.122231565;-0.22592029;0.099574156;-0.48232982;-0.21251994;-0.15997505;0.3267262;0.0019955172;-0.10071454;0.024638856;0.074502915;0.08540822;-0.018107526;-0.17256837;-0.04871883;0.009994999;-0.01680489;0.024929892;0.04790093;-0.2235339;0.046903536;0.40168992;-0.52493507;-0.016137695;-0.08030494;-0.11030838;-0.07374721;0.33716187;-0.040094752;-0.07686594;0.042296976;-0.36029267;-0.059932746;-0.090009265;0.044433292;-0.064839795;0.20091459;0.11553632;0.11630016;0.025197798;0.03879948;0.02323082;-0.14545219;-0.1643583;-0.29149318;0.21139269;0.08549218;-0.12327937;0.064445294;0.14446159;0.014564489;-0.0707429;0.029676558;0.121470466;-0.095974416;0.24112909;0.16059525;-0.1190208;-0.05577979;0.15312296;0.0016159241;0.023193622;0.28948897;0.013241008;-0.03459881;-0.07535881;-0.03557569;0.014036911;-0.004916213;-0.3366893;-0.3758247;-0.16399093;-0.2096889;0.026183786;0.052834503;0.020122547;0.19221838;0.04883237;0.006751998;0.3938449;0.18476062;0.1413786;0.35382324;-0.051367402;0.042824697;-0.4466002;-0.08073164;0.03771238;-0.10614884;0.058616165;0.1949042;-0.24189717;0.17076525;0.21089026;0.15693706;-0.079096295;0.18979643;0.3161114;0.18886614;0.12162802;0.42848226;-0.19089077;0.015646407;-0.2019216;-0.068318136;-0.03190571;0.04872618;-0.29363802;0.053249586;-0.0063962634;0.01661044;-0.051150613;0.053816218;-0.050501395;-0.14664519;-0.22371548;-0.12213899;0.13561201;-0.03737472;0.06487294;0.059917722;0.24628511;-0.18790859;-0.068931036;-0.017355183;0.13389185;-0.16867277;-0.027270658;-0.073417395;-0.23334879;0.0970102;0.009565571;-0.3174524;0.38886964;0.04118133;-0.13705364;0.4797182;-0.035474837;-0.39830524;0.004638727;-0.01218881;-0.01724951;0.041603215;-0.06870346;0.14406557;-0.0027393815;-0.04546548;-0.033887327;0.029258948;0.12837622;0.023294123;-0.18568422;-0.01892927;0.33729112;0.12892534;-0.15724821;0.06293931;-0.028739939;0.04916863;0.16994396;-0.042762402;-0.03381608;-0.15818317;0.056577206;0.5016733;0.01199895;-0.05263476;0.06108825;-0.09006983;0.06113078;-0.3470899;0.015165242;-0.04009802;-0.04242462;0.086206175;0.055138968;0.19682226;-0.020855535;0.008772823;-0.17800628;0.15147953;0.038118772;0.2693142;-0.08550117;0.083947934;0.06951291;0.08479095;-0.022249477;-0.31275758;0.23545301;0.02865659;-0.115227565;-0.07536406;-0.096012175;0.28644624;0.30083627;-0.032599844;0.13340102;0.18717195;0.20773478;0.030415652;0.080911554;0.005479995;0.0006666325;0.01641102;0.24184488;-0.13052447;0.042206883;0.03961623;-0.11372409
0.07909244;0.46187806;0.28688142;0.34232324;-0.021348685;0.28947687;0.021482825;-0.27725366;-0.024307959;0.23424222;0.062792234;-0.022128915;0.14254238;-0.05816704;0.17144875;0.06806952;0.14716674;0.46162388;0.059481278;0.51202565;0.32636282;0.023000497;0.100585476;-0.04295924;-0.112652585;0.044017904;-0.033057828;0.076423585;-0.108256646;0.19771452;0.041886393;-0.034131303;-0.15283802;-0.04783941;0.48022223;-0.09955981;0.18634503;0.09594701;-0.07991376;0.030173587;0.008367629;0.02271764;-0.16145568;0.03206549;-0.0040028146;-0.24270903;0.017733103;-0.35152748;0.35892805;-0.08794491;0.05814332;-0.048486516;0.26148468;-0.00045457893;0.03498348;0.2753217;0.010015219;-0.07718665;-0.055670813;-0.2181501;-0.003109254;0.2785418;0.08629298;-0.14462875;-0.07032032;0.055778917;-0.013925017;-0.14034279;-0.013471378;-0.02775059;0.2792082;0.07168812;0.003463877;0.00046442135;0.017297056;-0.13855103;0.0096782595;-0.15827268;-0.14094894;0.0615659;-0.027027937;0.28436235;-0.5688763;-0.07229232;-0.0650624;0.28142768;-0.26653954;0.0046930523;0.043068685;0.06559945;-0.024885435;0.07423221;-0.27251574;0.4290268;0.06397451;-0.037553027;0.07798966;-0.0037679614;-0.004480608;0.13358448;0.05871411;-0.2259725;-0.3182577;0.026982984;0.02369902;-0.20041259;-0.024459608;0.1534348;0.068931945;-0.05880557;-0.09661081;-0.14296594;-0.18900704;0.07736131;0.12795566;0.069333255;0.059965216;0.20011543;-0.010085476;0.14786232;-0.20088816;0.00011285385;0.052484736;0.0081242835;0.011834542;-0.097513266;0.3155211;-0.22264622;0.01596365;0.2214729;0.28389704;-0.1622992;-0.18979439;0.051410787;-0.06700856;-0.038451508;0.08134941;-0.19182153;-0.050342377;-0.020657118;0.06733578;-0.25879672;-0.16240527;0.0017870447;0.039412864;0.17051752;-0.058135014;0.047770776;-0.24487776;-0.027958982;0.016153703;-0.03157911;0.07709935;0.3389423;-0.03621269;-0.042994875;-0.030179003;-0.31774554;-0.027717028;0.04436302;0.022189148;0.070785575;0.089812145;0.041056298;-0.035466053;0.18830936;-0.2340287;0.0032279175;-0.20597264;-0.14090604;0.081850916;-0.047535315;-0.06182424;-0.2635061;6.895224e-05;-0.081636846;-0.012857112;-0.00569424;-0.14020765;0.012925835;-0.060385875;0.15492831;-0.20210157;-0.021735583;-0.17766657;-0.13174155;-0.11165563;-0.25454092;0.13140799;0.023452122;-0.27353635;0.009990481;0.008600183;-0.07805191;0.04267394;-0.17259786;0.18607795;0.1636714;0.2905378;-0.05055663;-0.25690502;-0.21796499;0.34468573;-0.06771117;0.12280084;0.04149388;0.1398069;0.050153077;0.049486663;0.22584802;-0.050485495;0.04011529;-0.048012633;0.029166158;0.27782872;-0.024424968;-0.3079336;-0.074653566;0.28348413;0.054957118;0.11311118;-0.03217685;0.02478102;0.03246067;0.3974998;-0.03286632;-0.0053581707;0.088326395;0.003283736;0.0168287;-0.122606285;0.062058926;0.20817061;0.13597298;0.24922174;0.21336508;-0.23310712;0.022442095;-0.23956339;0.038683366;0.092032276;0.04280211;0.056771126;0.09084974;-0.00090702483;0.11478493;-0.055723928;0.029422285;0.3050273;0.020020867;-0.045796216;0.5690605;-0.41083133;-0.12668498;0.22829816;-0.07045022;-0.3210671;0.041775435;0.17642511;-0.36785242;-0.04143812;-0.04102594;0.005947121;0.21396469;0.2500025;0.5149178;-0.09467479;-0.14643724;-0.14295125;0.074374914;-0.16076325;0.4110148;0.041394852;0.08384496;-0.35897484;-0.068616994;-0.037663322;-0.3717593;-0.44151813;0.1092516;-0.26865456;0.07128066;-0.019852245;-0.0145012215;-0.078903295;0.08672675;-0.19533814;0.18092492;0.009077569;0.12356649;-0.03344374;0.18568538;-0.37048024;0.22765747;-0.22746424;0.37251967;0.18318912;0.07796974;0.3070866;0.01577654;0.29254693;-0.07825821;0.028645948;-0.17867792;-0.026167868;0.046290994;-0.054377973;-0.11341207;0.054089192;-0.12767151;0.07817128;-0.1343027;-0.008399672;0.18169032;0.078362316;-0.036339357;0.003837539;0.109364465;0.15181914;-0.07523573;-0.08403495;-0.04739724;-0.05919588;0.02434134;-0.018111274;0.04726681;-0.0010287896;-0.054393966;0.022560567;-0.2660463;0.008320167;0.35198376;0.08936811;0.14933741;0.10474705;0.0102308225;0.33744305;0.055070795;0.12561835;0.0836616;-0.2159191;-0.03278019;-0.08197569;-0.28331888;0.19700328;0.12375102;-0.03625832;-0.056174833;0.05759531;0.4393767;0.018992256;0.15074605;-0.06644516;0.16213693;-0.034861088;-0.17870337;-0.03494452;0.07516761;0.38832286;-0.1685779;-0.048529077;-0.3803663;-0.0015343552;0.14493656;0.33383706;-0.055968884;0.16924936;-0.073920846;0.1509079;-0.5047835;-0.18205161;-0.11754797;0.33003873;0.035168972;-0.0037054548;0.15901783;0.117433734;0.088032685;-0.059662227;-0.17441297;-0.026605576;-0.019826233;0.05406516;-0.0926356;0.014091597;-0.1961799;-0.021620529;0.29480538;-0.39234683;-0.009701458;-0.058226198;-0.27826244;-0.03744883;0.290728;0.06493265;0.053023644;0.0087359445;-0.4698709;0.0639022;-0.15844174;-0.00794656;-0.09903528;0.2656965;0.041138124;0.045688838;0.0720462;0.13808098;0.1318008;-0.29068768;-0.15157591;-0.32291055;0.23720153;0.0012040064;-0.17249861;-0.057048287;0.05797235;-0.042752273;-0.17186749;0.033775438;0.25375697;0.035353094;0.28453004;0.20337026;-0.015135638;0.03031266;0.136386;-0.13550511;0.068716265;0.24050252;0.11865767;-0.07137708;-0.039409466;-0.021530284;0.018712487;-0.049767952;-0.27290693;-0.37719855;-0.1854029;-0.10981973;0.05470051;0.07500585;-0.021533698;0.19917971;-0.019268408;-0.059083268;0.42057374;0.059306968;0.049307555;0.38551998;-0.026287083;0.1468518;-0.38722232;-0.04678497;-0.0056353426;-0.10265;-0.008451149;0.11835629;-0.20504914;0.19577062;0.120636515;0.15829237;-0.0725071;0.12840293;0.28669062;0.18516617;-0.019638896;0.41521966;-0.27819106;0.008827552;-0.15097842;-0.16031235;-0.17154668;-0.008158046;-0.24693067;0.07780274;-0.0663103;0.059416957;-0.026610628;-0.02893839;-0.031723324;-0.2386515;-0.19532353;-0.17027633;0.0036759255;0.025040623;-0.037548356;-0.0031374823;0.115273714;-0.08397557;0.010651419;-0.012425367;-0.0025514278;-0.26045412;-0.12590533;-0.25980034;-0.2027739;0.0077813347;0.040537473;-0.22493386;0.40530187;-0.014619296;-0.045815155;0.623839;-0.063345194;-0.44613954;-0.024470868;0.08388717;0.01321823;-0.03838565;-0.050342154;0.158512;-0.061684143;-0.03429757;0.0036342554;0.04136268;0.19941561;0.07304241;-0.10656064;0.1495702;0.300912;0.20120284;-0.11580629;-0.006396004;-0.07151505;0.019055992;0.19397722;-0.074679725;-0.054618433;-0.1481146;-0.03814406;0.4030498;-0.05407409;0.031393025;0.08393678;-0.19196697;0.059893437;-0.46911395;0.06480723;0.0736371;-0.14815557;0.19909804;0.022446552;0.19113398;0.0018061219;0.010629312;-0.2062349;0.17056245;0.059051413;0.16572975;-0.14571708;0.041414488;0.069503665;-0.028253086;-0.010003931;-0.524303;-0.011975198;-0.1378716;-0.029199721;0.033235814;0.03309222;0.38345635;0.18919402;-0.15043177;0.17437088;0.19400963;0.17969847;0.021615235;0.09645466;-0.010776688;-0.0014353865;0.014327347;0.18261224;-0.058127366;0.011928797;-0.04528566;-0.13302207
-0.0075691626;0.48529443;0.28486863;0.32885817;0.014386602;0.38430497;0.036648903;-0.21677329;-0.0041606813;0.15273112;-0.03744482;0.0030821615;0.13730797;0.013961918;0.21012898;0.08443517;0.18275106;0.4876078;0.17925146;0.65821534;0.48412275;0.028562278;0.04333498;0.0012054151;-0.13732666;-0.0102186445;0.02790488;0.03876704;-0.16357327;0.28570655;0.075154826;0.07625208;-0.12072479;-0.11435252;0.55972433;-0.1382204;0.09144094;0.09479287;-0.024368959;-0.036020927;0.025599744;0.050881878;-0.11932859;-0.06597744;-0.051752977;-0.24768473;0.028200563;-0.34424305;0.4169499;-0.03165522;-0.021525593;-0.044764113;0.17454466;0.028045304;0.05621608;0.319947;0.003234708;-0.015245153;0.018194888;-0.34747997;-0.04750929;0.26896012;-0.013904159;-0.17014322;-0.26339287;0.022155898;0.055155866;-0.13374187;-0.019984381;-0.04370275;0.3265182;-0.08515262;-0.01431735;0.0039009717;0.10477967;-0.094062805;0.015257832;-0.06521805;-0.124014474;-0.0761063;-0.05336576;0.2694681;-0.52289045;-0.045046125;-0.015248211;0.20082675;-0.26898202;-0.023966098;-0.049416814;-0.0012882631;-0.024483915;0.07424076;-0.28644207;0.4701106;0.042687666;-0.12040574;0.015801128;0.023011182;0.109306075;0.082077116;-0.031452764;-0.2604401;-0.2656736;0.048835676;0.1067284;-0.16742927;0.07272045;0.14236087;0.2041712;-0.020441122;-0.017726643;-0.1506706;-0.27897313;-0.004546121;0.21531135;0.014398306;0.052563116;0.204009;-0.0072992337;0.2640029;-0.15536873;0.038477186;0.09498246;-0.08182217;-0.01664098;0.04581503;0.34326223;-0.14729276;-0.0012204957;0.2979788;0.38070267;-0.15918241;-0.15682462;0.17111236;0.04352832;-0.1595854;0.076923065;-0.31325197;0.06462135;-0.026030926;-0.034894485;-0.17678188;-0.25058064;0.07604384;-0.03366411;0.16120854;-0.10332667;-0.069668576;-0.18913318;-0.04588206;0.0498252;-0.13766913;0.0867938;0.50562316;0.026550232;-0.016142521;-0.00026199105;-0.2899318;0.05275652;0.05577495;0.030026881;-0.05341893;0.10873103;0.004862199;-0.06559772;0.10059791;-0.38221872;0.015261012;-0.19633488;-0.15332276;0.0007597874;-0.028582714;0.059517536;-0.29218137;-0.038191568;-0.024033118;0.02902749;0.04647111;-0.07012046;-0.044996314;0.0147077665;0.25255617;-0.2720369;0.17334318;-0.19126673;-0.08584755;-0.18553528;-0.2167205;0.29018536;-0.029452248;-0.3212451;0.052421756;0.1518689;-0.0033972976;-0.03966128;-0.18646623;0.2731763;0.09911043;0.24613887;0.026300311;-0.22934091;-0.20890956;0.23035349;0.0037334685;0.16365334;-0.019039819;0.23405807;-0.07375346;-0.07443461;0.23185939;0.057925243;0.12478826;0.037181575;-0.045281447;0.2674068;0.02055995;-0.1939752;0.05341227;0.3276025;0.09228556;0.055257816;-0.14190763;-0.022168916;0.03172955;0.43196744;0.006195016;-0.0045111477;0.1987475;-0.011236033;0.062014148;-0.22854713;-0.026745357;0.2082181;0.17136446;0.2654018;0.10220202;-0.2483813;-0.0014928016;-0.22986116;0.062334083;0.08221154;-0.0025845591;-0.035262153;0.13323739;0.017342264;0.0040193317;0.04822878;-0.11057443;0.14593774;0.11938442;0.040772647;0.575155;-0.42302218;-0.10659868;0.29458007;-0.007809661;-0.3032179;-0.07499512;0.26901376;-0.30776685;0.02416917;-0.037947953;0.091114655;0.101211146;0.19397926;0.61165124;-0.08207596;-0.17084977;-0.0072028073;0.16946751;-0.2108904;0.5056858;-0.078601845;0.060210224;-0.3758974;0.038749564;0.04542537;-0.38342977;-0.5956537;0.23314753;-0.230668;0.060803335;0.050137244;0.07498069;-0.15716527;0.25603974;-0.17865959;0.28175575;-0.12560387;-0.0009859098;0.04748628;0.19122127;-0.38470948;0.36662358;-0.26883942;0.30837715;0.11179229;-0.024140911;0.34502771;-0.042722486;0.45715925;0.022935271;0.04496695;-0.088260554;0.044801734;-0.041477423;-0.014312367;-0.03049511;0.0130156735;-0.0057997103;-0.044367835;-0.197025;-0.04294274;0.29184926;-0.06764759;0.11934554;-0.13137509;-0.033761326;0.3610868;0.0025289943;0.042799093;0.13299392;-0.032718297;-0.012649539;0.049573053;0.14049724;-0.021993887;-0.0058615175;-0.0133513445;-0.19490355;0.047999863;0.5030658;0.16099493;0.26878276;-0.031640567;0.021256514;0.3516261;-0.026753133;0.024613561;-0.042923063;-0.08073477;-0.012093531;-0.11676239;-0.21249461;0.2289891;0.06310227;0.08426973;-0.046373617;-0.065733165;0.46149114;-0.058586296;0.17946273;0.005585493;0.13918339;0.0330286;-0.140984;-0.01899702;-0.06857402;0.4593805;-0.13894524;-0.03822133;-0.43947303;0.06414732;0.28761962;0.26081154;-0.039093338;0.08194375;0.051187657;0.09234152;-0.44086984;-0.2649008;-0.13916948;0.4309363;-0.021927346;0.04454105;0.20075682;0.029467527;0.03872069;-0.023910785;-0.08142956;-0.021452108;0.06943251;0.05031467;0.10217091;-0.028940534;-0.20257822;-0.073758654;0.5224569;-0.523964;-0.020452756;-0.07827045;-0.26571432;-0.08155646;0.29296792;0.05696845;0.05527745;0.029289134;-0.42987648;-0.021477714;-0.17483549;-0.0060907844;-0.076339185;0.32792938;-0.0076205824;-0.054365564;0.010179054;0.05315057;0.039385002;-0.29857814;-0.34005356;-0.41581792;0.30671656;-0.028162206;-0.21792132;-0.05167863;0.14753513;-0.06856715;-0.14106347;0.034483697;0.15014787;0.009590262;0.25346312;0.27597266;-0.013833684;0.057332672;0.119573034;-0.16797888;0.018627428;0.29731792;0.0996209;0.045910355;-0.0058155577;0.09286416;-0.13791308;0.05230901;-0.26470643;-0.33587816;-0.14024997;-0.13696462;-0.025736503;0.06656637;0.008570113;0.29997054;-0.02735132;-0.007168257;0.39771158;0.010424809;0.1529147;0.36795694;-0.035476405;0.017529333;-0.4104148;-0.031156285;-0.001923382;-0.25835213;0.038668428;0.23329377;-0.13302085;0.15954016;0.1841292;0.2782091;0.084847875;0.18868655;0.4322801;0.19842833;-0.029145088;0.31154117;-0.30169746;0.051707473;-0.17511621;-0.023445467;-0.1691999;-0.059149444;-0.14288256;0.21997255;-0.012871526;-0.059326317;0.019582722;-0.016651232;-0.033848777;-0.17698057;-0.2396642;-0.19190685;0.015482571;0.0069555854;0.07153984;0.05128317;0.12881114;-0.16435175;-0.05822837;-0.013683015;0.05075722;-0.30111408;-0.06512295;-0.25411886;-0.13683832;0.11996882;-0.005915767;-0.31418172;0.391862;-0.06009564;-0.032881565;0.726978;0.04916684;-0.35080314;-0.013887595;-0.011584192;0.07503042;-0.023085725;0.059346877;0.124965414;-0.030514987;0.058346983;-0.10951575;-0.099941485;0.056921843;-0.01343662;-0.026525075;0.037245605;0.33610764;0.18628366;-0.3083353;-0.068828546;-0.031990916;-0.15650827;0.22051007;-0.14367564;-0.0077463333;-0.076983646;-0.017547771;0.502516;-0.024268514;-0.011308995;-0.0030987351;-0.19199395;-0.050352704;-0.42790976;-0.06375958;0.008625705;-0.20699167;0.12790781;-0.06324659;0.19758737;0.05994198;-0.056267943;-0.21618149;0.050075773;-0.035995476;0.226951;-0.15055324;0.089561634;0.16128245;-0.028323993;-0.046421196;-0.4614362;-0.049426973;-0.04073981;-0.12797876;-0.06428778;0.053561334;0.29044747;0.26699027;-0.18571268;0.2521077;0.29571027;0.15800644;0.02158089;0.267347;-0.126401;-0.05110457;0.020555912;0.2789272;-0.06761932;-0.023384998;0.03424997;-0.2002722
0.005250148;0.48747665;0.20381089;0.42589313;-0.023082437;0.38302588;0.0340487;-0.14685437;0.008208666;0.18198748;0.03794492;0.057467077;0.23707943;-0.0018013046;0.23266064;0.23484498;0.16419251;0.5497656;0.1677319;0.76801723;0.47017416;-0.0033617828;-0.029888684;0.013304455;-0.022622157;-0.023543121;-0.01753251;0.06576647;-0.16649234;0.2973551;0.26877564;-0.055621315;-0.07462484;0.031603783;0.71997494;-0.17624237;0.18881845;0.034031387;-0.20746224;0.03348854;0.044117585;-0.034717992;0.079352215;-0.054023515;-0.0033581299;-0.34137923;-0.035656005;-0.39844838;0.4762173;0.025507223;-0.009166695;-0.09390588;0.048528913;-0.00911098;-0.009258047;0.35743174;0.0058558946;-0.06347326;-0.010566064;-0.21365067;0.08800025;0.17068174;-0.038108412;-0.12838139;-0.19607729;0.11451077;-0.08490147;-0.15869905;0.17055734;-0.013739256;0.2708207;0.024573315;0.0343087;0.0020888827;0.06921474;-0.0815977;0.0073025874;0.009615888;-0.239906;-0.0024718132;0.000121427336;0.30874994;-0.6810602;-0.09555389;0.02063638;0.24852632;-0.08738061;-0.05827416;-0.04200873;0.025515273;0.0058454545;0.0683397;-0.21918148;0.52844054;0.00890217;-0.069654375;0.08123247;0.19589064;0.015248033;0.11513644;-0.039890815;-0.2787838;-0.237672;-0.0953429;0.029800395;-0.35066882;-0.036728352;0.10762966;0.12268044;0.05770101;-0.036249135;-0.15644772;-0.11412225;-0.00033386244;0.23256102;-0.10927522;0.03352415;0.1589198;0.019768199;0.2536446;-0.15408778;-0.034580693;0.18093021;0.021159839;0.0071861534;0.054919127;0.39153585;-0.2036429;-0.028089108;0.32651702;0.3722878;-0.30699715;-0.083949715;0.13197204;0.016740043;-0.31567907;0.07844977;-0.30624956;0.044049248;-0.0052680657;-0.15882778;-0.2105095;-0.16241504;0.0005316629;0.023305085;0.04211138;-0.17756517;0.0035178415;-0.34359863;0.0865656;-0.06523443;-0.11965939;0.02264137;0.5150741;-0.020221775;0.05454566;0.017164761;-0.43607593;0.04579065;-0.02846372;0.03843696;0.028158298;0.14043546;0.024900245;0.069940135;0.21084127;-0.51938117;-0.023728313;-0.12909621;-0.11523038;0.12663458;-0.017918788;0.024157567;-0.14348342;-0.07538676;-0.062465675;-0.038670577;-0.009608102;-0.13357101;0.030422391;0.058275416;0.31262472;-0.3198282;0.19294077;-0.1738167;0.08076104;-0.14022997;-0.2561981;0.23363389;-0.045638986;-0.20591648;-0.013498989;0.14725144;0.060852457;0.02322521;-0.23874538;0.38853636;0.14532843;0.41140124;-0.017513726;-0.38278583;-0.30557457;0.21763307;-0.0113618495;0.15829729;-0.03116964;0.32252187;0.022387175;-0.16141073;0.27523118;0.015787648;0.03402668;0.03147353;-0.015049881;0.3708035;-0.0037720476;-0.18149307;-0.03251237;0.31801626;0.26375777;0.100037575;-0.2629556;-0.0018539584;-0.022078743;0.5722947;-0.007905679;-0.00012204533;0.32998043;-0.053951368;0.07657967;-0.21381442;0.029842466;0.18683968;0.041169625;0.25390992;0.12092298;-0.32089162;-0.06756477;-0.26308134;0.2742127;0.020813154;0.002968508;-0.0025099772;0.05614742;0.075871885;0.040082198;-0.0049923686;-0.028958017;0.23844393;0.18311891;-0.0042624567;0.5960758;-0.38608527;-0.2707351;0.21851057;-0.042983223;-0.4505942;0.045923464;0.22069313;-0.2762469;0.05384538;0.03047777;-0.026602918;0.113460675;0.194687;0.47680792;-0.21357144;-0.19386409;-0.07236083;0.24339749;-0.18859287;0.41993502;0.034667738;0.013180928;-0.2705843;-0.008737616;-0.022307437;-0.48676166;-0.74508643;0.123651244;-0.2553708;0.13427499;-0.057747148;0.1505709;-0.2621017;0.2058148;-0.056019977;0.4376884;-0.1696121;-0.09470495;0.009930662;0.19778813;-0.24216181;0.31223732;-0.28962857;0.3175103;0.13414541;-0.0360832;0.3651528;0.045384135;0.5606675;0.009718067;-0.04006133;-0.18824922;0.0034550566;-0.0067145345;0.023851378;0.013437627;-0.03704286;-0.0015333828;0.03267353;-0.18969324;-0.037305422;0.10170347;0.083319;0.21359497;-0.013496804;-0.028832596;0.43765506;0.13465932;0.023012558;0.14709526;-0.055297174;0.005544964;-0.037399657;-0.00028172781;0.010872636;0.033849534;0.015885206;-0.17935812;-0.05303382;0.63954955;0.10476282;0.2181306;-0.03096505;0.00044465376;0.3121219;0.0019806272;0.19261356;-0.035404652;-0.09359258;0.016444633;-0.15473042;-0.23248126;0.11373725;0.1399671;-0.0039860774;0.076713376;0.047447275;0.5044401;0.03410506;0.18868425;-0.023305563;0.21846406;-0.03971716;-0.08267726;-0.10466891;-0.056691095;0.45896646;-0.18701;0.043960903;-0.5354215;-0.022563748;0.32628947;0.17919904;-0.06675954;0.17825425;0.012443362;0.1474765;-0.57406706;-0.24187002;-0.14476314;0.33192888;-0.032881204;0.11470015;0.23000327;0.11678807;0.1488861;0.05403605;-0.10840308;0.053930677;-0.05129338;-0.013162216;-0.0022058506;-0.018291723;-0.18946497;0.0040994496;0.4756058;-0.3907001;-0.029383231;0.008387021;-0.31398785;-0.05450475;0.17380996;0.0029896596;0.22244287;-0.014305325;-0.42142949;-0.021156857;-0.19000606;-0.047793724;-0.19008116;0.39310873;-0.10232364;-0.01750381;0.21150959;-0.007468853;0.06936627;-0.35368687;-0.43080482;-0.4992736;0.3378408;0.0072731017;-0.2966904;0.041201722;0.039646644;0.055413343;-0.26047513;-0.0500662;0.20173651;-0.0003333898;0.25723305;0.23071234;-0.06127062;-0.031368066;0.2333464;-0.23133552;-0.05680345;0.35725105;0.07889755;-0.0067508556;0.07567783;-0.02628507;-0.11591306;0.010845158;-0.4328687;-0.17540333;-0.038222313;-0.027770858;-0.019635525;0.109261975;0.028079502;0.2876116;0.008992127;-0.07759878;0.26662165;0.029716652;0.11333445;0.3920793;0.095052205;0.005503275;-0.27693197;0.047073998;-0.008826073;-0.14755079;0.002207728;0.2756497;-0.10197688;0.22365263;0.17564821;0.23313798;0.0023075119;0.19963478;0.3074744;0.20113885;-0.006880605;0.23000516;-0.3232748;-0.022075543;-0.24440244;-0.009831078;-0.19786671;0.013445786;-0.19686876;0.22547646;0.045807753;0.041252293;-0.0041291076;-0.0006199656;0.046953395;-0.080474526;-0.14596535;-0.2890754;-0.025073383;0.019619292;-0.07415612;0.012676441;0.17021719;-0.04854833;-0.08842674;-0.020116176;0.01333969;-0.3310289;0.027778719;-0.28947252;-0.13674296;0.11161748;-0.026750373;-0.34629792;0.3125475;0.033010397;-0.10897838;0.76726496;0.016900389;-0.39076754;0.028664218;0.09843641;0.08568255;-0.011332591;0.04989004;0.06950615;0.051913988;-0.0020348746;-0.15047437;0.057119872;0.16849898;-0.03940162;0.02071673;0.1395671;0.26572964;0.16883902;-0.38024464;0.061255846;0.035125665;-0.08611852;0.31178296;-0.19430181;0.07421074;-0.17235138;0.019380014;0.4539483;0.015720814;0.022630792;-0.031902917;-0.25333032;-0.023389876;-0.5669719;0.05909877;-0.024817917;-0.43289757;0.14068781;0.0032063816;0.07355008;-0.028976101;0.012193592;-0.3550278;0.01484714;-0.0116354935;0.17944881;-0.22251843;0.01747546;0.18002486;0.0063935155;-0.1473754;-0.47599268;-0.14783537;-0.19688697;-0.035675094;0.058771275;-0.017798444;0.37740967;0.26676565;-0.3755786;0.21781658;0.3158231;0.24019606;-0.07309054;0.3190665;-0.14253123;0.033992134;0.08395831;0.39146987;-0.06968228;-0.044973206;-0.0009628495;-0.15623128
0.09986634;0.7023347;-0.3883165;-0.38487226;-0.04583399;-1.225127;-0.09525298;-0.63731253;-0.031494576;0.4013481;-0.010460987;-0.30920368;0.15321578;-1.4513367;0.3820935;-1.0555193;0.6879166;-0.14023134;0.014469685;0.46056733;-0.0734027;-0.032370128;0.33255216;0.23306674;-0.1629195;-0.03529474;0.020273348;0.34542942;-0.046329148;0.63539404;-0.7282798;0.040511932;-0.31200117;0.034939963;-0.49616417;-0.76863074;0.5969766;-0.045167174;-0.16647825;0.012524202;-0.011502074;0.053705495;0.14977767;0.12086065;-0.039001882;-0.082124524;-0.0008482983;0.85634136;-1.0540463;0.0063173855;-3.0802657e-05;0.028488757;0.16440564;0.0074280566;0.048438467;-0.013503478;0.018427884;-0.09136753;0.027096754;-0.63386613;-0.04146258;-0.13887158;-0.017778328;-0.6742902;0.55824757;0.35102603;-0.02547907;-0.33977482;-1.2883526;0.02239205;0.48952296;0.05706859;0.0012937811;-0.6428631;-0.119112015;-0.32431427;-0.06807811;-0.34606928;0.10207145;-0.011762969;0.023807647;0.05682151;-0.12274485;0.12686478;0.0015261243;0.08100583;0.27236682;0.025176097;-0.027631119;0.031606436;0.008703368;0.24483426;0.8275392;-0.41165406;-0.70011497;0.15427338;0.5745175;0.30132228;0.4287765;0.35811082;-0.009970708;0.29420954;-0.09348112;-0.019465191;0.44431502;0.17585778;-0.023314917;0.19218491;0.1114065;0.03125836;0.2702;-0.18434304;-0.09838796;0.47131002;-0.12387772;0.090441;-0.20566928;-0.37218142;0.042545196;-0.28044432;0.29282394;0.005766553;-0.012857939;0.005050815;-0.013206255;0.046878956;-0.5011891;0.0492734;0.011449986;-0.31769505;0.28942448;-0.46392915;0.2145017;0.1474549;-0.027982498;-0.13792132;0.41714785;-0.93903166;-0.012425652;0.033873603;-0.1299553;0.46211526;-0.38857865;-0.24346237;-0.04199321;-0.4668536;-0.6083163;-0.0027067503;0.44035852;0.45211986;-0.014024511;0.16414858;-0.0036328277;-0.09054144;-0.0026477897;-0.03513306;0.025275473;-0.007091639;0.14684027;-0.5228192;-0.09287897;-0.03658215;-0.069301195;0.0068945726;-0.040204495;0.07628003;-0.2625613;0.031426914;-0.09159384;0.27344173;0.22499864;-0.0053715026;0.042760324;-0.44408724;-0.21276854;-0.06188818;0.02337229;0.02031115;-0.028249446;0.0009971424;0.001501939;0.3164343;0.15598844;-0.30235174;0.7754361;0.08313247;0.054382056;0.32988223;0.21445711;0.0077296565;-0.5695471;-0.022636289;0.3034986;-0.0014924259;-0.024195489;-0.23239477;0.15191047;0.18999597;-0.2742891;0.016206702;0.21143116;0.117560364;0.014110017;-0.05776953;0.50383586;-0.041217484;0.55223876;-0.023883443;0.21261118;0.31246427;0.1293619;-0.18745808;-0.045763638;0.04367414;0.06552973;0.030931741;0.33174264;-0.27221733;0.43584985;-0.19382311;-0.5449666;-0.059838336;-0.07925078;-0.018685699;0.108133964;0.021631569;0.011384982;0.268704;0.030319935;-0.33796218;0.29767385;-0.04591324;-0.10763209;-0.15169293;-0.08346334;0.18188883;-0.67918116;0.0128774475;0.68010813;-0.833214;0.01793987;0.059400707;-0.0078710755;0.53274345;1.2378834;-0.01915249;0.012792644;-0.037451796;0.1984577;-0.40315768;0.025322167;0.3968428;-0.40737385;-0.19323106;0.019445902;-0.08047171;-0.17556009;-0.03484929;0.33652276;-0.088963166;0.083782375;-0.030298961;-0.021475295;-0.5499743;-0.1975783;0.06629241;0.3204908;0.15529205;-0.18890469;0.4866152;-1.442524;0.060598046;-0.081901856;0.28816414;-0.10666913;0.05662673;-0.04626308;0.2315746;0.03159348;0.026412128;-0.08297282;0.29757938;-0.3796352;0.10357343;0.2514169;0.2809431;0.012436534;0.32654026;-0.3815277;-0.050299834;-0.0005944268;0.4181899;-0.044671796;-0.26056844;0.3228158;-0.18292409;0.1569303;0.028416995;-0.11645089;-0.0153656425;-0.34882978;0.020223832;-0.006149238;-0.06525792;-0.049632616;-0.04348238;0.012298754;-0.059017695;-0.019375674;0.12053319;0.035332788;-0.8835068;0.19667959;-0.49837315;-0.10151539;-0.02217475;-0.078225724;0.065635905;-0.21758614;-1.0302786;-0.26857048;0.5842764;0.44340178;-0.0140819205;-0.041037906;0.013087017;-0.053592693;-0.021634165;0.041684754;-0.00020341961;0.02486922;-0.21366012;-0.32788312;0.59695435;0.11715801;-0.005069699;0.16846368;-0.034806594;0.20349906;-0.044179358;0.20244887;0.012053999;-0.0075484468;-0.18019849;-0.42332834;0.01141597;0.022357345;-0.014694432;0.014311111;0.6003305;0.028004676;0.23556945;0.15917526;0.16171603;0.0002448322;0.33322677;-0.058687568;-0.8315511;0.71063584;0.022870196;-0.01693707;0.09084405;-0.00028749192;0.19353393;-0.40227553;-0.42892045;-1.4931734;0.20355994;-0.025728533;0.666955;0.5398225;-0.025731;-0.029127846;0.018062226;0.0592043;0.21157674;-0.13680953;-0.40752542;0.081207804;-0.2355082;-0.037496228;0.053189732;-0.009601381;-0.5733814;-0.0066407844;0.5288679;-0.011925193;0.41986853;-0.08161019;0.023072196;0.14222844;-0.1077617;0.1144835;-0.16358389;-0.06428089;-0.18580621;0.024904108;1.0590224;0.031734888;-0.26503718;0.07583907;0.35558122;0.12967253;0.25838503;0.018625839;-0.14414763;0.0030945407;0.1853908;-0.085305534;-0.017766004;-0.022116128;0.6946963;0.039827965;0.0029160846;-0.0030847315;0.4527434;0.05982298;0.13000353;0.007952291;0.24064493;0.035461858;0.14563805;0.085275605;0.14591463;0.028740495;0.16226856;-0.3167337;0.01948383;0.16384692;0.12689587;0.016542997;-0.5926716;-0.047757365;-0.0103452625;0.05291962;0.72985893;-1.4653044;-0.061175447;-0.28565255;-0.006757798;0.34894934;-0.1776129;0.37687188;-0.017431097;-0.97976786;-0.6022905;0.21916388;0.23636094;0.5766083;-0.06367218;-0.089251526;-0.63304037;0.034274813;0.033755165;-0.18047446;0.036333356;-0.34780058;-0.6039071;-0.3955345;0.3883265;0.28409854;-0.0031189343;0.38508314;0.20941249;-0.8657004;0.15858088;-0.38255364;-0.21916018;0.018993217;-0.074723855;0.037686672;-0.35850376;0.069465995;0.18950069;0.26233706;-0.0025652049;-0.020719128;-0.045449197;-0.23122005;0.021263512;0.67632526;-0.12673534;-0.07224659;-0.4179844;-0.023864472;-0.01586217;-0.98909354;-0.0038608182;0.040451158;0.76724166;0.04718305;0.607803;-0.037586603;-0.036313076;-0.15843846;0.54485494;0.23021086;0.0047158124;0.24874389;-0.083072074;-0.01775326;-0.9912569;0.31805074;0.008541257;-0.11681331;-0.07137659;0.10127109;-0.090446;0.033509344;-0.02486972;-0.18332505;0.069690116;0.013228331;-0.14861825;-0.00054406456;0.33428818;0.018295808;-0.63679206;0.43108326;-0.9194617;0.038738657;-0.2181396;-0.011846802;0.34928313;-0.25609875;-0.27592427;-0.11208339;-0.26298505;-0.17542532;-0.0050266804;0.03505639;0.019407626;0.062115744;-0.2773388;-0.92732483;0.041402556;0.07751802;0.038078494;-0.035503212;-0.49648845;-0.2929339;-0.02673158;0.032248367;0.0015986437;-0.021391286;0.40896457;-0.18036689;0.0546181;-1.0785484;-0.017043235;-0.023959871;0.25772431;0.04761949;-0.1427572;-0.032993857;-0.3807194;0.28000906;0.03688746;-0.40085146;0.055186957;0.26917952;-0.2666551;-0.06680102;-0.74866605;-0.2641784;0.304529;-0.00982941;-0.06851726;0.17235953;-0.0377613;0.042465217;-0.35521588;-0.112899214;0.0008075346;-0.019122036;0.3498506
0.19394445;0.13736412;0.14405043;-0.04751365;1.702273e-05;-0.68883073;-0.5264595;-0.569316;0.004493572;0.0043910793;-0.0064317733;-0.24255353;0.11604143;-0.7138914;0.479326;-0.45810044;0.5141411;-0.3440335;0.027195698;0.35181543;-0.3913849;0.013279461;-0.21708463;-0.032141525;-0.12684152;0.017720152;-0.008068159;0.21228075;-0.007972336;0.17974304;-0.02271441;-0.04610051;-0.04441752;0.091936894;-0.045947727;-0.4981281;0.29080322;-0.15805024;0.04058533;-0.14543065;0.002640791;-0.02462996;-0.14406297;0.0010040391;-0.001910906;-0.2398003;-0.031963572;0.39831135;-0.4479818;-0.03783059;0.01154482;0.1346526;-0.042018726;0.053086236;-0.002314238;0.021107465;0.05507566;0.27052876;-0.14928512;-0.24989505;0.021426525;0.0023425464;0.09156351;-0.39691767;-0.009083161;-0.27601466;-0.07135292;-0.3849644;-0.58169514;0.037830416;0.33106595;-0.019426506;0.04933064;-0.26445678;-0.03436583;0.10984501;0.036944948;-0.11402266;0.31060752;-0.009752173;-0.033854492;0.12128503;-0.23842181;0.4945746;-0.0018539545;0.012255988;0.007124287;-0.0050607244;0.010942457;-0.013620448;-0.0075247693;0.03181456;0.5522501;-0.29440808;-0.14366975;0.024308238;0.071114354;0.4329124;0.19698855;0.11805525;-0.010168754;0.04636807;0.022166342;0.026063638;0.09332505;0.21985239;-0.01643039;0.034420773;0.011188618;-0.013407338;0.06725923;0.17662619;-0.21407305;0.20523635;-0.07964224;-0.07638555;-0.03989929;-0.18233632;0.012920843;-0.14146408;0.24803986;-0.04473167;0.103251174;-0.013925799;0.025769304;-0.007958111;-0.2507354;0.07876982;-0.009064619;-0.03208659;0.3831522;0.0059849974;0.33113414;-0.052728757;0.014936518;-0.04321583;0.43338084;-0.46944234;-0.053720903;-0.03546821;-0.08011896;0.06665536;-0.102307215;-0.08268376;0.027453367;0.0046640113;0.16145267;0.010915506;0.54814;-0.121360295;-0.00010925341;-0.27132046;-0.050561618;-0.07986361;0.01760105;0.053076465;-0.02034708;-0.046026837;-0.13041392;-0.38232356;0.0023147408;-0.022313323;-0.14465429;0.02419451;-0.03228922;0.08489871;-0.109027006;-0.01918552;0.15080604;0.050795883;0.14086203;0.01768821;-0.024922447;-0.25271395;-0.2805648;-0.056124177;-0.00017106078;0.0328124;0.007814839;-0.04832819;0.006116147;0.19947772;-0.045335304;-0.39331362;0.5063119;0.03614661;-0.26958445;0.08154065;0.09368985;0.030770564;-0.50659686;0.010639715;-0.04297201;-0.013885087;-0.03240175;0.12141493;-0.20969702;0.23563801;-0.36432394;-0.034502916;-0.026918184;0.06549691;-0.097049095;0.056696087;0.29830593;0.03329323;0.22732066;-0.005957137;-0.05652793;0.36822593;0.14595816;0.03623126;0.06501589;0.035665732;0.2241688;0.008270634;-0.04127923;-0.33441457;0.2875372;-0.021835664;-0.52257806;0.11693979;0.12846385;-0.023862293;0.25706968;0.014520093;0.05110087;0.06860232;-0.00902924;-0.12583543;0.29658353;0.066381484;-0.13718434;-0.23754895;-0.1845796;0.04306847;-0.15486822;0.033604722;0.3576456;-0.36681288;0.22145416;-0.06711593;-0.016838372;0.27435613;0.80394304;-0.05610137;-0.036695264;0.10817448;0.14780898;0.15936142;0.034045447;0.0854214;-0.3396645;-0.48094514;0.19180907;-0.0074512474;0.02074616;0.025148861;0.0765087;-0.0685121;-0.044313584;0.07414869;-0.15328002;-0.42528108;0.07847234;-0.26571012;0.4373369;0.23521377;-0.107168324;-0.27633214;-0.7885473;0.109774776;0.04356278;0.0494843;0.295523;0.018502586;0.037743334;-0.38154888;-0.0034632315;0.16671982;-0.31232765;0.020714091;-0.023700956;0.1449768;0.11556321;-0.0038931475;0.17231087;0.12941505;-0.37294057;0.078370534;0.025758466;0.33104807;-0.1681633;0.044543948;-0.110937774;0.118749544;0.13032173;-0.029362174;-0.07597435;-0.0092287;-0.06532472;0.016092993;-0.022569247;-0.09550503;0.022568937;0.051760517;-0.04735992;0.050409257;0.063443676;0.03155413;0.027868614;-0.25980884;0.3684861;-0.55141777;-0.09522103;-0.19924691;0.11178553;-0.027143225;-0.07988909;-0.6233541;0.23103864;0.33165592;-0.0668274;-0.0012051823;0.032843754;-0.100613214;0.092186905;0.017515311;-0.043485887;0.27520806;-0.058051247;-0.30019566;0.04103542;0.11806279;-0.22455876;-0.048778564;0.30667356;0.033394314;0.23753574;0.030722653;0.09297679;0.060065266;0.2797689;-0.11448376;-0.3720951;-0.09083804;0.02216676;0.011500765;0.02811465;0.44517004;-0.0060470975;0.15600403;-0.18781051;0.2976484;-0.045365866;0.08584034;0.02189882;-0.54667807;0.47805718;0.07998405;0.0010201547;0.19687615;0.009372265;-0.020383703;-0.09234918;-0.26005498;-0.52068424;0.19161451;-0.118801676;0.29500785;0.54631466;-0.25844964;0.15975577;0.030598637;0.060702335;0.15585703;0.048946608;-0.072526015;-0.0348159;0.005142614;0.066683404;-0.027595993;-0.019107748;-0.2981653;-0.034568768;0.34381557;0.032915633;-0.053734865;-0.038068958;-0.09231628;-0.26174045;-0.31100124;0.07672263;-0.065672986;-0.041622754;-0.09923784;-0.064461835;0.31364512;0.05171618;-0.0054313233;0.05314876;0.26763934;-0.075182;0.17343606;0.3233802;-0.0083321165;-0.15257615;0.2639198;-0.33971933;-0.13344878;0.18251091;0.23277369;0.02321378;0.11868679;0.019594168;-0.06323911;-0.017298957;-0.111188896;0.0047702882;-0.10501117;0.03133386;0.16599989;0.09899953;0.1611086;-0.015112702;0.17315924;-0.11595946;-0.0043158326;-0.22459896;0.20123635;-0.0048197065;-0.45345274;0.038821615;0.012500067;-0.012985589;0.12929435;-0.6167839;-0.1588283;-0.033787586;0.022615591;-0.17449646;-0.045394164;0.31434736;0.036022816;-0.42921114;0.06517276;-0.13236608;0.10007097;0.32900152;0.27696994;0.063573174;-0.2534783;0.13438666;-0.022606872;-0.14038777;-0.043859314;-0.044035807;-0.03256818;-0.30516157;0.35023868;-0.35244954;-0.04699305;0.08862968;0.21253416;-0.48231933;-0.054534752;0.011649669;-0.1487088;-0.087837815;-0.06428718;0.031172257;-0.30757138;-0.06432405;0.18417053;0.307253;0.025419567;0.004968142;-0.02564552;-0.49045387;-0.026138201;0.31458455;-0.008722491;0.020545144;-0.29519483;0.024827095;0.0088613015;-0.67675793;-0.26971126;-0.24122538;0.120155096;-0.101574816;0.51785636;0.03615508;0.0037292724;-0.31994292;0.4960769;0.21168089;-0.0043316362;-0.009959373;-0.11739476;-0.009287003;-0.47200173;0.14146711;-0.045153525;-0.18356422;0.030626377;-0.0134150125;-0.04407818;-0.0072206794;0.0385806;-0.062046394;-0.12142932;0.025279218;0.09850097;0.019628046;0.12571752;-0.021568455;-0.4990071;0.2708956;-0.32841736;0.007021436;-0.23373608;0.026896508;0.24315794;0.2082815;-0.12659867;-0.05456653;-0.24756128;-0.12127926;-0.0027163627;0.0363436;-0.0020003952;-0.007797168;-0.07079141;-0.39117754;-0.06744977;0.12290373;-0.02871448;0.04136996;-0.18267359;-0.22640185;0.032454234;0.46568784;-9.889148e-05;-0.043362323;0.13026346;-0.56216365;-0.061810236;-0.5540909;0.16312274;0.07558519;0.0022616396;-0.04151377;0.14169452;-0.11613968;0.12341204;0.2583612;-0.048045404;-0.19608854;-0.06727993;0.23428173;0.15089592;0.0089646615;-0.318892;-0.17472532;0.06520023;-0.05433912;0.025996374;0.05812536;0.008965256;-0.2551655;-0.24032637;-0.21827468;0.049119875;0.054040734;0.3684487
0.31066918;-0.09004431;0.057089765;0.24096121;0.07218073;-0.28795683;-0.43531743;-0.4635754;0.06284502;-0.11655476;0.025689118;0.02254559;0.025805406;-0.2715279;0.32501227;-0.057768445;0.20187947;-0.39390635;0.016941693;0.34534132;-0.434272;0.03006148;-0.41743276;-0.2248393;0.048097715;-0.015037613;-0.025185144;0.37771958;-0.02185265;0.10591486;0.1798226;0.009778952;0.06368434;-0.04052607;-0.23255004;-0.32110482;0.29327896;-0.2579148;-0.06886139;0.02299643;-0.003941976;-0.06340735;-0.22566172;-0.18038698;-0.0038523048;-0.27175385;0.052546468;0.021713702;-0.0870766;0.06729949;0.02078869;0.09127821;0.0806077;-0.06293022;-0.04704832;0.08763362;-0.059982564;0.2366501;-0.037603296;-0.008452136;0.0075668707;0.09814831;-0.07221416;-0.06803889;-0.102689385;-0.35068193;-0.046499327;-0.410576;-0.30976596;-0.0517002;0.23515429;-0.03488286;-0.041806053;-0.20960261;0.10882346;0.032033656;0.06455016;-0.0011750006;0.12769261;0.029012738;0.009202664;0.10501851;-0.26779377;0.34904388;-0.022421794;0.039357804;-0.11268181;-0.0139949955;0.00087133184;0.06581929;-0.016519792;0.00906293;0.35632297;-0.20630533;0.013364809;0.104741834;-0.14298515;0.2037064;0.1505433;-0.11524828;-0.012019481;0.042866357;0.045872238;-0.016645532;-0.03867054;0.1776024;0.02191187;0.069977984;0.06649021;0.010929271;0.06398263;0.22697508;-0.16256638;0.09155758;-0.1643713;-0.11711581;0.06952299;0.026032122;-0.02850653;-0.12188294;0.1875345;0.009785791;-0.05920285;0.040791024;0.016402233;-0.025253866;-0.23791793;-0.069067456;-0.018643204;0.07103438;0.3181779;0.18043305;0.105681345;-0.18029237;-0.037063632;-0.12028999;0.37191895;-0.36529282;0.07120244;0.022907289;0.05642679;-0.1635156;-0.0288435;-0.2526427;0.0028841041;0.10510999;0.11851164;0.035023108;0.56365603;-0.1546825;0.022236308;-0.37730205;0.025429346;-0.0780298;-0.0076284828;-0.03180403;0.040969264;-0.070829034;-0.01926465;-0.21592504;0.08183215;0.056938455;-0.0805391;-0.0032151288;0.046297528;0.33503255;-0.03193179;-0.03139246;0.2510921;0.02651924;0.029564142;-0.04625049;-0.047824185;-0.15259223;-0.34383756;0.021653853;0.018446522;-0.06738932;0.16449173;0.05229433;-0.035637613;-0.043757796;-0.14809832;-0.28653827;0.2734657;-0.015041811;-0.2935741;0.16386649;-0.14784653;-0.031852297;-0.33645085;0.04915774;-0.13577975;-0.025358427;0.025588593;0.12685984;-0.23154296;0.26040542;-0.22246628;-0.0150081795;-0.19761181;-0.0049737915;-0.22076203;-0.017034754;0.16428788;-0.009058972;0.030884469;0.06534825;-0.17530045;0.18021849;0.0031419431;0.05134691;0.00952201;-0.045709718;0.14794336;0.024966069;-0.28720334;-0.20733239;0.25003168;0.19231616;-0.29308113;0.16607249;0.2567505;0.052649554;-0.040562794;-0.036415335;-0.069954276;-0.22224265;0.036722887;0.07319232;0.26954705;0.013812371;-0.3514143;-0.22775954;-0.40985015;0.053382903;-0.12794895;-0.037561923;0.2584715;-0.045843277;0.25344795;0.02960627;0.05509971;0.15078913;0.34826902;0.03199599;0.0029249876;0.07925944;0.20693988;0.18728071;-0.079116404;0.08679151;-0.35772914;-0.4256;0.15546934;0.067428276;-0.10502414;-0.055743787;0.022522679;-0.005931464;-0.0076132603;-0.036261186;-0.14850931;-0.46644664;0.21506035;-0.20236321;0.40799266;0.24076454;-0.020501627;-0.5269184;-0.51582015;0.10287403;0.08439345;-0.14425217;0.27311933;-0.013479529;0.061838847;-0.20255189;0.16590013;0.11973598;-0.19033198;-0.15738517;0.075202726;-0.022026254;0.2023371;0.006648908;0.043144543;0.026821522;-0.31036794;0.042160504;-0.07301516;0.3871736;0.011453173;0.10756858;-0.22385666;0.023885;0.039460704;0.028492562;-0.036336895;0.015203971;0.041516062;-0.05732344;-0.019387517;-0.0106773125;0.033849582;-0.044520486;0.015379407;-0.0912969;-0.054342326;-0.12740046;-0.025094653;-0.1349468;0.44050273;-0.48992696;0.09568247;0.046830487;0.14043085;-0.05273892;-0.13267247;-0.37485784;0.21832651;0.32586458;-0.112020105;-0.026388606;0.0947558;-0.03243219;-0.018320967;0.033837434;-0.04333012;0.19795856;0.018188054;-0.27105352;0.25606814;0.02912344;-0.08630055;0.025572058;0.13961518;0.007109407;0.14636804;-0.020135963;-0.08418193;-0.07140298;0.45714822;-0.19977294;-0.531236;-0.16891961;-0.031313192;0.008193675;0.025733069;0.269118;-0.028054584;0.26950568;-0.13821669;0.40152046;0.038286448;-0.04763927;0.013625319;-0.42332065;0.15389855;0.11698185;0.04493968;0.15341711;-0.014560524;-0.14437416;0.03370954;0.09537325;-0.063926026;0.07858374;-0.0004688208;-0.06117276;0.42868078;-0.048649482;0.22021696;-0.06712543;0.006169011;0.105324395;0.14421605;0.029038262;-0.017658781;0.11868183;-0.021701055;-0.07220221;0.07406539;0.08932703;0.074939236;0.13747936;-0.012353849;-0.051954776;0.016590612;0.0442982;-0.58375216;-0.37634632;0.05649916;-0.12836652;0.072889134;-0.06243781;0.057884388;-0.14779915;-0.087591566;-0.039853062;-0.11123058;0.14043109;-0.06831924;0.08822237;0.56288564;-0.027547844;-0.020175023;0.2708255;-0.029843684;-0.069298215;-0.036131926;0.018840149;-0.020777125;0.12034384;0.00015139347;-0.34405395;-0.038105395;-0.072589695;-0.03097745;0.005526156;-0.08920093;0.12826686;0.1163101;0.1415124;0.021776905;0.0885681;-0.101823606;0.03871822;-0.15323225;0.29863954;0.015053987;-0.35987136;0.044500794;0.04726827;-0.050231166;-0.009746468;-0.37090322;-0.068029806;0.13637654;-0.027472109;-0.4456321;0.008416369;0.25745094;-0.019943397;-0.22037384;0.10649205;-0.22452836;0.30956638;0.19349979;0.3149501;0.056193054;-0.098274566;0.041628346;-0.016153637;-0.040119268;-0.02990848;0.112099946;0.049872912;-0.28516537;0.25736922;-0.50371003;-0.032058842;0.0065757628;0.0143740745;-0.10359774;0.006962723;0.18975288;-0.07056207;-0.09177837;0.05186376;-0.014417003;-0.3503703;-0.04607255;0.17061144;0.2653596;-0.0048073945;0.014643063;-0.0017820061;-0.42324808;-0.013785716;0.17489724;-0.043936633;-0.0920999;-0.1638835;-0.04441836;-0.025378542;-0.40628392;-0.3225644;-0.25245237;0.104402006;0.05433645;0.34439296;0.10492947;-0.054774757;-0.33343065;0.44239533;0.19746035;-0.018571142;-0.18232311;-0.17416228;0.03899767;-0.21789692;0.15731902;0.021161066;-0.12044834;0.024631357;-0.12255818;0.0020313538;-0.011802493;-0.045781594;0.018484026;-0.110639006;-0.08980518;0.04081275;0.022080638;0.3503031;0.047495726;-0.21578634;0.2571061;-0.235775;0.06462016;-0.23756525;0.041976508;0.25116444;0.23643334;-0.1618179;-0.059089486;-0.10939733;-0.30566078;0.007171857;-0.12329196;0.027429508;-0.07993122;-0.08686993;-0.12349523;-0.030937955;0.105649;0.0034555744;0.024647124;-0.016880617;-0.1736557;0.017799992;0.39016363;0.03540478;0.07659676;0.033729747;-0.5570286;0.025899153;-0.2711883;0.08962109;-0.003746198;0.077702984;0.010566153;0.031439688;-0.18037844;0.22984615;0.10577876;-0.22461027;-0.14088584;0.04183868;0.19697271;0.19743785;-0.22947137;-0.24293151;-0.19400558;-0.19297409;0.034702558;-0.0004745434;-0.09590993;-0.03328947;-0.2608988;0.026719626;-0.17570904;-0.04855411;-0.012901048;0.37290424
0.13132322;-0.077037744;0.031485137;0.160399;0.007397007;-0.26728275;-0.35880783;-0.24295302;-0.016836489;-0.06505159;0.026304543;0.037420124;0.021414196;-0.22169788;0.22409502;0.042526532;0.13238508;-0.24272414;-0.096000575;0.3510874;-0.35801053;-0.016755331;-0.31402716;-0.2562083;-0.09598333;0.032016087;-0.027721826;0.38239005;-0.016049402;-0.08405388;0.15377182;0.015379565;-0.02373397;0.04738536;-0.21157807;-0.27309126;0.13389057;-0.15872839;0.0329244;0.06302163;0.039743084;0.0076453276;-0.13994637;-0.14243953;0.054298203;-0.357245;-0.042668734;-0.38046816;0.05454071;-0.028204303;-0.062859155;0.35147846;0.1115011;0.03166978;-0.022897081;-0.03814133;0.0063376054;0.34863836;0.06481173;0.2278783;0.013539088;0.07932979;0.018956777;0.16587639;-0.092053674;-0.2641472;0.045401387;-0.31262693;-0.1364391;-0.03361117;0.082297586;-0.0074753994;-0.04639922;-0.26297772;0.101030804;-0.110373296;-0.063618675;0.054033995;-0.023564434;-0.014250729;0.02448245;0.1691634;-0.22109646;0.33847508;0.030399114;0.010257877;-0.13080779;-0.016001688;0.0035855258;-0.060950782;-0.011975494;-0.09175006;0.29607615;-0.19190985;0.124286175;0.1282182;-0.158283;-0.04906897;0.105350524;-0.29829603;0.05921625;0.062870555;0.12459275;-0.027821891;0.15683845;0.2397094;0.032544892;0.1953988;0.15634066;-0.03693578;-0.0069796513;0.07674864;-0.22801717;0.29051355;0.071905;-0.019547824;0.1700899;0.10771786;-0.044942483;0.0155967865;0.11444428;0.04132527;-0.23625025;-0.038463518;-0.06415224;-0.045463428;-0.16150229;-0.13207531;0.059664655;0.20116274;0.25359625;0.2722644;-0.12022239;-0.19464903;0.01661112;-0.20483647;0.3567984;-0.30562615;0.042784717;-0.032481186;0.21818437;-0.17183942;0.14845484;-0.17805156;-0.0100129135;0.08447277;0.034334414;-0.038292184;0.39272588;-0.34311423;0.008102967;-0.45634875;-0.092688635;0.02044007;0.013691473;0.048475135;-0.029492682;-0.06825926;0.023701563;-0.09592004;0.05296896;0.04849534;-0.04543301;-0.0016231046;0.044373404;0.30578995;0.0047264555;0.052747175;0.12810424;0.09322991;0.038075265;0.01326644;0.07895968;0.011712927;-0.3223836;-0.14589974;-0.10778325;-0.030616332;0.32324103;-0.030807529;0.045568567;-0.15327877;-0.17951845;-0.25324717;0.18324292;0.15635033;-0.35996598;0.09655651;-0.24309519;-0.05708042;-0.0061951224;-0.0296861;-0.400578;0.08140104;-0.0045417654;0.095565714;-0.33007333;0.10254999;-0.28306305;0.020473061;-0.2644313;-0.01256484;-0.25814506;0.040052358;0.16592802;-0.0031482042;-0.082666874;-0.04304307;-0.16591583;0.09620921;-0.019778403;0.21951342;-0.008046653;-0.0061975596;0.04431314;-0.06684872;-0.2294944;-0.23201814;0.12366089;0.2960757;-0.21088876;0.109787986;0.3593284;0.026864508;0.008290879;-0.0011573941;-0.04218977;-0.270319;-0.08274911;0.16598625;0.12076749;-0.043610584;-0.44349813;-0.2967212;-0.4202699;0.13526516;-0.028339395;0.043752413;0.051011417;-0.0053468407;0.11314056;-0.010803754;-0.008467526;0.19702204;-0.014682129;0.08206205;0.02373037;0.08120151;0.15418777;0.22457075;0.011561382;0.118076235;-0.19288242;-0.4927482;0.024278602;-0.0107485475;-0.07248536;0.075390816;0.037263006;-0.027306851;-0.023559038;-0.0047137407;-0.13184284;-0.50763696;0.024981877;-0.12652642;0.44692984;-0.01227364;0.07193756;-0.5520206;-0.29827076;0.15333627;-0.029657787;-0.017857136;0.15685081;-0.018420255;-0.008698793;-0.1683465;-0.00090211374;0.1478751;-0.2710498;-0.17807913;0.06945155;-0.1704942;0.2351504;-0.14892532;-0.15087803;-0.10232493;-0.4064369;0.1426137;0.0735494;0.2646574;0.15567212;-0.027664935;-0.24022059;-0.072364315;0.047068022;0.053562324;-0.07518997;0.019984027;0.2346784;0.014237278;0.067547835;0.18424547;-0.011457817;-0.0048935884;-0.0007540195;0.008483835;-0.00029894026;-0.13810773;-0.033562817;0.00039864492;0.29432258;-0.5741492;0.08686014;0.11112161;0.0788695;-0.032808077;-0.021231502;-0.14377667;0.2411637;0.20805915;-0.046911947;0.028430749;-0.023646643;0.007853542;0.05578858;-0.010858708;0.025066402;0.04912518;0.0096306065;-0.1141325;0.12246776;-0.05483546;-0.04113276;-0.022106567;-0.043514997;0.038673293;0.08291796;-0.03993577;-0.11379265;0.003540838;0.48163956;-0.18328707;-0.4334665;-0.19184227;-0.054622322;-0.0058901072;-0.07671581;0.10436779;-0.028397422;0.26188087;-0.0483418;0.23001783;0.041427445;-0.2128632;-0.057908885;-0.19413222;0.0984259;0.20409884;-0.042116202;0.049973533;0.004808905;-0.32108957;0.034807768;0.02124621;-0.016520018;-0.05263588;0.05829916;-0.16214097;0.49667093;-0.05519779;0.14512426;-0.042975806;0.011517063;0.2371348;0.005925195;0.0014399984;-0.05642302;0.028659318;-0.023392808;0.020626655;-0.050247505;0.17629047;0.007993902;-0.071913145;-0.018713646;-0.13580595;0.004749282;0.008081291;-0.82156557;-0.31927165;0.16504304;-0.11915578;-0.025173001;0.015020166;0.0095784245;-0.21222128;0.011053502;-0.105043456;0.033837438;0.21169558;-0.1426166;0.014320144;0.7386528;-0.06515306;-0.049873184;0.30887905;-0.18984106;-0.17085572;-0.06486661;-0.11630461;-0.071066566;0.08998424;-0.018862208;-0.4239084;-0.0072302143;-0.12264067;-0.0070188115;0.13143636;0.010029417;-0.046340372;0.10490439;0.077101305;-0.026042184;0.12711793;-0.056688722;-0.061316792;0.026514951;0.20729382;-0.02055301;-0.37395957;-0.07091925;0.03501302;0.016507898;-0.1292247;0.01896935;-0.04549407;0.16813578;0.032836113;-0.56611204;0.030238917;0.13858235;-0.024555424;-0.13066119;0.067723535;-0.3330763;0.34323213;0.05288433;0.2339445;0.011634392;0.040626284;-0.051141053;0.0048093405;-0.10069747;-0.024257716;0.15301335;0.2367748;-0.29819977;0.16441783;-0.52978265;0.046380095;-0.02802155;0.03338748;-0.023261448;-0.02670297;0.09600835;0.050687324;0.20234583;0.041903105;-0.0074485955;-0.30098885;0.07227061;0.11779648;0.11516973;-0.06719999;0.047626585;0.08384712;-0.36699614;0.015739307;0.028511837;-0.16439268;0.0026040638;-0.23447575;0.03597844;0.020241957;-0.22002678;-0.20856485;-0.12729691;0.057145093;0.0070938272;0.2651911;0.050197802;0.05661339;-0.3141723;0.37672397;0.20612122;0.011179202;-0.17320876;-0.05989772;-0.012546229;-0.251945;0.37202367;0.04892668;0.061673265;0.04331343;-0.057080653;0.06627001;0.037034005;0.012170934;-0.05809224;-0.00778281;0.04947912;0.24717629;0.021768946;0.38477576;-0.0011779811;-0.15051626;-0.1169987;-0.28625646;-0.20017406;-0.16350348;-0.041225743;0.21447468;0.3430051;-0.032013662;0.0013551955;-0.010709537;-0.24668992;0.021830305;-0.14025843;-0.071315475;-0.007820032;-0.060408264;-0.082969256;0.05209603;0.13535918;-0.025417944;-0.03734126;0.11141725;-0.22115608;-0.018881101;0.26208118;-0.029059531;-0.0063591166;0.047075465;-0.36621174;-0.051504727;-0.26541927;0.052120913;-0.0376086;0.08203129;-0.004417928;-0.09519833;-0.2028473;0.12770164;-0.051106077;-0.21479864;-0.2838736;-0.060521152;0.042573616;0.21197064;-0.38570336;-0.21651906;-0.13898453;-0.18144676;0.0470605;0.09307777;-0.15084258;0.058841113;-0.40582648;0.03430218;-0.20845751;0.03743176;-0.047405396;0.20376968
0.13296057;-0.12749925;0.12945364;0.24595532;0.006002563;-0.23591858;-0.19957682;-0.24647063;0.022295319;-0.1639648;-0.047959995;0.19545297;0.07122799;-0.048426546;0.06483964;0.24205002;-0.084843986;-0.44990435;-0.020404963;0.23015372;-0.21619552;0.008324216;-0.32951567;-0.20615551;0.01048595;-0.0049233683;0.086283624;0.3801504;0.020317528;-0.1320842;0.16413783;-0.02491354;-0.056635607;0.09204445;-0.02738095;-0.15904354;0.08245803;-0.11899274;-0.118106954;-0.03018718;-0.033603348;0.06704962;-0.25413048;-0.28641665;0.04539696;-0.25368756;0.061723705;-0.49798614;0.15299416;-0.031435326;0.055116795;0.45437744;0.0859651;-0.04987076;0.02806274;-0.014595795;-0.017350722;0.21641497;-0.035610005;0.32821932;0.0028169416;0.22128296;-0.02806433;0.28418514;-0.14717531;-0.3513782;0.05923908;-0.3696086;0.075640276;0.02911143;0.0789074;-0.018649204;0.020591674;-0.26771882;0.09348857;-0.13277932;0.05554471;0.054244157;-0.12127559;-0.021103345;-0.04045682;0.11571249;-0.18684511;0.10662673;0.029934373;0.016472442;-0.19511458;0.035274122;0.04245866;-0.032021325;0.047925863;-0.086103424;0.23115644;-0.17950217;0.11583232;0.03994004;-0.24444336;-0.11468343;0.04317184;-0.3840141;-0.021290466;0.22384977;0.20380041;0.06144347;0.11867435;0.29571533;-0.002311225;0.22248788;-0.02011718;0.0029982969;-0.0036812408;0.028149405;-0.15212902;0.12500997;-0.013230139;0.007900421;-0.04310593;0.007832403;0.0590549;-0.020885324;0.0027993498;0.027902953;-0.2030735;0.010799915;0.05670565;-0.01615937;-0.12463328;-0.06859897;-0.06599523;-0.0317416;0.14350255;0.26527038;-0.16699119;-0.14739825;0.030010846;-0.18406388;0.30805567;-0.16759974;-0.0042654034;0.045047324;0.047261544;-0.17210107;0.15777928;-0.3136124;0.02983243;-0.0033039472;0.027555998;-0.0115322;0.39562592;-0.28461736;0.012138677;-0.44779783;0.03322943;-0.07700722;0.010190526;-0.034683336;-0.036821004;-0.3737949;-0.09164446;0.24814756;0.18410756;-0.06398135;-0.02995914;-0.08276606;0.004959966;0.28213817;-0.06880752;-0.028503103;0.15603724;0.2264213;0.253071;0.09572645;-0.039679017;0.009540096;-0.23326254;-0.13887213;0.014611909;0.025013465;0.31670094;0.067425884;0.04265746;-0.23839687;-0.24678192;-0.2945337;0.17120942;0.04879475;-0.28526032;0.23260894;-0.2799965;0.022336096;0.14947297;0.03797521;-0.31453332;-0.01562841;0.042211343;0.03271958;-0.30736384;0.07783086;-0.3074034;0.0031070358;-0.33159083;-0.097657554;-0.24291933;-0.010016298;0.18323451;0.020040182;-0.016439805;0.009375775;-0.06041979;0.13146105;-0.08316613;0.26680583;-0.042615958;-0.054344404;-0.1242471;0.02671264;-0.105003454;-0.2278197;-0.2114821;0.23931874;-0.0401334;0.069961324;0.27066487;-0.054934967;0.08362997;0.037328973;0.046751734;-0.27618355;0.067284904;0.22740395;0.021672865;0.0072427215;-0.37635618;-0.11318912;-0.55374336;0.12167531;-0.16307771;-0.045524243;0.08064966;0.17851682;0.045698527;-0.020434352;-0.04320041;0.3059714;-0.07746121;-0.007920219;0.0054563363;-0.10335528;0.13393548;0.32459632;-0.022599742;0.12699933;-0.07304785;-0.26705205;-0.027152058;0.07778078;-0.15684171;-0.0055416254;0.049769063;0.058897343;-0.018903196;0.008805268;-0.097226076;-0.44460964;0.042078707;-0.12189007;0.38066325;0.042325243;0.1471285;-0.6362408;0.00087781413;0.06419374;-0.038139995;-0.10174612;-0.012684195;-0.088722266;-0.033059172;-0.011413757;-0.016546147;0.10028881;-0.11599053;-0.22721434;-0.020083403;-0.111887366;0.22932431;-0.083842576;-0.040526696;-0.09039807;-0.40744883;0.250324;0.021481263;0.079828784;0.13476978;-0.06531497;-0.13876702;-0.06455152;0.07342196;-0.0033143933;-0.0634159;-0.040455617;0.29506418;0.030644864;-0.033225622;0.17554004;0.04394469;0.0659189;0.00611052;0.07698812;-0.008965544;-0.06990094;-0.038690723;0.20716736;0.42761087;-0.4106812;0.28049383;0.20310985;-0.0028117548;0.027417842;-0.07373567;0.18750226;0.2699073;0.01704605;0.10279756;0.04856608;0.069532424;0.07150815;-0.011378629;-0.037215427;0.0514016;-0.05866722;0.028533338;-0.06275075;0.14971337;0.040860496;-0.10735265;0.07959923;-0.092733555;-0.053060908;0.025520327;0.079325594;-0.14056091;-0.023710167;0.3265903;-0.106014095;-0.45244923;-0.1994221;0.045463767;0.032021247;-0.018878626;0.16026774;0.02205747;0.28560373;0.02483225;0.10442748;-0.013423206;-0.18001896;-0.07125091;0.001438862;0.07200797;0.09925686;-0.021533951;-0.07372947;0.016857054;-0.22695598;0.05395343;-0.06788137;0.14053996;0.012022382;0.10421715;-0.25964344;0.39926684;-0.09335827;-0.011447005;0.054227345;0.17968531;0.09382799;-0.12586671;-0.08969495;0.050032474;-0.1269516;0.043024186;0.015103129;0.046842556;0.24831906;-0.04353571;-0.0011809455;0.03442844;-0.16959056;-0.11364671;0.16591015;-0.77197635;-0.19565272;0.18756296;-0.11133249;0.03597569;-0.26673344;9.277251e-05;-0.4392508;-0.044680007;-0.12105828;0.022795806;-0.054615334;-0.1364112;-0.0144203035;0.523137;-0.17155668;-0.05459725;0.029636044;-0.19814686;-0.19192046;-0.0749614;-0.20849818;-0.014412855;0.09938085;-0.007943414;-0.25426516;-0.0046304516;-0.0471034;0.0074742357;0.02649946;0.030304;-0.081503205;0.19392161;0.1606131;0.005400113;0.17080832;-0.029103339;0.04080253;0.060175832;0.13477978;-0.010783467;-0.2800764;-0.018706644;-0.0015235549;-0.05531996;-0.17760278;0.17707813;-0.24081579;0.1859204;-0.011841457;-0.489659;0.29317263;-0.076094545;0.028798504;0.06383963;0.11571492;-0.39065096;0.34726998;-0.033347245;0.055693284;0.0044111977;0.18336116;-0.19083996;0.0014440488;0.04847562;0.031775266;0.03334192;0.050957635;-0.19720955;0.046956457;-0.38331577;-0.043522198;0.10376885;-0.07399195;-0.014838639;0.07785628;0.14291292;0.155107;0.18419515;0.20006761;0.05277302;-0.16345006;-0.051756084;0.18923247;0.00031641673;0.052213307;-0.03351357;0.004305743;-0.3157951;-0.0273984;0.1928979;-0.13613065;-0.08427346;-0.2294304;0.032750916;0.047488816;0.016241025;-0.09927618;-0.25931406;0.22301397;-0.030521598;0.016719257;0.032591414;0.02581513;-0.41037205;0.285216;0.15852468;-0.012823828;-0.061910193;-0.27409068;0.029149253;-0.19575259;0.209306;-0.04353291;0.086899266;-0.025740007;-0.22583845;-0.018539026;-0.051018372;-0.0023280857;-0.022687564;0.053705;-0.0016570353;0.25028658;-0.08160638;0.23721755;-0.07801894;-0.03295156;-0.10442564;-0.2352179;-0.41841084;0.06780079;-0.038703706;0.25065267;0.29963353;-0.10683051;0.046669405;-0.10179499;-0.14069107;-0.055295043;-0.16650388;0.03481193;0.018435717;0.15327442;0.046656124;0.000133205;0.14968802;0.01678201;-0.04624363;-0.0130697405;-0.21590573;-0.05467077;0.23873973;-0.0068038357;0.026327707;-0.027254535;-0.4120457;0.017752483;-0.09307778;0.11571282;-0.038152877;-0.02727977;-0.03075727;-0.16774657;-0.21976818;0.053141948;-0.1218205;-0.26844296;-0.23801872;0.013904366;0.049888402;0.08683413;-0.4948153;-0.18007813;-0.062693015;0.02868035;-0.03634444;0.26619568;-0.24174042;0.04974172;-0.24172887;0.014153293;-0.088258035;-0.049376506;0.011632291;-0.08379889
0.060660314;-0.055311497;0.08670976;0.19599625;-0.021855105;-0.16492516;-0.101382636;-0.15736663;-0.04094203;-0.008197757;0.00070680364;0.10776185;0.03931286;-0.13207519;-0.08159208;0.14736949;-0.0692636;-0.3735484;-0.009153618;0.18185642;-0.3278888;-0.01662219;-0.34213674;-0.17163524;0.07424877;-0.0029232886;-0.044941604;0.37403685;0.02762617;-0.094123095;-0.0050143413;0.016444977;-0.03888305;-0.02639024;0.007929201;-0.16583407;0.09291757;-0.045074996;-0.20840053;0.10534847;-0.0044811973;-0.03866126;-0.26134282;-0.33596733;-0.047851294;-0.22926188;-0.018598428;-0.5264404;0.06385616;0.023325855;-0.013758636;0.33821496;0.13084765;0.023038564;0.060779456;0.03730944;-0.036280017;0.2195915;0.026823984;0.36102065;-0.0073553515;0.0754748;0.00016465517;0.30065915;-0.18151206;-0.19449987;0.04915242;-0.24005972;0.14766231;0.004461092;0.0015635589;0.0035687964;0.02443739;-0.22211817;-0.02004349;-0.08327211;-0.041385323;0.12464635;-0.13747263;0.03584278;0.047512334;0.1290313;-0.14889534;0.016117236;-0.06965193;-0.057987463;0.0056140604;-0.04145207;-0.037676424;-0.036559712;-0.04555683;0.010228834;0.28063264;-0.2030768;0.03297852;-0.1005182;-0.057847824;-0.23397195;-0.006274304;-0.48699138;0.001294036;0.255473;-0.006791572;-0.036284346;0.18863985;0.16214538;0.023544032;0.3406023;0.06687917;0.0050532366;-0.0796565;-0.1248323;-0.020976253;0.14985196;0.05266344;-0.01682687;-0.019284595;0.050093733;-0.041235745;-0.03405591;-0.059773855;-0.042579986;-0.34878314;-0.01196734;-0.059677996;0.09162067;-0.13932876;-0.012909016;0.045375023;0.024233213;0.07687328;0.08797269;-0.18213142;-0.27197704;0.046303533;-0.24653699;0.21760948;-0.096238084;-0.0445456;-0.020160858;-0.08516692;-0.2905445;0.18444721;-0.28073272;0.0045629586;-0.09986748;-0.008253944;0.009704852;0.40706003;-0.3812666;-0.053963248;-0.503637;0.112831004;-0.14106181;-0.059795555;-0.0071122814;0.000508093;-0.29184738;-0.009124258;0.20975323;0.1311203;0.0039169895;0.10110485;0.04290936;0.0025652077;0.24364461;0.06563351;-0.014983305;0.018837247;0.057469018;0.12200937;-0.053635057;-0.032526724;0.09454769;-0.32135603;-0.18311732;0.028781949;0.029780386;0.17294459;-0.07681506;-0.082089104;-0.32470658;-0.36243546;-0.23367381;0.2574222;0.16289991;-0.19969074;0.07710219;-0.22030064;0.050793357;0.05303538;-0.041003384;-0.34375313;-0.030116899;-0.0033431507;0.022109266;-0.1692735;0.011814264;-0.2246162;0.01291473;-0.34677023;-0.07388408;-0.4406238;0.01958551;0.10256093;0.042418458;-0.15668117;0.05153088;-0.12520988;-0.00750958;-0.051091686;0.24145493;-0.0155240595;-0.010782279;-0.08650562;-0.026444849;-0.0664777;-0.259967;-0.19998026;0.15125136;-0.18111882;0.03421954;0.2461737;-0.031742647;0.04301893;-0.06362733;0.012510742;-0.07679901;-0.03703437;0.28220925;-0.08107758;-0.03417581;-0.4178973;-0.046451006;-0.33990818;-0.02032859;-0.13509561;-0.03187343;-0.08451333;0.1499907;-0.0013298204;-0.036624;0.045769412;0.29303214;-0.12349863;-0.0139333615;-0.0029281033;-0.041966666;0.011544553;0.30496174;0.055433467;0.20512654;-0.10334814;-0.19493423;-0.005168114;0.06224101;-0.08504695;-0.04795055;0.03286716;0.14324664;-0.04717965;0.011689341;-0.11463312;-0.4711533;-0.1513617;-0.015023647;0.34863988;-0.19793184;0.080846846;-0.5774837;0.022466524;0.09535143;-0.016045423;-0.07179823;0.00836898;-0.0009966821;-0.032994695;0.077342816;0.01778852;0.13414563;-0.20603581;-0.24714935;0.070915975;-0.14098027;0.22883481;-0.14042479;0.020296907;-0.14265677;-0.32607624;0.29688862;-0.017588567;0.08401803;0.25435793;-0.06614223;-0.11056604;-0.17694458;0.0038690728;-0.022831926;-0.187376;0.02006861;0.27002367;-0.066511765;0.025264658;0.15843971;-0.018508196;-0.00084868685;0.07639746;0.015449678;0.02036678;-0.11043784;-0.046194512;0.023430215;0.48149228;-0.36784202;0.22579663;0.061609883;-0.035956547;0.04962687;-0.10933938;0.251628;0.26056385;0.027074262;0.24673355;-0.013616129;-0.058930095;0.16613968;-0.08195684;-0.009490633;-0.04995196;-0.096082106;-0.04296378;-0.082190104;0.05892165;0.011097896;0.027093776;-0.0072590928;-0.17917757;0.01852822;-0.0460943;0.04887935;-0.23020507;0.007635507;0.25152314;-0.09275427;-0.3931912;-0.17514658;0.02604639;-0.038516562;0.034011323;0.20157817;0.04732204;0.01468504;0.08118741;0.15683416;-0.011755493;-0.20194402;-0.036943562;0.103105895;0.092627265;0.10316593;-0.0056451624;-0.3217848;0.016923232;-0.06490095;0.13614243;-0.012783852;0.012218051;0.080639474;0.06742277;-0.23648131;0.38947886;-0.12908073;-0.0041420483;0.0056841946;0.17847683;0.18625283;-0.31420946;-0.06615375;-0.03459738;-0.0013833198;-0.018316314;0.011948228;-0.057197765;0.4273049;0.0029791489;-0.08342202;0.027667142;-0.009479267;-0.3128542;-0.042677943;-0.6045775;-0.13036099;0.19844936;-0.005605319;0.03772287;-0.26740286;-0.056555953;-0.49239615;0.04327191;-0.16976547;-0.06760397;0.090143725;-0.14534096;-0.0066328635;0.34187862;-0.13656874;-0.14154325;-0.06393308;-0.14750269;-0.24502546;-0.10575009;-0.0135112535;0.047484435;0.08543791;-0.034592867;-0.19602723;0.00032036475;0.07736926;0.057552546;-0.003440607;0.0013855961;-0.03614358;0.09645411;0.15585643;-0.0445918;-0.001065954;-0.019572359;0.029436255;0.03420579;0.16543421;-0.026150314;-0.20100862;0.0535888;0.007838293;0.056837294;-0.058366194;0.102122456;-0.32317573;0.2716036;-0.017677775;-0.4490417;0.3498861;0.019312639;0.008060731;0.13556258;0.09348164;-0.37733832;0.25213483;-0.15532675;0.046167556;-0.14174928;0.056780405;-0.2115619;0.03874024;-0.0583246;0.05293929;0.2624393;-0.018192105;-0.04338478;0.14053698;-0.2967436;-0.014639003;0.17284591;-0.054601446;-0.0632451;0.025567327;-0.05255618;0.2979585;-0.032749318;0.18319073;0.08652748;-0.18367389;0.0133517245;0.14513044;-0.120273374;0.047520604;0.0023084462;0.018235233;-0.30531362;0.049550492;0.36927375;-0.31467617;-0.41658807;-0.1758219;0.01851051;-0.026341261;-0.034277517;-0.10925385;-0.40008318;0.15990528;0.04135665;-0.1576076;-0.034277584;-0.051489364;-0.11434438;0.19289285;0.097013704;0.07726171;-0.107753076;-0.23308583;-0.043110035;-0.26763287;0.15703996;-0.03223393;0.035786916;0.003779172;-0.05177277;0.06079609;-0.024123866;0.06720801;-0.018956764;0.05097572;0.008302919;0.13943627;0.02298195;0.33376542;0.038995158;0.024511231;-0.23031643;-0.26461062;-0.507795;0.0007500331;-0.0046369564;0.11371717;0.08501954;-0.06927352;0.07140714;-0.122184165;-0.17267182;0.052186415;-0.27225998;-0.007946422;0.01723558;0.016689848;0.24740665;0.059454095;0.070657186;-0.04277464;0.05696831;-0.024456827;-0.022868784;0.068426296;0.20021378;0.022777155;-0.0045700264;-0.056894466;-0.35069346;0.064981766;-0.2482197;0.039304778;-0.01960534;-0.057112627;0.021687401;-0.25791937;-0.015892316;-0.29067767;-0.074193135;-0.2544558;-0.15425658;0.051803585;0.18666002;0.093171015;-0.33629507;-0.263019;-0.07685151;0.13800892;0.03763012;0.25203988;-0.40609893;0.010755915;-0.24560317;0.040546466;-0.097668394;-0.00326942;0.006985332;-0.21189497
-0.13343701;-0.08579884;0.107395686;0.20765167;-0.04818996;-0.1402611;0.009072659;-0.027542248;-0.0724865;0.10086732;0.029009342;0.33562443;-0.12480814;-0.16983294;-0.021694634;0.28006738;-0.06463522;-0.42263964;0.057044398;0.1959794;-0.37301818;-0.007623772;-0.2767588;-0.021452889;0.121760435;0.003735804;-0.025641514;0.22249024;0.088267446;-0.1546281;0.044739902;-0.014381843;-0.059502702;-0.06428127;0.018524617;-0.23862222;-0.010390421;-0.011748269;-0.13496976;-0.019981354;0.06856433;0.0063802716;-0.22361837;-0.5292066;0.02122552;0.0074539715;0.022140834;-0.5757353;0.25423458;0.0020887249;0.029317804;0.36819336;0.122770205;-0.042807322;-0.055397615;0.25261325;0.011182253;0.27974227;0.07610708;0.31027627;0.034062248;0.057560347;0.038552277;0.2487325;0.07371169;-0.16870323;-0.06986205;-0.29979622;0.21898243;-0.03859588;0.029462079;-0.005426441;-0.024581999;-0.11202441;0.04527564;-0.13373736;0.009578997;0.22950701;-0.0033788818;0.008137576;-0.03823622;0.060970884;-0.15626648;-0.0802808;0.043876354;-0.08736317;-0.14322104;0.020083882;0.0005711403;0.032770902;0.02760206;-0.03895163;0.26264837;-0.18080659;0.0050157392;-0.10674836;-0.29220626;-0.112685114;-0.021831622;-0.48358017;-0.023845991;0.026187863;0.03971319;0.013060619;0.113698624;0.14448369;0.013366441;0.2394718;-0.067884654;-0.0037162695;-0.056463595;-0.17316972;-0.012546588;0.13986313;-0.1341679;0.07088666;0.12139823;0.00286524;-0.03820472;0.17798188;-0.17844006;0.051765785;-0.366324;0.020544766;0.04267126;-0.04481943;0.040182877;-0.043490563;-0.061108593;-0.16629775;-0.121168785;0.09620822;-0.2636423;-0.089096315;-0.019275485;-0.27408865;0.30243504;0.079160914;-0.011288701;-0.04463836;-0.114634894;-0.46733317;0.288622;-0.3239382;0.01365394;-0.26721862;-0.11643879;-0.04239248;0.21726026;-0.1963328;0.041952547;-0.52344686;0.10784891;-0.37694192;-0.014629186;-0.008278616;-0.027402781;-0.17963788;-0.07095196;0.11548535;0.099630125;0.0046930183;0.12062732;-0.018092321;-0.008590347;0.11520969;0.06428312;-0.045451764;0.06910649;0.03566683;0.10910698;-0.023906957;0.02333172;0.22661598;-0.14822207;-0.24019459;0.052163176;-0.0075655505;0.22949548;0.030954584;-0.008490862;-0.48273984;-0.3882253;-0.1711389;0.20592405;0.16581967;-0.08211671;0.17435369;-0.11330457;-0.047241565;0.15808249;-0.034545463;-0.19389474;-0.051982965;-2.2658482e-05;0.07674454;-0.06473319;-0.04155294;-0.31901947;0.003003142;-0.26186973;-0.010493979;-0.29766604;-0.081223756;0.08343504;-0.027230652;-0.09656745;-0.08473733;0.034890298;0.22208019;-0.0159169;0.20221399;0.039723232;0.010486283;-0.07846023;-0.020845499;0.05858939;-0.24698102;-0.35631418;-0.04531988;-0.08082029;0.03861266;0.2008778;0.049497418;0.187206;0.006972338;-0.030141892;-0.19315028;-0.05925963;0.24222615;-0.12616977;0.03651187;-0.4720066;-0.10365621;-0.26165166;-0.02645292;-0.13318281;0.043926474;-0.06708977;0.20928867;-0.022205992;-0.03325454;-0.021165127;0.20025776;-0.21627009;-0.029697927;0.04650178;0.012156173;0.06111012;0.39844668;-0.03831245;0.118892625;0.025296401;-0.042847276;-0.20710257;-0.064856395;-0.25619712;0.027396183;0.027377343;0.29089993;0.015637575;-0.06745131;-0.12116048;-0.51456577;-0.16034643;-0.1754836;0.13613069;-0.1524409;0.008366465;-0.53737605;0.10555191;-0.11144703;0.03594588;-0.089016;-0.09090654;0.068952836;-0.014671735;0.022161683;0.075915895;0.21203494;-0.061624642;-0.16824614;0.24341233;-0.0914993;0.04914415;-0.05110097;0.03460854;-0.31112823;-0.37990865;0.30734885;-0.0082414765;-0.09668324;0.09452856;-0.133525;-0.16391794;-0.20822738;0.03501694;-0.04357833;0.05744826;-0.01812941;0.11215894;0.06288524;-0.022214495;0.19975291;-0.021176806;-0.016529227;-0.03863189;-0.028765997;-0.022696406;-0.1206418;0.09394132;0.188424;0.44199407;0.013925394;0.026366968;0.15765207;0.0070613786;-0.07267144;-0.22716905;0.41726252;0.30799234;-0.29845646;0.2583133;0.008950718;0.053256884;0.147466;0.025958546;0.025967875;-0.01822857;0.13215972;0.02924895;-0.2784887;-0.14389525;-0.11899017;-0.058318406;0.0141269695;-0.21600716;-0.021560676;0.19158466;-0.01460886;-0.15961069;-0.0014866835;0.25164512;0.0062229913;-0.44140503;-0.062398657;-0.053820256;0.018313136;-0.025301183;0.07388151;-0.022613067;0.2515435;0.057545792;0.24808374;-0.0068292;-0.12278742;-0.053191494;0.16356507;-0.058050767;0.0507203;-0.012175991;-0.32574067;-0.05741111;-0.034789916;0.1384096;-0.048667707;0.12014426;0.062284894;0.06746609;-0.17681076;0.17853431;-0.09321307;-0.09882881;0.01326262;0.09680108;0.12798351;-0.25889793;-0.08003732;0.010796849;0.030376697;-0.050767366;0.0102079315;-0.015966365;0.32087067;-0.02447961;0.06300725;-0.024554323;0.05925655;-0.3071202;-0.15960039;-0.29451656;-0.2638801;0.09799512;0.042615507;0.07343758;-0.26532912;-0.0055688056;-0.42063403;-0.024059586;-0.18409893;-0.053716157;0.05503916;-0.24075225;-0.1039659;0.258237;-0.1031053;-0.17208844;-0.21575527;-0.17252934;-0.247365;-0.03113817;-0.1975116;-0.043939065;0.0066142757;0.08395691;-0.22611213;0.0033811543;0.03917876;0.032112535;-0.050449908;-0.025037749;-0.26706874;0.11498334;0.13387142;0.042943496;0.11338915;-0.26342884;-0.032209948;0.046580438;-0.10864098;0.049647238;-0.23558296;0.032821584;-0.05889368;-0.020365037;0.02628394;0.17987503;-0.4120144;0.25426728;0.025453841;-0.34213334;0.2012512;-0.12815249;-0.013277201;0.17499155;0.14458826;-0.46247774;0.3598418;-0.20041327;0.019768938;-0.069753066;0.27710488;-0.23863794;-0.04708007;0.050883334;-0.004437573;0.12252204;-0.048106253;0.21584228;0.20058793;-0.12526026;-0.06892686;0.06415262;-0.055437576;0.0005987836;-0.07949068;-0.09375283;0.37623513;-0.066719785;0.13183258;-0.059452735;-0.092904925;0.054607894;0.069728166;-0.104965426;-0.039078444;-0.033694986;-0.0055639693;-0.23416254;0.030190818;0.23505838;-0.24463594;-0.36303642;-0.3071326;-0.060387325;0.0025510264;0.064899765;0.03593209;-0.4071184;0.26711097;0.0065427367;-0.35437462;-0.07809632;-0.05473429;-0.13029464;0.20074645;0.08196004;-0.049667682;-0.052852105;-0.32957953;-0.047231406;-0.32848328;0.07848089;0.0695524;-0.093745254;0.02511941;-0.19509065;0.070968345;-0.010981371;-0.026826134;-0.13266546;-0.03611637;-0.01408879;0.19653422;0.04071207;0.28088516;-0.030397156;0.11038941;-0.17680562;-0.12055233;-0.5187043;0.06856875;-0.015385142;-0.029996498;0.056980412;-0.108313575;-0.038841132;0.09491176;-0.1160514;-0.004385984;-0.0612703;-0.05437535;0.04285125;0.15193693;0.31161252;-0.030623294;-0.12163415;-0.00085659325;0.019448819;0.1772068;-0.107941404;0.031926427;0.17545366;-0.041286748;-0.076670475;0.04233024;-0.5738307;-0.054909147;0.034922596;-0.014886486;0.004899567;0.05147951;0.01767577;-0.26690495;-0.063287474;-0.3295112;-0.18377051;-0.37787312;-0.07565525;-0.038811184;0.2762124;0.14474522;-0.2625327;-0.18214996;-0.18899162;-0.0063226684;-0.0014753864;0.16831924;-0.3178033;-0.04775833;-0.26222512;-0.11618246;-0.09557928;0.013535726;0.01691347;-0.21310699
-0.29541335;0.15476972;-0.039818913;0.001512799;-0.0121308025;-0.22416754;-0.0066517247;0.022856731;0.0717082;0.083743796;-0.02452958;0.3160941;-0.16770664;-0.2104612;-0.138835;0.22822116;0.07778319;-0.34079474;0.07071316;0.19193894;-0.2554919;0.03587328;-0.3119873;0.10666566;0.016406806;0.031211514;0.030730411;0.29103377;0.025159976;0.0542398;0.13071033;-0.04482877;0.07882183;-0.09091401;0.06043084;-0.28832242;-0.04039914;-0.1126218;-0.24497877;0.059958;-0.06812599;0.027720356;-0.09169523;-0.44801667;-0.053223696;-0.011131983;-0.06644317;-0.3632943;0.0141656045;0.024552798;-0.048417527;0.29277816;0.25543725;0.029166752;-0.058953997;0.26768133;0.035729133;0.17948031;-0.00270692;0.20082873;-0.035876498;-0.06532282;0.004415636;0.2537275;0.085659154;-0.05161616;0.111402385;-0.06905957;0.022964342;0.020462593;0.1269723;0.039604913;-0.016067356;-0.13201413;0.1173358;-0.09363082;0.013334847;0.1516413;-0.11751336;0.010283126;0.025787456;0.1305095;-0.103550315;-0.1251041;-0.011929263;-0.18424883;-0.28869218;0.025105063;-0.0075820424;0.022640806;0.048741095;-0.11079911;0.2752262;-0.027714353;0.31621796;-0.09766459;-0.10527518;-0.24993615;0.1787793;-0.41666538;-0.007548569;0.03908589;0.017581936;-0.018044665;0.060295653;0.12001495;-0.011395781;0.3804984;-0.08609826;0.0108850775;-0.18199834;0.012564351;-0.0044017606;-0.014875173;-0.2026983;-0.006683127;0.116881266;0.06969104;0.04106873;0.18929404;-0.23006226;-0.04831853;-0.28595498;-0.041399553;0.04615038;0.034857366;0.06650983;-0.06442557;0.039663102;-0.0289115;-0.09937892;-0.08946425;-0.22333002;0.12713224;-0.014362671;-0.21627672;0.16871652;-0.059686422;-0.013023041;0.020777766;-0.2298742;-0.30462912;0.2909406;-0.33014557;-0.01703266;-0.19876839;-0.10962099;0.06656218;0.11031186;-0.04159004;-0.0023951377;-0.34211287;-0.04075538;-0.38735119;0.07041303;-0.025912598;0.080809705;-0.1555272;-0.049052678;-0.09200062;0.20952989;-0.0035226906;0.18587764;0.048464436;0.0058006677;-0.200661;-0.02494601;0.08238835;-0.18322852;-0.09488578;0.14630008;0.02592711;0.0059442846;0.29406238;-0.15173171;-0.10759894;-0.06150023;0.04636067;0.10706401;0.027496183;0.023588793;-0.41511106;-0.22446586;-0.21621391;0.36997047;0.17072792;0.01642126;0.101301074;-0.07405;0.01018351;0.17732272;-0.035335656;-0.09480192;0.042286098;0.00018435855;0.061447706;0.055269357;-0.10952016;-0.10349157;0.025548097;-0.12681985;0.01993675;-0.42397955;0.049117174;0.18963805;0.049062286;-0.15352021;0.03836272;-0.08290169;0.048844166;-0.009138895;0.08114362;-0.028278364;0.009144906;-0.049874607;0.008956751;0.0013573625;-0.14635321;-0.4020943;-0.07047008;-0.18159375;-0.020879546;0.3098542;0.0042871013;0.265034;-0.0013564632;0.017310498;-0.17392562;0.011564232;0.26343948;-0.27135104;0.006480653;-0.49153256;-0.030802708;-0.23663563;-0.06759368;-0.16797435;-0.04181165;-0.15937774;0.15314554;-0.15108328;0.056609794;-0.025283488;0.2667714;-0.098675996;0.02339587;-0.03227285;-0.08586692;-0.06200729;0.17005675;-0.031835992;0.16513631;0.00502407;0.13178305;-0.16870578;-0.033842962;-0.12223889;0.018876478;-0.06088026;0.08972627;0.04360736;0.04361923;-8.824776e-05;-0.44322693;-0.033644415;-0.005997808;0.17195943;-0.20539297;0.015816513;-0.45292637;0.16537881;-0.093526326;-0.009974556;-0.15409243;-0.029431479;-0.02475082;-0.017736567;0.15987119;-0.17236882;0.15214604;-0.024165593;-0.06459468;0.1639334;-0.16809444;0.023007832;-0.0059839576;0.037230223;-0.256331;-0.3729661;0.11329869;-0.0053245844;-0.06290591;0.15253721;-0.20109648;-0.1774146;-0.14641419;0.032590203;0.0059220186;-0.037513506;0.05163233;-0.055085994;-0.028150022;-0.013438074;0.23619232;-0.013667357;0.026139399;-0.042967446;-0.0086286105;0.02492877;-0.14515257;-0.04373545;0.04593121;0.27097374;0.1255845;-0.14457506;0.22641224;-0.14569527;0.0572435;-0.39460486;0.21465771;0.2790077;-0.1944499;0.19786555;-0.025484664;-0.07134323;0.030704591;0.028395351;0.002160786;0.071456276;0.13013017;-0.023658823;-0.24927634;-0.16334629;-0.040129494;0.103278376;0.0040085507;-0.18777397;-0.02508769;0.2983811;-0.023141144;-0.2512384;-0.013621618;0.09151994;0.13204467;-0.42761377;-0.028052099;0.07227651;-0.04102824;-0.005228217;-0.060585734;-0.010899604;0.23786303;0.09295683;0.024418868;-0.03690566;-0.14272304;-0.11705794;0.19771114;0.08746738;0.009260895;0.0045123925;-0.43218467;0.047998898;-0.0829566;0.10720794;0.041878503;0.029808886;-0.008117163;0.05170922;-0.009626466;0.09087261;-0.25559774;-0.020337082;-0.042893037;0.19341366;-0.07380234;-0.2245826;-0.15596178;0.057462465;0.12657133;0.053754266;-0.005189182;0.0470245;0.2244899;0.033368982;0.031513907;-0.025108414;0.19164616;-0.23125263;-0.17233962;-0.2420766;-0.07927795;0.14036979;0.011076863;-0.06328844;-0.20941415;-0.018980863;-0.2262766;-0.00013128709;0.038263384;0.007130705;0.1654013;-0.23184866;-0.13536423;0.21519698;-0.0730136;-0.093790956;-0.1513359;-0.010595845;-0.030045988;-0.07463035;-0.119546086;0.046622016;-0.1472271;-0.03741023;-0.089373745;-0.01403897;0.04072428;-0.057654712;-0.13303627;-0.028010223;-0.17384188;0.17122914;0.19772995;-0.04875347;-0.017737096;-0.32594624;-0.060983885;0.079184785;-0.0675278;-0.049990386;-0.11174342;0.052830797;0.0025935166;0.044667367;0.12855843;0.23016492;-0.15670314;0.3265946;-0.05946283;-0.17171985;0.07615544;-0.019351576;-0.0048161927;0.23505582;-0.052152593;-0.36946428;0.21479966;-0.18035755;-0.20524184;-0.2708273;0.122494355;-0.13304517;-0.030224955;-0.02068102;0.021121774;0.121308245;-0.15759833;0.15438348;0.121153794;0.07414509;-0.07992944;0.05340359;0.087562576;-0.053211566;-0.005421348;-0.22783977;0.3770205;-0.09691559;0.028866595;0.0044305385;0.060780574;-0.05609916;0.076128334;-0.16076773;-0.052810896;0.05514794;-0.025046317;0.017456232;-0.036691096;0.26636538;-0.22803356;-0.31491828;-0.15549198;0.02574239;-0.028981771;0.06766621;0.057177722;-0.30078351;0.3643163;-0.01938594;-0.2556592;-0.14301492;-0.068347976;0.048864968;0.24940112;0.21953452;-0.063532375;-0.14832969;-0.14703712;0.046622984;-0.21540625;0.01728736;-0.012277556;-0.04047766;-0.066174105;-0.07520502;0.03437179;0.044841804;-0.025855003;-0.16878995;0.03155557;-0.00962626;0.2173933;-0.055268444;0.31843582;0.0071012573;0.03656353;-0.12282153;-0.19677013;-0.40883043;-0.019100802;0.042061146;-0.04864613;0.1499428;-0.2752668;0.054202795;0.10195312;-0.064204134;-0.020952262;-0.02607717;0.04389072;-0.0346651;-0.049501132;0.24789493;-0.0048010694;-0.09704127;0.07773994;-0.04509222;0.1235862;0.062000595;-0.081988856;0.047848556;0.0074634235;0.06453856;0.012374556;-0.4580427;-0.04606145;0.07673263;-0.09913356;0.028252706;-0.08916096;-0.022194155;-0.29117498;-0.034042913;-0.25848445;-0.35321987;-0.29877552;0.028675225;0.010797345;0.3118633;0.00970032;-0.24736446;0.0024307754;-0.20414773;-0.09073187;-0.03131556;0.042910017;-0.24636209;0.020364076;-0.18015422;-0.39323124;-0.20434716;-0.009969172;-0.043300748;-0.26802567
-0.14345598;0.066570126;0.086561225;0.119427785;0.045295;-0.14835;0.022460904;0.06430829;0.014691151;0.05468113;0.040731315;0.3492169;0.061500568;-0.056762483;-0.1290007;0.03476348;-0.06931903;-0.335396;0.11748031;0.22084424;-0.30455947;0.009944236;-0.28733975;0.15782227;-0.051534552;-0.04964123;0.012946489;0.23641486;0.011923665;-0.0007143186;0.16319811;-0.019235985;0.065081134;0.07476359;0.0502321;-0.26777172;0.06577376;0.12330538;-0.21288837;0.1341808;0.013680984;-0.07588194;-0.071201965;-0.4403865;0.0002073121;-0.15243767;0.082341954;-0.2698848;0.11442021;0.01128006;-0.021697707;0.28146696;0.15058285;0.030970354;0.021566939;0.056185525;0.02494559;0.17439368;-0.0502037;0.17295879;0.04525015;-0.091050535;-0.04160442;0.25585553;0.06760913;0.052824035;0.1308133;-0.05494575;-0.024302151;-0.029595481;0.13986325;-0.036995467;0.04118374;-0.18625166;0.15741338;-0.047369372;-0.0027950099;-0.07505036;-0.030663328;-0.064932756;-0.014315809;0.1652283;-0.2719855;-0.01926333;-0.006186161;-0.09726373;-0.13439216;-0.048221346;-0.03921162;-0.049422026;-0.002573125;-0.08242867;0.17005397;-0.12317344;0.33601993;-0.12474251;-0.06439736;-0.17638958;0.208635;-0.45650476;0.058178023;-0.03856131;-0.06249636;0.027129347;0.0061149225;0.18270081;-0.054657854;0.43683618;-0.05061807;-0.059693895;-0.10562141;-0.08588367;-0.12523542;0.13207522;0.14793909;-0.0076712356;0.15398201;-0.09437356;0.0022960037;0.2514669;-0.27914783;-0.03126031;-0.18757322;0.013910243;-0.06400159;-0.0014448644;-0.00600076;-0.1470865;0.003976158;-0.013981722;-0.03480972;-0.023821328;-0.14035377;0.14149535;0.030589383;-0.33899602;0.120309874;0.030051207;0.011647072;-0.0036030132;-0.055410843;-0.20446694;0.12786116;-0.34621206;-0.0014109673;-0.276208;-0.18639491;-0.055771317;0.10147077;0.01975512;-0.059914928;-0.3466519;0.06965593;-0.23195635;-0.0025441765;0.042243753;-0.023148194;-0.11009815;0.11337813;-0.021839283;0.24739952;0.0454899;0.22798626;-0.04223244;-0.05262175;-0.113425344;-0.08842791;-0.032727692;-0.29535556;-0.12552316;0.1447196;-0.035349432;-0.061339546;0.19031109;-0.08989214;-0.15059435;-0.031221714;-0.043341838;0.17225029;-0.008522904;-0.050403163;-0.2818025;-0.2107373;-0.30288562;0.24247503;0.27840602;0.05240395;0.23056294;-0.21901889;0.041019633;0.10149402;0.04360536;-0.05436918;0.02084159;-0.0008034086;0.23053189;-0.0399897;-0.12039255;-0.0613137;-0.04914787;-0.047810037;-0.0047183037;-0.33178094;0.009701917;0.056371324;-0.028522434;-0.124429695;0.0148877995;0.009472683;0.15742208;-0.06845728;0.24661401;0.037728705;0.02244733;0.038827486;-0.0121298805;0.07187392;-0.09820613;-0.305269;-0.13602121;-0.27073887;0.06408631;0.13387054;-0.016744789;0.08829623;0.048467737;-0.00048660976;0.051711045;0.07265927;0.20475493;-0.1378397;0.031374052;-0.36644605;0.092601806;-0.26916537;0.013038678;-0.1088429;0.03774927;-0.14558901;0.050541032;-0.036933467;-0.022645336;0.044286434;0.32873875;-0.17359518;0.0075034406;-0.017691033;-0.038416233;-0.047461223;0.11128045;0.07359025;0.18644542;0.12935969;0.07935986;-0.19561167;-0.004897492;-0.22659698;0.020769354;-0.08496649;0.18027839;0.007826628;0.018041493;-0.12938681;-0.34889647;-0.14609496;0.00630258;0.015023641;-0.19304809;0.088998325;-0.3817647;0.03450477;-0.06851876;0.024665752;-0.09508529;-0.042958062;0.029241337;0.059117433;0.27896595;-0.106414616;0.08947218;0.1366526;-0.12403791;0.10932769;-0.27853373;0.031209012;0.15205438;0.10914626;-0.26995575;-0.14398062;0.11486603;-0.007310218;0.11001455;-0.020428685;-0.26060265;-0.016916268;-0.2967035;0.09197683;-0.06325855;0.08200142;-0.050213195;-0.03449331;-0.02901232;0.029032148;0.18798472;0.023105254;-0.028419252;0.017557934;-0.0438642;0.0032075134;-0.042177964;0.022929704;0.08276328;0.11308921;0.11183352;-0.050490897;0.16139598;-0.015094296;0.032474566;-0.46127585;0.17560375;0.05439005;-0.0113500785;0.061259523;-0.008958304;-0.061562296;0.07116626;-0.039538145;0.011229452;-0.06837417;0.27296486;0.027295247;-0.45106146;-0.062223602;0.048465263;0.22307494;-0.034136612;-0.24564414;0.05948165;0.41275337;-0.042101957;-0.051898483;0.037328567;-0.113583975;0.28370583;-0.34369108;-0.025937445;-0.027574059;0.030157354;0.06852314;-0.026287679;-0.042224348;0.08026278;0.10223475;-0.019324893;0.07305879;0.008288025;-0.03808999;0.0796322;-0.095657654;0.001378915;0.03306308;-0.2509846;-0.003546698;-0.023480603;0.11945572;-0.056262065;-0.009490248;0.07485067;0.04679759;0.054148313;-0.051972922;-0.088317834;-0.04771997;0.050320506;0.26697025;-0.0060745752;-0.30133626;-0.21815135;-0.045271058;0.17501558;-0.035640687;-0.04806935;-0.00031384095;0.24662878;-0.0009506854;0.085177265;-0.008583045;0.11349234;-0.044518758;-0.20911896;-0.020310905;0.020506827;0.19378306;0.19277485;-0.0071706655;0.028209273;0.041632503;-0.20606346;0.029316055;-0.044642325;0.0698245;0.20029841;-0.23829001;-0.022314562;0.12167059;-0.1547953;-0.07001095;-0.13192959;-0.09778329;-0.15031141;0.026830658;-0.0645261;0.03992228;-0.04960669;0.010596736;-0.07267667;-0.0074238135;0.14410186;-0.050383147;0.008646751;0.02993935;-0.014540199;0.17902116;0.16407037;0.013203307;-0.03139103;-0.28874812;-0.028798347;0.09354715;-0.07437686;-0.019214157;0.054100543;-0.07545083;-0.036819994;-0.034742635;0.04929637;0.1677998;-0.23323722;0.10583586;0.030438533;0.14058562;0.11411558;-0.033511534;-0.03696706;0.08153393;-0.17345591;-0.12429935;0.26274863;-0.04686364;-0.022657018;-0.17511424;0.033904772;-0.09578506;-0.049051736;0.031990513;0.020045474;0.043944906;-0.29130477;0.15273914;0.1248882;0.07272346;-0.037958477;0.14574718;-0.081845164;0.013327392;0.09813552;-0.12250197;0.2940283;-0.03039155;-0.023104494;-0.08520968;0.049584236;0.030816825;0.066507846;-0.3240184;0.022767324;-0.05136293;0.011275075;-0.089328855;0.03452854;-0.010502629;-0.095088355;-0.27288067;-0.07691275;0.012538989;0.05177893;0.035882764;-0.023438742;-0.14255011;0.28573537;-0.03248457;-0.22667739;-0.10895952;-0.114151284;0.055528637;0.27673882;0.08125097;0.05123265;-0.088531315;-0.17694809;0.05045392;-0.03745661;0.0919425;-0.034444533;-0.09888601;0.0050673625;-0.04452963;-0.037920393;0.02991994;0.0034019891;-0.010592559;0.14827415;0.049173284;0.25432733;-0.013544058;0.19374734;0.041583307;-0.16742481;-0.06512139;-0.3313014;-0.46331027;0.08805479;0.020811861;-0.04664156;-0.03976404;-0.14627685;0.046723075;0.06961654;-0.09516972;-0.026731927;0.023857037;0.032168448;-0.02466457;0.04381572;0.15078485;-0.027481914;0.08836074;-0.003983612;0.018968124;-0.030657012;0.010220205;0.034981597;-0.023124248;-0.0060021635;0.011692843;0.0514344;-0.58189166;0.04048649;0.2277829;-0.19483247;0.0042367135;0.029687418;0.062110845;-0.2670758;-0.034089573;0.01780063;-0.3549343;-0.33145973;-0.13373229;-0.0020965692;0.33151627;0.20210944;-0.1445403;0.08849313;-0.2359818;0.039220735;-0.007339117;0.009775377;-0.07562003;-0.032112826;-0.13389987;-0.3620808;-0.33995262;0.004772344;0.029109728;-0.27261704
-0.123975985;-0.13131097;0.105731;0.110884346;-0.02132853;-0.040875424;-0.039109908;0.1380092;-0.012726975;0.113177374;-0.041900165;0.23660219;0.05176454;-0.02260976;-0.083480395;0.05302523;0.00879676;-0.38223857;0.022179337;0.18451083;-0.28134868;0.014663519;-0.20055372;0.17028743;0.0242902;0.051047195;0.005542574;0.13250388;0.107821;-0.11695462;0.16440873;0.092555955;0.124825545;0.011909387;0.078850806;-0.13675784;0.07878835;0.057209194;-0.226645;0.12424537;-0.017475236;0.031719107;-0.020579476;-0.30705744;0.08270689;-0.20485376;-0.062828146;-0.18276392;0.07972595;-0.030748459;0.011717658;0.25477046;0.0624426;-0.037031896;-0.03512567;0.017311217;-0.06394067;0.025348742;-0.041959677;0.13313068;-0.06666426;-0.021273695;-0.0077584456;0.10857055;0.15475838;0.12779765;-0.039537106;-0.03676093;-0.074979335;0.044909887;0.13556123;-0.013016026;-0.046445988;-0.026245836;0.28931424;-0.21887594;0.001536291;-0.11663676;0.092095755;0.0036302684;-0.035162482;0.098327145;-0.32265523;-0.02029425;-0.03343958;-0.10245728;-0.17370586;0.0051593105;0.02483614;0.07554128;-0.04926948;-0.04872319;0.13873601;-0.18502094;0.062196396;-0.19670261;-0.02631306;-0.22481859;0.24444434;-0.38166675;-0.03841318;-0.054666203;-0.057799857;0.04267414;0.113161035;0.30216056;-0.008658432;0.29039472;-0.066833206;0.032593053;-0.11246151;-0.13986008;-0.045414876;0.23543952;0.022030942;-0.05802631;0.28088868;-0.08384471;-0.029039158;0.11574538;-0.15818754;0.03331024;-0.045139257;0.026165344;-0.009616471;-0.07924174;0.17573063;0.011989122;-0.04268027;0.05770714;-0.05246761;0.17655905;-0.10605391;-0.029700296;-0.05807122;-0.15779525;0.12800264;-0.03065266;-0.032424863;-0.01066456;-0.1533603;-0.034024473;0.12675136;-0.27632108;-0.017556682;-0.18283416;-0.046486564;0.0098599335;0.069518715;0.043497905;0.06813374;-0.287372;-0.11419354;-0.15308744;-0.04655051;0.020952804;-0.013625674;-0.2642801;-0.03959733;-0.027675875;0.10193759;-0.07956176;0.10351111;-0.048168816;-0.018582135;-0.19833462;0.06026973;-0.028336411;-0.06065361;-0.20718509;0.105081014;0.00506188;0.059568405;0.168087;-0.2572855;-0.2459538;0.059878755;-0.030537728;0.15492566;-0.014818869;0.06656099;-0.33590013;-0.2097432;-0.271856;0.1494571;0.30471182;0.05009319;0.16388224;-0.13544089;-0.015709326;0.10491105;-0.004972912;-0.16867268;0.0010881705;0.016902572;0.2552642;0.09435516;-0.1630007;-0.012037915;0.008246137;0.100318484;-0.022132156;-0.24225903;-0.052841548;0.04913695;-0.047196057;-0.13344975;0.020925378;0.050268598;-0.014010325;-0.053820755;0.14104438;0.01103952;-0.026102997;0.13333043;0.032294463;-0.0903768;-0.16411138;-0.4992099;-0.26318654;-0.26209453;0.07998235;0.115975365;0.0057265335;0.0052035763;-0.016602272;-0.0063698064;0.08683244;-0.04775911;0.13404788;-0.25583062;-0.029725507;-0.3930231;-0.012213472;-0.2245718;-0.04495776;0.044829298;0.014788616;0.07008066;0.0128357345;-0.07668191;0.05233964;-0.0079727825;0.39738646;-0.15528768;-0.114907995;-0.009842189;0.02114696;-0.14943069;0.19648875;-0.024409406;0.0082155075;0.20653802;0.23265785;-0.19249903;0.003353689;-0.1222352;-0.04082916;-0.18225269;0.11052914;0.017349849;-0.021893276;-0.06929346;-0.30830058;-0.10520023;-0.16018866;-0.058877427;-0.10887949;0.25948122;-0.36445475;0.12765443;-0.07672143;-0.035512812;0.10282341;0.039669823;0.0103020305;0.04726081;0.31379193;-0.3226876;0.06409499;0.15054132;-0.16610813;0.17083934;-0.22208902;0.00087227585;0.20201477;0.13423139;-0.061755378;-0.22358465;0.2726689;-0.02169983;0.10144518;0.11512976;-0.18498123;-0.04081138;-0.23330057;-0.028090192;-0.020654837;-0.12566422;0.01157074;-0.13566723;0.018508015;0.0071687656;0.03712077;-0.028332379;0.029263647;0.008294262;-0.02536918;-0.009455007;0.18266717;0.0064213327;-0.021617275;0.17170788;0.20747292;-0.026038233;0.07817982;0.014926111;-0.0052851206;-0.43692762;-0.020227391;0.1301642;-0.1612606;0.031505343;-0.022086352;-0.035960667;-0.057713643;-0.03722339;-0.022150572;0.02533432;0.32833472;-0.050758395;-0.23653063;-0.117796294;0.15336493;0.11312913;0.0010615451;-0.054048043;-0.026858754;0.35994723;0.012935467;-0.1271696;0.028308798;-0.2646851;0.43158036;-0.2730227;-0.07584885;-0.039235212;-0.039818045;0.010447074;-0.20547974;0.043710884;-0.006314187;0.20471346;0.18282819;-0.06422401;-0.08884098;0.027325893;0.037895832;0.007138725;-0.012243886;0.0011185547;-0.41215694;-0.015571953;-0.008592839;0.06045946;0.07280402;0.030564966;0.15276194;-0.13453546;-0.05298214;-0.14514312;-0.29059416;0.012208541;-8.017458e-06;0.2676478;-0.14636603;-0.049161177;-0.22624929;-0.020211443;0.1526866;-0.037730355;0.05645999;0.01804567;0.12498681;0.035657536;-0.05620034;0.0026464504;0.032646403;-0.04242756;-0.14688535;0.0951666;0.05158254;0.2928305;0.1780984;-0.005650929;0.070762046;0.033962253;-0.08687074;0.027386857;-0.07654308;-0.056923375;0.08208363;-0.15734968;-0.1637;-0.06506694;-0.12775533;-0.1754349;0.006664667;-0.22436611;-0.09282354;0.0047090435;0.092433974;-0.034018174;0.05014605;-0.02525016;0.05886859;0.07331446;0.010643541;0.033407167;0.16190219;-0.0056139994;-0.14573433;0.14198382;0.106038086;0.054517116;0.057960674;-0.3402973;0.089526735;0.0088625355;-0.119438656;0.056052983;-0.039513335;0.02112793;-0.021472255;0.026960952;0.017014049;0.22223936;0.06044186;0.11486876;0.05345988;0.1899778;-0.0018623666;-0.052492157;0.07075379;0.048593584;-0.10399939;-0.19705905;0.18084921;0.06582679;0.091573484;-0.2389807;0.108021006;-0.065884516;0.06467552;-0.059520353;-0.058969934;0.23751792;-0.30880657;0.056373555;0.21760692;-0.13810502;0.03355436;0.20363976;-0.15215126;-0.090364955;0.016727597;-0.18923816;0.27233514;-0.029438099;-0.09598052;0.09906852;0.23070715;-0.07181993;-0.037371058;-0.28763795;0.059574377;-0.045511696;-0.040424336;-0.0056902315;-0.056854818;-0.046697233;-0.13762261;-0.22178821;-0.09091802;-0.05051692;-0.06652516;0.30278146;0.016424889;-0.13038076;0.08743809;-0.031344015;-0.21751723;-0.16139229;0.007575345;-0.03186544;0.20242187;0.060388222;-0.04888333;-0.07295071;-0.27760527;-0.06608666;0.0807617;0.027933558;0.011525072;-0.23658744;-0.0069292127;-0.029195482;-0.032243297;-0.024509642;-0.01834844;0.0052394643;0.29146904;0.0015923853;0.20414583;0.015440341;0.077091455;-0.012105085;-0.059941687;0.01338949;-0.22670068;-0.4607436;0.076131955;-0.013646112;0.0014239524;-0.035194743;0.11486739;0.0945747;0.03460694;-0.06654913;0.048086282;0.08067578;-0.03197415;-0.0066457745;-0.09929024;0.10909546;-0.011244;0.11930915;-0.070042655;0.01116977;-0.00860934;0.027340991;-0.0053707873;-0.13676998;0.018726489;-0.040739592;-0.08066191;-0.4117898;0.046583742;0.33700675;-0.21964625;0.05324934;0.12725225;-0.038700435;-0.21148904;-0.0009368186;-0.14062852;-0.28278592;-0.25999534;-0.010983679;-0.01795272;0.25440592;0.16394426;-0.11507403;0.17934494;-0.07462817;0.11703501;0.052381918;0.12574352;-0.21703632;-0.0583587;-0.05618636;-0.34429508;-0.2115368;-0.021206263;-0.025572779;-0.09445529
-0.33160454;0.005912223;0.25532082;0.09583637;-0.0023161862;0.030915994;-0.13180345;0.2669644;-0.022452297;0.022202283;-0.025680754;0.12326092;0.06969025;0.07169162;-0.09573062;0.1806103;-0.0008798532;-0.4503648;0.21875331;0.2027761;-0.20046954;-0.06298305;-0.24786061;0.14423513;-0.033769418;-0.07079978;-0.0051421574;0.13864152;0.07408161;-0.11069675;0.096716106;0.023958746;-0.03952585;-0.022072187;-0.04384461;0.028143786;0.12452804;0.021475725;-0.2553623;-0.0011719684;0.017605858;-0.020742698;-0.06591221;-0.17862229;-0.057284832;-0.12693433;0.0041308138;-0.08574418;-0.037133306;-0.007851073;0.038310442;0.14302967;-0.09436097;0.045022566;0.08141901;0.117728785;0.01617071;0.02591828;0.021045621;-0.026113737;0.036105026;-0.039014664;0.040973626;0.2026714;0.13575533;0.06343703;-0.029143393;0.05516992;-0.13037078;-0.01677648;-0.0009224954;0.026231743;0.064166576;0.14257349;0.19419336;-0.27096823;-0.012655256;-0.09434339;0.044549365;0.026007757;0.051885173;-0.072335765;-0.3564797;0.0698951;0.008012176;-0.20017654;-0.22235139;-0.0019947984;0.059870403;-0.015616615;-0.015960388;-0.12571828;0.10513335;-0.099979;0.06622818;-0.0022771817;-0.09770467;-0.10831489;0.094170064;-0.18962185;-0.032655023;0.01978976;-0.11834293;-0.005941862;0.14771126;0.43314928;0.037612267;0.0680181;0.071069136;-0.024068603;-0.071585864;0.06947479;-0.03416791;0.1508189;-0.097141005;-0.15545453;0.26549047;-0.10152706;0.068100765;-0.02999146;-0.13796292;0.0049524195;-0.22828943;0.015070238;0.03440678;0.039735384;0.18708543;-0.08225664;0.030277168;-0.004757638;-0.14718112;0.0051275706;-0.0712281;-0.10550124;0.008793341;-0.29653618;0.035886448;0.012952999;0.052631438;0.054856252;-0.043143507;-0.09810722;0.10048507;-0.2417214;-0.006490146;-0.20112923;-0.0034146167;-0.007544378;0.11812358;-0.054762945;0.0156029;-0.16947828;-0.0018318064;-0.22875065;-0.001505331;-0.015964823;0.0018694013;-0.11080148;-0.10867662;0.09309878;0.23388904;0.014204327;0.04013337;0.047761757;-0.0032866634;-0.27612305;-0.07043693;0.05194389;-0.24863377;-0.07534207;0.02219943;-0.015412459;-0.064735696;0.11888825;-0.14260413;-0.21887657;0.026602842;0.049295817;0.10941382;-0.015747339;0.0072065904;-0.3132348;-0.065508306;-0.22566986;0.069730535;0.30463627;-0.12505437;0.05628311;-0.09327337;-0.03740776;0.16808295;0.040599354;-0.18563542;0.028022645;0.012227189;0.109192185;0.1072769;-0.32077315;0.029067023;0.054611377;0.0751628;0.0051392466;-0.1776719;0.030401543;0.053345688;-0.022922099;-0.12839995;-0.042055257;0.012761131;0.054338314;0.007794688;0.08078658;-0.06591296;0.05408237;0.22778486;-0.0072991303;-0.0810521;-0.07577415;-0.5278992;-0.29159024;-0.114708036;0.04674873;-0.0965229;-0.014345085;0.082681015;-0.03788987;0.04600452;0.026179964;0.053499594;0.09478418;-0.20095167;-0.0032670442;-0.44637525;0.0731445;-0.23068698;0.070010744;0.10769252;-0.008224972;0.1581593;0.05252495;-0.16198514;0.01845831;-0.0008962514;0.24772036;-0.26847473;0.0065205344;0.030111479;0.06350709;-0.24390063;0.20678304;0.026973475;0.03435965;0.3182264;0.25077647;-0.21522865;0.08594233;-0.059860308;0.012495584;-0.10281114;0.19995661;0.015266529;2.1202708e-05;0.008835748;-0.24971971;-0.16331448;-0.21606797;0.07191976;-0.133705;0.048505552;-0.4460325;0.041796718;-0.021158045;0.03895912;0.07972368;-0.04453943;-0.032398116;-0.020107187;0.356281;-0.25952727;0.14825031;0.00234816;-0.07668262;0.0114163365;-0.3097865;-0.2108896;0.08207352;0.014708611;-0.0109342765;-0.14517881;0.17569652;0.03979608;0.028475787;0.29808664;-0.16049573;0.011823054;-0.34072036;0.076036885;0.014084818;-0.16909933;0.045798425;-0.04170561;0.0480471;0.0058996584;0.12275548;0.059229914;0.061272137;-0.028204776;-0.032475498;0.015582347;0.1353673;0.0199943;0.08334552;0.110449694;0.3623418;-0.13118242;0.0628588;0.03731918;-0.042072188;-0.4171911;0.13695343;0.029697174;0.03631292;-0.05343363;0.008759267;-0.019283501;0.07649289;-0.009644738;-0.009252637;0.023623161;0.39967486;0.054236736;-0.32975972;-0.13816135;0.21522868;-0.033607963;0.0041183857;-0.2136808;0.0067842277;0.30342126;0.012928925;-0.17793371;-0.033484314;-0.18056576;0.42045358;-0.25285366;-0.01994589;0.024211925;0.027235761;-0.032954786;-0.13198139;0.032603774;-0.101370566;0.06561662;0.2557443;-0.034532283;-0.11567473;0.13279733;0.049885627;-0.031387128;-0.026093703;0.05071856;-0.16228698;-0.03329766;0.21200185;0.1051836;-0.04191801;-0.01092014;0.19683102;-0.05777537;-0.16937697;-0.2240661;-0.08963945;-0.24004348;0.022446288;0.13583301;-0.05363421;-0.15572211;-0.20482692;0.006528234;0.05403253;0.05945633;0.031840004;-0.041384477;0.12267224;-0.048423983;-0.14973046;0.0072007384;0.13724744;-0.19349909;-0.14893664;-0.028450908;0.055348087;-0.01062373;0.25112838;-0.03286552;0.10853908;0.0070490944;0.009840657;-0.028909724;0.113860406;0.05635371;0.072381824;-0.0646508;-0.22575237;-0.043573637;-0.05508208;-0.07174288;-0.048623193;-0.16605686;-0.104561575;0.06446251;0.15008;-0.046335958;-0.042854458;-0.023470253;0.26613653;-0.044210967;-0.05489373;-0.014899695;0.019049171;0.0023686918;-0.09750082;0.090840615;0.1434134;0.01084341;0.057905946;-0.115742594;-0.06365576;-0.05088782;-0.106649026;-0.032771617;0.012781829;0.00090333866;-0.06423957;-0.0559946;-0.07421216;0.09615118;-0.12168339;0.09729482;-0.04388151;0.211751;-0.16544022;-0.115508065;-0.0580106;-0.040427368;-0.2179348;-0.15028162;0.208432;0.0023747047;-0.1274427;-0.1946627;-0.06969606;-0.16144976;0.054306798;0.012004372;-0.019182445;0.31204987;-0.33105958;0.07776231;0.09209673;-0.03963481;-0.02499171;0.13896489;-0.1565637;-0.0025307615;-0.26132458;-0.23207802;0.27389032;-0.056585927;-0.11836196;0.022997338;0.22579248;0.0034334434;-0.34110925;-0.35023293;-0.07205121;0.019186556;-0.003335812;-0.0020876199;-0.004681768;-0.28256878;-0.19816478;-0.17797388;-0.016056396;0.023270335;0.0481843;0.2611941;-0.06931921;-0.044690676;0.04714385;0.05380934;-0.20319754;-0.07044067;0.068549745;0.12139998;0.25921422;0.17526814;0.046880737;-0.05869777;-0.2889678;0.0074886265;-0.033175692;0.07587868;-0.021244181;-0.1657338;0.027140446;-0.02297971;-0.02153941;-0.043625023;-0.0065639364;0.018237127;0.23105262;-0.056690093;0.24300699;0.044821803;0.083194576;0.011001461;0.073694214;0.0008812747;-0.25041;-0.5148665;-0.0043795197;0.033860948;-0.0045588734;-0.06731352;0.15702444;0.04593508;-0.086239405;-0.092859134;-0.023264982;0.0036582372;0.05505159;0.015036725;-0.04579415;0.027128208;0.0050299847;0.14954008;0.061983056;0.017271008;-0.031764366;-0.006059587;0.06664942;-0.08003797;0.010696411;-0.02177042;-0.10477717;-0.5315815;-0.045338728;0.41085714;-0.48341838;0.05941737;-0.044326212;-0.036204897;-0.25346228;0.03489723;-0.18543391;-0.2506397;-0.31234434;-0.12991479;0.0027676935;0.41528165;0.26285395;-0.052787192;0.22527179;0.07786105;0.014379254;-0.060622327;0.13597137;0.06814691;0.036130395;-0.011328761;-0.23673725;-0.21194556;0.02233105;-0.022527823;-0.19631106
-0.11497194;-0.10346929;0.10444868;-0.09574057;0.035423916;-0.13830638;-0.07475097;0.28415346;0.021958139;-0.023859;0.005666723;0.034312498;0.123811275;-0.07303588;0.067733854;0.094958745;0.024112632;-0.53110087;0.11648739;0.26240137;-0.2527211;-0.027695207;-0.10333388;0.12038336;0.04786173;0.011671051;-0.043265276;0.08879678;-0.06557107;-0.01939219;0.09207264;-0.051679656;0.024178369;-0.022455573;0.039301444;-0.1485268;-0.029549042;-0.14977053;-0.19216402;-0.012893605;0.030338313;0.039108217;-0.079982795;-0.1599165;0.018544389;-0.32243282;-0.01561209;-0.108558714;0.092524126;0.02294752;-0.01941289;0.09537613;-0.20780398;0.018382644;-0.012550918;-0.033802968;0.06576277;-0.036603495;-0.029620621;0.033602316;0.053258583;-0.08146589;-0.023295578;0.2150587;0.05972006;-0.09692485;0.02449682;0.058514543;0.11145058;0.05738153;0.044100244;-0.030254798;-0.036693584;0.12690072;0.32179254;-0.2655383;0.026816014;-0.17489608;0.12282773;-0.004679275;0.0110654775;0.08074077;-0.22359064;0.11687846;0.03197066;-0.13902177;-0.26513252;0.07724062;-0.02787703;0.009345844;0.017411185;-0.21246932;0.20954883;-0.1446096;0.051072754;-0.10103512;-0.05445275;-0.1630621;0.10651175;-0.31180766;-0.0072781853;0.06953772;-0.062183466;-0.08741411;0.16067564;0.24529368;0.031877954;0.09128018;-0.01953488;0.058040082;0.11806531;0.012324193;-0.10462763;0.2606109;-0.11363274;-0.10856421;0.14084774;-0.14157143;-0.031015916;0.08475817;-0.12334558;0.0009544427;-0.15141217;-0.038119223;-0.03402469;0.033610087;0.10063342;-0.08675695;0.028226463;0.02930812;-0.09672682;-0.020007791;0.017584186;-0.12340919;-0.038632933;-0.30948532;0.03989564;-0.104675636;0.05857423;-0.022533841;-0.02375321;-0.106436945;-0.05520617;-0.23473676;-0.00011937251;-0.06044859;0.026676936;0.056538958;0.1205213;-0.12839825;-0.03097347;-0.089442156;0.004456994;-0.3431041;-0.009228205;-0.00506983;-0.046802927;-0.24371836;-0.06893791;0.057550732;0.13303013;-0.026144546;0.06294968;0.032116406;0.04089482;-0.29819265;-0.1621535;-0.00034397902;-0.24828312;-0.11775968;0.13473801;-0.0191053;0.050998967;-0.055656727;-0.24992934;-0.19253379;-0.04868422;-0.05848101;0.03240662;0.04188459;-0.04230745;-0.32992288;-0.07765514;-0.15712997;0.16189608;0.11856192;-0.14700699;0.23902221;-0.24635011;0.02343522;0.015620621;-0.004678316;-0.25360426;-0.023935843;-0.050739583;0.23246314;0.12110215;-0.22694412;0.052780125;-0.004879204;0.12727809;-0.0030556403;0.0016132162;0.048742007;0.13871753;0.025630845;-0.12644002;-0.013204477;-0.1909578;-0.09794745;-0.000203077;0.19878225;0.04301684;-0.022290584;0.14101681;0.016588489;-0.15109143;-0.1043813;-0.5645854;-0.28805745;-0.064654805;0.016981727;0.00686851;0.023738008;-0.13936785;0.038589578;-0.010208257;0.030536242;-0.027919894;0.11241889;-0.123110846;-0.0022107027;-0.50414205;0.043768242;-0.21694404;0.118432306;0.10441732;-0.0053151413;0.119180225;0.046376526;-0.06408484;-0.004448176;-0.04182522;0.3396377;-0.34935343;0.03178013;-0.0008901766;0.12094786;-0.2167698;0.16720332;-0.021136016;0.0979235;0.09989675;0.15250078;-0.12204072;0.08682421;-0.22474293;-0.040826984;-0.2045195;0.20997266;-0.025850551;-0.048657395;-0.015543423;-0.30193296;-0.38323238;-0.13539226;0.10089768;-0.11585458;0.1346368;-0.36281827;0.044273987;0.08102087;-0.086890556;0.013131147;-0.1579988;0.00053361413;0.006110902;0.16640577;-0.20477638;0.15942173;0.09517084;-0.16855441;-0.065564066;-0.09468399;-0.31524026;0.017967178;0.12581451;0.014526456;-0.19707401;0.19999805;-0.0045716767;0.055454;0.24129567;-0.13543808;-0.0032084293;-0.42985347;-0.003967062;0.003236654;-0.10956276;-0.041877966;-0.16050872;-0.0011618497;-0.0057506794;0.06607134;-0.08076673;0.041117862;0.02653145;-0.03544575;-0.049991596;-0.12877217;-0.011049704;0.093750164;0.13423184;0.4548312;-0.03345883;-0.021358417;0.012930582;-0.025851967;-0.2604539;0.09521713;0.12014077;-0.08737315;-0.05612174;0.03486056;0.058728527;0.05837793;-0.019573988;0.007257641;-0.0040482436;0.35182184;-0.0510722;-0.25482684;-0.058543436;0.30288252;0.0025004428;-0.008479845;-0.10403138;-0.0122430185;0.20896487;0.02631555;-0.12850997;0.029991675;-0.13338374;0.23767777;-0.22258541;-0.09699958;-0.023570146;0.05603893;-0.023911748;-0.04236538;-0.020998165;-0.0461251;0.028280659;0.3192765;0.0683334;-0.16613631;0.018227626;0.07349536;-0.17586353;-0.10099047;0.007317621;-0.1359568;0.046615638;0.06248497;0.20239154;-0.041754585;-0.057168283;0.08805364;0.04876442;-0.27570987;-0.27849206;-0.092365116;-0.28129733;-0.05001311;0.26192275;-0.05136515;-0.13657309;-0.26559815;-0.00038531478;0.21190622;0.005482263;-0.033110775;0.02271367;0.054055426;-0.03701643;-0.22349814;0.0070727766;-0.026285904;-0.0846961;-0.17817573;-0.024837656;0.22345683;0.16779502;0.080524854;-0.026198499;0.123995945;-0.05752363;-0.28434852;0.024458533;-0.018425144;-0.035726476;-0.032869324;-0.085988104;-0.18220977;-0.17313159;-0.080917194;-0.055160135;-0.11037352;-0.30976498;-0.0851749;0.039392125;0.10099427;0.021012994;0.02109568;0.046816785;0.17609599;-0.029990977;-0.13366757;0.05396645;0.060128685;0.02659868;-0.1089682;0.038356848;-0.01040902;-0.056409854;0.006742874;0.13551131;0.04166643;-0.025750734;-0.009729809;0.06278805;0.014851013;-0.046941634;0.05832971;0.055906635;-0.29059827;0.05334897;0.007156837;-0.014716634;0.022463642;0.18687545;-0.060633935;-0.11475452;0.023502579;-0.062945515;-0.18717317;-0.10723683;0.042255647;0.0008212493;-0.28120154;-0.032373827;0.009918367;-0.23068173;-0.050995484;0.16000375;-0.0019990308;0.16058509;-0.35818964;0.20522638;0.13081639;-0.2843405;0.026907554;0.17177296;-0.18670566;-0.1514666;-0.21093614;-0.07081902;0.12338666;-0.18933143;-0.27546552;-0.037445884;0.22243513;0.063845;-0.36262998;-0.30488434;0.03355249;0.035586517;0.07801379;0.019862086;-0.04269096;-0.3306307;-0.30254984;-0.2631682;0.016029762;0.060787607;-0.043978013;0.22616388;-0.015699647;0.004165031;-0.12697545;-0.025562951;-0.09663496;0.042522255;-0.023479415;0.014216632;0.32825434;0.1731724;0.053800542;-0.070952676;-0.24072742;0.021152847;-0.13224345;-0.0040268204;0.0485782;-0.068227164;0.023344817;0.1310393;0.009522733;0.027039707;-0.0027246755;0.2238747;0.23715502;0.0049148705;0.24811289;-0.0075805862;0.17412944;0.026433611;0.097675234;0.022377858;-0.4286084;-0.59006697;0.100180134;-0.03619885;0.015001694;-0.18893056;0.2589237;0.060440376;-0.08695553;-0.16841316;0.029485274;-0.012333062;-0.05203726;-0.0032013834;-0.20516783;-0.0050920774;-0.01684793;0.20089525;-0.029995492;-0.009591828;-0.030835286;0.15006058;-0.05893968;-0.21173823;-0.027383251;0.04445672;-0.14449733;-0.37254822;-0.00919969;0.2706789;-0.42278808;-0.036811583;0.011871499;-0.019875046;-0.06722797;0.08270708;-0.26418915;-0.15871528;-0.24517317;-0.11372106;0.01798661;0.5120969;0.1908198;-0.12027706;0.18744971;0.021280827;0.029442163;0.01610713;0.21304482;0.009739992;0.024148779;0.009817607;-0.115236774;-0.024773788;0.027588708;0.03125579;-0.14619473
-0.17618832;-0.006467606;0.028941799;-0.11637311;0.0075107343;-0.064818434;-0.12835485;0.17090493;0.0201386;0.00075768394;0.028168745;0.07320075;-0.02184967;-0.07715025;0.29317942;0.14409304;0.16741869;-0.474988;0.27091733;0.09907513;-0.16267157;0.05614703;-0.056693316;0.25336364;0.15267202;0.022837164;0.004670351;0.0960303;0.03393678;-0.0711204;0.06458224;-0.062293842;-0.108656175;-0.014935068;0.12751669;-0.009964925;-0.045361232;-0.05522872;-0.07799611;0.059727192;-0.05730202;0.0066798003;-0.070373185;-0.13777746;0.019167228;-0.14940228;0.02968344;-0.083644524;0.009961647;-0.041092154;0.07512147;-0.10771256;-0.22570409;-0.033248223;-0.04896919;0.054558758;-0.037625857;-0.06437007;0.08177138;0.07617699;-0.05192298;-0.00025310979;0.037714176;0.2823346;0.09063792;0.032583892;-0.0033988457;0.032443117;0.05791667;-0.0063353437;-0.017582037;0.055938605;0.018008571;0.120647624;0.20876084;-0.21955386;-0.011797864;-0.17810465;0.04518032;0.015276515;-0.063943684;0.06913897;-0.13391675;0.11951647;0.025381796;-0.22667049;-0.24594574;-0.055292547;-0.02349869;-0.044612512;-0.038999166;-0.08169389;0.18272592;-0.13839036;-0.057626598;-0.13578412;-0.018734042;-0.2693698;0.12069156;-0.2759609;0.026403477;-0.024877701;-0.19636726;0.012251356;0.09608124;0.21672414;-0.05044205;0.024899937;0.011420528;-0.018919993;0.050932568;-0.0707839;0.056445368;0.28422096;-0.05971824;-0.0489097;0.11945249;0.04828887;0.015984932;0.13462138;-0.14827266;-0.019877737;-0.17503746;0.026848085;0.037751734;-0.005130501;0.08206416;-0.060403857;-0.00431269;-0.035119895;0.061981965;-0.028098622;-0.013666331;-0.010527026;0.004355482;-0.26026142;0.02562929;-0.13915975;-0.044514045;-0.030967804;0.19267985;-0.00085165777;-0.13776322;-0.17671368;0.026129438;-0.100893036;-0.12505642;-0.03153676;0.025108706;-0.007316327;-0.00059993373;-0.082096264;-0.05628812;-0.2871412;0.026469283;0.042326037;0.024120308;-0.1033177;0.0772378;0.04623357;0.19546798;0.048961315;-0.0042083114;0.013366098;0.02394249;-0.32776684;0.047888163;-0.004801527;-0.3172452;-0.041397523;0.0010266763;-0.00948773;0.06585023;0.047917437;-0.2248408;-0.19926506;-0.030217469;0.025467409;0.05829545;-0.020147976;0.060772467;-0.3934539;-0.020864962;-0.15843086;0.30389073;0.21243498;0.048313335;0.20427561;-0.091509424;-0.010761217;-0.081640474;0.038106814;-0.24817717;0.027143838;0.013789544;0.100204505;0.09580356;-0.23027556;0.096249826;-0.05613927;0.14511125;-0.04283032;-0.02144695;-0.06320422;0.14705686;0.035921298;-0.12490584;0.00069265725;-0.031816054;-0.17291972;-0.020875903;0.23305805;-0.010128613;0.016181832;0.108236745;-0.006942484;0.04608298;-0.030427646;-0.5542628;-0.31517062;-0.08401713;0.13582529;-0.14417417;-0.0022612498;-0.045491625;0.021648178;-0.024449378;0.19183753;-0.0136348875;0.013762401;-0.15791754;-0.02952561;-0.37441057;0.082221806;0.04164846;0.1597817;0.2042384;0.0030913544;0.09102823;-0.028173188;-0.18783683;0.016424134;0.051801916;0.27221137;-0.1411521;0.05273564;-0.053493377;-0.06161144;-0.1966908;0.17558223;-0.04079492;0.20667198;0.075836115;0.09284581;-0.096258365;-0.02390896;-0.12623893;0.0555225;0.024368005;0.14165309;-0.03349138;0.04071656;-0.024771197;-0.25163347;-0.40157783;-0.18320099;0.10937632;-0.06809427;0.034818802;-0.20896815;0.051867228;-0.086537465;0.06943605;0.19610609;-0.050787594;0.030217063;-0.08097151;0.3013286;-0.05686485;0.2516616;0.054630946;-0.12308869;-0.089767426;-0.12736534;-0.4229375;0.10278355;0.11619202;0.18145788;-0.35450843;0.20323549;-0.023633208;0.22551681;0.20158279;-0.13417493;-0.13455203;-0.3909559;0.00093498774;-0.058884345;-0.034859598;0.0067805815;-0.16387415;-0.023035463;-0.021442337;0.037872232;0.011195551;-0.0044775885;-0.03534576;0.07135758;0.0032394808;-0.120546766;-0.005471499;0.046292227;0.22202551;0.29513454;0.014337138;-0.018869868;-0.06329486;0.004159452;-0.41360104;0.0057792263;0.14609985;0.1684291;-0.19561595;-0.02570332;-0.018870423;0.077693194;0.027211852;0.010767223;-0.0113267675;0.24908602;0.05150207;-0.42236438;0.16816796;0.23612405;-0.24510136;-0.006277563;-0.018121086;0.022324147;0.17034176;-0.035600424;-0.19266406;-0.048576675;-0.029747006;0.057918824;-0.14787129;0.025258392;0.0047332784;-0.009979614;-0.006305618;0.036788337;-0.039056063;-0.04388169;-0.022988746;0.19783098;-0.00067219755;-0.23626313;0.15607195;-0.048376374;-0.13427266;0.024485303;-0.042145394;-0.0064679356;-0.050024983;-0.08019743;0.16614804;0.0128515465;-0.19909193;-0.08911739;-0.051529817;-0.12138861;-0.3849114;-0.11017182;-0.44217262;-0.04344667;0.20172925;0.010769784;-0.044935834;-0.14925352;0.0332295;0.24730803;0.01950977;-0.05899102;-0.0073397136;0.0070170704;0.038977254;-0.17142588;0.003982591;0.20810282;-0.17409924;-0.22763582;-0.12466558;0.084938996;0.18883377;-0.0108237425;0.0041076695;0.11892578;0.04473959;-0.062491663;-0.04136919;0.09261869;0.0048114653;-0.059706435;0.03575519;-0.030339675;-0.14308381;-0.10836879;0.071942754;-0.21257953;-0.19528137;-0.10265501;0.051657602;0.2509177;0.006797718;0.04534988;0.030771097;0.26174426;0.04117272;-0.08048739;0.0055124606;-0.07566944;-0.04616065;-0.10985639;0.14484078;0.009865502;0.026649758;0.05848773;0.10974257;0.045450475;0.084614284;0.07301403;-0.026575146;0.07822841;0.009253617;-0.02228137;-0.023909774;-0.18873915;-0.033317775;0.027861647;0.053629305;-0.042324487;0.15279078;-0.21555099;-0.015745007;0.020717608;0.08605698;-0.13421394;-0.12387216;0.06545098;-0.13537729;-0.18152638;-0.14002493;-0.019625992;-0.23673259;0.0116447555;0.20618759;0.03968627;0.07278971;-0.29480156;0.05322673;0.21927203;-0.1335623;0.08559992;0.16801918;-0.18686806;-0.05589206;-0.16511269;-0.1290065;0.19522013;0.07562052;-0.23930992;-0.009149266;0.22855672;0.054088812;-0.29126328;-0.34946072;0.0058367336;0.025447385;-0.052146174;-0.079726085;0.05759197;-0.25750107;-0.1466035;-0.20936011;-0.054418627;-0.05327327;0.020222928;0.20860869;0.062186588;0.071765825;-0.18569025;0.07085931;-0.057980757;-0.09465282;0.029409815;0.24428166;0.19474795;0.21567571;-0.06532141;-0.04000584;-0.39037335;0.030543344;-0.12673861;0.025834646;-0.03909612;0.040048283;-0.039845135;0.15474911;-0.030371267;0.010941465;-0.019860178;0.00022987027;0.15944348;0.010286233;0.078653924;0.034056358;0.19785057;-0.018293638;0.20421278;0.043437816;-0.19126382;-0.66905826;-0.035564136;-0.02023074;-0.08641756;-0.13782834;0.15706268;0.14594139;-0.13536856;-0.17608623;-0.03567345;-0.13834147;-0.04915821;0.012617434;-0.026790239;-0.062548324;0.035143077;0.23095778;-0.014636078;-0.019127406;-0.027546898;-0.039238114;-0.0028605273;-0.18554272;0.019830441;-0.0016558171;0.0004186749;-0.2826645;0.031464294;0.08921669;-0.43243012;-0.041165818;0.00049408514;0.020984007;-0.109878264;0.07823032;-0.2860325;-0.19335723;-0.28915456;-0.05937619;-0.009425467;0.3158709;0.30268985;0.0012361151;0.19302973;0.016825773;0.064845055;-0.004757395;0.054260764;0.040954113;0.007711753;0.03631815;-0.182491;0.016715966;-0.015689356;0.053387575;-0.11757431
-0.28692964;-0.15526748;0.08522275;-0.027145714;-0.042971265;-0.19988434;-0.22811125;0.19042438;-0.04405402;0.032837015;0.01901299;-0.021990353;-0.13013569;0.023706555;0.20320483;0.12953809;0.092778526;-0.40548822;0.0250588;0.1294661;-0.16831335;-0.014412985;0.124995135;0.17851242;0.1071839;0.017424272;0.05040235;0.2167992;0.027894745;0.105076514;0.0060028;0.04818433;0.046901733;0.037231896;0.24041706;-0.13294552;-0.0799693;-0.1559062;-0.02281425;0.09198713;-0.0047340184;0.026920587;-0.19054393;-0.10272984;-0.032160047;-0.294882;0.0148810325;0.06851281;0.03634687;0.045123715;-0.034057308;-0.1762095;-0.033514783;-0.0061183614;0.021959636;0.1374577;-0.042653244;-0.19384338;0.05678402;0.075028345;-0.06577543;-0.05528893;-0.018581802;0.18374252;0.041645166;0.116769195;0.020601846;0.088568985;-0.092841506;-0.05608311;0.04869176;-0.00077824213;-0.0035623265;0.17391841;0.27501643;-0.2434305;0.037660565;-0.13176;0.22707368;0.0066481037;0.020786226;-0.040136945;-0.13714482;0.12528057;-0.027782153;-0.051513918;-0.081833966;0.009103761;-0.031563904;-0.034836687;-0.001360834;-0.07083649;0.17330164;-0.0055099847;0.030185018;-0.14168125;-0.082643256;-0.21823695;0.00454262;-0.06259348;0.010226249;-0.21288806;-0.10019615;0.03026993;0.018673062;0.28772363;0.021432562;-0.009400147;-0.03362051;0.03601726;-0.065777265;-0.077150285;7.6557204e-05;0.1261012;-0.09480497;-0.16738658;0.08813421;-0.0034132425;-0.05182784;0.07600041;-0.16708222;0.035131827;-0.24441643;-0.0068603302;-0.019088747;0.017138526;0.097632445;-0.1477771;-0.029322542;-0.019620815;0.32310653;0.046701223;0.07473352;0.12779245;0.030851858;-0.2428948;0.09648066;-0.20075905;-0.023302836;0.025858752;0.12520489;0.0053056804;-0.123587765;-0.11637699;-0.014577886;-0.00032554363;0.0072995583;-0.022363672;0.17482075;0.21566994;0.0037215983;-0.16628073;0.002438546;-0.49012616;-0.0047945413;-0.035808377;0.062804036;0.06408893;-0.18388091;0.048960432;0.24087362;-0.0031454288;0.05872776;0.01544732;-0.055961046;-0.2839006;0.06261654;-0.06302472;-0.22097442;0.06218869;0.026664102;0.12533846;-0.024361761;0.124733284;-0.04609751;-0.13614483;0.07944929;0.005458502;-0.037989307;0.0013032707;-0.04326957;-0.1621354;0.020436231;-0.10364879;0.29482302;0.26805323;0.0067215906;0.037944943;0.08216289;-0.008672971;-0.07250353;-0.029137146;-0.18528889;-0.0070820833;-0.048688505;0.15768304;0.13027878;0.00309543;-0.0026052992;-0.020010762;0.107083015;0.016298234;-0.14616622;0.0431428;-0.08704109;-0.065017164;0.034152463;0.022283051;-0.011316657;-0.19428991;-0.005233629;0.17994054;0.03446453;-0.003426439;0.11268896;0.0072147273;-0.027945358;-0.039388686;-0.408767;-0.34022593;-0.035897404;0.022973023;-0.09132257;-0.0027403715;-0.0936333;-0.025920883;0.011650456;0.20469067;-0.011755951;-0.26096714;-0.10443583;0.0304831;-0.21799754;0.01357199;0.13877912;0.0071547492;0.16905549;0.025263513;0.18348658;-0.04978334;-0.14089678;-0.026379496;-0.027559165;0.012941178;-0.11983956;-0.07951122;0.020034587;-0.096063696;-0.21484551;0.09603301;0.030717706;0.3280236;0.27961886;0.15440294;0.002287191;0.000650251;-0.067070946;-0.035739496;0.06873846;-0.0035609684;0.012297958;0.06612942;0.013464658;-0.28484794;-0.5032238;-0.3075412;0.40279844;-0.12404944;0.042609002;-0.17748348;0.0693807;0.07213699;-0.027525503;0.10110346;-0.21108589;-0.043476973;0.01887155;0.25096217;-0.06181528;0.15295734;-0.07189413;-0.1723228;-0.04646598;-0.13329859;-0.28617734;0.1423358;-0.156968;0.10001816;-0.3714798;0.15121269;-0.005016878;0.115040876;0.15346073;-0.030183848;-0.12575768;-0.5079683;0.05204381;0.07073833;0.022930294;-0.045762807;-0.30053708;-0.06068804;0.011949862;0.021365102;0.023679081;0.048968785;0.0772628;-0.056280725;0.017450789;-0.016456457;-0.012404095;0.093627825;0.24381603;0.13936098;0.09675498;-0.06476958;0.104104005;0.035899468;-0.41403928;-0.025494175;0.19137116;0.06474674;-0.16402519;-0.052048467;-0.038862154;0.19967033;-0.054515373;0.01519645;-0.0098065175;0.17257106;-0.011017566;-0.37550992;0.08969821;0.19388555;-0.21367511;-0.0579595;-0.00832418;-0.043761555;0.021232367;-0.012743722;-0.24772231;0.02867195;-0.17027572;0.110355355;0.13520452;-0.022548271;0.02863036;-0.018846093;0.0116248075;-0.03345274;0.040835135;0.0041544135;-0.064535886;0.06126759;0.033589054;-0.2277763;0.106440626;-0.032787587;-0.103389576;0.056783974;0.045795232;-0.068822876;0.07336614;-0.012516816;0.20856929;0.15746452;-0.24887131;-0.10326225;-0.08951282;-0.06897446;-0.41538826;-0.005981373;-0.4032877;-0.00014658831;-0.011101485;-0.050052296;-0.07970315;-0.21086477;-0.03892142;0.20871691;-0.011207975;0.032727227;-0.0212461;0.0007833412;0.021364694;-0.2534679;-0.042850453;-0.014493948;-0.03958339;-0.20261209;-0.25754037;0.11478014;0.09795928;0.06644955;0.011945667;0.0040755617;0.011895204;0.18234625;0.026651725;0.013726932;-0.027486615;0.11934845;0.08992701;0.037279878;-0.28772396;-0.013877792;0.07891967;-0.13169497;-0.06386644;-0.10191849;0.13139789;0.36939615;0.03492155;-0.05081171;-0.066296354;0.15386955;-0.00801317;0.008226325;-0.05013757;0.0024907023;0.062317967;-0.15926579;0.13158159;0.0269285;-0.05496223;0.061539356;0.31956276;-0.023057243;0.05029315;0.21953766;-0.024070842;0.18644346;0.010055759;0.03810859;-0.03481458;-0.14497772;-0.16144934;-0.09181006;0.013065612;0.012124373;0.21043022;-0.31771326;0.03921005;-0.044726662;-0.04723438;-0.12302562;-0.07431018;0.16573435;-0.30581665;-0.32191613;-0.2561478;-0.008630105;-0.19683982;-0.017703729;0.17221849;-0.0606609;0.22552189;-0.26146236;-0.0006116647;-0.038474683;-0.1769903;0.12965655;0.09047148;-0.07884371;-0.11005487;-0.19307348;-0.021757891;0.20445229;0.030734781;-0.2536564;-0.09062086;0.07199248;-0.05389968;-0.2019007;-0.34649557;-0.010761425;0.0051553184;-0.027636938;-0.1097565;0.030251153;-0.26926357;-0.18427388;-0.33680415;-0.036384556;-0.038112145;0.030993715;-0.029246712;-0.081377625;0.14899936;-0.34906718;-0.032984313;-0.07490599;-0.10878529;0.07886575;0.24709712;0.21401486;0.17636342;0.025728382;-0.1656089;-0.27988204;-0.07443248;-0.067835964;-0.10987575;-0.020010745;-0.045697566;0.054922167;0.23124439;-0.009283084;0.029652368;0.042885136;0.07441186;0.24650699;0.023446742;0.20972317;-0.004511491;0.20155758;-0.030725244;0.27033412;0.24015561;-0.27315322;-0.38589382;0.03159186;-0.015832419;0.12068015;-0.10082049;0.14781317;0.044664368;-0.10834135;-0.09308656;-0.00041286883;0.024509395;0.08138205;0.01354339;-0.14277594;-0.047708873;-0.0049911872;0.10101358;0.025138214;-0.0058384426;0.012397473;-0.13295253;-0.004631927;-0.06993059;0.0340644;-0.017661005;0.056920808;-0.26959807;-0.009513254;0.0762436;-0.38600904;-0.015801532;-0.21790028;0.03779108;-0.047045212;0.055638388;-0.2652868;-0.029092599;-0.1587117;0.13846913;0.03052737;0.21957454;0.38134408;0.10180789;0.28074965;0.09676918;-0.026220249;0.031229977;0.0073849703;0.19903903;0.021828603;-0.019879362;0.004691982;0.015869914;0.006904291;-0.023856333;-0.10457059
-0.31510082;-0.19571555;0.026438933;-0.16943273;0.047524553;-0.32683426;-0.25556067;0.27141032;0.032687064;-0.0143951895;0.0034667118;0.037219476;-0.079740435;0.038845576;0.27383137;-0.006131829;0.0832474;-0.41341043;0.19364716;0.13151509;-0.18737385;0.0021329245;0.08823535;0.18350908;-0.086964175;-0.012654835;-0.026104685;0.14047118;-0.027901271;0.032037638;0.02113017;-0.0052715675;0.17839527;0.0333352;0.22644919;-0.2023935;-0.023264278;-0.15696134;-0.22084929;0.12733811;0.036491495;-0.055734895;-0.13199633;-0.03483947;-0.047091957;-0.11416242;0.022439187;0.14109562;-0.014488925;-0.015196617;-0.030614534;-0.30827782;-0.010545694;-0.006039125;0.023683267;0.34411526;0.018555706;-0.21940385;0.10341677;-0.030734949;0.025898704;0.00091760844;-0.021999452;0.016496116;0.22541898;0.21091665;0.073860765;0.06925744;-0.10859472;-0.00089738035;-0.03711933;-0.03459328;-0.054068048;-0.038019568;0.2967687;-0.2586411;-0.057577208;-0.03981482;0.08295796;-0.014261956;0.064421855;0.0056027384;0.052146368;0.027218113;0.0021903259;-0.18138115;0.058455706;-0.0025223345;0.013968867;0.04259782;0.01453336;-0.072702676;0.22192094;-0.121089436;0.013964795;-0.030060884;-0.09587289;-0.10266105;0.06992235;-0.05714792;-0.005986491;-0.048216686;0.009301352;0.014979975;-0.033163626;0.33292198;-0.032275088;0.18655413;0.011515382;-0.048275854;0.04029082;-0.09926805;0.0065433825;0.1792754;-0.24299566;-0.10839559;-0.016536172;0.02574427;-0.0028728694;0.03910265;-0.055741135;-0.043663137;-0.18998094;-0.018532043;-0.017797554;0.022671146;0.16389255;-0.22003323;-0.0060631027;0.22940646;0.14249142;-0.10172977;0.100317605;0.05793802;0.019078031;-0.08066921;0.013520377;-0.16259234;0.03006725;0.0044753645;-0.06496283;-0.011202439;-0.15677093;0.0150907375;-0.024631485;0.04584734;-0.11595606;-0.029195141;0.14586891;0.1801925;-0.06439011;-0.07617137;-0.019098427;-0.5586715;0.021763578;-0.03467323;-0.019190881;-0.06638752;-0.13079503;0.02136756;0.10681223;0.033067312;0.22561851;-0.075478405;0.032077454;-0.25530082;0.13221414;0.039402176;-0.05327354;0.01569071;0.024963686;-0.028774288;-0.035881594;0.09742836;0.15117325;-0.15259156;-0.019965691;0.011763098;0.0069679325;0.0033236565;-0.073547035;0.055819295;-0.018115528;-0.0819429;0.16456442;0.20293888;0.0061141234;-0.037268553;0.084818855;0.05964952;-0.14342009;-0.07666813;-0.1918525;0.0063990485;0.06851332;0.009696255;0.09236479;0.075674705;0.17873782;0.0554407;-0.12800243;0.20256953;-0.10123552;-0.041833427;0.087622255;0.06977106;0.06645828;-0.028609077;0.13720255;-0.2292953;0.014565776;0.015368821;-0.029803341;-0.027515898;0.21295105;0.0037257525;0.036931;-0.03146473;-0.12499014;-0.14228907;-0.19240199;0.009490626;-0.1095811;-0.049892236;-0.08945615;-0.016693344;-0.01986808;0.2856334;-0.0022277024;-0.07173049;-0.029518062;-0.0522898;-0.13325311;-0.061554957;0.08855421;-0.029582074;0.07763254;-0.077221915;0.1662465;-0.08308644;-0.2343489;-0.007963203;-0.02458715;0.13386154;-0.058972985;0.019165369;0.03748822;-0.05079769;-0.14503808;-0.07332201;-0.0084364265;0.178482;0.20574716;0.011811804;-0.11018092;0.03226139;0.07800148;0.002337989;0.027962906;0.110071704;0.02791795;-0.055230085;0.10712707;-0.28443143;-0.5714403;-0.32016003;0.27596366;-0.16735399;0.042289447;-0.10858896;0.050944906;-0.1015664;0.036348935;0.040278677;-0.29030973;0.021780295;0.064450815;0.28063178;0.01906064;0.013943091;-0.09179861;-0.10017246;-0.040023427;-0.033880394;-0.31543657;0.26827627;-0.00084389595;0.11280773;-0.43249944;0.13819587;0.010768846;0.20330346;0.14189318;-0.0068631303;6.19802e-05;-0.43418798;0.027215369;0.04610864;0.02329986;0.015200887;-0.29417917;0.024962926;-0.037540518;-0.025550665;0.0031736786;0.058479887;-0.087818846;-0.076135516;0.06251724;-0.15414359;-0.003894405;-0.09836827;0.15473127;0.034750145;0.16503304;-0.05861838;0.15089346;0.0035902325;-0.44601873;-0.20141977;0.11612555;0.1451649;0.08222506;0.04026657;0.016438594;0.25241968;-0.07054703;-0.020541439;-0.04790497;0.15250805;-0.052134667;-0.4714451;0.21555312;0.090148434;-0.2798075;0.06260333;-0.07740571;0.078246206;0.07131937;-7.1221266e-06;-0.17792496;-0.01927825;-0.07794445;0.28677887;0.026364433;0.0940571;0.023248032;-0.04597271;0.010336463;-0.0680348;-0.054832026;-0.054153986;0.05403082;0.2524121;-0.04524973;-0.17988369;0.040041246;0.002164768;-0.07260307;-0.0325039;-0.05020838;0.1530014;-0.011965449;-0.16669671;0.21402223;0.007825656;-0.23744921;-0.09905848;0.042567506;-0.10060572;-0.42127222;0.016835783;-0.46179813;0.05947937;0.100453764;0.014877876;-0.094070084;-0.2651129;0.013266505;0.029743774;-0.0445573;0.024108611;0.045787472;-0.008708596;0.006541608;-0.2463485;0.036781613;0.14930218;-0.02018185;-0.14573243;-0.19504027;0.056366887;0.159885;0.06303763;0.0016655134;0.1625149;-0.04866662;0.16072911;-0.02789892;0.015502799;0.0545776;-0.18230334;0.079435654;-0.03351894;-0.17940336;-0.20246051;0.009689177;-0.15280482;0.0028471176;-0.13769172;0.21636295;0.3878902;-0.026891533;-0.11809266;0.007180906;0.16906518;0.0047642803;0.012791356;0.021326354;0.18895823;0.0019999153;-0.3224795;0.16612901;0.02615883;0.073563665;0.0942087;0.3149285;0.021475;0.21263164;0.08700232;0.03395057;0.13871954;0.038970776;-0.034132656;0.050582103;-0.09705595;-0.3438897;0.08601775;-0.045880474;-0.015944794;0.18209285;-0.22250608;0.04642456;0.0378036;-0.07274519;-0.3081093;-0.13429345;0.13232379;-0.34085315;-0.19507459;-0.038291577;0.10957336;-0.025307657;-0.010316992;0.03105021;0.026571238;0.16689083;-0.27889097;-0.019116415;0.30589753;0.033815246;-0.045270406;0.07288124;-0.088163234;-0.10142758;-0.1958318;0.1506636;0.12637836;-0.07487435;-0.33678266;-0.034190837;0.11544161;-0.040728312;-0.0059827967;-0.048968714;0.03159558;-0.0083960565;0.07169915;0.068265066;-0.037958127;-0.23464687;-0.13864595;-0.015719369;0.042560354;0.06587539;-0.009331163;-0.014918794;0.06307556;0.075308345;-0.29612243;0.00235951;-0.08084684;-0.15887572;-0.03399207;0.053008202;0.24991806;0.42255762;-0.04619346;-0.13061826;0.039534673;0.031660244;-0.16595152;0.037989784;0.052660998;0.043405797;-0.039938476;0.23138207;0.0013591098;-0.036034204;-0.0014246416;0.022205178;0.25470525;0.0036419823;0.13155188;-0.031191163;0.22281568;-0.011356255;0.31221533;0.23087208;-0.2699719;-0.29938108;-0.008542269;0.06399218;0.055464666;-0.1846223;0.09132022;-0.020999001;-0.08121302;-0.0961703;0.0082410285;0.03714172;-0.056974433;-0.033008352;-0.03380161;-0.06858139;0.0067151915;0.117206916;-0.05655705;-0.023600593;-0.11340143;-0.100110896;0.006942297;-0.11378675;-0.030319396;0.05164415;0.16120437;-0.24476373;0.0023381293;-0.028533943;-0.27195004;0.057165597;-0.23380084;0.03870934;0.024571808;-0.019966705;-0.2722122;-0.050743863;-0.18745635;0.37326005;-0.032567278;0.21396306;0.27201262;0.1779712;0.056796435;0.11221999;-0.0071529825;-0.0018762685;-0.03291302;0.22572728;-0.036465134;0.028477138;-0.0500708;-0.043795705;-0.00070073036;-0.021230752;-0.17215364
-0.27690697;-0.2487787;-0.126787;-0.08126148;-0.020341976;-0.17461878;-0.24674354;0.23928244;-0.029040722;0.12844668;-0.04189571;-0.046681244;-0.21904571;-0.055483524;0.22290865;0.07879718;-0.13965002;-0.4569944;0.25659266;0.072778106;-0.10687224;0.01961345;0.12702018;0.15786211;0.008597957;0.007467067;-0.027574945;0.13080505;0.020990685;-0.049922965;-0.02850941;0.012911908;0.19489667;0.07278224;0.19847313;-0.06954395;0.014680852;-0.24601674;-0.10209307;0.054075062;-0.0074232775;-0.0007242354;-0.16694674;-0.07081965;0.06807067;-0.19622885;-0.05628439;0.18233107;-0.19218665;0.02519724;-0.052835803;-0.2949178;0.026398284;-0.047275998;-0.012419404;0.28965992;-0.028166447;-0.1407842;0.02528001;0.05956409;0.021567183;0.03609071;0.019964168;-0.21589327;0.10874409;0.013839778;0.014340179;0.19458532;-0.28664732;-0.0103436485;0.03325396;0.030068824;-0.008035581;0.01728305;0.28185266;-0.27110255;-0.026553204;0.05225512;0.031882495;-0.013511437;-0.011140689;-0.082856975;-0.1986452;0.010475593;-0.032269806;-0.13122296;0.025979787;-0.027677983;0.046908505;0.013883438;0.038048938;-0.13720503;0.23011221;-0.15936513;-0.07444763;-0.03762557;0.025853738;0.027721241;0.18459041;-0.15629014;0.02925622;0.011706886;0.13103049;0.024029288;0.06468214;0.32572454;0.008546684;-0.032595914;-0.018157473;0.010604047;0.071728595;0.19036768;-0.030071434;0.10371723;-0.20490204;0.010468282;-0.060325634;0.049350616;-0.012468457;0.068350226;-0.21834657;0.0032418757;-0.23882133;-0.033786353;0.020561742;-0.05148753;0.10736304;-0.17182697;0.0028277128;0.2920432;0.16531803;-0.010885925;0.12739584;0.1521752;-0.035230912;0.029280573;0.08916633;-0.19840401;-0.029598923;0.04700952;-0.085421756;0.020415774;0.027319448;0.09801015;-0.028727805;0.1227243;-0.13032408;0.052347254;0.04911691;0.3137498;0.032159623;-0.099876456;-0.0071477955;-0.55939096;-0.06157496;-0.0006520106;-0.039336696;0.12814227;-0.20932275;0.035083447;0.121329114;0.007617974;0.21180713;-0.0027833404;-0.013754712;-0.25786933;0.2324307;0.0012412544;-0.05266646;0.08447192;-0.1337357;-0.04154307;-0.027872223;-0.03126137;0.11163287;-0.073284805;0.047705702;0.035016395;-0.0020423683;-0.0053966762;0.07521751;0.10877654;0.17467286;-0.05401706;0.06825992;0.18260352;-0.048207402;0.034005888;-0.05429901;-0.032936677;-0.14401367;0.07333814;-0.16062164;-0.054980576;0.0036265347;-0.16787946;-0.02745552;0.055715464;0.06382726;0.01716348;-0.0370255;0.12503235;-0.19916011;0.00087451376;0.1517619;0.004378233;0.05048652;-0.018718932;0.22000101;-0.38304275;0.048545856;-0.04143393;0.023791756;0.0009935389;0.083302625;0.009123932;0.14305435;-0.0033306787;0.008764084;-0.29704538;-0.11843761;-0.034881584;-0.04728676;0.041892275;0.034096472;-0.021574339;-0.03641728;0.20219079;0.0410943;-0.11180727;-0.18116114;0.042080417;-0.26500553;-0.04699911;0.11000872;0.03545041;0.13997222;0.022151012;0.30395427;-0.030628964;-0.27749488;-0.056183662;0.034634255;0.17617327;-0.1502832;0.072487764;-0.036903746;-0.06403815;-0.14646989;-0.040419836;0.049429167;0.11126926;0.07921267;-0.10399939;-0.19014065;0.010132976;0.013555494;-0.0039007415;0.050550632;0.1684226;-0.009639456;0.008588472;-0.01899475;-0.09851624;-0.58827025;-0.20479813;0.36139765;-0.16406123;0.19894041;-0.13717137;0.28586796;-0.09764308;-0.03462573;-0.054430045;-0.31403226;0.010685147;-0.012972668;0.07103064;0.04861371;-0.074017696;-0.06194728;-0.17847265;-0.08949775;0.06709594;-0.31420684;0.19490492;0.0055064484;0.1916912;-0.26851824;0.14612958;0.010495266;-0.048358608;0.058776926;0.009967648;0.20996174;-0.38051835;-0.03446985;0.044839922;0.038282443;0.003330446;-0.13021916;0.018818457;-0.00064747856;-0.12521571;0.022386475;-0.03301861;0.060745373;0.06265333;-0.049047936;-0.072625265;-0.015812477;-0.1812739;0.2330241;0.2075857;0.0026178623;0.11486295;0.14728679;-0.016047856;-0.2921302;-0.053087484;0.15658978;0.099946864;0.0056423876;0.039877538;0.04573691;0.23907694;-0.0019237875;-0.025005056;0.028136494;0.10762175;0.018768813;-0.41580838;-0.12857218;0.073437005;-0.2772111;0.050489746;0.04780443;-0.04460915;0.06754716;-0.011636412;-0.31630573;-0.015462042;-0.046869397;0.28348908;-0.005314661;0.19734693;-0.03720124;0.054806806;-0.018466854;-0.028124275;0.028905578;-0.09120925;-0.09872139;0.15661909;0.039986018;-0.18530136;0.10376375;-0.15582459;-0.102482975;-0.010735927;0.004718111;0.093947165;-0.026696919;-0.1535562;0.14250147;0.06193854;-0.34425086;-0.028768564;0.021716034;0.03525514;-0.2908288;-0.17892562;-0.37282246;0.024700064;0.1276321;-0.014569537;-0.08665209;-0.19913077;-0.013262431;0.033032686;0.055809997;-0.03401147;-0.021495016;0.16409577;0.00094149675;-0.07833748;0.010239045;0.09373768;-0.0930265;-0.13908969;-0.05794273;0.0025727819;0.08149511;-0.06048823;0.021070646;0.067739315;-0.032171387;0.23765911;-0.0016560988;0.065987036;0.012621684;-0.04979993;0.16405329;0.13458653;-0.17893836;-0.028367605;0.13243043;-0.19670755;0.12483477;-0.18597509;0.036944862;0.29530138;-0.031486653;-0.107042246;0.0404876;0.2109925;-0.0039696037;0.10734667;-0.045710724;0.0064764265;-0.043492198;-0.2187914;0.12539715;0.08119424;-0.016160285;0.056194965;0.28330797;-0.0025770578;0.2951202;-0.041987225;-0.019811569;0.096647635;-0.024654258;0.043981496;-0.018495766;-0.1576926;-0.26439375;0.13908756;0.15924884;0.06954406;0.2922044;-0.11406114;0.20653614;-0.022361299;-0.07770165;-0.3224155;-0.10614099;0.090426035;-0.30142048;-0.2977002;-0.005739168;0.17844236;-0.25139055;0.024215208;-0.021998586;0.026520997;0.11757403;-0.28836736;0.04698094;0.10424097;-0.048959635;-0.011945202;0.10576012;-0.11624714;-0.023780419;-0.22988456;0.18389145;0.12397435;-0.01551344;-0.2618838;-0.02169723;0.064824045;0.029555755;-0.17379862;-0.13983965;-0.035245717;-0.032524295;-0.062383354;0.10972825;0.0039629834;-0.23543939;-0.015158005;0.0082600685;-0.058344316;0.03162784;0.0036798802;-0.025320372;0.06600309;0.032809686;-0.27181664;-0.031495273;-0.16603525;-0.1561827;-0.061305474;-0.06685767;0.23529343;0.30486125;-0.035152357;-0.2437556;0.0007829055;-0.012005759;-0.18054523;-0.05237346;0.0009832948;0.1587448;-0.012899057;0.17115827;0.073194616;-0.026655417;0.02874467;-0.057223476;0.24074452;-0.013984779;0.20515127;-0.0052994764;0.26623088;-0.01368085;0.30314586;0.31314272;-0.06443671;-0.33433184;-0.006997475;-0.043059837;-0.020449974;0.042141367;0.08375987;0.086835794;0.09137863;-0.20391615;0.018441888;0.10695131;-0.0142569365;0.034176745;-0.1304216;-0.22599672;-0.008780764;-5.230149e-05;0.040917676;0.023085427;0.013297923;0.002901636;-0.019973582;-0.18100837;-0.0052888384;-0.044696413;0.10125223;-0.019356845;-0.02300956;-0.18370591;-0.15878981;-0.06337534;-0.24085309;-0.025166066;0.15347672;0.0012974353;-0.25262815;-0.25618607;-0.2555191;0.42009246;0.028066829;0.15510823;0.22172941;0.14221399;0.176293;0.02503788;0.025042212;-0.0034553593;0.0014337094;0.1947711;0.03194793;0.0590494;0.01608977;-0.05706594;-0.029776838;0.04762043;-0.20065098
-0.21842496;-0.2184965;-0.006984701;-0.0406609;-0.03426882;-0.18318152;-0.16821842;0.28282112;0.0130167045;0.066771746;0.015327151;-0.020237586;-0.14628927;0.13375235;0.34951222;0.117844276;-0.11740683;-0.5102429;0.1143955;0.0042120344;-0.22859035;-0.035937212;0.15496801;0.0058817477;0.025894796;-0.0332878;0.023028813;0.15108627;0.09875983;0.0212194;-0.12420598;0.035249982;0.1317851;-0.008251543;0.26954955;0.017629294;0.011132929;-0.10543916;-0.009745977;-0.046496626;-0.01464198;-0.024572145;-0.3196239;-0.047087196;-0.04093443;-0.12412557;0.029656092;0.18536516;-0.026568767;-0.03574786;0.016901286;-0.26050463;0.058822416;0.07096869;-0.020974053;0.3705595;0.03450027;-0.046767674;0.030224266;0.13571213;-0.0365956;0.110583216;0.0075178235;-0.19041081;-0.047254838;0.09047524;0.044151258;0.110512815;-0.03831649;0.024564821;0.036775958;-0.05112482;0.043025043;0.049642242;0.35242337;-0.19052176;0.054502822;0.07729268;-0.09260707;-0.0075971773;-0.05721677;0.006889183;-0.039948322;0.15962271;0.0035293007;-0.13756649;-0.070033096;-0.02443235;-0.03169582;0.041152023;0.0098740235;-0.08157167;-0.01978342;-0.13012193;-0.20825957;0.005750805;0.12196299;0.021436715;-0.017283902;-0.17137331;0.0056842845;0.1368022;0.12964444;-0.013949543;0.15340509;0.20700368;0.0292372;-0.011094644;-0.01510564;0.027395558;-0.11972814;0.22889398;-0.15218501;-0.023944732;-0.28674844;0.03753606;-0.027970027;-0.0014102987;0.03464727;0.118615426;-0.2825268;0.03643779;-0.2530899;0.03488364;0.017312324;-0.044166334;0.21090408;-0.10532426;0.009314764;0.21301658;0.13131192;0.002069052;0.1544868;0.018988498;0.017847553;0.059095304;-0.029808186;0.006821414;0.04124736;-0.07163401;-0.03865111;0.2300492;0.18856603;-0.09023762;0.057569556;0.0029606808;0.047351673;-0.043454904;0.05686109;0.32176483;0.061428957;0.022385662;-0.003558455;-0.505638;0.02586729;0.0221704;-0.014748499;0.09521724;-0.08015439;0.27455795;0.09346757;-0.04591076;0.18904911;0.028265154;0.017527403;-0.35154676;0.21198721;-0.034678876;0.04579401;0.029176041;0.020872455;-0.04395387;0.0040651592;-0.0031651168;0.2785807;-0.36463815;-0.025695456;-0.032390896;-0.09215577;-0.048949964;0.057517316;0.064503424;0.019423574;0.05811625;0.1753161;0.0055156965;-0.16867757;-0.03207833;-0.13845971;0.019968223;0.07968055;-0.08158776;-0.25279963;0.013516537;-0.03981185;-0.2605665;0.04245404;0.09853151;-0.02779232;-0.058999024;-0.124223575;0.046578195;-0.25127473;0.051189326;0.13868743;-0.00055829855;0.062010158;0.031747982;0.20820837;-0.20147355;0.070617996;0.15635963;-0.02558718;-0.015356071;0.1553542;-0.03012841;0.1350483;0.17994533;-0.11996292;-0.22552614;-0.120367445;-0.078973986;0.027660867;-0.012344883;0.031913687;0.06259241;0.03660487;0.24910124;0.009398609;-0.15174712;-0.28075022;0.051141612;-0.40946713;-0.16641703;0.11661472;0.10058023;0.15483175;0.013033129;0.24201119;0.06062702;-0.24505232;0.039002318;0.01676648;0.17271994;-0.11662797;0.04826229;0.036332667;0.04864618;-0.225385;-0.07314558;-0.048864562;0.092988946;0.06665048;-0.13439263;-0.15660548;-0.08163916;0.017050212;0.041558873;-0.04489227;0.18885234;-0.045060903;-0.020138549;0.05862274;-0.24041706;-0.42944476;-0.06138229;0.28634048;-0.09455087;0.1341996;-0.30937302;0.26652616;-0.21498953;-0.03437871;-0.07125706;-0.3127455;0.04104325;0.03277551;-0.18764046;0.009373635;-0.028050423;0.015536611;-0.05361078;-0.10500767;0.14972365;-0.22157846;0.15011933;0.070623815;0.24720345;-0.36513406;0.16266587;-0.023875212;-0.012805114;0.056116197;0.026872579;0.45575556;-0.4148977;0.10544371;-0.049818933;-0.060597733;0.035534296;0.0315632;-0.031205658;0.04381316;-0.14665394;0.039784957;0.03417951;-0.029397478;0.04622183;0.020476226;-0.053978108;-0.014180777;-0.2632552;0.21578424;0.254836;0.12719192;0.049775742;0.028001167;0.023679677;-0.36218506;-0.07306384;0.18349223;-0.019104864;0.028703107;0.036841784;-0.058754466;-0.013969177;-0.02245666;-0.0130646;0.018038023;0.0205868;-0.0168852;-0.32641158;0.009846956;0.10501934;-0.12857816;-0.061344318;0.044807937;-0.044944197;0.08292247;0.06264749;-0.25995734;0.03795818;-0.00914599;0.35652488;0.23036811;0.16593914;0.017902637;-0.024516562;-0.012075697;-0.0073206527;0.033533078;-0.08875825;-0.09520778;0.14609058;-0.050778043;-0.24559985;0.016991505;-0.0912889;-0.23229337;0.042524677;0.016764967;0.07229765;-0.01864675;-0.1478248;0.094678804;0.016332805;-0.27078316;-0.072343595;-0.048507612;0.19733329;-0.34087655;-0.13854961;-0.49444383;-0.0051616044;0.026262254;-0.0097924;-0.09741494;-0.23930798;0.0596248;0.027646078;-0.040712174;0.022265654;0.02774449;0.20597851;-0.056614127;-0.15919557;-0.021057483;-0.20255075;-0.16342697;-0.06384715;0.08123502;-0.19994888;0.0037223725;-0.012251152;0.02540391;0.008930862;0.08206388;0.2054673;0.013500672;0.008015135;-0.01771699;0.010894701;0.20457263;-0.07534403;-0.014943008;-0.07217398;-0.02459807;-0.03105356;0.085995205;0.0021852553;-0.16663015;0.32988557;0.07600758;0.016954357;-0.034519926;0.15613909;0.014128126;0.064988606;0.0359225;-0.02713904;-0.06505853;-0.2811644;0.04720695;-0.050755907;-0.0131622115;0.121835716;0.23480268;-0.035225224;0.2840167;-0.015609238;-0.002134575;0.019226048;-0.027589716;0.032272525;0.00019107918;-0.12500185;-0.19742003;0.14764972;0.06965841;-0.018284999;0.2835835;-0.1437327;0.122196205;0.054524925;0.102939256;-0.32149297;-0.16486436;0.03861398;-0.36443558;-0.25535372;0.04535082;0.10228737;-0.22207268;0.061632197;0.046204444;0.05633253;0.1193258;-0.13285804;0.0045191734;0.15608828;-0.018255712;0.05499804;-0.14572085;0.12601343;0.17729323;-0.086454205;0.22465535;0.12519734;-0.060804266;-0.2937651;-0.018708063;0.14732736;-0.01527329;-0.055202182;-0.086771734;-0.024225513;0.012617678;-0.0337947;0.033343222;0.011709407;-0.12301429;-0.06455164;0.07247862;-0.124476396;-0.053831358;-0.044104736;-0.008620655;0.11319396;0.010208709;-0.36400694;-0.035466183;-0.12563492;-0.16499792;0.067851886;0.034971137;0.08305245;0.20027857;0.030281601;-0.23777182;0.008426817;-0.0053246394;-0.038880803;0.046970487;0.014811343;0.056131303;0.010373301;0.32272944;-0.05625323;-0.008079302;-0.031972323;-0.1132667;0.1669182;-0.037235577;0.06813702;-0.0047697206;0.20765541;0.0026358673;0.42396808;0.26705205;-0.12199925;-0.29536387;0.001134155;0.025572326;0.03612931;0.09016819;0.07696158;-0.05436913;0.13462265;-0.06070543;0.011261332;0.062211066;0.04043345;0.0036643457;0.065276355;-0.09270654;0.018710034;0.12675408;0.033584964;0.019624943;-0.07316622;0.0079559395;0.027148446;-0.14836721;-0.03237619;-0.012511649;0.013599532;-0.021420121;0.07916807;-0.0942717;-0.27018815;-0.045071147;-0.25678268;-0.05110805;0.14869374;0.05089923;-0.33639243;-0.27781942;-0.21231903;0.34820354;0.0223005;0.15820587;0.038307186;0.23115863;0.15961392;0.07186356;0.047348496;0.0011854947;0.0810891;0.20249966;-0.0076905764;-0.075012624;0.102563605;-0.019062666;0.012581982;-0.06146472;-0.12510692
-0.019480018;-0.19392867;0.15810496;-0.004627223;0.016554888;-0.19259055;-0.32582852;0.20808473;0.038337626;0.23897755;0.025881957;-0.14886405;-0.037095398;0.0035541402;0.11453474;0.14263923;-0.14742249;-0.31670755;0.022263082;-0.05791967;-0.35459304;0.04840352;0.04221291;-0.028452761;0.04375244;0.040334336;-0.013354393;0.1792229;0.018920628;0.02623925;-0.119497254;-0.004270202;0.11099447;0.09582642;0.21017633;0.1800895;-0.1828945;-0.048132945;0.0731597;-0.025804734;0.043001793;0.058252417;-0.27733597;-0.11021412;0.028157108;-0.022357393;0.02588526;0.07066718;-0.06386813;0.0012940501;0.0548596;-0.23737991;-0.0024191642;-0.03911329;-0.019446895;0.3226099;0.011153721;-0.16608752;0.12244808;0.17664732;0.025263201;0.064520225;-0.061095785;-0.2321839;0.10937987;-0.13115431;0.024244603;0.05612645;-0.05404609;0.06483988;-0.048556622;0.032180008;-0.0005592674;0.04689762;0.19871773;-0.051724244;-0.025940407;0.034169346;0.03388271;-0.027147176;-0.002595904;0.2031038;-0.0721426;0.22903398;0.07471747;-0.2430065;0.019173644;0.05114372;0.0388931;-0.06923529;-0.048789963;0.03068017;0.16269816;-0.13693607;-0.25885895;-0.02862781;0.06848812;-0.05261886;0.2241068;0.16298926;-0.06323843;0.13726905;-0.059294242;-0.05193031;0.027160559;0.27441356;-0.0011611988;0.08265911;-0.08027216;-0.025202468;-0.084020145;0.18862534;-0.034777597;-0.29417557;-0.26275027;0.057494123;-0.041239142;0.02382443;0.038944345;0.0874615;-0.28966138;-0.041408148;0.033437166;0.010027518;-0.019499445;0.0150274625;0.1120168;-0.09347081;0.0147342365;0.1992334;0.28370366;0.25082523;0.026155822;0.066940635;-0.0068669287;0.056149244;0.15240158;-0.10983953;0.032959808;-0.014522409;-0.02784762;0.16781604;0.11634973;0.057354126;0.02328082;0.04975911;0.025024993;0.06763738;-0.16970792;0.26198122;-0.04999649;0.045563705;0.030197406;-0.35470095;0.04639223;-0.023936711;0.015560351;0.18521458;-0.12560926;0.19435221;0.15270007;-0.0028865382;0.2984014;0.0040043006;0.017922536;-0.23025163;0.25721532;0.03408136;0.09711445;0.09648672;0.04625231;0.045910396;-0.04058241;0.17991175;0.1910178;-0.4722036;-0.01892275;-0.016391037;0.0427098;0.08639804;-0.032618094;-0.05681432;-0.0480614;-0.05689304;0.2440631;0.158113;-0.015623964;-0.059976034;-0.21149454;-0.06344204;0.09672006;0.044332366;-0.009789361;-0.04272651;-0.009459571;-0.2657584;-0.19394071;-0.19546035;-0.10928082;0.05435355;-0.1996003;-0.13077912;-0.15224905;0.0050231656;0.12883362;-0.04780718;-0.072065756;0.00055525586;0.07925119;-0.091057025;-0.069162585;0.12526056;-0.038724404;0.016827656;0.18587548;-0.034354407;0.1024533;0.0127985375;0.06646873;-0.27236393;-0.06292865;0.048219614;0.04687593;-0.00072121574;-0.1110659;-0.020445615;0.0128081385;0.46343708;-0.008127669;-0.16291925;-0.3085391;-0.06390579;-0.3722294;-0.070283756;0.12182216;-0.08760084;0.06792973;0.0039250646;0.36784196;0.049371593;-0.17547937;-0.08331861;-0.058671456;0.12924281;-0.02888261;0.025850603;0.01884456;0.082713544;-0.2221439;0.09952352;0.028563762;0.11286852;0.049752794;-0.1807642;-0.06738967;-0.104031704;0.00557585;-0.044951603;0.0932101;0.058205776;0.030364385;-0.0012273251;-0.04306816;0.02558289;-0.3386072;-0.065392055;0.24901439;-0.21627173;0.20165224;-0.17049298;0.3281702;-0.3836852;0.05427542;-0.06159533;0.045472786;-0.02120932;-0.06446962;-0.32356107;0.3070872;-0.03157259;0.050738163;0.058050103;-0.028018525;0.047467146;-0.20957851;0.09509971;-0.018882077;0.10583386;-0.34237924;-0.07582165;0.02191703;-0.09362987;-0.3033724;0.06455889;0.2992287;-0.17507151;-0.025724396;-0.02751583;0.08086646;0.000650148;-0.067044936;0.028725114;-0.04467001;-0.052706633;-0.06008;-0.13748042;0.019505478;0.023685282;-0.041742746;-0.014134064;0.056669317;-0.12818322;0.09619036;0.26362592;0.20101708;-0.0016319689;0.13734524;-0.017637061;-0.281852;0.03399308;0.08399475;0.01918362;0.0066218097;-0.066521935;-0.050908875;-0.047288675;-0.0055907657;0.040356778;0.05736578;0.13152832;0.06325427;-0.23305269;0.0925773;0.15553786;-0.109878756;0.012295821;0.029295929;0.041851036;0.07008192;-0.0030660334;-0.31699476;-0.014599081;0.02975532;0.33332178;0.17523542;0.12942821;0.037818927;0.020425439;0.036542613;-0.16889833;-0.042482916;-0.019960215;-0.35501385;0.10058432;0.015232008;0.038900267;0.021262418;-0.06817349;-0.11745057;-0.07460206;0.011302745;0.07553077;0.008269681;-0.19737077;-0.03660396;-0.014709875;-0.2651601;0.20994602;0.031689625;0.19310991;-0.18869601;-0.16623293;-0.2968789;-0.06265798;0.21750015;-0.10992673;-0.06261992;-0.22907308;-0.05023433;-0.05819612;0.023613462;0.036185108;-0.008780154;0.15330681;0.066198215;-0.13400742;0.01950977;-0.088101216;0.05622564;0.009859701;-0.008319149;-0.04321019;0.03098528;-0.0005862372;0.014148383;-0.0714149;-0.050391518;0.16381021;0.038238887;-0.004734632;-0.03542107;0.20446955;0.16748919;-0.0042881016;0.059903536;0.059350174;-0.027690299;-0.11053906;0.07582084;0.06944235;-0.14589423;0.30559614;-0.044821203;-0.08733021;-0.0035641259;-0.04161489;-0.065575406;0.02883902;0.02008631;0.035931144;0.04120368;-0.44637546;0.09673452;0.06814667;-0.049591385;0.07333573;0.2328776;-0.06496696;0.13064307;-0.24416512;0.019215452;0.21189322;0.048006997;-0.052082848;-0.0421612;-0.084055096;-0.19328363;0.08794466;0.069471486;-0.0015945882;0.09875094;-0.026731938;0.15991019;-0.027665174;0.013499919;-0.17252816;-0.1767328;0.08859101;-0.11260543;-0.20867856;0.0029106238;0.047771297;-0.17008999;-0.059585538;0.0119160665;-0.040787417;0.13552228;-0.08141319;-0.061245795;0.05313197;0.024647942;0.08299667;-0.17369238;0.024970965;0.06534205;-0.054371815;0.27746913;0.15653075;0.075698406;-0.10697725;-0.016217388;0.07312007;0.0032284958;-0.18237746;-0.06591221;0.0035752058;-0.0069591934;0.04462089;0.054832052;-0.020071328;-0.16002093;-0.07598192;0.0063214474;-0.11734274;-0.012510553;0.03703212;-0.14073014;-0.08991128;-0.00634679;-0.58012605;0.074051626;-0.057928257;-0.19831078;0.091507815;-0.0706122;0.098097876;0.048666738;0.040663425;-0.16745973;0.11372472;-0.0029868325;-0.03390364;-0.11432567;-0.0032026912;-0.09138477;-0.004346382;0.3608101;-0.056864887;0.06268441;0.021922385;-0.03454814;0.07731114;0.045737907;0.13485587;-0.009241578;0.11966627;0.06879095;0.26964188;0.33800927;-0.008459499;-0.23870496;-0.05522534;-0.019279497;-0.1313335;0.15201949;0.11766639;0.008371599;0.2547796;-0.006798264;-0.079192154;0.10695704;0.03202295;-0.043100845;0.021707311;-0.21615127;0.023309695;0.22804362;-0.009822062;-0.015199227;-0.021089682;0.05401578;-0.036064856;-0.07739068;-0.023312623;0.014626555;0.1267822;-0.07899863;-0.040676776;-0.19168738;-0.06448289;-0.08964138;-0.16159073;-0.04190012;0.41201922;0.046983097;-0.2564628;-0.17636205;-0.07816335;0.161286;-0.0021450901;0.16218056;0.09310734;0.009785897;-0.18329588;-0.00598433;0.06066358;-0.045564458;-0.0018491027;0.26515707;-0.020703668;-0.18038553;0.15855335;-0.14693187;-0.010173555;0.014560078;-0.10426635
-0.049375627;-0.11083629;0.11510576;-0.24222064;-0.0038088488;-0.13428287;-0.23879594;0.2185443;-0.023206621;0.098520674;-0.0029153067;-0.05294647;-0.0052628787;0.017823039;0.22539784;0.08717665;-0.09004782;-0.2335947;-0.07853663;0.018335098;-0.44949058;-0.028615745;0.15790823;0.025337948;-0.07752842;0.007367852;0.026589802;0.12610307;-0.005022632;0.008661272;-0.123857334;-0.05062517;0.0703781;0.13573852;0.10441629;0.09695133;-0.22312354;0.08641341;0.07688646;-0.004077239;-0.052063674;-0.04574854;-0.31313232;-0.07443327;0.04965703;-0.027808966;-0.022466345;0.14401339;0.051892187;0.020605786;0.010553831;-0.21155146;0.03572146;0.031638972;0.059115134;0.05987171;-0.029178444;-0.055549815;0.005169816;0.28109875;0.040583175;0.21329698;0.06432816;-0.031512134;-0.03978838;-0.07576562;0.0026063137;-0.00926483;-0.1727588;-0.049069766;0.072498366;0.009631673;-0.00906452;0.07242435;0.10699939;0.0994805;0.0087651145;0.09407457;-0.11639327;0.06521421;-0.00084115163;0.26875937;-0.05580184;0.14870341;-0.058000594;-0.20856674;-0.061162725;0.007945228;-0.03640761;-0.021857992;0.06307009;-0.018994085;-0.0063350513;-0.15489887;-0.09415901;-0.07602093;-0.018581066;-0.0864767;0.13613471;0.11226452;0.06481609;-0.0115801515;0.12938964;-0.020860825;0.10482966;0.31903815;-0.0016148716;0.030152999;0.022396421;-0.037614696;-0.13281326;0.23223114;-0.15972416;-0.32095233;-0.09110201;0.17695263;0.003458422;0.20437816;-0.08078432;0.21526714;-0.22451152;0.007759498;0.09986987;0.0064311894;-0.06794438;0.046162374;0.019288534;-0.24758781;-0.045122247;0.26890686;0.14667545;0.19018708;-0.10936825;0.057797063;0.012686873;0.026063882;-0.0054941187;-0.13281576;-0.06688208;0.030339465;0.187496;0.060875054;0.09350346;-0.05896626;-0.031568095;-0.027829442;-0.06242644;-0.02155686;-0.086244136;0.12740043;0.02317587;-0.021780053;0.029426886;-0.31955627;-0.0050721415;0.029186238;0.037424106;0.12764762;-0.0884897;0.18231657;0.10399737;-0.028562814;0.19916597;-0.0077656456;-0.0050476557;-0.15386887;0.07297673;-0.027006848;0.0867774;0.023278048;0.15464401;-0.03555982;0.068997346;0.05583453;0.09412655;-0.54989356;-0.013890837;0.02053724;0.016891692;-0.046155203;-0.04231785;-0.017974835;-0.0051298756;0.14509472;0.1366174;-0.018324763;0.13418615;0.02223209;-0.14140317;0.020610174;-0.07285515;0.051032525;-0.015567806;0.036875147;0.0015052067;-0.15984748;-0.07575351;-0.16775607;-0.28190017;0.015752103;-0.19129859;-0.061624315;-0.16276878;-0.04551224;0.00030471885;0.08367094;-0.21711607;0.02624246;0.06894175;-0.13970262;-0.041593228;0.058606856;0.03710031;-0.04308338;0.27378947;-0.005411047;-0.16312557;0.054800417;0.059246276;-0.015600159;-0.08178414;-0.0804277;0.16251756;0.02282724;-0.19073974;0.00073463045;0.053567767;0.39577442;-0.04264263;-0.21773316;-0.23021704;-0.04255558;-0.1524305;-0.19054739;0.10629346;-0.00468763;0.01625912;0.00013821831;0.241372;0.025562203;-0.20016861;0.059526976;0.021384368;0.066712126;-0.15417458;-0.026962847;-0.073596954;0.022492379;-0.12308482;-0.001087894;-0.023003878;0.21180615;0.08900958;-0.017772133;-0.08023276;-0.0068677687;-0.016575271;0.01567237;0.12456022;0.0790086;-0.01896718;-0.012109586;-0.13120322;0.123373024;-0.48043123;0.034393415;0.33351266;-0.16347133;0.12805876;-0.20460412;0.3217044;-0.3274086;-0.05307991;-0.083067395;-0.19956881;-0.005746645;-0.0071209767;-0.1485081;0.36667597;-0.015417916;0.09679825;0.11748552;0.024370557;0.04828733;-0.09017869;0.026655821;-0.08711039;0.11874863;-0.32215652;-0.07298706;0.04890378;0.004605593;-0.4334547;-0.009015142;0.32783145;-0.09480546;-0.0051082685;-0.015321512;-0.020886999;0.02428215;0.03860072;0.06498478;0.08239995;-0.055675086;-0.040816087;0.0005258063;-0.029947901;-0.025153514;0.002348024;-0.06018843;-0.0028419378;-0.039027046;0.0250472;0.04002545;0.16187705;-0.041272838;0.18125522;0.04525554;-0.36874563;-0.028165143;0.0059444397;0.028242074;0.025159456;0.017870754;0.024863996;-0.0054085483;0.00062159286;0.0006235071;-0.018932665;0.1634946;-0.028823987;-0.21608682;0.15511169;0.026859544;0.09671385;-0.014331639;-0.0049457215;0.016291315;0.07938824;-0.010860831;-0.43288973;-0.06242917;0.09522874;0.25847587;0.079424776;0.050258882;-0.028380955;0.0016740657;-0.02009419;-0.030817352;0.02796122;-0.089471914;-0.19620301;0.12291511;0.0005480104;0.015838077;-0.023566019;-0.0994359;-0.33093023;-0.06680286;-0.03847494;0.06131421;-0.0072422517;-0.29026318;-0.16106328;0.027479403;-0.32137164;0.15146387;0.0069450177;0.3267433;-0.113424234;-0.17743707;-0.35221332;0.05802537;0.111081414;-0.08292102;-0.085025474;-0.28018048;0.039893795;0.025551017;0.018762352;-0.04888907;0.033287093;0.1862979;-0.029194688;-0.15364955;0.019802613;-0.06373338;0.1490653;0.10743861;-0.12712663;-0.06417984;0.005132361;-0.08395541;-0.00431533;-0.05039011;-0.014318534;0.27219138;-0.018251123;0.061557088;0.039076306;0.2178294;-0.04641013;-0.07261772;0.002989461;0.00024450346;-0.016149683;-0.00796093;0.00787615;0.077460006;-0.0282569;0.13473238;-0.02949812;0.043658983;0.026477324;-0.105141185;0.029507115;-0.05455736;0.0046549863;-0.022256868;0.040601056;-0.48513103;0.10981203;0.0040883264;0.054567385;0.06924267;0.1291347;0.050763797;-0.060501393;-0.23269358;-0.041128494;0.21535738;-0.009653721;0.013226911;0.03757398;-0.07266611;-0.26589075;0.09221892;-0.0046143127;-0.052088525;0.027701965;-0.09259822;0.15553704;-0.062167447;0.076833196;-0.11633801;-0.17887059;-0.016280055;-0.16543666;-0.1927338;0.010515719;-0.03404235;-0.20751812;-0.035915416;0.0075610345;-0.039749928;-0.053990044;-0.02021553;0.011840019;0.20937075;0.08916837;-0.07015168;-0.1317586;-0.038589735;0.08622447;-0.2345657;0.3216587;0.09208923;0.012696231;-0.09578686;0.015494424;0.03515476;0.035435617;-0.0826673;-0.13796452;-0.0032105437;0.0055813845;0.03699833;-0.015070821;0.04376043;-0.18018483;-0.018483575;0.0014820534;-0.08213668;-0.028647978;0.05416417;-0.06893949;0.030578602;0.20023598;-0.42318368;-0.027874123;-0.23458356;-0.22742195;0.010613931;-0.12739213;0.23549965;0.1769511;0.036148224;-0.22117636;0.21882842;-0.0042109564;0.09387867;-0.0650904;-0.06495042;-0.14691406;0.010206212;0.18848394;0.07298348;-0.024767844;0.00858045;-0.029624268;0.16633902;-0.00942996;0.06670164;0.02432982;0.13019924;-0.018371342;0.30818802;0.19724612;-0.06361164;-0.038945656;-0.0771715;-0.027426442;-0.19761117;0.20314014;0.09338133;-0.020844528;0.1657251;-0.08753499;0.051419936;0.27479604;-0.046547692;0.026673036;0.06524581;-0.13578048;-0.038851347;0.17635053;0.017276434;0.020850211;0.015074446;-0.020265892;0.05244545;-0.2577787;0.070878975;-0.040890276;0.35133496;-0.013598321;-0.053354193;-0.2604257;0.17099608;0.026180191;-0.18691052;0.0891406;0.35346687;0.12868428;-0.14082313;-0.1999483;-0.00876469;0.07454374;-0.06210805;0.10911067;-0.001111905;-0.19847338;-0.28284284;-0.0077476073;-0.022514926;-0.0054518273;-0.08423165;0.23747495;-0.012122741;-0.13500011;0.02981227;-0.2225117;-0.011913755;-0.028223641;-0.12235912
0.06818044;-0.1530126;0.21502307;-0.16635588;-0.0047954284;0.04325759;-0.32132232;0.2158402;0.0077184597;0.15113913;-0.011360122;-0.05897389;0.027628945;-0.103235155;0.16213971;0.12319038;-0.13371615;-0.14990819;0.017176643;0.054628547;-0.39393607;0.016516343;0.19589368;0.051990353;0.01803887;-0.059677746;0.025853824;0.068265654;-0.03955088;0.06776927;-0.048311673;0.019353626;0.03843955;0.03498562;0.17674728;0.056157187;-0.20070264;0.02175074;0.12491561;0.13228033;0.041905493;0.058301724;-0.34045786;-0.1828205;-0.07771734;0.10160792;-0.020469792;0.048112925;-0.07196613;-0.022670034;-0.023284037;0.038974952;0.04591417;-0.003377903;0.0007581506;-0.022206513;-0.013435244;0.0093111005;-0.014292565;0.1797415;0.013676181;0.261593;0.015792802;-0.0051133907;0.020872569;-0.048808914;0.0060947;0.07551557;-0.09910955;-0.028523017;0.079427764;-0.020452388;0.012993855;-0.15217353;-0.1101834;0.25201595;0.043817338;0.10595132;-0.20189345;-0.025295736;0.0073671346;0.31301373;-0.15623073;0.11485745;-0.0530917;-0.19077174;0.04673447;-0.014685421;-0.04123249;0.03836922;-0.036660306;-0.08727694;-0.079354934;-0.12653771;-0.085329145;-0.1059835;-0.117252715;-0.2242498;0.17694816;0.23348847;0.004320306;0.054343294;0.16705213;0.044611957;0.003072976;0.27242035;-0.009764635;0.05781104;-0.010631285;0.0026671556;-0.119892456;0.07620066;-0.07616475;-0.24394818;-0.05970445;0.31270182;0.13766757;0.100059204;0.030279556;0.2209148;-0.22076067;-0.010153211;0.1869494;-0.037231714;0.045772936;-0.04454861;0.12335085;-0.053030178;0.030908497;0.16750935;0.1304378;0.17355102;-0.15409125;-0.094906345;-0.039917216;-0.06575345;0.07667568;-0.1708854;-0.045880023;-0.012198335;0.29839376;-0.06264111;0.12246252;-0.07028697;-0.005395716;-0.04672275;-0.19064306;-0.026321398;-0.078481786;0.010142825;0.025906295;-0.13158914;-0.11057014;-0.256723;-0.0473234;0.013892005;-0.04128017;0.17670126;-0.04172226;0.14293711;-0.044180416;-0.04910827;0.30538723;-0.030193646;-0.030064179;-0.025690677;0.18150066;0.021253742;0.110824555;-0.019296665;0.06887226;-0.031569876;0.008443941;-0.047353685;-0.0043243677;-0.61359817;-0.033878893;-0.010347408;0.0030086972;-0.059162255;0.013064569;-0.019626576;-0.09628183;0.05215075;0.040430937;0.010901237;0.2357103;-0.066571414;-0.13838977;-0.050951015;-0.15561546;0.010599208;-0.053533364;0.056555245;0.022012735;-0.04496063;0.03911131;-0.075044945;-0.34375638;-0.073703736;-0.23690964;-0.15513138;-0.114558;-0.06418541;0.12762733;-0.06397556;-0.24750316;-0.04017323;0.036124986;-0.067609526;0.03892419;0.09643001;0.06653963;0.041549444;0.23001343;0.0846221;-0.13175127;0.08906003;0.09718221;0.026159974;0.02832628;-0.09308302;0.19232546;0.00959836;-0.28708264;-0.036907133;-0.07670881;0.3155805;-0.006004336;-0.3247229;-0.26028323;0.037771758;-0.05579205;-0.14654566;0.11033677;0.06116418;0.110557675;-0.0070960317;0.13130566;0.020293295;-0.1796155;0.040295016;-0.00015624557;0.066111155;0.073033586;-0.03061349;0.016828686;-0.01247078;-0.3102849;-0.004894988;-0.028214844;0.21664608;-0.06055925;-0.05889041;-0.2321597;-0.026798632;0.06678811;-0.0038950203;0.010174387;-0.057215285;0.05380097;0.064674415;-0.118593656;-0.032415643;-0.3694447;0.07892425;0.23114477;-0.22894086;0.3405708;-0.10746739;0.1539515;-0.4113274;0.0711069;-0.13113065;-0.12812015;-0.013037661;-0.010494284;0.0022368021;0.25047427;-0.10432568;0.057256315;0.088331975;-0.00085618754;-0.02429605;-0.070633814;0.07424692;-0.07874569;-0.011121423;-0.3300942;0.1195546;-0.062339913;0.09744312;-0.41056684;0.015409783;0.3176312;-0.10265453;0.07332712;0.050872523;0.034537215;-0.041973058;-0.034959417;-0.035400372;-0.06045504;0.06251138;0.030590478;-0.036846645;0.014128339;-0.04187821;0.024804901;0.10044304;-0.007412547;-0.13414101;0.14637841;0.12295895;0.34042108;-0.07354935;0.23867057;-0.046127547;-0.36934832;0.07218889;-0.074045554;-0.050475255;0.10242617;-0.012266501;0.10224007;-0.040147915;-0.046924338;-0.015944805;-0.06132408;0.19171213;0.02167308;-0.28186354;0.29634702;0.2687133;0.015494503;0.045933176;0.081878595;-0.023472045;-0.012670999;-0.029647542;-0.25575015;0.08104963;0.050669577;0.28881174;-0.0044168495;0.096466534;-0.009228512;-0.03321095;0.031357743;-0.011830986;-0.012684234;-0.036798622;-0.32116178;0.027582051;0.002980099;0.104229234;-0.09244996;-0.06287917;-0.317514;-0.077375144;-0.010770251;0.2155062;0.043116987;-0.36848387;0.030817855;-0.021438513;-0.3358868;0.08736952;0.085523315;0.28716472;-0.26012477;-0.2112742;-0.3029692;-0.050950687;0.17713742;-0.026188346;-0.14221624;-0.16235986;-0.049958155;0.21223508;-0.009911473;-0.029586302;-0.09413487;0.09671542;-0.046028413;-0.31463522;-0.030573921;-0.21766593;0.2658393;0.065748125;-0.24698661;-0.094776824;-0.113256;-0.02695665;-0.041900765;-0.03000124;0.04329375;0.10085439;-0.07113495;0.0033169296;0.007033232;0.23340409;0.10412946;-0.025630068;0.0089359125;-0.07945889;-0.1309297;-0.10825958;0.067491494;0.0671898;-0.070453525;0.11395568;-0.002779519;-0.10111263;-0.004758982;-0.16942857;0.044212963;-0.1538825;0.014935337;0.045432117;-0.05304572;-0.5709503;0.10624734;0.09249277;0.01897899;0.076955624;0.054941136;0.0057716044;-0.107227005;-0.14088663;0.017338343;0.33874878;0.028395848;0.05815447;-0.006116202;-0.051794562;-0.2129277;0.096507914;-0.022859992;0.02306592;0.025240889;-0.08811546;0.32246405;0.05771677;-0.022567257;-0.03678209;-0.2220329;0.13187768;-0.06889165;-0.1284791;0.07653961;0.0495284;-0.1609433;0.024370326;0.07124374;0.01138053;0.04067209;0.011865326;0.024144487;0.035600472;0.16835374;0.033318564;-0.043991257;0.00893226;0.15117453;-0.09097514;0.19289616;0.08424712;0.017824452;-0.109700084;-0.096608065;-0.051703084;-0.05254095;-0.29166594;-0.008962899;0.06965639;-0.053130336;-0.031999726;0.010873872;-0.06388235;-0.24190228;-0.17629074;-0.057206437;-0.08711343;0.039277904;-0.0637004;-0.06428521;0.018230148;0.19340666;-0.33224264;0.043355163;-0.17028551;-0.11870118;0.03297008;-0.08055144;0.3080253;0.062898174;0.0056443517;-0.08232266;0.11521433;0.032255482;0.2624814;0.07019337;0.038975164;-0.17042927;0.028359378;0.04513923;-0.04791554;0.00057698094;-0.021299979;-0.050792247;0.15766874;0.005089656;0.049239483;-0.029319005;0.091777734;-0.015632687;0.2885703;0.046249356;-0.13377854;-0.032510545;-0.0150133055;-0.006800836;-0.14504899;0.06651828;-0.033149;-0.12928818;0.13972172;-0.112152785;0.050028462;0.31365696;-0.0030695193;-0.01224972;0.023473047;-0.20614772;-0.034449637;0.24323377;-0.056919657;0.025343621;-0.03259601;0.05706441;0.028901286;-0.14068721;-0.035012864;0.031488042;0.2119418;0.13005821;0.07560831;-0.20302486;0.062781096;0.055681616;0.0006979396;-0.024087133;0.25948817;0.08597735;-0.12952177;-0.24421509;0.07314522;0.112265885;0.020020772;-0.09985455;-0.18846971;-0.050015584;-0.40057236;-0.020140925;0.027152946;-0.016624857;-0.09140231;0.12896357;0.038141888;-0.17696048;-0.112791635;-0.22708964;0.00837302;-0.029876998;-0.028386097
0.07157283;-0.04741262;0.10336851;-0.22851843;0.016273258;0.119941756;-0.3456329;0.29934016;-0.0037715193;0.2363062;0.00021458358;-0.25052097;0.05424256;-0.0917755;0.08741344;-0.020432271;-0.09746846;-0.10904626;0.17440781;0.073777094;-0.26975963;-0.018317237;0.14608367;0.11097216;0.041637287;0.06728815;-0.015650654;0.00077177014;-0.039518006;0.15460758;-0.18399273;0.030153321;-0.040551655;0.084492505;0.121175565;-0.0014453103;-0.24358113;0.08116812;0.07250873;-0.017627995;-0.04040146;-0.055478644;-0.3170616;-0.21053854;0.057341397;0.008079891;-0.02533338;-0.0022937723;-0.076343276;0.00051015435;-0.013748103;0.05645761;0.01937173;-0.021039952;-0.022189502;0.060151238;0.00032515632;0.0873922;-0.06633047;0.24309744;-0.08688595;0.26331958;-0.026415333;0.0072785118;-0.098565705;0.06352076;-0.0048860083;0.21476857;-0.0991564;-0.0052387994;0.0923239;0.014567728;0.018927544;0.054805964;-0.103737555;0.099044405;0.023434767;0.029246941;0.050496902;-0.007961413;0.038864862;0.32576978;-0.0640358;0.16704546;0.048639253;-0.20940828;0.051600106;-0.0091407085;-0.009354202;-0.03672155;0.01405393;0.0019267608;-0.03391541;-0.060142722;-0.06240798;-0.045548737;0.042887997;-0.11714672;-0.0687655;0.25291926;-0.04369976;0.09348714;0.1272233;0.049081817;-0.058876798;0.15504949;-0.006965644;-0.18052936;-0.01396301;0.07930467;-0.16547443;0.24260542;-0.15475537;-0.18583384;-0.09296071;0.19498762;0.21537384;0.25011188;0.020202301;0.23608702;-0.16656673;0.03337726;0.12735444;0.04370694;0.034281634;0.055900652;0.016859608;0.05537479;-0.047710374;0.17014925;-0.0018184496;0.14442103;-0.21885377;-0.0017275977;0.04890438;-0.41197425;-0.0054977173;-0.07441098;0.018760862;0.03132292;0.17534044;0.04217769;-0.03191344;-0.17041367;0.010820261;0.0036134294;-0.15626971;-0.0114429165;-0.024156554;0.0045325053;-0.04755116;-0.014695109;0.057603464;-0.1745286;0.023592677;-0.013513631;0.027309598;0.06830164;0.05134399;0.17526491;-0.03160047;0.03631667;0.10472822;-0.011290283;-0.002051815;-0.0837538;0.055062592;0.043276798;0.17783134;-0.12964551;0.20936434;0.04443492;-0.021144422;0.14774384;-0.02239534;-0.47215116;0.04492354;0.012022017;-0.115285695;0.07517669;0.020010145;-0.26478487;-0.1327038;0.06018788;0.0104254605;0.019736083;0.13238394;-0.021675559;-0.105081245;0.04824624;-0.009598495;-0.0823645;-0.096195556;-0.034975126;0.057937544;-0.0037034512;0.10181045;-0.011561006;-0.29405162;0.03663888;-0.18057625;-0.12051423;0.011932124;0.034955874;0.10207496;-0.027129821;-0.32625812;0.05957725;0.12492845;-0.17182048;0.069751084;0.22426811;-0.044247575;0.023055417;0.19165389;-0.011058948;-0.085147955;-0.04610811;-0.005228819;-0.0773243;0.15074953;-0.21730822;0.17585605;-0.040747453;-0.111134954;0.067312144;0.011879596;0.38948998;0.024841603;-0.18646912;-0.27860004;-0.020574125;-0.10990223;-0.06310547;0.055638086;-0.016961979;0.10842188;-0.034317534;-0.019421607;-0.014422451;-0.20930982;-0.001471802;0.02963237;-0.003468911;-0.032936618;0.021903865;0.0035636465;0.085884474;-0.27471977;-0.17395602;0.030911895;0.08763297;-0.062146626;0.0046954504;-0.1585728;0.039827965;-0.03800377;0.015399989;-0.029491233;0.0009916081;-0.049977254;-0.027963027;-0.123590715;-0.11013351;-0.40759236;-0.076912515;0.053201087;-0.12728511;0.2761043;-0.038205195;0.07076593;-0.2369537;-0.03295884;-0.119246416;-0.32504267;-0.0032147185;0.04502541;-0.028045792;0.2696852;0.043973748;-0.053453784;-0.03845142;0.12068519;-0.095959045;-0.0100630075;0.05025234;-0.044134583;0.028594343;-0.29454324;0.039114106;-0.00065020256;0.0838884;-0.41194627;-0.06559534;0.43113816;-0.14797328;0.07610361;0.03216835;0.19718903;0.014924126;-0.07875536;-0.047572304;0.057838775;-0.0006561196;-0.008766589;-0.09264117;-0.03972565;0.0033812101;0.00956174;0.076817095;-0.04860078;-0.09802287;0.08996875;0.30120793;0.25341615;0.039142698;0.10300256;-0.047418978;-0.3226855;-0.013049171;0.015537735;-0.023126833;-0.09847706;-0.033724714;-0.028532078;0.045802794;-0.040625602;0.07278457;0.03484923;0.3280312;-0.023490464;-0.18087;0.23011635;0.1950663;-0.06730436;-0.060043883;-0.06266109;-0.027366146;-0.14168626;-0.017278867;-0.18787356;-0.049972627;0.16052741;0.27160165;0.09979644;0.10468447;-0.0046176226;0.016037533;-0.027595187;0.0088242;-0.005482022;-0.012978297;-0.34968093;0.13330977;0.025173247;0.033944514;-0.06799611;-0.02036684;-0.41654056;0.039456148;-0.061822876;-0.05270774;-0.032963965;-0.27106428;-0.011350335;-0.026669161;-0.34123194;6.376262e-05;-0.02684993;0.3812923;-0.19893469;-0.22865812;-0.18109545;0.018883914;0.17291762;0.07105552;-0.16525435;-0.2094829;0.02586809;0.12029031;-0.05295459;0.019456645;0.010304817;0.13840757;0.011812078;-0.37098005;-0.07082988;-0.0672958;0.23313254;0.04559266;-0.23691799;-0.106174566;-0.08717864;0.17446686;-0.035251677;-0.03961801;-0.017847795;0.0875728;0.030209282;0.12574966;0.005341167;0.14343098;0.06478548;-0.06612318;0.112246014;-0.22342099;-0.03068633;-0.11549196;0.027150296;0.06917695;0.065666124;0.049524873;-0.009392704;-0.12053684;0.0042616907;-0.29304966;-0.0057456996;-0.11049368;-0.027571563;0.08543041;0.041220427;-0.4518054;0.012506023;0.11196241;-0.05051348;0.0023553479;0.21278651;0.024501618;0.03463757;-0.05324521;0.024284625;0.2518887;-0.045288086;-0.06660447;0.0039017487;0.08844523;-0.39765245;-0.045273565;0.040073246;-0.0033261648;0.06379333;0.069204144;0.34649044;0.048749406;0.044529237;-0.24034862;-0.10795158;0.13816091;0.016760275;-0.077047504;-0.07746769;-0.054597992;-0.12803744;0.044724863;0.011057782;-0.016296765;0.047849674;0.06722232;0.21126169;-0.05313266;0.12002553;0.022297602;0.13809448;0.09357835;0.071634956;-0.08456153;0.22100171;0.07822604;0.024374636;0.08974381;-0.03017421;-0.030825365;0.046590764;0.019785244;-0.0028660607;-0.05558838;0.03732279;0.005275728;0.042598903;0.0499273;-0.24783921;-0.047480397;0.04774916;-0.063110426;0.0016612506;0.020624904;0.12572691;0.22673947;0.31890553;-0.14048725;-0.04432748;-0.07793325;-0.002693153;0.07847151;-0.12137854;0.2482785;0.048252665;-0.05229491;-0.115966216;-0.0071608117;0.037966125;0.27575058;-0.051690996;-0.0053322287;-0.016488036;-0.06140869;0.13868341;0.046004385;0.015119797;-0.02399414;-0.11274722;0.21112724;-0.032595728;0.3042678;-0.0003148588;0.061538164;-0.048691787;0.37986058;0.09477638;-0.13077755;-0.013577282;0.16104653;0.046440825;-0.21259235;0.08437733;-0.006204896;-0.06264436;0.10102096;0.0026184623;-0.07675519;0.3931611;0.027606623;0.015376158;0.0075138784;-0.45152804;0.02540456;0.23816721;0.023349104;-0.03186799;-0.016142802;-0.10469593;-0.03030337;-0.2540605;0.056213263;0.013888029;0.19620529;0.07407895;-0.05823445;-0.1970242;-0.07891216;0.039658003;0.028549992;0.011831293;0.25410408;0.18060382;-0.15178525;-0.17833853;0.024956929;0.12156683;0.03926283;-0.16710804;-0.11648846;-0.16420649;-0.38165998;0.009051732;-0.09171274;0.036559366;-0.13911153;0.04745991;-0.07386857;-0.05706691;-0.20737733;-0.30371964;0.045025013;0.053630214;-0.03124307
0.04379616;-0.10852362;0.07296536;-0.15959884;0.024166703;-0.01671392;-0.1992489;0.16153014;-0.036557056;0.13522302;-0.036418505;-0.19878565;0.18295817;-0.092363246;-0.0075697587;-0.0013249902;-0.05674792;-0.07945902;0.18285319;0.13457382;-0.16297443;-0.04143557;0.16617878;0.21252212;0.03210735;-0.05467217;-0.014514419;0.11749187;-0.07661984;0.17795217;-0.05960767;-0.076937765;0.06842945;-0.048104007;0.079282045;-0.12526152;-0.21128878;0.15056367;0.031562965;-0.02303574;0.009851098;0.04119532;-0.2736842;-0.080238275;-0.012725724;0.14671993;0.043567277;0.11952;-0.28286126;0.03463287;-0.0062818355;0.010614581;-0.14828712;-0.01932869;0.004868447;-0.0557731;0.018792734;0.046553027;-0.063901775;0.22174934;0.032794382;0.30601025;-0.025171079;-0.11330123;-0.11076015;0.14671816;-0.03683316;0.224856;0.04414819;0.01673175;0.15750864;-0.014407575;0.00036262345;-0.066755295;-0.08672805;0.19017786;-0.091133386;0.028584452;-0.09367536;0.0074506784;-0.03391255;0.43816185;-0.20317988;0.16806424;0.013164597;-0.034768756;0.17546594;0.023981031;0.022582253;0.06391118;-0.043433003;0.081295535;-0.18841277;-0.17887603;-0.14643666;-0.12828882;-0.059550513;-0.19054487;-0.1358863;0.276538;0.0030863471;0.1092717;0.16480355;-0.02169213;-0.10759729;0.117590405;0.0017525357;-0.18059006;-0.043310918;-0.03757496;-0.018904641;0.13422512;0.057504196;-0.02021125;-0.039860517;0.2050035;0.16039126;0.17155175;-0.032796998;0.20237373;-0.27345657;-0.0077526597;0.034295242;-0.023873148;-0.005201972;0.013975009;0.13324918;0.14626347;0.0040922957;0.13496625;0.0016737717;-0.09259035;0.012080203;-0.16401824;-0.00688278;-0.3895787;-0.052249994;-0.070062056;0.04943026;0.028706249;0.16975966;0.17232575;0.022079898;-0.07039862;-0.050001986;0.0063948757;-0.2644742;-0.023984838;0.0071704052;0.032056417;-0.0020640995;-0.123466104;0.0044192947;-0.016717685;-0.0041794814;-0.0021522262;-0.017787699;-0.049510423;-0.013051333;0.13851343;-0.046698682;0.05407854;0.17973658;0.067733236;0.0067288675;-0.19733474;0.072288856;-0.020449989;0.13414487;0.004191677;0.23581724;0.022121495;0.048901495;0.015179176;-0.030524703;-0.45236373;-0.090364054;-0.0076892874;-0.06665326;0.019049864;-0.024945706;-0.06975232;0.06851143;0.07783422;-0.18647608;-0.015513315;0.1660118;-0.090299845;-0.23004167;0.009731627;0.108996615;-0.020507887;-0.081711404;0.008864794;-0.05117048;0.05223064;0.09803776;-0.027271193;0.049154434;0.028585846;-0.032549024;0.0111886095;0.05772264;0.028347418;0.097724766;0.012185719;-0.20643759;3.5701072e-05;0.20270686;-0.17767315;0.07846143;0.20754847;-0.03131495;0.0141877625;0.036472518;-0.029775582;0.0050935247;0.031801164;-0.1435753;-0.11235782;0.03463542;-0.17760716;0.008621982;0.030282566;-0.027290942;-0.058947854;0.065066114;0.35082877;0.045381773;-0.29542837;-0.21104111;0.053764597;-0.10590452;-0.026515165;0.022757383;0.11256076;0.07096385;0.039648615;0.15480106;-0.047059577;-0.16152255;0.03952857;-0.017173883;-0.056879155;0.09342786;-0.011760667;0.004578513;-0.048611596;-0.25115645;-0.16113865;0.012777052;0.05022514;0.18674022;-0.21684138;-0.07542506;0.009159864;0.10370372;0.0047482746;-0.035330776;-0.05563966;0.04989558;-0.06459707;-0.16996442;-0.2426165;-0.5150172;-0.022789812;0.09827422;-0.12404032;0.35696453;0.05901678;0.16438912;-0.11708525;-0.06359897;-0.06709499;-0.47692683;-0.025013883;0.027127208;0.06989147;0.062592335;-0.009200696;0.09764439;-0.10502692;0.02355239;-0.08746079;-0.059127245;0.12417594;-0.052165672;0.12065407;-0.18761113;0.017746491;-0.025370918;0.16602735;-0.33787808;-0.027353091;0.36391202;-0.40385568;0.047056418;-0.015700717;0.17392774;-0.011322724;-0.057372082;-0.012081086;-0.028760009;-0.09330012;0.011146516;-0.060355417;0.030382823;0.083182596;-0.0051708436;0.11083535;-0.0009267307;-0.15900083;0.05401383;0.15416525;0.19391967;0.065259814;0.07323184;0.0033161982;-0.23011115;0.1515432;-0.04098645;-0.06972714;-0.05250963;0.062309153;0.07919056;0.003063898;-0.04668786;-0.04820093;-0.00371146;0.26483276;-0.01698046;-0.06389843;0.23764479;0.14655174;0.026608197;0.082388654;0.060055748;0.04032796;-0.09039664;-0.0027652653;-0.027037185;0.040808316;0.11897678;0.18959953;-0.023625009;0.15611562;-0.03908054;-0.025733206;-0.025876107;-0.013076226;0.044896293;-0.05359788;-0.16787617;0.1522834;-0.07356058;-0.05648314;0.024846312;0.029710358;-0.37717095;-0.09905632;0.036946334;0.15279762;0.029569862;-0.19459216;0.03156546;-0.11404788;-0.37222362;-0.2636931;-0.0041274303;0.4215826;0.0057672104;-0.10931423;-0.057518575;-0.010185789;0.28288266;0.064675756;-0.18610175;-0.1742032;0.0002422954;0.23369505;0.05343482;0.017951278;0.005249565;0.17835839;0.010329692;-0.23756196;0.0680059;-0.18427837;0.18306905;0.25227538;-0.08215255;0.009132494;0.123735875;0.16820163;0.015525624;0.12419403;0.038948894;0.079377495;0.04179136;0.1058513;-0.060005743;0.15146056;0.039936677;-0.008941333;0.06414574;-0.36380512;0.06117386;0.024119254;0.10231117;-0.013211819;0.10844641;0.08581158;0.03479765;-0.20838018;-0.001209295;-0.24750479;0.006806406;-0.05172852;-0.019862117;-0.06444697;-0.0033673078;-0.32117906;0.07726407;0.11398297;0.007132468;0.06930294;0.13998275;-0.002288186;0.07246005;-0.1503548;-0.04016465;0.17575158;-0.04057879;-0.054233737;0.044953536;-0.0129682915;-0.36027783;-0.024527233;0.057442747;0.04464914;0.08360421;-0.038222473;0.17950995;-0.063807905;-0.01398508;-0.25641462;-0.12910454;0.019677574;-0.18749227;-0.28512228;-0.004896532;-0.0062976684;-0.24959454;-0.03056406;0.0767964;0.037087746;0.082409404;-0.11109573;0.10357492;-0.12317377;0.18069515;0.07811701;0.12677155;0.0939189;-0.02367661;0.06164493;0.11019454;0.06261268;0.11000136;0.15352929;-0.048671853;-0.18568869;-0.007954998;0.08291789;0.20248322;0.0008003693;0.051065184;0.04800927;-0.0068733604;-0.036759306;-0.10623692;0.012934957;-0.031496514;-0.0175748;0.011188625;-0.03917025;-0.065849334;0.19378345;0.17968348;-0.12602042;-0.011212762;-0.075312525;-0.056581054;0.06367345;-0.0043012532;0.45313936;-0.081816144;-0.04624978;-0.1179675;0.053490777;-0.05765291;0.021730816;-0.17518695;0.051946234;-0.0052379235;0.06304126;-0.020737078;-0.033558965;-0.069928765;-0.040371265;-0.08628722;0.22064272;0.00078639283;0.2547742;0.033476695;0.14116627;0.025122346;0.14461797;0.18688771;-0.15572958;0.03292751;0.121442944;-0.0036686556;0.016403452;-0.013412982;0.07782659;0.031130906;0.16068806;-0.07176243;0.013189372;0.2248538;-0.028591909;-0.043726232;-0.093885876;-0.3508021;-0.037528813;0.12379732;0.0022674934;-0.058952052;0.107601576;-0.08506277;-0.029496284;-0.087536044;-0.0112773925;0.024547938;0.25929922;0.26700392;-0.03476781;-0.16614361;-0.23859811;-0.004873963;0.012106453;-0.04200583;0.068415105;0.09113447;-0.032260943;-0.08390928;0.0041690553;0.15421638;-0.009619255;-0.26940086;-0.0045338394;-0.048433986;-0.25050288;0.13851532;0.022262607;0.009498938;-0.11511482;-0.058421962;0.06925096;-0.033120524;-0.1443191;-0.23151311;-0.012725189;0.004122668;0.096769415
0.07069319;0.109923005;0.17780493;-0.023436481;-0.054359727;0.016958259;-0.3418468;0.12522839;-0.0008143773;0.096703105;0.026576065;-0.14618169;0.108167686;-0.07679617;-0.019472629;-0.066547304;-0.04457444;-0.056597237;-0.018675951;0.026576955;-0.29934865;0.0011407572;0.09215111;0.14432949;0.10604654;-0.0032140638;-0.028808044;0.11241217;-0.029649101;0.16600339;0.102383465;0.028252676;0.008063784;0.06677512;-0.070368804;-0.13343129;-0.12014975;0.21232879;0.0002424424;0.03223596;0.020887477;-0.071188904;-0.28560334;-0.08381326;-0.025232676;0.23349725;0.0021041266;0.23611662;-0.2186744;-0.01469707;0.029998418;0.14787452;-0.14000244;0.022681843;-0.03878911;0.090367086;0.04401118;0.10935233;0.034848146;0.18614301;-0.002181456;0.33036423;0.008605709;-0.15193513;-0.13505732;0.19239599;0.012151575;0.22867993;0.12945808;-0.02525331;0.13576312;-0.021720083;-0.040946137;-0.099281274;0.14459845;0.08542103;-0.0031955498;0.19387406;-0.0662136;-0.04159042;0.015617168;0.24096024;-0.19242762;0.049244303;0.03390407;-0.1455358;0.07296245;-0.021749439;0.053139076;-0.035172705;-0.004122818;0.13294463;-0.1446655;-0.22748148;-0.10675656;-0.32339746;0.028120989;-0.083865315;-0.20507805;0.11114822;0.00770651;-0.15065555;0.013652361;-0.040467322;-0.068182155;0.1884369;-0.008189295;-0.24136767;0.05340572;-0.015191393;-0.08834331;0.05331736;-0.0063675344;-0.099982016;-0.06118756;0.18108568;0.14639704;0.08711025;0.0509686;0.075785756;-0.26764598;-0.019347042;0.22692204;0.031195564;-0.025981482;-0.049949657;0.08946497;0.22592244;0.01924827;0.14768772;-0.08341767;-0.20428666;-0.027315859;-0.073317535;-0.04412604;-0.38758916;0.11066384;-0.15491273;-0.022272266;-0.059619088;0.015674548;0.05902793;0.09368976;0.010229555;0.079068765;0.042988993;-0.3749914;0.062220246;-0.12856396;0.05772494;0.034504093;-0.21577744;0.037790984;-0.018821048;-0.058988973;0.044243626;0.0023415152;0.121454254;-0.011272173;0.26009482;-0.14972132;-0.0045393226;0.13730821;-0.046434842;0.0076953694;-0.20861025;-0.020084595;-0.04225512;0.1760027;0.15954986;0.10731845;-0.028239919;-0.029267278;0.029947981;-0.1551888;-0.45523202;0.034449577;-0.046253104;-0.067301735;-0.0013693821;-0.030576158;-0.0018362456;-0.106184125;0.0030844505;-0.18464524;0.042045966;0.058638133;-0.18333635;-0.0866731;0.04620483;0.09545303;0.074765205;-0.16215438;0.016327294;0.02946452;0.13220386;0.16974087;0.052354205;-0.115932845;-0.026112799;-0.1891332;-0.14883707;-0.0046365904;0.05325239;0.1879721;0.041601267;-0.19445792;-0.07271195;0.1067932;-0.007128071;-0.08275985;0.07030377;-0.017075107;-0.03263214;0.0004149699;-0.028753188;0.1289508;0.009398739;-0.08277556;0.027639765;0.077833965;-0.2234537;0.1167698;-0.06607856;-0.008049651;0.051544163;-0.06809298;0.28135931;-0.054213718;-0.13853413;-0.30712467;0.019672431;-0.0027004627;-4.285716e-05;0.12047524;0.0070639043;0.054031648;-0.017388506;-0.055634756;0.086935356;-0.18121089;-0.05245821;0.0018937822;-0.036264427;0.122751996;-0.03230429;0.042328846;-0.020025266;-0.13271667;-0.18179223;-0.0023910825;0.20161578;0.16003755;-0.27137157;-0.10529957;-0.006075359;-0.029325375;0.0213329;-0.023375101;0.103993714;-0.06879894;0.028721726;-0.31882232;-0.2475182;-0.33314747;-0.17064603;-0.042087443;0.0049437005;0.3786796;0.031133885;0.100585945;-0.06619766;0.05722215;-0.124359585;-0.37978742;-0.019305868;-0.023280462;0.039301492;0.018556112;-0.011268153;0.16027875;-0.104844674;0.10087883;-0.018126689;-0.052552726;-0.02495569;-0.12844671;-0.07810593;-0.06964675;-0.04562038;0.04183215;0.115424566;-0.43835837;0.15299088;0.26707387;-0.3919205;0.008555141;0.028867006;0.1736077;-0.04428006;0.121240124;-0.037535038;-0.041827112;0.01276365;0.059302572;0.04873095;0.03356929;0.07969598;-0.022983395;0.24425648;-0.0070831017;-0.23416984;0.19114657;0.18235615;0.2553247;0.10477961;0.15884717;0.06819333;0.021954503;0.11500366;0.030723162;-0.2156961;-0.14558981;-0.047186963;-0.037358858;0.12004116;0.052632887;-0.042221934;-0.037470356;0.42666516;0.016476382;0.036848348;0.19557582;0.06123452;-0.08779589;-0.051754124;0.1348853;-0.05449451;-0.065720834;0.072413824;0.0238656;0.015002835;0.13891962;0.3118053;0.017979505;0.074867465;-0.026499445;0.0068910923;0.040659327;-0.06361859;-0.04459087;-0.16141967;-0.07188083;0.19668062;0.05339117;0.07379725;-0.10057372;0.029679297;-0.43543148;-0.047048684;0.04123807;0.14124644;-0.02238847;-0.13697775;-0.09494405;-0.053258438;-0.20740317;-0.27075955;0.06511281;0.38070875;0.04325032;-0.23823214;0.07591087;-0.017554712;0.17667787;-0.0104098;-0.021554762;-0.07575609;0.01567239;0.23369737;-0.014162841;0.04685541;-0.0021222036;0.20160805;0.0029180322;-0.1213148;-0.019001907;-0.21437342;0.12983464;0.13178127;0.084416784;0.09315901;0.027211234;0.11382756;0.051631875;0.22678417;-0.057646673;0.1594366;-0.012361358;0.16966125;-0.03295804;-0.01507803;-0.12402089;0.031103801;-0.022464849;-0.16082229;-0.0721427;-0.029840171;0.0004276968;-0.0058752024;0.28295657;0.07304647;0.018561324;-0.22090654;-0.0028199852;-0.21405636;-0.035453238;-0.046697427;0.0007686841;-0.17812653;0.010665301;-0.20734294;0.12672219;0.31287357;0.024239285;0.017837267;0.09791038;0.036082957;0.23612764;-0.18459111;0.03803952;-0.06317985;0.023329617;0.045830138;-0.05941494;-0.03946329;-0.2403131;0.11682343;0.038145088;-0.07546278;0.092615955;-0.03140585;0.14337946;-0.03173817;0.1237816;-0.32090524;-0.07424182;0.055445373;-0.21815202;-0.14984958;0.016317764;-0.16425928;-0.13075885;-0.029530527;0.031187095;0.006723065;-0.04017275;-0.021193141;0.27709386;-0.00965922;0.20842709;-0.0026299981;0.08573315;0.19774844;0.042545155;0.10413784;0.13029467;0.06292307;0.10194562;0.09045388;0.07229625;-0.29736808;0.010599621;0.14418013;0.26932386;0.0006220945;-0.08190188;-0.032917388;-0.08308599;0.01429258;0.04371695;-0.08136504;-0.046846025;0.111858636;-0.019179482;-0.024257004;-0.09507459;0.18339506;0.15156701;-0.16654685;-0.059415318;-0.13636062;-0.14427182;0.061938014;-0.02304763;0.24873234;-0.05492065;0.06428362;-0.14929509;0.26901782;0.011824621;0.20445815;-0.105062634;-0.06280902;0.044223964;0.004242716;-0.21299721;-0.004153205;0.04556971;0.033955775;-0.15767701;0.2665393;0.0040115495;0.2674689;0.027928669;0.037510585;-0.014513986;0.043693025;0.051327933;-0.120055;0.005411387;0.118608825;0.030972509;-0.19076633;0.05979421;0.121918865;-0.04191585;0.13140135;-0.02880954;-0.008900042;0.12810282;-0.0038518668;0.0543594;0.14521061;-0.14337814;0.07703567;0.21225607;-0.026198113;0.07357831;0.12750064;-0.20091431;-0.039366804;0.017785814;-0.05304318;-0.016591754;0.14139624;0.11138516;0.060327668;-0.15945199;-0.17422535;0.08167402;-0.08845021;0.024445238;0.12272914;0.0015920368;-0.010742627;-0.18499869;0.011182446;0.18000224;-0.0141205955;-0.12190758;-0.14457683;-0.1681236;-0.13123135;0.16228145;-0.067006685;0.029482642;-0.12986083;0.05615574;-0.03926696;-0.16727787;-0.18073441;-0.41151333;0.007451231;-0.016073322;0.20334034
0.072018124;-0.033697575;0.13394782;-0.11267082;0.018946538;0.13364932;-0.50766814;0.15074125;0.048838466;-0.1253492;-0.03250278;-0.12843141;0.07297156;-0.04205115;0.10674887;-0.039561838;-0.06509465;-0.09035867;-0.043415103;0.07694994;-0.37436685;0.018049743;-0.09746347;0.1439298;-0.013900256;0.021082178;0.019796968;-0.08929114;-0.01687208;0.10523968;-0.0550279;0.04496437;-0.13862619;0.17003594;-0.17377408;-0.11542039;-0.05894318;-0.06350901;0.13111272;-0.11096507;-0.03974998;0.02409913;-0.26098892;-0.08721579;-0.026579777;0.15145244;-0.027631117;0.06275796;-0.2272742;0.020155087;0.025725584;0.2368837;-0.020587645;-0.040762108;-0.06553404;0.037116684;-0.013665149;0.06821087;-0.050314542;0.055782672;0.022815684;0.30959558;0.007908197;-0.15004003;-0.13304876;0.09660767;-0.0888842;0.20731662;0.100089766;0.018928297;0.09386857;0.06307399;-0.0037799422;-0.113157414;0.13778582;0.14293443;0.030014522;0.26471505;0.1576818;0.011538789;0.004662623;0.22884193;-0.075441994;0.0860479;-0.017502276;-0.20450646;0.16279356;0.03360095;-0.045011107;-0.017241534;0.023334768;0.11022531;-0.1988203;-0.18653212;-0.16320416;-0.23543555;-0.1515437;-0.19009681;-0.11930313;0.06700359;0.04878413;-0.07741799;0.06946306;-0.0050138105;-0.070034295;0.0722061;0.0059561706;-0.2576362;0.0899778;0.025375867;-0.027587367;0.050675493;-0.11477845;-0.04837537;0.035807103;0.11286188;0.21933655;0.017129384;-0.07489865;0.0439042;-0.32770863;0.04265232;0.3143388;-0.004791029;0.05611217;0.007583816;0.020261612;0.14035025;0.044966828;0.14373824;-0.08843905;-0.3350312;0.12246681;-0.0019421856;0.025413;-0.1844675;0.04046485;-0.16757971;0.031185972;-0.036547676;0.1962237;0.04014915;0.1905339;0.056127917;-0.029589882;0.16198839;-0.272146;-0.028535467;-0.26772535;0.12781125;-0.034638435;-0.2677533;0.026227418;0.07920329;0.065075465;-0.073968485;0.0042300895;0.03757556;-0.029773543;0.36704144;-0.24937333;0.04107298;0.24311651;0.033751857;-0.05063007;-0.24807522;0.03144756;-0.04312248;0.3559871;0.08403277;0.2052102;0.04032711;-0.0763841;-0.03390041;-0.24649099;-0.30956233;0.040244572;0.043427188;-0.0094544245;-0.018692734;0.032305893;0.086512335;-0.09130483;-0.09640211;-0.44710463;-0.03952807;0.05195142;-0.20951228;-0.12801488;-0.011325087;-0.017496232;-0.017373947;-0.05735906;-0.016437063;-0.02078644;0.13139878;0.03735031;-0.15301172;-0.07840575;-0.013852041;-0.10553363;-0.14969301;-0.008598774;-0.04360854;0.04061321;-0.01428714;0.016488539;-0.0004927698;0.06508485;-0.09324289;0.020617934;0.22105357;0.070351735;0.02007987;0.0029352724;-0.037593443;0.16827732;-0.046985302;0.041132517;-0.04184778;-0.020753559;-0.36388582;0.13879207;0.037247486;0.012859945;-0.063356176;-0.020261884;0.21617568;0.003498088;0.120604925;-0.21393332;-0.017081778;0.10760963;0.1512963;0.06306786;0.034916412;0.08877103;0.037730336;-0.16247518;-0.019068284;-0.25157326;0.021051299;0.024158562;-0.10647464;0.21999979;0.099925056;0.0116740065;0.006464101;-0.1373174;-0.15903048;-0.038506087;0.13886487;0.036132544;-0.17012769;-0.09986727;0.032173295;0.107052885;-0.014110743;0.057544667;0.29963508;0.040594783;0.01075732;-0.15443446;-0.20329687;-0.23137408;-0.39796144;-0.27386233;-0.055240892;0.29835516;-0.044187576;0.03758276;-0.11837824;-0.028728837;-0.07169022;-0.3823827;0.029565664;-0.033233844;0.08455171;-0.102523774;-0.17143139;0.27263606;-0.006537232;-0.005266165;-0.010408895;0.03028664;0.04670769;-0.08997542;-0.049549114;0.023790343;0.117205314;0.012167525;0.18420187;-0.38096067;0.11146866;0.16759712;-0.2830852;-0.047286578;-0.06441714;0.07060825;0.045842696;0.14779955;0.057452474;-0.0466546;-0.13740358;-0.05482326;-0.03351314;-0.017018147;0.05986733;-0.01818666;0.35113582;0.037032038;-0.12173957;0.09814053;0.22503811;0.067214176;0.10105167;0.20308934;-0.069196776;-0.06996461;0.08832977;-0.07355598;-0.06938902;-0.23638737;0.012883764;-0.0133226905;-0.0036549843;0.057075776;0.0077527226;-0.0027567262;0.31896412;-0.012402746;0.11152211;0.017212534;0.10185329;-0.087223716;-0.037372656;0.081131876;0.034315035;-0.018253287;-0.027961021;-0.23653498;-0.040353138;0.20541835;0.24177805;-0.025628962;0.06847242;0.026176816;0.031210091;-0.03125707;0.095236465;-0.004328512;-0.20181629;-0.06608987;0.24294823;-0.013270263;0.16837294;0.0036640684;0.08097958;-0.41267133;-0.056773327;-0.04592974;0.008167301;-0.05227293;0.053033534;-0.059288096;-0.09133824;-0.19022907;-0.23951492;-0.066025496;0.27029368;0.071014054;-0.19160645;0.12835403;0.004739994;0.09035862;0.0471909;-0.049783826;-0.13477664;-0.018302003;0.20465027;-0.011396538;-0.04307449;0.03970027;0.07372126;0.014127783;-0.18836623;0.024278237;-0.3978483;0.10571467;0.26326227;-0.043518793;0.21333726;0.15048715;0.06261046;-0.0085279755;0.09385778;0.046442766;0.16627906;0.02619492;0.056102827;0.008239476;-0.054694105;-0.019219793;-0.0726711;-0.10245243;-0.284204;-0.0018112432;0.07387968;0.06308154;-0.048660215;0.25841975;-0.0011548806;-0.020058824;-0.19876088;-0.0053586103;-0.30972445;-0.03403645;-0.13987584;0.01250794;-0.17688914;0.049624823;-0.32879853;0.052620213;0.16085121;0.0047706747;0.051414452;0.087541685;-0.034759045;0.06617042;-0.2119682;0.051019102;-0.06442465;0.037556045;-0.015718631;0.06710214;-0.12159058;-0.04581756;0.21420148;0.07383048;-0.008011644;-0.19382383;0.04796078;0.014991772;0.037660163;-0.094452016;-0.32799843;-0.1425465;-0.11528941;-0.1293121;-0.022048524;0.1090203;-0.17977501;-0.18878973;0.027830241;0.16186787;-0.029490357;-0.022304565;-0.06557367;0.2023407;0.10475249;0.26712453;-0.0069626137;0.0462785;0.14396203;0.13870504;0.15399885;-0.05885774;0.17128013;0.16420722;0.031683993;0.024960615;-0.3741953;-0.06567393;0.13282633;0.1981765;-0.006645298;0.059527613;-0.03673618;-0.17461133;0.0012865504;0.19416624;-0.09065674;-0.122769885;0.17476884;-0.010054141;0.0564404;-0.0030655714;0.017788814;0.10350723;-0.031877954;0.05527029;-0.011685628;-0.08649223;-0.0067843595;0.20037995;0.2647266;0.0915417;-0.013486787;-0.01630605;0.092704505;-0.012363713;0.1971612;-0.056323867;0.020212173;-0.08871208;-0.005343952;0.025962844;-0.007214231;-0.017972123;0.013536445;0.05133925;0.036898807;0.033723112;0.026914084;-0.0067768684;-0.07008428;0.03088253;0.08698893;0.102555245;-0.13162965;0.07827464;0.06863478;-0.030963678;-0.34840995;0.13124362;0.04816806;0.02538799;0.0645356;-0.054842453;0.03145875;0.23611386;-0.03786857;0.01447777;0.030215764;-0.2820651;-0.051898234;0.20245656;0.03249973;0.017518135;-0.08056618;0.01800955;0.0068029277;-0.02059388;-0.0065637976;0.034360778;0.063275136;0.16772938;0.051244248;-0.24759215;-0.06319376;-0.059680827;-0.121695876;0.022350693;-0.0005913787;-0.030372137;0.043238144;-0.10715443;0.006642918;0.081845134;-0.07288766;-0.02617351;-0.10742512;-0.14784409;-0.1553988;0.2169149;-0.051420894;-0.0235973;0.005480932;0.09410599;0.05553698;-0.027600823;-0.15548097;-0.4821189;-0.051704857;-0.006526602;0.121107586
-0.018513246;0.07652674;0.040834345;-0.09947961;0.0004728502;0.15137537;-0.33101302;0.08803909;-0.02716282;-0.20881534;0.03838435;-0.14016607;0.04426335;-0.0490227;0.1562496;-0.044250336;-0.058468346;-0.1573318;-0.19393224;0.0734684;-0.280471;0.07019666;-0.17267399;0.10073517;-0.014705721;-0.011803449;-0.064672425;-0.0028214627;-0.029682666;0.17628042;-0.047524806;-0.035037346;-0.11750838;0.18280537;-0.27493224;-0.09509205;-0.18080741;0.026445603;-0.093447;0.06252481;-0.006016236;0.03308272;-0.3531026;-0.1087217;0.032578878;0.1258508;0.043926228;0.12866268;-0.17003965;-0.032552253;-0.039196096;0.18453433;0.086220235;0.03798722;0.032662358;0.05233219;-0.04356325;0.16552444;0.11322269;0.11901454;0.0064377747;0.33691195;0.032681387;-0.111005194;-0.1364494;0.014889887;0.021347076;0.15781903;0.13315868;-0.03278475;0.15995352;-0.033318203;-0.003205885;-0.10362928;0.29986972;0.08889918;-0.0058361567;0.20927107;0.1856724;0.02954295;-0.011680362;0.14509752;-0.16416807;-0.17358255;0.009871666;-0.2790803;-0.03409659;-0.008664305;0.008479734;-0.01900106;0.0052975495;0.25811628;-0.27313748;-0.318634;-0.20786782;-0.24158704;-0.07859862;-0.048479587;-0.14760275;0.12035801;-0.04194587;-0.046811234;0.0765173;0.013331579;-0.038356718;0.08727196;-0.0010243112;-0.31155398;-0.018983096;-0.022224082;-0.13520242;0.1664333;-0.026576148;-0.044062722;0.055600546;0.21307446;0.15180224;-0.11431262;-0.019691128;-0.11889512;-0.27971914;-0.029106265;0.2315065;-0.004312194;-0.03162992;-0.04647984;-0.042507473;0.084834605;-0.008542295;0.0995542;-0.21205266;-0.39629862;0.2756524;0.020392789;0.048708163;-0.05796701;0.048750572;-0.22174115;0.00344793;-0.010909021;0.19726771;-0.037756424;0.18680485;0.24976002;-0.03977606;0.07128629;-0.2608225;-0.048529457;-0.13154526;0.18385951;0.014720016;-0.11840725;0.008107092;0.11818643;-0.030745383;0.051202275;0.026933527;0.21330568;-0.09422317;0.39518833;-0.15170783;-0.008416509;0.22879459;-0.04440783;0.044283334;-0.21261558;0.010068312;0.058851227;0.18332773;0.13348901;0.09804947;0.033393815;0.061378855;-0.13952886;-0.07341658;-0.058811996;0.035913955;0.019603312;-0.070475556;-0.039567836;0.016282767;0.12555993;-0.13105337;-0.02123474;-0.42834193;0.07871884;-0.040948648;0.014393416;-0.13636832;-0.021206165;0.04460498;0.014596288;0.048453566;-0.047351636;-0.009587669;0.02222465;-0.03288765;-0.0031901416;-0.18194534;-0.0136459535;-0.1810208;-0.27985567;0.024308547;-0.008797408;0.076095544;0.00020780921;-0.118395306;-0.009250349;0.21411976;-0.13021375;0.08579497;0.23785385;-0.043383997;-0.008746138;-0.05823809;0.09413177;0.17666933;0.08741697;-0.096763834;-0.10714662;0.09663338;-0.29542005;0.18548813;-0.029164959;0.012207071;0.0068460875;0.008626007;0.15620339;-0.028963817;0.13467121;-0.290442;-0.060586333;0.1531794;0.14180686;0.01065648;-0.06885788;0.0156173725;-0.07500717;-0.059078902;0.002311789;-0.113025956;0.01362075;-0.027414775;0.045915008;0.1371525;-0.0212354;-0.018904893;0.025419077;0.036928587;-0.15749821;0.014411132;0.1598823;0.15448453;-0.11932444;0.05610597;-0.021580106;0.065130524;-0.028408784;0.20831122;0.1921063;0.060855012;-0.018065555;-0.1336602;-0.22005156;-0.32750016;-0.2591168;-0.23367132;0.10328938;0.27208772;-0.17962852;-0.09996337;-0.13466927;0.06592583;-0.031429753;-0.4954962;-0.0011580902;0.04526089;-0.0017199509;-0.19973983;-0.11084611;0.25852454;0.001881346;0.12537439;0.0819201;0.2127563;0.16104898;-0.12859543;0.054445323;0.069847144;0.09037705;-0.01569591;0.14125532;-0.19379362;0.011668279;0.08109958;-0.28845438;0.08912464;-0.06093817;-0.04272672;0.010852423;0.068564534;0.06596961;0.049483802;-0.11350834;-0.034274623;-0.03539931;0.014261526;-0.011520919;-0.0128178615;0.16682391;-0.0042948183;-0.15732634;0.24255925;-0.053718027;0.11791248;0.13391702;0.1610609;0.042498343;0.03339251;0.09972059;0.02976597;-0.049991157;-0.10779061;0.03657391;-0.039495286;0.053718574;-0.038565837;0.0029325201;0.07084528;0.14249709;0.027818196;0.15805398;-0.03130638;0.049884517;-0.21227822;-0.04208177;0.12824425;-0.032632995;0.053898014;-0.0027120057;-0.20429693;-0.029539589;0.088939406;0.113063365;-0.08417583;0.05342297;0.008106264;0.0077820043;-0.030429484;0.2150469;-0.00044169818;-0.15437634;-0.18609582;0.12376262;-0.009817149;0.0024287521;-0.025010612;-0.05691871;-0.22417276;-0.054165095;0.0317736;0.12885167;0.075439125;0.029321335;-0.06809297;-0.09297456;-0.052495748;-0.054128096;-0.06547846;-0.06132377;-0.0076095737;-0.009679357;0.04080339;0.031700786;0.009323515;0.015022333;-0.072011605;0.0084925275;0.009231807;0.15887421;0.03132612;0.017633745;0.03683932;0.09298788;0.029158976;-0.12546577;0.00019648111;-0.2832588;0.07711583;0.3076702;0.14151855;0.19946519;0.14379622;0.027212793;0.0005170999;0.015683193;-0.033245172;0.07988396;-0.079592876;0.02699709;0.040392835;0.07441734;-0.05498829;-0.015172744;-0.22130764;-0.21582344;-0.009805643;-0.042347696;-0.17276074;0.13606486;0.25564405;0.08596568;0.0047174534;-0.32572606;-0.012105375;-0.17380874;0.06336013;-0.04944145;-0.0016622193;-0.053412423;-0.08867449;-0.26882878;0.070859894;0.29842103;-0.021930078;0.040165268;0.12798347;-0.053312346;0.17883502;-0.02629407;-0.06317676;-0.1868315;0.034534518;-0.019514859;-0.06814681;0.06628054;-0.084672354;0.21269234;-0.010249222;0.035507288;-0.16259415;0.034959394;-0.13454096;0.05247525;-0.08054648;-0.27720124;-0.32369646;-0.06567756;-0.14491217;-0.19233988;0.13549468;-0.090616785;-0.19295394;-0.026717192;-0.025673864;-0.0019179408;-0.1224452;-0.07947943;0.21746856;-0.035315048;0.024495471;-0.07864642;0.05488973;0.12663595;0.07098962;0.22547106;-0.031507965;0.25319365;0.12844917;-0.11067794;0.0036253699;-0.23869078;0.02121625;-0.08339758;0.1912458;0.023500796;0.04124087;-0.035207413;-0.236575;-0.039461065;0.21694618;-0.12121679;0.11075887;0.13269414;0.014635418;0.024645744;-0.13432558;-0.071612164;0.12388277;-0.07665173;0.042990256;-0.06911262;0.049737386;-0.052686132;0.04995409;0.26211247;0.05425618;-0.0076056425;-0.11695105;0.15579371;-0.009017719;0.05615328;-0.11498625;-0.014168841;-0.051163808;-0.04990262;-0.06138997;0.002209908;0.037330847;-0.017623352;-0.014588798;0.13718809;-0.0034714201;0.1023274;-0.0072856843;0.054947987;0.022361452;-0.10242074;0.08915913;-0.27637777;0.2986253;0.034071818;-0.022909462;-0.24678612;0.21910864;0.12887107;-0.013365888;0.046771064;-0.055319868;0.025103906;0.102565035;0.039834287;-0.030131867;-0.079380095;-0.03921241;0.060794305;0.08341552;0.007897311;-0.044546667;-0.08659245;-0.01615887;0.042428307;-0.05917824;0.048375905;-0.057419494;0.050125785;0.05032499;-0.012646844;-0.40754148;-0.13833663;-0.024630317;-0.13124701;-0.004214109;-0.18312304;-0.073844634;-0.057232592;0.12149987;-0.043260306;0.10636736;0.03572;0.1911062;-0.12210033;-0.052775137;-0.28763798;0.03670011;-0.029655749;-0.010155558;-0.17607974;0.071517475;-0.034036882;-0.083588846;-0.17262171;-0.490274;-0.0013067544;0.05610582;-0.012451261
-0.029443083;-0.029360492;-0.07653736;0.042059015;-0.0358644;0.1981986;-0.20846105;-0.08172545;-0.011314903;-0.35745144;0.030731276;-0.22059211;0.08603006;0.03441786;0.21997847;0.014982997;-0.19455694;-0.15897056;-0.060122985;0.105496965;-0.2771513;-0.0008503251;-0.23288532;0.18211931;0.05998451;0.029861683;0.0600318;0.06619004;0.012719955;0.11281287;-0.07323703;-0.015457885;-0.13885221;0.23058392;-0.2648911;-0.019726077;-0.19197895;0.17175084;-0.047129128;-0.06289022;0.053141955;0.037848923;-0.4163221;0.04453021;-0.010218494;0.09887363;-0.017675558;0.081676744;-0.14682037;-0.033776682;-0.03915964;0.078602254;0.041287083;0.025220549;0.03809968;0.019467816;0.03652765;0.04388624;0.035413485;0.011038593;-0.01611149;0.23305044;-0.023180079;-0.12179841;-0.27121952;0.028596995;-0.041309454;-0.008867167;0.22533493;0.058222827;0.08771493;-0.056477763;0.032691624;0.048944287;0.28035265;0.059894025;-0.008951;0.18459058;0.324723;0.052042637;0.005695958;0.17541666;-0.107756846;-0.088942535;-0.028365681;-0.26509455;-0.08919615;-0.025897376;0.030424334;0.035804614;-0.0583177;0.22819304;-0.39157182;-0.2520518;-0.07474031;-0.35652515;-0.07140076;0.040560085;-0.118385404;0.13932024;-0.014933917;-0.01596461;0.04600065;0.040843643;0.105569325;0.004935929;-0.019936051;-0.21943773;0.029158954;0.022694778;-0.060280483;0.18946697;-0.23067647;-0.18766539;0.011237327;0.2109898;0.1403109;-0.1523415;0.05012623;-0.08604893;-0.3209546;0.01718546;-0.04852301;-0.045871653;-0.010350984;0.012354503;0.035566185;0.16647382;0.00022941042;0.0049897935;-0.009636285;-0.2228027;0.14377876;-0.049356215;-0.025209824;-0.017638706;-0.1283092;-0.10930967;-0.04590317;0.059374195;0.15788417;-0.11812271;0.0045291693;0.26721767;0.006111167;-8.1571314e-05;-0.18472749;0.011975461;-0.11098247;0.024917448;0.028269097;-0.26339447;-0.0023110847;0.17733772;0.090836816;-0.06141543;-0.032212973;0.16705665;-0.10293564;0.37061623;-0.12204656;-0.04457264;0.20457526;0.02742831;0.003162925;-0.10652631;-0.047894835;0.0337924;0.11130045;-0.022983862;0.06977842;0.035038795;0.015852805;-0.02888318;-0.110997364;0.02026845;0.06685318;0.011920828;-0.10706367;0.0078584915;-0.0431377;0.22486876;0.053273205;-0.08775331;-0.4895518;-0.06715754;-0.06577965;0.046107914;0.019783208;-0.035252303;-0.06615761;-0.045533206;0.12072568;-0.040403455;-0.01986414;0.1821179;-0.024694357;0.020738015;-0.15601695;0.061911333;-0.12520224;-0.33542368;-0.0809065;-0.00875718;-0.012000402;0.023790346;-0.107318506;0.013883832;0.056960728;-0.39913863;-0.06625219;0.18066815;-0.01657022;-0.062207416;-0.05016496;-0.011572549;0.06156403;0.043450814;0.08193142;-0.0172124;0.120391086;-0.08701516;0.11770101;0.031552464;0.152082;0.028306946;-0.01985596;-0.07667562;-0.0034907665;0.17074794;-0.34649643;0.04613094;0.30383712;0.24297535;-0.09196348;0.025557086;-0.04774662;0.04526854;-0.19870378;-0.0001352642;-0.12959553;-0.02732525;-0.050919343;0.09776571;0.11084902;0.06423288;-0.04210103;-0.054915793;-0.041339025;-0.17198169;-0.0037921183;-0.025478743;0.12929505;-0.13495694;0.115908585;-0.05417164;0.12794994;-0.029978497;0.119934395;0.12321526;-0.06262696;0.006660544;-0.08092918;-0.14921221;-0.31976357;-0.3224096;-0.094579116;0.0030833683;0.14875427;-0.26035818;0.0032932844;0.006602815;-0.024852064;-0.1395013;-0.5606422;-0.0032654856;-0.043652948;-0.039712008;-0.13820629;-0.10655692;0.212646;-0.07616586;0.03408361;0.055418517;0.30741793;0.17709701;-0.21305963;0.0049915477;0.01739341;0.14444734;-0.032036602;0.041914467;-0.22061902;-0.03708316;0.03652146;-0.14107083;-0.019941667;0.064669415;-0.029987395;0.012549265;0.25455013;-0.03558575;0.02513913;-0.14236552;0.071996324;0.1033023;0.046857435;-0.027244769;0.046629168;-0.004506284;0.020140054;-0.0796251;0.15072294;0.060305472;0.09418453;0.13511053;0.17783433;0.041353106;0.06549892;0.051417362;0.006683701;-0.08418881;-0.05770134;0.026179323;0.05553986;0.10253723;0.11415346;-0.010575322;-0.039280992;0.023749322;-0.0074206353;0.1292285;0.06716537;-0.0075774137;-0.12331423;0.049554303;0.01885106;0.048329547;0.18820074;0.00669202;-0.29166192;0.07650171;0.105588034;0.06780247;0.102792874;0.041470196;0.046958946;0.033828467;0.038972285;0.08572891;0.058830753;-0.14871317;-0.19437668;0.18294388;0.029228605;-0.077384606;0.08857196;-0.1513508;-0.12012876;-0.05683551;0.048514258;0.09339631;0.0053572063;-0.056562517;0.016469683;-0.0466807;0.15841687;-0.10694577;-0.012555616;-0.10990285;0.14585792;0.050240688;0.087092735;0.008961938;0.038643625;0.096146114;-0.11721918;-0.074415475;-0.02781158;0.10579802;-0.044384174;-0.0078124497;-0.0354989;0.0021569133;-0.042990457;-0.31243873;-0.011844354;-0.3268037;0.0015626841;0.08753231;0.035189856;0.10310703;0.101275854;0.11460744;-0.034947447;0.018920299;-0.010330157;-0.14635919;0.021001404;0.10546936;0.02452581;-0.01649582;-0.10425493;-0.16420464;-0.091541834;-0.2778307;-0.015409765;0.11958931;-0.1585671;0.1559543;0.13400975;0.12895186;-0.04783378;-0.20639451;-0.018335436;-0.067071095;-0.00973118;0.14133486;-0.0014304768;-0.13433555;-0.0006182913;-0.22765262;0.017142575;0.2914552;0.03304656;0.033639193;0.29391366;0.04005524;0.035218135;-0.06328104;-0.03751971;-0.23894516;-0.088624485;0.07496441;0.0024669096;-0.04405169;0.15206257;0.3069885;-0.020663427;0.042871878;-0.11021247;0.20796749;-0.11996987;-0.06696923;-0.06835999;-0.1621668;-0.2660248;-0.14970465;-0.13120884;-0.26445284;0.006642546;-0.287438;-0.0809614;0.032797374;-0.08577707;0.0040941634;-0.005178365;-0.1384869;0.16277212;0.04222296;-0.09731951;0.031657603;0.0037537278;0.029315913;0.1820995;0.068549044;-0.21509548;0.10406409;0.2715258;-0.09169602;0.044817;-0.24620062;0.0581033;0.042356223;0.15592425;0.042942718;-0.014695237;0.06350721;-0.1799327;0.016395481;0.2139251;0.051486928;0.10930162;0.21427195;0.015788544;0.010175559;-0.04104758;-0.019117994;0.0798402;-0.20464297;-0.0025556285;0.042589664;0.0026651619;-0.079342596;-0.049640097;0.23638785;0.04291604;-0.03251272;-0.045537934;0.105398126;-0.029414667;-0.038165852;-0.2237491;0.01680378;-0.012926605;0.048096415;0.01901519;0.04429728;-0.013088906;0.057202548;-0.05612546;0.11546535;-0.029943641;0.12385478;-0.020479394;0.06479856;-0.016466105;0.014335927;0.13575566;-0.29764208;0.40984148;0.11069626;-0.03864258;-0.18591094;0.21261622;0.03830658;-0.04830928;0.10494035;-0.00877459;-0.085161336;0.018946875;0.032917775;0.0017695362;-0.032136224;-0.004364695;-0.06891783;-0.12721843;-0.027364638;-0.06387324;-0.11693429;0.050365515;0.037282627;-0.0573948;-0.03226356;-0.009047267;0.15830249;-0.021512866;-0.039281912;-0.31033966;-0.34503412;-0.07219457;-0.08573762;-0.047904156;-0.27628508;-0.14693777;0.08451145;-0.07757096;-0.18912727;0.060610346;0.03449305;0.21386217;-0.15454154;0.07448844;-0.25515857;0.0951141;0.008760629;0.012774181;-0.061771087;0.27494434;-0.037272196;-0.111732565;-0.05166842;-0.2955802;0.050235666;-0.03886848;-0.088189356
-0.069200575;-0.12684746;0.03109594;0.11543587;0.05072146;0.22172503;-0.17896827;-0.16094603;0.012245689;-0.31579733;-0.03150953;-0.10443155;0.03585136;0.081436396;0.20310426;-0.012560396;-0.22878587;-0.22575091;-0.17168245;-0.002489616;-0.32432652;-0.053595033;-0.22192818;0.07492076;0.0047749453;-0.002838745;0.020771468;0.057690747;0.1082942;0.115368925;0.05103994;0.011414565;-0.008819701;0.30315918;-0.2873921;0.13323446;-0.17827928;0.17010306;0.029036101;0.07079865;0.020017507;-0.048410766;-0.42441398;-0.00037157303;-0.016171958;0.018038914;-0.014049417;-0.06826702;-0.2773653;-0.01102152;0.07263742;0.23535785;0.036588572;-0.017939692;0.008253225;0.005045636;-0.033630166;0.0662806;-0.065906525;-0.006987314;-0.04275932;0.192336;0.045161553;-0.13698433;-0.342982;-0.054309387;-0.030734573;0.011288013;0.2965873;0.0082887625;-0.014207809;0.03654147;-0.028458266;-0.08846349;0.42457044;-0.03241725;0.03324944;0.13336676;0.14947625;-0.042102035;0.014634151;0.055227906;-0.09228026;-0.112101704;0.002451576;-0.14000665;-0.046525653;-0.018323146;-0.03308788;0.05810325;0.039596207;-0.02159518;-0.3584273;-0.21599579;-0.051941935;-0.055840194;-0.0745844;0.051967774;-0.28910577;0.19159359;0.031528573;0.0004135339;-0.19169258;-0.032457136;0.019492889;-0.046353944;0.008939465;-0.21458878;0.023808222;-0.020671178;-0.014579508;0.12409914;-0.14317767;-0.083217576;-0.015491743;0.32177162;0.18440588;-0.2358695;0.031214543;-0.20911512;-0.33686337;-0.01190171;-0.072986245;0.064653784;-0.009948828;0.050535496;-0.1373383;0.2272293;-0.046286963;-0.047646057;0.05536797;-0.21156016;0.17913032;-0.14624386;-0.048583366;-0.019001622;-0.089664176;0.07070936;0.023048017;0.04395048;0.052459437;-0.028636444;-0.037832174;0.36276317;-0.011286775;-0.109607376;-0.09354632;0.035729032;-0.2333048;0.0072370106;-0.029033056;-0.17219311;-0.061538763;0.1826482;-0.055809896;0.06586032;0.006558494;0.1277616;0.06134881;0.26510003;-0.16316068;-0.038225673;0.10742344;-0.008009946;0.0028703664;0.068252325;-0.06648332;0.004226511;0.31575456;0.065090865;0.023644071;-0.076272026;0.011383001;0.013213608;-0.0712826;0.1119635;-0.077130556;0.016443068;0.19947693;0.017152797;0.033852544;0.20218843;-0.039721537;-0.11810622;-0.37125567;0.015962236;-0.07228604;-0.06781862;-0.09412047;0.0051383926;0.034888703;0.021875348;0.23984966;0.07359474;0.0010213868;0.15324514;0.065633796;-0.14212558;-0.069528334;-0.0853077;-0.22831075;-0.37301743;0.07294447;-0.030045046;0.13607948;-0.053819306;-0.1393395;0.029905599;-0.19685018;-0.3087808;-0.068404876;0.3168035;0.015732616;0.036410283;-0.0503555;0.005399411;0.10612191;-0.10230582;0.05385921;-0.07926371;0.2204264;-0.18816616;0.1673653;0.058544606;0.050596513;-0.019531995;0.066487804;-0.051330227;0.052500322;0.24034804;-0.2826506;-0.013553145;0.10433543;0.19936173;-0.011527403;-0.058415752;-0.13928765;0.0050498997;-0.11767783;0.070135005;-0.12852308;-0.011359224;0.081625655;0.23300104;0.015900994;0.03535229;-0.013791432;-0.0044717975;-0.01451422;-0.03521181;0.040177356;-0.11356693;0.14147714;-0.25446585;-0.06811859;0.018185332;0.17480463;0.013773007;0.10118752;0.09220886;-0.02123099;0.02283499;-0.024514765;-0.049655735;-0.038031295;-0.48799467;-0.16717607;0.123379596;0.12571171;-0.09843773;0.075954095;0.21193995;0.020170987;-0.1492036;-0.39798895;0.030400118;0.010250299;-0.13118136;-0.21451393;-0.13681881;0.22881813;-0.019282388;0.028594876;0.18331033;0.36555573;0.1001378;-0.31182313;-0.063223265;0.12687252;0.23088954;-0.0013865306;-0.1298963;-0.21797132;-0.2201391;0.11071156;-0.25199565;0.08236892;0.007428663;0.11451754;-0.05062241;0.24901149;-0.042422302;-2.9585095e-05;-0.05401551;-0.028016297;-0.020126287;-0.028214216;0.040348448;0.06108742;0.15541475;-0.041871253;0.061824657;0.047998108;-0.08439847;0.119988136;0.046036128;0.1884946;0.009668172;0.14767005;0.026353667;0.02758622;-0.016757132;-0.1925191;-0.06613948;0.06385024;0.09177673;0.041225426;0.07303185;0.018695315;-0.2675998;-0.017189965;0.147671;-0.024702586;0.032543715;-0.24066843;0.039322082;0.10543494;-0.043005895;0.0780886;-0.01754824;-0.013195535;-0.022841519;0.089117035;0.10698515;0.06259748;-0.05131989;0.025583098;-0.051189274;-0.012818008;-0.038008466;-0.03015108;-0.13856119;-0.21454145;0.1268643;0.045039132;0.03212279;0.031370442;-0.22326246;-0.12678353;-0.05736873;-0.022182383;0.08088576;-0.07005691;0.060278017;0.07882827;-0.09836923;0.12572166;-0.18274169;0.05565347;-0.10808786;0.26331306;0.057076517;0.012530302;-0.0064216936;0.093767755;-0.01687203;-0.005255713;-0.19052091;-0.00030932078;0.04751668;0.019884706;0.007779362;-0.02524463;0.00068856863;0.004758193;-0.17342877;0.039985217;-0.18738744;-0.031821404;0.15993509;0.048722975;0.15824431;0.13857895;0.21134718;0.019853959;0.08029204;0.003368435;-0.24117973;0.019964812;-0.058659084;-0.07110179;-0.05914081;-0.12969892;0.03284883;-0.20114632;-0.28818053;-0.03486528;-0.07208693;-0.3379169;0.0011712383;0.09417878;0.13986383;0.06754405;-0.3809262;0.045795698;0.037310522;0.00019236766;0.06653921;0.014083936;-0.08208175;0.044680472;-0.041018322;0.011735383;0.26334694;-0.020260422;0.079253845;0.34766018;0.006453286;-0.08345761;-0.078196906;0.032468494;-0.37118083;0.04409722;0.024046259;-0.012948923;0.053827103;0.31667876;0.27082562;0.031069392;-0.044973236;-0.13829839;0.075262;-0.030510921;0.030581113;0.0046179355;-0.12484086;-0.17863393;-0.052133724;-0.2412384;-0.14533176;0.19370143;-0.29348624;-0.12069295;-0.04637667;-0.07996699;-0.016994808;-0.09786787;-0.08893666;0.33464074;-0.014423151;-0.113466755;0.04090605;-0.002769416;-0.039660454;-0.016130242;0.06965108;-0.12774137;0.27398303;0.23062564;-0.022088539;0.03728551;-0.030537046;-0.071329996;0.13543516;0.04643503;-0.07224822;-0.057023823;0.06186349;-0.31809816;-0.023949964;0.28932884;0.2690649;0.2271243;-0.03659167;0.0030684925;-0.05449059;0.1358002;0.113437794;0.07675846;0.01489282;-0.0553302;0.20985758;0.007919616;-0.08475503;-0.107324265;0.2826841;0.034583457;0.035949666;0.06350696;0.14730328;0.07294274;0.10043013;-0.23316425;-0.027816702;-0.042395763;-0.0018115456;-0.03288626;-0.015832085;-0.012551494;0.029539289;0.011804126;-0.041877054;0.0058018826;0.13844012;0.0010148867;0.06379269;-0.0608959;-0.0961575;0.10817328;-0.31225166;0.29310536;0.21888961;0.057375293;-0.045323864;0.028315611;0.08547031;0.07492206;0.1967915;0.02794823;0.020549241;-0.05279341;-0.069359265;0.0031313132;0.120556995;-0.20950572;0.042620447;-0.12066239;0.0055813356;0.05928658;-0.02205602;0.08424464;-0.034900192;0.007886483;0.07555574;0.034377564;0.13875225;-0.24666278;-0.018596401;-0.20831192;-0.28387186;0.052412454;-0.11604101;-0.0281088;-0.20848937;-0.020608243;0.05607915;-0.106315196;-0.093625784;0.09855912;0.04205838;0.14383097;-0.2225545;-0.05131191;-0.19765125;0.16314806;-0.102194384;0.030684832;-0.04251262;0.1276485;-0.03700228;-0.042897195;-0.012116188;-0.19932775;-0.02402351;0.00604544;-0.112938486
-0.044304006;0.07884112;0.09365553;0.044009402;0.03543505;0.06926993;-0.16476482;-0.12112077;-0.0020713347;-0.3529837;0.032831427;-0.057857804;-0.008492323;-0.031165617;0.05780043;-0.14332338;-0.27079615;-0.1035994;-0.19597478;-0.016946737;-0.17769231;-0.0050467476;-0.19117253;0.08671547;-0.062360063;0.0024310262;-0.045421217;0.085489824;0.05095321;0.0666362;0.17661925;-0.0027909286;0.009321514;0.30283648;-0.2513546;0.13261291;-0.17521152;0.030059874;-0.08690277;-0.01455561;-0.052745163;0.03271293;-0.14566948;-0.087342784;0.031667825;0.15555823;0.023674961;-0.14840901;-0.37615022;0.018998219;-0.020263746;0.24663928;0.12259047;-0.05164904;0.021096313;0.15705433;-0.019475823;0.13339543;-0.097205415;0.16399382;-0.0013092578;0.13756923;-0.055874933;-0.12232697;-0.2992853;-0.17176498;-0.050915234;0.022980466;0.17362396;-0.008020206;0.014917405;-0.018942246;0.023512729;0.014723823;0.23878798;0.038693275;0.006147147;0.12531054;0.17686835;-0.07307951;-0.012727043;-0.14340095;-0.041900836;-0.1338536;-0.0046279496;-0.2797111;0.024709435;0.057919316;-0.027287377;-0.016388172;0.01450935;0.00629435;-0.45232096;-0.04087545;-0.06291676;-0.01033097;-0.16583854;-0.15030544;-0.26113936;0.028265476;0.0022951015;-0.17512211;-0.06711164;-0.012351889;-0.058467995;-0.0042262436;0.03469466;-0.2794906;0.058896318;0.028711747;0.17621024;0.05002164;-0.17697693;-0.33129954;-0.09300107;0.29075882;0.1923482;-0.16901764;0.042304136;-0.22267161;-0.29407984;-0.058311887;-0.105489604;-0.05273974;-0.034928642;-0.017181687;-0.1029946;0.29619548;-0.009000386;0.059624363;-0.047893994;-0.1165832;0.056382157;-0.010262024;0.009051561;-0.07545934;-0.1840523;-0.06634525;0.003399065;-0.025098506;0.071295165;-0.11049813;0.025170604;0.53475887;0.04333177;0.019581499;0.08539912;0.001183381;-0.07849772;0.003573859;-0.041508254;-0.066218354;-0.034788918;0.08897539;-0.052148774;0.015873095;-0.019650279;0.1025608;0.028597951;0.308906;-0.22275373;0.01816694;0.1198529;0.022402864;-0.023254069;0.0044567715;0.048801057;-0.03321483;0.23198763;0.006890925;-0.029978126;0.0076892986;-0.04456498;0.15120848;-0.08073287;0.23532887;-0.034860317;-0.066496596;0.12550278;0.004155704;-0.052585248;0.055860292;0.04905553;-0.18849844;-0.27729875;0.026773874;-0.008978237;-0.0017173256;-0.024785206;0.044773187;0.09775613;-0.019812096;0.1413273;0.054411285;0.032597564;0.10609809;0.03402478;-0.023519477;-0.062910244;0.06392464;-0.20722048;-0.40140432;-0.1434728;0.042104594;0.018172927;-0.038962025;-0.20786937;-0.027125455;-0.25500005;-0.2843745;-0.03971272;0.27842927;-0.0043329285;0.0034365503;-0.05316512;-0.06865329;0.091352485;-0.11649621;-0.019377073;-0.12726797;0.12595668;-0.0946274;0.16812728;-0.03949598;0.15821621;0.082637586;0.036321998;-0.114643976;0.010120542;0.16717716;-0.3434904;-0.035624996;0.011003094;0.15954863;-0.041419495;-0.11750109;-0.094883196;-0.016552018;-0.041014645;0.03563657;-0.13693963;0.0010219867;-0.006410528;0.16029336;0.072854914;-0.033638634;-0.03988791;0.029767884;-0.12771046;-0.09207459;-0.01853333;-0.024708666;-0.016759593;-0.06042331;0.0315562;-0.013080823;0.13352434;0.0268137;0.04262582;-0.027567623;0.02644304;0.02916811;-0.18044657;-0.06911914;0.039414283;-0.5055683;0.019646268;0.16581774;0.095418595;-0.083307415;0.18412505;0.07127356;-0.025939787;-0.25769067;-0.17134213;0.039330255;0.02220825;0.0066584884;-0.29713655;-0.0633492;0.1209159;-0.12391459;0.2342953;0.20257026;0.40717497;0.053003877;-0.21580984;-0.17071252;0.17933185;0.2978362;0.050057653;-0.13637172;-0.14574376;-0.14654326;0.03958422;-0.07979605;0.0706771;-0.04894093;0.22687982;0.054728154;0.15978655;0.013644169;0.03880665;-0.23704077;-0.030291393;-0.022655314;-0.017687721;-0.08113583;-0.040899076;-0.019792374;0.058186106;0.19749905;0.11339046;0.025651444;0.033727;0.053944785;0.14774765;-0.04126392;0.14545359;-0.0821619;0.2468144;0.014739669;-0.18576849;0.02354138;-0.054052122;0.09997081;-0.04340523;-0.07156904;-0.059095513;-0.18406275;-0.062385987;0.2650795;0.03291476;0.030243328;-0.1637168;0.023842538;0.033580042;0.042766485;-0.015781056;-0.0050845323;-0.16684017;-0.024762897;0.0064089233;-0.04686328;0.16364053;-0.10074012;-0.056198902;-0.058372684;-0.013717684;0.005508993;-0.027464041;-0.015043623;0.043587986;0.06822035;-0.06072766;0.014867243;-0.055956274;-0.19684264;-0.018216595;-0.0018249707;-0.050299454;0.01414038;0.040040616;0.21573555;-0.006449284;-0.04655784;0.12548763;-0.28756294;-0.12388432;-0.22831976;0.26189017;0.068418644;-0.08209188;0.014178259;0.15177853;0.019367538;0.07485124;-0.01202264;0.03561659;0.09939775;0.035033047;-0.05809204;0.00328951;0.051970966;-0.0031170328;0.013256544;-0.043470204;0.05143065;0.020949483;0.22539091;0.10022501;0.2543417;0.052437253;0.27902007;-0.049954638;-0.19278757;0.04805285;-0.15929568;0.046210557;-0.22898702;0.06847656;-0.08558067;-0.16440582;-0.010045628;-0.26362726;-0.15439041;-0.03349035;0.07113431;-0.19170609;0.11497569;0.24708235;-0.077702984;-0.023553073;-0.44190073;0.005785927;0.017803963;0.0028882339;0.065566204;-0.04083395;-0.10960524;-0.057349995;0.016454626;0.006270055;0.24340996;-0.031660426;0.015657647;0.24853271;0.034136128;-0.26832694;0.07820201;0.001494842;-0.28429738;-0.07761677;0.04259863;0.030344836;0.084826745;0.1980991;0.05949997;-0.08729029;0.014709612;-0.14215115;-0.083368786;-0.07817286;-0.030173883;-0.16207501;-0.19201894;-0.2238032;-0.20930165;-0.19303864;0.041175965;0.020910913;-0.20022085;-0.092500605;0.034163423;-0.2000145;0.0202973;-0.059101056;-0.22864792;0.5007162;0.007817009;-0.23271069;-0.07400051;-0.04000907;-0.12843989;0.004700212;0.031473596;-0.22490825;0.2338056;0.10328517;-0.059965257;-0.061972775;0.016800258;0.035666857;0.16490959;0.1181229;0.007081614;-0.005698832;-0.052364476;-0.18462451;0.06539168;0.14140365;0.27516526;0.051317073;-0.03645387;-0.03050646;-0.03321929;0.13283192;-0.023867883;-0.04033187;-0.0035406915;0.009070586;0.18637913;0.12188097;-0.08945937;-0.10112613;0.13644312;-0.024377;0.011081724;-0.020623652;0.16999789;-0.022688922;0.040772848;-0.09276159;0.039016582;-0.0930858;-0.033020042;-0.16613385;-0.058037285;0.011630774;-0.06881331;-0.081742786;0.0034528011;-0.0064637237;0.20011826;-0.033558797;0.013416957;0.06388006;0.03989176;0.1419124;-0.42711887;0.31070998;0.18034793;-0.019885473;-0.12374922;0.09665117;-0.036808614;-0.05071736;0.061105512;0.08198917;0.015368461;-0.121073;0.05514197;-0.025193263;0.23151489;-0.083886765;0.005304387;-0.24043545;0.026261093;0.05265895;-0.11785017;0.06890527;0.00013042353;-0.017045442;-0.042357165;-0.039238688;0.29639482;-0.25124228;0.012901222;-0.1586163;-0.19081652;0.005214789;0.033264507;0.053988133;-0.17516927;0.13013338;0.20899802;-0.15703756;-0.18165106;0.09047237;-0.025097625;0.067541406;-0.05233949;0.010188278;-0.14996512;-0.04163968;-0.24826826;-0.038313698;-0.093582705;0.33381927;0.060028043;0.14575572;-0.008991675;-0.2989833;-0.0072565214;-0.0031658472;-0.12912026
0.052582666;0.2261278;0.25529045;0.015137715;-0.059911687;0.1301666;0.14263335;-0.0058143777;-0.054752775;-0.17121024;-0.0022453286;-0.020677056;-0.024447115;0.15573072;0.06729632;-0.020575956;-0.21862222;-0.21977137;-0.06784063;0.0029841638;-0.1519218;-0.016974982;-0.174807;0.15798342;0.058669303;0.00959503;0.025550118;0.051122908;0.039698083;0.12003082;0.22672294;0.022592686;-0.052634936;0.1661852;-0.24095334;0.176727;-0.15971296;-0.09563583;-0.06785043;0.045095056;-0.02413419;-0.05555466;0.038514167;-0.2020182;-0.015535843;0.18363824;-0.04684174;-0.042698566;-0.38223374;0.028191408;-0.035885062;0.31567976;0.11337741;0.043853376;0.0095895585;0.2044616;0.021609858;0.066259235;-0.012648032;0.14037693;0.014290856;0.051528044;-0.022108348;0.04879823;-0.07665818;0.011342622;-0.05539741;-0.054246817;0.16124034;-0.049433094;0.12534323;0.019061644;-0.040632747;-0.010130818;0.2692659;0.03524512;-0.036412947;0.053575512;0.0063354815;0.05142056;-0.0093454;-0.11378574;0.15310706;-0.14172392;0.03836323;-0.23289183;0.10329306;-0.05256094;0.0041444893;-0.03847203;0.0071006496;0.065976016;-0.30968502;-0.15117122;-0.09292008;-0.1277495;-0.14823216;-0.10854478;-0.17065759;-0.13117878;-0.034365207;-0.011376764;-0.15755571;0.02213894;0.14654282;-0.15517245;0.05021622;-0.18752804;0.050126847;-0.017661506;0.19384475;0.018904233;-0.008504633;-0.296396;0.103485405;0.1532388;0.20490411;-0.08599045;-0.06368187;-0.10672256;-0.37035882;0.06715732;-0.02559448;0.008390091;0.0038348783;0.008185806;0.05060473;0.19511814;-0.00980063;0.07283963;-0.02629583;-0.11702967;0.008874737;-0.09648396;-0.014922892;-0.11288265;-0.18310446;-0.021521648;-0.042803574;-0.017098377;0.014958569;0.11282108;-0.026540102;0.45227212;-0.034023806;-0.06525724;0.08707919;0.00809234;-0.09610601;0.053165983;0.019115953;-0.17901388;-0.012329201;0.09867893;0.0051364386;-0.047040235;0.030593418;0.0214358;0.05826089;0.27436444;-0.15253544;-0.05734019;0.1662764;-0.010152806;0.012174131;-0.060565542;-0.04206218;-0.07525349;0.047556687;0.0777081;0.016916778;-0.038170096;0.02082504;-0.03032153;0.008598531;0.23765944;0.06933086;-0.013006953;0.084940456;0.019239105;0.059361342;0.13137682;0.014146738;-0.2684332;-0.27972123;-0.11956018;0.06180184;0.11411501;-0.22868916;-0.037144993;0.014893096;0.031821355;0.079657696;-0.038196135;0.020529393;0.06263214;-0.03099053;0.050016426;-0.028030735;-0.018371742;-0.24844399;-0.24760883;-0.09060794;-0.008193293;0.10569429;0.013514385;-0.16765739;-0.022313196;-0.24541406;-0.19327776;-0.091101974;0.28313226;0.04239454;-0.0025696033;-0.028609233;0.030536873;0.066278525;-0.1204893;-0.115320854;-0.035970513;0.22436854;-0.07683205;0.038264584;-0.029161347;0.26117474;-0.049465295;-0.048146565;-0.06756009;-0.00965041;0.08982214;-0.29806027;0.026104296;-0.069179125;0.1937309;-0.004345324;-0.044298217;-0.06429549;0.0047371006;0.093862295;0.098274715;-0.087936975;0.014083973;-0.01239432;0.26028633;-0.04814375;0.056904033;0.058172427;-0.009302859;-0.08363745;-0.050708473;-0.03992278;-0.06762446;-0.103607744;-0.16998135;-0.023384964;-0.0008068448;-0.007445786;-0.004820387;-0.06509137;0.09481121;-0.013133098;-0.017616684;-0.1659336;-0.15710397;0.079969525;-0.40911815;-0.029754113;0.19377759;0.036156144;-0.0054951725;0.09707326;0.003416242;0.024093606;-0.18735228;-0.21774326;-0.034553032;0.0030118297;-0.060278993;-0.21448967;-0.081889935;0.19824208;-0.022694137;0.15700586;0.022505566;0.21121456;0.15214786;-0.22827615;0.03996179;0.04831454;0.14033507;0.041562673;-0.13107003;-0.036574874;-0.012176347;0.022611981;-0.20326898;-0.06339296;0.0033519065;0.177641;-0.023996564;0.028073205;0.048157185;-0.0552421;-0.23681264;0.0005670945;-0.024248846;-0.038221907;-0.01389121;-0.015825462;-0.09712718;-0.022760157;0.35676697;-0.01759968;-0.05333369;0.091891766;-0.060536813;0.18646842;-0.019574797;-0.050510548;-0.05170881;0.19779968;0.025415845;-0.011915757;-0.035209324;-0.07135807;0.052805487;0.02119557;0.008705134;0.08557741;-0.3513049;0.05750921;0.27350634;0.058285825;0.13530144;-0.2535992;-0.046204675;0.053267844;-0.046014883;-0.054729834;0.03647945;-0.15466616;-0.033281147;0.01251529;-0.102268755;0.14515324;-0.15476218;-0.030206354;0.0036948565;0.030572588;-0.0017232029;0.012807072;0.0050814087;-0.02656509;0.10308974;0.008862399;0.010616335;-0.11849171;-0.18601656;-0.02599273;0.008804233;-0.009054713;0.050392177;0.0011900878;0.13743891;-0.14083825;-0.09404999;0.10334221;-0.19765045;-0.06007606;-0.10791842;0.38235277;-0.00044261522;0.03506147;-0.040333696;0.2261067;0.106910504;0.14337787;-0.16990568;-0.03445227;-0.059511952;0.002184984;0.015402146;0.07118897;0.057241943;0.028819691;0.06558081;-0.03918873;-0.022273686;-0.082224004;0.09489641;0.009027159;0.24608187;0.029996473;0.22936477;-0.019043855;-0.2294595;-0.025468497;-0.1801964;-0.05186897;-0.17599542;0.0027137285;-0.16134514;-0.043559387;0.086495586;-0.17258401;-0.105934046;-0.023512945;-0.08201561;-0.21143162;0.12240121;0.15628621;-0.02977874;-0.013215215;-0.37407538;-0.021050753;0.11480848;0.015446225;0.019804249;0.045080964;-0.023019494;0.048052892;-0.018008212;0.13465093;0.1136282;0.015945286;0.13700795;0.20521636;-0.05991701;-0.31702146;0.03838584;0.014348341;-0.36966828;0.05664654;0.044768978;0.04418304;0.075863235;0.2197768;0.021593587;-0.03244995;0.00162791;-0.050574094;0.100630745;-0.13264632;0.028427206;-0.1111506;-0.15579994;-0.23706856;-0.31634718;-0.07509342;-0.019066226;0.12859072;-0.1884722;-0.14179158;-0.039160147;-0.27571774;-0.018647695;0.042702325;-0.109746814;0.37950698;0.22585094;-0.39975214;-0.033140253;-0.13484411;0.022568889;0.13380016;0.041750424;-0.2828206;0.060215626;0.12527469;-0.063877776;-0.016282268;-0.04864088;0.010858482;0.15407157;-0.0133840935;0.041035913;0.015447219;-0.01872531;-0.36933047;-0.012465138;0.0019309117;0.14481339;0.24185608;0.011335259;-0.003970569;0.09563519;0.24837206;0.2059033;-0.10155925;0.0828813;0.018182134;-0.00728577;0.42480415;-0.025332447;-0.14931925;0.080978714;0.101460114;-0.05305895;0.09416497;0.011478142;0.03174344;0.20429452;-0.19952562;0.020699298;0.12221659;0.012835409;-0.20026964;-0.02383705;-0.014792261;-0.07555095;-0.076395385;0.12350674;0.02753803;0.29938874;-0.0045334417;0.112171754;0.01213753;0.06363989;-0.009888441;-0.41269556;0.15781234;0.25240502;0.05958167;-0.15278046;0.04827232;-0.10760092;-0.0048657465;0.09606766;0.037610527;0.042078145;0.11429944;-0.017900191;-0.019809542;0.27938786;-0.021724638;-0.04612449;-0.077292934;-0.040631555;-0.0018382457;0.028324595;0.06414605;0.057840653;0.08385409;-0.017398681;0.042311683;0.20359726;-0.24148786;-0.020328071;0.031019272;-0.1699807;0.07019234;0.1183044;0.014566275;-0.15913332;0.061921854;0.25087136;-0.34554407;-0.046000574;0.112289645;-0.0076583363;-0.03253458;-0.14205852;0.03352027;-0.15182889;-0.005872135;-0.22761676;-0.034851067;-0.09192559;0.2224895;0.03895923;0.045772806;-0.016448367;-0.25317794;-0.031340975;-0.00293367;-0.116434366
0.22284389;0.18476526;0.27038097;-0.01612101;-0.00034439526;-0.22012903;0.18221909;0.09291566;0.06254568;-0.16636181;-0.046947155;0.19073169;0.056618184;0.16195619;0.16051427;-0.14966345;-0.13864791;-0.27473757;-0.19191462;-0.00713977;-0.08190054;0.047005925;-0.041354652;0.064221956;0.0033299671;-0.056589;0.009209946;-0.008082212;0.021559421;0.11003098;0.15236193;0.03649941;0.16988865;0.17656955;-0.29494438;-0.046745095;-0.06989347;-0.08895956;-0.19530657;-0.0103558535;0.0022907774;-0.025779182;0.01120248;-0.2572532;0.01085434;0.2050478;0.0047023534;0.10098411;-0.3512122;0.018386248;-0.02835512;0.24826227;-0.038086884;-0.0066211475;0.012743545;0.06345832;0.018227683;0.03110124;-0.10721596;-0.0050083646;0.04473717;0.07513418;0.004737877;0.12280307;0.03832416;-0.05546594;-0.0014013244;-0.028572973;0.12028811;0.019792095;0.09324114;0.001556314;0.03413452;-0.12450547;0.24072805;-0.067968145;0.0074582486;0.036475006;0.012940622;-0.015976612;-0.0310921;-0.074856;0.10234124;-0.049587462;-0.044952393;-0.068101294;0.02380084;0.03317685;-0.02091294;-0.042905394;-0.033709846;0.14930846;-0.30491626;-0.19055118;0.03805888;0.09977862;-0.0991622;0.06875702;-0.14449081;-0.036434643;-0.01711439;-0.13984768;-0.16132791;-0.037697777;0.1778931;-0.08121439;-0.04786376;-0.025229018;0.051097903;-0.0034940077;0.03295552;-0.13345848;-0.009447757;-0.26355928;0.012849395;0.039093446;0.19729328;-0.084872715;-0.040158115;-0.20630932;-0.31461897;0.015060987;0.10762565;0.010596876;0.04858034;-0.02395353;-0.2391662;0.35385424;0.042741198;-0.0035331813;0.0056193084;-0.26682246;-0.050329536;-0.10902683;0.0061297044;-0.080761634;-0.096894406;-0.02879754;0.005864983;-0.00500157;0.07209925;0.17210063;-0.06533498;0.35181183;0.047987003;-0.09134939;0.14347298;0.053176906;-0.019301366;0.16698869;0.06274975;-0.14326793;-0.04875768;0.09881905;0.0141241755;-0.033385117;0.019017532;-0.025434257;0.04525269;0.21885896;-0.13670358;0.0595122;0.102500685;-0.032332335;-0.0025992454;0.050634366;-0.054871123;0.040262327;-0.09196609;-0.114476025;-0.0937226;-0.041482203;-0.054843053;0.0036789097;-0.044383746;0.3626832;-0.03730896;0.0211564;0.16341901;0.0064600906;-0.047113497;0.23103304;0.07581019;-0.27078718;-0.1927845;-0.06690443;0.24576376;0.08351293;-0.20151843;-0.015172654;-0.012158018;0.0041671414;0.12228884;0.00020090176;-0.028421044;0.12836204;-0.12963867;0.17363434;-0.15684195;0.008696501;-0.29148504;-0.3011665;0.031395078;-0.024025012;0.03002896;0.059965894;-0.09309226;0.036123257;-0.37360853;-0.20007364;0.02296086;0.1471808;-0.01834671;0.037879;-0.018506046;0.037936345;-0.010513719;-0.25544104;0.020314774;-0.02527369;0.10380201;0.1402697;0.0156638;-0.024124745;0.28453875;-0.03773823;-0.026960209;-0.33495057;-0.021823378;-0.12530766;-0.29626966;0.030870363;0.07953816;0.13818713;-0.005985137;-0.01896235;-0.0024915023;0.03028855;0.11444034;-0.13173607;0.0016676108;-0.0027495027;-0.042743895;0.15552475;-0.17123596;-0.07025039;0.00038349716;0.043589357;-0.044999834;0.06846337;0.046319716;0.07386293;-0.029943835;-0.26664445;-0.09082452;-0.011703061;0.15993378;0.063597366;-0.10372672;-0.031208899;0.05686293;-0.017275825;-0.2093537;-0.13682279;0.28107294;-0.43633983;-0.066601984;0.0426722;0.116569325;0.10017778;-0.04934186;0.102474436;-0.015825208;-0.20613052;-0.16298021;-0.0026137054;0.0056901984;-0.18057485;-0.055322416;0.07779661;0.18932791;0.07317088;0.08414475;0.045408;0.2920593;0.25957322;-0.08615013;0.10995707;0.03344509;0.057891063;-0.044527084;-0.19005004;-0.2698982;-0.023417398;0.056464005;-0.12174422;0.021824729;-0.00032635606;0.11399228;-0.020244392;-0.13619323;-0.06237935;-0.015785636;-0.05218139;0.052706532;0.08372768;0.0118896095;0.018893164;0.017402347;-0.16869196;-0.015878068;0.1214903;0.033249382;-0.12547252;0.0075514033;-0.10369025;0.23097794;-0.014628898;-0.06504514;-0.08930781;0.19700238;-0.015136744;0.06765497;0.05526335;-0.008154902;-0.019572645;0.03662989;0.030299904;-0.028236244;-0.3022978;0.034874395;0.2607204;0.005329851;0.14457703;-0.20957623;0.00030258208;-0.024854768;0.03750273;0.013023935;-0.027019255;-0.1883901;0.026613686;-0.1256678;-0.04785377;0.3043199;-0.20798251;0.073222235;0.03017591;0.053843662;0.057136755;-0.007899839;0.022286361;0.035388563;0.030016692;-0.015322579;0.07610498;-0.021415813;-0.37495115;0.083062746;-0.073836654;0.0006953681;0.31961462;-0.02016578;0.0036920803;-0.018121896;-0.16793263;0.051932722;-0.07610899;-0.10869479;-0.21310326;0.37461996;0.08379824;0.021491855;-0.021056565;0.06700709;0.11503458;0.23021099;-0.17800866;-0.0041315365;0.07364281;-0.05545519;-0.0025933913;-0.05090173;0.026796257;0.024592545;0.06688988;0.072077096;-0.016719144;0.0011649077;-0.066007495;0.060071018;0.28462902;-0.0034600606;0.16754586;0.064514995;-0.28330144;0.0015993065;-0.092692174;0.04355707;-0.36526838;-0.05207608;-0.2428821;-0.08174513;0.16141012;-0.12487576;-0.1631111;0.07568914;-0.04711175;-0.16791335;0.21784557;0.041008826;-0.11647067;0.04759345;-0.23197997;0.0055291937;0.17897955;0.012104259;-0.00830441;-0.050253555;-0.08910041;0.027575277;0.15810838;0.023128832;0.17874564;0.055166285;0.10236945;0.32317668;-0.053161424;-0.3469792;0.13607319;0.03690101;-0.32359007;0.024672888;0.022330122;-0.021370964;0.17035522;0.25215763;-0.030091899;-0.039593123;-8.112319e-05;0.06543069;-0.018758219;-0.018828772;0.024655685;-0.071472846;-0.049879573;-0.19346403;-0.32986727;0.13758634;-0.0952881;0.23031409;-0.20657222;-0.28809813;0.046156053;-0.2270269;0.06643739;0.0277406;-0.2900591;0.22604898;0.2353058;-0.24220361;-0.011570419;-0.0666322;-0.15085433;0.032201383;0.10441147;-0.03529267;0.10769162;0.082494654;-0.025914695;-0.021080915;-0.09704098;-0.034903333;0.1771552;0.15953505;-0.033983596;-0.020643048;-0.050629575;-0.18259974;0.014338732;0.025195993;0.3638066;0.09374216;-0.05043928;-0.019787086;-0.036217477;0.06015353;0.017922303;0.042721737;0.2146795;0.002765274;0.036192648;0.30341068;0.041205097;-0.13130184;0.05217324;-0.050871354;0.04676254;0.107945025;0.09515863;-0.037280686;0.10633012;-0.22201101;-0.05883911;0.05862431;-0.056834508;-0.33224028;-0.054160126;-0.008821014;0.07047805;-0.116049506;0.09017688;-0.058707565;0.3433351;0.026283735;0.027712857;-0.01599702;-0.20697264;-0.14377722;-0.36769933;0.28865284;0.1687459;-0.037649486;0.026981741;-0.019646628;-0.20501418;-0.12623224;0.07507996;0.024150932;-0.02838062;0.10422204;0.052814916;0.02350433;0.33434156;-0.08138318;0.014124448;-0.061825473;-0.0045467447;-0.05125911;-0.057009764;0.013373266;-0.04730527;0.109678335;-0.025210198;0.026211008;0.2111174;-0.16245349;0.007253326;-0.07038445;-0.2997046;-0.03996757;0.19560137;-0.016944475;-0.11950625;0.1106757;0.36230698;-0.26438853;-0.16588137;-0.022150178;0.024514545;-0.20583615;0.16930583;0.24020037;-0.12208578;-0.016105039;-0.38700274;0.0034671095;-0.20432016;0.17829414;-0.022451065;0.20348436;-0.085904986;-0.22536461;0.022268912;-0.031358622;-0.26125926
0.2121498;0.1795606;0.13877994;-0.043499485;-0.014357618;-0.19833234;0.13287991;0.08823983;0.010603341;-0.24343815;0.023548428;-0.014512052;-0.11112642;0.23000917;0.11527941;-0.05124217;-0.18001203;-0.26783428;-0.12447123;-0.07662462;-0.059898652;0.033260453;0.10204333;0.26259613;-0.04490612;-0.028812634;-0.030594364;0.051173832;-0.10723631;0.079323575;0.2111152;-0.038287092;0.06752154;0.072667;-0.36508724;0.0024843775;0.050101172;-0.19096604;-0.24423017;0.0094743725;0.03195663;0.060047537;-0.0036448687;-0.16756116;-0.028572887;0.04171823;0.01604417;0.09983898;-0.29515153;-0.015793722;0.07388186;0.27266666;0.11954882;0.020829188;-0.008963056;0.09941814;-0.04704101;0.01069558;-0.009633153;0.03185565;-0.00931571;0.07051697;0.036381885;0.17480141;0.15795602;0.27039343;-0.07034102;0.024947783;0.117767386;-0.020281373;0.13492331;-0.012325791;-0.0013823169;-0.06310526;0.2258268;0.10451217;-0.05150746;0.10409868;-0.14118697;0.02420799;0.013123342;0.085254684;0.24797505;-0.19786532;-0.016700242;-0.1024523;0.16928162;-0.0023700409;0.05653935;0.013976638;0.0036513875;0.18863112;-0.13836509;-0.12682587;0.078381404;0.046834778;-0.0806851;0.08795243;-0.21193875;0.10861473;0.026302757;-0.21376567;-0.12414902;-0.0076431446;0.14885266;-0.063391395;-0.039981887;-0.1276002;-0.052962776;-0.026522003;0.13822187;0.06747868;-0.07380025;-0.21725635;0.097268075;-0.17900285;0.29632574;-0.086764425;0.0205093;-0.030985175;-0.26269355;0.008101624;0.003790523;-0.025975958;-0.0070057265;-0.015813753;-0.18588741;0.303486;0.031859364;0.036007468;0.13087328;-0.1712498;-0.029913837;0.033248033;-0.02292895;-0.025790649;-0.1667598;0.108124904;0.08358179;0.0013411966;0.08810597;0.058289696;0.03644368;0.33182564;-0.013482925;0.019474503;0.20473903;-0.039285958;-0.16534649;0.09416038;-0.06712371;-0.052965216;-0.019339878;0.10906928;0.028802514;0.045899212;-0.053334925;0.14604697;0.021097941;0.2842478;-0.098957054;0.072722845;0.2419815;0.026107043;0.03256412;0.22734329;0.0138037205;0.060911343;-0.17583852;-0.084745534;-0.10883102;0.019532768;0.039473865;-0.020843135;0.0033638163;0.43761227;-0.05284606;0.060475115;0.05500506;-0.058029406;0.051557556;0.26853192;-0.010840489;-0.1878463;0.015066997;0.06774525;0.23568957;0.21408765;-0.1706467;0.007367651;0.020495942;-0.017734336;0.25747055;-0.02836885;0.012971395;0.085867845;0.031950552;-0.039827116;-0.057635784;-0.014674691;-0.25987518;-0.33637887;0.026715262;-0.0363408;0.053235106;0.030391244;-0.10306984;0.028984789;-0.2839769;-0.0524844;-0.021022346;-0.049759757;-0.043302488;0.015784051;-0.067780726;-0.07356099;-0.076906435;-0.13354841;0.11566263;-0.17204392;-0.08204131;0.16775261;0.06732401;0.007811897;0.24596764;0.006398038;0.0040127966;-0.21707205;-0.043881353;-0.04089346;-0.27963397;-0.0066973837;-0.05014267;0.29110965;-0.039445315;-0.007789887;0.049836326;-0.023946023;0.0048231287;-0.09200531;-0.02849023;-0.025359614;-0.045148727;0.10990447;-0.1470236;0.017852092;0.05295191;-0.0121146105;-0.016076708;0.29838523;0.031533707;0.1747442;-0.11336927;-0.09054769;0.09456436;0.010113291;0.10149583;-0.04638717;0.020518752;0.038737014;-0.08686454;-0.03516517;-0.24073645;-0.16510034;0.31675896;-0.390849;-0.026101427;-0.011779897;-0.030180363;0.17608139;-0.19926934;0.048470687;-0.034318257;-0.23968707;-0.13096587;-0.05823638;-0.041314155;-0.24034859;-0.12611331;-0.056475278;0.10553621;0.07576011;-0.15869544;-0.00068896887;0.13022996;0.26595792;-0.035535224;0.29426688;-0.020889917;-0.051294636;-0.035783455;-0.16904521;-0.36769766;-0.11562301;0.08581444;-0.11384878;0.02880392;0.0392084;0.05700852;0.008167456;-0.13776182;0.031969223;-0.021522306;0.1084384;-0.057301532;0.03131597;-0.022382783;-0.017224137;-0.035687853;-0.094481975;-0.013479493;0.073092096;0.11185266;-0.23122205;-0.079595804;-0.0615967;0.20320806;-0.0025363895;-0.06905628;-0.2621042;0.04698838;-0.041604806;-0.06767115;-0.0005637624;0.0072339475;-0.072264485;-0.0007386461;-0.027606921;-0.049346868;-0.25911337;-0.033996586;0.0987168;0.014668747;0.1684329;-0.34618804;0.0119339535;0.0064926627;-0.010148203;0.09366843;-0.036334716;0.007800204;0.004113841;-0.28191966;0.11911349;0.33284333;-0.1955913;-0.058416385;0.048732184;-0.028429229;-0.0006090375;0.015259148;-0.016269889;-0.21487974;0.0016422835;-0.00015381559;0.016406387;-0.058447614;-0.16663677;0.22886401;-0.011020358;0.008543566;0.24138433;0.026371552;-0.0855775;-0.109055504;-0.0106648775;0.096748844;-0.13600451;-0.14957376;-0.022746451;0.28209522;-0.0016851657;0.031920537;-0.000984258;0.119273186;0.11493362;0.19149466;-0.15164949;0.03342998;0.08034697;0.05134111;0.017039653;-0.040715963;-0.07891018;-0.02141187;-0.011942527;-0.032141782;-0.04198364;0.07857601;-0.11565662;-0.028190088;0.177188;-0.0056711803;0.27817416;0.013411246;-0.13350354;-0.037171997;0.007607809;-0.028226847;-0.30462858;0.023551421;-0.15517697;-0.020040642;0.25533086;-0.018538367;-0.20547588;0.10802479;0.061908267;-0.09597891;0.14910208;0.037144776;0.0017191684;-0.05375389;-0.2881895;-0.039091714;0.16246852;-0.032785192;-0.007926797;-0.009471984;-0.07001804;-0.051404946;0.16738053;0.08575344;0.26065;0.0083863465;-0.007250985;0.27763718;0.03807435;-0.25848618;0.221543;-0.011406236;-0.22535644;0.021563482;0.02163367;0.0048502213;0.28948274;0.08960113;0.047378995;-0.042321146;0.0013247784;0.08774317;-0.18383126;-0.16684109;-0.0017365472;-0.06404831;0.090660155;0.008694088;-0.40124542;0.1557578;-0.1149952;0.1463892;-0.21379796;-0.19916728;0.02684499;-0.31583896;-0.068366036;0.007643169;-0.18248875;0.102435805;0.32016176;-0.26842883;0.02612997;-0.15281625;-0.05597613;0.15381162;0.1288501;-0.1309221;0.03592093;0.016442772;-0.10923148;0.024917262;-0.07305673;0.020290628;0.12519376;0.084254615;0.047344904;0.05369582;0.038670328;-0.08890245;-0.014213119;-0.06596675;0.28228667;0.21500127;0.06595806;0.0433263;-0.01790671;0.13128296;-0.089787364;0.18255761;0.14767343;-0.010177439;0.04724916;0.2618617;0.009964611;0.020282542;-0.02437394;0.15321662;0.018519742;0.023385437;0.016856952;-0.008207163;0.10529865;-0.13466479;0.03011033;0.17157365;0.057947956;-0.19507779;-0.02414516;-0.016157746;-0.013961339;0.0329737;0.07170643;0.043162495;0.2215309;0.0002903697;0.10980507;-0.0451477;-0.17675702;0.025546798;-0.28590128;0.14818671;0.074753575;-0.05371856;0.018956235;-0.0836358;-0.11214502;-0.093491755;0.08561155;0.12326323;-0.01930124;0.23061995;-0.07291758;-0.008260297;0.13650686;-0.05597413;0.043648455;-0.11232968;0.037935324;-0.043560307;0.110113055;0.017460654;-0.06295791;0.03970402;0.025448935;-0.059471883;0.15955274;-0.27652;0.039197095;0.14564683;-0.22062728;-0.03316855;0.11776802;0.0011904729;-0.21410702;0.03240503;0.2169758;-0.17353435;-0.10731129;0.14928241;-0.056421567;-0.22826561;0.06795561;0.027186586;-0.033755627;0.021166528;-0.19670343;0.06427071;-0.13747053;0.33323172;0.007900233;0.25877967;0.004160409;-0.26782903;0.0057295226;0.013491628;-0.44388354
0.10679857;0.17795394;0.23810771;-0.14053932;0.030092018;-0.17676212;0.10166639;0.1791796;0.021192947;-0.17760004;-0.062082637;0.023576386;-0.009616785;0.21715154;0.10518031;-0.17600317;0.014335132;-0.25030696;-0.10678177;-0.047420483;-0.010260731;-0.049191628;0.055441257;0.27705395;0.08667935;0.042590156;0.0089808535;0.117318675;-0.10908162;-0.024508966;0.23517737;-0.019642675;0.07189977;0.16391525;-0.2695973;0.07912987;0.15773681;-0.075614676;-0.36163202;-0.013654827;-0.00028688094;-0.00679229;0.11238931;0.17931849;0.01703129;-0.19289866;-0.015655978;0.14332616;-0.23517166;-0.016897202;-0.025865033;0.18890727;0.0066091605;-0.010446477;-0.06317164;-0.0023825536;-0.0026220947;0.02600544;-0.021504289;0.051981702;0.042697407;-0.016525786;-0.035707295;0.21209516;0.1417267;0.31082597;0.011007274;0.15198863;0.08332727;0.069315955;0.037339773;0.0054682354;-0.018067477;0.25188658;0.122107424;0.13942334;0.06045271;0.03842062;-0.18098204;0.021706544;0.069840945;-0.0067609022;0.24529752;-0.21135291;0.0328893;0.12034994;0.16011569;0.015703462;-0.0043549207;0.011617358;0.021384083;0.061903197;-0.007943168;-0.058446992;0.13796979;0.19385968;-0.036132265;-0.13688283;-0.043197647;0.08666868;0.00810548;-0.032613046;-0.18185055;0.04162053;0.12086146;0.1263322;-0.038381256;-0.13135338;0.053047508;0.028436063;0.16723454;0.14796655;0.12011446;-0.11776495;0.06785297;-0.32849425;0.20416395;-0.10234419;0.047454342;-0.18613103;-0.22385637;-0.06772282;-0.15702343;0.056762516;-0.022825688;-0.010111526;-0.25757375;0.20709649;-0.04815315;-0.02669689;0.1727383;-0.15198934;-0.03074499;0.10684862;0.03187783;-0.018014796;-0.19895937;0.17792226;-0.0270109;-0.024688134;-0.02619397;0.13762487;0.10500453;0.20827277;0.028356884;-0.061128493;0.2859168;-0.04669537;-0.08742443;0.13701557;0.05970359;-0.075965606;-0.0018489471;0.02617391;0.007453026;-0.039661236;0.054929744;0.017909441;-0.045265026;0.17776328;-0.17147672;-0.091767564;0.16509125;0.016696507;0.020462597;0.13656189;-0.003643584;-0.04923907;-0.14241998;-0.08880428;0.032729708;0.07017031;0.023883807;-0.014692671;0.0058914553;0.316588;-0.005129303;-0.06577097;-0.072184265;-0.045067154;-0.010823965;0.2716547;-0.010013486;0.00978853;-0.1623039;0.1821352;0.15110375;0.20182265;-0.22742474;-0.0136780515;0.059731957;-0.017707648;0.23854429;-0.05465523;-0.016256023;-0.0098492;0.12981264;-0.048512336;0.0019634513;-0.0069956365;-0.35627708;-0.2676114;0.051990863;0.03140822;0.1270291;-0.04652299;-0.12962538;-0.008081446;-0.22714898;-0.090857;0.07185207;-0.08250358;0.07230864;-0.011721385;-0.041678097;0.027218712;-0.008816;-0.1966699;0.1632379;-0.12949072;-0.20234483;0.036096875;0.049799137;-3.0706236e-05;0.28276575;-0.033077605;-0.023858687;-0.17313671;0.054797955;0.030785417;-0.254724;-0.020648412;-0.24459848;0.16429569;-0.12491323;-0.033613145;0.118401326;-0.014862139;-0.062367667;-0.21508472;-0.1609662;0.034927294;0.05537294;-0.01062639;-0.18027915;0.0023694232;-0.065038964;0.012307676;0.05083088;0.008633742;-0.040783793;0.016578544;-0.19662578;-0.09617835;0.13402547;-0.0067285285;-0.059813384;-0.0057171797;-0.032431938;-0.0040141605;0.022229156;-0.04815495;-0.28538615;-0.22314933;0.16808969;-0.40546227;-0.086863935;-0.018407542;0.0011233679;0.084009044;-0.18767284;-0.042599663;-0.021959666;-0.40435845;-0.14744659;0.025495041;0.03760196;-0.26084918;-0.041783478;0.08589603;0.14234568;0.14876738;-0.07511821;-0.073259495;0.0991704;0.2548084;-0.085153095;0.2619261;0.022293823;-0.097952895;-0.02923236;-0.086683266;-0.12086793;-0.024901854;0.16920011;-0.1238642;-0.087273955;0.044220015;0.2004065;0.005200707;-0.13125883;-0.065521345;0.057119146;-0.057935797;0.059089553;0.07081388;0.0074598077;0.10625226;-0.0043660887;-0.29836097;-0.030213086;0.0789587;-0.04567831;-0.21393576;-0.045029424;-0.104257025;0.10704061;0.053931527;-0.13697991;-0.2762991;0.079984985;-0.098410465;-0.12606387;-0.045865897;0.05125199;-0.046886276;0.0043231905;0.020614676;0.012385761;-0.25437972;-0.049782306;0.098675236;0.00782735;0.09437734;-0.24694964;-0.043567106;0.014141796;-0.03067598;0.054151528;0.053946134;-0.3124057;-0.03253758;-0.25487474;0.106229946;0.2919944;-0.11445276;0.01495759;-0.072955966;-0.032318857;-0.023533512;0.0028376319;-0.14429326;-0.009591845;-0.025894696;0.043409478;-0.07224355;0.07980655;-0.2060132;0.12558186;-0.13190591;0.011552862;0.2507639;0.0061147003;-0.10075267;-0.11215938;-0.093155816;-0.010599903;-0.11617143;-0.10178772;-0.23587863;0.12764126;0.17785035;-0.074307226;0.009654945;0.0019991205;0.10767088;-0.044107057;-0.19370756;-0.009740075;0.055166274;-0.0133826425;0.05036184;-0.02090332;-0.08543494;-0.054106098;-0.1990085;-0.040805623;-0.01873979;-0.010545851;-0.06850301;0.030197661;0.24561855;-0.06883584;0.24193248;0.025636807;-0.036897;0.085237965;-0.113326706;-0.032251444;-0.25016156;0.022110943;-0.057266537;0.049681913;0.19024317;-0.00037194235;-0.34111336;0.00052760873;-0.05014547;-0.015492692;0.0729759;0.051537685;0.0537595;-0.047893707;-0.24429408;0.032111127;0.23136495;-0.026559046;0.06466962;0.018531015;-0.13905023;0.005151779;0.14286916;-0.030564973;0.17934085;-0.023122884;0.016897017;0.22610651;0.044179786;-0.23489971;0.13303211;-0.05081796;-0.23747885;-0.0035571503;0.027996695;-0.05166848;0.11110024;0.16547704;-0.08970761;-0.1109413;-0.020269513;0.26601785;-0.23539948;-0.32370687;-0.033426538;-0.12887216;-0.1278535;0.07181146;-0.35024697;0.00063277286;-0.0743595;0.16464336;-0.13505043;-0.22848782;-0.0379283;-0.27760386;0.026633615;0.15929572;-0.15253088;0.19580005;0.27719104;-0.19955829;0.10566476;-0.13056302;0.06942899;-0.07599967;0.036570422;0.0325751;0.044057712;-0.048766702;-0.011290092;0.10755243;0.0039683357;-0.014894764;0.019416712;0.128867;-0.060588304;-0.026085947;0.038673647;-0.07108417;0.0077412263;0.0689168;0.27305943;0.1471451;0.0565822;0.027648168;-0.03142288;0.13566616;-0.15469484;0.22135437;-0.0003239661;-0.005274199;0.11542746;0.09258405;0.06387134;0.048735317;-0.108854465;0.21256372;0.034713145;0.14487827;-0.038513497;0.027203277;0.050546657;-0.17877957;0.0012015733;0.23228778;-0.023850549;-0.006049789;0.043441463;0.03430859;0.009781965;0.037038337;0.053853095;-0.022590892;0.14434507;0.009928479;0.013446135;0.04887274;-0.11850188;0.02050366;-0.30671498;0.0013513049;0.0071503893;0.06194352;0.030605642;-0.25181738;0.070202805;-0.10060486;-0.108276725;0.06809568;0.0107446285;0.07794636;-0.023973312;0.036280848;0.13063055;-0.075296424;-0.048345726;-0.06692399;0.027375909;0.0451684;0.2098823;0.1691658;0.05604585;-0.034304492;0.012106149;0.008448564;-0.039637305;-0.29509395;-0.013093768;0.14375871;0.033104874;-0.0136741;0.034958724;-0.021147082;-0.35286105;0.058563497;-0.17520584;-0.16823313;-0.057719328;0.09919911;0.036419407;-0.17001331;0.086314626;0.18995817;0.039245117;0.10471984;-0.3128162;-0.019602884;-0.10215992;0.10926645;-0.029446052;0.19689633;-0.14985839;-0.07534769;0.04773423;-0.0096458625;-0.49942997
0.11440851;0.27268803;0.15035343;-0.05477753;0.006308908;-0.32963595;0.07382189;0.13293143;-0.025702277;-0.2528731;0.05899635;0.15181167;-0.17831902;0.19538274;-0.012975996;-0.15212595;0.009041781;-0.059219167;-0.06302576;-0.09174059;-0.016240077;0.011917972;0.05548251;0.1541792;-0.03819374;0.06614472;0.048836615;-0.00464922;0.04456487;-0.046869595;0.23088257;-0.0067873495;0.020756718;0.23507778;-0.18219838;0.0017255225;0.1764287;-0.1351071;-0.30364513;-0.09034134;-0.03075101;0.019512791;0.16876622;0.20133416;0.039960474;-0.06062585;0.03832696;0.056433026;-0.26881024;-0.002800649;0.0266816;0.3428165;0.10613286;-0.04031921;0.029324044;0.12009509;0.051245708;0.1864579;-0.0395777;0.073131114;-0.04775156;0.14250252;0.030062646;0.09537086;0.09627711;0.12767103;-0.017884172;0.2573794;0.0735686;-0.04971593;0.101058945;0.05487236;0.024300762;0.15934409;0.10754888;0.11863421;0.04593398;0.00036004832;-0.1792519;-0.029338775;-0.006087644;0.0560973;0.27146155;-0.17507477;0.005764517;0.13995552;0.05695281;-0.06158566;-0.035021644;0.056636136;-0.0050663273;0.18717048;0.026576653;-0.21310885;0.18459283;0.15633138;0.04364466;0.08045387;-0.019154757;0.08234023;-0.027628098;0.038068242;-0.1336072;0.032466672;0.027565306;0.012362911;0.07903869;-0.14244549;0.027930895;0.0057469807;0.1232745;-0.014843605;0.17643288;-0.21109399;0.13565631;-0.34873146;0.09025923;-0.14098857;-0.028961781;-0.033912577;-0.16860221;-0.020652294;-0.16767114;-0.02256677;0.027859004;0.023937704;-0.29284185;0.050546385;0.006351593;0.08686978;0.14552303;0.002112889;0.026835399;0.09268995;0.027391069;-0.041105986;-0.08180166;0.31062502;-0.028179893;0.0136388745;0.042711556;0.17439933;0.11449913;0.28559276;-0.036471702;-0.055705752;0.061008867;-0.031425238;-0.07198015;0.25227436;-0.07230683;-0.07005114;0.05837861;-0.10733189;-0.04711047;0.018523991;0.008941116;0.18357256;0.08587847;0.12727836;-0.13725403;0.055576157;0.16947399;-0.026671885;-0.06477484;0.27322254;-0.12991166;0.049335122;-0.1601281;-0.001976562;0.008587804;-0.0778607;0.008871602;-0.15534855;-0.098666266;0.5010097;0.020201406;0.030216359;-0.17863567;0.07641173;-0.027805999;0.12063541;-0.067074664;-0.031029893;-0.21553273;0.16269526;0.17472163;0.1246508;-0.07287943;0.042816713;-0.028027676;0.056689665;0.025998054;0.04648851;-0.023370763;-0.2134902;0.028544009;0.06886909;-0.11937431;0.014060663;-0.33266544;-0.10362798;0.13826919;0.057135183;0.13129826;-0.036451306;-0.10698424;-0.007982062;-0.18339927;-0.13896434;0.11587898;-0.21101578;-0.04374097;-0.038608972;0.038863488;0.07834418;-0.011452674;-0.20331591;0.16894399;-0.14162533;-0.20541802;0.062122464;0.0754813;0.021383023;0.17246509;0.05754821;0.06579488;-0.2993661;0.0061303843;0.04086293;-0.16990866;-0.015421962;-0.08828149;0.18766902;-0.073653676;-0.13316168;0.09046779;0.0071186055;-0.084364146;-0.12105618;-0.04181992;0.050648816;-0.0006227079;-0.037468195;-0.2329302;-0.047872104;0.025982268;0.041101377;0.047553644;-0.09594598;0.0010369784;0.034069397;-0.056801002;-0.06851468;-0.03815138;0.039844017;-0.056882452;-0.018804198;0.04452243;0.050840825;-0.006084173;0.09284286;-0.15041232;-0.10343864;0.14501247;-0.30813435;-0.013851803;-0.06062017;0.0076923002;0.21477784;-0.016561469;0.020643322;0.04737194;-0.1675487;-0.0680117;0.06885019;0.008703802;-0.21485883;0.08407695;0.13740033;0.12340036;0.1199703;-0.23621477;0.0092050545;0.13275103;0.03067374;-0.033168282;0.34764966;0.09898291;0.10990642;0.042360518;-0.07212786;-0.14773929;-0.015491352;0.12676996;-0.05369559;0.044876408;-0.04737289;0.1925056;0.012971415;-0.08317519;0.036613837;0.0052264584;0.12913801;-0.059140686;-0.031637676;0.052354075;-0.021536328;-0.034374934;-0.20610587;0.02549511;-0.053769812;0.11765637;-0.20278972;-0.15060498;-0.10023026;0.14823698;-0.05976083;0.07988289;-0.13342299;-0.064704314;0.029308556;-0.09185258;0.009625293;0.047111973;0.008998908;0.04394514;0.0036373767;-0.017537339;-0.07418168;0.067213856;0.17478657;0.15353423;0.12866202;-0.18576616;0.024946375;-0.028084096;0.023457218;-0.009254139;-0.044886667;-0.2566973;0.07172475;-0.18081182;0.13317357;0.37691805;-0.077969246;-0.016928285;0.04609655;-0.02321746;-0.061083157;0.016250936;-0.065515466;0.026418047;0.10139463;-0.02152182;0.123858295;0.08003802;-0.15258197;0.23539603;-0.024924133;-0.009872806;0.15914485;-0.031132238;-0.05722516;-0.096553795;-0.07969457;0.00856568;-0.016579492;-0.051929902;-0.38265148;0.13531135;0.28064117;-0.10000473;0.045235433;-0.027423408;0.023373058;0.15142909;-0.16388369;0.059640586;0.047485873;-0.04103981;0.0001528487;-0.0044773617;-0.15762842;0.033184364;-0.10931323;0.06021766;-0.10849265;-0.069042616;0.016230563;0.12494871;0.17699464;-0.121087536;0.19445217;-0.013995433;-0.021970602;-0.06221582;-0.117217645;0.077019535;-0.25722423;-0.013741008;0.03321347;-0.03790316;0.18718678;-0.022466822;-0.3499583;-0.0037382354;-0.01594078;-0.21454579;-0.11393752;0.026089521;-0.034209248;0.07313112;-0.2767819;-0.0020992903;0.19742997;0.015415013;0.035155002;0.021006813;-0.18006626;0.030807937;0.13675414;0.12122686;0.1831193;-0.038411036;0.009185989;0.05528041;-0.014416626;-0.28335133;0.17197296;0.017668713;-0.10340184;-0.035707496;-0.07108116;0.012666277;0.13113898;0.11162293;-0.045558576;-0.10639665;0.0016230968;0.25123718;-0.27369484;-0.24100465;-0.008164361;-0.008923394;-0.023766449;0.044398498;-0.22449192;0.09686269;-0.06417336;0.35056293;-0.03664988;-0.15502192;-0.020144453;-0.31093827;-0.05351781;-0.00542237;-0.15649474;0.16184552;0.2827244;-0.018527793;-0.074507974;-0.12990169;0.112195134;0.067770176;0.03450258;0.05218735;0.009749427;0.035374627;-0.0853154;0.084178664;0.026624294;-0.0021349592;-0.16140701;0.14127709;0.049519263;-0.015345098;-0.026771408;-0.026785266;-0.08740482;-0.17621726;0.29660144;0.23150581;0.165021;-0.068786725;0.05472546;0.18226688;-0.2009163;0.04855724;0.14309524;0.004249428;0.00484175;0.3135502;-0.030957794;0.038242746;-0.07757599;0.10547681;-0.051690653;0.09970554;-0.1548425;-0.0648138;0.100680895;-0.1676701;-0.031029182;0.29502517;0.0016121403;-0.10702796;0.028053746;0.05108867;0.06048025;0.112193294;-0.012075703;-0.00082967273;0.039936025;0.004006979;0.07397279;-0.04600961;0.12484104;-0.015617688;-0.23821585;0.24092762;0.03655177;0.02096626;0.016751772;-0.09306569;-0.043900922;-0.09831401;0.01728066;0.10469034;-0.051509175;0.173668;0.009990569;0.013707249;0.16133799;-0.0663657;0.014454502;0.11496729;-0.03338937;0.024163455;0.05619463;0.0024722172;-0.04183907;-0.06746498;0.0008995149;0.061735652;0.06010497;-0.3271949;0.021417757;0.1384277;-0.07979001;0.06897152;-0.016735116;-0.03859716;-0.25242493;0.21417746;-0.14811009;-0.13651285;-0.044741698;0.074881494;-0.06637321;-0.05529482;0.052385945;0.22034298;-0.0697447;0.2205441;-0.28623945;-0.011902993;-0.24864978;0.080029495;-0.02834989;0.21578944;-0.13217346;-0.29743883;-0.012366687;-0.0035922509;-0.26444215
0.1756786;0.17396209;0.19083773;-0.0510463;-0.04208204;-0.33835822;-0.0096926065;0.08329786;-0.00012697275;-0.16803086;0.0064928895;0.13487898;-0.1419198;0.2441372;0.02048397;0.035993736;-0.10072831;-0.192199;-0.060143154;-0.12526254;-0.14715514;0.009354133;0.02760063;0.07217878;-0.07612858;-0.015729258;-0.045284897;0.115944535;-0.039378166;-0.10846163;0.1334073;0.027202003;0.030108158;0.18460324;0.10043541;-0.08154898;-0.016805759;0.11265556;-0.28800464;-0.024730982;0.04122242;-0.0034513704;0.34872288;0.04467155;-0.049426228;-0.12719372;0.053497132;0.13251323;-0.06442112;0.03524568;-0.04282526;0.26090252;-0.03420738;0.051553525;-0.0155284135;0.091312476;0.038239747;0.1961365;-0.048613578;-0.11159397;-0.032612704;0.15028933;0.015295241;0.091807105;0.2713722;0.06788229;-0.08689392;0.09819737;0.22972885;0.015066171;0.091845736;-0.007289698;0.056677803;0.04545776;0.13800736;0.21805106;-0.056972366;-0.055898238;-0.2894294;0.010221072;-0.066588305;-0.043155726;0.10760956;-0.15126303;0.01456625;0.29548857;0.08725926;0.031320374;-0.032623827;-0.011403427;-0.0056299306;0.10794656;-0.018756574;0.05468583;0.27534524;0.038317937;0.019333348;-0.027870525;-0.24163379;-0.054844238;0.045291144;0.13705818;-0.11363222;-0.0531335;0.10560801;-0.09408608;-0.040459234;-0.12616949;0.11426548;-0.022970498;0.15946823;0.028158091;0.05923623;-0.11473562;0.18327108;-0.4219695;0.018233156;0.089747176;-0.008374004;0.083477855;-0.12027353;0.043242827;-0.15835318;0.0040007303;0.029446607;0.0069872853;-0.080415726;0.09007585;-0.014344724;0.13102089;0.10045912;0.059448227;-0.16416058;0.12811926;0.04669781;0.034364898;-0.10286169;0.32527715;-0.020582892;-0.003914945;0.13394827;0.18127963;0.008088436;0.2405194;-0.03996035;-0.11738126;0.3510969;0.0566393;-0.047557022;0.14870945;0.011887055;-0.057883434;0.116569705;-0.04307915;0.06355977;0.05280302;0.013293527;0.07398448;0.23846234;-0.0048972676;-0.13100663;-0.054026105;0.11029267;-0.001744318;0.024458148;0.23729788;-0.085287616;-0.0011750963;-0.21685772;-0.23280801;0.14922468;0.03579241;-0.013161202;-0.2510546;0.07882315;0.3123429;0.0584836;-0.029198276;-0.13326055;-0.02749911;0.036788672;0.008631931;-0.06009048;0.13023587;-0.31626007;0.10876085;0.23350626;0.011481815;-0.11788607;0.013117447;-0.018342495;0.022071972;-0.070990995;0.06395412;-0.021436486;-0.022202494;0.17070928;0.029751915;-0.06052168;-0.019668717;-0.3403039;-0.12175958;0.22238217;-0.070542954;0.14790447;0.022016438;-0.022038473;-0.0180155;-0.09460283;-0.03236282;0.07207538;-0.009413268;0.053500287;0.031018183;-0.088847496;-0.046786997;0.05191726;-0.010670874;-0.031194825;-0.0838657;-0.3607165;0.074687496;0.042574815;0.04671266;0.2564306;-0.027654847;-0.04253124;-0.29284522;0.021013478;0.19250059;-0.13090982;0.033309206;-0.11449544;0.13810597;-0.11747042;-0.11729711;0.19088939;-0.032907777;-0.22163685;0.07334758;-0.014795825;-0.0077990666;0.08182726;-0.050783638;-0.3604056;-0.06974004;0.047714878;-0.03113148;-0.095716275;-0.09283019;-0.018873733;0.0037975053;-0.08803298;-0.012581562;-0.16515005;-0.099976614;-0.11209425;-0.02807347;-0.023029022;0.10332552;0.030596092;-0.023657056;-0.21119575;-0.16788343;0.050933477;-0.17677619;-0.12775333;0.003115045;0.015297336;0.2129087;0.008846537;-0.019818038;0.037313845;-0.28314888;-0.008385994;-0.044500418;-0.007540381;0.054240834;-0.060165714;0.0793829;-0.0852683;0.0036916572;-0.21992625;0.110714816;-0.038870074;-0.14192787;0.05071716;0.13720074;0.035785876;0.21571858;0.014579197;-0.05122712;-0.22611287;0.011482714;0.1473214;-0.19398399;0.053119756;0.045738854;0.11451194;-0.041591793;0.18489274;0.016650435;0.006886766;0.17724705;-0.0020095727;-0.047314923;0.0014251281;-0.063849874;0.022137415;-0.11685672;0.023502305;0.09924892;-0.012272989;-0.16420804;-0.11959712;-0.13395993;0.19689082;0.045543123;0.1272826;0.13991968;-0.032530777;-0.0049014124;-0.19306672;0.012366791;-0.033434436;-0.113772415;-0.046090763;-0.028313044;0.05756712;-0.16449353;0.013139322;0.25534034;0.10341219;0.20032121;-0.1571251;-0.017761957;0.1085888;0.04329461;-0.13282293;0.02990849;-0.10327668;-0.014155981;-0.076871;0.11620829;0.15953234;-0.080486536;0.0634866;-0.025383258;0.010667253;-0.044233147;-0.014266065;-0.16901398;0.052322354;0.231991;-0.04918964;0.005652506;-0.04888318;-0.09131208;0.13809459;-0.1541659;0.021809049;0.12938763;-0.0074956785;-0.19485402;0.018312667;-0.007911552;-0.03209159;0.011163412;-0.002400746;-0.3804261;0.18997234;0.14907783;0.09888889;-0.006016417;0.13333556;0.09371569;0.14932117;-0.20356223;-0.019681048;0.18135716;0.031957746;7.559423e-05;0.06967001;-0.2804101;-0.0017107693;-0.1317488;0.029983586;-0.22512586;-0.0027729683;0.0862685;0.09828336;0.044222128;-0.040905774;0.16949157;-0.043375112;0.099367246;-0.025858885;-0.044682354;-0.062214106;-0.26592088;-0.02511458;0.04435622;-0.11389581;0.15872765;0.021261482;-0.3966265;0.09105147;-0.06192178;-0.09602652;-0.11096775;0.11834496;-0.11474032;0.015462282;-0.2487626;0.040979236;0.13329689;0.0032192823;-0.047588468;0.007872553;-0.11750706;0.029276136;0.005230699;0.15623043;0.17159012;0.012191563;-0.006736523;0.02278622;0.021360472;-0.26508406;0.07100863;-0.041300666;-0.18684962;-0.044988096;-0.0613907;0.002980048;-0.0012849532;0.07734653;0.029935764;-0.18218222;-0.0019134148;0.017384224;-0.33094016;-0.24775946;-0.02306235;-0.16121419;-0.034087963;0.03541591;-0.10837112;-0.08951839;-0.049647912;0.32977587;0.17879929;-0.08946207;0.020867769;-0.24663235;0.0368247;0.0509629;0.08296532;0.21427235;0.16715486;-0.16210625;-0.10786444;-0.15271422;-0.035987124;0.12618677;0.024713727;0.017100148;-0.02858798;0.11395428;-0.0056673666;0.0121749565;-0.050287552;0.00067766296;-0.22009692;-0.031225445;-0.018278375;0.056994844;0.0027094565;-0.009462136;0.034835536;-0.35295713;0.057028282;0.18244104;0.14294553;0.035234194;0.035729613;0.26596686;-0.042981073;0.10915118;0.0066068033;0.047346074;-0.07720684;0.10213327;-0.07448168;0.11396593;0.058939844;0.17318735;-0.06784533;-0.004655545;-0.23351045;0.02618023;0.31412914;-0.17383641;0.003425758;0.1780822;0.0026672443;-0.088153176;0.043289244;-0.05370174;-0.061607424;0.010035928;0.16520914;0.04744782;0.05478082;0.045706104;0.11384126;0.018584233;0.107559934;-0.18741223;-0.2504057;0.10784829;0.10645365;-0.030772166;0.08531534;-0.16905169;0.11592792;-0.15190363;0.02738074;-0.020924218;0.074063934;0.15263034;0.009837132;-0.031165875;0.02286018;0.11937759;0.010063778;0.13039392;0.0050987257;-0.005173575;0.15827194;-0.13510135;0.03811814;-0.17831264;0.0121984305;-0.043122873;-0.10770619;-0.27147776;-0.06288976;0.15966584;-0.06584046;-0.06420594;0.007791769;0.058514114;-0.30643445;0.26096684;-0.32160938;-0.040202267;-0.07976415;0.09238775;0.052459985;-0.004834792;0.08939013;0.12229364;-0.04410641;0.129481;-0.28471094;-0.003292187;-0.30317414;0.055864524;-0.0018642041;0.25885978;-0.14992476;-0.45666012;0.006259533;0.055153307;-0.23247744
0.18389049;0.10204068;0.14626212;-0.078349784;0.041546453;-0.26035276;-0.17131305;0.08483223;-0.026837846;-0.31355578;-0.011352561;0.11506345;-0.063151054;0.32718053;-0.048074767;-0.041742526;-0.12285138;-0.028439026;-0.102737136;-0.09395099;-0.025459338;-0.028408546;-0.058137443;0.12199875;0.05585645;-0.07633449;0.0018311113;0.10033404;0.060136132;-0.02882313;0.101789705;-0.013651267;0.04348802;0.12058971;-0.03338672;0.08046186;0.030417562;0.05235838;-0.30089507;0.012082165;-0.05955602;-0.07879887;0.33004308;-0.02145335;0.010600235;0.10932448;-0.06412253;0.13870274;-0.12248933;-0.062704556;0.0029195487;0.38288575;-0.0033359753;0.045398887;0.055889744;0.059663385;-0.057512164;0.063608915;0.051754005;-0.14530802;0.042921364;0.14313786;0.020476274;0.0704236;0.26375777;0.026392099;-0.017669575;0.17987747;0.19462475;-0.056029487;0.18463908;-0.06326224;-0.050086144;0.0012125331;-0.13015935;0.23234051;-0.028677624;0.0039028327;-0.21583813;-0.0063923956;0.038390856;-0.13569969;0.07275219;-0.14273788;-0.06535442;0.2771656;0.16943145;-0.024274388;0.028402148;-0.067356035;-0.019784924;0.09010453;-0.05610699;0.12726675;0.1305631;0.008249243;-0.011949586;0.11858046;-0.08559357;0.1286825;0.039393008;-0.09694544;-0.0503298;-0.008124233;0.007054453;-0.10799385;0.04527656;-0.15496634;0.20253508;0.047863632;0.21108729;-0.104247145;-0.047961906;-0.2475117;0.3024983;-0.26661828;0.0663278;0.0018552247;0.020273905;-0.14348254;-0.16784391;0.012786296;-0.09055084;-0.06413805;-0.029482266;0.038219426;-0.13098338;-0.041613527;0.07836843;0.0938093;0.12720694;-0.07125262;-0.21669517;0.111090764;-0.07948183;0.2386015;-0.09091389;0.21242252;0.034384165;-0.017924901;0.21240215;0.16879869;0.002638872;0.045456354;0.011577909;-0.0031104516;0.49501967;-0.009654431;0.041576993;0.14113782;0.016980723;0.0008185536;0.11477141;0.0046745474;-0.016311938;-0.010638732;-0.036590472;0.23673758;-0.0032652798;0.008158193;-0.14748628;0.039527062;-0.006680036;0.051071182;-0.008475651;0.23316394;-0.15868722;-0.025164373;-0.24316126;-0.16406542;0.07366925;-0.0064253835;-0.00786976;-0.10430568;0.14500959;0.2530838;0.023762697;0.032378525;-0.17996521;0.0132169975;-0.0031064206;-0.011492963;-0.006860381;0.10341187;-0.35624886;0.20216863;0.2282191;0.12591712;-0.22214824;-0.0011466297;0.05067419;-0.07951776;-0.14609437;-0.053190164;0.05000559;-0.022057598;-0.014913134;-0.02876032;0.066629745;-0.0021036044;-0.061198298;-0.12238234;-0.0065919817;0.048529953;0.077711806;-0.0121536795;-0.17445241;-0.04132971;-0.19131999;-0.20846394;-0.010534152;-0.014382266;-0.03685873;-0.019704023;-0.11793268;-0.025257569;0.014768311;0.055605944;0.029677236;-0.11059868;-0.31994322;-0.0064016613;-0.13260747;-0.013830684;0.046203885;0.01964348;0.06379942;-0.30454662;-0.05745266;0.1126107;-0.1579344;0.0019079138;-0.15242209;0.18882191;-0.055479765;-0.042572416;0.016476894;0.044031613;-0.12519526;0.037839074;-0.12346715;-0.0049744695;-0.04826134;-0.10115099;-0.25044963;-0.06887843;-0.05491309;-0.0011400216;-0.19845867;-0.15350713;0.020340836;0.019929951;0.09047032;-0.094549745;-0.055951208;-0.023022158;0.030445307;0.03317879;0.011976494;0.25315526;-0.008424954;0.03621709;-0.23979981;-0.26490778;0.09572253;-0.14763455;-0.0005386385;0.044989407;-0.03449335;0.32970864;-0.1572343;0.0326347;0.034855638;-0.23017609;0.019538285;-0.002078395;-0.045156527;0.05496935;-0.18751884;0.1503612;-0.00685885;-0.0010157139;-0.3463869;0.118676886;0.04621521;-0.060187995;-0.085402936;0.14812604;-0.089784324;0.13989177;0.013058534;-0.16162273;-0.22848278;0.05573169;0.15150315;-0.068111025;-0.014681884;0.017686695;0.2102588;0.042430237;0.115787275;0.023333522;-0.025371;0.039820414;0.01963875;-0.007061649;0.02991194;0.040472534;0.010449904;-0.1681342;0.009326979;0.078399956;0.060531616;-0.2792746;-0.13785121;-0.080822654;0.040169563;0.00082889857;0.15582137;0.032541815;-0.07309452;-0.0050214836;-0.16333047;0.010592755;-0.05124051;-0.08896399;0.0037007139;-0.0076072933;0.03968519;0.1204874;-0.010582579;0.24156287;0.1623913;0.25480306;0.1257683;0.033136066;0.14356114;-0.0617803;-0.24622495;-0.038231876;-0.16130833;-0.009841614;-0.042909455;0.10714095;0.10323802;-0.034208562;-0.031433187;-0.006257777;-0.019986944;-0.15746978;-0.012056982;-0.18578649;-0.03482071;0.17225733;0.023571057;0.040220436;-0.04472006;0.061590448;0.08791815;-0.16478212;-0.05133344;-0.008306809;0.04356422;-0.19551718;-0.044399567;0.080113;0.047910634;0.06783337;-0.02317108;-0.34225345;0.12861936;0.094469704;0.11799414;-0.019235246;0.17031577;0.15910709;0.11657387;-0.24694666;-0.010785645;0.13580967;0.020482855;-0.047618285;0.010621705;-0.17343922;0.003917929;-0.120162345;-0.052521683;-0.18662208;-0.020352304;0.08093317;-0.11427789;0.0033560283;-0.08145386;0.23576929;0.010767613;0.07912251;0.01292371;0.013029015;0.041187357;-0.29556042;0.026365263;-0.018973267;-0.17745511;0.060059402;-0.049803946;-0.32075045;0.063174985;-0.15201098;-0.23045613;0.048832312;0.09106932;-0.032039043;-0.061146006;-0.27606422;-0.048823807;0.10423828;-0.0017377997;0.09364113;-0.017510353;-0.1861712;-0.06156291;0.04591368;0.115353204;0.29587433;-0.034730207;0.044573847;0.032109827;0.047173407;-0.27864784;0.2686838;0.06757362;-0.19834957;0.030289931;0.07799634;0.030219441;0.041045323;0.0148265185;0.013271865;-0.13868317;0.0032136138;0.07326207;-0.14536029;-0.13302918;0.038667962;-0.044007517;-0.06486846;-0.014901576;-0.0731874;0.045170236;-0.11440769;0.33392;-0.043489836;-0.11825523;-0.013931596;-0.29945904;0.05486444;0.09684333;0.08070169;0.103702135;0.1405744;-0.057791904;-0.053921852;-0.14492401;0.04111931;0.045782033;0.15018113;-0.092362866;-0.16041374;0.22466415;-0.045532037;0.02893214;-0.20822892;0.020930175;-0.28527558;-0.14380218;-0.03606337;-0.03613196;0.0032338528;-0.090005964;0.037415486;-0.26331702;0.047755037;0.20550196;0.16907719;-0.0599897;-0.07053963;0.16335104;-0.1819877;0.21153004;0.117993556;-0.055301983;-0.0073998547;-0.09970339;0.013674422;0.36925098;0.13765734;0.016250161;0.013758544;-0.002080494;-0.35501578;0.029869583;0.291359;-0.070024654;0.048659872;0.07971937;0.055048533;-0.035154324;0.07488978;0.031629182;-0.00399248;0.23446175;0.031929225;0.0056405426;-0.084087856;-0.057612117;0.111174025;0.061941266;0.11596129;-0.13360727;-0.28950214;0.03935992;0.016701387;-0.06981429;0.06269991;-0.06818499;-0.07594388;-0.11439833;0.06703346;-0.03132041;0.016877605;0.10120609;0.041532643;-0.020465076;0.035834134;0.122201435;-0.026695378;0.16779518;-0.013079457;0.000733657;0.1127333;-0.1373051;0.014793533;0.010895567;-0.02678931;0.014719756;-0.020358007;-0.24023914;0.034948587;0.096803315;0.11883172;0.02065095;0.03212554;0.03258536;-0.2117225;0.2910912;-0.38167542;0.038195677;0.103079535;0.043075036;-0.01689771;-0.16820142;-0.030796334;0.30355567;-0.0020971706;0.12805213;-0.2813138;0.030947778;-0.1848819;0.23538105;0.086067125;0.14861293;-0.04343728;-0.411535;-0.019873012;-0.01902291;-0.103889786
0.14198954;-0.08874303;0.064842366;-0.14026348;-0.032029424;-0.27660292;-0.30080885;0.06794842;-0.0060258484;-0.10242231;-0.027169561;0.05381644;-0.067819245;0.38114786;0.015777014;-0.025619322;-0.17074898;0.007923328;-0.031575006;-0.0311988;-0.1300758;-0.00023179493;-0.012093594;-0.045245755;-0.03642358;0.067975394;-0.004506549;0.01081932;-0.010095265;-0.10000069;0.12686878;0.029391002;0.017400173;0.23742871;0.0309359;0.11913045;-0.13503715;0.20311376;-0.056055386;0.0909863;0.051868748;0.052501816;0.057147797;0.05249082;0.0040954873;-0.18825778;0.003554232;0.17506541;-0.054787528;0.0072997306;0.029628566;0.09163569;-0.24037439;-0.057655923;-0.050652314;-0.07338908;0.0037259418;0.06928367;-0.015462011;-0.051055357;-0.032214798;0.04465796;-0.054885898;-0.023501763;0.15399897;-0.028603682;0.039174374;0.051650845;0.14048232;0.04355759;0.05102328;-0.012843406;-0.046494305;-0.04943283;-0.059940446;0.20767605;0.024997892;-0.036908068;-0.32965213;-0.030087572;-0.0021171027;-0.07323305;0.15182026;0.086573765;0.054203622;0.38279974;0.20646858;0.053115238;0.03590464;0.06335074;-0.02416544;-0.06305147;-0.07400967;0.24622524;0.16204992;0.03767829;0.0033440618;0.07080216;0.06538838;0.20930173;-0.057998575;-0.034417473;-0.20344627;-0.013647606;-0.18273285;-0.1196467;0.00391424;-0.22585623;0.12917608;-0.044623166;0.28928372;-0.09745617;0.09515128;-0.24562602;0.3815355;-0.23677762;-0.07369726;-0.037885927;0.055820834;-0.16204448;-0.057325453;0.026013628;-0.16484359;0.065916784;-0.0326421;0.015020138;-0.052878056;-0.007346798;-0.04282946;0.008883946;0.2040735;0.13652572;-0.1076575;0.21309245;0.0071816714;0.2066179;-0.15585814;0.21473813;-0.03685747;0.025777128;0.22639729;0.119170964;0.005784485;0.064318836;0.0033223704;-0.07905783;0.40715215;-0.031341128;0.06603267;0.030670093;0.022566603;-0.0018365466;0.027492352;-0.025563674;-0.0064014615;-0.016273776;-0.06517434;0.1407324;0.06746841;0.094350904;-0.11783633;-0.022825502;-0.016202262;-0.032364532;-0.030715605;-0.06503747;-0.23441024;0.012260929;-0.094209954;-0.26118463;0.1795348;0.06663024;0.011325179;-0.2955186;0.07741467;0.07349673;-0.05312975;-0.051099546;-0.122165985;0.04595159;0.04390426;-0.154426;-0.13387252;0.21779218;-0.369935;0.31541562;0.19745144;-0.05863825;-0.21623352;-0.017047806;-0.057760008;-0.014659445;-0.22264408;-0.06588414;-0.0061191414;-0.06457755;-0.11835819;0.018283391;0.09231626;0.045010336;-0.20893694;0.050763216;0.060330983;-0.004481516;0.15771039;-0.007660668;0.046753235;0.041966684;-0.09460252;-0.26536116;-0.060926445;-0.1423002;-0.028115267;-0.007966371;0.0044802357;-0.0046403795;-0.07337453;0.10536833;-0.12580827;-0.091458745;-0.16732883;-0.0011812856;-0.10443132;0.0020520634;0.10756769;0.038219366;-0.046272475;-0.24857506;0.05078669;0.082232215;-0.1171852;-0.022220088;-0.18724327;0.10745685;-0.04291708;-0.041273244;0.028128257;0.038611304;-0.085648306;-0.04676239;-0.135416;-0.062667;-0.05327122;-0.06050241;-0.3129952;0.0037790898;0.012827151;-0.05968867;-0.20970985;-0.11049482;0.020748546;0.06144882;0.08792957;-0.041651845;-0.12028471;0.08885671;0.043719377;-0.0582925;-0.09158734;0.13779528;-0.038396172;0.00090325455;-0.19381881;-0.22017732;0.025965163;-0.16470748;-0.035080254;0.06169293;-0.155834;0.3246476;-0.118344136;0.15852262;-0.040533807;-0.18558091;0.04096091;-0.023123784;0.042414047;0.029047161;-0.084777094;0.12500419;0.10383676;0.023494156;-0.39894578;0.26773354;-0.28959328;-0.18241775;-0.09523686;0.12209296;-0.15116447;0.08248797;-0.016269438;-0.1835489;-0.19913295;0.16064763;0.07049353;-0.16383496;0.09377484;-0.018689452;0.28254658;0.0061890534;0.15972196;-0.019285435;-0.07300864;0.0018404186;-0.0044643157;0.13274632;-0.047873236;0.03365776;0.0077092987;-0.19081557;0.04463459;0.26103556;0.2010362;-0.086845286;-0.2366224;-0.100483656;-0.0466726;-0.04206388;0.1350056;0.04437524;-0.13231187;0.07199574;-0.18117113;-0.03546072;0.0024940046;-0.26643214;-0.021600006;0.008257526;-0.058014426;0.05100309;-0.032708753;0.16272618;0.110850416;0.1928704;-0.008792655;0.052958615;0.0418479;0.051265884;-0.2413363;0.04237177;-0.12243344;0.01908819;-0.064399816;0.2026806;-0.0874379;0.024637494;-0.06368591;-0.017122217;0.0548351;0.0027442027;0.0074392143;-0.24817728;-0.08470204;0.035790797;0.04887786;0.175704;-0.07476999;0.088219866;-0.1912481;-0.08297908;-0.038021553;0.023222858;-0.0078616105;-0.16747402;0.12371595;0.27530113;0.047490593;0.02929407;-0.06287967;-0.29516003;-0.09558285;0.07229654;0.022942191;-0.009353373;0.12003544;0.20324185;-0.08434341;-0.21716557;-0.03526095;0.21662474;-0.06817998;-0.028930388;-0.010933342;-0.119616404;0.021609977;-0.1183667;-0.013974923;-0.1865661;-0.029957632;-0.03106541;0.17780915;0.03970381;-0.15667886;0.22782148;-0.012647174;0.17677563;0.009045043;0.042251587;-0.04442267;-0.25812364;0.034517616;-0.042405877;-0.1428974;0.008881769;-0.055151902;-0.16594008;-0.08701737;-0.31957403;-0.24862094;0.05179802;0.028647805;-0.084703885;0.06476205;-0.13330637;-0.04589873;0.0029090324;0.04193355;0.04356853;0.003397305;-0.25585133;-0.018522667;0.15830232;0.042202774;0.31693894;0.022424133;0.045479193;-0.054801397;-0.04774332;-0.33872437;0.26647592;-0.04684042;-0.11304628;0.026030008;0.08812544;-0.0107675055;0.080894426;0.21995425;0.10692723;-0.06966294;0.009470625;0.18557447;-0.12571265;-0.28943238;0.031465486;-0.08236247;-0.09146782;-0.012826872;-0.021059167;-0.038319267;-0.031068454;0.06346638;-0.10926987;-0.08428607;-0.01574486;-0.16922209;-0.090670295;0.16398337;0.07244055;0.06218092;0.10105025;-0.032393157;0.019914225;-0.08626759;0.16335171;0.13516511;0.10581853;0.0064355996;-0.05994314;0.23813583;0.034106933;0.0028856187;-0.20432177;0.04557806;-0.23727895;-0.0983152;0.026788253;-0.06547532;-0.012547635;0.0005374865;-0.043277077;-0.20334555;-0.27718487;0.14277157;0.065532915;0.049230915;-0.009083196;0.12092781;-0.14313032;0.13266289;0.14697061;-0.009794774;-0.026087964;-0.10122836;-0.069516756;0.2662469;0.06824198;0.0024561684;0.054578424;-0.052151352;-0.3311644;-0.0015163238;0.030196607;-0.09915786;-0.011802541;0.049199134;-0.03350408;0.15274058;-0.031017242;-0.050519172;0.007515311;0.16432123;-0.08708443;-0.02261381;-0.18051465;-0.0066902298;0.06624029;-0.02159006;0.20518135;-0.21675307;-0.3414173;0.023294002;0.044322263;0.058294624;0.026069665;-0.22605658;-0.18747532;-0.028396973;-0.07108673;-0.11076886;-0.053653974;-0.023188496;0.043012213;0.04700017;0.13884492;0.08972644;0.030011918;0.10490806;-0.03342535;0.01216474;-0.016894963;-0.07280217;-0.0034789385;0.044752926;0.045403484;-0.037764166;-0.06449552;-0.3468149;-0.01779265;0.047341604;0.21931736;0.014609026;0.11047632;0.004623015;-0.09741732;0.26087055;-0.38024735;0.16087763;0.100886375;0.09202705;0.01786714;-0.09685328;-0.07159072;0.29797298;0.12543185;0.021982785;-0.28291422;0.0013586483;-0.14761838;0.19805123;-0.046413835;0.13389717;-0.184714;-0.37683022;-0.0074659316;-0.05076923;-0.020322628
0.32738358;-0.031479616;0.06922451;0.0087069245;0.0014546537;-0.13705902;-0.3276477;0.09597339;-0.011002857;0.00492559;0.017912202;0.03807547;-0.078209154;0.26665738;-0.12201573;-0.0441653;-0.12106018;0.07591026;-0.03172819;-0.040450178;-0.07032842;0.0318173;-0.058964692;-0.12295187;0.08386726;-0.004351432;0.0077023827;0.035515588;-0.051366836;-0.13541251;0.15867087;-0.012451724;-0.10865968;0.09123128;-0.003983834;0.088510446;-0.055328883;0.06659123;0.054799177;0.18895207;0.0044321995;-0.007919542;0.17063436;0.105727054;-0.030906504;-0.028737122;-0.03451879;0.14836013;-0.11308577;0.021084156;0.0078913495;0.1650737;-0.22576822;-0.037432767;0.010727276;-0.13792744;-0.033263497;0.015617686;0.042453226;-0.03077958;0.0036505857;-0.039983347;0.02874183;0.07055251;0.0492566;-0.21071067;0.0115916375;0.10884655;-0.068373255;0.036335375;-0.05172955;0.04580198;-0.020434078;-0.12842499;-0.11988308;0.0950763;-0.025856674;-0.092581764;-0.32957056;0.055394247;-0.0182957;-0.23730546;0.14633738;0.06685309;-0.028737066;0.3031631;0.3073055;-0.0014258268;0.0050811893;-0.021955686;0.01185196;-0.0434203;0.039937973;0.14489247;0.19366983;0.09029199;0.0626275;0.24518184;0.0874755;0.22329405;-0.01873882;0.0084781675;0.032017045;0.01197578;-0.13943332;-0.11703416;-0.065891385;-0.2701288;0.03281992;-0.00057981943;0.08245086;0.005519813;0.22105934;-0.36933693;0.27011067;-0.32802263;0.007504867;0.06008869;-0.048174962;-0.15479447;-0.16778381;0.008184291;-0.25630373;-0.04511568;0.024912968;-0.061392896;-0.104285665;-0.03612992;-0.040851127;0.22641483;0.2265269;0.08035843;0.060447656;0.086234264;-0.02905202;0.30367377;-0.056252282;0.23562928;-0.0461053;-0.056704555;0.17367925;0.11416775;-0.040712923;0.090864986;0.06263287;0.123458296;0.4286989;0.020365624;-0.06834057;-0.012792426;-0.04928701;-0.15637225;-0.0753089;0.07030015;-0.03893103;-0.03175795;0.02008636;0.32308167;0.007854638;-0.0761767;0.14295937;0.070528165;-0.17433564;0.03832414;0.027150406;-0.1353804;-0.19834496;-0.013402143;-0.0726146;-0.089120485;0.098524146;-0.031259503;-0.018532671;-0.080989085;-0.044280786;-0.03961951;-0.008325262;0.02206769;-0.07921643;-0.023956446;-0.06657288;-0.223085;0.023445668;0.2334644;-0.31209868;0.4844808;0.18975331;-0.110764444;-0.27476218;-0.02834481;0.09567745;0.06127907;-0.40322813;0.047064725;0.0637825;0.05002832;-0.18043834;0.03168357;0.12896675;-0.022538235;-0.25108618;0.08211818;0.27132192;-0.034317955;0.029598366;0.031530876;0.053975448;-0.008793634;-0.034893297;-0.27148974;-0.048527;-0.09355537;0.027709512;0.04786169;0.07647169;0.008773388;0.024538336;0.2977583;-0.10136718;0.045563;-0.16206951;0.18381082;-0.25846118;-0.067744896;-0.07982076;-0.05347596;0.024201076;-0.15939659;-0.06266613;0.02541754;-0.1401696;-0.013890354;-0.19475119;-0.07253392;0.057581525;-0.050791454;0.036355503;-0.044787724;-0.2078394;0.060486242;0.04152711;-0.01883188;0.0032974211;0.037427;-0.31142962;-0.013586046;-0.06365143;-0.033034384;-0.19694424;0.06580501;-0.054868527;-0.024377942;0.17347099;-0.06448264;-0.05436184;0.10502013;0.02411163;0.056611646;-0.030797763;0.10389751;0.018335942;-0.05018103;-0.24110197;-0.23605421;0.049143445;-0.1983504;-0.005789541;0.001037919;-0.03135418;0.44634044;0.13791557;0.08575291;-0.046294164;-0.042256534;0.22062889;0.039567377;-2.7901893e-05;0.057546735;0.17936856;0.019289877;0.07002025;0.006405027;-0.32339144;0.21359953;-0.20347224;-0.28447422;0.040813312;0.1439293;-0.3500278;0.22082964;0.022102395;-0.12176132;-0.14773047;0.120035626;-0.046247594;-0.11075073;-0.005478923;-0.052163497;0.18518963;-0.015859544;0.050428525;0.007534182;0.067243434;-0.06596674;0.019747792;-0.0048323725;-0.008125042;-0.061303806;0.021873336;-0.13497002;-0.048472844;0.16140442;0.28272164;-0.1247957;-0.18840969;-0.09213717;0.003494162;0.05375636;0.21910496;0.077093005;-0.15678212;0.07190376;-0.050087295;0.01515142;0.0075496812;-0.32781392;-0.002016561;0.01906103;-0.0064526093;-0.042643793;0.024622891;0.20758994;0.0011973595;0.09715176;-0.20102884;-0.063322835;0.027079964;-0.013103506;-0.036725067;0.048975226;-0.22124448;0.0053187143;-0.051695473;-0.028600207;-0.113056816;-0.053293157;0.026945867;0.057056352;0.036573946;-0.050381526;-0.032746386;-0.1515217;-0.12959427;0.059910662;0.010178754;0.16274095;0.024354823;-0.0694027;-0.24264555;-0.12690264;0.051022053;0.08222622;-0.017517367;-0.27277988;0.1418081;0.35362932;0.07905051;0.065440156;-0.13952744;-0.26182413;-0.40497366;-0.03073336;0.1788389;0.013751675;0.2118372;0.12685853;0.029792463;-0.110216685;-0.04243249;0.16892512;0.0175338;-0.0006601933;-0.013090042;-0.08457635;0.025886463;-0.05594843;0.042906247;-0.3037297;0.17763464;-0.025881676;-0.037126563;0.02040059;-0.026493812;0.23332189;0.014901009;0.11215689;0.02332158;0.04131479;0.066317834;-0.23975955;-0.00586321;0.05532409;0.025346389;-0.0053658434;-0.032769512;-0.06712515;-0.030081728;-0.3810246;-0.09141728;0.08796102;0.10346517;-0.10391794;-0.0041214745;-0.12627745;0.06392332;-0.11192536;0.0149703;-0.12746945;-0.031723104;-0.2832785;0.0065520955;0.05025337;0.1635175;0.3375768;0.07431583;0.13225326;-0.094340004;-0.022656469;-0.41823804;0.4246712;0.008286155;-0.08371744;-0.03270881;-0.086500265;0.00091718603;0.036096558;0.20249291;0.15539418;-0.11469694;0.05624043;0.26673147;-0.29037645;-0.27231932;-0.056995172;-0.016987626;-0.063262716;-0.070236385;0.036463536;-0.23320109;-0.029282229;0.1532722;-0.24595594;-0.22633357;0.060935296;-0.015589091;0.07486472;0.25097847;0.24657016;0.12338572;0.064166516;-0.08996033;0.009539995;-0.15985048;0.15791136;0.0030665873;0.01964165;0.28266189;-0.18874095;0.2174378;0.014410088;0.022168353;-0.14327736;-0.08899363;-0.4029733;-0.10193655;-0.0024142456;0.025784623;0.05314544;-0.08171904;0.034273785;-0.2397848;-0.2328039;0.07874391;-0.06059445;-0.0064302073;0.0040467368;0.10414038;-0.28348204;0.17362167;-0.046471402;0.024651423;-0.12291486;-0.16595817;-0.027416773;0.11691769;0.16359535;0.011966571;0.013331059;-0.018934805;-0.22007148;-0.048697922;0.012400945;-0.046069663;0.0060175406;0.03998888;-0.0007709302;0.07782836;-0.09280209;0.042770553;-0.049468096;-0.12880841;-0.16275704;-0.015552689;0.05083277;-0.030343495;-0.025692387;-0.08131541;0.14833967;-0.18814851;-0.28819507;0.015944926;-0.039181836;-0.0051144026;0.05600271;-0.29157165;-0.1312112;-0.15284905;0.12190043;-0.3035445;0.006564166;0.086908795;-0.031692293;-0.0036746399;0.16365688;0.19949995;-0.0072052362;0.11148842;0.008229087;-0.022273568;0.15910646;-0.1395981;-0.019135743;0.19564751;-0.024430048;-0.03293043;-0.038401518;-0.33919787;0.05875641;-0.031654622;0.1299294;0.0017799012;0.09082877;-0.073875904;-0.01753317;0.15477216;-0.20820665;0.09166207;0.15394728;-0.020535449;0.03317141;-0.14026485;0.009417287;0.33622795;0.15901493;0.056851767;-0.090268806;-0.0076525076;-0.056789905;0.30556118;-0.006125237;0.19005622;-0.118248045;-0.27322084;-0.018840978;0.048572004;0.1110596
0.14449684;-0.010402745;-0.030315898;-0.04606561;0.03219072;-0.113132894;-0.4083846;0.13414498;0.04876023;0.20131971;0.027299538;0.123715825;-0.096924335;0.19027254;-0.02520347;0.03688268;-0.3006109;-0.035885982;-0.15366328;-0.113927834;0.09808091;0.01749521;-0.092504665;0.032208875;-0.098765254;-0.027098132;-0.004501995;0.11903596;0.016188681;0.0063108406;0.11921987;-0.014473148;-0.09097049;0.11033047;0.29087153;0.24895768;-0.12694955;0.09678;0.18178049;0.11970647;-0.027523367;0.028864264;0.16465652;0.11915269;0.015497461;-0.0048443335;0.02428642;0.25824726;0.044788137;-0.0138831735;-0.055634804;0.18248533;-0.22546984;-0.011866695;0.02393241;-0.17916851;-0.0067185946;0.03418726;-0.14298108;-0.019847691;0.002258558;-0.005724721;0.010016607;0.1433888;0.151083;-0.30331093;0.009444086;0.10323364;0.06017245;-0.015498141;-0.088771805;-0.0066612866;0.027757244;0.012502961;-0.26887697;-0.069183335;0.037388057;-0.022945393;-0.1033056;0.006628331;-0.04229974;-0.18319112;0.011720431;0.12126341;0.014608771;0.30595696;0.20462091;0.015146496;0.03538434;0.025692347;0.057838045;-0.0517916;-0.11034309;0.0947716;0.16956353;0.03570353;-0.097892754;0.21296728;0.017057665;0.44867048;-0.026583413;-0.050307132;-0.01934892;0.010987377;-0.023635883;-0.13768251;0.09181583;-0.100846104;0.048005976;0.026943509;0.027468156;0.08176808;0.27388582;-0.2593756;0.34515053;-0.13605824;-0.09223597;0.003229839;0.0010723085;0.06285202;-0.25225303;-0.017086973;-0.28100917;0.04282453;-0.041113697;-0.010953276;0.048628394;-0.11448283;0.015534873;0.121406846;0.25488442;-0.046946198;0.17524478;0.116092496;0.05953598;0.24042088;-0.03560565;0.13349587;0.07136837;0.037529573;0.04798538;0.1261118;-0.09939656;0.08678236;-0.0058344644;0.038020484;0.2328868;0.04961249;-0.07829156;0.05950119;0.051716115;-0.19894046;0.057139833;0.030508108;0.00655811;-0.0054453425;0.05086608;0.119891115;-0.13550062;0.020578202;0.04499175;-0.056397345;-0.0358292;-0.03344225;0.0008028093;-0.23281276;-0.16881071;0.017407775;-0.028254177;-0.050045088;0.121021904;-0.0057259775;0.0019257526;-0.016152032;-0.014536667;-0.019950908;0.01180956;0.020266866;-0.023467764;-0.0010541801;0.005375119;-0.25862578;0.08363307;0.16225608;-0.13627046;0.35115567;0.058711424;-0.18183276;-0.10138599;0.0093146935;0.22348121;0.017193189;-0.30897692;0.04985622;0.0013185845;-0.0041151852;-0.061956376;-0.06632618;0.07331979;-0.061755255;-0.27009052;0.17749712;0.16680577;0.05262289;-0.04410527;0.038832616;0.14641649;0.0087866485;-0.10126263;-0.42957988;-0.1026494;-0.099795155;-0.049423896;-0.020723887;-0.0086768195;0.028607924;0.18334001;0.17569233;0.13428448;0.20297809;-0.10168451;0.06150902;-0.20959434;0.004904307;-0.061728865;-0.0037922089;-0.05899681;-0.21963713;0.024524216;-0.0055370657;-0.14111935;0.04447563;-0.20488791;-0.12830266;0.04957316;-0.07193642;0.005694971;0.02194469;-0.18419835;0.037432;0.04206612;0.024236172;0.0005344094;-0.08149928;-0.30309457;0.072704725;0.03027246;-0.07226462;-0.104106925;0.011001677;0.05165693;-0.040697344;0.24078572;0.06480191;-0.031156577;0.005398206;-0.07879024;0.012361053;0.034207728;0.0510574;0.046622608;0.02718434;-0.3047622;-0.46072745;-0.13574706;0.05160594;0.13050437;0.10761896;-0.011180313;0.34775653;0.16787077;-0.033733707;0.005679095;-0.14971489;0.20121913;-0.05545699;-0.022770882;0.24404746;0.09701676;-0.018809017;0.0746615;0.07481174;-0.23321252;-0.037082504;-0.38401988;-0.1749613;0.09905332;0.23918208;-0.2545565;0.20892398;-0.0477795;-0.2798016;-0.09575311;0.16810003;-0.0097963065;-0.20669486;0.026541589;-0.013023952;0.26185894;0.024096247;0.020833032;0.007480272;0.023294805;-0.119077526;-0.0028573554;0.028361298;0.023075478;0.019654544;0.07325334;-0.055438846;-0.03499094;0.10281647;0.18371083;-0.10098542;-0.08780443;-0.17133833;0.027057296;-0.012860092;0.20121484;-0.0062938607;-0.08595131;-0.0071114167;0.08363323;0.04186198;0.04217221;-0.1821062;0.043384433;-0.0020604276;0.016008561;-0.022054609;-0.0028261482;0.2974417;-0.14904357;0.16570978;-0.23732471;0.021004563;0.074085735;-0.03253083;0.124089815;-0.035677385;-0.009338673;-0.06886172;-0.08722813;0.06094368;-0.13867298;-0.027320078;0.050103746;-0.022558678;-0.056286227;-0.055540938;0.040525474;-0.22977147;-0.0069148457;0.030496001;-0.07672364;0.16603918;0.06367937;-0.026152592;-0.04959406;-0.15785418;0.01257049;0.114485726;0.030629583;-0.20267281;0.09820804;0.2398642;0.05512106;0.023166329;0.049777705;-0.15113448;-0.49586415;0.10398743;0.08112076;-0.0051263105;0.23680271;0.13960838;-0.0908528;-0.21699178;0.018144293;0.17388812;0.017225178;0.05823564;-0.05076224;-0.083794974;-0.05668673;-0.067049116;-0.021847688;-0.092119746;0.3182078;0.053039864;0.06619843;-0.047990758;-0.14409043;0.11425701;0.005584395;0.1442875;0.049539126;0.030440949;-0.020032376;-0.09246158;-0.03833031;0.014696357;-0.012541461;-0.047689755;0.026016366;-0.21858892;-0.10190574;-0.41397217;-0.08473918;0.054053564;0.19309625;0.006829034;-0.010002354;-0.23717152;0.0106944665;-0.11057708;-0.041945603;-0.061183326;-0.01752396;-0.12251998;0.04729275;-0.057258718;0.11396203;0.2750709;-0.06715657;0.08711949;0.09659199;-0.006658798;-0.277955;0.2406499;0.006661272;-0.0046959124;-0.009181271;-0.033777773;-0.05628548;-0.011619613;0.2608974;0.1027026;-0.20344505;-0.036514044;0.32804418;-0.20346773;-0.29663718;0.0143847875;0.07547212;-0.2080924;-0.01974664;-0.12244167;-0.25313145;-0.01950056;0.05027555;-0.14589605;-0.2852169;0.011397509;-0.09493755;-0.062096715;0.08737763;0.2520228;0.09364906;0.14988968;-0.1137872;-0.05357858;-0.19243367;0.20942754;-0.12232304;0.024722718;0.2702106;-0.19475272;0.15266784;0.06850252;-0.013316437;-0.056267165;0.043926876;-0.28033575;-0.11904211;0.00061278447;0.038080446;-0.030082611;-0.09314823;0.030055027;0.020069556;-0.23472759;0.0828626;-0.04316748;0.018454177;0.012049019;0.20745951;-0.14519413;-0.008188867;-0.02535839;0.023237407;-0.16627173;-0.11564847;-0.002711678;-0.105043665;0.16801955;-0.051178362;-0.061512973;-0.10187213;-0.20180142;0.05118088;0.10778627;0.00839864;-0.06200563;-0.03534687;-0.028204154;0.06665465;-0.0013407696;-0.018786462;0.03421831;-0.12677976;-0.174785;-0.026768873;-0.017452752;0.056057118;0.08981859;0.04836802;0.08013142;-0.0015592371;-0.20534794;0.05045929;0.039539844;0.023972765;0.059253216;-0.3600365;-0.22242129;-0.0075627216;0.122518845;-0.23851837;-0.011104741;0.21281992;-0.009801193;-0.037967354;0.07993647;0.04816229;0.016917437;0.09126197;0.033481028;-0.048414372;0.0914081;-0.044641923;-0.033349328;0.13445249;-0.036426283;0.068357624;-0.01861512;-0.15252993;-0.01857906;0.06171154;0.22633196;0.00050560234;-0.07220238;0.023610398;-0.06755771;0.04279743;-0.09732295;0.075710334;0.19163541;0.10825713;-0.033135425;-0.17214718;-0.05315551;0.26963934;-0.09493474;-0.046565842;-0.07983338;-0.022485154;-0.08862418;0.36273414;-0.02022032;0.08768125;-0.08856652;-0.28710046;0.022984836;-0.029541243;0.13942584
0.20903489;-0.017503185;-0.11062883;-0.22124125;0.06261293;-0.124205366;-0.3233511;0.13484606;-0.057693876;0.3274466;0.009670452;0.14443964;-0.10287946;-0.07477132;-0.024420593;-0.018854763;-0.18170144;-0.010911872;-0.08379187;-0.13390233;-0.020985069;-0.035180487;-0.029439751;-0.028179705;-0.13771571;0.039035585;-0.0023446372;0.16543978;-0.051456757;-0.088280804;0.17589988;-0.023046015;-0.044293728;0.15512215;0.37599072;0.027935106;-0.114294186;0.20489965;0.15701556;0.002853928;0.019076133;0.040857475;0.17864135;0.024510771;0.0068767346;0.14394175;-0.014192549;0.35125124;0.05197369;-0.007751546;0.058070242;0.14335251;-0.07565546;0.0016409237;-0.03920087;-0.07988219;0.036180638;-0.020567628;-0.06543458;-0.16301145;-0.0068447064;0.017543396;-0.055709112;0.08301682;0.10548585;-0.21408296;-0.07859833;0.13218084;-0.007539347;0.02667021;-0.13198145;0.024012757;-0.016003825;-0.0049892124;-0.22731167;0.008280981;-0.002833603;-0.045473047;-0.1157598;-0.051127553;0.02448189;-0.03252972;0.117529266;0.10498103;0.03306983;0.2272063;0.2541661;-0.06500455;-0.034360163;-0.038713343;-0.064440586;-0.04472928;0.013920977;0.0705639;0.06418523;-0.018679384;0.09446945;0.25808293;-0.018754609;0.27282497;0.0035375354;0.11770098;-0.048189;0.05228839;-0.061273813;-0.24301292;-0.000101845144;-0.07791988;-0.1112886;-0.05022187;-0.07612195;0.048257206;0.28793103;-0.24759746;0.21443425;-0.05113216;0.048638124;-0.0053572697;-0.024781272;0.016013786;-0.18832332;-0.050201997;-0.20030864;-0.03367239;0.040601578;0.061871413;-0.014728869;-0.24174602;-0.047562033;0.13696629;0.2416008;0.025883926;0.2826497;0.0014629313;-0.058953017;0.24786593;0.022514123;0.0872538;0.008561796;-0.030071398;0.042818844;0.16200146;0.037738185;0.11855196;-0.0030105754;0.14053519;0.10798328;-0.011505198;-0.05571482;0.30073026;-0.018754497;-0.259868;-0.07549883;0.16505244;0.0060974266;0.02095376;0.0383918;0.16540998;-0.19220507;-0.06717094;0.12535135;-0.0100735985;-0.14771605;-0.024406172;0.046741907;-0.20333523;-0.02785102;-0.062277604;-0.040605128;0.05623145;0.10531307;-0.058662076;0.015732255;-0.0442556;-0.18020739;0.0931176;-0.022288464;0.026540563;0.12223534;-0.033624813;0.018773997;-0.073439695;0.1434653;0.13089402;-0.040526878;0.32256517;0.19684993;-0.08710705;0.06887529;0.045855828;0.2546186;-0.0486854;-0.091423035;0.005189417;-0.047995795;0.11222572;-0.22758064;-0.11400763;0.1287346;0.06205125;-0.23847349;0.2220428;0.06872301;-0.011288316;-0.03980105;-0.03251825;0.2565839;0.022898762;0.021842595;-0.40654567;-0.058317453;-0.05182851;0.027818134;-0.004413722;-0.0038362152;-0.04410137;-0.016407344;0.28023988;0.24535938;0.25761744;-0.16277963;0.14587697;-0.16411008;0.03273233;-0.098443195;0.05449841;0.016573247;-0.13496532;0.007182443;-0.051310744;-0.12814766;-0.043293633;-0.08854962;0.03981292;0.0024354726;0.09349585;-0.21933384;-0.025970142;-0.06203272;0.042418607;0.12641394;0.03936416;0.013768305;-0.09607808;-0.097968616;-0.030647408;0.01939533;-0.12301737;-0.0773752;-0.013244232;-0.009014117;-0.055703636;0.21454607;-0.018042615;-0.012303817;0.010490479;-0.12333535;0.03353167;-0.045964807;0.17480642;0.003906068;-0.0066760634;-0.27055848;-0.4636852;-0.113781005;0.23646979;0.2139738;-0.01788305;-0.038479708;0.31924382;0.0076247696;-0.14593263;-0.009079263;0.13410848;0.08124433;0.014754386;0.0015976676;0.3114989;0.10291975;0.013946718;-0.002256121;-0.20689185;-0.02018782;0.06460231;-0.2723094;-0.0039316006;0.1448949;0.14383563;-0.23934153;0.25317743;-0.018194705;-0.27474216;-0.16525371;0.092541635;-0.03257959;-0.00580118;0.039552104;-8.865984e-05;0.17798416;-0.03933064;0.11435744;-0.016141148;-0.00033631566;-0.06210672;-0.047866456;0.036969673;-0.02738479;0.014924594;-0.058922008;0.008641941;0.031725176;0.02293339;0.03508382;0.0325292;-0.10230032;-0.12589048;-0.020033935;-0.05122913;0.24516618;0.011234265;-0.03978475;-0.0023585602;0.2787684;-0.05550786;-0.082091145;-0.23381771;0.037892994;-0.012199424;-0.005533634;-0.054548573;-0.022700675;0.10485018;-0.22424854;0.19986783;-0.15170471;-0.017718518;0.05221774;0.018229643;-0.09334718;-0.021872465;0.21209328;0.08045826;-0.020648535;0.12603807;-0.07089369;0.031062175;-0.04100928;-0.0087458305;-0.039322663;-0.062457293;-0.011396833;-0.13224284;0.1633496;-0.1002486;0.013449943;-0.00542904;0.035177156;0.08132707;-0.10057187;-0.16407572;0.031856615;0.17936653;-0.007893295;-0.035065282;-0.03513552;0.13445142;0.19199745;-0.12205774;-0.06754975;-0.03365468;-0.51823807;0.149502;0.15266931;-0.02276678;0.018587908;0.09842819;-0.22956482;-0.15433732;0.013692731;0.06750614;0.06298645;-0.045192618;0.04725661;-0.080382645;0.0105576245;-0.07954445;0.014826144;-0.033621594;0.11890142;0.055378046;0.047476504;0.1388852;0.010156145;0.17244042;0.0020472582;0.26034075;-0.019251768;0.121656604;-0.08520567;-0.038021594;-0.00011425038;0.032772984;-0.040570084;0.09044264;0.048259247;-0.2616915;0.061032325;-0.26967633;-0.13248642;0.0816671;0.098724365;0.05866721;-0.019651974;-0.19417188;0.00079540844;-0.014525816;-0.04834983;-0.10973431;0.03442441;-0.09756164;-0.006503952;-0.014044033;0.10097102;0.21011025;0.072621375;0.11121505;0.083733894;0.00033105904;-0.20377398;0.15360253;0.0040887054;-0.08448699;-0.041508313;0.09580817;0.04163234;0.10083211;0.0788672;0.026583653;-0.14266348;-0.06692234;0.37439868;-0.1628969;-0.27506375;0.025551552;0.3924139;-0.25330868;0.09688512;0.09088682;-0.18900475;-0.2687303;0.07262807;-0.22649626;-0.22207382;-0.061585966;-0.040049598;0.009280638;0.05419405;0.2147515;0.045880634;0.14757857;0.061346937;0.071552664;-0.074627;0.15281188;0.020350695;0.0724999;0.19942127;-0.25852346;0.1075093;-0.087565154;-0.05100257;-0.12115335;-0.037934452;-0.25167286;-0.053008866;0.020838;0.04307588;-0.043176785;0.019374395;-0.009057971;0.06918501;-0.32667223;0.015184584;-0.0049935114;0.0038412386;0.043739025;0.111920364;-0.20585388;-0.053081244;0.031576544;-0.042275354;-0.12735166;0.058365174;0.059528984;-0.042524755;0.087445155;0.023600642;0.021491835;-0.10964746;-0.018504161;-0.047672905;0.039249733;0.028644402;0.0293762;0.012709754;0.0072623645;0.08832964;-0.018063534;0.0049888217;-0.025380008;-0.18838544;-0.097237945;0.0152608175;-0.034244984;-0.015756153;0.15363975;0.031992547;0.1044692;-0.097737186;-0.1607692;-0.037994403;0.07331154;0.027704934;0.01440434;-0.19108029;-0.2604419;-0.01512658;0.02965204;-0.1956109;0.014126927;0.14670332;-0.019191476;0.02805501;0.017869974;-0.09737324;0.0054911766;0.0043192063;0.025644654;0.041782223;0.13541204;-0.13834175;0.02502917;-0.021119585;-0.015066663;-0.023640512;-0.100650385;0.105464205;-0.032601103;-0.06528492;0.12788136;0.04350579;-0.030685455;-0.010434202;0.06483849;-0.0077105947;-0.1596381;0.052889805;0.22309908;-0.07999932;0.02233165;-0.24130206;-0.06487337;0.17901665;-0.110816054;-0.0063743843;0.02565537;-0.0045626075;0.061919216;0.31735864;0.043097403;0.09783307;-0.037619412;-0.3109977;-0.047690645;0.0071841283;0.051979043
0.27424833;0.12714179;-0.1345581;-0.21601269;-0.07648167;-0.118196055;-0.2620643;0.11217289;0.021786967;0.26118827;-0.024148049;0.26516035;-0.20386711;-0.07732874;-0.015331754;-0.14085574;-0.08910855;-0.049198072;-0.08846981;-0.09175685;0.09983059;-0.029738476;0.124091245;0.043587867;-0.12100189;-0.08045843;-0.04595762;0.20327084;-0.013079662;-0.080737315;0.03753708;0.028089402;-0.031535823;0.27673024;0.29268575;0.078445;0.03308878;0.119284175;0.051862083;0.1293953;-0.00079311046;-0.07380258;0.18709205;0.06081682;0.03077098;0.056561463;0.013605886;0.25166988;0.090889774;0.0498961;-0.014951687;0.018037954;-0.17256323;0.062434237;0.06468636;-0.013792732;0.020981336;-0.15583281;-0.075026646;-0.14779818;0.008122382;0.15827896;-0.026809389;-0.10056893;0.059926234;-0.10416468;0.016284587;0.09283195;-0.04110119;-0.043931287;-0.0008731293;-0.036035486;0.048203196;0.12239757;-0.2533246;-0.07405886;-0.0402431;0.011542805;-0.17602356;-0.0027967414;0.06000386;-0.09656755;0.12777129;0.03148601;-0.0365031;0.30350265;0.0953619;0.04466168;-0.0937362;0.0013591674;0.07153966;-0.038499396;-0.07980567;-0.00089348544;0.24168111;-0.13269985;0.10987322;0.3465974;-0.039259344;0.13889687;0.015748255;0.1434118;0.032177545;-0.063832484;-0.075864434;-0.34498245;-0.03578131;0.11075737;-0.034542505;0.051909357;-0.038176548;0.023987956;0.31839684;-0.280816;0.006797635;-0.067093894;0.11913855;0.1180385;0.017861271;0.09075784;-0.22478853;0.05382282;-0.14656554;0.025741717;0.006810387;-0.03981333;0.003341827;-0.28497255;0.06494724;0.059789374;0.27345443;0.039409533;0.3917957;0.14126675;-0.014403821;0.3109931;0.015625771;0.14154655;0.019456368;0.040179446;-0.021565486;0.116758786;-0.009908584;0.11261873;-0.030260466;-0.027028289;0.091994114;-0.07280306;-0.05931563;0.25419447;-0.010825911;-0.20708154;-0.02351211;0.24200292;0.057457887;-0.0054218443;-0.06728942;0.124091595;-0.08235175;-0.15984604;-0.018757267;-0.017257458;-0.21904269;-0.03778708;-0.027535362;-0.11523686;0.018767605;0.050854508;-0.04249886;0.10174798;0.035437725;0.0027833276;-0.008368316;-0.295023;-0.038573917;-0.012107066;0.019612288;-0.008187434;0.1335115;0.034634836;-0.02731772;-0.0016593208;0.14871348;0.038188;-0.035143185;0.2024859;0.016224565;-0.22150537;0.058321856;0.025099432;0.09221082;0.047617346;-0.108444035;-0.02597124;-0.010251203;-0.082343146;-0.20572908;0.043404475;0.29939222;0.015198177;-0.15171583;0.047764417;0.106543995;-0.03503245;0.027460411;-0.018075591;0.23046952;0.01172838;0.00322578;-0.43225744;-0.053594757;-0.055600494;0.03693604;-0.031493872;0.0020630204;-0.00435228;0.15766355;0.26224035;0.14382118;0.3686949;-0.15130512;0.09837312;-0.066316135;0.011989792;-0.16640404;-0.024439601;-0.0077116075;-0.09572448;0.034891646;0.0037623623;-0.27959546;0.038778417;-0.16368403;0.039471433;0.18132581;0.12054478;-0.36564788;-0.03354782;-0.1279316;0.15713307;0.17678887;0.024397342;0.03039219;-0.17045854;-0.016040904;-0.005004389;0.009578348;0.02231387;-0.030871322;-0.20213972;-0.007965949;-0.114529245;0.11902677;-0.13918453;-0.08879158;0.013899418;-0.27995247;-0.037346292;0.07424625;0.19989058;-0.0632318;0.0018511107;-0.26647305;-0.3344863;-0.09682018;0.23165558;0.13810694;0.16018814;-0.07641983;0.40253943;-0.07136922;0.010787273;0.036830653;0.09360806;0.04104827;0.055753253;0.032836627;0.45931712;0.1339679;0.0929961;-0.13782604;-0.2655587;0.11580023;0.1745725;-0.25687906;0.0911673;0.019514654;-0.024055673;-0.07062178;0.2593317;0.063579515;-0.2433828;-0.09547966;0.028455531;-0.007671394;-0.004578059;0.067312375;-0.044490926;0.10949047;0.015498535;0.003453857;-0.0022755293;-0.021871854;-0.072406724;0.027579473;-0.027441174;0.0152952885;0.023100741;-0.041838497;0.042477157;-0.04189094;0.100672804;0.01394957;-0.07230314;-0.0037673914;0.020329708;0.08930132;0.050387587;0.21107979;0.061363645;0.13154282;0.064773865;0.15338925;0.05892838;0.031002901;-0.14785238;0.03437044;0.009896504;-0.01772868;-0.18126355;-0.01796896;0.124037966;-0.34083092;0.08222921;-0.08020684;-0.018814273;0.050235018;0.01089187;-0.131592;-0.029834641;0.26847818;-0.04389472;-0.17405644;0.046882354;-0.0704275;0.008407634;0.02174242;0.012006998;0.0045244396;0.0053618927;0.027006846;-0.18839075;0.14080514;-0.09045144;0.00537068;0.075206466;-0.115375966;0.05978566;0.07121101;0.006286283;0.0039080298;-0.035876367;-0.0054547135;-0.21557549;-0.006736943;0.08953255;0.17304245;-0.23145826;0.0010078361;-0.020807525;-0.35069695;0.10735884;0.11237882;0.0062815123;-0.05095992;-0.05066584;-0.28187117;-0.079115875;0.027260674;0.07346067;-0.028377343;0.0014782121;0.0073145;-0.23058929;0.033328533;0.05301571;0.029733647;-0.014474953;0.093149774;-0.015311193;0.03031624;0.2903452;0.16131212;0.08650914;-0.046598405;0.26043004;-0.029512927;0.21237427;0.039648023;0.03953983;0.023837417;0.037678782;0.11735245;0.1265283;0.10220896;-0.29143876;-0.0047746846;-0.3505079;-0.015585686;0.00036766278;0.036446247;-0.034556497;-0.021878913;-0.13989493;-0.011575418;0.038057994;0.006751889;-0.16644686;0.036617596;0.11331216;-0.050492365;0.11068421;0.17100222;0.2880054;-0.051308375;0.033575356;0.046357337;-0.036914337;-0.23420997;-0.19577552;-0.015424994;-0.20404993;0.03776237;0.0031064905;0.030122463;-0.032691002;0.06669282;0.03937441;-0.121958986;0.019786254;0.2853903;0.0445198;-0.15839551;-0.025834946;0.39161748;-0.40313956;-0.0101200575;-0.012168271;-0.16167966;-0.25300297;0.13894655;-0.014887734;-0.26638573;0.007669723;0.009788149;0.010577055;0.15486641;0.19887057;-0.038287383;0.23194107;0.03692296;0.031454682;-0.034431845;0.2020175;-0.24576339;0.002043906;0.32942477;-0.19761671;0.036343843;-0.012978087;-0.011580167;0.019108351;-0.0014629493;-0.10460324;0.04359374;-0.020032581;-0.013902876;0.013991468;0.13673942;-0.04757342;0.01800359;-0.2900331;0.012583507;0.085166946;-0.010304037;-0.017170934;-0.09691924;-0.040509254;-0.14585744;0.08372852;0.00020096696;-0.014901516;0.12076231;-0.022850478;-0.19923666;0.04279963;0.10892418;0.017110879;-0.10733735;0.06562313;0.029926656;0.0018557099;0.12265855;0.058546767;-0.14175175;0.0061879023;-0.03341745;0.1057071;-0.0071943495;0.051779304;-0.16165103;-0.2174131;0.013427359;-0.104266606;-0.015497894;0.17339775;-0.02318728;0.13404721;-0.077056624;-0.17202161;-0.042660348;0.10300091;-0.03549957;-0.17988305;-0.12603071;-0.20847215;-0.054278456;0.062451586;-0.09724549;0.03930508;0.1875731;-0.02150193;-0.049202938;0.16714409;-0.13796821;-0.051568203;-0.085699975;-0.05899449;-0.013218888;-0.049922068;-0.09689695;0.021063803;-0.114789024;0.07137548;0.007475539;-0.07814373;0.048054926;0.009880422;-0.20102549;0.1581538;0.04213653;0.022462673;0.05396617;-0.07365461;0.0029099826;-0.12914541;0.15509543;0.25508723;-0.009161454;-0.013050687;-0.09881664;-0.054419037;0.035715967;-0.114591576;-0.008927727;-0.09390261;0.03355207;0.09396506;0.20968863;-0.0054725697;0.014857356;-0.0060933973;-0.1549998;0.05238521;0.0011592137;0.082661785
0.2327925;0.08696821;0.09218037;-0.1658844;-0.01592527;-0.19665673;-0.26738206;0.07003694;0.03789603;0.252503;-0.021375304;0.24978262;-0.098978855;0.03332373;0.03325117;0.06720501;-0.050594397;-0.12447192;-0.10215947;-0.058733325;0.03763177;0.022448592;-0.023112232;-0.115632005;0.0737136;-0.005287264;0.03970621;0.14274295;0.07584131;0.0009850368;-0.053919803;0.03991287;-0.21313584;0.13988271;0.21844438;0.13346478;-0.0018506645;-0.0709501;0.1970369;0.13206463;-0.001700011;-0.006891578;0.12997344;0.02142274;-0.029604964;0.038058527;-0.028570276;0.27289063;-0.012264001;-0.018944593;-0.043089055;0.004652552;-0.056355372;-0.02738114;-0.07621913;-0.12530053;0.056007076;-0.11349902;0.04165088;0.028644383;-0.022921441;0.11574788;0.046020728;-0.10958665;-0.16479453;-0.11213821;0.008789921;0.12317588;0.030984038;-0.062181115;-0.032864694;0.021415181;-0.01882045;-0.016652802;-0.24026965;-0.058473933;0.07145852;0.15162615;-0.14415474;0.071130954;-0.012949246;0.14802474;0.20380649;0.028259732;-0.033094965;0.3765545;-0.11429859;0.0018170173;0.034819316;0.038038127;-0.048513792;-0.0019632538;-0.10554969;0.0029669926;0.1260099;-0.031770173;0.016471239;0.15717202;-0.096121795;0.12249628;0.04180144;-0.03619745;0.14515881;0.022196714;-0.20424223;-0.21685004;-0.03901651;0.14847149;-0.012208582;-0.046323515;0.029443482;0.08667578;0.10421611;-0.27494407;0.037618693;0.033321332;0.12356204;0.015307983;-0.009166411;-0.0018373523;-0.26682514;-0.074284025;-0.0010296074;0.030902378;-0.016448993;-0.051828846;-0.08947381;-0.43003348;0.022739425;0.037989534;0.09818295;0.14198142;0.514704;0.20362258;0.06874979;0.30177057;-0.033281095;0.20760202;-0.059995994;0.031652525;-0.10117403;0.16611794;0.09329725;0.119930446;-0.0414538;0.07443101;0.086328276;0.06767993;0.026692478;0.28648844;-0.0053245765;-0.23508087;-0.054811474;0.14673218;-0.03058598;-0.028861193;0.03721745;0.06975455;-0.24752717;-0.3246782;-0.06913068;0.038908213;-0.35460076;0.039774965;-0.027916899;-0.09447183;0.027510846;-0.0064375843;0.07569531;0.057779837;0.15492898;0.07320192;0.00030650772;-0.19434714;-0.1073217;0.22298127;0.05072066;0.026340991;0.18134408;0.0055042147;0.02083816;-0.056403507;0.12898149;0.041841906;0.08901296;0.18995747;-0.06186329;-0.18635756;0.2901719;-0.076803796;0.16725034;-0.018650701;-0.07770605;0.007631829;0.041654754;0.033687346;-0.2903183;-0.057394333;0.16085698;-0.019264838;-0.10128215;0.046707414;0.049268555;-0.021352477;0.05057645;-0.056254238;0.059058934;-0.012423288;-0.0063969484;-0.34835252;0.12321247;-0.10298771;0.026596418;0.07072133;0.04368447;0.048322767;0.23206277;0.17586625;0.111132324;0.3285881;-0.117975734;0.11718785;-0.091978475;-0.0056326776;-0.33358076;0.00841479;0.06578831;-0.11580513;0.0003421837;0.17068347;-0.2941313;-0.045156047;-0.0808048;0.08233446;0.2098624;0.15161797;-0.4905879;0.040672075;-0.16980699;-0.008279814;0.18013601;-0.0651134;-0.004466658;-0.22510837;0.022989962;0.04792534;-0.00477578;-0.06847163;-0.019570194;-0.14886408;-0.03871584;-0.048547663;0.23146908;-0.056709837;-0.045095365;-0.035377726;-0.16837126;-0.0319663;0.11251181;0.042848513;0.03835704;-0.022313135;-0.28150722;-0.13465014;0.048198223;0.08632697;0.17516491;0.08137103;-0.104518645;0.39877287;-0.011150118;-0.12785973;0.033606604;0.14240572;0.061025336;-0.06650814;-0.06983848;0.35032195;0.15990208;0.09596635;-0.012147996;-0.34800953;0.21837156;-0.024597839;-0.0709094;-0.06539332;-0.089061685;-0.006368614;0.039801996;0.10896175;-0.03556287;-0.30305654;-0.29011175;0.0025647308;-0.12397065;0.066657044;0.010818608;0.05932739;0.043206297;-0.021326134;-0.06727461;0.029173011;0.01164736;-0.14575998;0.03474664;0.008033581;0.023298938;-0.04600293;-0.020098202;-0.050069842;0.009558599;0.16096528;0.01746289;-0.05808979;-0.1500311;-0.15596248;0.11284561;-0.04979292;0.21710831;0.13506894;0.22422403;0.0061068516;0.027063336;-0.027953736;-0.055255156;-0.20983137;0.06423154;0.008274349;-0.020350624;-0.020751987;0.0407515;-0.039680023;-0.16314565;0.05562098;-0.0889314;0.02438621;0.0052360124;0.030949526;-0.07279256;0.008566065;0.3436224;-0.045108195;-0.083999425;-0.024088208;-0.04682388;0.019735796;0.014852028;-0.0321211;0.03063973;0.15065353;-0.010368208;-0.14265315;-0.12929787;-0.09381653;0.013237488;0.11900767;0.03774967;-0.0547091;0.09750235;0.07218861;-0.0010531098;-0.15316752;-0.056781013;-0.14175788;-0.032582756;0.07778941;0.16267867;-0.26255548;0.14566973;-0.011479684;-0.3557733;0.056929745;0.0701139;0.024565166;-0.015733892;-0.12523769;-0.042440634;-0.02030398;0.044230163;-0.032331105;-0.021305015;0.022787595;0.024798999;-0.08117594;0.0071252487;0.09313819;-0.06830671;0.05593737;0.11152018;0.04085128;0.13270245;0.2254972;0.3064339;-0.032967836;0.011075894;0.11460319;-0.015343247;0.12905551;0.007625972;-0.018169506;-0.0005033939;0.050301123;-0.102131374;0.22132492;0.07735486;-0.19729109;-0.014683459;-0.34798032;0.018605098;-0.034810808;-0.049907986;-0.04386494;0.04893414;-0.12884584;-0.03722749;0.1251143;0.029433949;-0.10139206;-0.055334054;0.044640195;0.05017738;0.13613196;0.05684624;0.19335817;-0.008582656;0.1834375;-0.09175892;0.04561066;-0.30802268;-0.025916824;0.064366154;0.026658215;0.04252402;-0.0010390474;-0.00079468853;-0.056227665;0.048928715;0.122729525;0.05746706;0.021149093;0.11605391;-0.045684896;-0.07097633;0.029260026;0.5069353;-0.13691479;0.04025785;0.07255342;-0.06738648;-0.29660133;0.0450955;0.05526225;-0.19844659;-0.00987153;-0.0010309983;-0.036786694;-0.04132171;0.26491117;-0.13995068;-0.006395916;-0.1281373;-0.009346186;-0.10528679;0.006199895;-0.05524711;0.03726733;0.30176747;-0.20437476;-0.050556973;0.07442143;0.108478285;-0.16290712;0.0012791838;-0.09243638;-0.03713938;0.027960988;-0.06394559;-0.011705457;-0.0025654477;0.014988426;-0.109322846;-0.42953664;-0.12898077;0.022399668;0.039086938;-0.041833825;-0.07716307;-0.04368973;-0.03615207;-0.10216031;0.053984635;-0.11686859;0.08895906;0.067442454;-0.1342914;-0.04338629;-0.07118078;0.035103224;-0.3173526;0.29983565;-0.07310958;0.014824002;-0.022465678;-0.05331767;-0.15191624;-0.041453816;-0.0453641;0.0075197862;-0.019216886;-0.025515666;-0.04201091;-0.3586197;-0.034371305;-0.032440457;-0.010422249;0.17713632;-0.042267337;-0.025437888;-0.1361591;-0.12656923;0.102117725;-0.039188627;-0.004885029;-0.22194071;0.009362099;0.024246423;-0.0334035;-0.04148839;-0.11633156;-0.03729661;0.19665918;0.06582915;0.019286016;0.2039637;-0.19912;-0.023607323;-0.1263197;0.029656477;0.034969296;-0.039842177;-0.13949005;0.022954231;-0.12120868;-0.012860307;-0.004354198;-0.13267833;-0.094624676;-0.01966706;-0.25061786;0.15034738;0.027871126;-0.06803728;-0.061561864;0.0014096363;-0.19881372;-0.039095506;0.05507867;0.25605372;-0.13380644;-0.018785812;-0.096029595;-0.23856647;0.06004667;-0.17895754;-0.04574758;0.04621884;-0.06804147;0.027521161;0.2156355;0.026046123;0.08707403;0.054245073;-0.124511436;0.001763024;0.0365752;0.09158076
0.28419492;0.0332019;0.049737718;-0.068083815;0.00238445;-0.14050022;-0.29288873;0.07720576;-0.05661935;0.33944762;-0.023301339;0.22335276;-0.054576747;-0.12289091;0.14040697;0.10314124;0.008102882;-0.20655005;-0.07413307;-0.0698892;-0.121956386;-0.008709789;-0.10448037;-0.13916609;-0.0026832856;0.038791534;0.058262564;0.21295336;0.08935224;0.017631883;-0.15817201;-0.048225883;-0.06709384;0.019982146;0.17531823;-0.04681074;0.03701605;-0.21199316;0.27809495;0.085031554;-0.045757864;-0.04208854;0.28618982;0.07316376;0.019908614;0.2617785;0.042031478;0.13580063;0.089134455;0.015065294;0.07187399;-0.15471053;0.021614881;-0.041434444;0.028789148;-0.17880301;-0.06515382;-0.12919845;0.009262208;0.058859196;0.050720442;0.10853199;0.02205371;-0.1468823;-0.00042569725;-0.007932812;-0.0087935375;0.13940726;0.17176287;0.008783888;-0.06955946;-0.062189277;0.02046239;-0.09364858;-0.078481324;-0.10398845;0.0091098435;0.2600704;-0.23833933;-0.027862206;-0.015143404;0.23021907;0.2040472;-0.03231079;0.05001333;0.35387516;-0.048366025;-0.05522235;0.04676372;-0.022498343;-0.026122032;-0.08622265;-0.13965248;-0.13231258;0.086174496;0.06394889;-0.048932917;0.32568207;-0.10812444;0.30037493;-0.023903647;-0.035783097;0.110200375;0.04037087;-0.26464823;-0.18999425;0.010385154;0.3224895;-0.038282335;0.040762603;0.12361988;0.073894255;0.01387215;-0.20671886;0.044323586;-0.056076575;0.09553062;0.020630483;-0.020882083;0.13449265;-0.23036641;0.022844134;0.16444556;-0.02444463;-0.027004357;0.045435283;-0.09246643;-0.3696738;-0.015826728;-0.0025915282;0.059049577;0.21699673;0.6090308;0.3246616;-0.024848752;0.29575485;-0.015232678;0.11477192;0.06661469;-0.03863301;-0.11912739;0.057859965;0.15684867;0.17437772;0.04001763;0.08991522;0.0064543593;-0.069661744;0.07041368;0.20242834;-0.03883543;-0.22325832;0.034014225;0.22964765;0.009456198;0.027642269;-0.036692988;0.011525344;-0.12347447;-0.18992001;0.04422193;-0.042967446;-0.2384626;0.0060192635;0.022656022;-0.07987952;0.07046072;0.017254472;-0.0461549;-0.07779799;0.16984111;-0.040164806;0.01044854;-0.18598272;-0.06629892;0.12822714;-0.043745853;-0.034763116;0.07765222;-0.012782312;-0.00570698;-0.00083816785;0.1154167;-0.020354282;0.12890099;0.08878767;-0.19240367;-0.19315027;0.1331896;0.043765973;0.13459915;-0.027432432;-0.09587139;-0.029504871;-0.07111385;-0.12092973;-0.1129886;0.06325947;0.0029643336;-0.0029813698;-0.08257939;-0.03723555;-0.06527781;0.029878458;0.13052954;0.056598272;0.12652166;-0.045778714;-0.03610563;-0.24998316;0.14757115;-0.22702448;-0.022647671;-0.06819815;0.06690625;-0.06327378;0.17885181;0.15149415;0.09102171;0.43232077;-0.11136233;0.07614154;-0.023308538;0.014528437;-0.2452878;-0.035401974;-0.037739784;0.0008540533;-0.027011637;0.16042872;-0.2780998;-0.017866211;0.021420816;-0.042519465;0.16133776;0.09650944;-0.50109905;-0.051439576;-0.047734376;0.0149989035;0.13649486;0.0068305056;0.0040789377;-0.20095937;-0.057471953;0.004514171;0.012137955;0.06523267;0.055458087;-0.14749649;0.0010092448;-0.037741456;0.16267335;0.0034815995;-0.063841134;-0.065655716;-0.20593889;-0.028132599;0.044225033;0.27939922;-0.036333203;0.033090916;-0.13696504;0.0076614292;0.10168071;-0.0159034;0.028773237;0.026225168;-0.053669814;0.22744417;-0.00807607;-0.1939796;0.0099601615;0.13929944;-0.07189101;-0.038581286;0.0036065816;0.29639006;0.102557674;0.09391494;-0.016637586;-0.47170097;0.20662223;0.038138933;-0.09017282;-0.091338016;-0.016738428;-0.12473403;0.22156064;0.22214094;-0.004421039;-0.17415558;-0.22847468;-0.0020713648;0.043400306;-0.05575316;0.018352006;0.045117833;-0.039312594;0.02502328;-0.18116045;-0.025153067;-0.03654206;-0.09224096;0.018113112;-0.012229298;-0.01738267;-0.05092296;0.040765736;0.02511749;0.03846768;0.13561742;-0.07176554;-0.047800887;-0.1426741;-0.28029564;0.04573446;0.008067889;0.13345473;0.071779564;0.16836946;-0.041401427;-0.0030863518;-0.057617612;-0.009170693;-0.16023518;-0.024264447;-0.031324085;0.07637809;-0.17635892;-0.0066913213;0.009567475;-0.15662101;0.01006913;0.10833031;0.027926128;-0.038852334;-0.011480841;0.05501809;0.034820497;0.35669234;0.06641828;-0.04706601;0.032818023;-0.107717335;0.17738588;-0.095292814;0.012539466;0.026130293;0.18558045;-0.037822545;-0.19486363;-0.10853917;0.045555964;-0.03582156;0.27890298;-0.0408825;-0.03532098;0.048720524;0.10223781;-0.005827593;-0.11928067;0.037045073;0.1191814;0.10993708;0.14643037;0.07837554;-0.18603651;0.09680746;-0.15237719;-0.4446324;0.056137566;0.09128566;-0.031611208;0.047067583;-0.041966483;0.057034064;-0.10808315;-0.049163453;0.11402294;-0.051301103;0.027938634;-0.0680726;0.023153918;-0.056580305;0.17603342;0.027845122;-0.048410706;0.05819398;0.092155755;0.17604281;0.15325162;0.23732346;0.005463966;0.036041535;0.057764288;-0.013717918;0.1599861;0.0027787827;-0.11401488;-0.022990493;0.20190005;0.03891358;0.07625135;0.013026472;-0.23574762;-0.017726706;-0.37142235;-0.025399573;-0.010541809;-0.023931595;-0.02297909;-0.032586835;0.12402259;0.011182264;0.1995263;0.0034331104;0.062031563;0.026824709;-0.06569158;0.01879608;0.23327504;0.057863034;0.0910472;0.0024600753;0.12076222;0.028733723;0.04332521;-0.22324273;-0.12882969;-0.041938346;0.08109163;-0.045794286;0.0061337296;-0.05153761;0.051824987;-0.06950203;0.09695104;-0.13551334;0.02422787;0.08996247;0.05020904;-0.018865097;0.016946714;0.59354115;-0.18004665;0.03139555;-0.010247303;-0.10699845;-0.40383366;0.05466706;-0.0071418337;-0.11430414;0.049837768;0.07377605;0.07718108;-0.1814181;0.39847022;-0.15530296;-0.021737771;0.043701038;0.06619841;-0.24484225;0.07254947;-0.03970825;0.101101324;0.2716495;-0.12182925;0.084060445;0.09961449;-0.06318348;0.07580139;0.02546188;0.0011411295;-0.0051394287;-0.065737195;0.0073393635;0.008420878;0.21849853;-0.04113386;-0.050575767;-0.3608315;0.04435924;0.12012684;-0.018821152;-0.023658197;0.014777378;-0.024095017;0.055347443;-0.082681485;-0.051920544;-0.036464676;0.06698077;0.0038734346;-0.07897634;0.06332117;0.06340539;0.02689272;-0.18495797;0.3103157;0.063737735;-0.29546666;0.0022006703;-0.027944144;-0.1456393;0.023001444;0.038583342;0.10461737;-0.03422698;0.01972691;0.10533184;-0.36039758;0.022460427;0.029830454;-0.010131204;0.23275;0.05395433;-0.04181371;-0.29423678;-0.12740211;0.058229864;0.09603863;0.011008688;-0.011261455;0.01108555;-0.0075740023;0.056429952;-0.054771714;-0.09282605;-0.030245269;0.29062536;-0.032373544;-0.020838205;0.1327948;-0.15798387;0.036951862;-0.08491234;0.01012591;0.014151567;-0.01531294;-0.15084174;-0.007868895;-0.22549309;-0.07226605;0.01808791;-0.19211051;0.017619427;-0.01358355;-0.2409122;0.12561701;-0.050546516;0.06581454;0.036140822;0.05926867;-0.12945867;0.010131533;0.231509;0.14128049;-0.03617005;0.019602995;-0.15767775;-0.20308778;0.0049921554;-0.11628215;0.013479074;0.073766686;0.051508397;0.08948498;0.20014231;-0.068086535;-0.012746914;0.078333996;-0.0060988953;0.016509134;0.016078632;0.08872269
0.37164828;-0.059379026;-0.054437246;-0.078778036;-0.008285411;-0.27477315;-0.16332805;-0.1473601;0.025444102;0.14302818;0.017221257;0.070630975;-0.106644586;-0.13974182;0.030670585;0.054412782;-0.072749935;-0.4737972;0.0126503855;-0.14180751;-0.08239955;0.048945505;-0.032951426;-0.101345025;-0.123908535;0.025407158;-0.057800055;0.21722126;0.02216068;0.016764859;-0.1274477;0.012786989;0.044414632;-0.034923017;0.034327485;-0.10081452;0.02454104;-0.28844118;0.10532705;0.11525786;0.061115768;0.053223986;0.26864338;0.010503017;-0.05037733;0.06296764;0.013737377;0.17145221;-0.022904932;-0.060535137;-0.04600755;-0.12964056;-0.08374976;0.08453389;0.020757955;-0.08692642;-0.037291106;-0.074123204;-0.02728338;0.1435045;0.041839145;0.21177961;-0.013922513;-0.17768337;0.030203022;0.2042701;0.028689707;-0.020465635;-0.019506834;0.05955319;-0.08135578;0.059788365;0.008361073;-0.16839243;-0.024718052;-0.120735325;-0.018033244;0.27037206;-0.24608175;-0.027985007;-0.01456614;0.22302052;0.20260656;-0.035001744;-0.058092304;0.25888658;-0.13107869;-0.010402286;0.052963343;-0.009316527;0.034484547;0.022528578;-0.25924793;-0.059952416;0.1980165;0.01706127;-0.034827236;0.36644277;-0.14416485;0.25049415;0.03508279;0.011115508;0.34590298;-0.07772806;-0.24269089;-0.11702886;0.04900757;0.3346559;-0.021231808;-0.0077180495;0.050345898;0.16181412;-0.00068980467;-0.086835094;0.19752754;-0.054464865;0.16174664;-0.05060296;-0.022105755;-0.016370062;-0.30357558;0.016629353;0.09369267;-0.018861169;0.04951968;0.011196694;-0.106161766;-0.2785249;0.024966018;0.18884237;0.0055573853;-0.03935156;0.5267235;0.29817474;-0.012688234;0.25263527;-0.16380377;-0.02554195;-0.044475257;-0.033457488;-0.030087693;0.14634623;0.17229532;0.1384022;0.02615122;0.06782143;-0.05829268;0.043534808;-0.061432607;-0.051914055;0.04585147;-0.10717325;0.01703786;0.21952258;-0.034988523;0.011926972;0.001940815;-0.102745995;-0.1108276;-0.14187251;-0.05248136;0.033587277;-0.23182347;0.011897859;-0.04045962;-0.024605997;0.0832791;0.024475168;0.010557645;-0.1411318;0.17248964;0.023438219;0.00077093916;-0.11881667;0.026835293;0.09486386;-0.056278232;-0.057909492;-0.013223313;-0.014267813;0.036153596;0.17922524;0.05083035;0.045401;0.15342218;-0.07776492;-0.03347488;-0.114121355;0.016299399;-0.06823505;0.122583464;-0.0010731696;-0.14560725;0.013677952;0.033792444;-0.18361507;-0.19758788;-0.026067594;0.07103676;-0.00072861335;-0.14352366;-0.10053593;-0.03679844;0.047897503;0.21840005;0.007884666;0.18200941;-0.02559142;-0.07610653;-0.19329129;0.011546577;-0.12701222;-0.025078231;0.01817141;0.101674266;0.07464129;0.121041395;0.106381655;-0.021453986;0.32304323;-0.1071175;0.26604977;0.01041756;-0.025684128;-0.12761046;-0.042439494;-0.049972657;-0.006601783;0.0166384;0.123923406;-0.25180563;0.08695151;0.1054114;-0.02175026;0.39351413;0.10257973;-0.4927488;0.093687996;-0.18004069;0.042276315;0.23798029;0.0002996819;0.011505676;-0.12635417;-0.14042124;-0.03267266;0.02692383;-0.059473604;0.15577665;-0.1687358;0.07409718;0.024245666;0.11210476;-0.14644054;-0.08733475;0.03210272;-0.20497192;-0.0024908145;0.14093007;0.2719953;0.01101753;0.011257263;-0.10137144;0.10503382;0.07055901;0.12688059;0.124834605;0.083443925;0.07946724;0.11415147;-0.14037374;-0.20384088;-0.043975975;0.03294695;-0.1431311;0.07452566;0.08320667;0.18052891;0.063995734;0.06774987;-0.017193746;-0.37077585;0.16183601;0.07973118;-0.06933242;-0.03644448;-0.05052246;-0.14930531;0.19271362;0.08060967;-0.03724979;-0.080084994;-0.19150093;0.11304461;0.079194956;-0.092756726;0.08596405;-0.035903465;-0.0560911;0.02572762;-0.17162491;-0.0037902943;-0.007980087;-0.06889989;-0.06676034;-0.097656995;-0.008101448;0.030284397;-0.03904907;-0.037689738;0.012379197;0.017719878;-0.13069549;0.13256119;-0.27257302;-0.21224198;0.12656575;0.013525001;0.12300371;0.039277162;-0.07144617;0.0012296677;-0.05746016;0.034356028;0.022559037;-0.2944795;0.10877023;0.015757749;-0.080471955;-0.1054472;0.05187151;-0.039106756;-0.22722729;0.10331074;0.19698031;-0.07394741;-0.11026505;-0.0474139;-0.016908836;-0.033042386;0.46292415;0.010797415;-0.13555375;0.15281574;-0.022963416;0.15108745;0.031573664;0.02446006;-0.06672706;0.19195785;-0.031785;-0.1792281;-0.062300287;-0.093654454;0.03739434;0.13586964;0.14239603;-0.04717014;0.28660068;-0.020992491;-0.07226847;-0.12098563;0.00918749;0.09513538;-0.009128319;0.06961791;0.11033923;-0.11933102;0.080890074;-0.1247979;-0.26294854;-0.06532016;-0.013773048;-0.004824685;0.18193504;-0.09445087;0.04493585;-0.1098231;-0.044634018;0.084668875;-0.00032393812;-0.02012864;0.008724161;-0.152223;-0.006824605;0.11301498;-0.025311932;-0.0242125;-0.04853264;-0.017699502;0.3099389;-0.009288797;0.22149055;-0.07814233;0.0166636;0.20180687;0.00386246;-0.083738916;0.031084346;-0.18825057;-0.021993168;0.2801138;0.118050545;-0.013459382;-0.030268908;-0.27339724;0.026160996;-0.31271413;-0.03230209;-0.12845415;0.051943414;0.11903495;-0.02522027;0.18069728;-0.038822282;0.23250403;0.024287764;0.015103211;-0.029624673;-0.049140867;-0.074646264;0.16393767;0.16470058;0.08578118;-0.0037019022;0.034093708;0.056341015;-0.043861113;-0.12174977;-0.12206208;-0.014214023;0.106048524;0.026577499;-0.031678762;-0.014073845;0.047701646;-0.08214625;-0.014302218;-0.12915358;0.018646117;0.008445139;0.13366924;-0.14891832;-0.061598573;0.4748349;-0.20547825;0.12515546;-0.05217597;-0.19988558;-0.39030164;-0.012579288;-0.09850854;0.055169452;-0.034540325;-0.1273004;0.008318039;-0.12211864;0.26037163;-0.3367704;0.03799775;0.10519244;-0.06566835;-0.2775198;-0.048071835;-0.17273615;0.19209975;0.325964;-0.061028756;0.03964244;0.18074857;0.037115693;-0.0036572947;0.003913685;0.050097574;0.04556745;0.06721269;0.011192537;0.0165464;0.1592057;0.052709915;-0.068487525;-0.21462654;0.05612678;0.05056082;-0.020523775;0.04600708;-0.06812191;0.088503346;-0.09080882;0.060749248;0.064139105;-0.05084546;0.16977103;-0.05896456;0.12627491;0.13428544;-0.109839045;-0.007883925;-0.1964469;0.3317578;0.036391128;-0.2104256;0.0913484;0.009929018;-0.10821946;0.027015474;0.02056988;0.015747156;0.017314805;-0.06574418;0.06019184;-0.17674536;0.03832529;0.033949003;0.032436017;0.2272064;-0.01530857;-0.14163458;-0.31089792;-0.0064742356;0.078071624;0.110396534;-0.046095923;0.05769529;0.07671695;0.08113498;0.06896738;-0.07248286;0.031102635;0.0835755;0.33397916;-0.051498145;0.03452378;0.034905452;-0.166606;0.025400622;-0.1117651;-0.05047249;-0.035578746;-0.0959584;-0.1169826;-0.041785825;-0.0983731;0.03704891;0.027292775;-0.16086428;0.096469365;0.03784362;-0.17190342;0.15255763;-0.025643354;0.1798979;-0.03698579;0.09993807;0.08267756;-0.12949513;0.19174805;0.32615197;0.0074536684;-0.03324974;-0.22052589;-0.062858;0.03687576;-0.1923379;0.082831025;-0.013634699;0.04055836;0.13808186;-0.03251568;0.063570686;-0.09883491;0.04844821;-0.010928596;-0.024058547;-0.036297977;0.043785963
0.1242968;-0.052886188;-0.06626392;-0.19178012;0.026638495;-0.30254325;-0.26523542;0.10261462;0.025818862;0.22961944;0.013675954;0.017404543;-0.06861098;0.06877462;0.0011708701;0.06894717;0.0626409;-0.59428483;-0.06423825;-0.048622694;-0.050370052;-0.048896275;-0.034713473;-0.077078596;-0.069299504;0.0042782556;0.00048205428;0.19613056;0.07956768;0.042164493;-0.082617894;-0.006156565;0.12910138;0.0033138224;-0.038084485;-0.077979565;-0.045051552;-0.15094692;0.1322055;-0.04430416;-0.06524448;0.05568725;0.21684927;-0.090670705;0.06725512;0.08834692;-0.038292225;0.11101433;-0.06239322;-0.04571513;-0.0061230836;-0.0882124;0.09697746;-0.0018730117;-0.008760623;-0.12447964;0.004295824;-0.042155094;-0.0037216912;0.17774162;-0.057884663;0.24277258;0.024325538;-0.12226069;-0.093354344;0.21165474;0.07245521;-0.05899549;0.021025183;0.052374896;-0.15188156;-0.013617069;0.004344416;-0.05902264;-0.07710255;-0.06966468;-0.039067417;0.20261347;-0.11390721;-0.023133103;0.023553584;0.22482528;0.12027364;-0.11046821;0.06862386;0.3531394;-0.03808337;0.016849028;-0.06621674;0.0063675395;-0.05355345;-0.020156084;-0.1399205;0.18873778;0.14020132;0.120335415;-0.060034893;0.3164174;-0.12525155;0.27301925;-0.030997463;-0.14504746;0.23832676;0.0073565077;-0.10553443;-0.17380707;-0.031235551;0.2668985;0.027610824;0.002911461;0.16085126;0.032339036;0.16961919;-0.09920973;0.12542684;-0.02667135;0.1704494;0.047297847;0.024901308;-0.14906116;-0.30338618;0.020688718;0.19085816;-0.0039013384;0.051073868;0.04151208;0.027984647;-0.26509476;-0.027551351;0.42949057;0.081208654;0.16623332;0.38341424;0.16762492;0.04702455;0.16894469;-0.020124836;-0.03944666;0.025694918;-0.052424036;-0.052648734;0.12704462;0.13731256;0.18850827;-0.0786008;0.04272452;-0.09689937;0.029448163;-0.051805247;-0.08308717;-0.033137336;-0.101167075;-0.13579977;0.31470457;-0.04313628;-0.016222455;0.0045980085;-0.026155176;0.077219315;-0.1263962;-0.04731719;-0.0057431227;-0.22310047;0.027230704;-0.0039181868;-0.017066916;0.08731712;-0.064413585;0.02021786;-0.12263387;0.21243866;-0.04458044;-0.017437443;-0.2212115;0.109971695;0.17608622;0.03879319;0.022817409;-0.05440535;-0.07124385;-0.040300712;0.1422384;0.084696494;0.093726955;0.19197239;-0.15491508;0.023421545;-0.12792878;0.11838317;0.019719826;0.11735388;0.022966407;-0.0630846;0.01584674;0.04523988;-0.06329902;-0.10829441;-0.09652287;-0.07144456;-0.046604995;-0.06292225;-0.11287823;-0.12311883;-0.085327305;0.16131192;-0.027214976;0.062873736;0.05311712;-0.009020091;-0.08172666;-0.0054746205;-0.19771506;-0.008590461;0.0476082;0.01793316;-0.06202255;0.06631491;0.012540778;0.012276463;0.19094807;-0.11686887;0.18703328;0.0879864;0.037887186;-0.11900571;0.07593838;0.040447045;-0.055364523;-0.009218159;0.09561704;-0.35002378;-0.030803569;0.31663346;0.03584504;0.16609484;0.061438996;-0.39173555;-0.03201214;-0.37337497;-0.080816895;0.33709916;-0.062434413;0.0029132697;0.0068119727;-0.11009187;-0.04708483;-0.020938674;0.05320632;0.07025148;-0.19247009;-0.060511928;-0.17989615;0.03210334;0.17957449;-0.046501793;-0.04372439;-0.058996376;0.034532838;0.069769986;0.18109517;0.041624896;0.004825935;-0.047270507;0.2479154;0.07085075;-0.02251601;0.13275632;0.09892419;0.151463;0.043944575;-0.23649484;-0.12323005;-0.043597534;-0.080506414;-0.1528262;0.009822229;-0.06469907;0.247163;0.11536322;0.16294132;-0.12278958;-0.21039422;0.21844302;0.073916934;-0.020541167;-0.21654327;0.080407;-0.11752028;0.10167038;0.13934498;0.022858512;-0.05774868;-0.050993856;0.12150465;-0.053319406;-0.059691943;0.01005652;0.0010397127;0.06613255;-0.0084842425;-0.029434957;-0.06429553;0.06288682;0.076075055;0.005540714;-0.04031967;0.018216351;0.059401296;-0.017184578;0.07277067;-0.06344596;-0.14008874;-0.12092784;0.10068482;-0.16669874;-0.13168271;0.19828247;0.012290909;0.11936386;0.06842591;-0.026157603;0.051048566;-0.14350452;0.031875342;-0.010389729;-0.09912743;-0.03866812;-0.00041787454;0.059148923;-0.124293484;-0.03120897;0.031635277;-0.06801183;0.03315028;0.107498415;0.0022436492;-0.009168003;0.07405956;-0.094883434;0.07304403;0.37152734;-0.035274517;-0.08081827;0.044685245;0.055722054;0.16954271;0.051506888;-0.022546764;0.051995844;0.29565433;0.04290211;0.0008152483;-0.047420412;-0.03435491;0.042459175;-0.03620484;0.14075096;0.068475805;0.019359276;0.1294355;0.07707553;-0.03126285;0.027778437;0.18362784;0.04141539;0.021627275;-0.03173565;-0.2162675;0.027623395;-0.31601307;-0.24041016;0.073294386;0.14397196;0.0026503403;0.1770784;-0.06593691;0.21185778;0.0020667252;0.03037534;0.0742435;0.035169218;-0.010377544;-0.03695546;-0.020552257;0.008664912;0.2348249;0.021249525;0.010151726;-0.13024117;0.013103035;0.34782937;-0.02715511;0.03137612;-0.08074819;-0.07691167;0.13653536;-0.004565707;0.05747369;0.034679282;-0.1286525;0.024832485;0.2829488;0.02040085;-0.051044397;0.06977067;-0.26696834;0.019600186;-0.3322499;0.116279185;0.034952708;-0.08052682;0.04931261;0.027262118;0.19802286;0.031139364;0.29652628;-0.0016051282;-0.06665886;0.019004073;-0.08757279;0.037454776;-0.046500906;0.17505698;0.024482729;-0.050074074;0.02443442;0.18072584;-0.0022536754;-0.17687419;-0.09059344;0.010117416;0.06970807;0.044148657;-0.035912257;0.06319114;0.068183884;-0.21195659;-0.16497917;-0.21035889;-0.046365462;0.12143544;0.006813525;-0.06737177;-0.029397598;0.4804592;-0.22202782;0.0005578224;0.01160572;-0.19740762;-0.39375943;-0.05142625;-0.068512335;0.09856023;-0.0021183891;-0.15606913;-0.044211034;-0.15518971;0.15348797;-0.45578343;-0.02660292;0.023937335;-0.03357707;-0.1595234;-0.046356235;-0.11102158;0.1431497;0.14846346;-0.070470646;0.039582312;0.012616697;-0.0015905712;-0.02221442;0.022613088;0.006282562;0.10988042;-0.040761787;0.02870175;-0.020928232;0.14308016;-0.013375109;-0.036554083;-0.12642142;0.06427908;0.23398396;-0.06598487;-0.0012535708;-0.12734437;-0.0629202;0.0719065;-0.006162831;-0.037755776;-0.09021184;0.1461462;-0.0393739;0.19693902;0.0233809;-0.18050644;-0.01979145;-0.20367345;0.18367925;-0.046992127;-0.14632952;0.20902836;0.033387803;-0.07163364;0.0014248434;0.016555969;-0.02429364;0.07605379;0.03820917;0.13259499;-0.16323411;-0.010748791;0.098804966;0.047600474;0.21110189;0.021821406;-0.054525983;-0.2114943;0.154585;0.12582146;0.04706395;0.06723935;-0.14792651;0.09852501;0.008695149;0.16757968;-0.16124794;-0.012478382;-0.044648036;0.15039067;0.047536757;0.025499966;0.124484204;0.023563633;-0.040870704;0.023123145;0.02783171;0.0070189;-0.21001837;-0.11547644;-0.017093511;-0.12099414;0.023266189;-0.052173752;-0.094605684;0.096214876;0.017286515;-0.036660746;0.049416065;-0.036344502;0.18132998;0.039180662;0.03207623;-0.014528064;-0.022036117;0.19722645;0.324058;-0.069945104;-0.028752636;-0.14503342;-0.101490125;-0.121214785;-0.014535345;-0.05754918;-0.22157231;0.010551468;0.1368961;0.03928025;-0.009541571;-0.13101943;0.15151127;-0.070473745;0.010415839;-0.05101127;0.05915898
0.09996749;-0.012775356;-0.121777;-0.14191085;0.038218677;-0.19050518;-0.1876643;0.00311961;-0.07427131;0.13388719;-0.021925192;-0.036690496;-0.011136596;-0.049335193;0.0868296;-0.11964296;-0.18861283;-0.5629693;-0.16070062;-0.041539587;-0.09281636;0.009419982;-0.13736418;-0.044029757;-0.044649858;0.009852966;0.012441572;0.09637875;0.007243714;-0.052419636;-0.0192874;-0.051396914;0.2285938;0.12305846;0.051764388;-0.09089749;0.017576344;0.035678685;0.00037132204;0.08415845;0.019121295;-0.035374053;0.2609677;-0.023440937;-0.031395968;0.10163784;0.003781128;0.07913998;-0.054245353;0.025389083;0.011302985;-0.07525878;0.15654378;-0.04244511;-0.0053094625;-0.19577275;0.0037541566;0.018609347;0.054159857;0.11621183;0.015306074;0.10773049;-0.03677341;-0.07208633;-0.13967463;0.022012897;-0.032109883;-0.14091738;-0.11927421;-0.061030585;-0.17121701;0.004787948;-0.05853639;-0.050374523;-0.1218513;-0.18071555;-0.032694276;0.33927196;0.039211378;0.028990844;-0.041861877;0.12186626;0.25714448;-0.04063742;-0.044086725;0.19612126;0.085071616;0.059572503;-0.045601267;-0.044379596;0.03172062;0.030357856;-0.1926321;0.09254672;0.13083403;0.19360954;-0.028271623;0.23579377;-0.12746018;0.015843747;-0.041171234;-0.09093376;0.17385712;0.025519652;-0.10613598;-0.13707422;-0.014121033;0.13061284;-0.058082953;-0.040631603;0.100397766;-0.081002474;0.036808908;-0.11688997;0.22569908;-0.082715556;0.29006144;-0.061955437;0.043143105;-0.091715135;-0.3230963;0.025321368;0.15173998;-0.008820939;-0.046187107;-0.050988678;-0.13832031;-0.19010882;-0.032610122;0.3655693;-0.08060672;0.22251807;0.14779581;0.26397657;-0.042301632;0.18697335;-0.018819245;-0.18122146;-0.032021098;0.07223731;0.09779861;0.16703545;0.14184712;0.004219491;0.054448027;-0.11287479;-0.066057146;-0.026780179;-0.20186834;-0.10137585;0.025337439;-0.10126892;0.03509443;0.3082117;0.073971555;0.03387353;0.04008575;-0.1320217;-0.07396938;-0.2627122;0.016376691;0.032919724;-0.17168815;-0.008145363;0.06207657;8.232713e-05;0.2203952;0.01707713;0.022642372;-0.010358537;0.26437098;-0.026868312;-0.043082938;-0.055195294;-0.06363313;0.30334517;-0.017676948;0.029968524;0.14202963;0.071024336;-0.04354;0.000162874;-0.011672306;0.070110045;-0.10619963;-0.24632543;-0.07229073;-0.11145643;0.06478941;0.023857392;0.17057268;-0.054542016;0.03210624;-0.056116596;0.012840768;-0.002197135;-0.16104838;-0.031185323;-0.12657745;0.0043704906;-0.0024616774;0.07568217;-0.10710569;0.023307623;0.06358837;0.03472177;-0.027700972;-0.026684187;0.061070625;-0.19617991;-0.04403563;-0.15368861;0.022458427;-0.0040935036;0.06361123;0.0032907738;-0.10705508;-0.04093327;0.011309049;0.11913765;-0.17420007;0.24164473;0.17007527;-0.08342667;-0.13530529;-0.04225399;-0.017051592;0.002257037;-0.012901838;0.14575793;-0.3983309;-0.051072847;0.29589513;0.05646527;0.21808177;0.17663191;-0.12912302;-0.01814125;-0.35965425;-0.08230611;0.18631141;0.028823545;-0.004180793;0.015829986;-0.0753852;-0.05737309;-0.011432464;-0.040409394;-0.04188952;-0.16449982;0.013068805;-0.37108445;0.0014787137;0.13248643;-0.12162855;3.1058233e-05;0.05515397;0.04515839;-0.0043216133;0.116462015;-0.045809638;-0.06203259;0.07576599;0.094899386;0.19403471;-0.019341191;0.11858164;0.08443954;0.13335827;-0.06505053;-0.085686654;-0.07358413;-0.01733752;0.0059279846;-0.1447231;-0.01743559;0.055670295;-0.10381852;0.21564049;0.05859867;-0.18696024;-0.19372462;0.1475024;0.17616701;0.07109017;-0.0836734;-0.016865004;-0.00952704;0.25925872;0.18615063;0.016836075;-0.03905227;-0.070354424;0.11314122;-0.10123623;-0.095337756;0.11275801;-0.03696668;0.12855442;-0.06251919;-0.07813759;0.025404742;-0.04824993;0.09225176;0.031326503;0.005064025;-0.02028097;-0.00134912;0.07511539;0.1372155;0.023256322;-0.17563063;-0.03801762;-0.0503553;-0.021468287;-0.15473184;0.18630269;0.04677772;0.35090062;-0.15674058;-0.122803085;0.022100037;-0.34004575;-0.0495029;-0.024786001;-0.25603744;0.026000822;-0.046957344;-0.0069259605;-0.0013524455;-0.047576375;0.024400596;0.019220695;0.083304174;-0.009135845;0.043637037;-0.030661585;-0.035281733;0.03194332;-0.057522565;0.3628074;0.038808536;-0.03844745;0.14526753;0.14585246;0.19633731;0.0150750615;0.0059907916;0.012507619;0.20162986;0.022022037;0.11919974;-0.011848062;-0.05219338;-0.048935056;-0.011830307;-0.061422173;0.023293955;-0.0711941;0.08279019;-0.028112538;-0.037929814;-0.0459384;0.29535568;0.03075355;-0.013842739;0.06768486;-0.14801636;0.082082585;-0.16959578;-0.09512633;0.07212944;0.27814388;0.036307048;0.15967758;0.00602059;-0.09730515;-0.14010677;-0.013411542;0.14464898;0.020915633;-0.03514511;0.042963207;-0.08486777;0.030346744;0.31605083;-0.049172685;-0.035044592;-0.08712492;-0.13374545;0.21749371;-0.015620869;0.05029576;-0.12580775;-0.027514145;0.176366;0.06159763;-0.029580396;-0.048295837;-0.021792352;-0.012244141;0.3088197;-0.048289515;-0.016080935;-0.08335383;-0.27419493;-0.025443915;-0.105310425;0.17237394;0.049136788;0.09704015;-0.13678874;-0.0052674673;0.0406873;0.037409335;0.2953732;-0.041046713;-0.036061533;0.03183181;-0.20552072;-0.027931157;-0.06812128;0.1302232;0.14593159;0.049606305;0.033209685;0.12228829;-0.043765046;-0.18340503;-0.086025335;-0.048211217;0.16752674;-0.059679586;0.02322756;-0.011123423;0.09118716;-0.06025276;-0.15123083;-0.31568184;0.026462622;0.21432813;-0.048919655;-0.16715837;0.019803856;0.31712282;-0.061925557;0.06787823;-0.18477057;-0.2419246;-0.3599619;-0.13049623;-0.06327353;-0.060356185;-0.010572554;-0.18660961;-0.034756616;-0.011352697;0.16776891;-0.34867346;-0.15440992;0.039511554;0.039914284;-0.24660882;-0.110583924;-0.016893582;0.087567404;0.16106376;-0.09623311;0.018388173;0.04468667;0.061838683;-0.13076434;-0.02095181;-0.067813806;0.25511217;-0.056523558;0.04394946;0.046645556;0.08635408;0.020763036;-0.3460558;-0.114545174;0.01743312;0.03690988;0.042718;0.01871406;-0.1778514;-0.054541025;-0.028168032;-0.026321659;-0.015159711;-0.18105681;0.16884927;0.068995446;0.02188589;0.046398968;-0.11311859;-0.04947317;-0.19757088;0.076556616;0.04597698;-0.23365936;0.17026478;-0.016251976;0.00999258;-0.010963937;-0.032609977;-0.065916985;-0.021627907;0.06574047;0.20105056;-0.12906533;-0.031831663;0.04333517;-0.05613355;0.032409657;0.03909615;-0.07009324;-0.24453537;0.1535435;0.097691804;0.110873215;0.023277288;-0.11916093;0.029554084;-0.12618326;0.118979186;-0.0313884;-0.08522153;-0.06308343;0.10504525;0.0034838645;-0.002709943;0.04276302;0.015258353;0.03694527;-0.10639672;0.04857092;-0.05765311;-0.18463323;0.041989855;0.005316962;0.0042795483;0.017838344;-0.02557821;-0.070083335;-0.009933122;-0.02001123;-0.033014964;0.15733244;-0.026822425;0.2846167;0.019877;0.26267663;0.02970847;0.028620012;0.20499535;0.18305439;-0.061021965;0.01507707;-0.12999739;0.0606865;-0.08645816;0.038719676;0.02073398;-0.23786521;-0.06556298;0.29791853;-0.023781968;-0.059694726;-0.1741724;0.17529911;-0.2266282;-0.028188042;0.063396074;-0.0021543496
-0.11932938;0.021192685;-0.051783517;-0.13875815;-0.032023177;-0.2393087;-0.021079324;-0.033410896;0.028688924;0.032021545;0.045989376;-0.054592498;0.023162015;-0.12706171;0.21026745;-0.039314598;-0.19601661;-0.4563444;-0.070946425;0.0026234847;0.06935102;0.06480786;0.024838312;-0.06976685;-0.05313749;-0.04395492;-0.050094005;0.17700402;0.027114987;0.08523574;0.056872863;0.078091264;0.12455068;0.13541462;0.09558591;-0.10848359;-0.08181178;0.103065066;0.08851444;-0.0024309577;0.024557041;-0.0031418272;0.20613033;-0.019464143;-0.056985814;0.05753441;-0.05240862;-0.059231784;-0.016843565;0.0030772665;-0.03283412;-0.11257799;0.1433258;-0.07820724;-0.054957826;-0.024937829;0.02970774;0.18612798;0.045973655;0.2863551;-0.042834464;0.07431893;-0.013409086;0.0688593;0.003602512;0.008237843;0.011812824;-0.05487456;-0.13018826;0.016745547;-0.07909408;0.010824161;-0.017736143;0.11040924;-0.03410768;-0.13251615;0.040586222;0.38441357;-0.06558284;0.015493217;0.0100832805;0.12234781;0.17605077;-0.05072507;0.0019154677;0.31501552;0.19489084;-0.029044315;0.0692199;0.059060127;0.028998632;-0.011426655;-0.15301272;0.11277263;0.23143482;0.080704115;0.07000612;0.24466467;-0.113784835;0.030512346;0.07733777;-0.016755259;0.26809663;0.028294925;-0.064360976;-0.26730603;-0.033063833;0.17178999;-0.038127694;0.060655158;0.011646099;0.025781164;0.05195436;-0.09344997;0.36966532;-0.16120419;0.257171;-0.060946994;0.0037519655;0.080580175;-0.38809407;-0.015660506;0.19800691;0.026622947;-0.016828636;0.0011650142;-0.063534066;-0.10169057;0.02813808;0.39514652;-0.22878073;0.13984086;0.06795998;0.097654365;-0.032112226;0.07338795;-0.114887506;-0.025978124;-0.021360336;-0.020208793;0.124799944;0.13507424;0.12673369;0.039841264;-0.020579895;0.059437342;-0.19567885;0.0087716635;-0.026302282;0.00957852;-0.007596113;-0.05209776;-0.048043612;0.34255722;-0.011220366;-0.020244738;-0.059072204;-0.29597357;0.045605477;-0.23340507;0.026211312;-0.007862752;-0.3351471;0.0034255157;-0.014004496;-0.13219225;0.07538871;0.01110582;0.08198718;0.025422925;0.3022555;0.03511209;0.048128664;-0.016350593;-0.072925076;0.06682987;0.02960144;0.009885693;0.13020004;0.04896162;0.056282368;-0.02868219;0.03516133;0.20006603;-0.019199891;-0.3264401;-0.13555276;-0.07728448;0.0964523;0.025282465;0.06800237;0.045533847;0.041101597;0.015110652;-0.06867078;0.15133432;-0.13775878;0.04325339;-0.19569178;0.021762045;-0.040638447;-0.089528434;-0.03316428;0.075020045;0.17316175;0.022910988;-0.10237894;0.042581916;-0.009399183;-0.03842924;0.030794816;-0.06549049;-0.0028620951;-0.07573222;0.059694342;0.060127024;-0.13646893;0.060152244;-0.027102098;0.006038512;-0.15145771;0.20091674;0.19994077;0.0700294;-0.11720228;0.023541829;0.023043409;0.057943337;-0.017777868;0.028784376;-0.3624216;0.039997313;0.25721887;-0.076293856;0.26287788;0.054348744;-0.07101174;0.01606492;-0.48036548;0.08741217;0.13449198;0.010029666;-0.06536819;-0.060239326;-0.22421557;0.04546961;-0.030504841;0.016586853;-0.08399046;-0.2160659;-0.0044081872;-0.50921327;0.0031539313;0.17112234;-0.14024553;0.035101395;0.0642513;-0.018961897;0.12199645;0.0751047;-0.008952978;0.029758293;0.091338895;-0.12067817;0.19368257;-0.12680744;0.08456014;0.100805074;0.11449537;0.14679669;-0.14307997;0.050550874;0.090477854;-0.009613469;-0.18749279;0.033867802;-0.048394363;-0.15386455;0.00041204583;0.14552851;0.0051808027;-0.14373328;0.17066221;0.20693985;0.03912538;-0.03468214;0.045160223;-0.16616574;0.2565669;0.126942;0.016065266;0.088088274;0.12365089;0.08596745;-0.12719634;-0.29980025;0.024476679;-0.042036973;0.21797442;0.023099577;0.06432156;0.0314837;0.003206969;0.056217086;-0.024493312;0.06400761;0.044981282;-0.036176827;-0.0013965527;0.12035651;0.0012348584;-0.312614;0.037589215;-0.056387305;-0.018223274;-0.1922558;0.033179533;-0.07650371;0.4932353;-0.13872178;-0.024310201;0.1799576;-0.49707893;0.0024889968;0.046693537;-0.15254179;-0.0023829686;0.008487585;-0.0010605273;0.08470556;0.023029968;0.19155212;0.1530833;0.083992295;-0.17752488;0.03635531;-0.11302924;-0.04272483;-0.17232671;-0.08612163;0.31339014;-0.031734996;-0.061681315;0.089348026;0.06060842;0.07962914;-0.07674631;-0.040599853;-0.016221516;0.21088187;-0.02822419;0.09168564;0.13940872;-0.05232025;-0.0457491;0.059898447;0.06751216;0.0010046124;-0.29326338;0.19608441;-0.065536425;-0.11215669;0.051984157;0.25474486;0.07133639;-0.027024267;-0.069162525;0.023615852;-0.008977083;-0.08893287;-0.06360329;-0.059850357;0.1404793;0.038612597;0.18182445;-0.048708472;-0.19460782;-0.14206295;0.06731486;0.2052734;0.04045314;0.029240787;-0.0022039677;-0.061238345;0.03361966;0.25799632;0.051506914;-0.0215169;0.08105885;-0.15293545;0.0877671;0.05586097;-0.13248868;0.033311576;0.074124195;0.21795169;-0.022273513;-0.049023233;-0.033600617;0.093251795;0.055960137;0.2563174;0.016502187;0.08118897;-0.05374744;-0.2841335;-0.029409807;0.072622396;0.009251582;0.006195379;0.26503435;-0.18674266;0.03546664;0.16918193;-0.0141232945;0.20849007;0.016980425;0.013970442;0.0040634484;-0.12416717;0.020381702;0.06610402;0.123220384;0.050006736;0.028769622;0.18101148;0.047136366;0.09391872;-0.2000895;0.07039882;-0.002585976;0.14403711;0.040950596;-0.088184;-0.053094257;-0.0451361;-0.20103332;-0.09644854;-0.34185967;-0.009483808;0.14670393;-0.005026638;-0.24955617;0.015097542;0.14023018;-0.19553366;0.05670898;-0.104682416;-0.18328783;-0.3850691;-0.18458906;-0.07612879;-0.12115884;0.041004226;-0.017597584;0.037828226;-0.0039509274;0.22150706;-0.32993963;-0.24694663;-0.00081456994;0.054723077;-0.25143766;-0.11102953;-0.07234789;0.033272933;0.015255414;-0.015045953;0.21034603;0.1979989;0.03491182;0.08376113;-0.024769286;-0.114227116;0.022420654;0.06917872;-0.075016394;0.024984512;0.10358213;-0.04253138;-0.37934765;-0.019924609;-0.02631733;0.044777162;0.035259426;-0.0024261207;-0.088565536;0.062239733;-0.056137513;-0.064696394;-0.067729615;-0.12830773;0.27136782;0.09615606;-0.033433307;0.07466088;-0.210449;-0.030039953;-0.13468947;0.059899498;-0.049475633;-0.28805503;0.16324775;0.038200118;-0.11790128;0.014157608;0.11734225;-0.024463495;-0.08093634;-0.0057964385;0.21337745;-0.06533484;0.0042806515;0.102211796;-0.020088661;0.17836808;-0.053773534;-0.02626246;-0.19271135;0.10389726;0.095536746;0.20638774;-0.056133263;-0.07056453;0.20925723;-0.19209978;0.11019214;0.012020361;-0.22263318;0.060833383;0.07228606;0.004472266;-0.04288362;-0.132491;0.006354797;0.017955778;-0.26614726;-0.044543594;0.022957258;-0.10089075;0.20622726;0.026904896;0.18274662;-0.02960895;0.06248736;-0.2809038;0.06267708;0.017146086;-0.048754226;0.21291101;0.01481178;0.3582749;-0.04314104;0.25935733;-0.011842027;0.092748225;0.25235885;0.1795148;-0.024571942;0.06265374;-0.08403559;-0.10122341;0.023742372;0.03933715;0.1638045;-0.19264543;-0.034732595;0.37417004;-0.16803461;0.030971076;-0.030191174;0.108189374;-0.1771474;0.0036084885;-0.0057764733;0.117509864
-0.079185724;0.08509197;-0.00023130319;-0.17507076;0.02196219;-0.1862547;0.073879585;-0.020398391;0.007265465;-0.076083355;-0.04638786;0.12351626;0.011415091;0.025731707;0.17605726;0.024799215;-0.2693265;-0.51082194;-0.0077091847;0.106933296;0.027034437;-0.035120696;-0.17087747;-0.098132245;0.019419948;0.035702553;0.02767422;0.12577215;0.07693685;-0.040825613;0.13435152;-0.0127867395;0.2226465;0.082391284;-0.01447191;0.054940555;-0.08033415;0.018066013;0.036415625;0.15911354;-0.009084334;-0.011416758;0.24067096;-0.10518964;0.05603554;0.12345503;0.056646157;-0.042601664;-0.017966976;0.049081888;0.051598854;-0.27543736;0.11638854;0.029450333;0.04339742;0.024290102;-0.02936242;0.31524327;0.103080235;0.20159496;-0.028553465;0.00946294;0.003386606;-0.0066804294;0.04222706;-0.19519351;-0.043834917;0.077759326;-0.17658065;-0.02653646;-0.1676296;-0.027652103;0.011956613;-0.063990355;0.019953122;-0.062391452;-0.0073818625;0.45394304;-0.028903818;-0.041604377;0.050102014;0.091825224;0.14046924;0.0021438946;-0.017097887;0.23532574;0.27777532;0.010018985;-0.030341672;-0.069343545;-0.0007986388;-0.09102826;-0.12277622;0.10407734;0.15919797;-0.03572016;0.076493666;0.109208904;-0.07331068;0.008267401;-0.06000346;-0.0507789;0.17594689;-0.0057774303;-0.006768004;-0.13155018;0.03949855;0.09740363;-0.0036311306;-0.016866747;0.007605502;0.06688002;0.046738558;-0.06998131;0.22730331;-0.07290403;0.32775918;0.0331647;-0.04663483;-0.025370218;-0.34374446;-0.0319367;0.13580965;-0.019629033;-0.027502688;-0.017544901;-0.20067239;-0.11091796;-0.026820363;0.22496845;-0.34000295;0.2199136;-0.04759046;0.13466562;0.051274482;0.2830885;-0.113512084;-0.12775737;-0.00686381;0.026982117;-0.00064224424;-0.044047173;0.19102947;0.0049604797;0.03896703;-0.025775656;-0.07979483;0.01632195;-0.07802708;0.07824791;0.012029668;-0.10180155;0.113562;0.26670218;0.021193972;0.010423144;0.019771824;-0.20383583;0.028901746;-0.12233112;-0.07222161;-0.07268052;-0.1561987;-0.017505879;-0.055171207;-0.12734027;0.26468405;-0.00938596;0.18584433;-0.046986107;0.16295493;0.0430179;0.018295879;-0.0034547534;-0.103165075;0.23535147;0.054830812;0.043358475;0.17512749;0.0025178422;-0.0076651224;0.050389238;-0.052461952;0.086425304;-0.066534355;-0.2972536;-0.035019595;0.06484256;0.08503412;0.006869066;0.072131954;-0.009343068;0.03114028;-0.00022149833;-0.030963488;-0.029660849;-0.018093562;-0.05579899;-0.26022986;-0.031650603;0.13149023;-0.1389032;-0.14850107;-0.031727094;0.086212315;-0.04389347;-0.105192706;-0.043570153;-0.022248158;-0.0066288793;0.0808109;-0.12424283;-0.062355094;0.04219818;0.033576;-0.042233437;-0.07779381;0.06425207;0.034316856;-0.05338768;0.017819852;0.17374825;0.260219;0.04260473;-0.069376074;0.046264045;-0.032446306;-0.22157665;0.040771537;0.15986449;-0.38098365;0.067608796;0.25281227;-0.013976711;0.07859974;-0.09913398;-0.083143085;-0.052597504;-0.41414052;-0.017857186;0.018665196;0.05191456;0.046837922;-0.03848201;-0.14388147;-0.046263903;-0.0107162865;0.024854338;-0.15524481;-0.20079382;0.0033788413;-0.37658426;-0.1267212;0.08278272;-0.17056873;0.014136702;-0.052106746;-0.058694396;0.045100216;0.13615799;-0.0038940955;-0.036431264;-0.043613467;-0.068473116;0.2655404;-0.019471066;0.07857399;0.04518845;0.11094558;0.20013294;-0.2673362;0.07899075;0.007935504;0.23940986;-0.26564232;-0.029673256;-0.022153744;-0.091740996;-0.048412435;0.0009349337;-0.11306735;-0.038969908;0.19083321;0.016906325;-0.08553466;-0.13968758;0.28068835;-0.09673613;0.12314167;-0.040382974;-0.053703863;0.08166774;0.41902882;0.027433489;-0.0654596;-0.1706585;0.0341186;0.037716195;0.1854016;-0.007314042;0.17447302;0.022748582;0.05699517;0.07998797;0.0067567537;0.012077489;-0.012737313;-0.009149544;-0.075911276;-0.12707116;0.03413727;-0.030321335;0.06405335;-0.021946205;-0.072212785;-0.13337801;0.037244204;-0.04887137;0.43848237;-0.06670563;-0.03502833;0.10656981;-0.60831165;0.042832866;-0.009586776;-0.14560325;-0.04020175;0.090400435;-0.059057035;0.20171571;0.023111831;0.18967615;0.175864;0.045454573;-0.11264194;-0.04360709;-0.09118208;0.015261892;-0.09929519;0.031011587;0.2685904;0.033744898;-0.007866929;-0.081928656;0.089063965;0.0554418;0.0486408;0.025166417;-0.05397021;0.091350436;-0.0071021924;0.07582465;0.08504287;-0.009335384;0.04499608;-0.13413577;0.0533911;0.19531322;-0.1893331;0.07442397;0.02106798;-0.013467855;-0.031724382;0.22740781;-0.03442202;0.09302717;-0.08613144;-0.12869854;-0.023816053;-0.14034496;-0.10363656;-0.15109943;0.10253422;-0.107987486;0.19513755;-0.05133073;-0.077182055;-0.07805013;-0.045642313;0.03349251;-0.062041443;-0.022088792;-0.012613024;0.10203267;-0.063015506;0.22432724;0.0009304865;0.12487067;0.08611526;-0.03379529;0.13492344;0.113243915;-0.18296061;-0.0642069;-0.019376047;0.353152;-0.0042301603;0.045047056;0.011388198;-0.019591426;-0.06456094;0.16872028;0.15846908;0.10774572;-0.054327104;-0.080148;-0.057479363;0.15756136;-0.04862398;-0.121124946;0.2919771;-0.20675117;-0.017587485;-0.04077851;-0.0033387553;0.24409685;0.0001224185;-0.075844884;-0.07510207;-0.21107608;0.025442658;0.11542661;0.21430953;0.018196443;-0.05410327;0.05264175;-0.17037283;-0.021452086;-0.15763043;-0.06962443;0.04955212;0.027525933;-0.023068778;0.009875293;0.008349833;-0.13587894;-0.24116345;-0.072715566;-0.25477552;-0.00037003888;0.08044557;-0.060971197;-0.16577515;0.0531357;0.17586468;-0.19516866;-0.078568846;-0.18324865;-0.3030497;-0.22032267;-0.14269212;0.0018216212;-0.21574834;-0.05281901;0.022010924;-0.043545183;0.09861919;0.2709702;-0.40794113;-0.15405928;0.017824968;-0.007911605;-0.19608484;-0.0065640686;-0.038551345;0.1541481;-0.15900987;0.14453658;0.19131489;-0.015984371;0.010493827;0.17961009;-0.017410684;-0.09969106;-0.011115743;0.06703076;0.010172559;-0.05728134;-0.09774745;0.028838046;-0.20297411;0.102895655;-0.054971505;-0.087447144;-0.02748345;0.0045748637;-0.01844999;0.13655151;-0.22852743;0.0048017115;0.049346015;0.05666838;0.14295898;0.010320191;0.21206437;-0.007087379;-0.15785532;0.054203417;-0.19829597;-0.005202484;0.0323401;-0.14142577;-0.023033077;-0.033719055;-0.062279966;-0.034918908;0.008199668;0.06660874;0.011820438;-0.023578625;0.06502891;-0.20800897;-0.055682678;0.19620132;0.055861615;0.18017946;-0.048937;-0.19003285;-0.11405133;0.09234163;0.10074704;0.11943375;-0.000724786;-0.07108984;0.1584704;-0.09153913;0.13070324;-0.077524245;-0.1986295;0.028099906;-0.007620255;0.028349841;-0.02377671;-0.020580327;0.023196919;-0.016643036;-0.40250695;-0.01819317;0.028790507;0.0753119;-0.038254023;-0.017375048;0.15159675;0.0059744082;-0.043701958;-0.14723437;0.008900197;-0.004637792;0.106788054;0.14664042;-0.024212644;0.23036957;-0.03087436;0.32272473;-0.14490497;0.2560303;0.24691981;0.09588106;0.18769136;-0.01586151;0.037280913;0.027057216;0.060140368;-0.016219255;0.13157772;0.11431166;0.017303172;0.35770425;-0.1266192;0.009803958;-0.056433976;0.3375322;-0.010939833;-0.028182054;-0.035563968;0.15896964
0.01469388;0.09234503;-0.05951007;-0.11394122;-0.02121307;-0.041495502;0.2487172;0.0007272061;0.012647952;-0.13735108;0.054888956;0.124176316;0.037068013;0.07612821;0.0988161;0.01378438;-0.33542776;-0.22656551;-0.026459211;-0.033409566;0.038023155;-0.04219365;-0.06141426;0.011115693;0.1066346;-0.00650236;0.009994003;0.121050045;-0.044415172;-0.0130108595;0.097938344;-0.046485823;0.16725327;0.11535456;0.0069145146;0.054714162;-0.045324553;0.12324276;0.043565378;0.0273239;-0.011429745;-0.016283734;0.054080866;-0.116098836;0.014275958;-0.051176462;0.02932879;-0.048602503;0.08039141;0.025764635;-0.07463096;-0.2806455;0.07285296;0.040491704;-0.04332374;0.053930335;0.048257187;0.38931844;0.12676308;0.100980885;0.081146844;0.14716375;0.053684082;0.17943738;0.042441674;-0.059172444;-0.100723065;-0.05123154;0.073320664;-0.04307732;-0.16481197;-0.01691411;0.044307116;-0.103082545;0.15020055;-0.02897389;0.019270614;0.5968307;-0.10799395;0.028982176;-0.05690372;-0.1244812;0.13350226;-0.0013479968;0.014828436;0.20673552;0.30294487;-0.015511974;-0.03661317;0.07756091;-0.011979215;0.124526225;-0.20362262;0.0928021;0.024737518;0.04430785;-0.06444314;-0.03497713;-0.0770857;-0.012159761;0.00744776;-0.122360855;0.1244903;-0.014817662;0.08527426;-0.12423242;0.026377153;0.05143792;0.0438184;-0.020173931;0.08279755;0.023626646;-0.011950457;-0.06770655;0.10008165;-0.053646762;0.28125435;0.10565062;0.012995492;-0.0039476245;-0.30632052;-0.021082537;0.15708485;0.005453269;0.016605426;-0.010010725;-0.20236723;-0.08915468;-0.04749926;0.19967099;-0.428232;0.24039799;0.060065094;0.0019181286;-0.021272091;0.28133914;-0.19983678;-0.0889429;0.06986086;0.008612799;0.054153327;-0.038923632;0.3924414;-0.047040075;-0.01941362;0.1366206;-0.086866856;-0.03284818;-0.14045925;0.10647268;-0.011447436;0.051530108;0.0016212155;0.12888154;-0.082714334;-0.023772055;0.036912967;-0.2845782;0.023480741;-0.014795937;0.030198714;0.07689141;-0.13454013;-0.014820784;0.060417455;-0.14374778;0.22340818;-0.057498004;0.25040016;-0.06215456;0.16250947;0.02395389;-0.03885126;-0.034533005;-0.0069844085;0.033842266;-0.055187408;-0.052949492;0.18347454;-0.032034606;0.0015347368;-0.007847198;-0.123038284;0.03884094;-0.15979098;-0.445173;0.020239947;0.02033697;-0.0387527;-0.010075658;-0.056317598;0.05537336;0.017043121;0.03737705;0.022497172;0.034712628;-0.021215584;-0.16778286;-0.23473027;0.051466268;0.16092567;-0.22469607;-0.29492918;-0.057220306;0.09811469;0.010118107;-0.10743989;-0.026515905;-0.20260026;-0.058855936;0.072574094;-0.099645;0.031118738;-0.002825089;0.17050411;-0.0490108;0.06431811;0.031339224;-0.052613974;-0.07371174;-0.05388895;0.103255875;0.36672583;-0.033101678;0.013049924;-0.062459975;-0.008018332;-0.47236037;0.0025249962;0.06732803;-0.31601915;-0.060098343;0.14506039;-0.12414229;0.15240599;0.025799422;0.019009259;0.065550916;-0.344936;0.012824584;0.007599031;-0.0064303796;0.017736007;-0.1505945;-0.1674554;0.030885087;-0.042586543;0.007754906;-0.11718058;-0.09406254;-0.004714886;-0.41721287;-0.13988777;0.06309895;-0.21691358;-0.08833066;0.16165632;0.071411364;0.0571464;0.07339657;0.033329796;0.012441785;0.0051830285;-0.041718066;0.20013957;0.05363345;0.10645055;0.11500518;-0.02589202;0.279723;-0.14998353;-0.02615891;-0.048466653;0.32571083;-0.057791945;-0.06849243;0.0010077781;-0.16272557;0.035547238;0.04408399;-0.0883471;0.1272914;0.40002167;0.09930469;-0.043851625;-0.07639475;0.21349514;-0.122981414;0.30100548;-0.052441485;0.02430584;0.11318213;0.5304514;0.13741955;-0.15502381;-0.1644403;0.026010443;0.0508821;-0.05648087;-0.030880904;0.31692833;0.036252555;-0.01864596;0.019200731;-0.024957087;-0.09002855;-0.021893503;-0.062323246;0.05154119;-0.085442826;-0.052346062;0.02551796;0.051928103;-0.033651855;0.107607275;-0.10112431;0.11740591;0.061006606;0.3522053;-0.042316813;0.02711458;-0.023800518;-0.5326822;0.012108856;0.083819404;-0.12923056;-0.04655404;-0.02006021;0.029310165;0.34612733;0.035343762;0.1272975;0.25067085;-0.14600386;0.007430746;0.07974312;-0.06597759;-0.027170511;-0.12024343;0.0598096;0.21446364;-0.05438557;0.32576233;-0.2545158;0.08736951;-0.09598831;-0.006459064;0.01777278;0.075200275;0.06614244;0.027503781;-0.027739909;-0.0032664523;0.056633312;-0.027897554;-0.13111891;-0.054852493;0.1579379;-0.21453428;-0.00872077;0.06204163;-0.013887733;-0.041306246;0.23427422;0.04211677;0.0074276156;0.038972363;-0.08704302;-0.002971914;-0.2592955;-0.03321736;-0.08477372;0.100112975;0.03896541;0.16244534;-0.09422018;-0.17428121;-0.15357614;-0.033329092;-0.0069218166;0.020043813;-0.015846763;0.08475994;0.11150478;0.008088844;0.1337739;-0.04890797;0.021167818;-0.00016920165;0.14728893;0.011547735;0.09271786;-0.05180181;0.073273614;0.049993917;0.3038071;-0.062713444;-0.03223803;0.0028783798;0.06839236;-0.023771774;0.086360194;0.11520502;-0.07414077;-0.024587726;-0.123502195;-0.03960948;0.2619309;0.12673047;-0.088895306;0.14902692;-0.31856984;-0.0037801247;-0.07198857;-0.024444934;0.26342922;-0.038935605;-0.19740991;0.050270956;-0.075918406;-0.05519204;0.09193073;0.041006465;0.10581733;0.03176896;0.090434104;-0.03305781;-0.050816495;-0.1727649;0.049390037;0.04813033;-0.0032679453;-0.011425051;-0.026419792;0.006164666;-0.19577155;-0.184349;0.0063362806;-0.25782698;-0.02219712;0.08478698;-0.040234547;-0.20505387;-0.077459306;0.107481405;-0.12002759;-0.04757846;-0.06750228;-0.093394324;-0.26701528;-0.15634516;0.0805356;-0.19400999;0.04544997;0.026779145;0.056067415;-0.034492537;0.35090342;-0.2578679;-0.1481013;-0.13483901;-0.10817823;-0.10546038;0.019460293;-0.005552262;0.12697087;-0.13488637;0.12712853;0.058744784;-0.19950336;-0.08248388;0.11314725;0.0036951369;-0.10522549;0.08320019;-0.050324976;0.037615567;0.01098061;-0.10519819;0.031011043;-0.24161899;0.049967285;-0.011938324;-0.016814318;0.00496919;-0.03642267;0.11180936;0.12189817;-0.14647035;-0.15268774;0.05481707;0.07151461;-0.0176085;-0.008635066;0.1756496;0.05426084;-0.16193204;0.034812447;-0.21036491;0.092139624;0.0044906945;-0.25156093;0.11654513;-0.056237873;-0.07110603;0.03888008;0.1847138;0.05544144;0.039425485;-0.0489007;-0.008525674;-0.24185188;0.05161825;0.29662004;-0.022236876;0.105299935;0.034515657;-0.25505194;-0.24057488;-0.010170025;0.29895183;0.02123699;-0.0032096503;-0.1745105;0.2652809;-0.04626713;0.066519015;-0.022074573;-0.12959202;-0.05079316;0.10173622;0.031279135;0.02263785;-0.12064595;-0.057963148;-0.013370997;-0.32154387;0.00400119;0.027106987;0.035241876;0.0063484376;0.041026745;0.1331379;-0.026581893;0.0634326;-0.23147373;0.08492422;0.015238389;-0.009923686;0.18279845;-0.0282288;0.22268727;0.03962035;0.2394683;-0.192918;0.34315404;0.20790634;0.12856174;0.15794104;-0.0041765724;0.12452102;-0.121353455;0.08618894;0.022170588;0.19644177;0.12810381;0.0028094584;0.35382426;-0.33789626;0.020787576;-0.09125458;0.23314704;0.12590338;0.035557218;0.07582595;0.26196313
-0.030800728;0.024401652;-0.026222225;-0.06110098;0.028937835;-0.041859116;0.37946886;0.01879806;0.0448135;-0.06690956;-0.006171044;0.17284478;0.051716436;-0.015812028;0.0063422117;-0.08606795;-0.23626885;-0.25326622;0.03549858;0.069097966;0.12936196;0.016702812;0.0017173067;0.055118132;-0.035898883;-0.057067074;-0.017298115;0.29295132;-0.018418938;0.08914463;-0.04960505;0.049845494;0.16798396;0.058357123;0.06274567;-0.21132694;0.008145203;0.011207933;-0.008426681;0.07518849;0.06773112;-0.03137646;0.07273987;-0.17570175;-0.026868664;0.16465837;0.0077805147;0.008796616;0.065384716;-0.024030356;0.066920474;-0.3403652;0.048681892;0.047508154;0.06861662;0.17068332;-0.009120069;0.34425724;0.07739713;0.19629195;-0.070329756;0.08849047;-0.036166586;0.064817294;0.01967248;-0.02802575;0.037703004;-0.047579892;-0.09128645;0.028536476;-0.19594261;0.007698021;0.0280427;-0.17771916;0.10022576;-0.16320653;0.008079003;0.54958296;-0.10398211;-0.0025021827;-0.021335417;0.062529355;0.12039876;-0.04470913;0.057506017;0.16290964;0.27288955;-0.038078893;0.060849372;-0.0026901672;0.032222915;0.07561877;-0.19924103;-0.1189615;-0.12713063;0.09661892;0.064549044;-0.009001923;0.005963378;-0.12308145;0.03866955;-0.12765421;0.09483172;0.010296035;-0.053234804;-0.17690319;-0.041135523;0.016041338;0.033426113;0.039875247;-0.15111883;0.06731558;0.010326473;0.10102357;0.036736794;0.14136478;0.19349283;-0.060314745;0.03507372;-0.13680635;-0.36484897;-0.011293254;0.16601652;0.012695984;-0.015145745;0.046118647;-0.09817365;-0.08669631;0.036970273;0.06440582;-0.5029104;0.12706429;-0.024117105;-0.0972925;0.017749522;0.32205442;-0.15078159;-0.2112749;0.020907268;0.037085727;-0.020030836;-0.10942609;0.28903928;-0.09316615;0.036635883;-0.052049704;-0.051599946;0.041561067;-0.11976148;-0.16675626;0.017691657;0.111238986;0.09505306;0.07009648;0.05912526;-0.04737961;-0.07100213;-0.18031111;-0.052935667;-0.09564351;-0.12103021;-0.015872013;0.07637401;0.02573217;0.022174485;-0.11528408;0.22145423;0.04693698;0.22295256;0.08586137;0.2212162;-0.00016580247;0.02610926;-0.11268778;-0.0036858423;0.118281126;-0.07728418;-0.04974286;-0.0030382704;0.009756069;0.0077781077;0.05899398;-0.020461595;-0.098792925;-0.185731;-0.4366672;0.00021137601;0.01442222;0.1687713;-0.03775363;0.08067426;-0.0430798;-0.019525934;-0.044928577;0.027019307;-0.09531633;0.019479258;-0.25291488;-0.124470316;0.0041411007;0.07518927;-0.19358632;-0.34225285;0.011175436;0.060200315;0.009069848;-0.018283255;0.050841574;-0.13048914;0.05264164;0.048717476;-0.23033176;0.02944334;0.03106499;-0.0007229319;0.073755294;-0.08993119;0.06758242;-0.030423228;-0.12586293;0.07538021;0.079715446;0.26565966;-0.039861675;0.038710814;0.013391281;0.064412266;-0.4253094;-0.03534958;-0.0032159234;-0.24184717;0.014382361;0.29866952;-0.028581085;0.1637589;-0.11402292;0.08977837;-0.036345165;-0.22682637;-0.08583424;-0.022011077;-0.028367948;-0.0021027739;-0.15856987;-0.13501711;0.0014339393;0.043561943;-0.05384035;-0.14466414;-0.12337167;0.0038898888;-0.46894178;-0.07181502;0.050363045;-0.048326753;0.04492075;0.03420172;-0.032909688;-0.02704676;0.17868315;0.049505863;0.07656375;-0.054502424;-0.07261189;0.2850399;0.14336577;0.049154785;0.22669913;-0.052382775;0.08831376;0.0031360507;0.016737208;-0.013155267;0.31983054;-0.06015694;0.03276825;0.0071612834;-0.09912836;-0.13926792;0.074906155;0.1184895;-0.01419932;0.2493715;0.17732458;-0.03979058;-0.12921558;0.2163039;-0.06181053;0.22304298;-0.18776304;0.046763066;0.018717578;0.5140612;-0.07129043;-0.23011594;-0.22594313;0.03541279;0.035162363;-0.25005403;0.048593726;0.49452984;-0.0904083;-0.026450993;0.09003848;0.070987836;-0.0072647035;0.0052522854;0.010499784;0.02870545;-0.071199864;0.03178096;-0.038905412;-0.024044935;-0.09129846;0.123984925;-0.09687786;-0.014482473;0.026294546;0.40911487;0.003207076;0.03049721;0.08417114;-0.25431392;-0.017195402;-0.004749084;-0.053418558;-0.008675799;-0.021124711;-0.010804371;0.2846231;-0.057839643;0.11221515;0.042854365;-0.1076693;0.08792026;-0.051667508;0.1090903;0.043490637;-0.058421038;-0.019169683;0.20022446;0.042888653;0.15834944;-0.15642315;-0.02779846;0.0064779744;-0.027818862;-0.011209694;-0.03556989;0.0070350207;-0.01773644;-0.080757156;0.20735192;-0.06287059;0.000113371934;-0.005589359;0.09105131;0.051124312;-0.14039518;0.041025646;0.01637589;0.122770816;-0.010004965;0.22827831;-0.039707668;0.16588572;-0.19750641;-0.121782795;0.018737469;-0.25345308;0.007000522;-0.07299435;0.19727091;0.0101527935;0.15768643;0.07198085;-0.06674213;-0.023231568;0.02219898;-0.07109755;-0.037698094;0.07805551;-0.050886843;-0.016803924;3.738863e-05;0.32736474;0.05703689;0.0800104;-0.043736994;0.16947658;0.049251463;-0.09081594;-0.12400886;0.101224035;-0.037887633;0.13889599;0.038155846;0.011458473;-0.0029269622;-0.0045407955;0.068876065;-0.06136985;0.1579666;-0.016038008;-0.055794265;-0.04243409;0.012292371;0.17546318;0.1511732;-0.08388611;0.10067825;-0.25302303;0.050709743;-0.12103169;0.054174054;0.13790746;0.034011345;0.012651157;-0.04175411;0.012099827;0.005406266;0.16696166;0.1946852;0.017908024;0.035630476;0.08737123;-0.07311144;0.076034136;-0.15505655;-0.10032474;-0.03100671;0.06406273;-0.005938598;-0.0573436;0.040528145;-0.068326876;-0.09543909;-0.15742044;-0.03993355;-0.011541799;0.045445964;-0.11256672;-0.26820672;0.017760152;-0.016843023;-0.10455508;-0.016412081;-0.058322597;0.053764183;-0.29418716;-0.046976946;0.11830427;-0.19096036;0.04530921;-0.09988333;0.0012030806;-0.02753066;0.12532614;-0.1727625;-0.15258667;-0.029156527;-0.040675893;-0.005165535;-0.0042549423;-0.030238265;0.072308786;-0.4311388;-0.002067406;0.082478315;-0.12290026;-0.019162338;0.040771704;0.029597614;-0.18349625;0.14570111;-0.03198238;-0.07182803;-0.06419907;-0.15261531;-0.022422893;-0.02622014;-0.0635658;-0.013191609;-0.2381278;-0.013508507;0.036424506;-0.019185605;0.12072142;-0.09367827;-0.08751207;0.01242373;0.1250448;-0.043882307;-0.04603663;0.16647431;0.13044997;-0.11631931;-0.012224157;-0.14063346;-0.07694027;-0.0424396;-0.3296265;0.091379;0.05090271;-0.12404183;-0.02404415;0.11290744;-0.04971885;0.038324177;-0.013086276;0.08462414;-0.058042224;-0.007153988;0.04736364;-0.029550852;0.21251605;-0.016395194;-0.26278734;-0.2885492;0.019964196;0.22812356;0.02022829;-0.025153803;-0.197605;-0.012481571;0.02441465;0.09464911;0.013706149;-0.15102509;0.030297937;0.054714717;-0.085393995;0.022200556;-0.004089377;-0.13884449;0.0056961905;-0.36940005;-0.0051375404;-0.03342383;0.1863375;-0.09076845;-0.036796667;0.08989282;-0.021240754;-0.056070972;-0.25053465;0.12384155;-0.053958587;0.09584842;0.24255888;0.026700033;0.24389127;0.04612062;0.08876477;-0.23000827;0.25608474;0.041369393;0.23803504;0.0074234726;-0.043445;0.102653;-0.13023879;0.1666783;-0.1064753;0.13620074;0.19593312;0.014333944;0.37258294;-0.36525;0.02246998;-0.004791616;0.25743526;0.053199552;0.031094143;-0.052838232;0.3079439
-0.082929604;-0.015323177;-0.07522636;-0.0014589094;-0.07164805;-0.037054352;0.2840382;0.13540497;-0.035056937;-0.008934891;-0.026507506;0.15424909;0.036632854;0.06711432;0.074364245;0.04097979;-0.15369289;-0.19658485;0.13130116;0.015140129;0.056629583;-0.021490231;-0.028554285;0.026543938;-0.03947479;0.034823645;0.061839443;0.25689718;-0.11930777;0.029021619;-0.025096128;-0.0056518507;0.05599243;0.19525442;-0.11373458;-0.28999513;-0.07894192;-0.012220533;-0.06364803;0.11104923;-0.039075434;0.013244759;0.071782865;0.034157075;-0.004063054;0.22530381;-0.07493763;-0.048870966;0.007456628;-0.05241026;0.040188536;-0.3870735;0.12226709;-0.008394244;-0.006202955;0.10936522;-0.0815228;0.25282553;0.10203884;0.09210467;0.022636844;0.10279246;-0.043773383;0.0022722376;0.013423632;-0.15980633;0.03184153;-0.061905846;0.023077574;0.04307229;-0.15322892;0.0555627;0.012132575;-0.06849161;0.19619405;-0.067871355;0.042200975;0.5305493;-0.28045854;0.017489005;0.027184391;-0.20200753;0.3286603;-0.0062430883;-0.06596393;-0.14919552;0.3110184;0.01606536;-0.03698606;0.0005875264;-0.052244525;-0.047707938;-0.13591504;-0.16922429;0.053862933;0.01634786;-0.07418199;-0.2374181;-0.0485705;-0.11400916;-0.03112849;-0.1444418;0.055476278;-0.0037404632;-0.035034273;-0.18777151;0.00547763;-0.022052761;0.023912704;-0.025873031;-0.17057176;0.1894311;0.1212965;0.0052062473;-0.06625819;0.11982654;0.27800915;-0.03463191;-0.00060864567;-0.023152595;-0.2863309;0.055387273;0.013418881;0.028477598;0.0376081;-0.038427267;-0.30838722;-0.1438238;0.030055778;0.013019749;-0.4974249;0.10314902;0.16347966;-0.05860226;0.016419707;0.35763896;-0.21642946;-0.24145007;-0.046440884;-0.053436097;0.12103858;-0.17176446;0.30569053;0.07168883;-0.06630112;0.03274078;-0.14354509;-0.031013908;-0.16460201;-0.11134714;-0.001928929;0.2373565;0.047648255;-0.04036091;0.02269071;0.018338772;0.047172774;-0.026806634;-0.024604818;-0.1636113;-0.04558613;0.022808196;-0.029130723;-0.04939581;-0.014450649;-0.09708664;0.18139416;-0.00073372404;0.18538772;0.017380238;0.08489893;-0.038448445;-0.03408953;0.081384756;0.07439914;-0.03927912;0.0843416;0.022357231;0.0037044915;-0.069318675;0.025451677;-0.060092825;-0.10482321;0.13436192;-0.0710985;-0.4918813;-0.011010866;-0.013506913;0.123898014;0.002548469;0.19327237;0.0016873726;0.016239649;0.02378338;-0.0013518741;-0.049712364;-0.057462543;-0.30044606;-0.22518983;-0.008965413;-0.14282238;-0.11885888;-0.22507526;0.058173224;-0.07694278;-0.011786143;-0.004632573;9.123911e-05;0.061713334;-0.08199191;-0.117341556;-0.3970037;-0.0446237;-0.025268985;0.16326948;-0.054939967;-0.2177134;-0.012655541;0.06691494;0.0013679636;0.20622566;-0.04262712;0.2226119;0.011431461;0.15340942;-0.032959756;-0.04952708;-0.56328595;0.048215676;0.099432796;-0.31375173;-0.041593313;0.29113817;-0.011443618;0.17726797;-0.06568046;-0.0076063965;0.02248772;-0.3807046;-0.00043737981;0.033079218;0.016520478;0.030247062;-0.33481824;-0.32492754;-0.03625329;0.07354664;0.019820997;-0.21447761;0.0024488363;-0.029537866;-0.49624783;0.037673064;0.06351693;-0.053760957;0.05020862;0.032447614;-0.041103594;-0.07644467;0.16842602;-0.047471162;-0.016742606;-0.26504275;0.013990978;0.34334427;0.037469942;-0.0033227177;0.17540623;0.03400367;0.09611133;0.064627334;0.007818965;0.043490488;0.30592218;-0.038763445;0.0022221704;0.050585408;-0.2409796;-0.19484758;0.07100497;0.02242201;-0.14095065;0.39512345;0.05346551;0.08878869;-0.20595102;0.2519538;-0.14453664;0.09027586;-0.12635276;-0.016604958;-0.052964438;0.28033477;0.038261734;-0.28388426;-0.13311127;0.07608008;-0.026921807;-0.06512629;0.04412744;0.6036789;0.05962513;-0.033971734;-0.00031614045;-0.037976906;0.029695854;-0.0038945302;-0.060562544;-0.03221018;-0.028093994;0.008514564;-0.022123719;0.06624359;-0.060606867;0.067687586;0.049488742;0.071187034;-0.03805799;0.4827459;0.045030355;0.122121714;-0.006491074;-0.26924485;-0.015190774;-0.05237523;-0.03155043;0.020347586;-0.025843907;0.017546939;0.41568556;0.036819328;0.30870405;-0.047613863;-0.23727126;0.033911843;-0.016945347;-0.040875442;0.020268818;-0.03606164;0.029014563;0.14364794;0.0029852765;0.25967005;0.032882493;0.063609384;0.09022263;-0.03078899;0.027128316;0.05411808;-0.051581435;-0.0062575396;-0.07082562;0.12920275;0.15905073;0.033556372;0.110619195;-0.025201054;0.052458514;-0.11073371;0.024461772;-0.061316896;0.034440286;0.04670233;0.13243853;0.108172625;-0.0056792744;-0.048654445;-0.052536555;0.1295213;-0.290421;-0.08610411;-0.036918703;-0.102330096;-0.0029423551;0.13778718;-0.0021700219;-0.0026481678;-0.12219956;-0.03241391;-0.034122556;0.060945533;-0.028697418;-0.033922065;0.028354561;0.010199905;0.19578743;-0.0046491874;-0.007988438;-0.04681998;0.113001294;0.005586047;-0.023982206;-0.026564341;0.18973933;-0.017489783;0.04591702;0.005056128;-0.10621402;-0.0030544025;-0.059288353;-0.018362816;-0.22287224;-0.09207719;0.041832086;0.15747796;-0.049027663;-0.056403764;0.21283363;0.019434378;0.001317625;0.24990925;-0.17211682;-0.0737991;-0.28390786;0.016254079;0.06321006;-0.013045025;-0.050078575;0.014643068;0.018634588;0.04395892;-0.01701949;0.080547966;0.0022118075;-0.045175426;0.16173643;0.011708868;-0.061065804;-0.0208094;-0.12295434;-0.022004189;0.13269931;-0.056129552;0.006607341;-0.023890069;-0.043944832;-0.00938153;-0.11575737;-0.15377043;0.06370676;0.018433653;0.10895337;-0.21445718;0.0577936;0.0037989034;0.059373844;-0.17572628;-0.0040284386;0.23168565;-0.30750993;-0.17061156;0.051792976;-0.08258802;-0.067813344;-0.07921069;-0.014606359;-0.16163291;0.16349155;-0.246991;-0.2323696;-0.09151031;0.04441541;0.026972685;0.136233;0.1330502;0.123902336;-0.4410789;0.1496789;-0.1648845;-0.15273835;0.040184923;-0.026605703;0.037831638;-0.09463131;0.06665378;-0.034318525;0.024834033;0.0074517317;-0.20572907;-0.07224256;0.027183706;-0.035624355;-0.2000075;-0.05019699;0.025050925;-0.017395321;0.07399569;0.04501481;-0.08258633;-0.26880637;-0.024031447;0.043762103;-0.054362822;0.08362512;0.045390125;0.07318083;-0.114582844;-0.0027052923;-0.17905138;-0.17322315;-0.02284047;-0.34521613;0.13223426;0.017824074;-0.30778676;0.04506277;0.061885156;0.09724701;-0.06878815;0.015077793;0.058175206;-0.08798636;0.015340003;0.13279691;-0.038665287;0.28705007;0.042831466;-0.12165707;-0.21608756;0.10581373;0.10549879;0.077754095;0.027180642;-0.12851922;0.041079946;0.07858197;-0.081878945;-0.055786684;-0.087873824;-0.032645784;-0.0043281303;0.042731654;0.0525375;-0.14818041;-0.11645282;-0.019990962;-0.4404373;0.025210254;0.027685922;0.20464559;-0.020712558;0.0038965729;0.025864929;0.02879247;-0.017280575;-0.122128725;0.12014924;-0.018554538;-0.0005741038;0.15654501;0.064233445;0.16381137;-0.01492936;0.06303436;-0.2918378;0.23702808;0.14360899;0.09274589;0.18677999;0.04253734;-0.0055630985;-0.17912036;0.1133728;-0.0052724895;0.06016405;0.11183444;0.027483646;0.34452814;-0.40945268;-0.06483161;0.038705926;0.44983706;-0.13708387;-0.017314233;0.03034523;0.25436577
-0.08908017;-0.040251337;0.06062083;-0.006886603;0.018443007;0.006502753;0.12864865;0.031361405;-0.025860561;0.071972825;-0.018107057;0.0151076345;-0.0810581;0.09240394;-0.03872787;0.045559134;-0.1035905;-0.269994;0.18141872;0.016485661;0.012262468;0.06471015;0.041052323;0.109123014;0.028206652;0.00784568;-0.012092905;0.18480596;0.0028246965;0.16715875;0.029020188;-0.034231972;-0.036157243;0.1937644;-0.034506254;-0.17139152;0.056087207;0.017833631;-0.08580021;0.09500621;-0.034382388;0.020633398;0.208369;0.17322823;0.026414176;0.24880427;0.04249752;0.038084;-0.038937975;0.009700753;-0.052037627;-0.24746548;0.12004639;-0.004964097;-0.055633053;0.008871144;0.060049668;0.32547614;0.06334613;0.13200004;0.029593056;-0.01471354;0.04913597;-0.12158298;-0.083371006;-0.030578913;0.0080299005;0.04434551;-0.0616582;-0.020744164;-0.042137314;-0.000119125165;-0.005098263;-0.035132825;-0.09852996;-0.007985025;-0.05925967;0.48201433;-0.20564315;-0.029949391;0.022114959;-0.29748976;0.30771714;-0.00022669557;0.040802624;-0.021641303;0.37278247;0.039344274;0.04400994;-0.048407942;0.014838032;-0.055961363;-0.25008947;0.0010210993;-0.151509;0.124656774;-0.1273967;-0.09647546;-0.028066088;0.070697926;-0.020179804;-0.16207793;0.006522472;-0.0461544;-0.039233886;-0.1301022;0.013543633;-0.12056721;-0.123184726;0.025229104;0.012435889;0.0238932;0.18371274;0.046715394;-0.09610391;0.106683895;0.17490363;-0.17959522;-0.022628121;-0.10896923;-0.4035916;-0.016469589;-0.13181375;-0.066138245;-0.028579963;0.02187499;-0.22267994;-0.012302678;0.052740984;0.00526803;-0.2965089;0.051199708;-0.012288336;-0.15864255;0.02113106;0.3491318;-0.1548543;-0.21276098;-0.025263902;-0.025189314;0.050427176;-0.21520239;0.26842254;0.23732917;0.005568429;0.084753856;-0.13396817;-0.03933027;-0.06893538;-0.06864971;-0.063029155;0.17406213;-0.09149238;-0.08091071;-0.07206608;-0.014267033;-0.06046615;0.21676072;0.02943445;-0.093456835;-0.1987358;-0.056540493;-0.032614917;0.0061617726;-0.025727576;-0.102992386;0.083632186;0.045800623;0.021703918;0.010130073;0.07423197;0.028385133;0.011162781;0.06857981;0.0041092895;0.27687225;0.04909424;-0.012989145;0.08500009;0.08000209;-0.060445227;-0.028556162;-0.12287645;0.22596414;-0.10392161;-0.4156804;-0.13177197;0.06714099;0.15185903;0.029133508;0.09939182;0.025868028;0.13082318;-0.003375348;0.017903268;-0.21661438;-0.07841836;-0.45334405;-0.07897295;0.013623808;-0.08863461;-0.0081438385;-0.29164425;-0.03487001;-0.11369459;-0.018127644;0.08855159;0.0053108046;0.0069415662;0.019270405;-0.06605372;-0.42170632;0.053699706;-0.01884186;0.1903461;0.042889353;-0.23109366;0.0930021;0.09604347;-0.06298149;0.21164566;0.20736198;0.14725906;0.028708937;0.07231498;0.038363922;0.03622934;-0.47911215;-0.07758696;-0.06764984;-0.3486885;0.0147060845;0.30883124;-0.084191486;0.10295412;-0.10021874;-0.010902743;-0.019202488;-0.06785136;-0.072151825;0.043393593;0.02053817;-0.08629583;-0.28576115;-0.18207829;0.0114382785;-0.041356727;-0.0055481917;-0.22343796;-0.1017449;-0.039446477;-0.28012648;-0.015849102;0.25272867;0.029400382;-0.045386285;0.22473739;0.06092582;-0.032718334;0.07623447;-0.021448014;-0.031251263;-0.14357717;0.035603918;0.31088066;0.1522586;0.12951426;0.10571755;-0.20202972;0.074484244;-0.12109913;-0.089735955;-0.048050426;0.22064677;-0.060939427;0.011312118;-0.042964052;-0.24277662;-0.15749207;-0.028873269;0.0703678;-0.145044;0.1961525;-0.21721609;0.1151143;-0.110646084;0.22207122;-0.0061925016;0.06111315;-0.20332395;-0.07254707;-0.027220683;0.1235551;0.08418186;-0.39988586;-0.12837346;0.03737036;-0.042017225;-0.062116537;-0.0035320488;0.63901705;-0.024509223;0.023054779;0.04131236;-0.019699724;-0.035061806;0.010181303;0.039417814;-0.014408782;-0.048951942;0.02856085;-0.11575485;-0.06754361;0.10773378;-0.08215199;0.09576392;0.1813034;0.016156519;0.4089694;-0.0462154;-0.019678729;0.1681333;-0.20093957;0.007345058;-0.006563103;0.08654933;-0.03329368;0.0034241492;-0.016725529;0.15880777;0.010114185;0.30772138;-0.0860638;-0.18087524;0.18958871;-0.034916192;0.016664885;0.014279411;-0.1824264;0.03222779;0.088256195;-0.03205387;0.1778469;-0.20814112;0.027875638;0.035440937;0.07257438;0.00017401198;-0.04230824;-0.09688551;0.048175547;0.06627957;0.21028234;0.074499965;0.020697096;0.006194807;0.07613533;0.060876153;-0.08243214;0.001157043;0.045741513;-0.07366724;0.003961805;0.13698572;0.19668177;-0.012883206;0.036657825;0.055937044;0.02152717;-0.32055104;-0.013838263;-0.023383738;-0.0012303591;0.0020691168;0.058103167;-0.0008005471;0.16984744;-0.037355535;0.041575886;-0.056410175;-0.059486885;-0.03411405;-0.019555513;0.035341624;0.051693335;0.38786414;-0.03465321;0.1436371;-0.110867456;0.11190314;-0.0061479877;-0.110600814;-0.090735674;0.19079597;-0.040057927;0.05024527;-0.008374913;-0.23170653;0.048886392;-0.18167724;0.013399764;-0.20163387;0.028957972;0.13835718;0.04385958;-0.086351484;-0.14252909;0.23047556;0.108114295;0.0012517845;0.20815016;-0.16026144;0.0073170587;-0.21912381;-0.08076235;0.23173036;-0.004543427;0.035341322;0.027331008;0.17596969;0.03732829;0.062932126;0.15210955;0.10699642;0.047621828;0.12503606;-0.12854531;0.056625243;-0.06832869;-0.17599556;0.0017169458;0.31224257;0.08054733;-0.02668125;-0.010854585;0.13446786;0.11479972;-0.052091707;-0.044213284;-0.05993853;-0.018388528;-0.008373398;-0.16622852;-0.04916964;-0.10508143;0.0875542;-0.013101319;-0.07181212;0.18392028;-0.054043073;-0.1002102;0.013907139;-0.059748232;0.014359667;0.08265157;-0.043186627;-0.23768286;-0.036276132;-0.16398643;-0.094626114;-0.073596984;0.045495108;0.20827377;0.061893687;0.13092723;0.03068802;-0.3446642;0.1191686;-0.038760323;-0.18062066;-0.015193138;-0.09789446;-0.06885308;-0.21112475;-0.0069447346;0.043207556;-0.025490394;0.0053723976;-0.3205882;0.041570254;-0.071959026;-0.022485739;-0.040244814;-0.011188522;0.0017369078;-0.059579592;0.16580126;0.03474016;-0.040148173;0.018436447;-0.0486472;0.1880607;-0.030074757;0.0421109;0.19029729;0.06939636;-0.21068971;0.010436408;-0.06736839;-0.12493078;0.04296014;-0.43089247;0.12566109;-0.06801894;-0.30102992;-0.03843424;0.15055636;-0.043455563;0.021401132;0.029957201;-0.0016261418;-0.19564456;-0.014791089;0.0228487;0.028688177;0.15016325;-0.024202274;-0.15141998;-0.20127507;0.14299048;0.11836974;0.11295574;-0.026962802;-0.004419007;0.078433;0.11956044;-0.042123906;-0.16759393;-0.058469206;0.032452237;0.056762118;0.037249286;-0.032002326;-0.2862757;-0.09698941;0.016233683;-0.39007577;0.01745954;-0.0028225337;0.09387542;-0.07199764;-0.019633671;0.06476067;0.043316234;0.023577709;-0.10311807;0.054404836;0.06656364;0.079490215;0.10452567;-0.044360504;0.0031255984;-0.059139147;-0.032987338;-0.34155077;0.41328904;0.06291792;0.08979218;-0.012573156;-0.03925417;0.11990134;-0.171389;0.18301778;-0.07682685;0.053280357;-0.043048363;0.013293677;0.3217015;-0.19348733;0.0027123848;0.11012559;0.4408399;-0.13589251;-0.036241986;-0.034547143;0.28404072
-0.14470972;-0.08880699;0.028962992;-0.0242958;-0.010522078;0.063881405;0.17676027;0.0540732;0.0382294;0.22967227;0.016644359;0.23535739;-0.18086834;0.17438054;0.041154917;-0.013478456;0.13191977;-0.07174622;0.3317477;0.15675056;-0.03405802;-0.034142867;0.27059966;0.22224638;0.12136047;-0.036230117;-0.04912881;0.30419388;-0.04637632;0.2628934;0.052266452;0.03698167;0.1352001;0.32946423;-0.109812416;-0.17576426;0.024538625;0.03811981;0.01975343;0.1870821;-0.027097961;0.046423707;0.13814333;0.35132167;0.039780844;0.15821724;0.0065987566;0.09885074;0.12569922;0.056698825;-0.023309683;-0.18733107;0.037264723;-0.040553484;0.03305375;-0.012063198;-0.005181054;0.19086653;0.024683457;0.09624265;0.022938123;-0.03968546;0.026986431;-0.10642511;-0.03478245;-0.049510796;-0.042253602;0.0046588364;-0.01309337;0.03081533;-0.047469735;-0.025258096;-0.024804557;0.0048337206;-0.22304505;-0.04583418;-0.039634157;0.28139028;-0.33432576;-0.038525578;0.031502567;-0.32188714;0.28647748;-0.06724527;-0.034383956;-0.0011785282;0.39074352;-0.03157273;-0.03257054;0.028841456;-0.014710763;0.1324696;-0.28796983;0.012190071;0.024526102;0.118178345;0.097718835;-0.100202024;-0.118023664;0.051099397;0.028575528;-0.13232118;-0.011058349;0.034257933;0.043428198;-0.24338128;0.0057597742;-0.08253773;-0.10219445;-0.047530815;0.02965606;-0.02065288;0.20566364;-0.026367174;0.0949503;0.09648443;-0.010977253;-0.230997;-0.011081528;-0.062114246;-0.35340792;0.021328788;-0.27787706;0.029818576;0.038945325;-0.0355951;-0.40751058;-0.060570877;-0.038748976;-0.10798215;-0.19392337;0.054416697;-0.05378839;-0.09021685;-0.024900846;0.2657836;-0.278111;-0.15694709;0.03601216;-0.025902292;-0.059814107;-0.28351092;0.17773078;0.19525266;0.02270955;0.13297655;-0.18938582;0.03865935;-0.060867388;-0.15280107;0.017213633;0.21389118;0.029565288;-0.098249465;0.031071614;0.038513366;0.026971232;0.12008684;0.07581894;-0.06477568;-0.0732723;0.045623027;0.05532277;0.045759548;-0.018714527;0.089394525;0.06922342;-0.041085344;-0.03567351;-0.068685316;0.15241517;-0.07684845;0.008583948;-0.022332238;0.11938058;0.15728903;-0.049617235;0.036741164;0.045137174;-0.05369361;0.02949255;-0.040114585;-0.07485276;0.33377287;-0.01919465;-0.243189;0.11112806;-0.037079208;0.05426054;-0.054019663;0.0804471;-0.009955217;0.079119705;0.0006106449;-0.012349838;-0.16300084;-0.055759802;-0.40135595;0.078494914;-0.042482454;-0.1338672;-0.04450277;-0.3130116;-0.016990129;0.005456116;0.025206288;-0.027502485;-0.052869808;0.033430863;0.09092799;0.059318595;-0.43276948;-0.023036787;-0.0001237115;0.21901296;-0.00455379;-0.118864775;0.055949494;-0.0027125436;-0.14996594;0.284099;0.26062235;0.027994439;-0.031156927;-0.06357014;0.03128072;-0.047952786;-0.5598145;0.054814085;0.113278136;-0.36461005;0.02211077;0.09004977;0.009042321;0.0076886574;-0.12540217;0.08822987;-0.00512898;-0.21004918;-0.007881544;-0.006079011;-0.031034669;0.035025362;-0.0634443;-0.21016483;-0.060176026;0.015558203;-0.0048252167;-0.2905635;-0.0423537;0.059491254;-0.38135463;0.097949;0.18800801;0.11377914;-0.02550143;0.10776824;-0.007949305;-0.06450541;0.021795236;-0.046436377;-0.048513148;0.15246855;0.0011787147;0.27168182;0.018594405;0.13682066;0.08421717;-0.004880492;-0.08176079;-0.15462402;-0.031773824;0.011444683;0.09079688;-0.07862137;-0.025649175;0.043024078;-0.31270954;-0.21347411;-0.022891324;0.06359342;-0.018331958;0.15906228;-0.15516092;0.020379143;0.008085956;0.1331687;0.11497401;0.13104564;-0.19225304;0.026194252;-0.06545646;-0.06193651;0.057946663;-0.16897492;-0.010852512;0.06289312;0.028271466;-0.0016372772;-0.06508254;0.3978954;0.0008268342;-0.0025465598;-0.097166196;-0.0280223;-0.07982867;-0.04591003;0.01808992;-0.028899863;-0.114858516;-0.060908735;-0.14561787;-0.17957534;-0.075445704;0.020972375;0.074595794;0.17595097;0.043659676;0.24616264;-0.1370512;-0.08875288;0.26642868;-0.12775607;-0.005859103;0.02933764;0.043077614;0.02104197;-0.006027842;0.055628862;0.13724136;-0.07368229;0.305527;0.030533867;-0.15739258;0.2715913;-0.012081345;0.04069648;-0.04704973;-0.043177698;-0.05806403;0.07331928;-0.028709192;-0.0024509286;-0.21523553;0.18686062;0.1295755;-0.039376225;-0.05868917;-0.0026877453;0.01517632;0.009446167;0.08125683;0.10148557;0.07245935;-0.051405225;0.03302761;0.023521561;0.21774909;-0.1262129;0.0073249475;0.041607257;-0.0043357485;0.0067168586;0.05223267;0.03985137;0.054530323;-0.06213092;0.17441343;-0.025177686;-0.3005216;0.05851802;0.009668893;-0.11155478;0.044265784;0.102954924;0.06990616;0.13564457;-0.15691932;0.008013629;-0.008042986;0.045956254;0.034822524;-0.0039539696;0.0672441;-0.06844833;0.17817234;0.0585647;0.09354712;-0.1246526;0.012570713;-0.08404302;-0.08306169;-0.09441523;0.08714362;0.02912029;-0.08611123;0.028757624;-0.19428706;-0.0025807722;-0.19233975;-0.005818267;-0.141749;0.07537125;0.14884326;0.19385578;-0.07933953;0.07518794;0.2882016;0.20704678;0.032317847;0.19099785;-0.20961952;-0.0017266304;-0.23910336;-0.034234606;0.10089914;0.06879446;0.077628955;-0.05584343;0.26521498;-0.048623662;0.05600873;0.08231437;-0.07521977;-0.043681815;0.15162334;0.08381094;-0.066515096;0.109175876;-0.2454785;-0.002995879;0.14416534;-0.046269685;-0.029341664;0.013232463;0.18954873;0.14324024;-0.028121341;-0.05651965;-0.013841436;-0.025615638;0.05667155;-0.13009891;0.014317883;-0.05383404;0.08589825;-0.011458897;-0.085550375;0.17935552;-0.11129682;-0.088334486;-0.17414264;-0.12179483;-0.029454473;0.024345528;0.06559389;-0.20164771;-0.07114697;-0.11550117;-0.039395753;-0.2916247;0.008670363;0.2123606;-0.051721413;0.019926142;0.019958964;-0.48891252;0.1528424;0.06842703;-0.0062857172;0.0057068886;0.051338784;0.048472926;-0.09275696;-0.023771623;-0.009354909;0.08281808;0.05068968;-0.2989906;-0.0029343588;-0.1912704;0.020283585;-0.13387604;0.102273576;-0.016189825;0.06422526;0.022393174;-0.046589997;0.018646115;-0.06816754;0.0013775701;0.32627812;-0.021136101;0.08033747;0.073946126;0.004882256;0.11495067;-0.03772349;-0.058214914;-0.16085896;0.034595013;-0.44488868;0.20372355;0.036933992;-0.5153246;-0.020386554;0.097792;0.100850105;0.028072624;0.0063552386;0.1472058;-0.11129338;0.0035126926;-0.054579224;0.053266667;0.26167387;-0.024654148;-0.21984428;-0.18089956;-0.045239784;0.036271464;0.014425172;0.025003204;0.10384348;-0.0038248699;0.16069423;0.015602684;-0.13676144;0.053115267;-0.06315309;0.10362343;-0.03725691;-0.023087809;-0.1722353;-0.11137047;-0.030316198;-0.49082044;0.0020616355;-0.06799427;-0.07597188;0.22202338;-0.01984342;-0.037036512;-0.018492563;0.003860864;-0.17412832;-0.022610217;-0.022472687;0.048153665;0.2789673;-0.031070586;0.26962575;-0.029753946;-0.19380565;-0.21114032;0.36720464;0.07944846;0.098662905;-0.09436724;0.02636396;0.21910319;-0.14973238;0.15068796;-0.058061715;0.06592424;-0.018618092;0.013775427;0.07702421;-0.16686347;0.0037738357;0.060203392;0.22192359;-0.06206748;0.033452842;-0.01008664;0.13840824
-0.17558002;-0.22085567;0.029689418;-0.046642795;0.02983246;0.1253119;0.11230165;-0.013039299;-0.053256784;0.25999424;0.005160684;0.19178258;-0.13188638;-0.017113969;-0.19290832;-0.026614793;0.14891925;-0.06915134;0.2151808;0.16771962;-0.05289427;-0.012745962;0.22681631;0.109968625;0.17920485;0.04437714;-0.00052261184;0.30604017;-0.08188136;0.19897011;-0.045657225;-0.021783633;0.24112713;0.35457093;-0.03291315;-0.23203593;-0.07447767;-0.0049285367;-0.076456204;0.040922947;0.04364607;-0.04292753;0.14420587;0.33356583;-0.059960224;0.089388564;-0.040682893;0.16035287;-0.0016479274;-0.028602088;0.04285028;-0.23133332;0.0023427387;0.0050784894;-0.050845686;-0.05439599;-0.00022518386;0.06527733;0.004267907;0.090808086;-0.061642483;-0.05925748;-0.05603335;-0.07311744;0.052545954;-0.11719046;0.020087866;-0.1181742;0.029125055;-0.043906003;0.17043985;-0.019333744;-0.022063008;-0.13834018;-0.22605784;0.08266198;0.026181664;0.21527967;-0.26212946;0.047972325;-0.040176027;-0.22564584;0.25966388;0.014457783;0.03582002;-0.02271814;0.1456228;0.0026895101;0.012677178;-0.056055386;0.0032710468;0.056118783;-0.3119086;-0.04786984;-0.13361405;0.049794327;-0.090279475;0.012510744;-0.12764937;0.07803258;-0.011472831;-0.081270136;0.007750465;-0.036806054;-0.022288987;-0.29813;-0.04774571;-0.16823661;0.0128270695;0.041543934;-0.11644829;-0.048102446;0.1879163;-0.042879738;0.063638896;0.16358942;-0.09000936;-0.14779969;0.026862618;0.046497535;-0.32194877;-0.036239874;-0.18929133;0.03975543;-0.035613243;0.011560932;-0.23349276;0.08815258;0.0016747623;-0.09683989;-0.13270949;-0.1225081;-0.057034668;-0.2115791;-0.031261414;0.128506;-0.3669308;-0.07669993;-0.015700378;0.04934449;-0.07051061;-0.20228006;0.32736424;0.12185615;-0.000710327;0.18286616;-0.32809055;0.038673133;0.009545789;-0.19471404;0.06232083;0.25282648;0.02308109;-0.10821875;0.028608304;0.06008713;0.04203996;0.16665405;0.21967979;0.006707101;-0.08331355;-0.009307737;0.04106846;-0.008831367;-0.0038722374;0.19405283;-0.047608566;0.023675764;-0.15057896;-0.009469335;0.17688139;-0.0151321525;0.065688185;0.044153545;-0.06987763;0.20522319;-0.03776386;0.06802032;-0.0564486;0.023909789;0.014727072;-0.07083591;-0.20022477;0.4062676;0.035887703;-0.10326544;0.058879506;0.020099362;-0.15968089;0.042254552;0.032479018;-0.044312637;-0.048157893;0.0076972516;-0.045879535;-0.20782812;-0.10724549;-0.2845896;0.10326192;0.03106441;-0.22873402;-0.16299792;-0.10186418;-0.0095254;0.14589055;0.041468337;0.15179291;-0.020990564;-0.047567524;0.0881969;0.031831075;-0.33227515;-0.04554695;0.03808602;0.26650667;-0.047116514;-0.09639705;-0.099407166;-0.03932481;-0.1912909;0.14449161;0.080982625;0.03428562;0.0134374015;-0.030912744;-0.0132212555;0.058090765;-0.54837203;-0.033201203;-0.013373713;-0.3107341;0.03798368;0.06735915;-0.0780451;0.21387634;-0.14342979;-0.00394331;-0.021772796;-0.118741125;-0.020654298;-0.08884333;0.0038868317;0.011383392;-0.012369334;-0.18582408;-0.05391185;0.022151385;-0.03898764;-0.056773737;-0.079513505;0.06036715;-0.31405818;0.16815095;-0.042566244;-0.022934617;0.051546298;0.09545697;0.020008724;0.031180326;-0.08617162;0.07825822;0.01886245;0.19096263;0.15886307;0.3155491;-0.043575812;0.2243723;0.17312689;0.07571549;-0.06261753;-0.103536464;-0.25866425;0.0023062865;-0.040136952;-0.12587991;0.056038678;-0.0037140483;-0.26928738;-0.22463027;-0.056459565;0.18410175;0.025151001;0.022743326;-0.22449577;0.0048038107;0.09186365;0.21379624;0.037879113;-0.00260299;-0.023665093;-0.030233977;0.036714345;-0.18642412;0.117305584;-0.2876704;-0.04243516;0.06447454;-0.047023308;-0.11133693;-0.0062171062;0.39393732;-0.05234172;0.046260595;-0.04705996;0.041231323;-0.0005973659;0.05372753;0.015910147;0.0723417;-0.22549142;0.05879342;-0.08969659;-0.068038754;0.05399839;0.08799425;0.21641552;0.096904784;-0.038778532;0.09430542;-0.026079467;0.025215194;0.23419541;-0.08107888;-0.0049318224;0.047401343;-0.0025307206;-0.014999865;0.0073621804;-0.03689262;0.12010288;0.046605524;0.2935395;0.030211573;-0.057898108;0.31140098;0.077900715;0.010208339;0.0215491;0.023635078;-0.034725424;0.17567126;0.04096213;-0.017667202;0.016782137;0.19926625;0.11586041;0.026551913;0.030723952;0.0063995295;-0.08494529;-0.05530094;-0.03475925;0.05121128;-0.19090751;0.02856118;-0.20793544;0.014483148;0.20816885;-0.04841042;0.017623262;-0.027772894;0.08717054;-0.01714659;-0.18120773;0.087563604;-0.109675124;-0.054669853;0.11001238;0.074048825;-0.31914055;-0.072226405;-0.07380707;0.04251615;-0.04266569;0.07700544;-0.10680364;0.009306531;-0.119135566;-0.049094826;0.03500167;-0.021241968;-0.030306553;0.014792843;0.046291012;0.0012247877;0.2371131;-0.06849522;-0.042865645;-0.0834435;0.03315423;0.19190553;0.0022293713;-0.09034218;0.015737928;0.036838938;-0.1620358;0.0006427514;-0.24150006;-0.030212058;-0.3083569;0.0004192296;-0.15879104;-0.0072780135;0.103447296;0.17567222;-0.086326204;0.14276923;0.26180753;0.14783885;-0.08334234;0.19926454;-0.21790333;-0.007087187;-0.060216498;0.05519849;0.2139399;-0.029453013;0.016401257;0.05324214;0.3013943;-0.027150612;-0.17331813;0.14027482;0.029168796;-0.033300824;0.050633606;0.022525689;0.024566373;0.12851162;-0.28935438;0.04223354;0.121365555;0.05516901;-0.02395225;0.012281987;0.2371791;-0.05968422;-0.022950284;-0.018056067;0.05335012;0.032377034;0.10028825;-0.046859704;0.010723852;-0.08122222;0.09589469;0.02995149;0.0016399065;0.16420928;-0.17426607;-0.17737171;-0.041827053;0.0051505757;0.021724952;0.11305167;0.00077566074;-0.2636934;0.07535007;-0.20683597;0.10692508;-0.15087622;0.019114165;0.28701425;0.019445067;-0.067510836;-0.10352179;-0.4167938;0.070807934;0.04434943;-0.17042042;0.060960222;0.08616133;-0.03409133;-0.14878844;0.038092438;-0.039934047;0.00059039565;0.00026679458;-0.2820022;0.035684817;-0.10130615;-0.01270959;-0.20249337;-0.101323806;0.041808967;-0.047891673;-0.062373925;-0.013738834;0.027875714;0.05481683;0.0053237276;0.077675745;0.008204142;-0.028708637;0.09978132;-0.017708125;0.06303268;0.0070459056;-0.060380373;-0.3707575;-0.06759351;-0.5047414;0.30242848;0.045755576;-0.5005189;-0.007730465;0.062967144;-0.0054691173;-0.049427617;0.029702222;0.05848262;-0.23058526;0.024992451;-0.28957832;-0.0112684425;0.21725655;0.05013899;-0.07708024;-0.015961321;-0.032672323;0.11034749;-0.124383815;0.026726928;0.14692518;-0.09042357;0.14791428;-0.021686902;-0.09887931;0.14565733;0.05959993;0.03717339;-0.057256177;-0.0025779807;-0.19283277;0.04188305;0.0031862406;-0.38831556;-0.0013825443;0.013389523;0.033972718;0.09157569;0.035224494;0.12816583;0.003717965;-0.01743726;-0.3610006;0.03634248;-0.003600625;0.06199568;0.27015814;-0.017771872;0.12628241;0.07091856;-0.20746598;-0.14341663;0.20875955;-0.0005894147;0.07560312;-0.0786813;0.028761892;0.14978649;-0.09151754;0.03246913;-0.016702402;-0.071568266;-0.056650426;-0.0721811;0.10825189;-0.32625508;0.027789861;-0.016630502;0.18213347;0.06065311;-0.038993347;0.010556123;0.17174496
-0.28555435;-0.09614058;0.032827333;0.038119785;0.012002871;0.09846375;0.021908969;0.029245516;0.019754797;-0.018746536;0.009982186;0.23022822;-0.1415569;0.07315705;-0.17324403;-0.0014321397;0.12441426;0.046328086;0.3566615;0.15676808;-0.08291155;0.0196138;0.20375462;0.11424978;0.05233224;0.05666891;0.025428893;0.19282448;-0.10126199;0.14724576;0.07313867;0.019705666;0.23548985;0.2813216;0.08284837;-0.19889064;-0.029797941;0.02500472;0.03345085;0.037483875;0.034202013;0.07055576;0.16983336;0.18094559;-0.03127082;0.22076255;-0.007675608;0.1098765;0.25707543;-0.0021768368;-0.047469698;-0.22879013;0.0051565655;-0.00015124229;0.04267556;-0.024707649;0.022411566;0.048058774;0.032689136;0.045467652;0.024090938;-0.07756402;-0.0069182445;0.021574091;0.025057677;-0.13022344;0.06881898;-0.037853185;0.056858867;0.0045394907;0.078773335;-0.0048437915;-0.043800298;-0.1178614;-0.13928431;0.04055612;-0.019348163;0.14897163;-0.19124237;0.025835635;-0.027197637;-0.246454;0.02496565;-0.061362706;-0.030466938;-0.060816523;0.07180642;0.013150363;0.0077307946;0.03607102;0.04718093;-0.025635397;-0.10980127;-0.04785704;-0.14727174;-0.025824258;-0.14370109;-0.08014048;-0.15796779;-0.044078127;0.0433015;0.0075555257;-0.067318864;0.050954096;-0.00512912;-0.23216651;0.06933634;-0.1553703;-0.12161502;-0.02489929;0.073430255;0.073348194;0.1518239;-0.09652678;0.12325239;0.08328651;-0.096202865;-0.089884564;0.014457391;-0.039710637;-0.2961588;-0.016345738;-0.21565247;0.0012121365;0.044100415;0.013711322;-0.18094116;0.01887353;-0.04048912;-0.18796867;-0.054931972;-0.17378892;-0.20047419;-0.13970423;0.02263871;0.13749218;-0.17946689;-0.09674192;0.020312844;0.06624574;-0.043912277;-0.21682486;0.28531772;0.06042034;-0.0072901007;0.05524813;-0.13257265;-0.018875655;0.0828834;-0.2061459;0.009610677;0.13479057;0.018213222;0.039004516;-0.03246198;-0.034289572;-0.026667273;0.25229576;0.2492651;-0.0034424732;0.05612573;0.0588074;0.0028396721;-0.0027250357;0.04670946;0.32674867;-0.10416795;-0.0017908966;-0.19615957;-0.06323566;0.11935831;0.032676768;-0.021251507;-0.038196042;-0.039128885;0.054307275;-0.033417203;-0.07084186;-0.07083431;0.02623543;0.0031493271;-0.14145556;-0.25220984;0.25683272;-0.092653565;-0.03230006;0.049100954;0.12473695;-0.037773475;0.024286846;0.07691535;0.010485723;-0.12043342;-0.037230868;0.06311554;-0.21170981;-0.1985014;-0.15975995;0.11518769;-0.04721634;-0.1813413;0.09588253;-0.059752826;0.035548016;0.17616214;-0.045262143;0.22235356;0.08438006;0.13256793;0.25466344;-0.04436518;-0.15955268;0.001915349;-0.018936109;0.36965546;0.03857676;-0.051552914;-0.07126939;-0.01765307;-0.26250824;0.18169942;0.16178787;-0.06760402;-0.032954264;0.038505558;-0.029962918;-0.030334728;-0.4592446;0.024588425;-0.14780155;-0.21228395;-0.051084567;0.17106679;0.0630042;0.105974525;-0.3005806;0.0009565009;0.029807441;-0.039232645;0.01460904;0.0044446364;-0.035083167;0.029636908;0.026002439;-0.17762539;0.00084936334;-0.038184524;-0.03742868;-0.09096165;0.0049427873;-0.028347235;-0.33442754;0.03220909;-0.10617379;-0.006148361;0.0647309;0.054325562;-0.024349941;-0.1345586;-0.14250584;-0.017062344;0.042633858;0.094038434;0.28768176;0.31425387;-0.04472654;0.2120881;0.16921261;-0.0065801665;-0.2281228;-0.04962348;-0.090043314;0.02896352;-0.05089159;0.03796766;0.033179972;-0.063844204;-0.19036146;0.033902906;-0.03451536;0.11349229;0.07961019;0.17051934;-0.17689185;-0.04966674;-0.167424;0.12054907;0.10217977;0.12846945;-0.09212694;0.026125303;0.10273098;-0.24233869;0.23046288;-0.22370495;0.1032939;0.124170974;-0.045381304;-0.14852677;0.0011888297;0.26695272;0.053951148;0.020828221;-0.015316026;0.01793254;0.03995809;-0.0148732755;0.0012082886;0.035112247;-0.24206129;-0.043545496;-0.09345331;0.011197484;0.10894554;-0.004522861;0.12583226;0.21310322;0.017537365;0.022405244;-0.023085656;0.24916956;0.15820992;-0.05784075;-0.0008398857;0.0034667924;0.02699175;0.0039582634;0.061039552;-0.0015999504;0.19891311;-0.026878767;0.15644436;0.03725575;-0.11289181;0.26934138;-0.038776815;0.1342899;-0.02930474;0.109761484;-0.042402133;0.26367778;0.04138279;-0.15092918;0.08474988;0.19613469;0.127784;0.036626957;-0.05264503;-0.022592962;-0.08163274;-0.031939887;-0.021391377;0.031835407;-0.20107545;-0.01890454;-0.071331754;-0.11199955;0.16981116;-0.16342235;0.032334846;-0.0014230427;0.18271244;-0.012164325;-0.25086716;0.059280094;0.03613721;0.03498406;0.14347501;0.15610734;-0.28506646;-0.10498569;0.13528755;0.06639864;-0.018452888;0.19546536;-0.020022113;0.07931071;-0.11484525;-0.021086266;-0.17675726;-0.05309539;0.028099732;0.02491484;0.086755194;-0.02200677;0.15191843;0.0034862284;0.1623466;-0.07425387;-0.004828446;0.26343045;0.056031775;-0.13368008;0.10812095;-0.0041956548;-0.3874032;-0.0019462622;-0.16013637;-0.010295057;-0.043422095;-0.029843505;0.025350325;0.05855396;-0.11316466;0.12258887;-0.06425475;0.25341192;0.15427005;0.35813797;0.009408694;0.09136718;-0.14308652;-0.010269298;-0.01771884;0.021665279;0.27602956;-0.032859802;-0.12889192;0.03274164;0.23019521;0.04525864;-0.1647685;0.061144724;0.0047830637;0.034103904;0.053041298;-0.017349858;-0.013455862;0.02232166;-0.1619614;-0.048909657;0.16450846;0.043152563;-0.046259638;-0.024100456;0.30774567;-0.044197626;-0.040447522;0.12845182;-0.0050281743;-0.17829153;0.16418424;0.13261068;-0.046808224;-0.17230056;0.15151502;-0.13402528;-0.1017196;0.024983313;-0.25141194;-0.26068333;-0.014517675;0.11022999;0.0012352226;0.17744374;-0.009344232;-0.20839263;0.13951631;-0.066600606;0.031686403;-0.158096;0.062878385;0.07986298;0.04909434;0.07693152;-0.110205635;-0.3116074;0.15485214;-0.028508393;-0.18343626;-0.06784392;0.0028581438;0.014156597;-0.073155254;-0.15963389;0.07464011;-0.06683349;-0.013367587;-0.31073925;0.01873207;-0.041236725;0.018960068;-0.20098944;0.064468235;-0.012197004;0.061681144;0.049240716;-0.16234805;-0.122723654;0.05147612;0.01448225;-0.06439019;0.042001665;-0.047779508;0.117368884;-0.060589675;0.02277103;0.02573234;-0.022186259;-0.37225482;0.03503395;-0.31564403;0.25945005;-0.06779517;-0.6417195;0.010477949;0.056610826;0.0034252952;-0.037130795;-0.01977377;-0.0561289;-0.11949178;-0.017964734;-0.23831144;-0.016780155;0.27938658;0.018270766;-0.12742588;-0.15040421;0.08617092;0.0002823145;-0.07070707;0.041065287;0.05152327;-0.051785305;0.0223568;-0.038927916;-0.09398533;0.10829959;0.04221474;0.06258843;0.00590445;-0.021199971;-0.16884919;0.014508385;0.0057328064;-0.23960988;-0.04514718;0.038047127;0.032317188;0.062177163;0.011566397;0.16438694;-0.044864573;-0.010292471;-0.20769113;0.09461132;-0.025234552;0.1152412;0.23875028;0.06878659;0.11879981;0.002735997;-0.09858655;-0.12611611;0.38894615;-0.016247103;0.016623588;0.07762284;-0.044131983;-0.055290464;-0.08151297;-0.04382979;-0.064725995;-0.08525638;-0.23407659;0.029117493;0.010002533;-0.19978088;-0.010719217;-0.012791757;0.2997098;-0.14488734;0.017237473;-0.013420766;0.17020677
-0.24024352;0.05122757;0.06534791;0.013262415;0.0320624;-0.04864913;0.14012608;0.10763893;0.028795162;0.009745383;-0.015988085;0.29874298;-0.18642028;0.19976027;-0.13446121;0.009180687;0.21169943;0.016139328;0.4101817;0.14027984;-0.08107239;-0.05309202;0.17597996;-0.0367705;0.06449536;-0.039406266;-0.04673355;0.23026484;-0.08475162;0.073697336;-0.017560579;-0.036094174;0.11018757;0.35224912;0.027321268;-0.27829632;-0.01642179;0.029130345;0.016875608;-0.104843006;-0.05061548;-0.040909808;0.1770273;0.2731517;0.025620723;0.105568506;0.05053716;0.033404782;0.1944387;0.00071612984;-0.0063809096;-0.33655754;-0.07747534;0.0029204963;0.045088224;-0.08131173;-0.04339973;0.09417148;0.041813217;0.022874985;0.05179321;-0.12546705;0.06493385;-0.04895552;0.15126884;0.08602653;0.076873615;0.035974808;0.02329074;0.031719647;0.055414718;-0.01518551;0.041725222;-0.15705621;-0.27341008;-0.064992264;0.038735155;0.11200984;-0.36884308;-0.01776399;0.02483871;-0.21176143;-0.08302812;0.026019389;0.019556744;0.086470336;0.14375064;0.045231614;-0.032345474;0.04605726;-0.02563367;0.10870909;-0.23877898;-0.05558443;0.049444407;-0.094750695;0.024020022;-0.027194617;-0.0844704;-0.15873456;-0.023182474;-0.060065538;-0.051954444;0.0024020413;-0.09681167;-0.07483721;-0.024561653;-0.01892422;-0.08630142;0.033384155;-0.046413086;0.13319121;0.027395235;-0.046198394;-0.027758766;-0.011106465;-0.13354883;-0.030641796;-0.058883954;-0.16360624;-0.15365434;0.015895799;-0.28745186;-0.049509987;-0.010766761;0.019853644;-0.109366246;0.1636395;0.046278127;-0.11031304;0.033618018;-0.17355525;-0.3313795;-0.18458919;-0.030096272;-0.102454506;-0.2379019;-0.02382781;-0.005292577;-0.05938439;-0.15095118;-0.2050711;0.039433308;0.14541605;0.05136304;0.10455085;-0.08917265;0.004430583;0.029700821;-0.108068116;-0.039515045;0.34655246;-0.057189494;-0.102817304;-0.010157809;-0.016026082;0.007886592;0.24451652;0.3254382;0.099705756;0.08531525;-0.0550683;-0.0022208947;-0.015192672;-0.02185601;0.25554246;-0.116054825;-0.019500978;-0.033652294;-0.16975266;0.09061546;0.044001956;-0.04271492;-0.05950792;-0.08935968;0.051403113;0.02389394;-0.045990422;-0.06779524;-0.024547203;-0.03537569;-0.21468773;-0.20538294;0.42146713;0.114304595;0.023433032;0.25896117;-0.0060743825;0.037724905;-0.0047287275;0.07254384;-0.0087906;-0.251747;0.025476372;0.0010360793;-0.21623163;-0.05077921;-0.06635762;0.04744774;0.015092459;-0.22416063;0.07033446;0.026573144;0.038518157;0.09900114;0.012727148;0.1572133;0.0028388065;0.15286477;0.1414171;0.029299354;-0.12612246;0.031441547;-0.0075419103;0.35371208;0.020697832;0.06576005;0.069779694;-0.023775203;-0.117586486;0.25566888;0.094925605;0.043772034;0.01950459;0.17468408;-0.051343553;0.017157178;-0.41751152;0.018922713;-0.3746619;-0.30321875;0.008036818;0.21142526;-0.0905435;0.017166177;-0.23360729;0.100850165;0.037537187;-0.04024763;-0.106723405;-0.011196245;0.033432838;-0.003044929;0.083167404;-0.07801236;0.029778207;-0.021662397;0.0008532908;-0.1912145;-0.27869278;-0.003807733;-0.4179249;-0.08602166;-0.05147482;-0.01621137;-0.05487817;0.0064824917;-0.012640573;-0.12654053;-0.164331;-0.030731905;-0.00018257526;0.09627847;0.26442313;0.09390392;-0.07249107;0.28881177;0.17168546;-0.14601117;-0.14370024;-0.05726517;0.0045032157;0.013725846;0.021572037;-0.13949041;-0.058492783;0.00378983;-0.08485543;0.083836116;-0.08839033;0.13926731;0.110417426;0.06257151;-0.3324354;0.06733844;-0.08875461;0.20126666;0.2165994;0.043780655;-0.14763753;0.008070101;0.055015374;-0.40082377;0.21217957;-0.20225015;-0.1466581;0.06664332;0.09931024;-0.102481626;0.050208043;0.22991206;0.026450912;-0.059274416;0.050368857;0.009123653;0.0588338;-0.01861903;0.040944543;-0.05770819;-0.3589981;0.0014814442;-0.093645975;-0.030899344;0.08913301;-0.04969804;0.10832393;0.18929115;-0.06882335;-0.17226212;-0.05826973;0.118422836;0.19537997;-0.057511386;0.022380598;-0.07466809;0.111315705;0.06689743;-0.053914066;-0.010755274;0.13287243;0.06777542;0.0708506;-0.06553304;-0.18842234;0.3079621;0.014044897;-0.04828259;0.0391987;0.122795746;0.08016726;0.16977805;-0.005208719;-0.07438996;0.036444895;0.16002719;0.14100184;-0.051036865;0.06221847;-0.017502857;-0.02626219;0.047574077;0.0643596;-0.050566506;-0.19374076;0.0119527625;-0.038787704;0.05564748;0.011935444;-0.1776833;-0.026524963;-0.038594097;0.0875823;0.03423516;-0.30523956;0.07648692;-0.1140245;-0.053308435;0.10667051;0.05393095;-0.31150067;-0.030686323;0.10021425;0.05910352;0.041019257;0.22414804;0.02513869;0.0048188968;-0.18561928;0.03271282;-0.21506451;0.050417826;-0.019662771;0.029114993;0.07498315;0.010453156;0.012811391;0.024963506;0.10376741;-0.09379153;0.011863337;0.2757023;0.19542035;-0.23495165;0.11141274;0.0057888953;-0.40379605;-0.035870105;0.13307717;-0.009781992;-0.038830556;0.008834537;0.123515636;0.14938955;-0.08274759;-0.059113204;-0.20397557;0.2691846;0.018028362;0.40056652;-0.089424126;0.26851138;-0.15048577;0.034436963;0.0545405;0.0364819;0.14988142;0.042061638;-0.14498962;-0.03443565;0.22727591;-0.032225687;-0.07402093;0.14280744;0.03723925;-0.01902646;0.12708761;-0.13343647;-0.038300894;-0.021241793;-0.109288305;-0.06385261;-0.029432762;-0.054163676;-0.039766483;0.0007721009;0.31620416;-0.16768175;-0.1815184;0.12664457;0.023657564;-0.061568387;0.13910618;0.18019871;-0.0016190185;-0.19160216;0.16150303;0.04906471;-0.10646167;0.0086346;-0.15106471;-0.16649637;0.07693265;-0.012894999;-0.0123563185;0.20681311;-0.008406545;-0.24206877;0.0855138;-0.12651832;-0.06860783;-0.033417214;0.024760684;0.02127561;0.16040653;-0.114171974;-0.07574563;-0.13004062;0.15287203;-0.032689027;-0.0041006017;0.12683849;-0.08563368;-0.025058264;-0.055695776;-0.18144254;0.00664024;-0.06283322;-0.021142596;-0.1998831;-0.054761607;-0.061605427;0.18887351;0.06754039;-0.027038867;-0.042467862;-0.020144198;0.059609972;-0.17364754;-0.19791523;0.024554782;0.043935407;0.12091688;-0.018699693;0.00031777433;0.14534043;0.14089069;0.16522229;0.0091253705;-0.042156767;-0.40769762;0.033066515;-0.36423093;0.21731687;0.038778175;-0.54641956;0.029352164;0.20234127;0.0036801745;0.080729306;0.00591549;-0.07383681;-0.02921326;-0.03267797;-0.11764525;-0.03605898;0.2748714;-0.023293208;-0.14081918;-0.12071141;0.13882743;0.11608051;-0.061352152;-0.090485126;0.10835649;-0.10719114;0.14096212;0.005361323;-0.12125476;0.026655389;-0.03428905;-0.026063466;0.011087238;0.027230103;-0.15637608;0.10050096;0.03511089;-0.24688558;-0.045241643;0.040672954;-0.040018793;-0.01154455;0.02156895;0.08410211;0.03404346;0.03298672;-0.077086896;0.050237823;-0.0042280825;0.12072761;0.12734058;0.02478661;-0.03710865;0.017831929;-0.035798144;-0.15622649;0.3614147;-0.2199857;-0.02273108;0.18229719;0.015651466;-0.047930337;0.036946267;-0.02191186;-0.12706932;-0.13551833;-0.14995302;-0.03754774;-0.043602433;-0.39791203;-0.0069848434;0.07604862;0.3181371;-0.021931978;0.04539161;0.06202489;0.20608927
-0.24346446;0.061882943;-0.06353885;0.045985844;-0.08097035;-0.113275915;-0.055828042;0.05649494;-0.015076672;-0.20843028;0.00035299186;0.21120846;-0.07087775;0.18282846;-0.11052595;0.09598497;0.20196834;0.10783684;0.14298503;0.15791719;-0.15581241;0.037045464;0.15977944;0.18499742;-0.10467402;-0.01018579;0.091141306;0.35699672;0.036807317;0.12551889;-0.10574483;-0.023783037;0.048456654;0.37362927;0.036530968;-0.31854448;-0.024306925;0.13934663;0.01821469;-0.14690997;-0.0046937084;-0.053574346;0.2103949;0.302059;0.025140088;0.057731375;0.027883494;0.06993124;0.2487401;-0.0043778857;0.030975312;-0.31624493;0.00014149355;-0.034378473;-0.04855259;-0.08253672;0.023247521;0.13003908;-0.043139823;0.04127209;-0.018430172;-0.050949186;-0.041112103;-0.008321569;-0.06925552;0.12714043;0.043717016;-0.0038098716;0.08155654;-0.076668486;0.03849885;0.045820236;-0.0022178667;-0.006093696;-0.04558301;-0.13097218;0.023594866;0.09291228;-0.24248782;-0.020733573;-0.01939066;-0.1594138;-0.14796759;-0.10188026;0.0029089467;-0.012081836;0.09916801;-0.043133833;0.05588603;-0.024484802;0.04721084;-0.03549665;-0.10843091;-0.06106352;-0.03698471;-0.13300689;0.13955814;-0.099937;-0.16440627;-0.2990232;0.028275307;-0.13538358;-0.0011744951;0.019599736;-0.06075765;-0.098444186;-0.0047244877;0.031409446;0.03659644;-0.046669964;-0.1184621;0.14096242;0.03693418;-0.22998321;0.031430773;-0.24087094;-0.10680554;-0.0019648701;0.038468465;-0.16554506;-0.22139753;0.0104175275;-0.2780449;-0.0043901666;-0.04478542;0.011180352;-0.03551008;0.1496899;-0.026190612;-0.15131703;-0.10762249;-0.23473848;-0.30780298;-0.15232539;0.0014941145;-0.08037711;-0.37079728;0.117651545;-0.04989923;-0.04503774;-0.12443344;-0.047122028;0.11498651;0.26112083;-0.06993179;0.07121544;-0.18609756;0.0021830092;0.17260993;-0.124827996;-0.023210565;0.23579939;0.010651444;0.024388162;0.06425735;-0.019594006;0.009049944;-0.007720428;0.25992864;0.1421564;0.10382127;-0.031804077;0.02076709;0.04038276;-0.011227936;0.2712842;0.067828596;-0.037655618;-0.09268395;-0.058603283;0.054216612;0.0024696693;-0.0181737;-0.018213801;-0.066594206;-0.08324472;0.037931617;0.010577018;-0.05134722;0.007856622;0.0029791952;0.0018701091;-0.29566696;0.14363466;0.029956393;-0.08531251;0.2661406;0.0038021135;0.13123481;0.027115637;0.004607487;-0.025743429;-0.26814455;0.040533774;-0.034682043;-0.46079114;-0.10008364;-0.22406037;-0.049204346;0.055192865;-0.19471638;0.17078844;-0.07331478;-0.017557498;0.14261654;-0.009047979;0.2586627;-0.04667323;0.1271529;0.13069335;-0.07664844;-0.31639117;0.007687854;-0.0073321885;0.3418547;-0.00638086;0.11075067;0.029234946;0.112177774;-0.04998567;0.3482641;-0.06881227;-0.009384792;0.009449841;0.24183248;0.05110158;-0.035415303;-0.16834934;-0.012390574;-0.44036213;-0.13245343;0.0020889917;0.078036085;-0.02274562;-0.08084651;-0.15286642;0.13663906;-0.018663572;-0.01900088;0.032367248;-0.05567598;-0.039374247;-0.019803718;0.04084592;0.016033223;-0.041525975;0.0097709885;0.014047737;-0.14585286;-0.3443865;-0.030401358;-0.3693423;-0.17539172;-0.21038763;-0.072994545;0.04270703;0.025116999;0.008232516;-0.09148545;-0.2360858;0.09418556;-0.02647767;0.03833457;0.09330573;-0.017838392;0.045460742;0.24249616;0.05166105;-0.2092731;-0.19091308;0.1374134;0.11722673;-0.02807531;-0.1354245;-0.03522461;-0.03311977;0.027055113;-0.12866707;0.015667005;-0.22354491;0.23005916;0.11292596;0.005850164;-0.29880175;0.066875406;-0.099795304;0.16714835;0.13776924;0.10389508;-0.19167441;0.025394307;0.22765896;-0.32549527;0.1143341;-0.23570852;-0.15698639;0.13612546;0.025721183;-0.18371111;-0.002552636;0.019367885;-0.016998995;-0.020744951;0.09936184;-0.03467227;0.028727816;0.036430374;-0.018436082;-0.033994805;-0.2816911;-0.013904269;-0.16769944;-0.093863524;0.031330224;-0.10640004;0.11668262;0.0875215;0.06495743;-0.18224068;0.11816089;-0.07099084;0.102861114;-0.04016094;-0.054203875;0.024790956;-0.060542118;0.0038983484;-0.00021210684;0.028128592;0.11552791;-0.028308772;0.0023775834;-0.18643974;-0.07323433;0.16544192;-0.036333352;-0.081516504;-0.011914751;0.18050924;0.012334063;0.17606887;-0.049944803;-0.07716942;-0.015173595;0.0035341254;0.15869693;0.017479623;0.040527422;0.03410684;-0.091625325;0.01190469;-0.002724947;-0.10778812;-0.15358438;-0.013107772;-0.113754526;-0.033933308;0.018051649;-0.20850013;0.072374545;0.07567603;0.20984825;-0.009103498;-0.38667217;-0.09792156;-0.17100517;0.1261167;0.05543749;0.074870326;-0.16400644;-0.08934745;0.05026849;-0.0189752;-0.03651451;0.13388558;-0.00438431;0.118412055;-0.13402615;0.045958273;-0.33416218;0.04486926;-0.010191915;-0.02063612;-0.0981697;0.037161242;0.111963004;-0.029871317;0.05773294;-0.13183741;-0.043870393;0.19545406;0.17731006;-0.20549372;0.050916005;0.011035336;-0.2831707;-0.002205087;0.07174901;0.037379105;0.20655194;-0.048695736;0.22972606;-0.011113402;-0.095837094;-0.038144276;-0.2741791;0.05254881;0.032501653;0.3229725;-0.14872034;0.27393466;0.007877998;-0.01700399;0.14680532;-0.04652708;0.011865958;-0.032091264;0.03268255;-0.014019807;0.18314002;0.0017585197;0.16093382;0.1537386;0.07253521;0.035050537;0.03860354;-0.09421722;0.041598745;0.051906034;-0.26930177;0.050542764;-0.22707035;-0.07282222;-0.0050875926;-0.05047948;0.20247883;0.034388114;-0.19378388;0.047750898;-0.020692568;-0.08376086;0.061833255;0.27715686;0.046371646;-0.20900233;-0.14447513;0.060340296;-0.21154858;0.008505011;-0.14293715;-0.16168226;0.0973767;0.040860694;-0.012409812;0.1827999;-0.07297669;-0.34055346;-0.109319165;-0.00930518;0.06952977;0.036636814;0.00086595834;-0.013403519;0.18956342;-0.14445318;-0.19597818;-0.13479424;0.089977466;-0.016788715;-0.2022943;0.11620971;0.14068747;0.056006614;-0.20147279;-0.10880132;-0.03062791;0.07872038;0.039929457;-0.27486506;-0.0075023025;-0.1938718;0.2739332;0.06996129;0.08543603;0.008047954;-0.00019423071;0.061347853;-0.047872443;-0.08804073;0.01991659;-0.027423752;0.021837411;-0.21084733;0.02738373;0.16783929;0.036525927;-0.033129178;-0.018124368;-0.05380764;-0.54230726;-0.08753219;-0.2283432;0.1353772;-0.028587524;-0.624034;0.020791227;0.09395343;-0.04943157;-0.03249846;-0.050927825;0.017040242;-0.080783896;0.03397847;-0.23350197;0.045900885;0.21925974;0.015525202;-0.2029591;-0.16302693;0.088000774;0.24263006;0.027526665;0.066754475;0.097189836;-0.04261585;0.28927976;0.01443898;-0.07874124;-0.086821996;-0.03825661;0.00052759214;0.052899312;-0.004534509;-0.35075718;0.04947981;-0.0059465873;-0.03458929;0.042270992;-0.07069022;0.0028968698;0.048853904;-0.031817984;0.09639865;-0.039478507;0.034317836;-0.007786245;0.22330219;0.062316008;-0.048377376;0.016394287;-0.04767082;0.09836042;-0.03076121;-0.101152174;-0.16238691;0.2204661;-0.29917908;-0.108551614;0.30104217;-0.010936026;-0.03436008;-0.13863361;-0.07440076;-0.024936525;-0.2509274;0.032530088;0.0340009;-0.023749525;-0.455956;0.0037171922;0.021966353;0.2665935;0.0034385838;-0.06220921;-0.054060854;0.18465577
-0.34542605;-0.061447684;0.08708368;0.12326572;0.010981831;0.044945125;-0.026740361;-0.0852963;-0.0036878986;-0.29837057;0.026240481;0.24459614;-0.010518265;0.14543307;0.06798689;0.07439317;0.2473999;0.16304083;0.11701689;0.17186065;-0.13008562;0.057662427;0.10002507;0.08437578;0.04051474;-0.027808124;-0.07949902;0.2105568;-0.051793404;0.13814935;-0.12868202;0.03196058;-0.043102972;0.19513628;-0.057515223;-0.29935497;-0.043497317;0.061441608;-0.083127804;-0.02653236;0.03866544;0.025567014;0.22262554;0.27679992;0.033929154;0.04152945;-0.049315047;-0.02750724;0.07436488;-0.009960208;-0.015546306;-0.13331884;-0.0062084617;0.074858576;0.0186509;-0.18987383;0.018338835;0.23430711;0.10506184;0.103175275;-0.055373892;-0.038588174;-0.01539259;-0.012180271;-0.029535618;0.023717497;0.027880123;0.16089366;0.031328462;0.0676738;-0.03446468;0.0005323946;0.0102982465;0.2028802;-0.15372427;-0.14994955;-0.024646796;0.119258285;-0.23299192;-0.0073869033;0.045846734;-0.1363969;-0.020351363;-0.11605724;-0.003534644;-0.057626184;0.044678465;-0.039448306;-0.024136016;-0.07045189;-0.027673582;-0.114289284;-0.14433233;0.036089722;-0.26876694;0.07011776;0.13650596;-0.10025604;-0.15845725;-0.28517705;-0.05602691;-0.050386503;-0.04195562;-0.08548627;-0.089491636;-0.062257733;0.0025351697;0.058867533;0.06339353;0.027211066;0.059987403;0.20569815;0.122494474;-0.30658743;-0.028519867;-0.19622946;-0.24453345;0.047779776;0.032964163;-0.23929475;-0.13661727;0.031862635;-0.29298052;0.037521634;0.082518876;-0.0056670695;-0.114855446;0.2907908;-0.038155917;-0.15253639;-0.06568711;-0.20379221;-0.253968;0.01078319;0.018724011;-0.22544318;-0.30334616;-0.024985222;0.037351955;0.03808267;-0.18407986;-0.043786477;0.17005968;0.29744983;0.0094141085;0.09047912;-0.031126572;-0.064568855;0.33252215;-0.22785747;0.028726703;0.3368412;0.020201653;-0.20778868;-0.054894235;0.024478152;0.01291924;0.023184039;0.30228576;0.27605507;0.04844714;-0.016355777;0.027782941;-0.05670697;0.01881535;0.083406866;0.038056344;0.046395406;-0.052026615;0.006289227;0.071341254;0.0017663937;-0.024367234;-0.120926596;0.106181115;0.06304154;0.013931831;0.045646932;-0.030788;-0.01833141;0.023424705;0.002802751;-0.16312258;0.09531582;-0.046726283;0.040873077;0.21357052;0.07285951;0.25769493;-0.07706648;-0.08407139;0.06330664;-0.17732595;-0.027881127;-0.0074456325;-0.5958856;-0.16842535;-0.044002034;0.1483105;-0.032297134;-0.051167265;0.17087598;0.09419485;-0.017435908;0.28396314;-0.036583107;0.1307025;-0.030314583;0.07873117;0.2200577;-0.108181775;-0.20722161;0.028133523;-0.009412015;0.46743235;-0.02674164;0.2089954;-0.08267234;0.037525214;-0.028856928;0.13006426;-0.17727461;0.079054624;0.047658592;0.19762339;-0.024708342;0.028575284;-0.17953967;-0.0067754798;-0.44608417;-0.16924588;-0.036148354;0.11564134;-0.14149383;-0.024606166;-0.21805117;0.037883434;-0.073310904;-0.038811877;-0.09657523;-0.062965505;-0.018826757;-0.0018779752;0.025153568;0.11181252;0.07764738;-0.04563936;0.06551869;-0.19054954;-0.2118131;-0.014907968;-0.37017152;-0.056060366;-0.15201865;0.0031338742;0.015044826;-0.22967511;-0.0012563933;0.02725876;-0.28635845;-0.033450495;-0.01071411;0.34000164;0.039121054;0.09734896;-0.036438573;0.31324843;0.117856964;-0.035793;0.002634782;0.15346593;-0.018821683;0.05266714;0.024567261;0.039180826;-0.0055645397;0.06170584;0.14453967;0.02491208;-0.11563917;0.20870207;0.16972649;0.19912983;-0.1274039;0.23316231;0.067255795;0.09210027;0.17514713;0.17854197;-0.10734888;-0.040398553;0.10651016;-0.21450165;0.13107523;-0.18101397;-0.1834323;0.07367444;-0.052726418;-0.037412453;-0.035199776;-0.24752226;0.015137205;0.034817964;-0.036477104;-0.05923378;0.06401634;-0.023159752;0.019709252;0.030608907;-0.23768938;0.055305097;-0.005647579;-0.13058795;0.09209974;-0.017154569;0.309836;0.13997693;-0.07068262;-0.22517897;0.16248482;0.070560746;-0.044496622;-0.20175576;0.026198229;0.017027156;-0.0598483;0.042161416;0.01865074;0.024154996;0.069788076;-0.023480317;-0.0934168;-0.2780612;-0.0075828037;0.065234005;0.039778836;0.07205887;-0.053209223;0.20441887;-0.042635303;0.2590588;0.032209337;-0.03975209;0.13563518;-0.025148254;0.10149399;-0.000114337316;-0.03396739;0.023029882;0.06660323;-0.0068161096;0.1342013;-0.016260192;-0.18672653;-0.0388796;-0.028087033;-0.0541502;-0.1221613;-0.08042923;0.041535944;0.006356753;-0.074621975;-0.06621665;-0.18604995;0.02847926;-0.052518547;0.07828219;0.11123534;0.07080667;-0.027420148;-0.16663349;0.011137538;0.026282774;0.024655916;0.05727437;0.10699403;0.11270724;-0.25852498;-0.01779526;-0.35351872;0.0057806363;-0.0032128692;0.019395193;-0.17739849;0.041280907;0.026135582;0.056619305;0.081324965;-0.035515577;0.05985063;0.16107112;0.32238463;-0.33139244;0.06564921;-0.04476078;-0.26013047;0.009979548;0.012073992;0.007627798;0.32615438;0.049868878;0.08866143;0.042173423;-0.17034113;-0.09730632;-0.19025572;0.08813815;0.18049903;0.25738907;-0.21436755;0.2573692;0.13628925;0.031882036;0.24010865;0.012150012;-0.19274344;-0.056589942;0.052421506;-0.006902908;0.126561;0.032608;0.23620349;0.17068712;0.09418453;0.0034800905;0.17474605;-0.31659877;-0.017295083;-0.05482927;-0.034614015;0.049081046;-0.15657337;0.01762684;0.026449934;0.07015464;0.07507649;0.08761137;-0.1800548;-0.04923654;-0.02706674;-0.033718284;0.09709016;0.14241141;-0.04848317;-0.03559196;-0.10741677;0.14040023;-0.22921897;-0.016833635;-0.101177074;-0.06020545;-0.07298507;0.024097066;0.020275345;0.18538558;0.053462468;-0.2211304;-0.066546336;0.038648836;0.086660914;0.18218963;-0.03786567;0.0019641733;0.1675122;-0.35714167;-0.058241993;-0.13170335;0.07589686;0.059495013;-0.25271866;-0.048013445;0.23339221;-0.0050283303;-0.04928923;-0.1658687;-0.027004937;0.02466227;-0.0033124164;-0.1606444;0.0014349101;-0.14779489;0.5138775;0.0031519395;-0.08852996;0.06493278;0.015859941;0.01955944;-0.11150911;0.076485984;0.07961031;0.056484967;-0.11879419;-0.14129066;-0.038160883;0.08585937;-0.050940797;0.03976464;-0.0052931877;-0.07329596;-0.55397296;0.057712827;-0.006656341;0.041511793;0.052127283;-0.5724714;0.0054463204;0.15381175;0.018230963;0.063003466;0.046145905;0.100177154;0.018091386;-0.011625328;-0.14776202;-0.026663618;0.17073262;-0.042938735;-0.080955;-0.20695576;0.088068604;0.31372005;-0.075804435;-0.077862374;0.27459636;-0.053843755;0.21392326;-0.124686375;-0.15109192;-0.09798764;0.0032868756;0.049695387;-0.01869103;0.019723069;-0.321934;0.1026472;-0.014381678;0.014481234;0.045377687;0.036237102;-0.090969026;-0.041051064;0.039097745;0.008819389;0.014943242;-0.05735517;0.07494747;0.11413555;0.06314499;0.045720592;0.03302126;0.015198077;0.21510234;0.0017322374;-0.12549417;-0.04063321;0.20962983;-0.013821515;0.0526272;0.18072945;0.044106547;-0.07213872;-0.11861879;0.17281578;0.045610625;-0.12046522;0.15343207;0.03934102;0.1308182;-0.15953593;0.04053892;0.06874094;0.03648918;0.07175742;0.012905261;0.060020912;0.26964426
-0.23719198;-0.1707484;-0.028255276;0.2166734;0.06960547;-0.046718027;-0.049469247;0.0063348385;-0.022229955;-0.23965964;-0.026599938;0.25042573;0.01029843;0.027562412;0.04561558;-0.022296846;0.30104256;0.27428845;0.11679115;0.17271303;-0.12884733;-0.083191305;0.061451595;0.024036855;0.02162382;-0.026652811;0.0045083608;0.32915258;-0.08382023;0.09118548;-0.13893636;0.058080006;0.15871282;0.34209082;-0.12689374;-0.42963922;0.13073376;0.12794547;0.13723655;-0.021524537;0.0068122186;0.0040805875;0.18742017;0.18638225;-0.033788126;-0.013123779;0.029482894;-0.09979633;0.20363486;0.04578929;-0.05405362;-0.2824764;-0.0046457304;-0.051197756;-0.025481595;-0.26628795;-0.032665927;0.11131993;0.031965587;-0.0603467;-0.051264003;-0.053061433;-0.011830732;-0.19013809;0.1500714;0.13501143;-0.08097018;0.037001092;-0.040868305;0.028586462;-0.14205268;0.006461858;0.02083639;0.40118402;-0.13601652;-0.13153797;-0.00625299;0.028656917;-0.19091883;0.010297671;-0.025949681;-0.16668187;-0.022060893;-0.15481704;0.0017244777;-0.11118027;0.15176158;0.0076052095;-0.023906067;0.047989395;-0.03512223;-0.24017602;-0.007842882;-0.057645958;-0.052464705;-0.10560419;0.14675134;-0.052418377;-0.07064468;-0.1811633;-0.005903763;0.04115252;0.020563314;0.050360285;-0.034503758;-0.05439498;-0.024918152;0.16030566;-0.053451534;4.6690187e-05;0.07724925;0.026039898;-0.059857342;-0.27798277;0.0007833622;-0.16726604;-0.34310097;-0.049638376;-0.060478948;-0.38635746;-0.17509511;-0.031025033;-0.4760466;-0.023479644;-0.017618462;-0.05211698;-0.051395744;0.27507633;0.035090823;-0.2506411;-0.030462304;-0.22033235;-0.3559082;0.08074472;-0.041204866;-0.19148801;-0.18518098;0.20753463;0.029362006;0.032700103;-0.14578792;0.048028756;-0.02514104;0.12263441;0.035647552;0.07621051;-0.21635845;0.03698845;0.3234476;-0.10764801;-0.023336623;0.33338678;-0.09125666;-0.14312395;-0.016144615;-0.047423825;-0.03606214;0.17258523;0.2653118;0.09499781;0.04368048;0.08232628;-0.102408856;0.059249945;-0.0036583534;0.04291882;0.08113202;-0.021058645;0.1946869;-0.04332888;0.008327715;0.036173012;0.067436606;-0.03898609;0.23164502;0.06845437;0.03833757;-0.0048709987;-0.06530679;-0.012050063;-0.041907083;-0.062094394;-0.19897126;0.08130789;0.0138394125;-0.13363042;0.11095036;0.0816625;0.23208521;0.059423704;-0.12001166;0.0043652956;-0.089798346;-0.05625936;0.042744976;-0.58551615;-0.09124082;0.08533299;0.013402126;0.0032573827;0.06883279;0.124194816;0.08183424;0.0020346069;0.29095247;0.035838246;0.16592303;0.03144744;0.05982157;0.15418437;-0.013426106;-0.2404559;-0.028828494;0.025589203;0.25190035;-0.0035436826;0.216725;0.09329473;-0.039145786;0.09645757;0.20065953;-0.27594113;-0.11989029;-0.038356733;0.14462845;0.051808026;0.027838385;-0.07235897;-0.023573669;-0.33999312;-0.22061129;0.03539456;-0.07118837;-0.108131856;-0.06777466;-0.08073398;0.03149428;0.0544718;-0.13088143;0.046751264;0.053309362;0.03564429;0.032842617;-0.106131665;-0.012749902;0.014002861;0.05786097;0.049897198;0.090151645;-0.25753233;0.061744425;-0.13429363;-0.08572275;-0.31032425;-0.10112957;-0.07567626;-0.085609734;0.004188653;0.13010857;-0.45197517;-0.022603665;0.07942711;0.35560954;0.041270047;-0.028516868;0.04714828;0.19456849;0.07448767;-0.058558445;-0.07167062;0.18226562;0.11385246;-0.041511726;0.13143592;-0.04745351;0.036428683;-0.048570674;0.033422675;0.055249274;-0.059339322;0.32510734;0.13340874;0.03651736;-0.15035354;0.23618865;-0.02704057;0.14730477;0.17554337;-0.023306089;-0.15284619;0.031916056;0.14422819;-0.25776765;0.15263134;-0.05685473;-0.13562903;0.14154118;0.039132144;0.058796693;-0.005244382;-0.39953366;-0.0053258315;0.011874778;0.13660644;0.05945545;-0.033429414;-0.021488488;-0.0015598492;-0.02670675;-0.21187216;-0.03275842;0.084453054;-0.034979943;0.17192623;0.027552707;0.14312798;0.16273403;0.03082612;-0.08458473;0.0947305;-0.015065106;0.041379534;-0.13821977;0.03628991;-0.041634325;-0.06475945;-0.07792845;-0.008155075;-0.060262904;0.006539013;0.016122865;-0.12955414;-0.26755136;-0.046332736;0.027559556;-0.036911;-0.2772895;0.03484835;0.19325386;0.025515998;0.20350784;-0.014766467;-0.17864186;0.06703585;-0.111923605;0.10877009;-0.029146202;-0.021058742;-0.053799197;0.034737155;-0.029502029;0.06439468;0.012336447;-0.1880743;-0.014947138;0.03707141;-0.08321327;0.021434259;-0.011779953;-0.051199533;-0.06113689;0.058720127;0.025476703;-0.2341998;-0.07908082;-0.01576705;0.17293234;-0.033736404;-0.0924588;-0.09096776;-0.042429835;0.11701015;-0.04655344;-0.056216225;0.27925542;0.09287939;0.25496715;-0.150106;-0.034971982;-0.36236924;-0.03675019;0.053248305;-0.06558679;-0.21123113;-0.013791559;0.24342406;0.022212837;0.247421;0.01740953;-0.022622606;0.30037504;0.2936257;-0.094432265;0.03156636;0.033372577;-0.19736955;0.026648033;-0.12629315;-0.020143209;0.1479794;0.0076658344;0.05100705;-0.038680267;-0.09827053;0.017285885;-0.3574667;0.1185108;0.36430186;0.27243912;-0.19555177;0.34249857;0.19318298;0.013625257;0.1453641;-0.05268111;-0.1877551;0.053123623;0.1617962;0.0058378405;0.041275043;-0.008101769;0.18107149;0.046638645;0.13621795;-0.02957093;0.11121175;-0.2776306;0.0552682;0.021217762;0.05237323;-0.039972153;-0.27841467;0.036797684;0.029285006;-0.0034898133;-0.048129;0.08011762;-0.21934037;-0.00888862;-0.030182812;-0.11383832;-0.10467633;0.23418333;0.004251053;-0.112553954;-0.04112503;0.13856436;-0.22382803;-0.048351053;-0.20931101;-0.121963084;-0.04445689;0.20266728;-0.025165476;0.21787557;0.06455671;-0.043616127;-0.015162911;0.030025585;0.013732001;0.16278914;0.047252916;0.053612217;0.181788;-0.20620151;-0.1982635;-0.06593595;-0.04781858;0.117960654;-0.05550664;-0.086948864;0.11551166;-0.029521639;0.16467886;-0.03739535;0.05465846;-0.024363453;-0.0059878193;-0.029330846;0.0061270185;-0.13494356;0.53222793;0.026668794;0.041559372;-0.034224577;0.022797234;0.03271338;0.050238866;0.03343182;-0.0015376168;-0.055046823;-0.1934201;-0.15923053;-0.010680195;0.02185622;0.057916697;0.053116918;0.041116424;0.014042304;-0.46482852;0.005454631;0.09611375;-0.087153465;-0.04526152;-0.3303945;-0.022944136;0.019809358;-0.002374073;-0.024301723;-0.075534254;0.20515312;0.22259891;0.024913063;-0.18534912;0.023709668;0.14503217;0.022384474;-0.097501345;-0.35629433;0.055116937;0.14870492;-0.18621188;0.020466125;0.3176433;0.017294867;0.09334158;0.025880584;-0.05979974;-0.080868535;0.021752002;-0.054618586;-0.00021283704;0.018535651;-0.28640538;0.032129493;0.020099271;-0.12886173;-0.016504357;-0.028440336;-0.08943488;0.101605095;0.01006024;-0.08081655;0.065313525;0.020489061;0.10162397;0.120892026;-0.04810326;-0.122289024;0.024027059;0.011861127;0.23535094;-0.06592631;0.0010601194;-0.067147076;0.06547736;-0.052058112;0.16293113;0.13479774;-0.036180966;-0.069673225;0.0006891185;0.16979872;0.07681241;-0.040405054;0.1494228;-0.046891615;0.15127832;-0.10991988;-0.026697543;0.17663498;0.03245421;0.1592334;0.047032762;-0.054793898;0.14473172
-0.23191504;-0.0419249;-0.06555767;0.17813103;0.013830057;0.09678567;-0.066453;0.07565977;-0.0017999632;-0.323863;0.035878643;0.22140823;-0.09859573;-0.05446158;-0.06475457;0.15819204;0.31912518;0.2078598;0.10036694;0.17792784;-0.11448963;-0.013510192;0.090282574;0.032058913;-0.01684491;0.051368747;-0.022981673;0.25209504;-0.12667492;0.08270064;-0.28152657;-0.029043635;-0.03357051;0.27135628;0.020030947;-0.21101154;-0.045030937;0.09293307;0.09243119;-0.0010771413;-0.003909949;-0.0048724352;0.29882973;0.22466499;-0.023881523;0.07987172;-0.051197615;-0.21308129;0.14288825;0.003873956;0.06333236;-0.5490376;0.13442989;0.006668327;0.00081881107;-0.17881246;0.018343685;0.28007412;0.054108642;0.16396444;0.07403587;0.06114447;0.05193926;-0.1365066;-0.03244894;0.2370657;0.004461623;0.030443385;0.07609697;-0.018409096;-0.13027059;0.018696323;0.013341789;0.26630324;-0.35990524;-0.020977732;-0.0312092;0.0458353;-0.1579229;0.03115318;-0.030016856;-0.20709275;-0.03283677;-0.22068274;0.06460787;0.0012401703;0.25807813;0.0011223407;-0.008569492;0.056792725;-0.01634412;-0.2696658;-0.10435922;0.13085027;-0.10434681;-0.111744754;0.12501197;-0.12049316;0.033708096;-0.2568814;0.011993513;0.12232144;-0.029156715;0.024889905;-0.15996702;-0.11532135;-0.03570382;0.15943238;-0.1621734;0.013527019;0.14309114;-0.055855196;0.0013552;-0.22545694;-0.11080912;0.00656424;-0.335502;-0.045850288;0.025671426;-0.21486335;-0.14376235;-0.013589634;-0.49713156;-0.0020843276;-0.042860534;0.013499485;0.112802394;0.21130131;0.027879631;-0.13124728;-0.010427218;-0.24592249;-0.40576985;0.013682275;0.066258214;-0.13197353;-0.084134124;0.21894906;-0.02655689;-0.052745447;-0.12539251;-0.0016920768;0.14511585;0.05132261;0.034576654;0.10085495;-0.012736572;0.057068236;0.0806263;-0.2639498;-0.047784086;0.091225736;-0.13731201;0.0033646692;0.032074835;0.055536434;-0.03783379;0.12491382;0.31870186;-0.004003993;0.12825377;-0.01079277;-0.08571898;-0.032821447;0.014274679;0.008134676;0.19062224;0.05474271;0.08645714;-0.0910749;0.016853461;-0.04238701;0.059151974;-0.075174734;0.28847423;-0.18346676;-0.039086122;-0.0053458964;-0.092898324;0.056037642;0.017324127;-0.17779171;-0.18649755;-0.08804575;-0.01004752;0.034760635;-0.09922423;0.018751526;0.23192143;-0.07794425;-0.15636271;-0.012032464;-0.25459906;0.049513847;-0.054238584;-0.3628999;0.085474774;0.06607659;0.05149235;-0.017301083;0.093669705;0.09067926;-0.09117594;-0.014045452;0.43851304;0.024138868;0.043270197;0.019356353;0.020410825;0.18123469;-0.04820567;-0.18649371;-0.0006425342;-0.021155193;0.31476337;-0.014818892;0.18099707;0.19060305;-0.13967398;0.13855612;0.36693192;-0.32667568;-0.07202521;0.048973914;0.17316988;-0.0048540384;0.014986305;-0.031025304;0.042217415;-0.31899738;-0.21971911;0.03375372;-0.30259448;-0.02905798;-0.12108069;-0.13245495;0.027104765;0.035686627;-0.14690085;0.02792061;-0.052485846;-0.018333707;-0.04576201;-0.014411677;-0.13781491;0.03745734;-0.050956342;-0.016616121;-0.06697209;-0.21707052;-0.03794778;-0.34637293;0.018851034;-0.1106105;-0.07037353;-0.054665692;-0.18843746;0.049208093;0.13267678;-0.28149956;-0.016550941;-0.03050313;0.4843079;0.03614805;-0.03371306;0.25247872;0.17328282;0.064827256;-0.15194236;-0.2763549;0.082685016;0.16063936;-0.037404433;0.25118718;0.07555809;-0.005669209;-0.007002292;0.0007582647;-0.0911257;0.02515595;0.32159066;0.098669745;0.11454654;-0.14223193;0.18949062;-0.28223398;-0.055588596;0.10279681;-0.071151584;-0.14662533;-0.025634034;0.08251634;-0.30654398;0.0637194;-0.010007803;-0.16635787;0.11756397;-0.04471117;-0.061671507;0.011200147;-0.3145625;0.011497288;0.022043252;0.20038661;0.029389909;0.035107575;0.017511403;-0.03961642;0.036239624;-0.20323399;0.0010783313;0.00796845;0.014709143;0.27676725;-0.070601895;0.19734795;0.18174736;0.058778204;-0.09439639;0.17473228;-0.12116531;-0.027617998;-0.23833223;0.0057303794;0.01630161;-0.056465227;-0.0811573;-0.029484458;0.0063280184;0.07162285;-0.032783754;-0.24378641;-0.21388689;0.09074265;-0.1104792;-0.007330693;-0.2814813;0.026262026;0.22798237;0.03168467;0.11859163;-0.03609469;-0.015188832;-0.13162096;-0.030689608;0.030535942;-0.00031730265;-0.043819472;0.04863584;-0.14108692;0.022778628;0.03300681;0.17730449;0.0076131662;0.041818917;0.10029598;-0.036030337;0.060955916;-0.23604469;0.035035666;-0.057559133;-0.023397267;0.046084557;-0.2311278;-0.09964493;-0.040966444;0.08331425;-0.11032167;-0.039924424;-0.13623261;0.03495446;0.0822703;-0.08876198;0.017895184;0.20271951;0.07194106;0.21183874;-0.23192143;0.049429007;-0.28910175;-0.021261798;0.029289527;0.037333444;-0.27640507;-0.07761844;0.19355205;-0.06378922;0.2762724;0.0022152667;-0.07554219;0.24922886;0.3503522;-0.12684268;0.012392227;-0.010155618;-0.034048267;0.0037379335;-0.05332452;-0.037941866;0.056137975;0.05813421;0.101389155;-0.015058021;-0.24680854;-0.022768065;-0.29652226;0.23740746;0.1636167;0.39120373;-0.14631316;0.2555529;0.019622823;-0.02244028;0.17163034;0.04973014;-0.2339862;-0.017674666;0.11839104;-0.015107886;0.11240647;-0.0266109;0.2375611;0.025386082;0.17627095;-0.033708535;0.050754588;-0.14417194;-0.014039436;-0.30719265;-0.012404406;0.048785802;-0.18956338;-0.010726233;-0.033544615;0.02231473;0.09939874;-0.04922327;-0.23989156;0.043823835;-0.021334257;-0.20132773;-0.26221335;0.21784396;0.04252093;-0.17141232;0.052804343;0.06927814;-0.061833322;0.05219226;-0.14402544;-0.01654272;0.024850639;0.33561724;0.0583573;0.24107261;-0.051739145;-0.1041281;-0.01211876;0.17139617;-0.048833475;0.116537444;0.072116874;0.12372289;0.15730748;-0.07823589;-0.1235553;-0.08272884;-0.09502158;0.128624;-0.0279384;-0.14662768;0.07948515;-0.03611998;0.12680379;-0.09097708;-0.004526727;0.047738302;-0.016783101;0.13734686;0.069598466;-0.18237096;0.43782604;-0.025646385;0.07434287;-0.05954214;-0.08413529;0.11251219;0.27471605;0.078667164;0.09427291;-0.02529431;-0.32400292;-0.21996224;-0.028687932;0.14466585;0.07357278;0.061425786;-0.061941765;0.12938459;-0.5999009;-0.0223563;0.2915697;-0.20612887;0.008625567;-0.2903304;-0.0022853913;-0.05155374;0.010289303;-0.03501732;0.067583755;0.19482142;0.21606413;-0.019197775;0.07795244;-0.02420366;0.23206249;-0.04377445;0.049794253;-0.22321445;0.07990898;0.19347616;-0.24835357;0.048616752;0.31387353;-0.007308584;0.091070436;0.008290193;-0.022431951;-0.093136296;-0.025671635;-0.09479052;0.04628212;0.0012756989;-0.13034728;0.07711311;-0.0027049684;-0.119715124;-0.016079003;0.002858424;-0.08462652;-0.0033048284;-0.055583127;-0.2020706;-0.026425024;0.01199787;0.1458061;0.28355283;-0.05374543;-0.042384367;0.118697695;0.034560975;0.15089145;0.07703879;0.11508628;-0.042606078;-0.08401944;-0.032992437;0.18627585;0.14042786;0.0054017687;0.0020521546;0.04812013;0.1409721;0.099968895;-0.13191114;0.103997335;0.024126798;0.22197846;-0.14201213;0.0054306057;0.1821768;-0.04320156;0.14517109;-0.016496694;0.047812846;0.21176885
-0.045619372;-0.01222762;0.0105727725;0.18454704;-0.059174296;0.22483088;-0.45925087;-0.089608595;0.03433254;-0.2843885;-0.036864083;0.1014936;-0.037671268;-0.09445873;-0.018595943;0.095589966;0.2837395;0.13983703;-0.094612055;0.14532341;-0.14726248;0.03221789;-0.0055170883;-0.08043984;0.003279429;-0.012888944;0.051784974;0.21839109;-0.07376238;0.15649673;-0.24008304;-0.018347962;0.08625678;0.30377734;-0.12339809;-0.10266163;-0.048174977;0.014612173;0.17784715;-0.052332804;-0.036751788;0.008946855;0.20483004;0.087069795;-0.05234554;0.09969728;0.020722024;-0.09139552;0.102359615;-0.066297434;0.026880316;-0.37699705;0.20795794;0.04747663;0.044906847;-0.20688961;-0.008193842;0.26664126;-1.6080976e-06;0.09045654;0.009125302;-0.07786383;-0.04872118;-0.06427532;0.09503525;0.11601805;-0.048614513;-0.012167693;0.27765736;-0.0052117337;-0.19492023;-0.05426026;-0.007186189;0.122742526;-0.22793226;0.07294337;0.05384629;-0.02083057;0.018085087;-0.007689126;0.059329897;-0.07642064;-0.013669104;-0.18929045;-0.07492461;-0.07783592;0.1901212;0.054007165;0.02689184;-0.044829655;0.007870335;-0.10761929;-0.016349489;0.11386184;-0.16228984;-0.06437818;-0.023741141;0.012967353;0.0859759;-0.12745348;0.046405703;0.13338031;-0.07521451;0.0050463183;-0.18460225;-0.092241585;0.04719145;0.22049819;0.014091644;-0.03918898;-0.11010325;-0.08928635;-0.017693693;-0.4528843;-0.12550679;-0.0716649;-0.27072138;0.14282906;-0.018403683;-0.27936435;-0.23106682;3.2323223e-05;-0.23827489;0.056561027;-0.011363714;-0.0094563095;0.11649477;0.19492665;-0.029885663;-0.086093225;0.07962827;-0.09783703;-0.37066957;0.025231397;0.034966927;-0.13207902;0.026499128;0.13407476;0.028583594;0.04075106;-0.08943872;0.23362744;0.090552546;-0.15646799;-0.047838297;0.14257276;-0.061450325;0.0022645225;0.15348265;-0.25010228;0.09869283;0.055745646;-0.02925918;-0.0096307825;0.02375825;-0.06826976;1.3861225e-05;0.23002043;0.31771493;-0.0693839;0.1895071;-0.041114215;-0.05961935;-0.0074397214;-0.049893502;0.05257248;0.15893617;-0.0067871227;0.24904284;0.09670759;-0.11161416;0.01074659;-0.047641035;0.17936341;0.20516327;-0.04289773;-0.012488052;-0.019556018;-0.043972977;-0.0037654557;0.012212716;-0.12430976;-0.2651977;-0.061570726;-0.053460862;-0.027038345;-0.049144194;-0.098061115;0.23539081;0.057220384;-0.055048097;-0.036753513;-0.13408081;-0.014485703;-0.022758378;-0.4105775;0.06357066;0.101107344;0.07094009;0.037634507;0.27322716;-0.059484728;-0.05527121;0.023011701;0.43139687;0.019837892;0.10604131;-0.07131719;0.02284823;0.059189294;-0.10595875;-0.17206407;-0.04358358;0.007346045;0.3693274;0.03264046;0.05860559;0.16176043;-0.061567318;0.0010202768;0.32016826;-0.19791755;-0.16820131;-0.059214856;0.09209819;0.02216893;-0.04912753;0.060475335;-0.0020206627;-0.1233116;-0.15327248;-0.04059356;-0.025669126;-0.04696667;-0.09544048;-0.11126751;0.13091646;-0.034193218;-0.15529202;0.104852125;-0.042506877;0.032210708;-0.011432139;-0.12636486;0.006154916;0.012439684;0.048696686;-0.071306415;-0.105193585;-0.103010006;0.017153883;-0.29038528;0.07940989;-0.11159298;-0.059914112;0.018152732;-0.027003877;0.014251394;0.020303696;-0.36300012;-0.0015683824;-0.051251892;0.55254316;0.024173556;0.13881211;0.17070375;0.2439767;0.10006503;-0.16337664;-0.21426369;0.0067133177;0.25544187;0.0114725325;0.08296858;0.093013115;0.076595455;-0.062417902;0.0901985;-0.029399574;0.018141164;0.16640891;0.16534063;-0.053476315;-0.17191982;0.12690994;-0.15708806;0.043551583;0.08064153;-0.20015264;-0.28705212;0.02622466;0.024824727;-0.32625115;0.20411414;0.1735519;-0.15276256;0.11154791;-0.018179791;0.14297424;-0.015308442;-0.3250137;-0.03010594;0.016931787;0.10415079;-0.020656593;0.0057321894;0.0022422918;-0.028088935;-0.0036842201;-0.23215048;0.028289268;0.058371626;0.13776544;0.26490182;0.11307099;0.05794338;0.14395805;0.042859696;-0.07992319;0.018158369;-0.0066216164;-0.07725966;-0.19139194;-0.058167484;-0.020413699;-0.14697868;-0.030646091;0.03630434;0.04375121;0.1391912;0.034258857;-0.19385847;-0.18861343;-0.011144428;-0.017491607;0.04393098;-0.09633621;0.028934699;0.18544406;-0.07674639;0.2675566;0.04613516;-0.058559775;-0.04515802;-0.054347873;0.027275836;0.023312211;0.07106359;0.006127741;-0.15315557;-0.044300947;0.0721498;0.06006295;-0.026219841;0.019801816;0.13547048;-0.05344877;0.06536279;-0.21392307;-0.0628776;0.05370934;-0.12948282;-0.054361038;-0.14538403;0.05406856;-0.011746202;0.13731694;-0.12409855;-0.03400082;-0.1510704;0.14338018;0.093764015;-0.09156829;0.05760627;0.2842214;0.18696782;0.107899554;-0.22856888;0.007510767;-0.26482645;0.010097598;-0.042820696;0.0060219495;-0.109980024;0.03669308;0.21728867;0.021738814;0.07409141;0.1966966;0.06662399;0.3164984;0.37535852;-0.037112728;0.029007474;0.044323675;-0.07590244;-0.040013224;-0.11417034;-0.0027504996;0.19795696;-0.07097569;0.027544005;-0.0069036246;-0.2120114;-0.13827911;-0.12261045;0.19551283;0.20519215;0.30865386;0.12047849;0.20745637;0.062339872;-0.008666659;0.13184796;-0.013727617;-0.19645658;0.05220292;0.11688971;0.046745222;0.073952176;0.0060950117;0.3104498;0.20142768;0.09047155;0.0271433;0.20038506;-0.12741408;-0.061739985;-0.40971032;0.09714139;-0.03081914;-0.14854589;0.02688203;-0.054954626;-0.04172165;0.022711067;-0.217266;-0.23450729;0.10852349;0.07589257;-0.09301113;-0.2645454;0.09346349;0.030361606;-0.259727;0.15272328;0.12596932;-0.048713293;0.09347017;0.075822815;0.15853494;0.059470534;0.28056565;-0.016805945;0.28340024;-0.036146384;0.049699858;-0.19689152;0.18514058;-0.19814281;0.14395832;0.042677112;0.113624744;0.17406954;-0.17256933;-0.09114714;0.038280375;-0.07898862;-0.02602961;0.029952146;-0.0058285077;0.10693731;0.07191248;-0.033196267;-0.017191244;-0.0280015;-0.06362385;-0.02877859;0.13513374;-0.024023362;-0.33599326;0.35358945;-0.13588455;0.040999323;0.05885442;0.035464313;0.2789356;0.12072936;0.09445862;0.14839825;-0.025131693;-0.13350728;-0.23647086;0.014893917;0.23990706;-0.079697266;-0.0017119464;0.0015762602;0.12988228;-0.63027817;0.025724536;0.31772688;-0.26150715;-0.019743523;-0.3202261;-0.0051138387;-0.08679106;0.024837203;-2.3113396e-05;-0.01665698;0.026016496;0.21851318;-0.024315082;0.00056427415;0.00603012;0.10597416;0.038689304;0.012653913;-0.21559721;0.2572698;0.13897353;-0.23242801;-0.00014352804;0.25366575;-0.069035344;0.03852375;-0.076767765;-0.023964435;-0.1669237;0.032753233;-0.038340494;-0.028941983;-0.048318725;-0.14170532;-0.012937202;-0.043866273;0.018367382;0.018608028;-0.018008057;-0.08017895;0.22128837;-0.030903118;-0.10332176;-0.03436016;-0.00026670628;0.057016984;0.11752795;0.004214634;-0.06563902;-0.023762636;-0.053225297;0.07015854;0.021437695;0.20118031;0.030228311;-0.09390635;-0.106053285;0.10293483;-0.07884695;-0.04623085;-0.10916509;-0.0074346573;0.15561138;0.023994636;-0.13111344;0.18738987;0.02119083;0.23145747;-0.029771114;0.0024076987;0.3484602;-0.15108566;-0.0643918;-0.03677341;-0.039397847;0.27300626
-0.07335669;-0.10087582;0.09996615;0.17455316;-0.022225665;0.088238955;-0.38492438;-0.2539447;0.0036285212;-0.19542898;0.0038549723;-0.011873786;0.050690204;-0.123280324;-0.3058854;0.040871706;0.19572935;0.19671771;-0.13296458;0.028737979;-0.07055815;0.0075050946;0.15588723;-0.0037867697;0.06397721;0.055665046;0.04987457;0.21439886;0.0029930088;0.12222949;-0.32245392;-0.015212198;0.008734557;0.27834025;0.0626664;-0.28231278;-0.2678078;-0.16475569;0.16994007;-0.09298875;0.03789529;0.016805733;0.10749256;0.21142364;0.08090129;-0.051332235;-0.0075809993;-0.121646434;0.099434525;0.045892112;-0.024498813;-0.40107992;-0.018687623;-0.019163778;-0.046574693;-0.21223508;-0.051097013;0.25121602;-0.045843907;0.11374291;0.047411248;-0.11492065;0.058130372;-0.006190328;0.04115829;0.03944655;0.07791176;-0.13298361;0.07553988;-0.050035693;-0.17971049;0.0027314152;-0.02832525;-0.028195385;-0.28893033;-0.111324586;-0.055249043;-0.041409113;0.07916589;-0.0060695773;0.011917089;-0.003104429;0.022002237;0.00916985;0.026808966;-0.08507307;0.03197629;0.017276565;0.0015648403;-0.035807215;0.032283027;-0.22032294;-0.030453388;0.08560382;-0.076594025;-0.0743088;0.21210444;-0.0038544137;0.15409979;-0.184657;-0.02082006;0.20803638;-0.18040635;0.009951619;-0.025516564;0.030503519;0.013741697;0.22589605;0.046056278;0.016840328;-0.23931634;-0.009574881;-0.12404752;-0.5060281;-0.20169851;0.013964669;-0.26055273;-0.015623619;0.0019162317;-0.042302053;-0.21933107;0.014941625;-0.16818103;-0.026744176;-0.0026876978;0.011154345;-0.093977936;0.16977756;0.045175444;-0.09143333;0.03225589;-0.11332425;-0.28480873;-0.07242079;-0.061263468;-0.1676383;0.13518456;0.07492998;-0.044656362;0.0060341554;0.041989885;0.14214349;-0.043339245;0.036174394;0.00965571;0.21124953;-0.08335217;0.009668571;-0.054485798;-0.14844501;0.017169258;-0.08148529;-0.053058557;-0.061707124;-0.038863398;0.07144194;0.093379825;0.13494843;0.28257293;-0.1355412;0.24791911;0.01791534;-0.10673674;0.02261063;0.07622071;0.070749044;-0.05782421;-0.022734024;0.0037651253;0.111153685;-0.08256291;0.023102092;-0.048663843;0.20561357;0.14917164;-0.15870355;0.037356894;-0.005752023;-0.0057010707;-0.008631847;-0.020543167;-0.117522866;-0.0822823;-0.10694067;0.057357557;-0.038628772;-0.09233506;-0.07227298;0.10494606;0.06359326;0.021117631;0.030718625;-0.15818569;-0.025805632;0.040806677;-0.2567783;0.12835751;0.22197329;0.17516927;-0.025871875;0.1691162;0.066126205;0.050984897;-0.053241875;0.33893284;-0.057412025;-0.0023046704;0.033283405;0.069428034;-0.01534908;-0.008965102;-0.13787283;0.079958096;-0.02140466;0.34908321;-0.0031165092;0.12223577;0.22395901;-0.20321031;-0.04622372;0.14357802;-0.059520762;-0.23741879;0.040234163;0.01222103;-0.03548403;0.0034905649;0.095813096;0.023615701;-0.19396926;-0.18822673;-0.061462462;-0.15045832;-0.09815412;-0.13166666;-0.14789332;0.0021000265;0.009387129;-0.20455007;0.18526854;0.023246987;0.05449759;-0.012126609;-0.100041226;-0.050001606;0.025215378;0.042171143;0.08271241;0.08956924;-0.17128298;-0.045087952;-0.32839465;0.048017412;-0.12225629;-0.033423446;-0.047799204;-0.22395548;-0.068006136;-0.06880339;-0.23433582;-0.014160849;-0.020540094;0.4917905;0.07242992;0.103018045;0.10064788;0.27377558;0.054722864;-0.07960736;-0.23890978;-0.0048807096;0.16742742;0.029481113;0.27834493;0.14213134;-0.06791659;0.06809537;0.028468134;0.044593986;0.18927728;0.1161642;0.13029148;-0.055641506;-0.048155934;-0.008108268;-0.21031706;0.124970905;-0.021909392;-0.31409425;-0.21181068;0.029104676;-0.02260355;-0.28535107;0.088066965;0.11153769;-0.1396593;0.025659857;-0.02191699;0.14677949;0.03259328;-0.26658425;-0.03730255;-0.090592496;0.108047836;-0.022286078;0.060427066;-0.052382644;0.012600765;0.04220177;-0.097719766;-0.051915087;-0.1050758;0.13924825;0.16893286;0.058805417;0.1518964;0.10007688;-0.04322529;-0.063725814;0.017471815;-0.10412573;-0.12940173;-0.13319324;-0.0038815665;0.04439883;-0.25724125;0.014243292;-0.05820165;-0.069713965;0.108274356;-0.0050363443;-0.051874425;-0.27199388;0.123966075;-0.06445919;0.05598032;-0.046640605;-0.044614572;0.1368261;0.06700169;0.23605421;-0.03693659;-0.17768766;-0.10273767;0.12336753;0.018340213;0.030905489;0.006649095;-0.011786048;-0.11711923;0.04684978;-0.02210419;0.14669561;-0.059868522;0.067830406;0.09801357;-0.029480254;-0.0056547173;-0.053790465;-0.09942256;-0.018308833;-0.059718627;0.020738052;-0.048050985;0.107760884;-0.07404155;0.13550946;-0.07416305;0.053366385;-0.104688704;0.1241206;0.08040394;-0.14652309;-0.0014480633;0.14963248;0.15575878;-0.016457561;-0.1637538;0.0035674814;-0.3047584;0.01812861;-0.014171979;0.016777502;-0.008335529;0.012707694;0.12769361;-0.010985847;0.15877058;0.24450101;-0.027847897;0.16325808;0.3814355;-0.03035142;-0.15205623;-0.06709294;0.036065858;0.009222361;-0.097132325;0.024752771;0.15302889;0.06387651;0.04226585;-0.032156833;-0.2580192;-0.15817906;-0.1755026;0.090709955;0.2002659;0.29095185;0.06438725;0.22488324;0.10430954;-0.041583914;0.16269188;0.005839934;-0.27661186;-0.057001576;0.19827624;-0.05077418;0.016215716;0.0053588287;0.36762893;0.09071759;0.19999819;0.01604455;0.16013353;-0.2523632;0.015257823;-0.35080853;0.17716874;-0.06339379;-0.17696068;0.039326865;0.057906307;-0.023184974;0.067507006;-0.23242521;-0.3710744;0.18311366;0.015402428;-0.16421393;-0.19008923;0.0071688876;-0.055427045;-0.23805133;0.26041222;0.063915476;0.028955726;0.20959328;0.0099878935;-0.01699122;0.08603919;0.14279848;-0.034936793;0.28566465;0.09027681;-0.121153325;-0.18742788;0.09326073;-0.15932351;0.066450566;0.041438174;0.12851912;-0.02439271;-0.3860151;-0.13705917;-0.044157777;-0.22494325;-0.007835055;0.11782352;-0.08079838;-0.051423915;-0.05673528;0.17830276;-0.10935806;-0.040987488;-0.0021292106;-0.006838652;0.2296918;-0.017876903;-0.1671024;0.19735312;-0.20067608;0.13033941;-0.02231888;0.040901158;0.061269637;0.030131837;-0.05623064;-0.09693406;0.044969898;-0.14416908;-0.008691092;0.031675268;0.11737108;-0.0871192;-0.008561622;0.04581787;0.1261497;-0.40245244;-0.041629106;0.15874785;-0.18593723;-0.004504425;-0.39769956;-0.037006482;-0.1286046;-0.043493014;0.013902178;0.023210935;0.11073173;0.17852564;0.034782853;0.025028002;-0.011184768;0.17800823;0.04812597;-0.11327758;-0.15786722;0.19194166;0.13538164;-0.30132595;-0.02652264;0.402559;-0.10382668;-0.07569612;-0.037217684;-0.10063602;-0.18050656;0.033151727;-0.121330805;-0.007800748;0.026224723;-0.042026147;-0.023956558;-0.03364831;0.06274737;0.014518989;0.035314657;-0.17407061;0.05051334;0.030723192;-0.17890427;-0.032155994;-0.061833624;0.15779142;0.23207656;-0.02195968;0.05139088;0.039506022;0.0246203;-0.049958933;-0.02560101;0.38546675;0.17329659;-0.23471785;-0.09911699;0.18069865;-0.07044119;0.014736012;-0.201281;-0.12194963;0.046469204;0.114514954;-0.15452833;0.03900959;-0.029631326;0.13703623;-0.16200438;-0.0046796566;0.35227665;-0.04235397;-0.030066436;0.045936618;-0.019738162;0.29102355
0.04136143;0.053709283;-0.017330881;0.080655135;-0.037569303;-0.0506872;-0.3039913;-0.25629917;0.021777231;-0.23767835;0.038502317;0.17974949;0.08390108;-0.035838;-0.34000513;0.0059845666;0.2805873;0.2650378;-0.020991245;0.056510385;-0.063028455;0.009506646;0.06031199;0.11641355;-0.06422732;-0.04152358;-0.044604678;0.19877043;0.04770127;0.1459792;-0.19920298;0.06924457;-0.06102332;0.23922381;-0.02832657;-0.33651784;-0.1621097;-0.18779713;0.11135334;-0.12047723;0.019656973;-0.019079538;0.18660164;0.08240972;-0.018393941;0.0729945;0.007023568;-0.17072548;0.117996864;-0.054575764;0.01001524;-0.3017321;-0.12324636;-0.03927523;0.038500898;0.07903939;0.03645555;0.16832171;0.08899952;-0.04884988;-0.0503234;-0.086939745;-0.051011767;-0.16432466;0.047597345;0.09537189;-0.0034108763;0.053216953;0.19008186;0.03629038;-0.0809117;0.048940636;-0.026409222;-0.078554615;-0.11580758;-0.021679854;0.06940365;-0.09036843;-0.0863777;0.0044657486;-0.065793596;-0.06993933;-0.03145953;0.08299077;-0.047206435;-0.06168764;0.074173644;-0.06377031;0.0017490517;0.04127628;0.049793586;-0.09942468;0.064942986;-0.07309986;-0.18506426;-0.06576319;0.16453248;0.11118425;0.099962294;-0.063577734;-0.003383683;0.33856234;-0.109459;-0.0402542;-0.105406426;-0.011083832;-0.020438801;0.2464881;0.06714973;0.023596894;-0.23785584;-0.09278762;0.011481103;-0.34284347;-0.22565542;-0.048690386;-0.35400653;-0.01753582;0.055494398;-0.03006822;-0.15634502;-0.013852095;-0.0436737;0.0072054714;0.03806058;-0.0042359116;0.093851574;0.07862233;-0.0656475;-0.04465189;0.12513673;-0.06510204;-0.27804986;-0.089133106;0.011448658;-0.13919273;0.052266415;0.09184995;-0.0011861041;-0.002554408;0.018462;0.09125332;-0.12364122;0.021684254;-0.03230671;0.11077723;-0.13162225;-0.06610108;-0.15564713;-0.07896863;-0.048574876;-0.1615943;0.08211397;0.005084352;0.009862516;-0.052160043;-0.036867842;0.11771427;0.3453801;-0.2135803;0.29763776;0.0056747864;0.034761667;-0.021010872;-0.025554623;0.014032251;-0.10811481;-0.034095656;0.01860746;0.041796654;-0.07506719;-0.06333143;9.8745906e-05;0.12156699;0.1902788;-0.18036784;-0.035797298;0.026970897;0.14153372;-0.024111904;-0.024355367;-0.12876147;-0.16160403;-0.18635358;-0.14910328;-0.005288033;0.084634855;-0.19374709;-0.04301421;-0.035272513;0.04643737;-0.011907208;-0.09997224;0.04306138;0.029814344;-0.13985746;0.18227546;0.30449313;-0.021356715;-0.028061174;0.16538922;0.068646334;0.08332804;0.07888802;0.2859957;-0.02201288;0.07792738;0.009934265;0.0592071;0.07137537;-0.024221396;0.034031797;-0.033773903;0.042152118;0.15307179;0.008298069;0.1686599;0.16315712;-0.27448124;0.050735053;-0.051094722;-0.09835891;-0.22920446;-0.031903483;-0.08781878;-0.046703063;0.02087253;0.26616302;-0.046208464;-0.18093055;-0.14370179;0.07939786;-0.12545162;0.108415276;-0.050920375;-0.060073588;-0.114322;-0.03709651;-0.019667702;0.11013602;0.21605758;-3.5172874e-05;0.05318245;-0.14925455;-0.048958216;0.056423616;-0.03787002;0.08286919;0.14186482;-0.21872832;0.08427466;-0.202827;0.03608851;-0.23556384;0.096781656;0.024357568;-0.14094776;-0.020227995;-0.06543076;-0.36705673;0.002809307;0.00832746;0.4427165;0.2553092;0.05680749;0.14320472;0.297489;0.22925568;-0.15459502;-0.30566382;-0.057532195;0.101265654;-0.0014952597;0.24851942;0.13843854;0.011375736;0.044591468;0.059548344;-0.20411278;0.31721082;0.19214101;0.22121494;0.03873505;0.04553789;-0.040557466;-0.2775446;0.0807664;0.054389585;-0.399095;-0.2037803;-0.08131155;-0.038443573;-0.24904405;0.08937576;0.07582201;-0.1932091;0.044971023;0.05949931;0.112226054;-0.05692192;-0.25092053;0.025480226;0.033722673;0.110679545;0.030562252;0.01766882;0.08227738;0.033678915;0.006246163;0.048447575;0.07113001;0.03436261;0.023377229;0.013873935;0.08720717;0.293095;0.18155679;0.016006107;0.09952315;0.022731625;-0.087223455;-0.01978348;-0.21109942;0.07735743;0.024854451;-0.24162701;0.007806352;0.043545857;0.043990534;0.13149227;-0.029054698;-0.049452696;-0.3660314;0.0910362;-0.059411887;-0.06013753;-0.30470562;-0.026193544;0.050341442;0.024307929;0.20217524;0.044871997;-0.14660247;-0.025223302;0.01760823;-0.05338145;0.02915768;-0.049972873;0.02995935;-0.17428449;0.02152205;-0.0011996649;0.23695049;-0.15708472;-0.055468567;0.12352545;-0.106660746;-0.10602324;-0.028469043;-0.09342282;0.014199724;-0.25552648;0.011284418;-0.035487022;-0.012774186;-0.06047067;0.13708316;0.022637459;0.064955;-0.12592563;0.059899315;0.033944946;-0.23686771;-0.029134165;-0.011286869;0.08716247;-0.15292843;-0.21199733;-0.06698298;-0.41771263;0.02059503;0.02464653;-0.045106303;0.025911978;-0.049582466;0.021734316;0.0037947597;-0.013783841;0.17406784;0.04020932;0.23100668;0.505086;-0.02671577;0.0034920715;0.006817439;-0.18558474;0.038844112;-0.261429;0.03150965;0.22024944;-0.064667426;-0.11148701;0.063817956;-0.05285184;-0.09746861;-0.15965839;0.045666683;-0.028809128;0.31501684;0.2197709;0.25616118;0.049151357;0.028303497;0.10224152;0.03244402;-0.08741687;-0.0011022616;0.122903995;0.07012187;0.04571917;0.011736614;0.20956294;0.10841243;0.110488705;-0.013405389;0.1154798;-0.29360053;0.025973016;-0.077170916;-0.12526414;0.0063378694;-0.21609335;0.008843755;-0.0048806723;0.043420553;0.058733296;-0.015351783;-0.24487703;0.113920674;-0.060098488;-0.15743618;-0.10336095;-0.07341336;0.013427555;-0.036842138;0.32307407;0.14169429;0.1622914;0.066329524;-0.099562794;-0.07429668;0.0851552;-0.009084107;-0.024729326;0.30539337;-0.06475563;-0.009092048;-0.20679529;0.07468543;-0.124709554;0.087241165;-0.08118531;0.16211042;0.046777718;-0.4523076;-0.13058518;-0.06537357;-0.21576728;-0.04472296;-0.07136501;-0.04115079;0.103556365;0.04834733;0.2709772;0.11027362;-0.0066731353;-0.016550735;0.066070125;0.13983008;-0.02910318;0.031374566;0.19622488;-0.063453756;0.26336417;0.011956887;-0.07572309;0.13906394;0.14265096;-0.108772516;-0.061138988;-0.029376663;-0.2595127;0.03927713;0.02870203;0.13155092;-0.04680477;-0.015009363;0.018939348;0.11492793;-0.14752811;0.037633747;0.05990857;-0.1726298;-0.009504933;-0.22172493;0.04933607;-0.08480842;-0.036740102;-0.033872135;-0.009628581;0.08384149;0.103953145;-0.037414644;0.17214784;0.025376603;0.21437177;-0.0678242;-0.09081357;-0.14822003;0.37210804;0.0076808836;-0.17129977;0.011243152;0.32402888;0.01860242;-0.07348261;-0.038709458;-0.07867792;-0.18852271;-0.006846562;-0.08638375;-0.009248455;0.040074557;-0.055313643;0.051560696;0.022785712;0.15602043;-0.030129667;0.04209154;-0.31423226;0.034780543;0.09167978;-0.2481785;0.06187319;0.041628998;0.024018444;0.3004532;0.001744719;-0.061085425;-0.054468684;-0.019152781;-0.18813199;0.0137018245;0.35576442;0.15972309;-0.109604046;-0.058095213;0.10748934;0.061378814;0.0111578535;-0.21424212;-0.035474356;0.19860533;-0.012202476;-0.28191954;0.044521168;-0.0010093136;-0.045401115;-0.13056795;-0.016558517;0.20899141;0.15866788;0.024720943;-0.039038304;-0.0418922;0.047240574
0.17186809;-0.090308994;-0.08800755;0.113897435;0.045066915;-0.047713313;-0.4126879;-0.428947;-0.06650462;-0.04474588;-0.025624594;0.06869998;0.14069606;-0.10093886;-0.2818643;-0.066605225;0.22630912;0.27486944;-0.20256695;0.08817586;0.10362483;-0.016137771;0.22015066;0.034504373;-0.06620724;-0.060131744;-0.060982183;0.22669895;-0.048511103;0.10522123;-0.18287061;-0.04623567;0.0073723015;0.35843307;-0.020409718;-0.42542982;-0.046314016;-0.1268208;0.17303492;-0.21929497;0.01779456;-0.010064593;-0.035132192;0.059967447;0.04034102;-0.0809451;0.008843124;-0.18413499;0.022222312;0.0458791;-0.035038233;-0.24737199;-0.053273313;0.0008095725;0.027757198;0.09696426;-0.008392554;0.062266372;0.0098491935;-0.02127737;-0.0058993143;-0.12503839;0.036143128;-0.025999734;-0.27955174;-0.02483799;0.03390966;0.103452235;0.15676986;-0.0013126569;-0.023348609;-0.01032435;0.034346104;-0.08065837;-0.13340083;0.14762944;-0.024746334;-0.26408163;-0.0529963;-0.021949522;0.038449064;-0.07496159;-0.011750998;0.00371733;0.04680996;0.025115788;-0.07141419;0.054975614;-0.0034368446;0.035064623;0.0150104845;0.023778424;0.11255689;-0.059733834;-0.01406993;-0.20817177;0.12813465;-0.01669331;0.072438955;0.028076984;0.004130601;0.21621053;-0.15337557;-0.0354861;0.065620705;0.08130706;0.057599854;0.01894962;-0.07344652;-0.000575952;-0.09887737;-0.037258573;0.14016283;-0.1751022;-0.08348911;-0.034749106;-0.20680806;0.045633387;-0.019486297;0.058958724;-0.2330957;0.023762733;-0.20402558;-0.02926711;-0.0025723532;0.01606381;0.12247124;0.21823078;0.037205912;-0.047124635;0.09902593;-0.3060708;-0.3721378;-0.12816533;-0.06655572;-0.13726923;-0.049075995;-0.09799755;0.0774926;-0.038709898;0.05566009;-0.053541683;-0.122289404;-0.09612419;0.034554612;0.19923879;-0.23639898;-0.021112392;-0.013340445;0.14865656;-0.0464121;-0.14559233;0.046699658;-0.10495133;-0.030018846;0.012241495;-0.004515435;0.07476045;0.35985893;-0.27827153;0.17496076;-0.057403296;-0.025947517;0.018351935;-0.012297668;0.08647419;-0.14039542;0.04698165;0.062155824;0.23404168;-0.09849536;-0.022254687;-0.00918692;0.197905;0.11002883;-0.2119405;-0.051722903;0.039797027;0.14380576;-0.006648094;0.053956438;-0.10565746;-0.04179948;-0.03992986;-0.022200694;-0.020865435;0.08285708;-0.16145621;0.039071247;-0.049578052;0.11907696;0.014893541;0.12694773;0.048957877;0.0435129;-0.12372341;0.17387858;0.06107252;0.09893822;0.062053688;0.17006634;0.12655194;0.34567434;-0.044066265;0.26413563;0.03536647;0.057131194;-0.023224363;0.19045694;0.13138005;0.03640821;0.090997525;0.037350632;-0.012711145;0.24108885;0.028100075;0.040119838;0.14246482;-0.13006867;-0.009197196;0.027516868;-6.672379e-05;-0.24637286;-0.046674833;0.056162667;0.012647471;-0.046451036;0.29531226;0.02324738;-0.04600135;-0.16767043;-0.052597713;0.10814013;0.06804743;-0.15892452;0.08309183;-0.15964402;0.04775686;0.12138459;0.0008195962;0.28386784;0.026885036;0.006782278;-0.14536777;0.14320658;0.07039061;-0.016800165;0.0037389817;0.26738936;-0.2884882;-0.04214328;-0.40618688;-0.01665076;-0.098679364;0.17818478;-0.06711108;-0.13601606;0.032902293;-0.09316209;-0.41072243;0.024494883;0.050046135;0.3630193;0.3850906;-0.051431745;0.100008875;0.28879127;0.085984185;-0.020891173;-0.13734381;-0.20098013;0.2259021;-0.026034262;0.23824787;0.08749681;-0.046551824;-0.040364653;-0.070264466;0.052678507;0.37118137;0.18022;0.19277312;-0.09702666;0.10949079;-0.14182216;-0.114778906;0.10568004;-0.07160141;-0.45881718;-0.17315698;-0.0053299037;-0.012588561;-0.2444099;0.049587738;-0.04736908;-0.30471835;0.06550311;0.048213053;-0.049676154;0.024039874;-0.2521098;0.047614165;0.013383686;-0.024135401;0.0017549412;-0.028058542;0.0066025895;0.0020250073;-0.046046767;0.008230663;-0.06664658;0.05341972;0.061293874;-0.13574882;0.067069806;0.36206007;0.19737576;-0.06816947;0.16060351;-0.009091604;-0.028772729;-0.052095607;-0.008133336;-0.074399546;0.03434567;-0.27950287;0.03289945;-0.0073479502;0.048246883;0.22142902;0.021700032;0.10450497;-0.31414035;0.11768868;0.07200805;-0.047562104;-0.20151243;8.760376e-05;0.06443778;-0.066600055;0.22448967;0.005930152;-0.15030739;-0.1120143;0.11285544;-0.084685996;-0.06643236;0.010554212;-0.007093104;-0.12785168;-0.036711402;-0.008936838;0.18659706;-0.15987289;-0.036444623;0.07775463;-0.055049293;-0.0144794155;-0.05718571;0.054289456;-0.011845475;-0.034415975;-0.04234176;0.07710877;0.019652052;-0.088290475;0.12629737;0.021284297;0.06088797;0.03727818;0.014523647;-0.028660873;-0.15171798;0.011511385;0.20286876;-0.016620023;-0.28087726;-0.31590763;0.01048974;-0.43316075;-0.017285172;-0.013294939;-0.008443039;0.075232126;0.068314634;0.033213824;-0.0056064166;-0.08012543;0.06981234;-0.13466659;0.1054999;0.37469736;-0.050553866;-0.03335681;0.008004364;-0.08572931;-0.051420465;-0.14732215;-0.015483912;0.36463937;-0.0043518217;-0.06354245;-0.011335782;0.11222035;-0.1773597;-0.24423403;-0.06896838;-0.058769885;0.26542312;0.13618053;0.39923233;0.103343435;-0.019781733;0.21900687;-0.028294243;-0.10403075;0.05799859;0.09190653;-0.0416075;-0.02029214;0.014866766;0.24686314;0.0952264;0.03514892;-0.024505863;0.211655;-0.21126455;-0.0002921793;-0.0575919;-0.2936858;0.00626969;-0.2679236;-0.054217905;0.019574352;-0.011335344;0.0354167;-0.091700755;-0.35175118;0.26197052;0.03497073;-0.13265137;-0.09837734;-0.17531428;0.029884396;0.0032716007;0.14680572;0.108603135;0.13031787;0.07368793;-0.13892834;-0.08158548;-0.10379006;0.01862957;0.051768437;0.18462716;-0.06261639;-0.114201486;-0.1805759;-0.09000538;-0.19067135;0.011633767;-0.0031231162;-0.057871453;-0.0052645165;-0.25888938;-0.07020062;-0.20276587;-0.22745737;-0.18403675;0.022211965;-0.012421437;-0.06735067;-0.011558807;0.35892853;0.054665796;0.05482347;0.047263607;-0.0086902445;0.28109372;-0.059421785;-0.028874705;0.009571051;0.13670726;0.11819543;0.039119285;0.029435314;-0.08032257;0.032120764;-0.034051318;-0.19727749;0.056331385;-0.1352053;0.073642135;6.825379e-05;0.12700514;0.0665159;-0.111037366;-0.03229148;0.044789053;-0.08848469;0.040737808;0.06357909;-0.14452352;0.022607809;-0.1462981;0.00055879523;0.022949954;0.029380146;-0.009097693;-0.022955172;0.022418922;0.027036324;0.02807732;0.10052077;0.0011229687;0.15466619;0.033694938;-0.13589065;-0.1227269;0.2518053;-0.07535865;-0.12490349;0.013949728;0.13576302;0.00988841;-0.10478376;0.009384935;0.010577448;-0.21576355;-0.051500436;-0.042026892;-0.011314698;-0.05873971;-0.120692074;0.17578332;0.04491143;-0.038489908;-0.002166362;-0.045894578;-0.12432189;0.013469156;-0.047767647;-0.018541029;0.032357793;0.013443444;-0.13671936;0.2397295;0.06218047;-0.03534342;-0.0061567933;-0.009056421;0.021843843;-0.064934395;0.37364933;0.055272806;-0.18540286;-0.045497656;0.1488489;0.13318525;0.04382378;-0.24491146;-0.060656995;-0.03134203;0.039442446;-0.16972953;-0.12580974;-0.029326275;0.11996366;0.019191261;0.0017424356;0.2813883;0.38057497;-0.035502695;-0.0050042206;0.059766036;0.08626269
0.111622185;-0.06117453;-0.048521373;0.080611706;0.0016283272;0.0033546716;-0.25913227;-0.31188598;0.046983;0.09353434;0.029960638;0.17552221;0.031256914;-0.07626523;-0.15957384;-0.009649892;0.084941685;0.3151278;-0.1499345;0.07264162;0.15372834;0.033990983;0.16873656;0.19723192;-0.045781903;0.06524836;0.036379002;0.27905765;-0.035689536;0.16652861;-0.04959179;-0.038322907;-0.035600565;0.15784755;-0.16644306;-0.4605627;-0.12621024;-0.19097945;0.2030159;-0.18527365;-0.05892244;0.0292692;0.15141524;0.058614977;-0.03020333;0.06962347;0.022188013;-0.0404126;0.1501547;0.024803298;0.009978678;-0.13174105;-0.14279975;0.032106772;-0.07575333;0.12181637;0.007986296;0.09471308;-0.079524435;0.023001358;0.01335674;-0.21381333;0.033528425;-0.054868698;-0.0062094126;0.049570642;-0.009957708;0.05385538;0.034740675;-0.0038443606;-0.05802043;-0.05966075;0.043161657;0.0181912;-0.27012593;0.11181402;3.4634548e-05;-0.13881914;0.0030601588;-0.015352737;-0.033873152;0.043096278;0.2132753;0.032715585;-0.045894105;0.119474985;-0.027361417;-0.06045614;0.006671282;-0.05652782;-0.053433243;0.14460449;0.08538454;0.07733894;0.07208311;-0.06899439;0.09083307;0.14351031;0.058234252;-0.16486594;-0.016445376;0.33489937;-0.22497441;0.0189311;0.11340405;0.041885674;-0.07387109;0.054188192;-0.040099744;-0.02377307;-0.07139432;-0.029148236;0.2925765;-0.07204512;0.06846831;-0.05789375;-0.20579386;0.089656055;0.01005225;-0.028326906;-0.18078922;-0.0411157;-0.0774316;0.007609641;-0.012886582;0.020545036;0.03577031;0.1561618;0.010909941;0.00643663;0.1984494;-0.17897199;-0.24745288;-0.2155446;0.05675849;-0.1568346;0.009926397;-0.16041207;-0.063512504;-0.03722125;0.006234669;-0.066161364;-0.14419638;0.11025785;0.014795317;0.0779993;-0.2264635;0.038745426;-0.06369155;-0.10045209;-0.0020613773;-0.10665527;-0.010103543;-0.07084369;0.025460325;0.05166587;-0.015492405;0.1870054;0.45082146;-0.34053403;0.14892264;0.023174645;0.025942339;-0.0394138;-0.018981079;0.05740979;-0.17113952;0.026338736;0.01153345;0.18369323;-0.04566365;0.065689154;0.05720696;0.17025913;0.13689303;-0.30585515;0.06926782;-0.031491194;0.10882149;0.00020222497;0.07566054;-0.26875874;0.13411888;-0.20405646;-0.12889034;0.12831807;0.10138354;-0.2282685;-0.13686118;-0.010752919;-0.06368441;-0.012964667;0.01454279;-0.03670731;-0.08144925;-0.11256227;0.1988099;-0.08524249;-0.016891833;0.0041001993;0.060211085;0.089607306;0.2624972;0.049905222;0.41345873;0.0009775702;0.20221587;0.023522863;0.14233105;0.09662312;0.13397357;0.11102055;-0.049502745;-0.036723476;0.1375142;-0.048185762;0.19250368;0.08128151;-0.0876103;-0.051003132;-0.016543586;0.071927;-0.13082176;0.028757546;0.06158822;-0.011915133;0.008037323;0.09343891;-0.015600735;-0.0469429;-0.15800336;0.05843702;0.09525763;0.14115632;-0.006231462;0.15103544;-0.33729467;-0.0124427155;0.098075695;-0.11606026;0.2761761;-0.05426073;-0.018620502;0.10990277;0.033589706;0.025017155;0.0076260963;-0.04011948;0.17985842;-0.3955073;-0.02527669;-0.32045645;-0.089951746;-0.062495068;0.01962933;-0.013823014;-0.12833112;0.037491392;-0.06064531;-0.43106872;-0.024004312;0.04430442;0.26997903;0.20470509;-0.00238004;0.17832059;0.10411953;0.06663229;-0.12871973;-0.13500169;-0.23135209;0.19699451;0.07060171;0.043663222;0.081243075;0.045023907;-0.017277544;-0.061131943;-0.099542424;0.37351546;0.017691592;0.2952561;0.10439273;0.09128936;-0.05781141;0.045374364;-0.07038009;-0.0836989;-0.38754094;-0.11574871;0.031151455;0.1521246;-0.08838589;0.06640856;0.024236731;-0.19375274;0.053118933;-0.024333015;-0.22250646;0.029727468;-0.18646184;-0.03884691;-0.0052267686;0.040636536;-0.052417114;-0.0075691333;-0.028505972;-0.016200494;0.004716251;0.031553015;-0.044005927;-0.006932167;0.02605265;0.055428762;0.0715107;0.26062492;0.19690774;0.016258676;0.02798281;-0.13024327;0.079124056;-0.0067404006;0.14398539;0.010300934;0.03936226;-0.121360384;-0.016432995;0.05484565;-0.020734934;0.08916512;-0.044347774;0.09537354;-0.46846035;0.28438196;0.1084235;0.04463994;-0.2260794;0.023642924;0.09698604;-0.016476715;0.12753585;-0.078801915;-0.09357759;0.049374267;0.23623896;-0.051158275;-0.03427926;0.00847976;-0.0661646;-0.12001517;-0.027003702;0.21388826;0.16180736;-0.15565003;-0.0067631165;-0.08366511;0.057690397;0.054739643;-0.105613895;0.018683504;0.028363626;-0.054985538;0.050726924;-0.0008774068;-0.04742675;-0.08023787;0.060962874;-0.020558625;-0.01655555;0.10237461;0.0053383205;0.008469333;0.023491709;-0.0041229543;0.1107732;-0.10274267;-0.3876005;-0.2592906;0.0038082937;-0.4448702;-0.05014532;-0.002760556;0.030761454;0.19850965;-0.048077088;0.048756342;-0.03605647;0.052453775;0.1075382;-0.021874072;0.28236037;0.38969752;-0.033740956;-0.0920663;0.0023631763;0.0022810241;0.039644856;-0.12151411;0.020168358;0.41768727;0.049671404;0.003161992;0.00542239;0.03439199;-0.116858765;-0.22054763;0.114959374;-0.12638919;0.28496912;0.21902357;0.32842064;-0.028362613;0.045370527;0.22175752;-0.0027172447;0.036423486;-0.040402222;0.02584951;-0.018420095;-0.014014487;-0.019932156;0.20656446;0.1675466;-0.026699133;0.05688658;0.2074409;-0.21252769;0.01686918;0.06593184;-0.29638636;0.047532413;-0.060030144;-0.0053233863;0.0745696;0.00552468;0.05113162;-0.011651204;-0.41456306;0.24739935;0.033640932;-0.097652435;-0.05275569;-0.06441283;-0.063380316;0.15215448;-0.03220033;0.07215723;0.023861004;0.010179791;-0.18149161;-0.22488691;-0.12681709;0.13117445;-0.021976914;0.11191987;0.04876121;0.009004538;-0.08434332;-0.06845117;-0.27057746;0.1360391;-0.06442559;-0.08251993;0.062849246;-0.38621414;-0.036296554;-0.3289445;-0.16120777;-0.3039169;0.034315143;-0.011979592;0.09921346;-0.0075225607;0.40887985;-0.021629438;0.047707215;0.009163418;0.019905021;0.2740703;0.08110273;0.06354335;-0.023143668;0.0699807;0.13978963;-0.0016183031;0.05722293;-0.21094465;0.03382228;0.050091974;-0.06368277;0.037022077;-0.2035175;0.15474121;0.12495407;0.024100032;-0.015595566;-0.10798834;-0.008429768;0.10931962;0.025982572;-0.039992668;0.082056075;-0.14738096;0.046323624;-0.004820848;-0.026612014;0.016204808;-0.066667534;0.035848204;0.024517592;0.09176403;-0.09377913;0.005685817;0.20890984;-0.022543143;0.28097603;-0.015863286;-0.026876796;-0.007333421;0.160992;-0.085857406;-0.05456266;-0.0724669;-0.047802057;0.13125087;-0.09345848;0.10316598;0.066683576;-0.18654473;0.02610742;-0.06736522;-0.014089971;-0.005462974;-0.009654319;0.09328247;0.0069539384;0.0097055845;-0.024409525;-0.008086471;-0.038567808;-0.06648078;-0.032839853;-0.19586463;-0.03945355;-0.004939338;-0.022802975;0.40707517;0.0112657305;-0.1227378;-0.10677526;0.045091808;-0.08259497;0.06228;0.28683403;-0.12374278;-0.2445384;-0.04690045;0.10391032;0.09935579;-0.065687366;-0.08078924;-0.14175147;0.022957336;0.021022333;-0.1229949;0.10373097;0.004828947;-0.017232422;-0.032706212;-0.012616266;0.21688691;0.3177348;0.09252078;-0.004759732;0.03254066;-0.011164936
0.048319302;-0.03673103;-0.16769412;-0.0751841;0.053597033;-0.021091223;-0.25013027;-0.079987474;-0.020958124;0.15916814;-0.045155957;0.12130939;0.08439409;-0.08723077;-0.30832925;-0.07242488;0.07118123;0.048534464;-0.03019882;0.11048822;0.13553125;-0.022334693;0.037816156;0.10297656;-0.064081796;0.04048771;-0.016706735;0.25880453;0.0103049055;0.1871014;-0.096739136;0.08592969;-0.019002434;0.09996319;-0.057017557;-0.28185502;-0.00072987843;-0.05431606;0.11020111;-0.05672465;-0.04191109;-0.02330812;0.0014349094;-0.05677814;-0.0050650816;0.041549843;0.015560104;-0.017911045;0.21343586;-0.02084484;-0.029059077;-0.057873376;-0.05727437;0.0488344;0.02270419;0.14554918;0.05201114;0.12521651;-0.02082001;0.023112698;0.02150883;-0.27031675;-0.06757765;-0.015962824;-0.010594438;-0.03448234;-0.07117638;0.17959961;-0.08969939;0.016148161;0.057672177;0.041558966;-0.059696626;-0.024026863;-0.19227423;0.17337169;-0.026588041;-0.19111425;-0.03061788;0.03286236;0.00868939;0.10503573;0.22166026;0.12159822;0.02774387;-0.0017862526;0.019121956;0.036539827;0.005699279;-0.032897633;-0.072107576;0.010778281;-0.014764399;0.021984158;-0.05464331;-0.10399224;0.19729306;0.017052868;0.003785977;-0.14682688;0.037728183;0.17780535;-0.24759641;-0.046753332;0.019820714;0.14358655;-0.016346063;-0.035282;-0.095427066;0.01619557;-0.005166183;-0.016285954;0.28900164;-0.3000635;0.14190173;-0.03372267;-0.0668914;0.11638031;-0.0011507281;0.090312764;-0.2903943;0.005386028;0.12760706;-0.02057325;0.014367342;-0.004933849;0.007942873;0.13405333;-0.023908246;-0.107481316;0.1224842;-0.14654966;-0.1345752;-0.20668858;0.0517147;-0.035562664;0.04485163;-0.028781412;-0.04443725;0.04530078;0.12995376;0.09129683;-0.22242032;0.027432492;-0.036854688;0.14877595;-0.1642684;0.046613213;-0.14373147;-0.05244813;0.04389775;-0.048725702;-0.051407676;-0.010792555;-0.012076353;0.01619003;0.044830013;0.13025175;0.42516732;-0.2064371;0.15813145;0.01746568;0.12132079;-0.0006805057;-0.03723923;0.11973112;-0.012500462;-0.078689426;-0.19384442;0.14928408;0.03649325;-0.049013976;0.017196592;0.013803615;0.10904018;-0.102603175;0.045146532;-0.047039144;0.11399843;-0.021935802;-0.040104024;-0.14395097;-0.012931957;-0.19757296;-0.09058075;0.075647764;0.009977453;-0.18571493;-0.19192371;0.033642802;-0.117775716;-0.028989494;0.20383832;-0.044015452;0.023993263;0.016550737;0.2591343;-0.011564215;-0.09632201;-0.032228433;-0.14414573;0.0042894958;0.4806067;-0.044912383;0.3507346;-0.02023093;0.08089764;0.015963344;0.10591955;0.05334979;-0.009933789;0.10784072;0.030631026;0.037050374;0.11293878;-0.0039295587;-0.03945458;0.12486461;-0.10825869;0.017775808;-0.069819264;-0.104640596;-0.06979085;-0.0050247875;-0.04807264;0.029514521;0.018215511;0.100800544;-0.0013145641;-0.013043714;-0.29530114;0.0048947413;0.033082683;0.08767761;-0.1365156;0.24001548;-0.3774524;0.05054387;0.09933353;-0.006039829;0.37268254;-0.05501938;-0.035094734;0.01641465;0.16064593;-0.006468873;0.05782036;0.012177116;0.093546875;-0.2799121;0.0120202135;-0.53347075;-0.09731776;-0.084697664;0.22104114;-0.0013183191;0.0127710095;-0.01029993;-0.05556458;-0.33655685;0.054688644;-0.03472793;0.31838533;0.39387947;0.0603667;0.078264214;0.22783461;0.06355819;-0.19836137;0.03069147;-0.04742832;0.06852258;-0.06805713;0.051177744;0.032280445;0.011016433;-0.048484843;-0.25795498;-0.07070532;0.3405575;-0.1300003;0.35941356;0.040643927;0.07719889;-0.1511925;0.059324324;0.061201137;-0.23265825;-0.14904402;-0.19174841;0.064777434;0.06794468;-0.10395113;0.063145354;-0.026555646;-0.23505953;0.19240661;-0.014741382;-0.12344195;-0.031168237;-0.20308594;-0.012138663;0.020605186;0.08718655;-0.00029512052;0.029330067;-0.02571882;-0.040034037;-0.060523055;0.050040178;0.07217689;0.06589162;-0.004620745;-0.031223629;-0.05225466;0.33028546;0.20386317;-0.002740025;-0.05311619;-0.030654576;0.1374217;-0.112312116;0.1134058;0.016418975;-0.043476053;-0.13454455;0.012914807;-0.018873703;-0.029332122;0.08194644;0.06874753;0.28119636;-0.42777827;0.23403904;0.1254744;0.02757403;-0.26304197;0.04321633;-0.14411587;0.032442622;0.034577496;0.054853544;-0.08740638;-0.11186078;0.21468502;0.03504874;0.046108916;0.04203313;0.0094757145;-0.18732736;0.058559988;0.19552894;0.027267205;-0.28821278;0.04458505;-0.1272626;0.06863368;-0.013413386;-0.15558761;0.021170149;-0.043438356;0.05312448;0.011730881;-0.0071394173;-0.02140796;0.11721755;0.15452912;-0.075103365;-0.060921125;0.22579162;0.062068075;-0.12535805;-0.1268022;0.005766861;-0.06039997;-0.14653729;-0.17652848;-0.20457336;0.06256104;-0.47364396;0.0048567145;0.0014465029;-0.00022065666;0.22610441;0.01415746;-0.05319049;0.03215541;0.057496402;0.1594981;-0.111524485;0.14803538;0.29140103;-0.016066486;-0.18015307;0.009592948;0.006509992;-0.036238737;0.0026259825;-0.049778532;0.31705222;-0.039651975;-0.12919271;0.15538101;-0.054824654;-0.1432892;-0.1572448;0.022984348;0.10006873;0.32879558;0.16602883;0.2440777;-0.2199765;0.010922793;0.20451093;-0.049492143;-0.08392388;0.02489717;-0.0121277105;0.004309735;0.041992433;0.03224678;0.119105354;0.12959585;0.010346668;-0.07425657;0.080898516;-0.34120896;-0.014048761;-0.038002912;-0.19025636;-0.016816322;-0.11417109;-0.009704441;0.06026599;-0.043184165;0.08083384;0.1188767;-0.45061144;0.19549261;-0.033919863;-0.16960254;-0.10312543;0.11222266;-0.003348573;0.020523604;0.055911113;-0.11107283;0.03683987;0.17276685;-0.093042016;-0.2624499;-0.055362634;0.16351937;0.031589646;0.25393155;0.055266436;-0.051335584;0.025507571;0.024939394;-0.20504461;0.10328395;-0.02549048;0.09337991;0.01837562;-0.1794834;-0.23566155;-0.16304305;-0.29211682;-0.204861;0.18103789;0.03156836;0.18148845;0.0076835155;0.40997237;0.025816102;-0.06340969;-0.026188273;-0.013801262;0.29162082;0.012291725;0.07015366;-0.0318522;0.1896592;0.11616299;-0.049353503;-0.008382076;-0.15194155;0.12228287;0.118694566;-0.12488442;-0.048147574;-0.034461588;-0.03161314;-0.11815468;-0.16247092;0.012915401;0.056939326;-0.0038029489;0.050285365;0.05448712;-0.04923934;0.04955803;-0.31749874;0.007908622;0.053611163;0.01999129;-0.0069215763;-0.054785065;0.04979094;-0.048556574;-0.01439714;-0.11966068;-0.045587216;0.103446856;0.009579135;0.17391436;-0.01898411;-0.123628944;0.120406635;0.210822;0.100707166;-0.10566479;0.024911046;0.046126846;0.12719397;-0.17501402;0.041193068;0.19756038;-0.00042058452;-0.03921739;-0.027675634;0.054561708;-0.002947241;0.09165562;0.18309645;-0.009145511;-0.007678802;0.06862953;-0.04013745;-0.092120625;0.0039027862;-0.051146436;-0.072449744;-0.047544397;0.0036485228;-0.098288625;0.24164765;0.01219011;-0.116563536;0.060902767;-0.006122271;-0.090454414;-0.009874406;0.31632954;-0.13129167;-0.17389554;0.010395558;0.15624666;0.07605644;0.011618758;-0.15484571;-0.06805909;-0.081158265;0.06533114;-0.15235193;0.10869617;0.04142092;-0.081770256;0.019801253;0.032700498;0.05440852;0.20159373;0.06337746;0.006051497;0.0013012151;-0.07995373
0.03281417;-0.14886557;-0.23797365;0.08046525;-0.020424258;-0.021560034;-0.21956131;-0.018550795;-0.017214617;-0.016020479;-0.041044384;0.20050266;-0.035451327;-0.062943615;-0.2396485;-0.0529721;0.060552016;-0.016402254;-0.00028800487;-0.082107864;0.17754546;-0.026099283;-0.09186657;0.13221675;-0.048092015;-0.002354832;0.05221939;0.123141386;0.060157042;0.021245355;-0.11645475;-0.021802118;-0.12853496;-0.045735613;-0.17004336;-0.17003022;-0.09648699;-0.05904219;0.12796125;-0.14456253;0.025536982;0.0404626;-0.14519173;0.027740646;-0.028509302;0.13718025;-0.041453265;-0.26664665;0.18555334;0.061341766;-0.013444941;-0.06865914;0.015988205;-0.02760479;0.030740594;0.09230655;-0.025777433;0.07885807;0.004689024;0.100821584;0.012889139;-0.34529787;-0.0012046614;-0.056185707;-0.08056906;-0.13616358;0.023127895;0.11030145;-0.045305632;0.03646441;-0.09915391;-0.022489822;0.047992643;-0.04946996;-0.04513697;0.12883697;-0.0353093;-0.09492807;-0.07484827;-0.009418301;0.02542617;0.12133791;0.36588302;0.032815702;0.040949564;0.095078774;0.06258204;0.007593051;-0.034392074;0.03082329;0.052108668;-0.028500542;0.15353552;0.0759601;0.061608292;-0.089158684;0.30943763;0.13876401;-0.041699577;-0.12986498;-0.024173612;0.24101323;-0.19864212;0.043944836;-0.071710356;0.2018638;0.04035316;-0.203954;-0.04765847;0.0023544263;0.011873656;0.00651683;0.4102353;-0.25705224;-0.040523946;0.06548638;-0.054046102;0.1023682;-0.050364383;-0.033695426;-0.2298392;0.031678893;0.082794584;0.041856896;0.00390707;0.011003381;0.103697404;0.06570835;0.032325055;-0.29394546;-0.021736095;-0.1254208;-0.068124995;0.03118162;-0.026692469;0.0069725304;-0.07769735;0.15451786;0.050554376;-0.01470539;0.024507927;0.119206876;0.014914191;0.12155818;-0.010224614;0.18210073;-0.06909866;-0.07683534;-0.10796382;-0.02349052;0.038538437;-0.1272626;0.041683663;-0.019998748;0.010596236;-0.016408753;-0.048605528;0.07312369;0.34344596;-0.098367706;-0.006389375;0.020862728;0.08587993;0.059515502;0.060453836;-0.016887128;0.07276455;0.03588421;-0.17276295;0.027989913;-0.13250053;0.04294163;-0.024789866;-0.06499914;-0.0021321096;0.026553934;-0.03750479;-0.0026775186;-0.15963584;0.025182908;-0.042516712;-0.037763383;-0.05546201;-0.32783166;-0.27024576;0.057557113;-0.08662497;-0.21705578;-0.12797707;0.0136967525;-0.18436246;0.025817452;0.24488932;-0.041633278;0.011039035;-0.15222202;0.253307;-0.13276076;0.020575237;0.009536026;-0.076644324;0.04184604;0.45352575;-0.029458407;0.30243358;0.022618217;0.06958797;0.048082713;-0.0012492812;0.19712937;-0.005886813;0.09892868;-0.07319155;0.004242552;0.10332423;0.030676847;0.107621215;0.15077786;-0.1388411;0.10250869;0.080040626;-0.2334447;-0.0087251915;0.050415233;-0.027705774;0.023090867;-0.012018089;0.10415228;-0.046996463;0.06206063;-0.20563455;-0.027577704;0.19489615;0.16553888;-0.059778918;0.17240177;-0.33553097;-0.013481675;0.15988317;0.19155477;0.37149256;0.00911061;0.068630636;-0.0004956294;0.14732353;0.014851793;-0.03585892;0.038492195;-0.01594172;-0.27807954;0.017045759;-0.46658084;-0.2206272;0.04097987;0.24889487;0.026968831;-0.023683185;-0.0021493752;0.011558429;-0.13511567;0.041047234;-0.02207086;0.3063936;0.4738131;-0.0668322;0.06709713;0.30104348;0.04557982;-0.23640144;0.14053433;0.077251986;0.19879349;0.00058541226;0.03150247;0.033850446;-0.031571556;0.049233325;-0.08978188;0.009756176;0.519284;-0.04920948;0.27025047;0.19368458;0.2674006;-0.098475344;-0.04985764;0.1151578;-0.06322621;-0.17122081;-0.22500071;0.0061000534;0.11121358;0.03309894;0.047594864;0.11698994;-0.021394175;0.02943003;-0.017297236;-0.1550959;-0.015436026;-0.3330064;-0.002560602;-0.014521641;0.004279939;0.050371338;0.023932427;-0.024685243;-0.035463326;-0.017401978;-0.122418776;-0.011913113;0.21324478;0.032407366;0.031501777;-0.07300036;0.24265255;0.21898237;-0.0654218;-0.10452263;-0.039906934;0.15661794;-0.10460357;0.02379535;0.009367351;0.06676716;-0.0042571845;0.00281503;-0.006719493;-0.010347765;0.0233865;0.018005757;0.25966385;-0.119708285;0.12086453;0.051221512;-0.032936685;-0.08299265;-0.06767164;-0.13972482;0.009523689;-0.06538325;0.051222492;-0.1362992;-0.10468387;0.24200757;-0.038283687;-0.030730743;-0.068184845;0.009583958;-0.18022847;0.007757207;0.2618867;-0.052223824;-0.4431864;-0.03357454;-0.13800907;-0.003917441;-0.084297836;-0.022379553;0.1295813;-0.00076592946;-0.113342986;0.025008574;0.14406458;-0.24307564;0.06463433;0.18737341;0.15721875;0.10248554;0.22033255;0.13726048;-0.13873965;-0.0709547;-0.01690997;-0.024954919;-0.12981018;-0.14678559;-0.23976274;0.029516414;-0.24910095;0.03466975;-0.03928938;0.0011471323;0.18435699;0.012920926;-0.21791448;0.014597714;-0.13549307;0.05563024;-0.07610734;0.15172389;-0.07120722;-0.015377307;-0.08055374;0.0060636797;0.13837178;0.027524162;-0.25568172;-0.025441254;0.045995213;0.03529015;0.0038941656;-0.06164883;-0.20198186;-0.13379589;8.990167e-05;-0.09082701;0.06783872;0.41919366;0.18823653;0.15080431;-0.28472662;-0.025526874;0.24922372;0.04680023;-0.0011503099;-0.012178078;0.020291163;0.04501319;0.107007645;-0.06219774;0.11977595;0.08988818;-0.09954845;0.063045025;0.1279949;-0.1371457;-0.040844347;-0.29592156;-0.18980686;0.04045218;-0.028010933;-0.051860422;-0.022294778;0.032922085;-0.001088781;-0.023203367;-0.44115916;0.30206588;-0.03800833;-0.11218805;0.024147699;0.20255978;0.019608505;0.05787775;0.20368794;-0.04837007;0.042619027;0.09544965;-0.21571338;-0.027709536;-0.061926167;0.15401827;-0.047925986;0.37275317;0.036615003;0.14723751;0.13895449;-0.06192511;-0.13573103;0.06727989;-0.034798503;-0.006437209;-0.013245481;-0.087096825;-0.11745449;-0.32521334;-0.22857565;-0.14638248;0.112166636;-0.07304459;0.19642267;-0.008974231;0.22263138;0.05968804;0.03289795;0.01838883;0.020900996;0.29465872;0.025589557;0.2433605;-0.13918528;0.15494917;0.11527864;0.0090065375;-0.055430554;0.049757846;0.09857584;0.19093947;-0.1363169;-0.055560827;-0.04518125;-0.08768448;-0.0628336;-0.2632579;-0.1611562;0.0208831;-0.03922394;0.05509754;0.16539985;0.0025728804;0.06546659;-0.03877185;-0.05404139;0.046297286;0.04966665;-0.08694084;0.027663596;-0.0004014198;0.05955719;0.101228654;-0.26203182;0.048338585;0.096555635;-0.013431266;0.18142995;0.009937842;-0.27414554;0.06234561;0.2755837;0.23312947;-0.029357841;0.02481327;-0.1762898;0.19249746;-0.056158803;0.047810867;0.13693981;0.14498463;0.0373749;0.013040735;-0.0039551053;0.024366772;-0.095719434;0.24192475;-0.03041164;-0.004080757;-0.01355394;0.02252448;-0.044860642;0.090744376;0.012210604;-0.07637138;0.017805453;0.016837822;-0.12952657;0.2134372;-0.04030089;-0.14945684;0.05998008;-0.060271274;-0.031184936;-0.030008497;0.3013402;-0.04061771;-0.217716;0.089323886;0.21749045;-0.0260164;0.003447618;0.014830739;-0.003996919;-0.11692321;-0.0873155;-0.12124465;-0.01086015;0.026242135;-0.14993729;-0.05702758;-0.04198955;-0.04525271;0.13400152;0.04510372;0.014213701;-0.015008998;-0.020324744
-0.07648012;-0.030464482;-0.17531227;0.14329599;-0.010545932;-0.08937145;-0.22098131;-0.037592378;-0.008066161;0.011592449;0.08443957;0.1325888;0.0827537;-0.1586626;-0.39339152;0.11731489;0.04135996;0.14749834;-0.14369334;-0.021761293;0.060842864;0.031649288;-0.008057945;0.14900732;-0.054693494;-0.05790409;-0.05459654;0.097126395;0.07105617;0.040172216;-0.027332025;-0.02069214;-0.0032273943;0.13680352;-0.21718149;-0.19773339;-0.0628449;-0.14311084;0.26530293;-0.10491632;0.025992919;-0.046877977;-0.047335837;-0.07827282;0.025322886;0.00986777;-0.03651322;-0.15396143;0.04764608;-0.06958752;0.060184635;-0.17072482;-0.2034748;-0.03146083;0.018572347;0.009080199;-0.026172547;0.060772225;0.0040630796;-0.08011627;-0.04884312;-0.2702689;0.0074514835;-0.051943064;-0.094515;-0.13311279;0.016525503;0.107715994;-0.06474443;-0.057438023;-0.1363214;0.03901085;-0.038781133;0.021373432;-0.1413055;0.14515403;-0.0042992607;-0.00588233;-0.12885275;0.0108186975;-0.027112622;0.19037831;0.38496974;0.16401269;-0.056601156;0.05066004;0.034421604;-0.0011467942;-0.008398832;-0.010078365;-0.013459641;0.1759998;0.1226986;-0.051553775;0.06378372;0.12282127;0.23046608;0.003180995;0.05501374;-0.026037322;-0.017982334;0.23487203;-0.19195007;0.0337719;0.057098325;0.06314956;-0.004086497;-0.5095965;0.07197647;-0.05444088;0.018486114;0.031433534;0.334281;-0.20833005;-0.041427482;-0.032800313;-0.0983002;0.1046161;0.024326146;0.02290922;-0.30101955;0.07419354;0.114237435;-0.030400677;-0.021303272;0.052351117;-0.015917258;-0.03614216;-0.021029493;-0.43970913;0.016392512;-0.150873;-0.13128133;-0.17216396;-0.03453109;0.071520425;-0.080803365;0.23137473;0.005931796;0.07878089;0.07148472;0.042982887;-0.08499063;0.3447643;0.058570776;0.23278905;-0.19031596;0.013863949;-0.20596315;-0.1679338;-0.044772763;-0.12881574;0.10287075;-0.07138558;-0.022572802;-0.027238874;-0.021664338;-0.042474106;0.271789;-0.31995213;0.020068735;-0.04653773;0.15335768;-0.030771503;-0.032089345;-0.14192127;0.16261864;-0.00061206677;-0.16363129;0.002290976;-0.058884967;-0.016165901;0.035389297;0.061143354;0.027437449;0.024196783;-0.049267836;-0.001672054;-0.1886079;0.028266635;-0.040322684;-0.07791821;0.12684324;-0.26442525;-0.15311594;0.086194746;-0.048051648;-0.13984641;-0.045147873;-0.014219954;-0.3271357;-0.013193018;0.198657;0.030458173;-0.0038653736;-0.09925099;0.31563652;0.0413547;-0.03266938;-0.01606612;0.08968695;0.2289008;0.45012924;0.04534766;0.37476644;-0.010509485;0.051190246;-0.023324275;-0.0546902;0.263135;0.008363986;-0.08892912;0.031629503;0.02969631;0.093630865;0.014386172;-0.0005124008;0.10892941;-0.0051350323;0.1407534;0.04890583;-0.36787072;-0.038924657;-0.04041823;-0.14091815;0.01589214;0.0039451127;0.20303325;0.069592655;-0.13669215;-0.32919613;-0.034371246;0.30026245;0.14851195;-0.16725777;0.22491579;-0.40672833;-0.0605314;0.16380353;0.12284689;0.4489439;-0.019643229;-0.04020754;-0.20798287;-0.028076442;0.0143071115;-0.054599702;0.027080046;-0.10633297;-0.23188844;0.031935047;-0.2876166;-0.14533818;-0.011938516;0.041359186;0.026483094;0.002982167;0.022479244;0.00898238;-0.33206797;-0.07275816;0.002241647;0.32967934;0.4645121;-0.089977495;0.027629286;0.14400724;-0.006594068;-0.19826747;0.1502661;0.1335306;0.15002908;0.035143014;0.0034886026;-0.12473084;0.023499262;0.00043327437;-0.12226282;-0.18062451;0.39047372;0.08626222;0.17262658;0.21159194;0.061311007;-0.102590725;-0.02597815;-0.007966934;-0.3406598;-0.13671474;-0.27948728;-0.069979206;0.06599902;-0.06259556;0.006206676;0.0957571;-0.084045306;0.07808422;-0.039570816;-0.30909225;0.02936694;-0.37340358;-0.013868488;0.015236627;-0.2231911;0.04022712;-0.014667861;0.07663126;0.03049531;0.07682982;-0.04811069;0.016370393;0.2961416;0.04168937;0.038476206;-0.12285369;0.2635719;0.2785308;0.028055327;-0.14350632;-0.055903375;0.34342417;-0.13136193;-0.046106525;0.01832107;-0.08476347;-0.14623722;-0.09728906;-0.039685052;0.024034826;0.014659698;-0.059487436;0.23819435;0.12784086;0.17858925;-0.09161821;-0.024018241;-0.31014007;0.033825107;-0.0852086;-0.030104555;-0.20590088;-0.034726813;-0.10104976;-0.18336318;0.24090347;-0.1257998;0.061102033;0.06309848;0.012464323;-0.16771361;-0.039667398;0.16714118;0.028067654;-0.38669384;0.014801199;-0.025384143;0.007343695;-0.31623328;0.15915559;0.0694477;-0.019714464;-0.13284865;-0.029368188;0.05860905;-0.25322175;-0.15785907;0.05645561;0.12325023;-0.1102898;0.06995083;0.14999889;-0.051310834;-0.11991767;0.01415315;-0.10502985;-0.2641538;-0.11992654;-0.23062874;-0.061098;-0.11687361;0.021131627;0.07949309;-0.045441292;0.14398678;-0.03314799;-0.25886706;-0.020623978;-0.07224404;0.13721244;-0.08847708;0.076362856;-0.077433206;-0.19750163;-0.15037821;0.02274343;0.115537524;-0.015428809;-0.122041926;0.026296856;0.047683097;-0.047932222;0.0027332685;-0.1997904;-0.029064925;-0.101830445;-0.19649322;0.023685304;0.0430285;0.22481225;0.22321744;0.14533874;-0.11297578;-0.039561417;0.36203507;0.012938143;0.13222039;-0.018647045;0.14816004;0.009216786;0.079422764;0.04701742;0.10115775;0.088261805;-0.10722177;-0.06478592;0.1633375;-0.09259432;-0.034276895;-0.20495893;-0.39308932;-0.0035138486;0.06960241;0.047788125;-0.06971808;0.022156613;0.012444415;0.012897875;-0.21334264;0.1227193;-0.022288425;0.029099178;0.12532932;0.16757789;0.01137133;0.012918475;0.13733207;0.04993003;0.11917154;0.1306442;-0.30178538;0.19394147;0.06028586;0.13581829;0.058408063;0.3768272;-0.05943862;0.0027851618;0.11573299;-0.08919374;-0.221024;0.05212789;0.0088183675;-0.09423344;-0.03987314;-0.076517954;-0.012016641;-0.27925274;-0.23483269;-0.031756613;0.1830668;0.09956639;0.33222008;0.007991493;0.21504338;0.14798276;-0.0014227786;-0.013398966;-0.04378733;0.20678218;-0.034054037;0.25286645;-0.111747645;0.18498538;0.2046995;-0.029730037;0.037356205;0.007542357;0.06098034;0.18003535;-0.117956914;0.032864455;0.18960616;-0.048588622;-0.060138028;-0.2895669;-0.14022698;0.114521526;0.04911383;0.16968325;0.052523755;0.032843202;0.16858424;-0.054526877;-0.044241756;0.25219682;-0.045637876;0.031015117;0.013277667;-0.045699812;0.0155841755;0.0578924;-0.17755714;0.0194887;0.10813825;0.043976568;0.2397769;-0.0063672843;-0.08541019;0.043992594;0.2151538;0.2659831;0.09297792;0.027502334;-0.118955486;0.14159772;-0.005497361;0.08075395;0.03796697;0.19875354;-0.026345506;0.03822674;-0.019451782;0.0067812586;0.049055565;0.3408131;0.0141746625;-0.10030802;-0.056775354;0.015143894;-0.16991778;0.15681507;0.038738035;-0.08573094;0.038563572;-0.028414961;-0.13548361;0.15989396;-0.043375198;-0.12588367;0.10203541;-0.03739671;-0.039924245;0.029667672;0.309049;0.07460645;-0.17943451;0.06617906;0.03895474;-0.046611216;0.026955485;-0.11069706;0.0143333385;-0.06889436;-0.05912403;-0.09356308;-0.12596077;-0.037607696;-0.35959733;-0.15993951;-0.0103051765;0.104370676;0.14935175;0.12204453;0.02022774;-0.017932588;-0.06700692
-0.09009008;0.04860232;-0.11840135;-0.056692485;-0.0012623173;0.1290491;-0.12639971;-0.19765842;0.06276179;0.08569133;-0.05693138;0.09161412;0.18043508;-0.22904208;-0.37590396;0.038514018;0.12023332;0.028924918;-0.14144395;-0.074037865;0.11229698;0.01538713;0.012821497;-0.0110033145;-0.045977965;0.024174841;0.017198242;0.052160904;0.080839634;-0.06354987;-0.10506213;-0.06708211;-0.18378846;0.10753335;-0.10528292;-0.113577046;-0.17252924;-0.16346359;0.27048331;-0.09322902;-0.0048567387;-0.022757147;-0.22131807;0.009529497;-0.029101765;0.081837885;0.010063081;-0.2316171;0.113915354;0.008543383;0.002834713;-0.2501369;-0.11623881;-0.0121379765;-0.0019903283;-0.04588831;0.010644032;0.0321346;-0.07856471;-0.16133592;-0.016186817;-0.18950783;0.02103424;0.04553033;-0.059166953;-0.24482125;0.007086845;-0.0799588;-0.06412293;0.00284493;-0.20340319;-0.023587914;-0.010323229;0.17981012;-0.15826255;0.09433066;0.01771852;-0.015607744;-0.18548617;0.021377323;-0.01098776;0.13161255;0.37472826;0.1589174;0.010450646;0.011917679;0.12313137;-0.0340023;0.022824204;0.032839846;0.025802987;0.030380344;0.18658465;0.06023214;0.15170039;0.15118498;0.23424271;-0.1643602;0.05927432;-0.017562676;0.019856112;0.22781593;-0.12762411;0.005389763;0.052544154;-0.028072234;0.014131161;-0.42227522;0.08855808;0.007826357;-0.13857546;-0.0006336805;0.25437388;-0.2802683;0.028126176;0.09645545;0.12088999;0.043154743;0.028133582;0.16520011;-0.33597723;-0.068643324;-0.07181868;-0.020875499;0.030162953;-0.06940154;0.02364872;-0.010911065;-0.04946031;-0.2646347;0.13304253;0.04976803;-0.19795372;-0.27912164;0.0057811886;0.011749457;-0.11842009;0.33968204;-0.007987421;-0.0354224;0.22590552;0.18004328;0.010019656;0.27801472;0.0158378;0.18978429;-0.2783788;-0.013561271;-0.24408239;-0.25983068;0.03485761;-0.124348514;0.045888428;0.111405164;0.0039635003;-0.04266386;0.02644862;0.017427731;0.26908287;-0.15167198;-0.03126881;0.062755056;0.016054448;0.013687616;0.06099086;0.042900138;0.13571684;0.07497842;-0.13343847;0.05879031;-0.06952878;-0.06325414;-0.021579813;0.058158163;0.02213342;0.21886922;0.06375943;0.05989973;-0.1000551;0.010599114;-0.04468286;0.10667184;0.19809926;-0.1626954;0.0054203444;-0.08314148;-0.06692672;-0.014910617;0.04107947;-0.00082236907;-0.2926534;0.045661964;0.2502265;0.047225952;-0.035271056;-0.16742928;0.061686482;-0.077584065;0.13007781;0.0023284266;0.16307448;0.26543754;0.52979136;0.0018341444;0.29749385;0.051204886;-0.088526286;-0.0033454173;-0.09985119;0.4073195;-0.020188559;-0.1485339;0.01619939;-0.018537303;0.02701157;-0.013348323;-0.03523028;0.14572133;0.119500786;0.13294022;0.21090552;-0.2917296;-0.05339273;0.051916964;-0.12894128;-0.020982184;-0.0038201844;0.26682642;-0.0037414366;-0.15059161;-0.19812563;0.06899305;0.36471555;-0.011957737;-0.054000426;0.2783213;-0.45925993;-0.009585729;-0.030840164;0.04807574;0.48757002;-0.009622545;0.0291106;-0.166393;0.23619083;-0.038888935;0.038866736;-0.05450138;-0.047380462;-0.34406886;-0.033690177;-0.29219368;-0.24427743;-0.032859955;0.08321872;9.0801266e-05;0.15142521;-0.048693035;0.03696105;-0.22426698;-0.0007997576;-0.0064074155;0.18656531;0.60316604;-0.030450111;-0.043374058;0.11600318;-0.00920843;-0.3062383;0.078266;0.10993993;0.060208756;0.030411737;-0.1780201;-0.012794138;-0.037861906;-0.006359414;-0.24822235;-0.08830704;0.32520473;0.13107559;0.26887095;0.17413636;0.20333624;-0.053242084;0.041920733;-0.074900076;-0.47572744;-0.12638667;-0.28365412;-0.012468172;0.04467074;-0.09574193;0.12609124;0.10261736;-0.07712898;0.1010004;0.05051974;-0.18769568;0.039516177;-0.28324625;0.059556592;0.009001075;-0.24896717;-0.0760371;-0.05515792;-0.04433551;-0.036085114;-0.046770018;-0.047680445;0.01575043;0.13583876;0.112513855;-0.07240556;-0.017909925;0.15584002;0.3193864;0.068745956;-0.26595432;-0.062823944;0.28264713;0.0020306187;-0.17211734;-0.07356165;0.036997054;-0.007107084;0.02183674;-0.014355319;0.011717305;-0.13203332;0.051181987;0.06486202;0.16786242;0.016524777;-0.25263157;-0.013309788;-0.25655857;0.014128135;-0.06954345;0.05065411;0.036821533;0.011980137;-0.19326144;-0.27523077;0.35232878;-0.024726594;-0.02681444;0.017927267;-0.021949358;-0.11859948;-0.0055476767;0.13220657;-0.10401804;-0.4938771;0.009669272;0.08057606;0.09258834;-0.1750492;0.11460718;-0.007018952;0.028976662;-0.13390468;-0.043665648;0.1313872;-0.13913813;0.05120276;0.14488275;0.21512058;-0.09954608;0.32149288;0.06505309;0.061244927;-0.12341957;0.0014669385;0.07559069;-0.19568664;-0.081105754;-0.15320195;-0.088318594;-0.09961051;-0.0027985002;-0.03187498;0.0025154555;0.019655935;0.032848228;-0.039467927;0.016866276;-0.0662956;0.054460064;-0.13891785;-0.17205915;-0.0059542344;-0.1534053;-0.22264682;-0.044502914;0.27025393;-0.038148772;-0.014604298;0.0072660963;0.23632626;0.028068185;0.07995933;-0.16668482;-0.064798616;-0.04671432;-0.07122861;0.0030798337;-0.05540498;0.080734745;0.22529432;0.16782306;-0.12270918;0.055528454;0.20872451;-0.0134000825;-0.16405338;-0.018356796;0.35266927;-0.054056983;0.16824299;-0.030490518;-0.017652933;0.18647967;-0.016372107;0.02832754;0.076227665;-0.09216283;0.034325723;-0.067475945;-0.32249594;-0.03578546;0.1476173;0.041559868;0.020997034;0.009238635;0.0085713;0.1520378;-0.3226155;0.0912757;0.043777943;-0.07979597;0.14457034;0.14881745;0.0025630668;-0.08507009;0.023231726;-0.047715005;0.005979554;0.13181023;-0.31316474;0.12467668;0.20402111;0.1750458;0.0137204;0.1912728;-0.029961213;0.22270876;0.16620609;-0.1795213;-0.23020293;0.14716676;-0.017200025;-0.26179078;-0.0069233323;0.01582011;0.18907525;-0.031417117;-0.1808886;0.05283889;0.17344669;0.027285611;0.22902887;-0.008470097;0.4942833;0.10398612;-0.03867612;-0.002899789;0.0074410886;0.14426704;-0.018929705;0.24573164;0.012059998;0.22424014;0.17460796;0.03660708;-0.04183016;-0.04366358;0.018819366;0.33171612;-0.106310494;0.008168661;0.20426518;-0.024889585;0.11155318;-0.28211734;-0.043080904;0.10341986;-0.018284712;0.20751774;0.0035515523;0.005979251;0.19658457;0.108889714;0.03460311;0.15549022;-0.012700949;-0.1241815;-0.07455236;-0.03006467;-0.048031785;-0.08587413;-0.1675427;-0.0069209314;0.13175365;-0.013659725;0.108340085;0.038157105;-0.031345457;0.07771771;0.27473494;0.09618068;-0.0035507404;-0.025366258;-0.07938952;0.015367347;0.08342986;0.03626894;-0.00851824;0.1536881;0.012471753;-0.056428175;-0.0025831494;0.007059515;-0.07628261;0.20033827;0.025567625;-0.13755435;0.052088764;0.01994729;-0.025857152;0.12105758;0.011552911;-0.11421846;-0.03678593;-0.04295461;-0.19327733;0.11004347;0.013611923;0.034578755;0.119981356;-0.0020069857;0.055884443;-0.039021857;0.26049197;0.20638359;-0.05752035;0.021902163;0.04675744;0.06819733;-0.035014417;-0.10317352;0.17528935;-0.04832648;0.010624116;-0.014981401;-0.1164395;-0.029966168;-0.4050901;-0.19492605;0.032705992;0.011843619;0.04573178;0.028482122;0.03627943;0.030311745;-0.24307097
0.054306686;-0.002609059;-0.43549943;-0.18591993;-0.034273833;0.079215825;-0.20094264;-0.22561313;-0.03355226;0.13314255;0.06790775;0.019560853;0.25524777;-0.32513982;-0.3435559;-0.08749041;0.27690274;0.20139752;-0.29700172;-0.12440332;0.048841145;-0.02176054;-0.027229592;0.013267843;-0.059786733;-0.020223575;0.011467099;0.015269051;-0.051271208;-0.001666523;-0.1660831;0.030916268;-0.105546355;-0.07202566;-0.072688416;-0.106723145;-0.30844972;-0.02382091;0.18118946;-0.2074244;0.030062899;0.04781408;-0.09495128;0.14916442;0.028346779;0.0038101254;0.045910373;-0.07148827;0.08554482;0.025076423;-0.047602;-0.05666208;-0.19380938;0.03249186;-0.012646684;0.055879913;-0.05121764;0.20635197;0.017196672;-0.16195355;0.024413835;-0.11459384;0.0016392658;0.08602358;0.02690479;0.030496005;-0.07010817;0.09789459;-0.16437693;0.017117176;-0.22302257;-0.036913007;-0.005707481;0.0435351;-0.18850353;0.2850567;0.031201165;-0.089241885;-0.105625056;-0.06848831;0.048501913;0.15211761;0.29300877;0.12706064;0.056687165;-0.04727082;0.21255758;0.0069598067;0.057815015;0.02153205;-0.003744201;0.081633866;0.1556572;0.06427861;0.008081025;0.11623765;0.19015048;-0.052169245;0.014036008;-0.03801551;0.0054165833;0.099711604;-0.07477398;-0.0524985;-0.066929094;-0.046964265;0.021691173;-0.41733557;0.0022559282;0.044581115;-0.24528974;-0.10246998;0.22523428;-0.23835611;-0.017785277;0.16067217;0.032289788;-0.018583188;-0.022077417;0.0059091453;-0.14803536;-0.04483022;0.10383992;0.043899707;-0.011989677;-0.03230032;-0.04477331;-0.12620246;0.043787625;-0.3686328;0.09420915;-0.14710271;-0.31054643;-0.20351875;0.020004105;0.05519259;-0.11887767;0.17259693;0.02491107;-0.021056812;0.060747422;0.1958681;0.020442339;0.24547596;-0.04081896;0.25195378;-0.22712602;0.021200443;-0.33926547;-0.2769663;-0.0031292634;0.08777566;-0.05388015;-0.007772861;0.062184244;-0.0054993657;0.026369005;-0.10429223;0.31097525;-0.091827385;-0.24644992;0.018694993;-0.03742138;-0.056424383;-0.042997193;0.10461245;0.16788448;-0.036655787;0.0008231816;0.023758112;0.0067245993;0.058712486;-0.052632365;0.08881985;0.024387065;0.2767364;0.026575727;-0.015130811;-0.0338117;-0.012544176;0.0687859;0.31793997;0.13297503;-0.08764751;0.049055036;-0.0033680997;-0.18501797;-0.065524265;0.049925238;0.04549576;-0.379564;0.019254047;0.16912887;-0.022041682;-0.0047814795;-0.18110406;0.10190727;0.04805904;0.19547218;-0.011804217;0.28664735;0.3373649;0.3275967;0.04179402;0.46048036;-0.056435607;-0.043270055;-0.034377985;0.023176562;0.24171425;-0.089069486;-0.12943195;0.021841018;-0.046345677;-0.013848074;-0.020156208;0.056999408;0.13208492;0.058552068;0.042969514;0.13893576;-0.06804099;0.1274122;-0.055795364;0.049313854;-0.022367744;0.038257916;0.19122589;0.008676308;0.0005579296;-0.28815633;-0.060010098;0.49957386;0.061893106;-0.1895193;0.25957152;-0.47751248;0.025148893;0.08065766;0.023590831;0.48036656;-0.046500962;-0.05445568;-0.27976236;0.36947334;-0.023667673;-0.004383991;-0.048277237;-0.12989643;-0.2712138;-0.0002646265;-0.15475434;-0.35682985;0.047389284;0.10099847;-0.011555353;0.23212382;-0.0460414;-0.098331034;-0.102622315;-0.019190123;0.0030090315;0.1740355;0.5343229;0.17964807;0.03959597;-0.03443375;-0.04804934;-0.07815735;-0.08280127;0.058720987;0.08462773;-0.047192384;-0.118013375;0.029674899;0.031438157;0.009702796;-0.20395918;-0.16422015;0.30053803;0.040948424;0.25813708;0.23155789;0.09750661;-0.013546143;-0.08530485;-0.008346277;-0.38086095;-0.11658992;-0.22077292;0.021116273;-0.14709415;0.0135061955;0.1322909;0.23360087;-0.02468791;0.15169816;-0.006659549;-0.22296476;-0.038266458;-0.25835437;-0.027217668;-0.05921421;-0.17403857;0.009315705;-0.021035321;-0.033568323;0.08043399;0.071104236;-0.078487374;-0.012978774;-0.057596616;0.1610884;0.039674386;-0.0068288436;-0.043676574;0.28635418;0.060091984;-0.25977913;0.03157353;0.26876983;0.009253899;0.0223416;0.057837177;-0.08129999;-0.13503008;-0.08425331;0.022355208;-0.018630397;-0.060238604;-0.04273362;-0.12634726;0.26714805;0.11185826;-0.09588771;-0.009257101;-0.2423532;-0.024178645;-0.1867927;-0.059490096;0.15024537;-0.012057203;-0.1788452;-0.29343447;0.3015923;-0.06697733;-0.0013919369;-0.050904777;0.058444764;-0.16215086;0.0007501677;0.04898665;-0.30134133;-0.40597007;-0.00427338;0.16186216;-0.03411819;-0.20321076;0.08494316;-0.11802418;0.0035035368;-0.14655215;0.041688208;0.025213009;-0.23732838;0.15417358;0.10081958;0.10069797;-0.002927421;0.23693536;0.097902924;0.0972432;-0.13440225;-0.001914985;0.13495998;-0.089777246;-0.09144013;-0.27886212;0.06408295;-0.11035673;-0.04861549;-0.029603068;0.030787518;0.054846577;0.0097882245;-0.048378166;0.012885539;-0.085740514;-0.072330594;0.09160764;-0.058381386;-0.13144857;-0.0839868;-0.21055421;-0.0006620026;0.2889158;0.023805784;0.03933383;-0.021958493;0.09345024;0.009228584;0.04640474;-0.29451615;-0.24789526;-0.31342307;0.035762332;0.029448552;0.057620004;0.020606816;0.21289384;0.22388425;-0.26770067;0.0066732615;0.23812418;-0.00063444383;-0.073079854;0.040813226;0.25358275;-0.010735932;0.11624088;-0.010486084;0.014451105;0.08347816;0.033020366;0.039835908;0.21383125;-0.15621677;0.002163767;0.0031818226;-0.3617947;-0.03236198;0.026286194;-0.012216873;-0.027883343;0.0138759045;-0.24110287;0.019042261;-0.34102312;-0.047272574;-0.028878054;0.089930244;0.22532588;0.24602579;0.0237707;-0.13574237;-0.055683803;-0.02854425;-0.1252815;0.25156215;-0.31364977;0.18188329;0.12121664;0.24925223;-0.056309216;-0.030988239;-0.032042343;0.10951767;0.07283476;-0.13509236;0.0322864;0.27606827;0.033407837;-0.100249834;0.024756964;0.10182893;0.2930224;-0.048057754;-0.17114742;0.0723197;-0.015157837;-0.108434014;0.31522202;0.045134235;0.37436622;0.16999622;0.039000683;-0.051079925;-0.034803122;0.09627903;0.005965441;0.12167276;-0.0788112;0.2768446;0.21512741;0.02292773;0.056196686;-0.31572926;0.11150505;0.23278964;-0.113196;-0.00483158;0.36583757;-0.016563214;0.03617982;-0.23367028;-0.004745177;0.14690726;-0.008212455;0.16521265;-0.035995476;0.013778466;0.13317713;0.07095206;0.06408433;0.18235196;-0.016320895;-0.22345267;-0.020013686;0.060837593;0.022635123;-0.119129874;-0.029486274;-0.03569612;-0.03602697;-0.027152687;0.004555815;0.00010763773;-0.035491068;0.13143511;0.19509582;0.10641231;-0.055875372;-0.01897354;-0.092431426;0.073331274;0.049638342;0.010002174;-0.035822053;0.32552952;-0.0006062319;-0.0654691;-0.0027881437;-0.050577108;-0.010540067;0.18348469;-0.07287762;-0.07006824;-0.024993617;0.018135397;0.123265214;0.022138592;-0.0031731962;-0.10670032;0.04221853;0.028041588;-0.11198297;-0.010091901;0.008338191;-0.046981122;0.119096816;-0.02164268;0.05791003;0.05050743;0.22754295;0.19379742;-0.056563143;0.24042495;-0.040780906;0.027026901;0.016817959;-0.044782426;0.16634282;-0.18393308;-0.066889115;-0.035366707;-0.17105727;0.004685023;-0.56830424;-0.16045602;0.026862172;0.1150267;-0.05127342;-0.13641128;-0.024472218;-0.053801097;-0.23399152
0.14350677;-0.02227806;-0.35904586;-0.32355782;-0.0031363007;0.0056419983;-0.33433774;-0.18604353;0.008859254;0.11902475;-0.066481866;0.14830631;0.17232576;-0.21691643;-0.38123575;0.044376966;0.23339902;0.23644881;-0.119023226;-0.12439413;0.022111455;0.004256436;-0.17466587;0.1130783;0.050846614;0.017810922;0.044912998;-0.039610706;0.007362347;-0.082642995;0.033450928;0.033316683;-0.12621823;-0.13080294;-0.0940182;-0.12309712;-0.40247315;0.12196168;0.16136949;-0.19526228;0.013376387;-0.03432551;-0.29409632;0.22248724;0.009897114;0.08134307;0.009262892;-0.23548862;0.16108935;-0.020119468;0.023530155;-0.055172507;-0.22335547;-0.05824237;-0.004373542;-0.04854826;0.058066923;0.34064376;-0.19256546;-0.2061612;0.013788766;-0.070141956;-0.05227765;0.07799397;-0.035765424;-0.05692773;0.0277876;-0.08299283;-0.0839871;0.03990712;-0.24341911;0.03271377;-0.024887592;0.11921632;-0.38844576;0.13977067;0.037279725;-0.029540895;-0.2722813;0.05758172;-0.0053480505;0.06417478;0.2264616;0.26482198;-0.011053684;-0.141456;0.041151904;0.0555647;-0.063364804;-0.05125159;0.008271348;0.16182609;-0.0023467417;0.093322955;0.008917952;0.22667228;0.09572957;0.124086276;-0.19775172;-0.17663035;-0.0014619567;-0.041541483;-0.10814921;-0.010086554;-0.03134336;-0.2021288;-0.023860322;-0.4631131;-0.024381714;0.046569377;-0.11841496;-0.17119904;0.12737413;-0.21382953;-0.09094209;0.11792108;-0.05717884;-0.040119603;-0.009841202;-0.02168252;-0.16604418;0.010448136;0.012270826;0.043425247;0.01566031;-0.0009636015;-0.179977;-0.117419966;0.07840112;-0.2667672;-0.095833145;-0.19333917;-0.0889987;-0.09302073;-0.024398109;0.020003842;-0.16814552;0.24444492;-0.045888763;0.0009806127;-0.038050525;0.08282542;0.008427015;0.29272574;0.0065321783;0.3356832;-0.19438417;0.044626836;-0.329769;-0.38724926;-0.040014964;0.20292959;-0.021767132;0.028881384;-0.011161671;0.02810079;-0.0034915425;0.054438792;0.37518144;-0.28350618;-0.35048935;-0.07098157;-0.105826564;0.06318499;-0.02783017;0.043351624;0.120344914;-0.037331857;0.062173966;-0.021399822;-0.15144992;0.031838775;0.008497836;-0.08346486;0.20671651;0.32592306;-0.066952534;-0.03188243;-0.07327808;-0.04980629;0.06587778;0.21521099;0.20213294;-0.15641682;0.032821335;-0.07073502;-0.34200677;-0.16242422;0.2453424;-0.058669724;-0.2160842;-0.043149393;0.2038077;0.0343561;0.028072877;-0.22236627;0.15181877;0.07436298;0.28940135;0.048523657;0.32626063;0.28459638;0.16175272;-0.03646287;0.33378306;-0.019116728;-0.019255232;0.017847858;0.037648994;0.3354148;0.015815042;-0.034507155;0.042853247;0.0048901094;0.023256313;-0.008864759;-0.027698256;0.11258901;0.15208364;0.15278074;0.22643729;0.03485473;0.08973991;0.030566845;0.107276544;0.024885274;-0.036252193;0.26089913;0.020849453;-0.02249013;-0.09110755;0.058452267;0.5195775;0.12850662;-0.11654288;0.15568125;-0.3401795;0.03482752;0.024813911;0.076039635;0.26039737;0.069340214;0.0059463596;-0.2538212;0.27577445;0.008303403;-0.043931104;0.025327116;0.041431755;-0.16885267;0.0029539408;-0.16986607;-0.12924954;0.051368423;0.14104877;-0.022752404;0.32221615;0.048181605;-0.108350694;-0.0045286524;-0.014137926;-0.01787875;0.26563454;0.7411347;0.2759352;-0.030804139;-0.057699583;0.06872503;-0.20035458;-0.25867248;0.05448623;-0.0077931387;-0.03112643;-0.15116398;0.027606182;0.010050064;0.015770836;-0.41108906;-0.19987786;0.24871434;-0.079101585;0.21666488;0.27033952;0.11181301;0.014844945;-0.3635116;0.09130147;-0.44856414;-0.004752207;-0.24429625;0.00089956523;-0.16842571;0.016917631;0.12691765;0.19650695;-0.057604827;0.0074912924;0.042004075;-0.18015684;-0.012355315;-0.2915534;0.054710068;0.056393385;-0.07153233;-0.041067548;0.016587097;0.042113557;0.0019666723;-0.022675231;-0.23105045;-0.030467017;0.015087314;0.24736857;0.036648035;-0.10425233;0.010615643;0.22905208;-0.047396183;-0.057122283;0.19046414;0.26448765;-0.09758821;0.0014799561;0.034734275;-0.0061848797;0.049448825;0.0127107;0.031279545;0.0023370632;-0.023771817;-0.03805537;-0.018035946;0.20797504;0.3072927;-0.16675207;0.08343079;-0.28997517;0.008948412;-0.091365546;0.068884104;0.06888252;-0.054818213;0.03190394;-0.1929083;0.28021914;-0.16713747;0.0020114032;-0.03845249;0.029764859;-0.24424435;-0.034812488;-0.008970944;-0.3361289;-0.4727592;0.01765065;0.18868846;0.022726309;-0.1371644;-0.040048044;0.030906307;0.077010386;-0.16726296;-0.055231493;-0.016305076;-0.36475044;0.11628381;0.18472138;0.002524506;0.026220396;0.15594475;0.20441543;0.14555903;-0.24919192;-0.01092163;0.22642021;-0.1227047;-0.011757187;-0.15756792;0.02724084;-0.13223675;0.02257421;0.06641355;0.021000622;0.0894813;-0.018726204;-0.19596402;0.0037349355;-0.011672422;-0.15237461;0.0925263;-0.19381808;-0.050368186;-0.03773114;-0.15274796;0.009421575;0.17026973;0.06567645;0.009194534;0.0704307;0.088793434;-0.037981793;-0.049198605;-0.27539438;-0.10440452;-0.21543077;0.12093041;-0.055443622;0.11563962;-0.0982729;0.21292616;0.08462744;-0.19731797;-0.0014404777;0.036635097;0.0018722144;-0.22916235;-0.007794756;0.3507382;0.050015893;0.16510671;0.042803958;-0.024782008;0.19630142;0.05475844;-0.024941022;0.114889845;-0.21812552;0.0424493;0.08149269;-0.22834341;0.04277128;-0.14584607;-0.040215515;0.07201636;-0.042037237;-0.45115337;0.13949057;-0.24308535;-0.10628265;0.02166863;-0.010916277;0.3385604;0.08548674;-0.0026807885;0.010396864;0.06751059;-0.1448433;-0.041148733;0.22986706;-0.26056796;0.16040388;0.22788478;0.09597822;-0.04195943;0.038840268;0.034408726;0.1830959;0.26540795;-0.15490992;0.05297587;0.118633576;0.021161588;-0.08947622;0.021060053;0.31518576;0.1881906;-0.03167804;-0.005664789;-0.02840987;0.14421797;-0.03828435;0.25980285;-0.0819572;0.16452053;0.15279602;-0.033365;0.07311158;0.03566405;-0.02399462;-0.020907061;0.007392265;0.13982339;0.3908852;0.15998133;-0.042158045;-0.04548946;-0.17788342;0.18984534;0.23267987;-0.10188871;0.061043914;0.31053305;0.041505538;-0.040340245;-0.16356318;-0.15879829;0.24054845;0.049522895;0.13441664;0.027058462;-0.04810453;0.051240586;0.015204662;-0.04102728;0.13245574;-0.023963233;-0.26974127;-0.013695173;-0.030374656;-0.032155305;-0.097493835;0.014598456;-0.004188813;0.07391208;0.0047600158;0.1259978;-0.024127297;0.13158451;0.067675896;0.27677503;-0.06491401;-0.010192457;-0.011181926;0.065072775;0.029053578;0.13074079;-0.054452144;0.08076172;0.40190408;0.024655813;-0.2841286;0.014062846;0.061502963;0.070362054;0.275736;0.061766025;0.0593;0.020892913;-0.042114336;0.246505;0.08545338;0.045150593;0.048420385;-0.06637764;0.013417451;-0.12838736;0.0065535484;0.03328366;-0.044594936;0.09602938;0.06667449;0.101448245;0.02069099;0.3415727;0.2743639;0.2325452;0.24597019;-0.05904019;-0.061311994;0.033280883;0.05537088;0.10819311;-0.11174779;0.026039677;-0.013282397;-0.22302438;0.025050698;-0.5629158;-0.11738653;0.058285862;0.0025358836;-0.13758606;-0.07921308;-0.043480087;0.037503183;-0.4548228
0.15015541;-0.1711309;-0.49813554;-0.2479011;0.05560781;-0.19168375;-0.18259546;-0.2221491;-0.03776414;0.114358045;-0.024443317;0.27751428;0.21842588;-0.20631786;-0.32814398;-0.13820638;0.2657761;0.1742327;-0.076264806;-0.007896582;-0.016566107;0.025976269;-0.19014923;-0.048334535;0.030573342;-0.045465916;-0.04501888;0.06958364;-0.06809031;-0.09768352;0.15768407;0.04745945;-0.021296112;-0.1768538;0.06829151;-0.0077149626;-0.25035965;0.09229568;0.088253126;-0.13494904;-0.094353415;-0.013962093;-0.22510968;0.22353044;-0.01498818;0.04726312;0.023706635;-0.2535008;-0.0080283275;-0.024849245;0.051031526;0.040153358;-0.35883054;0.048418485;-0.016337108;-0.14992008;-0.0016707128;0.27736273;-0.050339084;-0.18168189;0.0081552975;0.003419081;0.03563319;0.013240584;-0.002981312;-0.0012770833;-0.026027225;-0.14516033;-0.19100648;0.0036630037;-0.24603908;0.040542983;0.019074216;0.05468247;-0.32321796;0.19990578;-0.008800587;0.07895921;-0.37340438;0.030667242;-0.03235643;0.10607082;0.19567351;0.19683783;-0.058243904;-0.16442713;-0.0030380997;-0.030900234;0.035719637;-0.014802526;0.037217565;0.029937388;0.20359425;-0.16368276;-0.19119947;0.26087818;0.009122347;0.33599058;-0.33081722;-0.24514881;0.010930061;-0.0022286482;-0.14619261;0.06469421;0.16170333;-0.23700641;-0.05751818;-0.22718747;0.00037466473;-0.04904069;0.091136314;-0.050727252;0.065131314;-0.17225306;-0.14305995;0.14206034;-0.21217279;-0.06674337;-0.02172193;-0.005685641;-0.15658468;-0.0037821631;-0.10597314;-0.07297383;-0.058032718;0.012815558;-0.37753716;-0.08531427;-0.04604773;-0.29815343;-0.24392478;-0.43656847;-0.05326411;-0.23518762;-0.024096051;0.17969075;-0.07947996;0.46080163;-0.03287792;-0.022228226;0.01850481;0.12264868;-0.03892398;0.335591;-0.030360779;0.33210358;-0.29891;0.0104289865;-0.39712772;-0.24944808;-0.0519828;0.37981433;0.04149935;0.18980642;-0.026070226;0.019441044;-0.032316726;0.04828624;0.18869792;-0.16215298;-0.45930958;-0.0014959779;-0.06562672;-0.041756935;0.06317522;0.081920385;0.16176341;-0.040983915;-0.028981674;-0.07879962;-0.22746526;-0.049717702;-0.030173704;0.036743805;0.23727655;0.31486046;0.037929818;0.009405783;0.04571931;-0.003161761;-0.024232106;0.43232107;-0.005995325;-0.26272255;0.16612992;-0.16036995;-0.45722222;0.12571621;0.10969738;-0.018957973;-0.17837432;-0.041479602;0.3314066;-0.03993393;0.05360409;-0.2928016;0.10544212;0.10877804;0.40771064;-0.046289697;0.43339714;0.16264267;-0.022902764;-0.010353531;0.42455953;0.061658494;-0.049503602;-0.06770991;-0.021609366;0.36800334;0.1001606;-0.16314684;-0.036679003;-0.0046501374;0.0028708198;0.011092585;-0.089189865;-0.03532297;0.07486003;0.25113162;0.32296726;0.10399662;0.14407952;0.028814435;0.19829565;-0.037412778;0.070042916;0.19721484;-0.022954376;-0.057922967;-0.15551887;-0.047763422;0.3005133;0.023974286;-0.11778282;0.21495812;-0.54279923;0.011966149;-0.10263679;-0.039018624;0.3041697;0.036979504;0.0048704925;-0.23654507;0.26299274;-0.051826;0.058918074;0.0030491431;-0.022862893;-0.19198859;-0.060883414;-0.07206617;-0.20287122;-0.031609498;0.020659821;-0.009692821;0.44098726;0.03192218;-0.049252223;-0.18399315;0.008082517;0.031261824;0.20058282;0.7056838;0.3695139;-0.2140844;-0.075197205;-0.004540564;-0.03253433;-0.17749189;0.05848384;0.025552051;-0.00459328;-0.08005365;-0.13986798;0.032932673;-0.012328387;-0.35802165;-0.3022381;0.17401771;-0.06345828;0.17526552;0.2532598;0.11268279;-0.033047516;-0.39726496;0.0045561288;-0.28260192;0.085236385;-0.22505611;0.0020491015;-0.030358398;0.05049936;0.117529936;0.10681401;-0.1480605;0.12535848;0.0016703174;-0.5212263;-0.023525855;-0.18113974;-0.017571023;-0.064077236;-0.122577675;-0.00024713812;-0.05742421;0.04958739;-0.044130884;0.02603382;-0.19428737;0.012394324;0.05393231;0.36537012;-0.0016408006;-0.117511876;-0.08973468;0.2089684;-0.02914032;-0.11553997;0.19891796;0.39651495;-0.049778216;0.041392095;-0.088302225;0.01849541;0.09697876;0.056953635;-0.054148983;-0.03160361;-0.124706864;0.024273952;-0.17679013;0.15139088;0.22020364;0.052495442;-0.03889353;-0.09694105;0.0070179673;-0.0699107;-0.03463696;0.25347778;0.022099057;-0.04821627;-0.055079002;0.36102542;-0.097026736;-0.015626498;0.02447968;-0.032676544;-0.23272796;0.04049227;0.07934257;-0.43817008;-0.5112611;0.03111769;0.15883447;-0.065896004;-0.28068596;0.046533406;-0.109074175;-0.025234979;-0.17634867;0.0033918435;-0.05728871;-0.34285524;0.053385526;0.21963814;0.11764557;0.0020697364;0.13814479;0.17728937;0.33494696;-0.021698048;0.0018059551;0.090987146;-0.13372679;-0.07499885;-0.1182959;0.016389994;-0.24589759;-0.012552111;-0.030759977;-0.012662508;-0.023122368;-0.0046276334;0.009243477;-0.013612489;0.07509266;-0.22608922;0.08304716;-0.21762136;-0.21054585;-0.058935333;-0.018176502;0.037084572;0.081215866;-0.054940205;0.049745895;-0.031993616;-0.12907577;0.046333298;-0.1786462;-0.40440837;0.11231639;-0.113818854;0.18143004;0.03388062;0.21393964;0.042321384;0.2516351;0.21679509;-0.281139;-0.06204213;0.051299404;0.024181934;-0.2125111;-0.021210445;0.27336103;-0.04084512;0.09540066;0.013038938;0.004258247;0.11292429;0.25079045;-0.025621084;0.14311951;-0.09803985;-0.021203535;0.11139989;-0.19313835;-0.01810043;-0.14372736;0.048383508;-0.013303062;-0.026130453;-0.40738168;0.22401801;0.06611847;-0.17270623;0.0038488142;0.105123684;0.32222453;-0.06503603;-0.064728424;-0.040808007;-0.16701356;-0.14637041;-0.022150854;0.16369818;-0.27843377;0.12978609;0.19936223;0.16728897;-0.0059370045;0.07400502;-0.024629138;0.10267792;0.26818806;-0.14954813;0.099991426;0.10335267;-0.022923114;-0.0016778549;0.07461471;0.39897504;0.23958434;0.08648219;-0.01431204;-0.0033077612;0.19393076;-0.07566386;0.35277003;0.01178928;0.031616736;-0.0056836735;0.039242692;-0.055626247;0.046133757;-0.010527286;0.043511454;0.20697927;0.18777771;0.51527953;0.1402467;0.042364117;-0.028429314;-0.102755;0.20799018;0.27550694;0.03485606;-0.03973126;0.29582405;0.10701594;-0.072524056;-0.15630445;-0.07751136;0.18023561;-0.019863019;0.09531698;-0.18977137;0.04824531;0.07918267;-0.092979364;0.00045417622;0.2310897;0.019339735;-0.10463135;-0.018685022;-0.006113076;0.07753479;-0.22139712;-0.055777762;0.022735827;0.023527278;-0.03326762;0.13865595;0.0553731;0.05699628;0.104322635;0.24011569;0.003085664;0.07158791;0.058576126;-0.06422379;-0.10491743;-0.02125416;-0.0009844259;0.054100245;0.37060282;0.037026934;-0.30932927;-0.024726095;-0.010549022;0.124764904;0.23756449;-0.03237129;-0.008319093;0.035897583;0.0027006401;0.2564402;0.027803805;-0.034242466;-0.10250962;0.03143999;0.012940511;-0.042221796;0.17143673;-0.0037889078;-0.17162088;0.044310097;0.059944443;0.17356886;-0.036152404;0.23395127;0.15811382;0.23532562;0.33876592;0.11481249;-0.09932522;-0.036213793;-0.015866088;0.18907505;-0.12083345;-0.058865566;0.025803443;-0.07821684;0.058797196;-0.40325296;0.061953016;-0.06331525;-0.27084193;-0.077625155;0.028896227;-0.029515862;-0.017766941;-0.41496018
0.29743376;-0.7313527;-0.37850755;-0.32123625;-0.030493047;-0.31384563;0.06837624;-0.22846831;0.026991688;-0.035362598;0.02946022;0.12457077;0.09083785;-0.4699929;-0.2260127;-0.07542417;0.13539083;0.20556127;-0.024239235;-0.03344801;0.17822409;-0.014525688;-0.14332163;-0.1395603;0.08468496;0.043991413;-0.008954023;0.19698632;0.12512906;0.079290494;0.23538344;-0.048897382;-0.08701404;-0.060994416;0.051749054;-0.036507286;-0.26659715;0.059324622;0.15331087;-0.12502547;0.053537883;0.022047717;-0.2687559;0.23631358;-0.0035929845;0.17705086;-0.051449332;-0.121962875;-0.06177719;0.023598513;-0.043504447;-0.10429605;-0.5261883;-0.002265805;0.012759913;-0.12323943;-0.010355969;0.31047696;-0.20283408;-0.018609503;-0.020610822;-0.040596355;0.0017102662;-0.07881742;-0.20241836;-0.02445081;0.04656928;-0.3182705;-0.1909805;-0.041811053;-0.3501313;-0.037570167;0.019797215;0.15343;-0.29583082;0.28855076;-0.03578644;0.106634654;-0.66644704;-0.037439305;0.0017323946;0.049173113;0.41632992;0.21105239;0.018282427;-0.15173423;0.15913133;-0.010486656;-0.030796137;0.026991159;-0.049217563;-0.09020377;0.21548045;-0.55257154;-0.13469355;0.31256142;0.07583058;0.37483948;-0.39087406;-0.4022743;-0.024391748;-0.0856293;-0.20665358;-0.030512076;0.30130553;-0.1841338;0.037937228;-0.2603197;-0.10156187;-0.016861752;0.2228135;-0.037654344;-0.040341754;0.05956057;-0.20280376;0.27190366;-0.36923712;-0.070121795;0.02914158;0.12147652;-0.19491836;0.024204867;-0.26895815;0.015529381;0.023644585;0.023736635;-0.43070784;-0.054039106;-0.030031424;-0.18889767;-0.30038542;-0.5404053;0.30166015;-0.1400125;0.042714298;0.32017374;-0.08497358;0.6664356;0.04174627;0.018714963;0.2357009;0.14986481;0.1220958;0.26990575;0.023717275;0.31947455;-0.46032917;-0.050829194;-0.3158787;-0.23163557;0.06387314;0.58387;-0.06298083;0.41574413;-0.011057554;-0.012637725;0.018108454;0.098022595;0.065159395;-0.16367282;-0.40852708;0.01871415;-0.053122252;0.014462527;-0.032965;0.13242684;0.18415554;0.055129934;-0.08254485;-0.13401422;-0.26779804;-0.0032425653;0.046061125;0.093368836;0.25986204;0.17631552;-0.021272482;-0.0050259326;0.17178613;0.03750342;-0.03728916;0.5352465;0.06225076;-0.26347938;0.2415864;-0.035678774;-0.44842434;0.22126175;-0.07713616;0.036029752;0.15118091;0.031046769;0.31539002;0.0041273306;-0.040544424;-0.251313;0.30846712;0.2221746;0.45153308;0.01459902;0.35164958;0.10754141;-0.14295995;-0.0033342608;0.121337116;-0.031001572;0.18224771;0.05648103;-0.13455598;0.2302242;0.008140474;-0.30549312;-0.024060344;0.020700485;-0.16896936;0.009013574;-0.26738107;0.051328078;0.062496495;0.32535166;0.5195892;0.15677385;0.13818717;-0.025915662;0.09812988;0.028851332;-0.06894535;0.49714673;-0.016788714;-0.17189069;-0.13317585;0.009428884;0.09143676;-0.05145585;0.08154983;0.34453875;-0.6466413;-0.03967892;-0.2616181;-0.12418906;0.2302649;-0.01233715;0.012261246;-0.25903472;0.29574755;-0.050460756;-0.014683455;0.031020036;-0.25402746;-0.20402297;0.054771874;-0.1847254;-0.30020052;-0.087466456;-0.09949802;0.07291669;0.6437027;-0.022475539;0.0047587138;-0.23364447;0.0241494;-0.0081645;0.07364806;0.801083;0.2862725;-0.124756984;0.1264807;0.04901885;-0.18000066;-0.1658508;0.23372413;-0.07059252;0.030334275;0.05094546;-0.23253398;-0.049448375;-0.019316968;-0.27791166;-0.23507275;0.112681635;-0.01594851;0.15247346;0.42729232;0.16892411;0.0924816;-0.5070386;-0.050616674;-0.3681246;0.13028124;-0.2305043;0.0007095287;-0.04655967;0.1440733;0.04430993;0.090432905;-0.18802711;0.05830293;-0.014923545;-0.64033055;0.03232692;-0.262118;-0.033581488;0.046394244;-0.085267656;0.036758166;-0.20000978;-0.058500364;0.073812306;-0.041863587;-0.1245069;-0.00018343325;-0.05458505;0.49161774;0.09140245;-0.1522053;0.060039204;0.19482821;-0.0072314856;-0.012467411;0.17402358;0.36103192;-0.007863608;0.09714049;0.036999915;-0.07886521;0.24126855;0.06816329;0.033776708;0.02606984;-0.12047473;0.01969834;-0.110857815;0.101465866;0.13242815;0.24507934;-0.00542065;-0.1083035;-0.0062706727;-0.22412464;-0.0010547541;0.31083453;0.021653678;0.050921164;-0.0036572088;0.37197068;-0.14379738;0.006194672;0.021811964;-0.022282366;-0.17852297;-0.0008292143;0.09188097;-0.3789791;-0.4167461;-0.041703034;0.06799305;0.041316528;-0.59574217;0.09729972;0.038229626;-0.04293325;-0.33408803;0.03865904;-0.10811518;-0.3666007;0.11615229;0.045741815;0.2583828;-0.14366469;0.31435302;0.27863568;0.329467;0.13939336;-0.0004165941;0.2707446;-0.108626455;-0.04740282;-0.023659224;-0.011443556;0.034206145;0.013226751;-0.0157198;-0.0034533783;-0.19500302;-0.007259711;-0.09487405;-0.0050843908;-0.17095436;-0.16474608;0.07857061;-0.087436594;-0.25359213;-0.13785967;0.0047095893;-0.016157733;0.1120044;0.0036117998;0.024453867;-0.01987603;-0.10861127;-0.024781073;-0.21983701;-0.3645922;0.13141046;-0.15784636;0.110634744;-0.04050187;0.26790464;-0.012695562;0.25981668;0.33045056;-0.26835933;0.032904547;0.07921656;-0.026238488;-0.31768483;0.015816977;0.31167063;0.025192566;0.060802616;-0.02878411;0.023959361;0.059474878;0.26151428;0.030553777;0.17575882;-0.11078456;-0.008424427;0.21433146;-0.16806845;0.00917281;-0.25729886;-0.020819202;-0.044621065;0.03130826;-0.26884523;0.24676605;0.12190051;-0.2166189;-0.00070525956;-0.193945;0.33338594;-0.19670843;0.04252356;0.05412398;-0.06738078;-0.10885631;-0.055848386;0.35985583;-0.46356407;0.14677863;0.23970138;0.31577802;0.042397987;0.19095653;0.040627304;0.0981028;0.22493805;-0.12491296;-0.0809826;-0.025106663;-0.04181732;-0.04998637;0.13759738;0.48591682;0.04450227;0.20248953;0.04226419;-0.0252449;0.28801608;0.13687913;0.23862347;0.019258115;-0.18133898;-0.0053963787;-0.014334845;0.030617643;-0.046367247;-0.16541292;-0.02752052;0.111293145;0.32297546;0.47353554;0.21037585;-0.024270436;0.040704552;-0.01299285;0.13069607;0.4121122;0.025420757;-0.012152531;0.5567753;0.16751282;0.019355813;-0.15349405;-0.16315009;0.30909657;-0.014537863;0.06767473;-0.24962987;-0.031361025;-0.19557758;-0.08342535;-0.0067807627;0.15163782;0.02078578;-0.2658987;0.010035893;0.012048902;-0.043712493;-0.011994606;-0.080847725;6.2749095e-06;0.13123287;0.037065726;0.2066902;-0.05550876;0.11668138;-0.09701965;0.28244314;-0.14974935;-0.06819071;-0.04441566;-0.1251216;-0.19949307;0.12685874;-0.05376783;0.109894514;0.41876104;-0.0477815;-0.3656269;0.009369876;-0.021861218;0.118028946;0.34533826;0.021163963;-0.056269463;-0.044988293;0.0019224179;0.2272388;-0.006005037;-0.023209238;-0.28857052;0.0073549934;-0.013610823;-0.16734667;0.30018988;-0.02432049;-0.25091153;0.11799105;-0.0428648;0.15578038;-0.0011133746;0.10570178;0.16267224;0.23337223;0.5026849;0.21713763;-0.24973512;-0.005512332;-0.04256577;0.26638183;-0.10682903;-0.22691421;-0.0007437637;-0.04686051;-0.055327564;-0.49124166;0.05199275;-0.029742807;-0.3426679;-0.019684603;0.1444496;0.0415367;0.011991018;-0.3105756
0.14943409;-0.46744695;0.11529652;-0.6288676;-0.018108465;0.34027782;-0.08860475;0.036925185;-0.0010409813;-0.5773682;-0.006687318;0.3091298;-0.34296015;0.33988705;0.28492308;-0.13999818;-0.15531625;-0.06758858;-0.3585342;-0.28778034;-0.018243104;-0.0010312339;-0.30022636;-0.29836386;-0.26389426;-0.012737468;0.01127052;-0.19229701;0.0046783728;-0.078651085;0.109705225;0.008961136;0.6352543;0.18185015;-0.09647774;0.0060790316;-0.353169;0.27568546;-0.31625187;0.3048946;-0.0043752557;0.0037457289;-0.32210302;-0.15207118;-0.014747538;-0.1381974;-0.012033355;-0.46757948;0.31643197;-0.003767845;0.0025091846;-0.4236579;-0.08460878;0.0047905687;0.0108415475;-0.059231363;0.005600317;0.19043705;0.032065183;0.883496;-0.005566725;-0.08820469;0.000899054;-0.19280224;-0.92029977;0.15747848;-0.04088511;0.21763279;0.12911811;0.0030514803;-0.11653602;0.014836755;0.005151551;0.17262903;-0.20242043;-0.24304648;-0.006235506;-0.028890783;-0.42519718;-0.005375291;0.0074326685;0.28767714;-0.15513203;0.33954594;-3.370081e-05;-0.3314641;-0.7657575;0.0017395244;-0.0056868587;0.005638207;-0.0011141028;0.1496624;-0.04204752;-0.06233266;-0.042153377;0.4256056;-0.55664325;0.7132493;-0.20648482;-0.07826322;-0.0013496849;-0.3598404;-0.31367564;-0.0125947995;-0.1310979;-0.10911059;-0.011442834;-0.28545853;0.13936363;0.012956824;-0.17829382;0.5652201;-0.28244203;0.06443572;0.110547625;0.049215704;-0.25885892;0.23040421;0.017633235;-0.0012466039;-0.4649504;-0.011837966;0.6876268;0.0030063023;-0.0084712;0.010949731;0.68240315;0.41580394;0.0019818132;0.08925664;0.04466885;0.18942289;-0.3444092;-0.5966824;-0.012731017;0.005278161;-0.04650511;0.09013259;-0.016244661;0.008767081;0.179355;-0.21398118;0.054317925;-0.24269487;-0.004610013;0.4865409;0.14219582;0.0061705005;0.34313232;-0.32262164;0.006156995;-0.36768842;0.062290628;0.4063178;-0.004620402;-0.011597011;0.0027059743;0.041868888;0.03359409;0.15191132;0.27829543;-0.010478033;0.33188203;-0.0044128206;-0.009977661;-0.67017543;-0.31526154;0.00046939365;0.7304336;0.2043013;0.06164023;-0.002922474;0.009109164;-0.08986854;-0.46348187;0.614017;0.020752547;0.0075914;0.27364329;-0.0063849385;-0.00013898808;-0.22662926;0.15810622;-0.12982379;-0.4110035;-0.091960214;0.56386447;0.18546426;-0.19445144;0.0055920095;0.09305201;-0.002287722;-0.27741918;-0.0021550383;-0.012576546;-0.51503336;-0.28731522;-0.41845915;0.42663807;-0.000672529;0.31250915;-0.085783;-0.24439842;-0.007749598;0.1173379;-0.0038133455;-0.045404393;-0.015771434;-0.08405032;-0.04066198;0.0502115;0.007052934;-0.014473462;0.02715154;0.07640304;0.015250712;-0.50559384;-0.13153717;-0.33321905;-0.08593376;-0.09101857;0.123201795;-0.09195181;0.0002581275;0.20184916;0.008512055;0.004112494;-0.29710904;-0.007879521;-0.21063147;-0.5174736;-0.014165933;0.26270562;0.13385983;0.5105984;0.26194954;0.3478463;0.0071903476;0.20582135;0.07220389;0.10876844;-0.006534577;-0.009474814;-0.15889741;-0.89963835;0.0121431155;-0.0014786902;-0.009071241;-0.030419992;-0.088347144;0.0065486967;0.45649728;-0.0023033018;-0.19281313;-0.15595447;-0.037905056;-0.30122352;-0.008006517;0.17781188;0.08599348;0.025249202;-0.008149511;-0.25440964;-0.009379955;0.028832473;-0.03627457;-0.1552283;0.3057619;0.7982223;0.131454;0.29337046;-0.365579;-0.021391982;0.54654694;-0.163824;0.011395724;-0.01300332;-0.5441229;0.19217765;-0.044160742;0.4039747;-0.30883405;-0.0020239614;0.37843743;-0.59837854;-0.26887015;-0.45605627;-0.11567339;-0.097506575;0.3083248;-0.0017951246;-0.6216314;0.32695615;0.34751025;-0.5567001;0.112767525;0.32038695;0.006069678;-0.3568121;0.00020554593;0.28752565;0.0030186328;-0.006164436;-0.20250443;-0.011696556;-0.0031665857;-0.004109362;-0.026466783;-0.0007742538;-0.20558211;0.008777434;0.19286339;-0.11169331;-0.36724055;0.65263486;-0.099657714;0.24875139;0.019078545;0.13514265;-0.0646597;-0.41565374;-0.20771359;-0.38675693;-0.0056619626;0.0057511088;-0.6265375;-0.037202157;-0.0017115265;0.003281673;-0.6898282;0.010755435;-0.16556038;0.08536591;-0.21499209;0.2244604;-0.0023180773;-0.5021869;-0.0023731962;-0.1794938;-0.009386826;-0.4366988;0.012953254;-0.35563353;-0.2665577;-0.020031959;-0.22529328;-0.002738534;-0.0033548614;-0.00074218656;-0.13008901;0.009046469;0.35047156;-0.52418506;0.06747228;-0.0047182916;0.050085537;-0.20143868;-0.32861578;0.51676565;0.08377747;0.0093144765;0.54928666;-0.0008559795;-0.015622428;-0.27147347;-0.09812332;-0.10644596;0.1328554;-0.048803322;-0.4439292;-0.34480754;0.23401324;-0.17821261;0.0036216003;-0.060622655;-0.15254232;0.056552906;0.24725124;0.014506328;-0.16071846;-0.003231033;0.0046619754;0.0038576142;0.66409314;-0.004044082;0.14543729;-0.009946534;-0.19763918;-0.2521003;0.26183066;-0.43134403;0.10459077;-0.21401626;0.08680043;-0.010128718;0.7936611;0.0007763835;-0.6426292;0.019281087;0.045723077;0.042247783;0.00529999;-1.1496807;-0.08627735;0.4170277;0.2303378;-0.117990956;-0.2731584;0.0638913;0.17536984;-0.8558541;-0.15424395;0.009961778;0.27104238;-0.004165731;-0.38384256;0.01496323;0.5245132;-0.006891482;0.32140148;0.0070964373;-0.34091374;0.31236294;-0.12945557;0.006007366;0.50636375;-0.21466285;0.008639415;0.45017102;0.029601263;0.009198863;-0.15273038;-0.014674816;0.01430583;0.0152987065;-0.21858598;0.3175422;0.53079367;0.6478705;-0.0075491173;-0.8471068;0.28344256;-0.14197491;-0.004004535;-0.0182949;0.0059315325;-0.28638494;0.12424239;-0.00891939;0.3771441;0.26170522;0.30627802;-0.024091076;0.004521726;-0.17643829;0.008839201;-0.3384197;0.43284208;0.08170552;-0.4234073;-0.2716955;-0.08609499;0.13811593;0.19319741;-0.20164227;-0.38023293;-0.06858411;0.400856;-0.054525577;-0.27865437;-0.07178466;-0.15547046;0.013633426;-0.09648257;0.7912041;-0.0011614999;-0.00010296664;-0.013749259;-0.52727205;0.0031217297;0.023361318;-0.1928679;0.542495;0.11303208;-0.0022520549;-0.0012253394;0.016451757;-0.37713078;-0.15606068;-0.28370407;0.0060731024;-0.40928677;0.85683113;-0.04083005;0.42456296;-0.34843847;0.45994416;-0.01131825;-0.26272425;-0.21744007;-0.0050405264;0.40884072;0.37043324;0.0043583;0.23661731;-0.026128756;-0.16159381;-0.0012322393;0.017339548;-0.005051346;-0.22964756;-0.41901413;0.0050070747;0.05046752;-0.0003463176;-0.1559314;-0.0016556862;0.21391207;-0.5922351;0.09763555;0.23088746;0.29311264;-0.0020466987;-0.44724226;0.16860494;0.49028668;0.024795847;-0.23877625;0.5832017;-0.00067236274;-0.17851298;0.0060841586;0.010372515;0.0120824305;0.08490977;0.013071161;0.29826742;0.0071769296;0.003184196;0.122064374;0.13351065;-0.0051100575;-0.41775936;0.00015959055;-0.014648705;-0.17991793;-0.18857707;0.0067637423;0.043805018;-0.44637722;0.020470493;0.7345348;0.0078878505;-0.52214193;-0.6844773;-0.07419797;0.59351444;0.264547;0.37372524;0.014101949;-0.066346854;-0.27806053;0.34383485;0.10006697;0.59639925;-0.050008267;-0.0026224868;0.11747621;-0.22775213;-0.010447351;-0.6308773;0.10611787;0.07558235;0.0038652446;0.0020560345;0.2069216
-0.076934494;-0.0108627025;-0.14710543;-0.2475472;0.016233942;0.19077846;-0.19488265;0.24913463;-0.014044419;-0.09243952;0.006990568;0.24655917;-0.06759774;-0.0066978266;-0.12313246;0.14035742;-0.24338736;0.12475511;-0.16173102;-0.19724783;-0.0013273282;-0.0064508407;-0.6071065;-0.09923676;0.04111796;0.008864362;-0.0066492218;-0.07813086;0.04187196;0.17822573;-0.12874557;-0.013971812;-0.36129266;0.034203343;-0.27881667;-0.123165734;-0.26656464;-0.05352175;-0.066175304;0.15334794;0.0010859502;0.0116212955;-0.2968655;-0.4031105;-0.0023529402;0.21202733;0.01717924;0.08720005;-0.20041764;0.009901796;0.007571794;-0.2233529;0.18975072;0.011861342;-0.014474654;0.014848942;0.006159657;-0.0744516;0.047019787;0.27203196;-0.0006834958;-0.27162644;0.0154040735;0.10877039;-0.26664707;0.09571632;0.0040220027;0.016606824;0.01031739;0.0014562386;-0.21034372;-0.012265582;0.002610179;0.07625736;-0.16260849;-0.22474395;-0.008087657;0.06281966;-0.328326;0.005689544;-0.007899307;-0.14673455;-0.4547106;0.08847887;-0.0009517942;-0.4450466;-0.3350218;-0.0036221324;0.00041436224;-0.0063848505;-0.0012827417;0.35096973;0.025439622;0.06065083;-0.15793066;0.41627318;-0.42072013;0.10051665;-0.064549126;-0.2469043;-0.0034260019;-0.23421961;-0.13989586;0.023987554;0.25576177;-0.09656996;0.006000349;-0.0697888;-0.07993985;-0.0076362714;0.051996067;-0.25985265;-0.12850723;0.060059637;-0.13970135;0.21240655;-0.044001717;0.22627737;-0.014273751;0.034831237;-0.57585245;0.0021627834;0.2862373;-0.002862402;0.014542227;0.0026344536;0.41251692;0.23437564;-0.009849051;-0.22069049;-0.035971947;0.08207803;-0.120019525;-0.6093423;0.015920274;-0.14153914;0.107828915;-0.16412136;0.0012146542;-0.0043651676;-0.026232827;-0.3798982;0.17212571;-0.22734025;-0.00015139257;0.23959835;-0.14081144;-0.0046593854;0.2742592;0.32020348;-0.0045598657;-0.1894993;-0.084553674;0.22304012;0.015214349;0.01590462;0.008628268;0.16604865;-0.23429205;0.12076232;0.01676659;-0.005315029;0.36987182;0.0078097703;0.00080997916;-0.2720898;-0.38086855;-0.01021297;0.08700205;0.46552488;-0.24308564;0.003178364;-0.013785217;0.06952061;-0.0705735;-0.033905998;-0.023691794;0.00718095;0.11772257;0.0068731075;-0.009656834;-0.6114663;0.019284789;0.18507344;-0.047397893;0.09961714;-0.16935182;0.123107865;-0.2796076;0.0039811707;0.42762697;0.0018718255;-0.32897475;-0.00059073215;-0.005147801;-0.30528188;-0.0153090935;-0.13894792;0.33212024;-0.0023539823;0.32232904;-0.20836258;-0.30391347;0.0010153875;-0.2195156;0.0060965978;0.33114177;0.010498986;0.50750566;-0.10730884;-0.027754767;0.010496576;0.013679984;-0.008322195;0.018126097;-0.0037538027;-0.05841042;0.09567785;-0.028459182;0.042505063;0.17412885;-0.3707212;0.1201646;-0.008191653;0.10127105;-0.000850652;0.014041321;-0.23984276;0.0057441513;-0.21019556;-0.5508279;0.018527092;0.15511167;-0.14496867;0.27932665;0.120239176;0.20833713;0.0068657147;0.17365445;-0.022737836;-0.03705474;0.021191696;0.006633303;-0.07472502;-0.2963763;0.043344613;-0.0053883353;-0.03976118;-0.33872697;-0.18032573;0.003581923;0.29160568;0.06494417;0.28248188;-0.187194;0.0546758;-0.27578193;0.012192165;0.34574515;0.10975542;-0.02083085;0.0067595392;-0.24711047;-0.041838888;0.08571528;-0.33490247;0.045379404;0.06356763;-0.01665038;0.13615596;-0.051830646;-0.4168673;0.01333427;0.36215714;-0.23173861;0.005480409;0.014299198;-0.4271499;0.26201478;0.1264041;0.39664233;-0.21956225;-0.34118155;-0.14312576;-0.1954525;-0.32101688;-0.67340684;-0.23070385;-0.3508984;-0.039304454;-0.0029294263;-0.31024122;0.42999864;0.114074275;-0.3897972;0.09642155;0.1877328;0.0024123536;-0.09137914;-0.0025074743;0.08122944;0.0026228228;0.0052631884;0.08314619;0.005715145;0.0703588;9.206398e-06;-0.003967414;-0.0020992698;0.015318193;0.0084941825;0.14583279;0.19631474;-0.120310955;0.13351494;0.25217286;0.014200969;-0.0033087712;0.027512621;0.0016763872;-0.49252784;-0.10772295;-0.15774547;0.007864633;-0.032938354;-0.08554532;0.029673528;0.0015211124;-0.009268516;-0.4660008;-0.024788538;-0.1794853;0.048875064;-0.22931376;0.41164377;-0.013022271;-0.40054205;-0.0015774624;-0.18835542;0.0068085063;-0.35977674;-0.0071341773;-0.034250945;-0.31161013;-0.08027652;-0.012121421;0.007958416;0.0069298246;0.013902896;-0.1218698;-0.002430872;0.20961031;-0.5521948;-0.053924;-0.0011538939;0.10217924;0.07461401;0.029537732;0.068442136;0.16933167;-0.030567445;0.08711006;-0.00021864517;0.13989721;-0.20395492;-0.10109874;-0.34754446;0.010997685;0.12383104;-0.1779107;-0.14021306;0.24517205;-0.38585794;0.020135751;-0.14762636;-0.027359327;0.03933298;0.27000657;-0.013167792;-0.15965694;0.013181073;-0.010362517;-0.0121753365;0.4341837;-0.0057928935;0.1001158;0.010938113;0.029196667;-0.13594139;0.3776667;-0.27926028;0.6302564;-0.10188271;-0.006428168;-0.012259257;0.5647334;-0.013666163;-0.11355921;-0.0043780506;0.17242433;-0.04367205;-0.17371331;-0.34989262;0.00655586;0.23445347;0.32196736;0.077067986;-0.26664948;0.5014777;0.18879332;-0.80644983;-0.18791747;0.00690887;0.050971705;0.011520009;0.29574117;-0.007164671;0.28215295;0.012441418;0.22216284;0.010623002;-0.57898855;0.31135353;0.20923539;0.0019890068;0.25876084;-0.10702658;-0.016044071;0.31911823;0.1366966;-0.01683337;0.29923144;0.018455783;0.04289482;-0.0071140886;-0.03277716;0.061770223;0.29806817;0.4324167;0.007174324;-0.18912649;0.53272474;-0.101555176;0.014723963;0.0036405625;-0.22341713;-0.3189782;0.11744882;0.3535348;-0.008754308;-0.2814138;0.28815627;-0.12228204;-0.003275822;-0.14220782;-0.0080907615;-0.31220332;0.2618516;-1.057465e-05;-0.34811565;0.2747049;0.068585165;-0.04267689;0.4170073;-0.10657195;-0.04841019;-0.10419724;0.5586228;-0.17852998;-0.06620196;0.07436853;0.023963887;-0.020305393;0.08796124;0.09476897;0.0070229606;-0.015021694;-5.0089773e-05;-0.3269772;-0.0064057247;0.15003571;-0.5256096;0.036440127;0.044517655;-0.0055839284;-0.0032244683;0.07841567;-0.20427187;-0.22006969;0.08721112;-0.02061399;-0.547381;0.31322184;0.054435365;0.3304169;-0.23816766;0.12377502;0.013953657;-0.3977593;-0.33037916;-0.002336877;0.26153025;-0.017747266;-0.0044639083;0.039098825;0.031236866;0.042821735;0.030800892;-0.021059843;0.002258289;-0.07423639;-0.057798855;0.0037659572;0.1412839;0.0028793106;-0.09577597;-0.00210404;0.07497449;-0.31612995;0.06014182;-0.02756208;0.010655811;0.010146227;-0.44768754;-0.03704196;0.28552735;-0.05366559;-0.12983955;0.43307662;0.0012150625;-0.04677322;0.0019057592;-0.0023705605;0.088272296;-0.14376314;-0.013402889;0.020034572;-0.0049312403;-0.0042908513;-0.085017666;0.07487029;0.0033230407;-0.49747267;-0.0048243757;0.015379009;0.024802731;-0.41988415;-0.011800128;-0.06875075;-0.18904665;-0.03166775;0.527762;-0.014293273;-0.33417436;-0.01936104;-0.2689364;0.110001564;0.07359369;0.13628693;-0.0070419945;0.029604906;-0.27525198;0.13030134;0.15926552;0.2520256;-0.031140687;0.0012420581;0.19775419;-0.14112273;0.00939212;-0.37834418;-0.15549716;-0.020362306;0.006570535;-0.006062884;-0.3638397
-0.09908253;0.08637485;0.004093036;-0.25566587;-0.0019275576;-0.05651017;-0.30674025;0.17623957;0.022055734;0.15437372;0.001144912;0.015914043;0.10348063;-0.010569344;-0.02052582;0.013558095;0.13416873;0.13079987;-0.1904551;-0.23770694;0.15014718;0.021177746;-0.31350592;0.23989667;0.012318592;-0.004156405;-0.0023448896;-0.06683665;0.17599992;0.055076793;-0.041850273;-0.00045447267;-0.55909806;0.06851015;-0.030063825;-0.114537284;-0.24531154;0.06285039;-0.13803296;0.06617256;0.0009097748;-0.022897892;-0.19204096;-0.09768547;0.0032502348;0.36068076;-0.0043843435;0.20049497;-0.2765387;0.0006220295;0.00048702024;0.041560408;0.23366697;-0.011406477;0.008616208;-0.040804368;-0.007873914;-0.093288;0.011587707;0.23684098;0.0053172093;-0.22286727;-0.021492021;0.05485259;0.015740264;0.073699445;0.034301326;-0.084954426;0.016704874;0.0009632968;-0.20742343;-0.00016366225;-0.0014932053;0.15531267;-0.19582976;-0.076891765;0.02115367;-0.05652936;-0.3585281;-0.0027766281;0.003635593;-0.21153267;-0.16780385;0.050601218;0.005434171;-0.5509803;-0.022331752;0.0024901696;-0.0017957222;0.015169688;-0.0061861402;-0.042609382;0.1069633;-0.18180504;-0.4002436;0.2673046;-0.40777928;0.029190987;-0.009235976;-0.37126917;-0.0011418854;-0.4559432;-0.11301332;-0.017075423;0.49683565;-0.18322155;-0.0046271323;0.11983472;-0.026686722;-0.0008348897;0.052380107;-0.35683784;-0.023462826;0.051660232;0.02996422;0.14960602;0.14603105;-0.03875728;0.006956425;0.086834624;-0.63650316;-0.0076023927;-0.028733624;0.004352588;-0.008176832;-0.007833132;0.5002717;0.13553403;0.003958357;-0.19132492;0.23396157;-0.011663858;-0.3004875;-0.40170363;-0.0182526;-0.1358554;0.2898385;-0.08885916;0.0011121283;-0.0054916227;0.07450302;0.039053403;-0.10340933;-0.08480105;0.007036768;0.06400254;-0.16023222;0.008149795;0.36611533;0.45372003;0.011795455;-0.067121625;-0.017892377;0.26148835;-0.017647415;-0.007128879;-0.0034186807;0.24933667;-0.2915125;0.053635873;-0.06439795;0.020398479;0.38220307;-0.0028292527;-0.00051552866;-0.23419344;-0.31199217;0.007602139;-0.04576936;0.21848723;0.02056766;0.010535659;-0.003017691;-0.077845044;-0.18187656;-0.03320118;0.021153802;-0.021974463;-0.047447175;0.0011160731;0.0067778435;-0.3397433;0.08240385;0.27878177;0.027069593;0.5897857;-0.10609243;0.24731803;-0.06619909;0.01052953;0.25788024;0.015808245;-0.09582625;-0.007660914;0.008027972;-0.11497615;-0.196414;-0.09225841;0.23394914;-0.0048111626;0.27978885;-0.0050469497;-0.15601118;0.0073118885;-0.18478575;0.0054247007;0.3071892;0.01690324;0.45478556;0.1816233;0.014137741;-0.11072433;-0.002009895;0.0012602117;0.18659095;0.0030642035;0.13440478;-0.0027112032;-0.1517055;-0.14423954;0.05496621;-0.23026428;-0.09246257;0.019233933;0.23360783;-0.0018807346;-0.018748086;-0.20874442;-0.0021376405;-0.09332445;-0.5789622;0.005651581;0.08737258;0.10141517;0.25532347;-0.016806802;0.27643248;0.00050203514;0.100371115;-0.12979546;0.101180725;-0.035726305;-0.0022645034;0.12682801;0.15179922;-0.03487393;0.0041811042;0.05259353;-0.23813431;0.07645606;-0.018127352;0.017849347;0.10515395;0.35741463;-0.05264045;-0.01207091;0.034934465;-0.016478421;0.5947074;0.074195884;0.003560408;0.0008831306;0.11268019;0.12311254;-0.1808727;-0.28456095;-0.2526212;0.030495012;-0.349829;0.039682668;0.031123059;-0.5522118;0.020247191;0.23604846;-0.3419621;0.005797764;0.007705953;-0.23214543;0.17368896;0.020399803;0.28045672;-0.020579996;-0.16369788;0.13014841;-0.18923227;-0.26910752;-0.058471877;-0.27757832;-0.33144355;-0.08415059;-0.017249351;-0.2363612;0.30899552;0.06498711;-0.25730902;-0.031247545;0.2169008;0.0022486877;0.14219391;0.0012564494;0.015361462;-0.00093603693;-0.015810227;-0.06564637;0.0047461437;-0.025087142;-0.0060407347;-0.02555304;0.0011859485;0.1520944;-0.008107255;0.1779165;0.164812;-0.038963664;0.08719976;0.037859987;0.03427785;-0.0032206564;0.04706513;0.06965654;-0.3106954;-0.07880393;-0.1403228;-0.016836397;-0.030190274;-0.11836748;-0.0045680776;0.0061445236;-0.0039542895;-0.20194092;0.010562842;-0.11959946;0.10228543;-0.017321074;0.31798905;0.009760222;-0.21727519;0.011121163;-0.14653952;-0.011130278;-0.08659279;-0.005206648;-0.27236602;-0.15814954;0.044171434;0.007552243;-0.0063373884;-0.0029021397;-0.00572493;0.23640159;-0.0032082757;0.17099048;-0.46820974;0.060371153;0.011124219;0.3453775;-0.075598955;-0.00635243;-0.13981839;0.06608491;0.04107461;0.03694856;0.00020351807;0.06763353;0.07784659;-0.05197746;-0.28406036;0.017888611;-0.07499478;0.15880099;-0.24932532;0.009489602;-0.4444272;-0.0285096;0.20893681;-0.095775574;-0.09557783;0.23519585;0.022084057;-0.23922625;-0.0030257078;-0.009395483;0.02149285;0.080493465;0.019653212;0.45717627;-0.009050013;0.21256825;-0.15116543;-0.029912457;0.049014248;0.32855675;0.018208826;-0.02340446;-0.0014200073;0.3268018;0.0172011;0.25698158;-0.0038242952;0.041536815;0.034888424;0.020032214;-0.5827614;-0.061405856;0.13531555;0.3960414;0.10894155;-0.33014658;0.2215389;-0.003927298;-0.7527138;-0.06638886;-0.0099343965;0.11522043;-0.0114795845;0.28630427;-0.0016838465;0.07928386;-0.025175309;0.044458035;-0.030946566;-0.55425;0.29921788;0.07971919;-0.0070265173;0.26690206;-0.004685036;0.025732245;0.08402939;0.05808052;0.02157402;0.32181758;0.00033525;0.0066888863;-0.0018971727;0.076269105;0.114104375;0.11409241;0.20425247;-0.00064129685;-0.10006654;0.28324512;-0.25720662;-0.01759748;-0.082357295;-0.13238205;-0.123032026;0.0014401141;0.25132254;0.12890196;-0.211289;0.23638287;-0.1087828;-0.0100430595;-0.11502782;-0.01868818;-0.00075542374;0.14151615;0.15393966;-0.1510176;0.26619855;0.002804978;-0.29469317;0.056473497;0.018042075;-0.07927414;0.055949863;0.3815691;-0.24049185;-0.029815227;-0.00391712;0.013238408;0.00034035917;0.030070841;-0.3058568;0.001796077;0.018132761;-0.0020351373;-0.08420048;-0.0067885295;0.14767884;-0.2857519;-0.20884752;-0.22707877;-0.0006786815;0.0046707084;-0.10212139;0.11055735;-0.024510857;0.12102938;0.0205274;-0.046861883;-0.12848604;0.004047299;0.1867198;-0.059472594;-0.39632595;-0.013924566;-0.2371125;-0.15265724;0.0073033585;0.276782;0.07006673;-0.008326601;-0.21649995;-0.012947655;-0.2515327;-0.011420791;0.014454451;-0.0037326175;-0.046866845;-0.20216075;-0.014606507;0.0015237591;-0.0007550215;-0.07563038;0.009704502;0.020292511;-0.4024391;0.018143013;-0.2970817;0.17636685;0.0060218363;-0.54537964;-0.07213455;0.23714781;-0.03160925;-0.20219101;0.31757247;0.0018564055;-0.0068338537;-0.0019946708;-0.015233924;0.2750102;-0.0023773075;-0.005445521;-0.2804136;0.0012335255;0.013318693;-0.03829223;0.07290893;0.005685996;-0.37321228;0.0041498127;-0.0013785913;0.24463469;-0.4457593;0.007854057;-0.108063355;-0.039388064;-0.012396316;0.33988458;0.0101427585;0.010503253;0.27835742;-0.13598391;0.3687386;0.13492024;-0.009745962;-0.0051849023;0.15136418;-0.25089693;0.19903477;0.1494792;0.51341516;0.027951945;-0.0038135566;0.20426823;0.08980937;-0.009930663;-0.21398255;-0.10335736;0.14641987;-0.005673922;0.012731182;-0.40607247
-0.01750241;0.16783763;0.022172812;-0.20772256;0.016561665;0.040977936;-0.1640788;-0.024119643;-0.0037472888;0.1833134;0.0029448364;-0.030529315;-0.017347513;-0.062652536;-0.025603049;-0.11312439;0.24498774;0.15926677;-0.094974734;-0.21787332;0.207997;-0.01942844;0.0064540883;0.12839383;0.009462952;-0.00778652;-0.0072578243;-0.20339675;0.063478924;0.2532946;0.09786292;0.004966053;-0.31501698;0.07694381;-0.29105332;-0.038091477;-0.17752647;0.03375708;-0.036980063;0.062495153;0.008361551;0.014081423;-0.2775656;-0.19009376;0.018647503;0.29803106;-0.0015141931;0.23478344;-0.060596667;0.003838887;4.0190407e-05;-0.14097826;-0.033420883;0.0065824715;-0.018756842;0.3451821;0.00045025558;-0.002805444;-0.011287389;0.019234044;0.0010103215;-0.18134837;0.012316318;-0.015537445;0.26286894;0.2113141;-0.0070600994;-0.10297733;0.17290643;-0.021294419;-0.33455124;-0.001970193;-0.015222227;0.07649628;-0.04899099;0.06685856;-0.009388137;0.19129726;0.10321754;0.0015939828;0.0031113352;-0.19391902;0.12887815;-0.03880863;-0.0027665128;-0.55075675;0.16016696;-0.0075346273;0.0019662078;-0.010784034;-0.0014335765;0.026119068;0.09814211;-0.16245613;0.0968584;0.019496074;-0.1525499;-0.14458399;0.0992809;-0.34690815;0.009850485;-0.34893924;-0.24189584;0.008087022;0.11744543;-0.12984182;0.019415647;0.016150132;0.05685402;0.0038150493;0.21070677;-0.35264033;0.10296074;0.159117;-0.32328597;0.22488938;0.0009907419;-0.028882844;-0.005865322;0.15342152;-0.49438265;0.014696406;-0.16806921;-0.004470742;0.0055534267;-0.012424405;0.43347964;0.22931127;0.009971185;-0.26502535;0.05131081;0.10597962;-0.23812301;-0.3365741;0.017009376;-0.1230833;0.28625074;-0.036633927;0.013058375;0.003026366;-0.23447064;-0.4470645;0.24339122;-0.30800128;-0.008034556;-0.23564431;-0.10776814;0.000720832;0.24707907;0.46360707;-0.0058396473;-0.03661969;0.054987364;0.34518018;0.024102014;0.015832027;-0.00049655704;-0.043038532;-0.3303284;-0.013140404;0.061708316;-0.00031023196;0.119370066;0.0061635305;0.01971094;-0.27738205;-0.33709592;-0.0012643946;-0.22007184;-0.08183861;-0.06001235;-0.028089179;0.017778609;-0.051176555;0.10104397;-0.3131866;-0.031107433;0.0078726;-0.08211948;-0.007081874;-0.0015280935;-0.30958885;0.08645667;0.3161777;0.3703594;0.14240395;0.03829736;0.1840651;-0.121499814;-0.03607066;-0.15585485;-0.0024568571;-0.014295184;0.028114615;-0.0036259177;0.17412198;-0.25198403;0.08292126;0.16314428;0.008534843;0.12795116;0.017550651;-0.037401505;0.0030934166;-0.4198036;-0.0061886692;0.27616915;-0.03462577;0.37797624;-0.18666029;0.045511886;-0.21578696;0.0021534718;-0.0010500562;0.19898972;0.0064668814;-0.0064650914;-0.07749538;-0.17496216;-0.06110448;0.15933938;-0.2090726;0.01985628;0.001076359;0.02445702;-0.0064420737;0.000128829;-0.2608015;-0.004900612;-0.12346555;-0.47175986;-0.0062907035;-0.23228458;-0.12597688;0.2995472;-0.04414091;0.23627885;0.0027910285;0.082645744;0.028033732;0.09266902;0.033148658;0.00837937;0.015254736;0.21997175;0.024350913;-0.009263062;0.036078017;-0.25247908;-0.108812384;0.013117699;-0.08665893;0.15502407;0.3610946;0.15595746;0.012306361;-0.27238148;0.022154696;0.22633986;0.08449787;0.004185397;-0.0028184056;-0.030446684;-0.055517387;-0.09301411;-0.3656719;-0.1103179;-0.03515972;-0.3013842;-0.25717694;0.1638343;-0.39405787;-0.009359311;-0.15971574;-0.21905418;-0.014592702;0.00048644602;-0.1035454;0.27369186;-0.20137826;0.09369302;0.23037924;-0.24752586;0.055139493;-0.17636263;-0.12809892;-0.010888937;-0.31308404;-0.27602276;-0.21906324;0.019258177;-0.13974792;0.10131408;-0.02985849;-0.15439247;0.062183343;0.14104892;-0.0026927216;-0.097716466;0.0013135755;0.039363872;0.003935098;0.027022041;-0.11902571;-0.0031764118;-0.008262302;0.0073892293;0.031988494;-0.009029996;0.13665505;-0.0011386198;0.022256518;0.31689018;0.27043447;-0.23170906;-0.005088548;-0.03469201;-0.013075714;0.16541696;0.058447313;-0.17587827;0.011952666;-0.17121382;0.022525555;0.023635881;-0.2655486;0.013413551;-0.0033996275;0.0105563905;0.11472509;-0.0007867011;-0.40950993;0.36297494;-0.2470829;0.18400998;-0.0068257814;-0.19943503;-0.0027389019;-0.015250206;-0.009738793;-0.45983273;-0.0056075556;-0.119539365;-0.15220165;-0.16045979;-0.06672289;-0.00020655256;0.007750304;-0.00947062;0.3939531;-0.004726405;0.15371594;-0.35693678;0.13311796;0.0032440815;0.36304057;0.102368385;0.008438789;-0.2669179;-0.059457373;-0.024207138;-0.06500307;0.0020401112;0.0336539;-0.008514623;-0.11590884;-0.07996372;0.21728055;-0.08015225;0.34126267;-0.3037725;0.05459932;-0.2534402;0.008067006;-0.0844056;-0.11261755;-0.24810006;0.29504278;-0.04659866;-0.17351045;-0.006559136;0.005468233;8.809556e-05;0.025713915;-0.0037841825;0.19449218;0.0034309207;0.106421344;-0.21787472;-0.36284244;0.35992396;0.41889253;-0.043991435;0.12665808;0.022598535;0.17824157;0.0033270803;-0.03832247;-0.008679721;0.24945372;-0.030165685;-0.15063916;-0.45096427;0.19731621;-0.10246821;0.17195578;0.1089677;-0.23251712;0.14907824;0.17209631;-0.6047549;0.039532628;-0.008296148;0.067711174;0.0052261665;0.4350811;-0.0060200826;-0.02237755;0.01815754;-0.1941443;0.014013866;-0.44177207;0.208509;0.2996501;-0.002781999;0.14871708;0.36739606;-0.014764346;0.1665292;0.37939546;-0.01746806;0.13882767;-0.016704762;-0.017238474;-0.004181411;0.04554542;-0.096198276;-0.12311838;0.15496624;0.005378016;0.024394022;0.027077343;0.042000342;0.008498697;-0.103390045;-0.021040043;-0.09144428;0.10747786;0.30417222;0.09884487;-0.3931965;0.12362807;0.063663125;0.008936675;0.09148273;0.009338327;-0.038636565;0.25105035;-0.038814694;-0.028736945;-0.009269151;-0.031681865;-0.38040766;0.15578215;0.019986076;-0.1883944;-0.09835302;0.25577012;-0.66738874;0.1240078;0.07187904;0.17483121;0.006394469;-0.16562559;-0.25734288;-0.010252139;0.0025941206;0.0236217;0.05125976;0.0127861835;0.039823335;-0.03998247;-0.28037053;-0.05158019;-0.00015423782;0.0021668694;-0.18354826;0.15768626;-0.050452664;0.1721973;-0.010307308;-0.19489825;0.18282166;-0.025739836;0.01691261;-0.24912909;-0.18890965;0.0051727593;-0.20531954;-0.1670806;-0.006531005;0.013238871;-0.217977;0.02034123;0.018820474;0.021522688;0.040888555;-0.04185624;-0.0072945887;0.006499539;0.07321978;0.14155439;-0.0003104661;-0.12966019;0.011381176;-0.13810164;0.0033895874;0.13827845;-0.23474985;0.2574072;-0.012074764;0.045945536;-0.017071083;-0.35510546;-0.18777628;0.33019835;0.106222406;-0.0705181;0.34716728;0.00043915852;-0.12497035;-0.007601587;0.0003567349;0.10834481;0.046242204;0.0010996507;-0.38295004;2.5636593e-05;-0.016322743;-0.20717144;-0.0030466393;0.006369302;-0.14750434;0.005564911;-0.005981012;0.1518547;-0.3486348;-0.012443515;-0.3997578;0.0869925;-0.017328171;0.14176966;-0.010071778;0.10074178;0.2061853;-0.17359585;0.010204806;0.18949363;-0.035262488;0.002399125;0.09086211;-0.35933784;0.13554019;0.081809826;0.47289386;-0.083760574;0.0129528;0.21153682;0.20123465;0.0129800895;0.120467655;-0.20756553;0.2822396;0.008784116;-0.010387914;-0.36993703
-0.32838437;0.3020509;-0.01996398;-0.14622785;-0.007851753;0.0233177;-0.13900262;0.09018879;-0.0027821355;0.27086896;0.0005964844;-0.018318646;0.20671064;-0.12224236;-0.037430182;-0.17618705;0.25402242;0.30086124;0.014191594;-0.21084434;0.1726144;0.012848649;-0.08552715;0.06372396;-0.0067419475;0.010806542;0.01783558;-0.06121217;0.10347005;0.104628034;0.22492777;0.0006904066;0.032446988;-0.10877218;-0.468148;-0.075370416;-0.108488835;-0.1994765;-0.017049426;0.07192392;-0.009724167;0.0030528314;-0.16657612;-0.19928752;0.005140211;0.033184186;0.0033921497;0.25570312;-0.05599746;-0.016780352;-0.0062866756;-0.18199867;-0.09930819;-0.00981927;0.008629765;0.32525942;0.0015150998;0.048921082;0.032383546;-0.36162877;-0.009815793;-0.19491659;0.0019796775;-0.07737449;0.4120922;0.01353435;0.0101987105;-0.23103945;-0.15258642;0.0050273165;-0.39017162;0.0035624716;0.0066388263;-0.014869309;0.002924262;0.28562233;0.0065049357;0.1289733;0.07709438;-0.0075712265;-0.008705577;-0.53664756;-0.23532706;0.076793306;0.016558545;-0.551354;0.085003965;0.010466632;0.0026370971;-0.0060636974;0.0079306215;0.0014281925;-0.117170244;-0.059441004;0.041979104;0.08198089;-0.18226282;-0.3223007;-0.045049295;0.13362774;-0.0056800996;-0.08568969;-0.24263285;0.0027601994;-0.04580546;-0.2857901;-0.0132243475;-0.16347717;0.09303214;-0.013836156;0.14871496;0.0047984463;0.012006749;0.28705046;-0.31608453;0.25722438;0.3192905;-0.054382898;0.013919204;0.15069066;-0.12990756;0.012687934;-0.010143295;-0.0018503901;-0.004911392;0.014296369;0.29685158;0.10790136;-0.016945953;0.03190779;4.1588828e-05;0.32113945;-0.102158085;-0.22296384;-0.0047544567;-0.15120907;0.32239085;-0.16169208;-0.0024406945;0.0010437305;-0.16090074;-0.22518083;0.17199491;-0.18193412;0.0061739287;-0.21674229;-0.122619934;-0.0059772427;0.2803945;0.33652785;0.006360651;-0.024265863;-0.01990393;0.2488914;-0.018561708;-0.017822582;-0.012332201;-0.025584131;-0.27588728;-0.17456844;-0.110254854;-0.0013359721;0.10033796;-0.014918598;0.008230291;-0.49221015;-0.19876742;0.0016555077;-0.041805536;-0.18013994;-0.26475683;0.0372552;-0.011677863;-0.2611333;-0.12405008;-0.0735451;0.0056678904;-0.007198839;-0.09150384;0.022531958;0.010852161;-0.122257784;0.03768834;0.27246565;0.09169197;0.139132;-0.017431192;-0.016496973;0.048564076;0.027462266;-0.21556777;-0.0015957123;0.12831667;-0.0018742437;0.003486124;0.22546351;0.015426948;0.0016356183;0.40200114;-0.0030397214;0.3156852;0.0862994;0.287608;0.001844608;-0.17607258;0.009898146;0.07316616;0.027090691;0.22825937;-0.081257746;0.018978663;-0.32915097;-0.012437873;-0.019827481;0.14788349;-0.013169868;-0.25425518;0.035093144;-0.14353362;-0.101593025;-0.089614585;-0.2825977;0.088983655;-0.011613585;0.1768383;0.010422493;0.0031091268;-0.23300932;0.0035638472;-0.093463056;-0.18347856;0.0024903575;-0.29008168;-0.028108006;0.44548586;0.120029725;0.31286055;-0.008003725;0.013039568;0.12532939;0.045671377;-0.008833394;-0.0089206835;0.29798245;0.17165022;0.00045984655;0.008091483;-0.065965325;-0.13088147;-0.2946462;-0.0068544927;-0.1934598;0.1569909;0.32572195;0.20812643;0.0047808494;-0.098053455;-0.008297571;0.09622023;0.080138355;-0.012754003;0.0021886374;-0.08756665;0.0123749245;-0.103516735;-0.40735218;-0.29256117;0.17136033;-0.13407588;-0.2465221;-0.15645479;-0.5506384;-0.0017781046;-0.28893563;0.054619;-0.012851804;-0.010260205;-0.32028696;0.00077639386;-0.27017877;-0.071605;0.3190714;0.078683555;-0.13436133;0.041735087;0.18300739;-0.015149273;-0.20743927;-0.17812915;-0.22524223;0.0034110418;-0.10040104;0.2280134;-0.14887573;0.055519275;0.17854972;0.2003042;0.01949895;-0.0011777226;-0.0051965285;-0.089764565;0.005215192;-0.0079953885;-0.1655051;0.006704776;0.009596044;-0.005054674;0.001086164;0.017093182;0.10277049;-0.01343652;-0.022458978;0.04583809;0.25028905;-0.17553869;-0.12889951;-0.22498192;-0.0024475597;0.0075493194;-0.10401184;-0.15452024;0.2712828;-0.2104601;0.0018679472;0.055204004;-0.20164123;-0.024814636;-0.0033976913;0.0043773637;0.13267152;0.014447817;-0.26977703;0.2537748;-0.36635965;0.12698525;0.026444562;-0.29229727;0.0003838078;0.116678864;0.024811838;-0.46257502;-0.0037568423;-0.1478413;-0.31373402;0.023189941;0.093710475;0.0014283828;-0.0047533745;-0.003973878;0.077968344;0.0010171833;-0.09457863;-0.29583845;0.20384572;-0.004144906;0.12285429;-0.061966088;-0.19678143;-0.26567385;0.07638539;0.005153667;-0.28094095;0.0048199426;-0.16980273;-0.101686336;0.033685613;-0.12602116;-0.058489025;0.06042976;0.19599622;-0.33570856;-0.04995978;-0.1861079;-0.014431457;-0.120087735;-0.085754566;-0.08891886;0.20790407;0.02033524;0.102265775;0.01037104;0.001151621;-0.009611036;0.15201502;-0.009126708;-0.09609353;0.018511005;0.18427952;-0.40938008;-0.3418132;0.29936105;0.26606816;0.13208634;0.004600567;-0.0073648216;0.33659256;-0.008141189;0.023449544;0.013290867;0.101006836;0.025839299;0.002702264;-0.40814707;0.019656258;-0.1606435;0.23219606;0.078351796;-0.016095242;0.15663663;0.05309059;-0.8135056;0.0027504854;0.0028440733;0.066584945;0.0028475465;0.30148053;0.008862401;-0.09163952;-0.003532939;0.08824887;-0.0030165853;-0.41850367;0.19882181;0.18412976;0.007757652;0.09591867;-0.035714984;-0.0047171703;0.09707424;0.16244757;0.0049005663;0.15478648;0.0008229088;0.016013958;-0.0054122615;-0.25687063;-0.08865235;0.010959323;0.070426814;-0.0030380473;-0.0023188475;-0.12874353;0.04815898;-0.0015834547;-0.17960899;-0.010641334;-0.004642057;0.062599346;0.06575982;-0.1392872;-0.2844452;0.26666033;0.1964352;0.0042103245;0.10690841;-0.006178969;0.0138899945;0.07470957;0.07235251;-0.08417327;0.07209571;-0.0038109506;-0.30837083;0.44983557;-0.083444424;-0.1034663;-0.1380727;0.10372933;-0.29329264;0.032502722;0.021620838;0.39820975;-0.008767291;-0.15855646;0.08522682;0.004258598;0.012051258;-0.007908762;0.16433094;-0.011377994;-0.33380944;0.052358564;0.021692462;-0.1912808;0.0127289565;0.010608491;0.043850884;-0.051919658;0.30875576;0.04430344;0.0052874316;0.16869383;0.300636;-0.03522681;0.2712341;0.048729736;-0.2192218;-0.0042553935;-0.19556332;0.038249455;0.017017322;-0.18321978;-0.17607658;-0.01838577;0.07404633;-0.019515531;0.04413993;0.0054259775;0.0013292674;-0.001972231;-0.046101194;-0.054292172;0.00807781;-0.13257994;-0.02587874;-0.012616172;-0.015008481;-0.05552145;-0.16806695;0.30032626;0.15487516;-0.16484728;-0.002494408;-0.24002968;-0.14496493;0.2599283;0.019621663;-0.06402704;0.17482883;-0.00664696;-0.07720674;0.0044145696;0.0028399816;-0.06401303;-0.20487447;0.011119123;-0.35318676;-0.0011173086;-0.0020578504;-0.045144156;-0.06647226;-0.020333271;-0.38060236;-0.005893867;0.018441638;0.024536425;-0.09112009;0.00897493;-0.34451258;-0.1757928;-0.012756029;0.07378056;-0.0087019345;0.16986951;0.33599442;-0.24751028;-0.00021785547;0.36057934;-0.09486472;-0.01017738;0.13891304;-0.24183266;0.41289097;0.20317644;0.08936961;0.05528517;-0.0075056986;0.2730835;-0.08986146;0.009873581;0.0066903117;-0.14707728;0.5675915;-0.013402684;-0.0020699718;-0.44475472
-0.25713068;0.22974786;0.13990629;-0.2607542;0.0059007155;-0.059892707;-0.15060687;0.1732024;-0.005504104;-0.06011169;-0.008836423;0.008222548;0.06386113;-0.072447464;-0.059706286;-0.047962956;0.3082848;0.2948154;0.047907222;-0.27423555;0.20404924;-0.01167691;-0.009731947;0.04539171;-0.064675614;-0.016248183;-0.0089779915;-0.15023115;-0.051620327;0.04703895;0.088664986;-0.0052151503;0.013099346;-0.046385553;-0.42215893;-0.22672497;-0.06252983;-0.09798695;-0.03515371;-0.08609322;-0.0016273363;-0.0062981867;-0.12305156;-0.22289157;-0.008148486;-0.18357062;0.010360857;0.087492295;0.20332004;0.011067374;0.008577599;-0.090384744;0.10599781;-0.0028660342;0.010903789;0.58972406;-0.0121019175;-0.1550679;-0.08841847;-0.48870674;0.006248885;-0.17343743;-0.017149216;-0.042917762;0.21831517;-0.006037356;-2.8916402e-06;-0.1930411;-0.30263057;0.017525995;-0.17590922;-0.00482861;-0.003182652;-0.040236026;0.07822195;0.14650275;-0.014599622;-0.17931096;-0.09254307;0.015795035;0.016136032;-0.20956835;-0.070408754;0.36984515;-0.017695308;-0.62364715;-0.216584;-0.008365044;0.0018471444;-0.008193818;-0.0021082638;-0.12698379;-0.017663792;-0.10383531;0.03577679;-0.16945037;-0.4639476;-0.055857982;-0.19159755;0.27163765;0.0043022404;-0.12181025;-0.13432907;0.0033170122;-0.17008208;0.14887787;0.010998965;-0.006252693;0.10504735;0.011656592;0.04163983;0.20222571;-0.1423895;0.036322195;0.025796115;0.1835508;0.27914712;0.13549717;-0.01912475;0.20353363;-0.024645906;-0.013923523;-0.07308964;0.005894697;-0.0012552923;0.007133002;0.0039683203;0.2444281;0.012688051;-3.141324e-05;-0.10155926;0.23296651;0.15613925;-0.1562191;0.026653644;-0.34547848;0.052253574;-0.22942571;0.0040477677;0.0032818734;-0.030489715;-0.27581543;0.013286572;-0.049155384;0.002178433;0.09512124;-0.17565964;-0.005296389;-0.032783605;0.5443999;-0.016257102;0.014666137;0.017314011;0.044362746;-0.004840407;0.0021250686;0.0025571475;-0.0016789831;-0.19018124;0.075188756;-0.1911634;-0.0023790014;0.075198025;-0.0007870351;-0.007513903;-0.33358994;-0.13442782;-0.006595012;-0.18939559;0.008184234;-0.22224404;-0.012765676;-0.0030213767;-0.057228487;0.06940609;0.10196022;0.016447203;0.021520413;0.014011223;-0.02560622;-0.01994025;-0.044220045;0.24551958;0.18936652;0.23287588;0.02684047;-0.09862408;0.28978816;0.16945355;-0.00550958;-0.07400099;0.0036224753;0.16118704;-0.0076799938;0.007100085;-0.047216587;0.15416923;-0.1105897;0.32612437;0.0068729706;0.18005139;-0.07296833;0.30833972;-0.002118824;-0.29758283;0.009329212;-0.05256285;-0.012831017;0.08265271;-0.019107835;-0.054508377;-0.20784277;0.01107284;0.004158252;0.17669727;0.007529634;-0.2098277;0.020864012;-0.12771426;0.041613225;0.15789202;0.33138087;0.27843395;-0.009748074;0.13811249;-0.012590912;-0.00055044924;-0.40676036;0.0005860533;-0.5345224;-0.036506478;-0.0053143837;-0.17820518;0.07804198;0.39774498;0.0261831;0.09984739;-0.004914688;0.42003432;-0.15209003;0.15451685;-0.05403001;0.008004327;0.048481043;0.13109751;-0.023734447;0.006330109;0.028675245;-0.05483373;-0.028729131;-0.0011429377;-0.15307046;-0.028206298;0.017083583;0.14464943;-0.0049341046;-0.33197;0.0025126275;-0.070056625;0.11540696;-0.004035931;0.00035669253;0.05262847;0.01594022;-0.020979708;-0.42409003;-0.05511833;0.15348817;0.1131923;-0.3916726;-0.38163745;-0.4981563;-0.010000184;-0.094871715;0.044935044;-0.0038821537;-0.006848996;-0.035307523;-0.16344468;-0.16966511;0.010623757;0.05037323;0.1344499;-0.1804886;0.12398169;0.18801777;0.29321957;-0.20254241;-0.37987834;0.032005128;0.0027775306;0.16771229;0.21412684;-0.25652552;-0.32342878;0.37812573;0.16975671;-0.024902584;-0.048260532;0.0043378607;0.1345182;-0.017536208;0.00612132;-0.22611551;-7.86961e-05;0.033108626;0.0146635445;-0.0072778314;-0.018011784;0.16620386;-0.008491343;-0.18834521;-0.16801889;0.043487504;-0.3385939;0.044192407;0.073877506;0.018922497;0.11349439;-0.25184578;0.06327076;0.17647633;-0.12352635;0.002519071;-0.0089573255;-0.21128784;0.03675571;-0.0050414903;-0.0060674325;0.16155745;-0.01730057;-0.25669795;-0.08346466;-0.39544612;0.06229552;-0.0141803045;-0.26920316;0.00090298534;0.33584836;-0.008119394;-0.48646623;0.010680318;-0.14652394;-0.19669305;-0.120746806;0.105279475;0.008150441;0.008024964;0.005663485;-0.1032149;0.014295114;0.21059835;-0.049781095;0.32791322;0.0016134782;-0.088384144;-0.120796055;-0.048997406;-0.17473689;0.122699626;0.0025407383;0.2550107;0.0038799075;-0.22301994;-0.07095756;-0.057927318;0.057842903;-0.15346949;-0.0219959;0.24784996;-0.17068365;0.07172129;-0.30868924;0.020927606;-0.19130819;-0.1507858;0.18145975;0.11938301;-0.0004911855;0.19596452;-0.0019703312;0.009694402;0.007335808;-0.26820478;-0.00090244797;-0.12019485;-0.002900792;0.12573934;-0.1414864;0.020172805;-0.21667129;0.1335427;-0.04546424;0.17142446;0.018041436;0.21697627;-0.001155899;0.2815366;-0.018185671;0.010506648;-0.023090001;-0.13033354;0.1349841;-0.13260621;-0.14813;0.4262549;0.18576685;0.1745041;-0.010319956;0.15592766;-0.4699951;0.06781357;0.0069346093;0.20571199;-0.006292636;0.29996392;-0.012653145;-0.07184851;0.009878833;-0.022034695;-0.00043352536;-0.47472188;0.16827936;-0.2697827;-0.013123899;0.21690786;-0.12514685;0.01404201;0.055172328;-0.110000886;-0.0064747194;0.24332388;0.014347347;0.0049377433;0.0063763927;-0.39182276;-0.25871468;0.29982254;-0.27486864;-0.0045919563;-0.12888157;-0.43911022;-0.07728042;0.005501892;-0.0158385;-0.13005672;-0.021368502;0.091592446;-0.18953037;-0.13352656;-0.0007320876;0.1325302;0.15855841;6.748065e-05;0.13834012;0.027114915;-0.22378469;0.09740839;-0.26730296;-0.09393891;0.19803135;-0.012907993;-0.29020655;0.14256662;-0.08589562;-0.12709334;0.19289862;-0.060584042;0.012731261;-0.28845197;-0.031072611;0.49817386;0.0067999437;-0.21219304;0.30178452;0.014493822;-0.015485843;0.014019765;-0.07168133;0.009435384;-0.37369236;0.23873168;0.15547988;-0.34991398;-0.008311387;-0.0024928874;0.21651593;-0.07073345;0.22846724;-0.20976932;0.0024263281;0.15253936;0.38500533;-0.042341158;0.11836174;-0.030238638;0.013981932;0.023981947;-0.12961331;-0.030110708;-0.021201387;-0.0937739;0.0022785263;-0.0071379463;0.141188;0.01245252;-0.18511552;0.034656145;-0.010791119;0.009521793;-0.08156852;-0.031926077;-0.0014052178;0.02485777;0.011594014;-0.0792327;0.0004228391;-0.07816751;-0.21158151;0.09362318;0.13050237;-0.12837438;-0.0032293263;-0.20414512;-0.008281399;0.36087996;-0.18500958;0.032447897;0.14444344;0.008418336;-0.09591419;-0.018332655;0.0038173292;0.10545237;-0.18321353;0.0110319415;0.12387917;-0.0040091877;0.00624689;-0.012001251;-0.009802752;0.028198296;-0.12407808;0.004181802;-0.007407342;-0.020584812;-0.032473184;0.016553402;-0.38725612;-0.3202033;0.013765284;0.077041134;0.014076735;0.24326344;0.13849506;0.26926404;-0.15189677;0.123625174;-0.11390274;0.013137022;-0.124309346;-0.22248225;0.158554;0.015014353;0.10570535;0.11509267;0.015253855;0.10626222;0.0036811144;0.0069555207;0.07043675;-0.040502787;0.3511917;0.007947119;0.015514354;-0.501266
0.052229334;0.069499664;0.422433;-0.1620322;-0.027320327;0.034819644;-0.19941403;0.005707187;-0.015813606;-0.23742484;0.0017898409;-0.23095363;-0.0420697;0.1289387;0.13267206;-0.08530824;0.14566061;0.31223732;0.24826078;-0.25077012;0.10624334;0.015724365;-0.016898224;0.27861992;0.03636917;0.01581707;-0.008309468;-0.06474883;-0.05918425;0.19937396;-0.06500909;0.001084507;0.36692485;-0.105600744;-0.345538;-0.046052985;-0.20665056;-0.19606808;0.18700844;-0.004286819;0.01869499;0.011069501;-0.15341271;0.065057956;0.009799158;-0.4533298;-0.0047215;0.1500231;-0.056954257;0.008184024;-0.002905706;-0.46749407;0.12430339;0.0041159643;-0.017256882;0.17395933;0.006909939;-0.2157652;0.02495679;-0.31249574;0.0072225556;-0.19598894;0.02598727;0.14516851;0.11460082;-0.16685887;0.011110555;-0.16308965;-0.45934808;-0.02019302;-0.17146353;0.0032568846;-0.0010893127;-0.31159356;0.1605686;0.19507842;0.011321466;-0.3348223;-0.1969729;-0.005855174;-0.01486015;-0.16908352;0.042566184;0.43657896;0.0082155615;-0.21183878;-0.30449313;0.0036348947;-0.0030155077;-0.00047580435;0.007954495;-0.028559461;-0.11208789;-0.032249104;0.29949242;-0.1681515;-0.20934121;-0.09809063;-0.06512389;-0.0045778374;-0.012033933;-0.19998115;-0.205426;0.001703323;0.0139580555;0.20435344;0.0065305126;-0.049281694;-0.01187957;-0.0024646614;-0.09263813;0.24388868;0.08379443;0.05069124;-0.0028110673;0.07576248;0.1250006;0.19585827;0.0005725134;0.16829006;0.09961781;0.011142806;0.07584321;0.00038064562;0.0034359985;-0.006573071;-0.07130465;0.19304477;-0.013398019;0.11628246;0.013167335;0.19912742;-0.12731981;-0.10388074;-0.020280316;0.012956257;0.0576936;-0.21813756;-0.011695503;-0.0075500226;-0.062152766;-0.2128447;-0.19701223;0.019601166;0.0008877854;0.10638867;-0.012007411;-0.0012152492;0.46797776;0.51338595;0.015922163;0.005650416;0.0054984656;0.35353878;-0.0032390356;-0.004775628;0.0007508501;0.044599775;0.030211212;0.34982964;0.062234234;0.004467752;-0.12325225;0.009224466;0.012185801;-0.27288508;-0.3201341;0.0022891555;-0.051670186;-0.15484592;0.04139221;-0.018263895;0.0011626522;0.043556128;0.28892577;-0.15871802;-0.008840519;-0.012905154;-0.107551195;0.024144351;0.008153818;0.07454061;0.24681976;0.25182232;-0.078330025;0.008687366;-0.014068027;0.44030374;0.23162924;-0.010572167;-0.24960385;-0.020000476;-0.20240533;-0.014084169;0.008473415;-0.03166619;0.07873069;-0.12633802;0.3593927;0.0014013655;0.1249396;0.04935272;0.10936106;-0.0034115948;-0.35320273;0.0022009232;-0.25741312;-0.0033860486;0.030282747;-0.1575168;0.00014352208;0.035686906;-0.008375756;0.0020892937;0.19666208;-0.008959649;-0.33835047;0.09774762;-0.09001812;0.14070088;0.121046916;0.28504914;0.14664377;0.016414015;0.12947433;-0.0046665017;0.002474833;-0.2645641;-0.016768351;-0.35342017;0.11740964;0.005825612;0.07144111;0.33036488;0.20032264;-0.081226;0.14302252;0.010256597;0.106156945;0.10672867;0.07697817;0.014578213;-0.0068143047;0.15590791;-0.14926657;0.014860581;0.006603247;0.049854193;-0.27431968;-0.1574161;-0.006022354;0.036297236;-0.1266226;-0.022604961;0.21123831;-0.03096993;-0.27558407;-0.0070774313;0.058507033;-0.05970502;0.0059906603;-0.0069254725;0.21381167;0.023987578;-0.028702617;-0.34371635;-0.057761274;0.063437745;0.0022014028;-0.6082561;-0.019198436;-0.11156504;0.011996037;0.0414154;-0.00608148;0.016910138;0.0021468585;-0.062763214;-0.06802179;-0.292585;-0.20801845;0.16858391;-0.013200008;-0.32559285;0.30638146;0.093851924;0.05334336;0.12008523;0.063501626;0.14951974;-0.01067365;0.11596806;0.47244453;-0.22030899;-0.281448;0.2106116;0.1803387;0.0006994311;-0.124901734;-0.007022214;0.309311;0.018571628;-0.00021122598;-0.045935288;-0.0048844977;-0.00488766;-7.5634794e-05;-0.029694231;0.009528404;0.24263197;0.021616988;-0.05953448;-0.113786854;0.038344763;-0.06057951;-0.26479888;0.047487266;-0.019548954;-0.0679884;-0.37476844;-0.12375737;0.19056511;0.21480472;-0.0011881626;0.016394995;-0.1561989;-0.03054817;0.0072809258;-0.0039451364;0.02667078;0.013042277;-0.02718887;0.035662927;-0.26797804;0.03739734;0.011738755;-0.17048495;-0.009432713;0.11889219;0.017719034;-0.18828772;-0.015189188;0.09289679;-0.18936397;-0.16989833;0.1904427;-0.007643973;-0.0044544395;-0.0068709278;-0.047600307;-0.0071204505;0.032383546;-0.09896464;0.21142384;-0.0064417403;-0.23169316;-0.12712488;0.004845084;-0.43905714;-0.087031655;-0.01614231;0.17768498;-0.018010851;-0.3836314;-0.0984673;-0.0076654977;-0.0651789;0.10638566;0.14933495;0.19185448;0.034564774;0.08316415;-0.20612572;-0.0075921933;-0.12564036;-0.08812312;-0.15269338;0.051650263;0.011141416;-0.16892557;-0.01496325;-0.00049032003;-0.017217983;0.001261664;-0.0057577156;-0.3954863;0.005027381;0.25046048;-0.1706832;0.038458753;-0.083744004;0.16849567;-0.028369604;0.015664674;0.024196336;0.16647026;-0.005360156;0.051497586;0.00067021366;-0.08494182;-0.021540495;0.09852308;0.30756545;-0.1369431;0.11243798;0.2993214;0.34607214;0.43614194;-0.27490458;0.4114326;0.053767662;0.23609678;-0.0018838671;0.16986892;0.009964792;0.47558168;0.007373471;-0.14970793;0.017064812;0.11613162;-0.0005621036;-0.14937498;0.13413699;-0.13585202;0.0052677426;0.0623968;0.054975074;-0.027952567;0.07888561;-0.09297429;0.00959003;0.07190634;0.0025184136;-0.01464422;-0.0048459284;-0.23149116;-0.011624464;0.1785582;-0.11720144;0.011154745;-0.08925029;0.14639266;0.075861484;0.004584585;-0.13639465;0.13941722;-0.008635212;0.18179996;-0.20378214;-0.12007941;0.23962134;0.1737406;0.18285677;-0.00071728387;-0.3935056;-0.0010259802;-0.27230614;0.0446831;-0.060886823;0.046950433;0.060460832;-0.021841386;-0.054588534;-0.16554439;-0.16479236;-0.150529;0.032720905;-0.15669559;0.10664113;-0.18924668;-0.064357154;0.38616192;0.0058387094;-0.27214208;-0.07235064;-0.016118227;0.008577912;-0.01505822;-0.15669939;0.005630448;-0.28369272;0.40784866;0.23162597;-0.21057983;0.0014283713;-0.0010441457;0.2140541;-0.072623;-0.08488998;-0.38087738;0.008359889;0.34987357;0.036906708;0.08343716;0.07064224;-0.12680776;0.15781969;-0.025602648;-0.16747248;-0.011640739;0.0027819353;0.048417896;0.1443914;0.015008003;0.009554489;-0.010600836;-0.06798001;-0.019579105;0.0049062404;-0.0059219347;0.16919261;0.109119296;0.0033181468;0.20807582;0.00096070947;0.09102708;0.0016715056;-0.089063816;-0.15499814;0.096481346;0.5330891;-0.39812362;0.0029816574;-0.06648897;-0.12670265;0.28930688;-0.18879756;0.02743238;0.056013007;-0.0024393464;-0.33840778;0.011853384;0.008097328;0.16598977;-0.17316797;-0.0021874113;0.37812796;0.004311327;0.010670475;-0.107347175;-0.07032498;0.0053201145;-0.5249262;-0.007245385;-0.01276453;0.065767564;0.11469003;-0.02467683;-0.30051124;-0.38606262;-0.0009789328;-0.043714866;-0.0047634104;0.09743156;-0.0051115733;0.37148696;-0.11222585;0.16161734;-0.050545204;-0.008418913;-0.29246667;-0.07476508;-0.15257934;-0.120444834;0.015391441;0.2312424;-0.0027757369;0.041679177;-0.14438641;-0.0142321745;0.1644818;-0.16147608;0.2338563;-0.006466347;0.0027900191;-0.09240032
-0.10190832;-0.20345238;0.6092567;-0.25589046;0.016201796;-0.15237053;0.16770095;0.14548963;0.010070362;-0.23224877;0.0037088734;-0.29414922;0.006489842;0.064052746;0.06306122;0.031778637;0.089942984;0.16298272;0.13262604;-0.09901295;0.13243811;0.0016300066;0.07804234;0.12978265;0.069957934;-0.0012271646;0.013577573;0.10007399;-0.20924173;0.0648955;-0.121225126;-0.009466515;0.004120457;-0.25689498;-0.30623308;-0.0134931635;-0.1086848;0.101617575;-0.14382596;-0.07695199;-0.012647684;-0.00729345;-0.071838975;-0.09560643;-0.018179389;-0.25730437;-0.010516219;0.039858274;0.11002992;-0.0051688985;-0.009061478;-0.29647964;0.19482544;-0.016419632;-0.005477395;0.20890474;0.00031726094;-0.27673328;-0.032807168;-0.12816024;-0.00082749396;-0.15984763;-0.007926728;0.33519608;0.3761435;-0.32699376;0.027825616;-0.14964437;-0.078096524;-0.0011500681;-0.22465155;0.015346989;-0.0032146382;-0.22769159;0.2012496;-0.12482641;-0.004542338;-0.08815499;-0.22049634;0.005894573;0.013456717;-0.084118456;-0.1516121;0.33797717;0.0062397798;-0.041243892;-0.3396382;0.0009438773;0.001207547;0.009129028;0.00837461;-0.08516194;0.07118148;-0.18602513;-0.24999203;0.11903944;-0.21710369;-0.1835574;-0.13144931;-0.10629588;0.007785562;-0.11563847;-0.057778567;-0.01029601;0.24587063;0.43407917;-0.0024555128;-0.060295004;-0.048262198;-0.009041251;-0.0003038409;-0.059710186;0.12349792;0.06979202;-0.010146461;0.10670758;0.11291766;0.059289332;-0.0028075504;0.039957896;0.32744586;-0.0019552233;0.068646416;-0.0067954375;0.01712367;0.003735015;-0.09867656;0.36407596;0.010064231;-0.17931595;-0.12884241;0.3061388;-0.38443455;-0.15219682;0.007843001;0.112268366;0.1957084;0.082336284;-0.008394645;0.0139534315;0.051788904;-0.057600506;-0.1769134;0.00927739;0.0011765228;0.064111985;-0.18761134;0.011036453;0.32608506;0.45386901;-0.016813155;-0.17969123;0.027526123;0.19522893;0.015145048;-0.0106958775;0.008388635;-0.14761907;0.04950768;0.52649385;-0.2534575;-0.009378063;0.02849318;-0.005372086;-0.008180077;0.010230351;-0.33482608;0.006500343;0.0728807;0.078714326;0.026939021;0.011251608;-0.0035563426;-0.2750394;0.13040839;-0.03506018;-0.025362693;0.009158994;-0.3628079;-0.014218322;-0.010971342;0.3080589;0.1471255;0.12349564;-0.17616238;0.10563464;-0.096218735;0.38777757;0.34657717;0.015670035;-0.29193705;-0.009628178;-0.24060579;0.012673278;-0.016638372;-0.08937785;-0.18340185;-0.12517501;0.17887743;0.0048127673;-0.1435644;0.0805327;0.25739276;0.007470615;-0.059398916;0.0002559702;-0.124608226;0.0069489507;0.2108893;-0.14941734;-0.03188084;0.007352104;0.01022028;-0.010794353;0.046137147;-0.00043496746;-0.1060065;0.060144316;0.02853028;-0.14319655;0.3439682;0.36143708;-0.03885193;-0.0070562838;0.19989192;0.008308161;-0.0014350854;-0.04641455;0.012368906;-0.26659805;0.3522285;-0.008494685;0.16532178;0.16353574;0.20302293;0.09343037;0.32297882;-0.013458401;0.034537;0.08032735;0.10041464;0.04305604;-0.001057646;0.11334099;-0.082998;-0.022144945;-0.0007818296;0.019903144;-0.28051376;0.006542659;-0.006741588;-0.035289682;-0.14662476;-0.13469765;0.38058183;-0.011796534;-0.054433547;0.01273206;0.10658263;0.33320835;0.009106886;0.007693287;0.12829322;0.10705504;-0.22498502;-0.3051113;0.03357688;0.19079159;-0.21027364;-0.33897963;-0.36511955;0.19405016;0.0058172652;0.12752;-0.08201959;-0.009511053;-0.008242211;-0.09076138;-0.11832781;-0.48014015;-0.16316539;-0.11442623;-0.2311418;-0.117064774;0.17488357;-0.029820744;-0.016489085;0.26118943;0.11043106;0.30422518;-6.7407644e-05;0.06490983;0.2392394;-0.13316156;-0.1140793;0.3614621;0.1182514;0.013256324;-0.1399593;0.014498582;0.34726787;-0.004246026;-0.0040598535;-0.03486297;-0.00037711396;-0.018093076;-0.014966235;0.0014607852;0.008571533;0.25811565;-0.019489741;-0.028209465;-0.19405031;0.11037334;0.35780478;-0.23606403;0.0738965;-0.0065656006;0.1424347;0.115254074;-0.099931;0.19244096;0.37654823;-0.0012676315;-0.016570952;0.030028824;0.00039861543;-0.0009086859;0.010969923;0.009422953;-0.009938703;0.17554389;0.16086647;-0.17674851;-0.23303066;-0.013124825;0.10398852;0.0030503839;-0.1873564;-0.010501661;0.008816002;0.004790681;0.08809411;0.058993187;-0.18653016;0.20874827;0.009111497;-0.0064865327;-0.00067264365;-0.08757007;-0.0012335627;0.10306159;0.05258202;0.32237685;-0.0005427812;-0.2625163;0.022144308;-0.1123257;-0.20987879;-0.022087507;0.002260845;0.24168897;0.021081282;-0.16085964;-0.36580116;-0.19436136;0.08071921;0.05695423;-0.0005787958;0.05862245;0.08855939;0.26780316;-0.28597212;0.0060601546;-0.1307252;0.030036233;0.10402372;0.09437925;-0.0034483753;-0.17573531;0.01929858;0.0038488961;0.016410653;0.08323911;0.010641417;-0.03942405;-0.020384222;0.22346053;-0.056508046;0.119499974;-0.022673605;0.114055015;-0.07868882;0.13401465;-0.02930494;0.11220202;-0.006840621;0.14281231;0.004677005;-0.353779;0.01443769;-0.14782687;0.17987593;0.12535152;-0.057220247;0.25937992;0.14093985;0.102265626;-0.25529504;0.10302841;0.0017524352;0.4690309;0.0053750323;0.07050581;-0.0026154853;0.36276084;-0.011494002;-0.048629925;-0.020744752;0.04552814;-0.00990731;-0.090343125;0.1958498;-0.08974662;-0.004381786;0.12847911;0.12998617;0.005408224;0.06258966;0.121858545;-0.0062331827;-0.11628116;0.012791118;-0.06797712;0.013824602;-0.23525593;-0.18704759;0.07311946;-0.21100888;-0.019117655;-0.14249821;0.013889711;-0.06149134;-0.0013083593;-0.12759992;0.24703717;-0.15879324;0.03635109;-0.19192512;0.047513362;0.22998062;0.18447736;0.011523382;-0.018393748;-0.12860687;-0.008070305;-0.13005985;-0.056136698;-0.19958399;0.21216314;0.115874924;-0.040896278;-0.03686271;-0.21236403;-0.10658151;-0.15365641;0.16012391;0.12255978;-0.0017437541;-0.025136253;0.098023266;0.15992111;-0.009642142;-0.47077188;-0.30048618;-0.0004711012;-0.006503602;0.0058616693;-0.28508392;-0.008683823;-0.31516138;0.24564622;0.08535745;0.008764583;-0.006742422;0.0016717995;0.028020695;-0.2536851;-0.18982013;-0.45610714;-0.004200984;-0.2797725;0.27341324;-0.07568906;0.018501887;-0.049503;0.26456344;0.00447567;-0.13922113;-0.32537732;0.000184923;0.13698098;0.15367328;-0.0030210393;0.06171861;-0.01507652;-0.0755226;0.06965105;0.002766551;0.0024462207;0.26146984;-0.06342422;0.0011260454;0.007776193;-0.0030473094;0.11948733;-0.0067517227;0.034721047;-0.26696125;0.05320448;0.36281207;-0.105348535;0.00275617;0.08176715;-0.40319878;0.2907025;0.09092164;-0.08882227;0.09680475;-0.00012997488;-0.4155535;-0.013198695;-0.012305819;0.18057044;-0.05578632;-0.006693435;0.4139857;0.012761452;-0.011968315;-0.010968436;-0.14545561;-0.019160196;-0.4568809;0.002568166;0.020027673;0.075836726;0.07678947;0.0039677713;-0.26764008;-0.35188505;-0.008250258;-0.031834047;0.0061541935;-0.06458206;0.095210105;0.016658217;-0.056989774;0.25288704;0.010267821;0.0070113167;-0.2031797;-0.3269159;0.1305948;-0.45106158;0.14384252;0.09624177;-0.010336406;0.16792034;-0.48299587;0.010736876;0.072326206;0.040808383;0.06105127;0.0027038348;-0.014489445;-0.26576608
-0.17106047;0.01144588;0.42592946;-0.2692901;-0.00795238;-0.022547534;0.22802657;0.100628614;0.0075075715;-0.13964759;-0.010918766;-0.058367863;0.036893565;-0.36411914;-0.029244741;0.2059138;-0.17629255;-0.040218864;0.22540449;-0.11594641;0.23410833;0.0022297006;0.10748849;0.007283824;0.094771095;-0.0027150537;-0.006518015;0.050001558;-0.19641846;0.08066143;-0.055542987;-0.0040262723;0.21926229;-0.21440148;-0.09337739;0.027918898;-0.11514508;0.15889211;-0.18151371;-0.06975089;-0.0049095424;-0.01070982;-0.019170234;-0.13173705;0.00012331411;-0.14101082;0.014697105;-0.39785805;0.17059183;0.013625792;-0.0059047765;-0.27471554;0.062054876;0.01919738;-0.0003782038;0.042014882;0.011596682;-0.25926387;0.05377697;-0.12188678;0.0016789598;0.041422598;-0.012403778;-0.020059848;0.3245476;-0.13709305;0.0051756524;-0.29781127;-0.07069996;0.010417863;-0.5077635;-0.014360608;0.011238951;-0.100031674;0.29032505;-0.12806052;-0.0037252516;-0.049500577;-0.15630792;-0.012821751;-0.015451911;-0.33322945;-0.11879667;0.3025626;-0.006128444;-0.072801955;-0.039465055;-0.0004950315;-0.003522934;-0.012463496;-0.0010751971;0.037862863;0.07428472;-0.042963672;-0.00871864;-0.03225873;-0.36428276;-0.022667909;-0.07208561;0.06490393;0.008845189;-0.099405386;-0.07585363;0.00957553;0.20772707;0.36583528;-0.013090946;-0.28744906;0.015875453;-0.0023380872;0.06103432;-0.16066532;0.3980155;-0.048857424;-0.21922497;0.08256787;-0.1534267;0.27189943;0.0026510584;-0.23054454;0.49647057;-0.010979999;-0.18004732;0.00030235993;-0.026942555;0.00048253787;-0.13827506;0.40849963;0.008817636;-0.59222335;-0.027463304;-0.074934274;-0.3173894;-0.21488973;0.0044249767;-0.14506386;0.09922864;-0.020861423;0.005741741;-0.011261624;0.068877935;-0.36061752;-0.14877574;-0.18979055;-0.00790554;-0.041875035;-0.1334106;-0.011266199;0.29524237;0.16144371;0.005649038;0.01691014;-0.019075686;0.033057425;-0.006629717;0.019535016;0.005680611;-0.100550614;0.0031526545;0.4845274;-0.19770183;0.017124094;0.12981492;-0.0052509136;-0.009292284;0.079773925;-0.27258646;-0.0022443663;-0.16878808;-0.14060104;0.019405942;0.00023014493;0.00015902378;0.085933626;0.009203358;-0.068845;0.02754919;-0.00680732;-0.6707085;0.003864463;0.006217321;0.2203638;0.16011822;0.21378775;-0.08837176;0.2309939;0.07953624;0.3166699;0.014490963;-0.006966957;-0.07366427;0.023036905;-0.19428629;-0.007416492;0.018677492;-0.14485973;-0.24099104;0.068521634;0.011561476;-0.0122218365;-0.2650906;-0.13610582;0.051015384;0.00355689;-0.021561388;0.0016507354;-0.13912515;-0.009793518;0.0027106947;-0.15778767;-0.021710405;-0.24568996;-0.0057305004;0.015334041;0.034772556;0.00027004234;-0.23508711;0.083761096;0.20317647;-0.056037575;0.25069422;0.019546375;0.216895;0.0008165384;0.024581462;0.0025763558;0.0024523423;0.07049791;0.010181104;0.046475478;0.42550784;0.017987235;-0.03949683;0.15636171;0.251497;0.02430901;0.0748447;0.016474763;0.100165896;0.10026435;0.06262956;-0.050134096;0.0064919363;-0.108678974;-0.16066998;-0.0022104317;-0.010541885;-0.058594607;-0.33106607;0.06219578;0.015365164;-0.14618869;-0.16942628;-0.10371284;0.50080353;-0.0062420154;0.25923437;0.0029245594;0.14226769;0.119635984;0.008419752;-0.0026717964;0.25750318;0.08751097;-0.16110785;-0.22218093;-0.24676524;-0.04003805;-0.015916973;-0.36556324;-0.26425138;0.10043388;-0.010548766;-0.061007485;0.039374586;0.0043453295;0.016062807;-0.05697579;-0.007243898;-0.59128845;-0.3401119;-0.047232036;-0.33907273;0.13618568;0.1538895;-0.11068681;0.24295911;0.33216047;0.10017215;0.3203092;-0.00013291309;-0.09952095;0.18089116;-0.11057841;-0.38100147;0.23627459;0.09338081;-0.028742535;-0.0646925;-0.020823877;0.09487062;-0.0032576022;0.0041966145;-0.05839622;-0.0074111833;0.03654185;-0.0021397078;-0.027787948;-0.010202817;0.120638154;0.008829634;-0.10133434;0.10366107;0.12415598;-0.07443227;-0.4320891;0.043432456;0.019437311;0.21157864;0.07852324;0.1708432;0.22742292;0.31342247;-0.0027455187;-0.038885534;0.18600805;-0.019113252;0.005202543;-0.016866649;-0.19152911;0.010731862;0.23128437;0.049863845;-0.14931092;-0.36743352;0.004299608;-0.1302063;0.009846904;0.07383876;-0.0011986756;-0.18886662;0.020377059;0.1596631;-0.04182318;-0.22379066;0.14144564;-0.003658166;0.004552904;0.015355895;0.038982548;-0.0040636463;0.017865948;0.07820312;0.1993595;0.009755955;-0.3835162;0.011055397;-0.02649053;-0.15892228;-0.21758659;0.011732525;-0.16833562;-0.01196318;-0.119612105;-0.16605325;-0.025524614;-0.05231513;-0.11400268;-0.0333213;-0.0143351825;0.10069186;0.08371998;-0.16811582;0.0077274316;-0.22330777;0.09752758;0.15178129;0.16286547;0.003932036;-0.035247058;-0.018245898;-0.013839944;0.0022578898;-0.09422099;-0.0064804195;-0.124732405;0.007181592;0.17312369;-0.10922623;-0.22598861;-0.2548704;0.00952421;0.1621228;0.27499065;0.013938551;-0.106167525;0.013744922;0.12517649;-0.018423403;-0.19210424;0.006141213;0.02101694;0.09176661;-0.11572629;-0.025261227;0.09888938;0.09613605;0.16814454;-0.11182221;0.09251759;-0.11211916;0.36236224;0.013185367;0.09507995;-0.008940425;0.1646449;0.006943361;-0.25408718;-0.0015632542;-0.097876266;0.003294592;-0.19009347;0.17280416;0.0951092;-0.0058079795;0.15695633;0.093369536;-0.014656249;-0.11518905;0.12108408;-0.01091089;-0.17472178;-0.015032514;0.05801064;-0.008433857;-0.27398783;-0.15054406;0.15270352;-0.18852231;0.017171318;-0.3761163;-0.063249215;-0.32941273;-0.01015226;-0.19476731;0.2004623;-0.16558382;0.049258094;-0.41986406;0.008397077;0.1585031;0.1618302;0.10090111;0.005511153;0.08393372;0.025671115;0.06945035;-0.10043351;0.006103924;0.15101555;0.033596627;-0.042815205;-0.3575157;0.06348387;-0.09157653;-0.23660044;0.10889102;0.22368419;0.015112674;-0.09071227;-0.029823873;0.07404944;0.0061595906;-0.41229773;-0.023614889;-0.00416373;0.0045460025;-0.0033137088;-0.4178817;-0.0005024378;0.097002365;0.09789881;0.030617887;-0.24390106;0.0037563343;0.0018087937;0.2782299;-0.29783055;-0.0411391;-0.5361598;-0.0105832685;-0.03742653;0.027303023;-0.05090935;-0.09988388;0.017306061;0.37089702;-0.00593843;0.13058831;-0.46866122;0.016178975;-0.31108218;0.082225196;-0.010260117;0.199062;0.012002547;-0.15466559;-0.06856321;0.0111925015;-0.0074767987;0.10695138;-0.14711691;0.016127314;-0.09330305;-0.010562734;0.03582868;0.0104062185;0.15075889;-0.048592854;-0.07749562;0.09314017;-0.17920999;0.0063711014;0.028127434;-0.3194625;0.39331865;0.070634566;-0.0913462;0.07101878;-0.01137513;-0.5317782;0.011216032;0.0013004988;0.1357281;-0.029485129;0.0058178403;0.23312153;0.0007935113;0.01491153;-0.115533106;0.0047407267;0.006684081;-0.20600206;-0.0016336878;-0.00439119;0.15674657;0.002866444;-0.0021605706;-0.17546113;-0.3508215;0.04678691;0.024093252;2.2878125e-05;-0.3042199;-0.2504188;-0.28084844;0.31184635;0.19676118;0.12387077;-0.0051588877;-0.21355519;-0.067911565;0.25991967;-0.43848807;0.24182557;0.32724512;0.0074762674;0.12443419;-0.29971844;-0.0069505554;0.09229481;0.15618894;0.37940276;-0.008119041;0.012720697;-0.2138585
-0.29669413;0.2524408;0.22264875;-0.29060403;0.009653081;-0.014762298;0.42901078;0.029426899;-0.007474256;-0.27050394;0.0012511198;-0.06674096;0.04800066;-0.29879504;0.16497108;0.091863304;-0.10075486;-0.0805469;0.34650567;-0.18720452;0.27591637;0.0065818746;0.066109635;0.28557086;0.024151543;0.0073664403;0.0035191074;0.032226533;-0.12067171;-0.04572627;-0.084990874;0.02645892;0.27773127;-0.070624866;-0.25737667;0.0021354286;-0.17368035;0.14129908;-0.2881625;-0.0397298;0.0075419582;0.0075676166;-0.24013858;-0.029981717;0.028833162;0.0044906777;-0.0011574678;-0.2943209;-0.0038153867;-0.0076229395;-0.0009853216;-0.2888942;0.051574543;-0.009361915;-0.012593409;0.23658909;-0.018300274;-0.22966067;0.025456348;-0.0057667047;-0.011204647;-0.14917861;0.005835456;0.20252872;0.30487376;-0.15000217;0.00040523877;-0.31369147;0.10102194;-0.0072262064;-0.27147016;-0.00011245138;-0.0034636983;0.029693518;0.049012568;-0.04815232;0.007064543;0.036013663;0.07576673;-0.00054853986;-0.0020839602;-0.4052177;-0.11920735;0.1641358;-0.010758431;0.20651592;0.16022752;-0.0033661977;-0.004929893;0.023522412;-0.014347397;-0.137279;-0.10703583;0.16204588;0.19361678;-0.11695248;-0.12832975;-0.045383986;0.12871884;-0.02429721;-0.0072719418;-0.10452949;-0.039600696;0.015251263;-0.34457514;0.2885915;0.004722679;-0.16654834;-0.030317605;-0.014598282;0.19891815;-0.1163541;0.43861723;-0.19517072;-0.07631464;0.16866267;-0.36851114;0.2793638;0.005188016;-0.0720659;0.3968012;0.0072813937;-0.314862;0.008921882;0.011429105;-0.016856212;-0.46299362;0.33168375;-0.014757071;-0.5030356;-0.09893309;-0.20978618;-0.10514775;0.17449738;-0.011204209;-0.15489407;0.075136185;-0.0038188007;-0.018037891;0.0066613266;-0.16656314;-0.5239138;-0.039646767;-0.25388795;0.009979534;0.053346988;-0.09342554;0.00044997173;0.010333776;0.17378248;0.003581907;-0.018109307;0.012867086;-0.0022623804;-0.0037298987;0.0021605326;-0.01629243;0.18832445;0.13578583;0.45919386;-0.02443825;-0.023973236;0.0022345183;-0.0021861843;-0.0036524816;0.099296734;-0.0011856563;-0.0014581889;-0.24395202;-0.29383814;0.102812864;-0.019621594;-0.0073622447;-0.017362481;0.07841018;0.1555731;-0.011800766;-0.011636548;-0.6157978;-0.0027731867;0.010037834;0.2508132;0.15976764;-0.016006265;0.12175857;-0.032988917;-0.017718518;0.051618874;0.10546257;0.0066940896;0.022903776;-0.018782062;-0.047980722;0.0017043285;-0.010121723;-0.07983353;-0.37361866;0.14416394;0.03311957;-0.002644549;-0.10446297;0.0023416465;0.07984327;-0.0074203573;0.047299545;-0.011029326;-0.19696511;0.016173106;-0.004079166;-0.15576167;0.026132815;-0.11788865;0.008378189;0.00048496347;-0.07967681;0.0011952297;-0.053699426;-0.032499257;0.15074909;-0.0413554;0.18752375;-0.23924229;0.20391014;0.002988031;0.4112841;0.0019927411;0.010196844;0.028463729;-0.009631951;0.22285268;0.47385722;-0.021551974;0.2662754;0.11030648;0.2418923;-0.13738126;-0.027266076;-0.008779113;0.042953078;0.07264636;-0.078989;0.070900194;0.004415588;-0.14064707;-0.11206298;0.0020685312;0.0038570703;0.036877852;-0.07629785;-0.022957912;-0.004302836;-0.08214334;-0.02594696;-0.32825017;0.6176147;0.0076064076;0.18212073;-0.0012721845;0.21989252;0.091760516;-0.008738237;0.0066431593;0.20450193;0.118306525;0.049283538;-0.20865747;-0.14006704;-0.043672923;-0.113053076;-0.23809637;-0.061776474;0.250393;0.013361991;-0.1744561;0.14787748;0.0071748607;-0.0006585768;-0.031862203;0.19652407;-0.45042166;-0.26101625;0.05128452;-0.4451684;0.16439252;0.104859866;-0.010022875;-0.06780818;0.10872817;0.15061858;-0.31232354;-0.0021595405;-0.18465647;-0.11993027;-0.0764704;-0.35413402;0.25358737;-0.0035711133;0.014530855;-0.095917016;0.020591376;0.049125496;-0.008046365;-0.0061769835;-0.09379786;0.016212484;0.057496645;0.014421846;-0.02383849;0.0016187272;-0.09421898;0.0006825874;0.045637578;0.2621216;0.06779351;0.11226261;-0.27701622;0.115750656;-0.0013939593;-0.025435595;0.009004106;-0.061869275;0.2596743;0.05010153;-0.0026859322;-0.005066366;0.08204829;-0.033947997;-0.012886905;0.004185216;-0.425505;-0.012124797;-0.073506;0.07535288;-0.10398674;-0.01222192;-0.013850161;-0.0739847;-0.006789488;-0.18092965;-0.005180869;-0.14741103;-0.0024604115;0.30430102;0.015991637;-0.047923658;0.077290215;-0.007738664;-0.0034788013;0.0018506548;0.15235324;0.0053479513;-0.025397217;-0.21402983;-0.024748283;-0.018444203;-0.39345846;0.011075146;0.060993694;0.080277786;-0.11288053;0.0027055047;-0.19772673;0.004513336;-0.07945651;-0.22856833;-0.001998231;0.10019131;0.12942281;-0.024320496;0.018697059;-0.18282445;0.1756997;-0.41006163;-0.0040850765;-0.24021435;0.10913065;0.162527;0.05524351;-0.0089368345;-0.13549693;-0.0077768997;0.009271455;0.0059229117;-0.049372524;0.015056866;-0.24057503;-0.0013915235;0.04076444;-0.05671946;-0.14807166;-0.28203124;-0.3300537;0.1047862;0.19444007;-0.013058543;-0.047093097;-0.003995469;0.0732209;0.02186569;-0.0022289685;9.375673e-05;-0.02534275;0.17460944;-0.053649575;0.12933046;0.07128947;0.26656935;-0.0076972945;-0.033343945;-0.21336266;-0.4635423;0.23292454;-0.01835498;-0.082646966;-0.0046981247;-0.0068968236;0.0057580257;-0.08266376;-0.007662569;-0.1829252;0.001463652;0.054915257;0.15939765;0.09994553;0.015574285;0.06794132;0.07138226;0.012678878;-0.15995571;0.21315078;0.015688164;-0.23993148;0.008630818;-0.02525522;0.0030810942;-0.09011359;-0.21709724;-0.17451556;-0.17935354;0.012452807;-0.06435607;-0.015646027;-0.20262077;0.009810588;-0.16476448;0.15367389;0.04951131;-0.023323892;-0.18181816;-0.18766618;-0.11625138;-0.034933023;0.16760705;0.0040507377;0.2648398;-0.028428981;-0.100671835;-0.010842518;0.09953176;0.062434677;0.34530813;-0.003888313;-0.2503223;0.19550233;-0.07136413;-0.1466115;0.42335057;0.18989605;-0.054718893;0.032166835;-0.041059583;-0.22438104;-0.012807855;-0.19180723;-0.015512754;0.017799884;-0.02196774;-0.008532339;-0.42856026;-0.0076309573;0.060503434;-0.3652024;-0.076690614;-0.3306766;-0.015435308;-0.003165074;-0.26767763;-0.22585624;-0.061891325;-0.34905604;-0.0038422302;0.008906386;0.124673106;0.0059148124;0.17578645;-0.004756325;0.5540766;0.01346688;0.03286338;-0.26807186;-0.020013895;-0.31200224;-0.034971114;0.015022681;0.2723951;-0.017182223;0.14070457;-0.0055554667;-0.0057102153;0.0032986116;-0.0060522053;-0.11024352;-0.013264234;-0.078130394;0.00199603;-0.009943128;0.005303366;0.052307606;0.08372003;0.12282099;0.14591902;-0.17436334;-0.0013528565;-0.14302197;-0.15414564;0.21662469;0.09886952;-0.028565552;0.14146498;0.010694885;-0.25889093;0.008414105;-0.014694525;0.14336164;-0.11703756;-0.01347186;0.28107852;-0.018164877;-0.00044348143;0.016838282;-0.05976046;-0.00302143;-0.37939584;-0.00043312972;0.0014691198;0.09575078;0.07705549;0.01071258;-0.3623773;-0.13625793;-0.009945619;-0.13474813;0.00288468;0.026292372;-0.24180599;0.03715149;-0.06456344;0.01792704;0.050774764;0.001800501;-0.16670349;-0.23349558;0.30305877;-0.45652065;-0.10917001;-0.116213165;-0.011873507;-0.16568056;-0.14555007;-0.017877223;-0.3975293;-0.12918596;0.38665983;0.005977758;-0.007145255;-0.30986392
-0.075663246;0.065391265;0.20127292;-0.23670489;-0.0013155931;-0.12775213;0.4986168;-0.11701686;-0.0024338886;-0.015857972;-0.012336178;0.07939056;-0.07815112;-0.13971983;0.03871207;0.037527274;0.014426418;-0.15826602;-0.10565736;-0.20671341;0.36714342;-0.021537405;0.053806182;0.13684547;0.084464096;-0.0069956854;0.0021264625;-0.06165343;-0.009741163;-0.083262965;0.013871082;-0.0040541007;0.25281823;0.24897048;-0.15501891;0.043153845;-0.16624685;0.3719258;-0.25412294;0.10591689;0.0021452736;-0.0027346914;-0.2194492;0.021892233;-0.028460268;-0.040622532;-0.0061673108;-0.23248142;0.10782689;-0.0035680006;0.014999388;-0.1258601;0.12278836;0.004421662;0.021973988;0.13761523;0.017258754;-0.14617996;0.07675167;-0.120508894;0.010154244;-0.07647298;0.0043160506;0.05597918;0.012011163;-0.06540485;0.020101884;-0.5641481;0.21836479;0.002231842;-0.18033159;0.008352186;0.0053678965;0.082060024;-0.09995638;-0.0026324324;-0.015893005;0.057535723;0.024687931;0.010516954;0.0015153544;-0.31113997;0.23565944;0.09448516;0.0071881767;0.28714314;0.19788705;0.00032095978;0.012292771;-0.021334657;0.0014441076;-0.03422067;0.08724832;0.12880288;-0.015078111;-0.44223684;-0.068405196;-0.5377979;-0.06533839;-0.06617522;-0.0009131236;-0.20821248;-0.0067624;-0.013828241;-0.31764066;-0.04366164;0.0049799904;-0.026562776;-0.02566145;0.012519016;-0.0028213155;-0.1324053;0.22775796;-0.19958362;-0.19336934;0.15026103;-0.4414236;0.26799774;0.008871602;0.035008624;0.26871437;0.00110699;-0.065497436;-0.0049801157;0.0044691;0.017307324;-0.25833148;0.33186096;0.01630659;-0.20904231;-0.016928863;0.047312703;-0.07898941;0.3195819;0.0010676011;-0.1714444;-0.047894757;0.30773568;0.031073965;0.00995695;-0.38453522;-0.39905792;0.14783525;-0.121356815;-0.006238245;0.05003859;0.010269843;0.012838784;0.111913785;0.24766023;0.0018078417;-0.26061857;-0.046170346;0.08621239;-0.0004188246;0.00041148745;0.009507165;0.22257547;0.27948377;0.118777804;0.0031080134;0.01495287;-0.039168954;0.0046305913;0.006009298;0.08859145;0.0018651019;-0.0010570918;-0.19209921;-0.07062607;0.08000422;-0.00993528;-0.0018029466;0.06439783;-0.13516417;0.019184353;0.023060745;0.014088291;-0.053801972;0.0015212636;-0.015591528;0.2080271;0.089193866;-0.11332662;0.13165449;-0.11182717;0.17017983;0.024468943;0.044718277;-0.016676715;-0.054822057;0.022427125;0.028452158;0.00084734685;0.006904909;-0.3726529;-0.24791986;-0.011076597;-0.09577192;0.02046929;0.021534605;0.22911535;-0.08895523;-0.00032984378;-0.033924967;-0.0025555938;-0.25796857;-0.0062804786;0.264208;-0.16585942;-0.0119108725;-0.24953204;-0.023031605;-0.0008833309;-0.14876723;0.004646146;0.1663726;-0.017939419;0.10740342;-0.011358559;0.12774223;-0.122087136;0.2670954;-0.0077193393;0.25234637;-0.00510177;-0.008613648;-0.062000655;0.0020868594;0.20898706;0.26449245;0.011064695;0.37603256;0.1779033;0.22238474;-0.20982401;0.0040565315;0.0016811878;-0.033197295;-0.14689046;-0.21585815;-0.05152128;0.00086496957;0.119321235;0.13296904;0.022596525;0.0023885393;0.053690095;0.036065776;-0.012603597;0.0070567164;-0.26610523;-0.055611946;-0.29484364;0.5588619;-0.008058802;0.34078214;-0.0079302555;0.11044473;0.15082943;0.010345912;-0.009293673;0.12016609;0.021959845;-0.013087069;-0.09275285;-0.2764018;-0.13420631;-0.03147283;-0.15650718;-0.19473957;-0.008545063;-0.00305367;-0.043032143;0.11035704;-0.01502353;0.0002840212;0.084432326;0.058739446;-0.47389975;-0.08549979;-0.12592763;-0.40971416;0.023266127;0.051718783;0.17985167;-0.060429614;-0.0010330793;-0.3499058;-0.30565548;0.008204942;0.15592027;-0.3880221;0.08096163;-0.20230274;0.070798844;0.12098661;-0.038831893;0.06010837;-0.010317663;-0.046660196;0.027587073;0.016928172;0.08901729;0.0016194048;-0.013148458;-0.015676195;0.022483934;0.008542147;0.020171145;0.012615054;-0.02767684;0.21922375;-0.21321684;0.18191472;-0.14785111;0.13548937;-0.025984352;-0.06948061;-0.10646162;0.01858496;0.20168002;-0.03392833;-0.0054797954;-0.041590165;0.11033111;-0.0080217635;0.009265173;0.009526323;-0.44393495;0.013954368;-0.05294498;0.068837285;-0.36370763;0.17029874;0.014982835;-0.08214452;0.012375308;-0.22826989;0.0019568356;-0.04915111;0.0032943035;0.13561685;-0.10502372;0.04749607;-0.017476622;0.0016283155;-0.0037233115;-0.0015457093;0.0048503634;0.0038413557;0.17045635;-0.4670136;-0.38947618;0.00087185204;-0.2774162;-0.032649234;-0.014561104;0.118049145;-0.023705197;0.018353276;-0.36070597;-0.0092918435;-0.17647858;-0.16692425;0.1261034;0.019389259;0.14188245;-0.06725191;0.28604165;-0.15525025;0.037317485;-0.22777557;0.012901379;-0.02273281;0.23605452;0.2877938;-0.0039470624;0.015770005;-0.05945663;0.01527602;0.007617881;-0.012681425;-0.018477105;-0.007331224;0.028513301;-0.00950696;-0.13078465;0.13794328;-0.114810765;0.018303541;-0.02089184;0.2948676;0.20008902;-0.0151228;-0.2250422;0.011984836;0.10360446;-0.012246837;-0.08605775;0.0056062257;0.1343927;-0.0135411285;0.17793112;0.093354665;-0.012918509;0.09671871;-0.14495052;0.31702322;-0.3059569;-0.07517908;0.15118603;-0.005365776;-0.056293793;0.007926839;-0.20335856;0.0044179736;0.26548833;0.010397727;0.05940623;0.009103312;0.1218057;0.084676474;0.078585975;0.0018741126;0.020000465;-0.08263023;-0.010766749;-0.12904459;0.41076636;-0.017384928;-0.18250853;-0.0012661398;-0.024892924;-0.01067308;0.09109318;-0.15103243;0.03678485;0.02031578;-0.0100395605;-0.013421435;-0.03441197;-0.21394175;-0.014948165;-0.2436881;0.067692816;-0.054721523;-0.116009906;-0.22625549;0.1283965;-0.4228482;0.07555802;0.34883112;0.0014336258;0.079745926;0.00834184;-0.29054627;-0.12959404;0.047507152;0.34261888;0.42820862;0.0008419078;-0.36154696;-0.06915899;0.036193505;0.26413262;0.50407344;0.26670066;-0.046033733;-0.11948431;-0.04646328;-0.48649064;0.002961405;0.08581872;-0.18421479;-0.015712919;0.011733126;0.0040578023;-0.35977733;0.003523022;0.40198657;-0.31344423;0.05361528;-0.2879259;0.014571208;0.0006349784;-0.02456365;-0.20053047;0.12155174;-0.02056897;0.006628172;-0.08060975;-0.0019869807;0.007740938;-0.29795998;-0.0008506774;0.5403392;-0.009006896;0.11780485;-0.3130175;0.0047090133;-0.20523162;0.043212857;-0.009095816;0.28404382;0.018696023;0.040044136;0.04817975;-0.018872602;-0.0059271627;0.051441047;-0.114613414;-0.0055089174;0.054752685;0.022064697;0.0065279594;-0.0028723658;0.13690527;-0.11196011;-0.041819956;-0.018281026;-0.401865;0.0056989267;0.05905303;-0.21177045;-0.02129015;0.057982605;-0.03916299;0.25327286;-1.0789189e-05;-0.2613553;0.0072347326;0.016233895;0.04522129;0.039606858;0.011597889;0.12935951;0.010213735;0.003907667;0.112281725;0.06927228;0.011494981;-0.19904868;0.0053311316;-0.007237564;0.10885415;0.21846047;-0.0129439905;-0.3391104;-0.11646652;-0.0028334653;-0.15940571;-0.014952455;-0.13490525;-0.22499312;-0.0058030155;-0.24455449;0.16090432;-0.020183658;-0.0081381025;0.009716602;-0.2296639;0.29329827;-0.4933595;-0.04974703;-0.25127095;0.0074370005;-0.26926583;0.092169754;0.010580716;-0.42407817;0.047143605;0.12575129;-0.006962662;2.2311202e-05;-0.143925
-0.3018417;0.16456622;0.3101041;0.10224381;-0.00363663;0.10091438;0.35453412;0.024178466;0.001718936;-0.111628346;0.0047850427;0.14074704;-0.2514093;-0.014717154;0.08803647;0.0078064045;0.025383241;0.15293775;-0.066255085;-0.059844956;0.4248266;0.0015333053;0.043155123;-0.12472324;0.0022817038;-0.0015485774;-0.011333303;0.032759786;-0.06282582;-0.09071676;0.24099758;0.0031467085;0.19434154;0.17444558;-0.023435073;0.15986355;0.024614556;0.2608042;-0.3023558;0.047016382;0.007499531;0.003184124;-0.2803478;-0.22789945;0.008011476;0.023454843;-0.0013433502;-0.11970069;0.055176273;-0.0028175802;-0.0033600489;0.04704305;0.2228471;0.012355502;0.007290079;0.063075475;0.0061327647;0.22388437;-0.029535724;-0.028281393;0.007220998;-0.10778346;0.0005346204;0.03707314;0.32877737;0.15684876;0.034611408;-0.49047545;0.05499575;0.0049513667;-0.17842293;-0.006341225;-0.00590885;-0.033911962;-0.11252372;-0.046996884;0.014194843;0.093154505;-0.05931256;-0.011139703;0.013331155;-0.31627864;0.23444952;0.05388382;0.0023649214;0.064899445;0.11152936;0.018438319;-0.0050308686;0.016006289;-0.002577243;0.0035556639;0.09606555;-0.07828392;0.15969495;-0.05663299;-0.20934352;-0.15080117;-0.075287595;-0.019223286;-0.009508293;-0.46766022;-0.06573298;-0.011202161;-0.3866516;0.09329423;0.012737787;-0.15684234;0.050386358;0.006568892;-0.14822042;-0.03129557;0.15186179;-0.16352573;-0.10952519;0.044174135;-0.22600769;0.05536401;-0.004209918;-0.24959031;0.27417326;-0.0026383032;-0.18776625;0.0038971214;0.0059466925;-0.0022695395;-0.0022409318;0.24899699;0.000715387;-0.2620824;0.026013304;0.033173103;-0.034735214;0.17607465;0.0015903095;-0.07314698;-0.16618615;0.1453921;-0.007410913;-0.00516146;-0.076406546;-0.34361994;0.41074848;-0.30679414;0.005884713;-0.06838915;0.18702157;-0.0035022392;-0.03677572;0.14244021;0.0005688236;-0.16071771;0.0815923;0.16296072;0.0021188213;0.0016174924;-0.01185005;0.14561942;-0.057451133;-0.13931063;-0.03339077;-0.010824553;-0.06905167;0.010643646;0.0024002178;0.13841826;0.0803081;0.00450075;0.050808627;0.001062503;0.0957352;-0.0032351557;0.022643248;0.12871243;0.014713724;0.1903447;-0.02247064;-0.0063554253;-0.03088987;0.007448855;0.0010199432;0.29376626;0.10212466;-0.27531865;0.1019867;-0.14199021;0.24234082;-0.22460845;-0.11982357;0.012113398;-0.15036762;-0.007014346;0.022722067;0.0028006008;-0.008384526;-0.4098548;-0.16473117;-0.003069003;0.17291854;-0.00886382;0.27570292;0.12632869;0.0043400773;0.013774693;-0.17350686;0.00036174385;-0.20904161;-0.011928892;0.20907092;0.018144364;0.03706354;-0.38966778;0.024319017;0.017290311;-0.24332993;0.0034060956;0.16068707;0.09331582;0.11998416;0.022744453;-0.044524785;-0.13295723;0.26131642;0.0064408416;0.35257614;0.0036178776;0.011971752;-0.16063674;-0.00068731676;0.32278293;0.21950436;-0.0033611013;0.28125724;0.0845223;0.19495766;-0.3186199;0.053512443;0.0020806969;-0.02152029;-0.04746852;-0.19620109;0.035200182;0.0013852357;-0.15474032;-0.03947934;-0.04526743;0.0003931389;-0.110866584;0.003387752;-0.07169417;-0.00028422198;-0.39777908;-0.1085858;-0.33275393;0.25411105;0.061488736;0.4311789;0.00012424876;0.07176974;-0.09711697;-0.006923304;-0.0053404015;-0.0009326926;-0.027544023;0.099511005;-0.11390747;-0.23434864;-0.1375714;0.088541485;-0.009954397;-0.19887097;-0.14996003;-0.016216116;-0.08917058;0.058081117;0.004203159;0.0052464018;0.043814898;-0.03640106;-0.22681026;0.01293176;-0.10236336;-0.096293345;-0.13344316;0.050788507;0.32274735;-0.26995626;-0.1393023;-0.1519013;-0.32752675;0.003049988;-0.13127282;-0.09273929;0.12213108;-0.2118313;0.17721666;-0.018561384;0.044072393;0.028699135;-4.823641e-05;-0.16310276;-0.011011025;-0.009153701;0.081458434;-0.01623087;-0.02467288;0.013132325;0.00049293897;-0.008312852;0.01060888;-0.01305406;0.21940215;0.14061202;-0.28947204;0.15276437;-0.10482662;-0.11759404;0.017542843;-0.14713849;-0.0054235854;-0.08235081;0.18363842;-0.08336129;0.012781561;0.031643484;-0.041039;0.028991906;-0.009539766;-0.00027880046;-0.09325825;-0.010392955;-0.032767676;0.18610696;-0.4644305;0.1833468;-0.017472796;-0.27969438;-0.007297156;0.26962784;0.011496438;-0.05845572;0.009974954;-0.12086742;0.28136736;0.26511163;0.08765647;0.0065646223;0.017169377;-0.0026458546;-0.033340685;-0.0035323037;-0.008837439;-0.22348097;-0.59585583;0.010257474;-0.15870576;-0.0058154464;0.10518277;-0.16537675;0.004262898;-0.028946273;-0.38619646;0.016724247;-0.14765327;-0.15923923;0.13727863;-0.08193274;0.15789722;-0.053913884;-0.0043854285;-0.2887667;-0.07144554;-0.12673652;-0.023222148;-0.2002184;0.38502496;0.17981;0.00023797149;-0.013442579;0.009938709;0.0047311094;-0.00034732532;0.018070584;-0.08259694;-0.013639041;0.06786011;0.023146428;-0.26679766;0.2648984;0.21365418;-0.16928503;-0.11875557;0.21575648;0.121719934;0.011654408;-0.17343335;-0.013443689;0.18613367;0.00941774;-0.13159978;0.007524669;0.27641928;-0.21824816;0.17852451;-0.028560234;-0.13118084;-0.12944789;-0.12378588;0.34127364;-0.2305238;-0.102918714;0.29874858;-0.0036754753;-0.22559683;-0.0016679565;-0.24326319;-0.016103875;0.3153654;0.004268524;0.21645482;0.0006631212;0.04156585;0.15530759;0.24035504;-0.007815222;0.08599596;0.046379052;-0.0056327516;-0.08401417;0.44375843;0.02735578;-0.11893451;-0.013592771;0.028110519;0.010491735;0.111413665;-0.23387404;-0.15473975;-0.07029841;0.011134705;-0.04814263;-0.10781417;-0.23012711;0.011305193;0.06598887;-0.03095133;-0.13981669;0.12607193;-0.6871466;0.0487691;-0.48340616;0.13602684;0.34936854;0.007776465;-0.052349593;-0.0008793004;0.21393488;0.021527868;-0.10664512;0.16647431;0.29986346;0.033563796;-0.26792932;0.04652715;0.20882009;0.29849195;0.169289;0.16305825;-0.07718327;-0.17827739;0.027417503;-0.3842412;0.01951924;0.124913685;-0.12570015;0.01081487;0.011538977;0.015865691;-0.38601398;-0.018616583;0.2961671;-0.0019255446;0.036490943;0.05092094;-0.0017014325;0.0043468894;0.18236208;-0.24917683;0.17341077;-0.22806518;-0.0044273906;-0.1965238;-0.31490225;0.007695743;-0.2837161;-0.09159456;0.49627855;0.027485061;0.24125342;-0.27051583;-0.0028256935;-0.08253738;-0.1029553;0.012743744;0.41537452;-0.0012095352;-0.047945987;-0.0035404249;0.027639557;0.0020299547;0.034087747;-0.4335503;-0.0029541813;0.0015402196;-0.016025301;0.0515335;0.00971717;-0.17670193;-0.17180885;-0.00054260576;0.015016047;-0.19805521;-0.0022377472;0.2260348;-0.008972032;0.032113183;-0.023680845;-0.16979784;0.3071559;0.0047685266;0.0015829483;-0.0060629966;-0.0059780315;0.16111611;0.13236704;-0.0052363356;-0.03876923;-0.0021128776;0.0020462663;-0.009795763;0.12459757;-0.024537833;0.11055804;-0.00767744;0.0035514478;-0.14019717;0.17934144;0.0048643113;-0.26912278;-0.054084163;0.005498774;-0.2346362;-0.00020071205;-0.1800344;0.092477605;-0.0338935;-0.33749637;0.07063886;0.013624273;0.014971623;0.067948036;-0.18000607;0.4556383;-0.39210597;-0.023990113;-0.49199212;-0.005909828;-0.33324495;-0.23016569;0.0014669233;-0.4298658;-0.06403609;0.0910147;0.016693044;0.00090752833;-0.054756835
-0.044933174;0.046477415;0.23756142;-0.047412876;0.014331044;0.098287635;0.30442896;0.12424535;0.020317482;-0.015788518;0.006499421;0.06692512;0.00060286454;-0.008990912;-0.1194775;0.054512024;-0.0003418941;-0.12308762;-0.19252455;-0.06961914;0.2428195;0.0035684635;0.053307164;-0.13930263;-0.09891324;0.00022014108;0.011170419;0.0791515;0.06662295;-0.14055124;0.05670908;-0.016308766;0.07248066;-0.012982448;-0.32200694;-0.0034329665;-0.17027362;0.2221513;-0.19007601;0.023207504;-0.0065455083;0.006292539;-0.13908021;-0.06107395;0.011115704;0.16648738;0.00878829;0.12959163;0.09760283;-0.0022876;0.013786046;0.31170788;0.28080475;-0.0014768059;-0.02241234;0.1041239;-0.008005888;0.2271927;0.13802296;-0.020602793;-0.013411273;-0.087844364;-0.0043643303;-0.13549995;0.32520428;0.07780531;-0.0049686576;-0.2897512;0.15578887;0.00617461;-0.06415605;-0.00012336302;0.013861084;-0.025982413;-0.0031728712;0.0539681;-0.004023687;-0.014718212;-0.011557451;0.01296222;-0.021246234;-0.21016094;0.125951;-0.03593343;0.006104129;-0.074753;0.27163225;-0.018983351;-0.012651991;-0.0113323275;0.0037270715;-0.04838624;0.24660043;-0.13481699;0.21588217;-0.15373577;-0.4438875;-0.08701848;-0.046786275;-0.0027025978;0.0064575784;-0.0676318;-0.1809846;0.004902892;-0.3340908;0.15313016;-0.008120251;-0.114573464;0.03948157;-0.0028004106;0.014882343;-0.08301365;0.07624298;-0.35600364;-0.24315178;-0.08602714;-0.08250704;-0.014723304;0.0013198993;-0.16873246;0.11882885;-0.00084998796;-0.1582428;0.001157006;-0.00215624;0.0061265854;0.13762464;0.11559508;7.0575166e-05;-0.13291395;0.12662551;0.025738366;0.040039636;-0.04666927;-0.0011904918;-0.14280067;-0.022550538;0.091344565;-0.0031777467;-0.0019311175;-0.15178093;-0.20522285;0.24756065;-0.34921202;0.0010682426;0.05356324;0.28030592;0.0021023133;-0.05393854;0.11570878;-0.013356332;-0.13404731;0.0008880031;0.023896616;0.0035907184;0.0010001506;0.014270088;0.043402933;-0.077774525;0.04262391;-0.01155947;0.010043845;-0.04494652;0.007944344;-0.0012413553;0.19408967;-0.12696427;0.0036864148;0.28948674;-0.09711469;0.08547853;0.016340874;-0.0047849477;0.049993433;0.06452879;0.101352;0.0068088956;0.0050754095;-0.08183478;-0.0116675;0.0019869423;0.33979633;-0.0661267;-0.08107901;0.006816545;-0.2607953;0.25117174;-0.41549516;-0.14848684;-0.010119684;0.12554899;0.011909671;0.12417614;0.0032518841;-0.0013279046;-0.33123133;-0.28140506;0.064114295;0.07808973;-0.018754149;-0.014692759;0.21422943;0.20522569;-0.008057071;-0.38254663;0.011092678;-0.046819948;0.0056648175;0.011192669;0.013185355;-0.003730873;-0.005152733;-0.0076312725;-0.01122531;-0.31850603;-0.0024012206;0.31780344;0.070864655;0.1621414;0.16564713;0.061016086;-0.20558102;0.17134306;0.0043242066;0.015164148;0.004739128;-0.014810035;-0.043076053;-0.004474065;0.33450273;0.064957835;0.0031093368;0.16873123;-0.12839614;-0.026905013;-0.20750752;0.044811156;-0.0034076418;0.18324253;0.021746954;-0.22887915;-0.0067042112;0.0035471716;-0.13282776;-0.087518595;0.00056038523;-0.012012986;0.02221217;-0.23429911;-0.09281689;-0.010866433;-0.5147102;0.025250081;-0.19685575;-0.01191301;0.036241293;0.39946112;0.01167968;-0.07538885;-0.020004444;-0.012450244;0.0046969615;0.02646211;0.00205071;0.089868575;-0.146847;0.042276017;-0.04075378;0.08241436;0.13566035;0.17177561;-0.11676446;0.008198948;-0.09311476;0.12725554;0.012084847;-0.025015278;0.17465872;0.05000865;-0.35575974;0.2670827;-0.35342953;-0.123574175;-0.07247305;-0.04885443;0.029717272;0.10779605;-0.3687375;-0.007122935;-0.2752696;-0.000978103;-0.10706583;-0.31815967;0.017056063;0.15439805;0.30919144;-0.034005;-0.018942293;0.14386137;-0.0068685333;-0.05689606;-0.005423938;-0.0088142725;0.12096241;0.009962473;0.02490892;-0.010678913;-0.04286561;-0.0024692835;-0.09328659;0.005717537;0.2081559;-0.14157793;-0.21265982;0.08070384;-0.18077455;-0.07289788;-0.0031130074;-0.08191656;0.056126546;-0.25070173;0.045469224;-0.31161982;-0.015644724;0.0065878904;-0.19375038;-0.05194432;0.013358258;-0.008754974;0.06924527;0.0023311996;0.13077404;0.06217818;-0.5296638;0.15005076;0.012166791;-0.053528905;0.005486449;-0.0767608;-0.022874251;-0.15428895;-0.022791138;-0.22047836;0.2332941;0.29196066;-0.014848112;-0.0077332123;0.0025779728;-0.004689937;-0.19902013;-0.014625045;-0.26413342;-0.13987453;-0.3273061;0.005449778;0.37369618;-0.09028278;0.10113834;-0.3417729;0.053222016;0.008246461;-0.117077336;-0.009078644;-0.13349503;0.09352509;0.034568295;-0.05084713;0.3182053;0.06561936;-0.17307568;-0.1509805;0.023571875;-0.37211454;0.0058518164;-0.16948779;0.3222251;-0.04772558;-0.10571765;0.0026340038;-0.015512229;-0.0057843146;-0.024365127;-0.019769339;0.047374237;0.017313011;0.018836867;-0.024930477;-0.27353227;0.109509304;0.091840826;-0.13300368;-0.10292892;0.15535836;0.19860107;-0.006766109;0.07932929;0.0042577814;0.15067942;-0.0059619774;-0.3331551;0.0016152298;0.20232202;-0.6214341;0.0025354861;-0.02050901;0.17306246;-0.12561421;0.17577866;0.18508069;-0.16029769;-0.08164936;0.20838456;0.0072066137;-0.17260437;0.018305322;-0.06422254;0.012952149;0.3467584;0.0070954547;0.29395887;-0.012941959;-0.24001037;-0.0047884393;0.0640951;0.0049997685;0.096775524;0.17130932;0.033117995;-0.16739051;0.29607445;-0.017791776;-0.09301426;-0.003268682;0.042631812;-0.008734004;0.015230622;-0.041404437;-0.3132568;0.051900458;-0.012957482;-0.040793683;-0.01511575;-0.04012717;0.0048460593;-0.05744831;0.0049941307;-0.22770457;0.11718683;-0.51846325;-0.027176496;0.044659767;0.325731;0.10562285;-0.0019718895;-0.3636324;-0.00020863918;0.13860247;0.08372595;-0.15093048;-0.026585625;-0.087286085;0.05139078;-0.12346516;-0.01906065;0.38952994;0.2994472;0.04534846;0.25180584;-0.495901;-0.25037375;-0.11229573;-0.5859871;7.385169e-05;0.1255778;0.017660033;-0.0029781554;0.00059878716;-0.011392038;-0.25712937;0.02821114;0.0736969;-0.15626802;-0.14993817;-0.17027889;-0.008293515;-0.010069718;0.1321187;-0.39849237;-0.060946472;-0.1368306;0.017091395;-0.07269499;-0.23860908;0.021235693;-0.42523742;-0.10304604;0.02683501;-0.03218195;0.20743972;-0.060914148;0.0107540395;0.17359115;0.09614426;-0.0050021405;0.4098157;-0.013888826;-0.21105392;-0.00017420869;-0.012510112;-0.004904642;0.11781113;-0.40597728;0.002807557;0.08388601;0.019333925;0.01634406;-0.0073396517;0.09760326;0.10908304;0.010867018;0.07447601;-0.015407301;-0.009020715;-0.075419135;0.15370215;-0.06254393;-0.07797165;-0.1581378;0.26076916;-0.009872535;-0.1232841;-0.0141096935;0.0031139283;-0.12381642;0.15339677;0.012574697;0.10745326;-0.0029127358;-0.013901903;0.052271318;0.042015675;0.02004438;-0.015161924;0.002003656;-0.0026524994;-0.06261534;0.23408377;-0.007889826;-0.33405402;-0.027766375;-0.013427489;-0.35330573;-0.0024542669;-0.026402876;-0.0044010603;-0.008350479;-0.048493564;-0.0071967267;-0.09291503;-0.009841534;-0.042695325;-0.4604155;0.21118382;-0.34781936;-0.07625299;-0.2924348;0.0027944418;0.07649914;-0.007342666;0.006683077;-0.40134838;-0.3788359;0.0633525;-0.0134409955;0.0027742344;0.13150637
0.079917006;0.076298185;0.06486491;0.123060256;-0.014843498;0.03052001;0.18206464;0.11361435;-0.023448419;0.025102345;0.003600379;-0.09211327;-0.047574468;0.19491267;-0.44921008;0.017897706;0.1154158;-0.018611383;0.14845109;-0.021368513;0.19300859;-0.0008269577;-0.054886065;-0.031171313;0.08616325;9.385195e-05;0.0006154068;0.06929407;0.112307176;-0.19567803;0.05925885;0.0075133396;-0.23785155;-0.33744368;-0.37131885;0.068175465;-0.22863078;0.14550222;-0.12582406;0.012397607;-0.0037676129;-0.0031396314;0.03138745;-0.2559538;-0.016013222;0.1240715;-0.00044076357;0.068481065;-0.2090614;0.013137566;-0.007643727;0.3209777;0.15949662;-0.011167412;0.02334409;-0.13836738;-0.009023849;0.15895338;0.010434155;-0.10981112;-0.0017000387;0.05697808;0.0030212675;-0.10552158;-0.012892376;0.03524292;-0.01942753;-0.18361768;0.044858843;-0.017021852;-0.035236463;0.0071214954;-0.005124876;-0.090875044;-0.25859213;0.09544661;0.0030049765;0.04223971;-0.055242866;-0.0020753148;0.013111295;-0.052331537;0.004044529;-0.024611741;-0.008452527;-0.41664767;0.14243822;0.0106855305;0.002078037;-0.0016980015;-0.005561325;-0.1804958;0.35685697;-0.026612563;0.010390005;-0.048184678;-0.24545614;-0.08479052;0.08734392;0.20419396;5.5452463e-05;0.23985307;-0.27158594;0.0027685233;-0.36026567;0.13548346;-0.0021959855;0.15255578;0.007034554;0.011767568;0.07526242;0.046319533;-0.08487722;-0.21049514;-0.21592622;-0.15411659;-0.20740235;-0.14627789;-0.0040541985;0.13288839;0.016011389;0.005654217;0.06879208;-0.0058523617;0.0035220517;0.0046945238;0.14458132;0.14508468;-0.008125331;-0.05091676;-0.18630321;-0.0028368353;-0.103705965;-0.13968681;0.0019439283;-0.08812536;0.07691638;-0.10451882;0.0020327587;0.0084655015;0.09833431;0.2271811;0.19530992;-0.13694865;0.0069069243;-0.14206639;0.07176722;0.0017406101;-0.24686746;0.14392005;0.004358033;0.027225364;-0.046593864;0.11390871;-0.011739676;-0.00355062;-0.0009961901;-0.13609199;0.15934135;0.27554968;0.07309021;0.0036075457;0.11876941;-0.007753794;0.0037826488;0.09081914;-0.2670236;-0.01814755;0.191363;-0.12884812;0.017740713;0.0101636;0.017810402;0.043797;-0.023737675;-0.10324945;0.0020795134;-0.00039939288;-0.06461741;0.011585165;0.0005133805;0.31054178;0.010397915;-0.22058946;0.17545545;-0.11593978;0.09485093;-0.2120085;-0.43695658;-0.00063448166;-0.11503267;-0.0066993097;0.06955457;-0.009778843;-0.0065803146;-0.27090883;-0.08707424;-0.11576019;-0.025699973;0.010594445;0.006903846;-0.073072806;0.4368252;0.006267091;-0.06906675;-0.014201304;0.011607541;0.012662424;-0.21386215;-0.07372018;-0.0410533;-0.18651246;0.0036741442;-0.0023066087;-0.14583206;0.0010661078;0.29387438;0.17998551;0.036570538;0.38845223;0.2537114;-0.24217384;0.20230529;-0.013134408;0.07494973;0.003062558;0.0020087466;-0.02655609;-0.0037889583;0.37261486;-0.050052043;-0.01116366;-0.13474567;-0.10854306;-0.10031838;-0.12531546;-0.07213411;0.0106555885;0.058164623;-0.028362667;-0.096550986;-0.019887537;-0.0014169163;0.13106208;0.11285481;-0.0021844143;0.0067331255;0.06527392;-0.10600492;-0.015690925;0.008526529;-0.6487745;-0.03187286;-0.06438014;-0.04511918;-0.027306598;0.098533794;-0.008163167;-0.07209682;0.010522377;-0.0011767261;0.017121857;0.04462462;-0.03478338;0.07384585;-0.18676275;-0.26579288;-0.18690185;-0.013954132;0.2445184;0.030084804;-0.24641916;0.00017596371;-0.11685024;0.17310278;-0.01998826;0.011778367;0.11967884;0.19914915;-0.18331343;0.4122865;-0.33211473;-0.12292211;-0.26617864;-0.3188591;0.3346987;0.40139395;-0.118758515;-0.07802287;-0.19432466;-0.012807348;0.099107005;-0.20341061;-0.0621505;0.223448;0.42083597;-0.012264276;-0.003402451;0.09854702;-0.004334477;-0.20948808;-0.0025300777;0.008687267;-0.10972102;-0.0047804136;0.029013729;0.021972062;-0.003120203;0.01624574;0.00082887633;-0.002636027;0.037926905;0.05638205;0.036879852;-0.14587724;-0.15386811;-0.104955144;0.0067080855;-0.33713037;0.26564094;-0.27604777;-0.03249331;-0.18044241;-0.0074054506;0.026604814;-0.39097908;-0.021951772;-0.012032302;-0.005473193;0.028593868;0.0013113511;0.029860426;0.08078274;-0.2295884;-0.09634824;-0.014713987;-0.14707626;0.0003406286;-0.01377075;0.016945357;0.037623532;0.015018707;0.075855814;0.27664888;-0.03165275;0.08798724;0.012952273;-0.015947292;0.0017191538;-0.0019027335;0.0092048915;-0.38997197;0.10229516;0.14754939;0.000279626;0.3932924;0.028457044;-0.028984906;-0.28993383;0.027521444;0.010212083;0.08158302;0.015341632;-0.2788572;-0.20848422;-0.034297645;-0.0920419;0.1609176;0.06603898;-0.104778536;-0.16922978;-0.17240246;-0.49819952;-0.011487317;0.10625204;0.14443997;0.05783205;-0.012476538;0.0014343818;0.23455693;0.007842799;0.009349358;0.015466588;-0.24916402;-0.0043925387;-0.13560331;0.018299608;-0.2700825;0.11750758;0.1874921;0.008977541;0.10439163;0.19135077;0.09809502;0.0026069765;-0.1510107;0.0036401534;0.016912198;0.0069005806;-0.10226147;-0.021005685;0.020874659;-0.6505848;-0.27042183;0.030072115;0.26821697;0.013317961;0.30175003;0.048048917;-0.028113829;-0.16944347;0.037413474;-0.004603433;-0.009546705;-0.020518605;0.075829685;-0.009314007;0.07469128;-0.014792754;0.060313173;0.01096469;-0.16981982;0.13264264;-0.011070502;-0.005775335;0.0054925666;-0.16574723;-0.022663439;-0.095644824;0.04217329;-0.0027873812;-0.25161093;0.02429651;-0.019114995;-0.012502852;0.1521185;0.025459675;-0.29804248;-0.19973713;0.007514114;0.005537451;0.082496926;0.15790135;-0.013416445;-0.17494394;0.30875626;-0.06626556;-0.09948771;-0.12587668;-0.15014133;0.21616057;0.3285809;0.22264522;-0.015957344;-0.20660348;-0.004624789;-0.058878753;-0.0030747643;0.036707178;0.35028866;-0.18991849;0.06186621;-0.19879073;-0.098490834;0.26432878;0.37698126;-0.116553634;0.16683552;-0.61719227;-0.09948019;-0.030578148;-0.14396453;-0.0105289;0.14762661;0.12381658;0.005650827;0.0040567243;-0.0062626996;-0.268676;-0.0030933693;-0.052597973;-0.18508056;-0.038656853;-0.0648579;0.0019152832;0.01394995;0.21014684;-0.59845364;0.09398275;-0.032266553;-0.008403867;0.11290158;-0.33565667;0.009099044;-0.43912035;-0.05881053;0.0925234;0.013196542;0.27143037;-0.2656835;-0.013861796;0.12053659;0.0928878;0.00060925307;0.32567888;0.016165907;-0.043284878;-0.036952317;-0.00012837765;0.018687358;0.037677996;-0.29428506;0.0028154047;-0.033592977;-0.0078067575;0.02711978;-0.001728403;-0.11708392;0.2642848;-0.02634643;-0.29535463;-0.03691703;0.0040083653;-0.42774382;0.32961577;-0.05033581;-0.1514648;-0.10017639;0.13000445;0.007122853;-0.29809788;0.014093272;0.0046886113;-0.052784935;-0.17795853;-0.0021107702;0.19667257;-0.0063281874;-0.0031947554;-0.18855788;0.25458196;-0.031264376;-0.21730313;0.014733196;0.012304846;0.11510732;0.24401748;-0.0017484075;-0.25400597;0.11362027;0.018137978;-0.3027459;0.0055552656;0.17097025;-0.055374984;-0.28933337;-0.270679;-0.047005698;-0.32533646;0.007866289;0.11665772;-0.67168635;0.076635174;-0.15193748;-0.010814311;-0.22167233;0.0064571975;-0.033183344;-0.42611504;-0.0027232748;-0.25595158;-0.5281384;0.023194758;0.015602916;0.016508067;0.14456595
0.07202003;-0.066957414;0.1628747;0.11136538;0.00284604;-0.041881748;0.24313566;-0.00091576343;0.012272536;0.05954661;-0.0020256354;0.06996304;0.03954311;0.036859885;-0.41792074;-0.021160645;0.13493916;0.16872455;0.17450331;-0.062429484;0.15068357;0.0025507337;0.22625574;-0.22604093;0.13029325;0.00012146817;-0.009312753;0.013578256;0.032189593;-0.14204639;-0.32918346;-0.0022834234;-0.2684085;-0.35237104;-0.3713888;0.09940716;-0.199882;-0.05680714;0.19100572;-0.0031469108;0.009433226;0.0015331969;-0.08815929;-0.19458169;-0.005765891;-0.11229505;0.008701466;0.020291654;-0.08329651;-0.0062601683;-0.011739852;0.24940288;0.19518389;-0.003091153;-0.0042690504;-0.25635883;-0.0025833487;0.17011772;0.09513174;0.09748795;-0.0011773951;0.027621489;-0.007477272;-0.15152965;-0.3432878;-0.043388776;0.05098026;-0.09422804;0.20645781;0.0023372306;0.206183;-0.012433564;-0.01230034;-0.030304357;-0.34504446;0.027975693;-0.002356845;-0.27170533;0.13445263;-0.0055929897;0.006942244;-0.032810893;-0.025500093;0.013170862;-0.003990568;-0.545406;-0.31871286;-0.00351086;-0.0016357932;0.005076354;0.009721565;-0.0185564;-0.05306742;-0.082666546;-0.38967386;-0.0653074;-0.43604046;-0.15583348;-0.11980947;0.0964028;0.0010385335;0.1834275;-0.18029532;0.013502153;-0.1575989;0.09683828;0.00429973;0.14861646;-0.09507814;-0.008045018;-0.042438567;0.13161463;-0.14948937;-0.17948866;-0.02311028;-0.13181548;0.14472458;-0.12533592;-0.0005358778;-0.07483446;-0.029638605;-0.0062819803;-0.0007723972;0.002200072;-0.014743003;0.003743795;0.18116781;0.17006043;-0.0071939547;-0.104719125;-0.3808341;-0.022014923;0.032586955;-0.110357195;0.010906933;-0.35747188;-0.098113105;-0.035666123;-0.0024050944;0.0019657388;0.15190081;0.5086449;-0.06390724;-0.25872326;-0.014626869;-0.11983858;-0.20805675;-0.020327725;0.10887406;-0.047907393;-0.01112341;-0.18569489;-0.042241998;0.07708614;0.0138543565;-0.005153744;0.012296498;-0.07409493;0.10010132;0.10425086;0.14839025;0.009962703;0.22053456;-0.007223431;-0.007992975;0.21410464;-0.32149425;0.018735599;-0.10022441;0.13318166;0.14020637;0.0075005977;-0.021736173;-0.047399927;-0.615324;0.01089602;0.011876376;0.0073700114;0.13926652;-0.01378748;-0.024099132;0.19429027;0.06299816;-0.042758327;0.03651735;0.014548172;0.08100551;0.02485158;-0.14926165;0.019067084;0.16430154;-0.02177789;-0.051574923;0.0047441046;0.007310414;-0.07197095;-0.139197;-0.23267202;-0.2833632;-0.0036312384;0.12249897;-0.14206937;0.4336109;-0.009684433;-0.26365668;0.01245271;0.15769492;-0.014197234;-0.08276842;0.025002845;0.021145457;-0.097524606;0.006438108;0.005313699;-0.20471531;0.0023279893;-0.12510203;0.24248043;-0.009323063;0.08659718;0.004064597;-0.14139895;0.18803135;-0.002052295;0.10640003;-0.0059358273;-0.0023442693;0.05236887;0.00030085535;-0.032581948;0.018342301;0.004012304;0.028379783;0.17537667;0.03767556;0.11219289;-0.2727389;-0.007405067;0.20307188;-0.08329046;0.022158211;0.039894592;-0.015414112;-0.4437074;0.07112555;-0.00076813536;0.009778496;-0.035508003;-0.3403615;0.04109777;0.0019048116;-0.29354993;-0.22740325;-0.05627813;-0.036149003;-0.025338076;0.13104486;0.0063999887;0.012733627;0.005875957;0.02346735;-0.01508724;-0.20015591;0.100679666;-0.0604947;-0.022178655;-0.08003356;0.009472414;0.17628904;0.203623;-0.01810151;-0.2118764;0.010594095;-0.3865255;-0.11095749;0.011624436;0.006730791;-0.0028571668;0.19555642;-0.09880301;0.1374452;0.0945284;-0.2163651;-0.18316369;-0.28421435;-0.05926078;0.0039687776;0.013799623;-0.021718591;-0.20640785;0.011178541;0.057187542;0.013165311;-0.101737835;0.21310177;0.12950283;-0.01526322;0.028793134;0.1156355;0.0014735758;-0.1052927;0.0014913363;-0.022363473;0.124024555;0.0066598435;0.0009969076;-0.021059653;-0.012276938;0.002754;-0.042355713;-0.0061567086;-0.13251004;-0.06681449;0.27302122;-0.033689175;-0.24762252;-0.27414948;0.0031181632;-0.32646644;0.18237042;-0.3463121;-0.107354306;-8.515593e-05;0.013458867;-0.04513109;-0.5396391;0.007070755;-0.003020688;0.0036396761;0.17276725;-0.009486209;0.038646005;-0.16531533;-0.16902615;0.091432884;0.014222276;-0.26362497;0.009951375;-0.0067326482;-0.011793373;-0.118666895;-0.0006290314;-0.102807716;0.07233033;-0.049011774;-0.043752037;-0.0042694774;0.0019249892;0.0066052303;-0.04737609;-0.0069738603;-0.28427672;0.03847153;0.068770684;-0.0027063463;0.1224635;-0.0041623535;-0.063656144;-0.24878794;-0.11155337;0.008350524;0.046840463;-0.00011472573;0.13068305;-0.15999542;0.08154772;-0.1275284;0.054860752;-0.01014794;-0.17940709;-0.024194488;-0.03491077;-0.4269925;0.020957867;0.22498934;0.005348771;0.010164848;0.092337325;0.015647566;0.15443543;-0.019150618;0.011885334;0.008452242;-0.20489022;0.010373735;-0.014170969;-0.014197776;-0.11286699;-0.005916501;-0.028785575;0.07853099;-0.1359939;0.09170536;0.19703908;-0.0021818073;-0.36530942;-0.007700215;-0.19902606;0.0025735123;-0.02379492;0.025113298;0.053908154;-0.4576242;-0.39217976;0.07257295;0.06559985;0.06536542;-0.08130582;0.026221905;0.0495426;-0.13107917;-0.21098918;0.0018684113;-0.112477444;0.003913524;0.112348646;0.0017301245;-0.0045305793;0.012879806;-0.3643801;0.003481243;-0.28117067;0.01731117;-0.18434569;0.009514078;-0.02163401;-0.13132419;0.021651717;-0.031730562;0.38142768;0.011195898;-0.34747672;-0.016806843;-0.007341541;0.023286622;0.16162324;0.05819685;-0.27212903;0.00572235;-0.0149858445;0.011820091;-0.06874004;0.06815541;0.011629135;-0.14856401;0.44457754;0.043066606;-0.03340359;-0.048039623;-0.13841964;-0.36212102;-0.07439211;0.042742316;0.012294514;0.0911882;0.001184863;0.07333492;-0.073946916;0.060032673;-0.0074211676;-0.16057481;-0.03222773;0.07554984;-0.2364193;0.16012168;0.094197005;-0.37125725;0.08965979;-0.38745964;0.02059003;0.025431762;0.11650775;0.0046792203;0.15717673;0.13335419;-0.0007121103;-0.0044618635;0.024145471;-0.3798878;0.0014605039;0.19596072;-0.018693406;-0.07026525;-0.16774794;0.0046584345;-0.0061581703;0.20857635;-0.44739237;0.16178243;-0.101030596;-0.0094883;-0.078406945;-0.11672446;0.023403734;0.039176907;0.044000402;-0.13360891;-0.0064204833;0.36171407;-0.36755636;0.0067267944;-0.328963;-0.1472997;0.009495097;0.22778535;-0.011459157;0.20201008;-0.025119908;0.011963723;-0.009394469;0.14162219;-0.22069636;0.003935126;0.101976454;-0.0078058685;-0.09735533;-0.007854242;0.023106603;0.00013887446;0.18431172;-0.34640366;-0.1273249;0.0021992966;-0.27862638;0.19098876;-0.06933609;-0.026868135;-0.050367583;0.11185008;-0.010425713;-0.31733292;-0.0048208176;-0.0038342024;-0.13252112;0.12479457;0.005399786;0.27503788;-0.0066437153;-0.0013617661;-0.0016828063;0.277742;0.02541678;-0.034838412;-0.02130195;-0.015092261;0.117499374;0.14699286;0.017456036;-0.26528507;-0.1661513;0.055701796;-0.28994837;0.012103687;0.06331588;-0.11102363;-0.25901026;-0.08834126;-0.0020332166;-0.3515376;-0.0050207926;0.08734997;-0.533863;0.07095719;0.013506097;0.068471536;-0.16682054;-0.002180881;-0.2887974;-0.27356666;0.00027326425;-0.2605853;-0.27273694;-0.030359713;-0.012949384;-0.01982072;0.11838859
0.058467504;-0.20770603;0.2642176;0.043869965;0.010801003;-0.28151056;0.2886748;0.051081814;-0.005769287;-0.25119007;-0.01018629;-0.296926;0.14246808;0.08128443;-0.16341898;0.0074955807;0.17133822;-0.025502425;-0.072793275;-0.038672097;0.07280172;0.001063236;0.04130037;-0.1304303;-0.070500106;-0.0018132811;-0.0037495438;-0.062205736;0.020055102;-0.35573632;-0.26651287;0.0043545845;-0.12406311;-0.3604926;-0.14751664;-0.33159167;-0.2755339;-0.020805553;0.07353319;-0.116268225;0.0021211053;-0.010581452;-0.10631153;0.14571355;0.016115526;-0.095976576;-0.010007304;0.10424693;0.06371913;-0.003295786;-0.008796276;0.23751403;-0.12861013;-0.0052331584;0.0006033384;-0.040658403;0.013127817;0.14621937;0.01941123;0.12559137;0.0034399112;0.050516237;0.013374608;0.059027955;-0.12139955;-0.061576728;-0.03791545;-0.18357752;-0.011360967;-0.00457227;0.1714354;0.007316786;0.010832815;-0.2133967;-0.31220108;0.04128034;-0.0032467393;-0.1464076;0.044222225;0.0042820964;-0.0008444265;0.21933787;0.010355269;0.111870244;-0.0065989885;-0.15508266;-0.18181683;-0.009777781;0.013631374;0.012395874;0.0023631463;0.11001276;0.3662097;0.016187416;-0.3536467;-0.048494175;-0.27337173;0.15413511;-0.1413114;0.4693254;0.0051084175;-0.113495596;-0.18090403;-0.009681307;-0.04173949;0.15362456;5.0858267e-05;0.0715505;-0.024566127;-0.005998034;-0.070252374;0.016252493;0.1654444;-0.12657015;0.10031221;-0.15028995;0.036878236;-0.13563614;-0.011070994;-0.43024263;-0.06920814;0.0015864949;0.22703235;-0.01334695;0.009726812;-0.0041117226;0.17476863;0.101695105;0.020569814;-0.1676375;-0.19867152;-0.0029581778;0.021337558;0.05548299;-0.015316253;-0.10431876;-0.2191029;0.11348622;-0.004412409;0.010770313;0.30209866;0.18306892;-0.08482529;-0.19375284;0.0051083663;-0.008702834;-0.23612309;0.02478682;0.09972464;-0.007345446;0.005016615;0.05341909;0.06476371;0.09105195;-0.012887329;0.0023088444;-0.016296776;-0.17356257;0.3375719;0.05112976;0.21954325;-0.012812423;0.32475072;-0.011095193;0.0078071128;0.35323548;-0.21740673;-0.010430063;-0.20321736;-0.06852384;0.13575219;-0.0068864706;0.0017454274;0.013959025;-0.4634644;-0.09314514;-0.005976164;0.00821165;0.1042034;0.0051140646;0.03692817;0.15575083;-0.079532325;-0.13603678;0.26061273;-0.107294;-0.08355755;0.010075364;0.08838685;-0.020511538;0.16413528;0.02148742;0.13053633;-0.0013959947;0.0044407817;-0.13245253;-0.27054387;-0.13293588;-0.13496207;0.0133301355;-0.02909422;-0.12552913;0.25371838;0.00409246;-0.03525616;-0.0051645366;0.06676354;-0.011962075;0.27424383;-0.05430556;0.080148496;-0.15658736;-0.0061788484;-0.0069252267;-0.020763133;0.0018554223;-0.232201;0.19615091;-0.14627863;0.17486425;-0.029192809;0.037584882;0.27200887;0.00877171;-0.009308395;-0.0056428555;-0.0078112353;-0.08452386;0.008820032;0.021723034;-0.0104588745;0.005465278;0.018752018;-0.013471077;0.12799993;0.110710666;-0.40278804;0.0023419838;-0.15410544;-0.059133027;0.14180878;-0.011721796;0.019257698;-0.48303622;-0.2774028;0.027132358;-0.0019879972;-0.049097218;-0.20419578;0.0076657515;0.0039082235;-0.17508993;-0.15910484;0.06442691;-0.025342481;0.032711994;0.2860861;-0.0057805693;0.02919485;-0.07501187;-0.017333481;0.00693504;-0.37293914;0.06861225;0.063650794;-0.028609427;-0.082598895;-0.058600146;0.11884182;0.07402898;-0.27315223;-0.04664842;-0.009124923;-0.4806511;0.025842175;0.0038115333;0.005360967;0.19831191;0.13268653;0.073326156;0.04487885;-0.07480481;0.25532448;-0.03532405;-0.3844447;-0.15937367;-0.17568678;-0.036024768;0.057076085;-0.28221083;-0.004730332;0.42580557;-0.3024472;-0.05907353;-0.17808102;0.26602852;-0.04927526;0.013126733;-0.07916924;-0.0012325315;0.019035837;0.0038934257;0.015781539;-0.12033091;0.008871824;-0.022859313;0.002167467;-0.0012493719;-0.008133959;0.06398216;0.004433295;-0.14806989;-0.009098502;-0.16008382;0.006070008;-0.28653646;-0.26420012;-0.0009481557;-0.24254191;-0.05073152;-0.31992984;-0.033701517;0.10348912;0.013774067;0.01619556;-0.5379261;-0.0140237855;-0.004188264;-0.0018888215;-0.016772205;-0.008622187;0.057534907;0.048095416;0.217986;0.021603016;0.01062551;-0.32888868;0.001743937;-0.10689973;0.012766297;-0.048455738;-0.010683869;-0.0052046166;0.123220764;-0.10152021;0.0045072325;-0.0020374786;0.0014701709;-0.007898531;-0.14962788;0.0030022322;-0.380913;0.015506259;-0.006659666;0.0021468555;0.15911588;-0.01634054;0.07898058;-0.047652297;-0.056331307;-0.009399906;0.386501;-0.014740235;-0.023589808;-0.14857401;-0.04766425;0.07365145;0.04359391;0.027861245;-0.17780025;-0.063401386;0.009573758;-0.20024133;0.00072830525;-0.012258911;0.056530993;0.26638266;-0.015199722;-0.027562058;0.22235025;0.01716806;-0.010750724;-0.019252138;-0.1413935;-0.0017556312;-0.07230392;0.01432127;-0.10558732;0.090253234;-0.11760451;-0.15132107;-0.065294154;0.19988328;0.0037075528;0.0024230445;-0.24393398;-0.008484256;0.09236869;-0.015939748;-0.05215135;0.0003092753;0.07903036;-0.3126716;-0.31086934;-0.11171883;0.10105367;-0.115395896;0.07150885;0.28070286;-0.094311416;0.26788843;-0.21274337;-0.007598008;-0.059183907;0.004589847;-0.004000696;0.0047550155;0.063954026;-0.015528457;-0.15428425;-0.0060250335;-0.16600469;0.00581217;-0.29133812;-0.0069897817;0.10576778;-0.15446515;-0.018040786;-0.19834991;0.4444094;-0.0090857195;-0.14629707;0.0124542415;0.011828688;-0.004522742;0.13685973;0.22284664;-0.38704872;-0.07738941;0.029481633;0.01679452;-0.075340144;0.13742897;-0.005168262;-0.075697295;0.3820462;0.12960522;-0.10967097;0.11825504;-0.33390623;-0.009143674;-0.07264904;0.060853083;-0.0007442844;0.16906983;0.011800579;-0.2755245;-0.06851883;0.0900855;0.19817127;0.115858495;-0.010681183;0.32704026;-0.12566178;0.17839545;0.009345558;-0.30967453;0.039844256;-0.5396622;0.08800249;-0.045233037;-0.14829534;-0.012093745;0.15347075;-0.03898703;-0.004452857;0.0026565716;-0.018808592;-0.3175822;-0.00035845884;0.07130107;0.020521995;0.09252424;-0.014242946;0.0066502783;0.0014456765;-0.144409;-0.37288874;0.116955884;-0.044439226;-0.00022749431;0.023429358;-0.106349334;-0.04374498;-0.063244075;-0.09383191;0.052115023;-0.008787516;0.2741727;-0.14808856;-0.010083315;-0.29819617;-0.12614928;-0.0071502323;-0.06758239;-0.0053207763;0.3529165;0.019723587;-0.02582328;0.01073182;0.099513486;-0.19136958;-0.0027885986;0.04995828;0.0057923123;-0.0675212;0.0019797739;-0.13002972;0.08681395;0.13076684;0.13069391;0.31954348;0.0011150385;-0.15672015;-0.020956215;-0.13682309;0.014637364;-0.051385228;0.09471913;0.015180287;-0.229168;-0.0041015926;0.0014742097;0.2644698;0.21424685;-0.0016122771;0.546997;0.015617663;-0.004778847;0.09977049;0.087181486;-0.0064939554;0.24124978;0.0112645365;0.009688783;-0.054875504;0.042417664;-0.018912494;0.13255192;0.0969923;-0.067361325;-0.015603378;-0.008393151;0.012198876;0.0065909214;-0.16860864;0.17141467;0.09213798;-0.045411907;0.013217738;0.18697613;-0.57495505;-0.0929884;-0.22447376;0.059410173;-0.3975977;0.004303825;-0.0487681;-0.14724167;-0.0017678301;-0.22596699;-0.3970974;-0.14073868;0.006271178;0.019699989;0.09391466
0.26047868;-0.033549156;0.24588083;-0.028254671;-0.020533537;0.13041341;0.208038;0.19388881;0.00066657853;-0.2711266;0.003782604;-0.10097856;0.062880315;-0.060510326;0.16412774;0.12333968;0.094756804;0.093641005;-0.022941658;-0.097404025;0.20370851;-0.019885994;0.15626791;-0.13318014;-0.051668674;0.00012617088;0.0024762542;0.13749768;0.030932829;-0.2951193;0.19629233;0.0011667012;-0.14271262;-0.42995545;0.0378897;-0.20573209;-0.12719175;-0.054609377;-0.16214378;0.09742998;-0.0046700467;0.0029894607;0.0045876163;-0.19824864;-0.013358371;-0.09184623;-1.884766e-05;0.16409002;0.08864829;0.00040364885;0.008918851;0.25386083;0.15971126;0.01423702;-0.0065290844;-0.075185366;-0.005170098;0.16090983;-0.04413407;0.14698657;-0.010719387;0.04475154;-0.0026964021;0.044604477;-0.039049912;0.018881714;0.01987936;-0.196172;0.16204809;0.020519486;0.025021799;-0.006354519;-0.008476744;-0.2006106;-0.037447803;0.01615546;0.0031849598;-0.16659203;0.11150707;-0.009545968;-0.008254075;-0.07926713;0.11073573;0.0012441718;-0.0033863913;0.078119874;-0.30038688;-0.0043529365;-0.008194053;0.0036205864;0.0073672435;0.13296273;0.29205042;-0.007206867;0.19151424;-0.1249757;-0.21043564;0.1504633;-0.011055197;0.3615244;-0.0067175673;-0.22780208;-0.17986235;0.0130187515;-0.088603325;0.18496817;0.007893836;0.018147172;-0.0081703905;0.0129969865;0.21198347;0.029820763;0.19774066;0.00024633782;0.3567073;0.027102701;-0.11841811;0.15890783;0.00793582;-0.27215356;0.047200505;0.0075760745;0.06895824;0.009583279;6.129981e-05;-0.015692184;0.026655938;0.18979461;-0.015984492;-0.0861958;-0.2511643;0.04628406;0.14526217;0.0671745;0.0057991426;-0.20578207;-0.26097286;-0.11853532;0.011065643;-0.018773414;0.45214236;-0.05952066;-0.2330344;-0.21261568;0.0069103744;0.0011212595;-0.27575144;-0.019668689;-0.08738139;-0.035750918;0.012501341;0.10817152;-0.0069747367;0.022587733;-0.00371317;-0.0036526308;0.0023017325;-0.124947414;-0.10528467;-0.01219961;0.12886275;0.013058464;0.16012007;0.0154765695;-0.0057233092;0.36986437;-0.06419491;0.0050260336;-0.18072167;-0.06642911;-0.04600319;0.0009237927;0.0010034847;0.13481021;-0.56583315;-0.035157707;0.004477012;-0.013886856;0.12144433;-0.017497102;0.0016994233;0.21047525;-0.006455459;-0.13086015;-0.08800174;-0.21230051;-0.10617379;-0.19679114;0.2180062;0.014096879;0.31371254;-0.011854819;0.012938472;-0.010449999;-0.0077759847;0.16694464;-0.18212838;-0.09742518;-0.11152244;-0.022093508;-0.014060676;0.16350223;0.20487268;0.0012305;0.014039807;0.0042048367;0.002543593;0.012983131;0.44160232;-0.04376147;0.0018774454;-0.38086966;-0.008611718;-0.0013507362;-0.110135816;-0.005894329;-0.12624195;0.02552696;0.04634178;0.35304773;-0.017852169;0.16524306;0.092118315;-0.0047008484;-0.3368365;0.012589134;5.673543e-05;0.15001951;-0.00041106853;0.348707;0.054130603;0.0045570675;-0.004951266;-0.09056901;0.15282477;0.024506673;-0.42889726;-0.00092691457;-0.2608074;0.15558477;0.24237715;-0.03721787;-0.013176748;-0.6369107;-0.16444191;0.037596133;0.009687324;-0.022189021;-0.15422921;0.17489447;-0.0059086448;-0.15105051;-0.0014454708;0.1345289;-0.050359324;-0.111001946;0.42312354;0.009392547;-0.025885751;-0.064737484;-0.0023912706;-0.014083797;-0.38913745;0.21108018;-0.035880826;-0.038336672;0.12145784;0.06929395;-0.019287916;0.44659185;-0.07478715;0.19555575;0.0009064857;-0.5592315;-0.11476863;0.0077542407;-0.0027290185;0.38713554;0.16881864;0.13593192;-0.0881518;-0.09453681;0.09157627;-0.16203608;-0.19200066;-0.4447586;-0.21571071;0.16403759;-0.12523504;-0.19817089;-0.008730824;0.58014035;-0.04617103;-0.14180565;-0.15397212;0.20178905;0.04966716;-0.024035921;0.054973114;0.006397249;-0.2887563;-0.009094027;-0.008205812;-0.043775197;-0.0066629103;0.0330292;0.011414568;0.045305096;0.0058433693;0.014157418;-0.016030425;0.060542423;0.053604603;-0.3285695;0.1285858;0.007041387;-0.21534319;-0.00040685298;-0.15677994;0.009015015;0.004017372;-0.068774804;0.101772904;0.003188754;-0.07806374;-0.056866642;-0.014969241;-0.0016429506;0.008533483;-0.23167048;0.00061570806;-0.121147476;-0.06468481;0.18042678;-0.092776574;-0.012623268;-0.13652694;-0.019243209;-0.28358388;-0.010275021;-0.027768837;0.0041656853;0.08295438;-0.040275946;-0.47523096;0.17907113;0.005711562;0.0034543409;-0.0020400302;-0.030490177;0.00951349;-0.29731315;0.012976845;0.025164967;-0.0044995807;0.25371382;0.10863328;-0.020504486;0.1406432;-0.094312266;-0.0058072475;-0.044409752;0.001667077;-0.2544811;-0.17087786;0.12169205;0.17720926;-0.08363561;-0.06675164;-0.12753035;0.052830048;-0.12250973;0.16766153;-0.007111344;-0.15474711;0.011260625;0.2201156;0.14501339;0.021782052;0.04966295;-0.016133087;0.008997851;0.01386634;-0.12727265;-0.011461479;0.044265978;-0.012427284;-0.113760225;0.21736865;0.09380478;-0.24725035;0.004264994;0.26966375;0.15652066;0.004063809;-0.071939796;0.020221598;-0.09782519;0.027483977;-0.056865487;-0.021565922;-0.077113986;-0.34626064;0.42251742;0.05671806;0.12585297;0.059409652;-0.24884495;-0.02188551;-0.10403044;0.32087773;-0.04602141;0.0094297;-0.17431141;-0.009936594;-0.1255476;-0.013534328;-0.2145584;0.0152436495;-0.0074718734;-0.017416438;-0.11526272;0.026707992;-0.021055473;0.008736969;0.048839558;0.2197433;0.0089579495;-0.22447808;0.6089305;0.008280542;0.08223347;-0.016649071;-0.011347335;0.00075847015;0.16597524;0.15945363;-0.4190672;0.008904073;-0.0134137655;-0.00071182346;-0.078713395;0.40505213;0.010485888;-0.11791526;0.3047134;0.13042599;0.23049004;0.05437312;-0.5829024;-0.1171959;0.020753548;0.18112686;0.004224403;0.2670669;0.008827475;-0.2893382;-0.1476169;0.012541135;-0.07775634;0.20957713;-0.0058129034;0.46641013;-0.15821713;0.15836884;-0.34164736;-0.061377276;0.12078785;-0.31229728;0.012118956;0.0477391;-0.030347709;0.013859606;-0.20205721;-0.023737922;-0.0034528046;-0.013086173;-0.00300774;-0.09989168;0.0023004147;-0.14034118;-0.2302294;-0.25726143;-0.20535374;-0.012447991;-0.011490392;-0.24215324;-0.2584762;0.21269532;0.17696407;-0.010846154;-0.26447234;-0.34777164;-0.019564673;0.16068201;-0.24347073;-0.2318226;0.011795075;0.2276986;-0.20763576;0.0096463775;-0.11483086;-0.11179675;0.013014352;0.07180309;0.0024394193;0.17938517;0.06407314;0.0060386024;0.0027521348;0.21432926;-0.20285293;-0.012376856;-0.0005416672;-0.0166256;0.098051436;-0.0060415966;-0.07452063;0.04640305;0.16914809;0.03714058;0.27861845;-0.0016100014;-0.17490432;-0.14577946;-0.1557065;0.08677953;0.15796974;-0.02564575;-0.010216633;-0.10874232;0.013501653;0.00085354195;0.123812914;0.19869049;0.007913409;0.40663272;-0.0036828285;0.004427036;0.18772282;0.20157303;0.007693445;0.15643306;-0.01522858;-0.0076015154;-0.07756653;0.04108215;0.02481551;0.0982628;-0.00801998;-0.020098628;0.1938538;-0.007065804;-0.2177613;0.19697587;-0.06907021;0.40374792;0.41291398;0.13296638;-0.01515006;0.31430224;-0.564168;-0.1627847;-0.23273395;0.0076861857;-0.5768805;-0.013706563;-0.002383517;-0.10421182;0.0046488047;-0.06924113;-0.681222;-0.14674143;-0.015348996;-0.021189345;-0.062094126
0.0946929;-0.18885776;0.2771637;-0.3402323;0.017707389;0.10817824;0.3025676;0.23868078;0.00725632;0.029934827;0.005738043;-0.2158761;0.2013575;-0.1843081;0.19232728;-0.08179261;0.19761162;0.00046981758;-0.075217955;0.0028113066;0.26496306;0.027274642;0.0879335;-0.09465532;-0.053017434;0.010433187;-0.0067560296;0.07758235;-0.049181364;-0.08647648;0.114727326;-0.0021418303;-0.25257236;-0.53513765;-0.15276426;-0.18793365;0.17738974;0.101778395;-0.13035977;-0.210548;0.009898099;0.008320304;-0.017836904;-0.2891484;0.0057633272;-0.29389498;0.009300893;0.25494543;-0.14610757;-0.011312372;0.0059023155;0.25632536;-0.0340327;-0.014351979;0.0058858837;0.07921321;0.001580813;0.14989817;-0.047869973;0.18919304;0.008396806;0.025960688;-0.00576515;-0.15749097;-0.31088528;0.054054387;0.054139525;-0.06972927;0.043311972;-0.0041816444;0.102948576;-0.0023083705;0.016796501;-0.19065785;0.030051984;-0.12522428;-0.00093714846;-0.27308246;0.11973574;-0.0040904977;-0.008363067;-0.013151538;-0.122505434;0.10032232;0.01517339;-0.096094236;-0.1063614;0.007537006;0.008713646;-0.014249254;-0.01441955;0.043402087;0.15605432;-0.06846269;0.111476324;0.05735517;-0.3580827;0.13613221;-0.19824705;-0.18437615;-0.0016514113;-0.21934834;-0.25820032;-0.028053233;0.10216664;0.244769;-0.0069403513;-0.18720761;0.13495715;-0.0074199424;-0.25403345;0.0669327;0.09731007;-0.003036118;0.04858212;-0.2579546;-0.02396721;0.25374293;0.0037146881;-0.07493999;-0.06167679;-0.024487298;-0.15897065;-0.0012040589;-0.010156729;0.006384373;0.10723581;0.18213576;0.012281264;0.108754694;-0.37585935;-0.051266845;0.20462292;-0.056137756;-0.0035048372;-0.3292026;-0.15186004;-0.179826;0.0063695386;0.005966451;0.041568335;-0.2225403;-0.30458367;-0.15472692;-0.007324709;-0.11396832;-0.008193072;0.030317675;-0.03697221;0.014160091;-0.015512967;0.08560354;0.02322867;-0.44273365;0.0149197;-0.0040918696;-0.0027695913;0.11707189;0.06789805;-0.21454655;0.019336125;-0.0142843;-0.11197029;-0.005946868;0.010882728;0.11816946;-0.06833135;-0.007824111;-0.39120457;0.34147218;-0.1572577;-0.009470929;-0.017099753;0.07133475;-0.49357098;-0.014139383;-0.008350495;9.801982e-05;0.20318651;0.019262835;-0.0108947875;0.17260246;0.0032957534;-0.06493271;-0.023597483;-0.16971482;-0.12808983;-0.22508343;0.13404523;-0.01656387;-0.20541558;0.0059084226;-0.41921905;0.0027537276;-0.018740091;0.06944621;-0.12374926;0.17915443;0.038167287;0.020982504;-0.14810652;0.13468963;0.1728965;0.005915458;-0.057093654;-0.011671857;0.08292423;-0.008478188;0.44829908;-0.27167493;-0.024412699;-0.28289795;-0.0048077246;-0.0028793789;-0.13341224;-0.0017625581;0.016661474;0.07542278;-0.24057354;0.30709836;0.1621025;0.17891602;-0.23429085;0.011512326;-0.13244179;-0.011936881;-0.0006355916;0.037570633;0.0029796374;0.16616683;0.014316895;-0.015138244;0.013791383;0.016281843;0.1289997;0.10551167;-0.22638777;-0.0034754863;-0.30536646;0.050227903;0.38476366;0.0008688507;-0.002697585;-0.621704;-0.049334835;0.022032483;-0.005624459;0.086100794;-0.3205456;0.1938464;-0.0031513872;-0.11585624;0.01163701;0.022147687;-0.23897606;0.010949229;0.2514537;-0.002738797;-0.12263613;-0.28943664;0.00014615012;0.005910795;-0.27457634;0.0778762;-0.19810669;0.014646239;0.033188175;0.122418866;0.027011432;0.2910784;0.10198838;0.25382876;-0.004047961;-0.6184863;-0.1625031;-0.006431565;-0.0026560323;0.5113809;0.14333689;-0.004688167;-0.14111207;0.20828901;0.21342608;0.02849175;-0.29952976;-0.32482126;-0.001063118;-0.08975444;-0.21560185;0.26776147;0.011425287;0.5727367;-0.13798395;-0.2007325;-0.16162686;0.0128624905;0.006160749;-0.0029341904;0.07907296;-0.0013513784;-0.2694774;0.007971504;-0.004397396;-0.00897097;0.0008104405;0.023707533;-0.014200603;-0.02122848;-0.009347749;0.054136127;0.024703374;-0.08426828;0.20722036;-0.15031917;0.05109932;-0.007175652;-0.30538732;0.0037757;-0.084286116;0.037947148;-0.07709199;0.11867693;0.0020844012;-0.013213545;0.05978163;0.17112033;0.01823884;0.0049246736;0.02111198;-0.2944545;0.021315543;-0.20625469;-0.027749268;-0.006419733;-0.11551562;0.006819326;-0.024385348;0.0080468245;-0.25466847;0.012949114;0.15514137;-0.0037285544;-0.17058565;-0.21827418;-0.32059163;0.2773267;-0.0015688543;-0.0048263078;0.01344039;0.033337317;-0.008699255;0.039076764;0.050409876;0.28771;-0.007531357;-0.05951086;0.15268674;-0.34669048;0.057702888;-0.09507973;0.004969717;-0.13522738;0.0004781195;-0.24579859;0.014491748;0.09785215;0.096382305;-0.3240355;-0.08587483;-0.10015279;-0.10959901;0.022093838;0.17677467;-0.0108791385;-0.055172313;-0.012363613;0.08140677;0.18019733;0.0012416638;0.1093712;-0.00018412508;-0.00060842786;-0.01085004;-0.18253204;0.0043287943;-0.010855481;0.00532352;-0.044187307;0.2688646;-0.48403132;-0.13214742;-0.2832458;0.44921413;0.16129425;-0.009900905;-0.10423233;-0.020318588;0.106578656;-0.020084197;0.21043427;0.023801746;-0.10200758;-0.23787443;0.33193713;0.020277606;0.049051937;-0.11160398;-0.31072083;-0.08182922;0.1736681;0.3787141;-0.007585823;-0.0043606535;-0.058829166;0.014693212;-0.06728069;0.0019387038;-0.0066113337;-0.007822786;0.21615854;0.008549643;-0.060782056;0.012772471;0.10188663;-0.028059397;0.08732033;-0.17452471;-0.013999449;-0.1989291;0.4819249;0.0006515787;0.13272642;0.010923036;0.00078649446;-0.018544985;0.048484616;0.16679198;-0.3065941;-0.11986906;-0.0077350666;0.2517127;-0.25291803;0.16295259;-0.0073656715;-0.114752926;0.21870568;-0.071253344;0.11893132;-0.013385105;-0.39158806;-0.15156089;-0.08925338;0.061945003;-0.008247924;0.3914022;-0.006223677;-0.30280775;-0.15499374;0.3368803;-0.14493081;0.07053658;0.0008742011;0.22904892;-0.06516662;0.018207144;-0.20817874;-0.18351349;-0.013855568;-0.5817535;-0.30049035;0.051871244;-0.08008252;-0.013920494;-0.010079046;-0.16091909;-0.008276747;0.0034446502;0.020998077;-0.15420909;0.0011796599;-0.12175391;-0.4498928;-0.29543412;-0.28614;-0.006621483;0.008118975;0.05188973;0.073655866;0.14763509;0.19610737;0.0064266473;-0.16520777;-0.1736572;0.068985894;0.029335327;-0.12145567;-0.2699721;0.012005871;0.013004693;-0.10998955;-0.009635116;-0.3230637;0.32994992;-0.013812177;-0.038554925;-0.0031668749;0.00440555;-0.036487952;0.011648636;-0.0034981736;0.10137997;-0.2659441;0.017713182;-0.13153294;0.0068878187;0.10830553;0.013526265;-0.0470254;0.10280877;0.15956065;0.072172694;0.41540056;-0.004535815;-0.28376865;-0.21935765;-0.2298761;0.09172639;-0.0026155915;0.02260794;-0.018735569;-0.09201571;0.0033192006;-0.006673999;0.08469117;0.35006714;-0.0015488081;0.029853253;-0.0006775502;0.007495127;0.3059434;0.08181185;-0.0040890435;0.2808484;-0.007683948;0.001395588;-0.122365244;0.07816124;-0.017849818;0.26082587;-0.1015865;-0.020604065;-0.12865289;-0.010120887;-0.37004864;0.05201571;0.022304092;0.3107077;0.35032701;0.40585127;0.007170467;0.208592;-0.4113282;0.078058764;-0.081148826;-0.0167227;-0.53998184;0.0043491423;-0.03241832;0.05489414;-0.011158745;0.044216152;-0.33626857;-0.27343547;0.015546207;0.00064040784;-0.04954032
-0.03855608;-0.21544519;0.12028723;-0.015393998;-0.012142691;0.13570482;0.15769546;0.115310155;-0.010253017;0.047420613;-0.0055296947;-0.20412228;0.1282709;-0.06022433;0.17339738;0.08245287;0.02807196;-0.042296346;0.06865097;0.0040792935;0.21726303;-0.011025177;0.018443277;-0.20282938;-0.017552853;-0.007921028;0.0059850137;0.092562266;-0.14401369;-0.12311972;-0.03048156;-0.011885536;-0.32311332;-0.4736181;-0.19452448;0.07803677;0.09794931;-0.023651922;-0.15508401;-0.11744043;-0.018188834;-0.01195724;-0.03622831;-0.15807252;0.011972318;-0.2759484;-0.008183096;0.1296672;0.11405266;0.012589189;0.0044682417;0.11587688;0.046408124;0.013033265;0.0011511827;0.081304;-0.0047130864;0.032463863;0.060278602;-0.12752359;0.008016122;-0.10655044;0.011191962;-0.04499403;-0.1415549;0.19667697;-0.014424572;0.04562694;-0.02795976;-0.001792961;-0.09957868;0.005549936;-0.012530327;-0.26877153;0.15367305;-0.033122253;-0.0006219009;-0.06668394;0.12009972;0.010449018;0.014163512;-0.26509556;0.15541415;0.21268238;-0.0122843785;-0.29845434;-0.091405325;0.001407806;-0.010788824;0.0011592959;0.014831284;-0.10056826;0.13241874;-0.1994807;-0.25996274;-0.032904714;-0.20719482;0.07336887;-0.15608661;-0.091093294;0.0051512043;0.20219013;0.03305563;0.015723323;0.14821634;0.11020971;0.009783467;-0.034875147;-0.030735059;-0.009569328;-0.22406715;-0.0070333094;-0.11461493;0.21319763;-0.05456555;-0.104923;-0.14627554;0.1809873;-0.0026268754;0.11501377;-0.15608402;0.028158935;-0.2107855;-0.007062108;-0.00981464;0.005786731;0.34463146;0.13093151;-0.022299347;0.13606352;-0.30449808;0.120891646;0.29616612;0.039929006;0.0023686157;-0.121480905;-0.063433886;-0.22042271;-0.0146117285;-0.003245983;0.086280346;-0.024404148;-0.35026962;0.019067781;0.008900846;-0.14783363;0.21095622;-0.020326624;-0.103830755;0.220293;0.013964217;0.20659216;-0.027596617;-0.39469224;-0.0065694503;0.012593104;0.0046319272;0.26667953;-0.063525245;-0.17182276;0.06245366;-0.011202276;-0.17380495;0.00853888;-0.0066428976;0.06227729;0.19658628;0.0052217706;-0.08793258;0.13220666;-0.17837512;-0.015911726;0.0278597;-0.058883402;-0.5130525;-0.015643606;-0.006900744;-0.0005317554;-0.03150331;-0.008597481;-0.0053647337;-0.24236816;-0.11224656;-0.16192338;-0.010127557;0.094365776;-0.24310929;-0.107369915;0.27337825;-0.0002023481;-0.26994437;0.013399829;-0.18425913;-0.011811467;0.022072397;0.06293031;-0.216776;0.26774007;0.2234808;-0.0018274878;-0.083367355;0.10311448;0.25047147;-0.02351449;0.15841489;0.0117542045;0.33164036;0.023926163;0.5478627;-0.22529042;-0.042729247;-0.25571677;0.007296528;0.008606479;-0.2620768;-0.0035879714;0.32748953;0.27644923;-0.041451905;0.15590608;-0.036438096;0.04334383;-0.3344451;-0.008913135;0.119816445;0.0058945315;0.017293332;0.10028973;-0.0048612827;0.054800283;-0.13735011;-0.0062817195;0.11952721;-0.10399942;0.22653481;-0.09151336;-0.18193123;0.0035201001;-0.45354933;0.1433833;0.32602888;0.005762939;-0.00468864;-0.24474522;0.0350031;0.0012157024;-0.015329947;0.0024304863;-0.5482085;0.10383492;-0.007693844;-0.20401902;-0.019047769;-0.19887696;-0.002488602;-0.045069046;0.19055265;-0.0080067115;-0.03063418;-0.5208127;-0.0066665416;-0.0065067965;-0.16090126;0.106243044;-0.0029664533;-0.1358773;-0.03662774;0.11330376;0.04498322;0.1597966;0.13760714;-0.10394023;0.0013102464;-0.42014083;-0.14472127;-0.00442505;-0.009795446;0.37700155;0.18896484;-0.045571096;-0.12442195;-0.15625818;-0.03294657;0.006733537;-0.17474502;-0.22647855;-0.15648897;-0.021007562;0.07897217;0.30914864;0.0072373655;0.42308906;0.13608044;0.0018978614;0.117304094;-0.22266264;-0.08528416;0.024417758;0.26600608;0.0011024481;-0.19783296;0.0069698407;0.025943464;0.10850307;-0.016047783;-0.059949923;0.0061666607;-0.023964008;-3.0090867e-05;0.008623744;-0.003207754;-0.1370695;-0.0607316;0.24498974;-0.10186779;0.011862911;-0.3081432;-0.0032291715;-0.20073815;0.04383666;0.24151778;0.051000275;0.053483255;-0.0050686505;0.02118544;0.15284052;-0.004340358;0.004575403;-0.0035069818;-0.5067361;-0.020122657;-0.02222296;0.007359561;-0.08710752;-0.41615468;-0.016822133;-0.0015204587;0.000668537;-0.028497536;0.0010656583;-0.10570203;-0.019827513;0.2515082;0.029931692;-0.053929683;0.29322436;0.0021502525;0.0066427;-0.021467082;-0.13777635;0.006539157;0.056823134;0.32537827;0.052937094;0.008938051;-0.30464858;0.102851465;0.052330237;0.040728983;-0.083679244;-0.011662524;0.045834456;0.0010072187;-0.23181558;0.3160079;-0.026833698;0.08941536;-0.14001845;0.11283073;0.18176785;-0.31966564;0.35622746;-0.1489435;0.015518579;-0.009877776;-0.10388214;0.1464593;0.25051868;-0.014537577;0.26513794;0.006210791;-0.0009463367;0.018716851;-0.41435078;-0.0031515418;-0.0383187;0.0024355561;0.03449413;0.22380109;-0.4093131;0.19718671;-0.32346714;0.34528106;0.09254493;0.010581389;-0.026921526;0.0046624956;0.11887508;0.011147262;0.1300925;-0.029377602;-0.32018095;-0.04660685;-0.0069456194;0.01696027;0.07028246;-0.08323842;-0.21628155;0.10370625;0.07626229;0.30524892;0.06998782;-0.0156023055;-0.019229691;-0.009710929;0.05007391;-0.005521607;-0.12080171;0.0030788872;-0.079929866;0.008375014;-0.19214943;0.1199219;-0.04219306;0.030021187;0.031756263;-0.020761868;0.0043857293;-0.04483922;0.18187633;-0.023263171;-0.18707132;0.013154837;0.0033392916;0.016142882;-0.14119862;-0.0067289923;-0.29891613;-0.03556071;-0.0030011227;0.17108056;-0.17304397;-0.123368576;-0.012413057;0.1596547;0.08514785;-0.15173775;0.1463698;0.024482004;-0.33376083;-0.44113374;-0.0036276227;0.20174983;-0.019883275;0.27166495;-0.013802118;-0.12597339;-0.071679495;0.122432195;-0.045968007;-0.07326684;0.028294824;0.18517278;0.0055780807;-0.0047660023;-0.14446919;-0.19244163;-0.13916647;-0.44469365;-0.35477817;-0.07457811;-0.29487526;0.009342756;-0.0011353266;-0.156924;0.0058005597;-0.0056989267;-0.0038875067;-0.060697265;0.0019264129;0.031944476;-0.38253993;-0.27908882;0.002061761;-0.0059787184;0.012727868;0.05187837;-0.23699817;0.16760124;0.1618526;0.0156237595;-0.29540947;0.030908601;0.009440658;0.012655353;0.14087993;-0.21071044;-0.003741788;0.04360574;-0.50111467;0.004923537;-0.18266705;0.2764803;-0.0013169104;0.01914292;0.0113588;0.021736396;-0.03326167;-0.0039760955;0.009526893;-0.043697666;0.076668814;-0.0088384375;-0.41627237;0.00954841;0.07865025;-0.012190836;0.010754482;0.22060668;0.122474775;-0.12991364;0.22140634;-0.003724061;-0.37376013;-0.37038624;-0.23623027;-0.028763864;0.19479956;0.023559945;0.025467867;-0.10684887;-0.0051109185;0.004064392;0.12457262;0.2592744;-0.003991205;-0.032431636;0.0049645775;-0.0066745486;0.25135928;0.026530918;-0.0017108509;0.26521632;0.018783621;-0.0064626383;-0.040858418;0.07149231;-0.0070041902;0.26167315;-0.29116723;-0.018639194;-0.19301853;0.026152767;-0.35914692;0.011729547;0.120857805;0.024141371;0.18568411;0.3231737;-0.009022441;0.1792658;-0.26680928;0.27286378;0.30601266;0.15079698;-0.4387291;-0.00077581056;0.05148764;0.11923182;0.0018938819;0.01797236;-0.36741784;-0.44601592;-0.016128222;-0.0054276176;-0.19561423
-0.3338639;-0.117068715;-0.0021123125;-0.19765781;0.0018459995;0.0785232;0.067632094;-0.13545038;0.0047244853;0.20909616;0.0014286338;-0.08240472;0.06905785;0.22125772;0.16166112;0.083712734;0.042219363;-0.1320031;-0.2228882;-0.24252725;-0.028987663;-0.0029970715;0.074572526;-0.2200454;0.037215445;0.0028387231;0.0048581692;-0.07019754;-0.027532116;-0.34741196;-0.010194665;0.012791377;-0.09553948;-0.35468423;-0.13721374;-0.07450569;0.08146069;0.10869281;-0.3094968;-0.1917986;0.018098116;0.011673583;-0.031992383;-0.17393067;-0.014135452;-0.037363935;-0.0015388032;0.09135535;0.22856537;-0.005179702;-0.016156385;-0.079376765;0.13935667;-0.005054517;0.009715871;0.33643368;-0.005431983;-0.0035059447;-0.13205132;0.14394951;0.0016452394;-0.01307363;0.007208779;-0.20331134;0.0801179;-0.06496285;0.0012055605;-0.25094885;-0.0420836;-0.0022411637;-0.07071101;-0.0066390624;0.006380903;0.10254506;0.33646262;-0.14800708;0.013720184;0.029361662;0.120154254;-0.007127254;-0.011893201;0.02354374;-0.024199806;0.14848198;-0.0061181774;-0.12918997;0.3179213;0.003488678;-0.0063434592;0.004381925;-0.014215363;0.09723659;0.0032614702;-0.1542974;-0.06531748;0.13998386;0.17781858;0.04140492;-0.022442084;-0.42610118;0.006486343;0.052785914;-0.02619145;-0.004729346;-0.033462487;0.07467857;-0.008449003;-0.31999573;-0.07959062;0.007332006;-0.24664827;-0.06461917;0.110702924;-0.00043452912;-0.09152546;0.062053543;-0.1431507;0.16405644;-0.010014839;-0.22012702;-0.21713574;-0.010909574;-0.17300057;0.00393529;0.0066124173;-0.0027106197;0.436852;0.1495692;0.023091508;0.19664069;-0.27670085;0.078789234;0.32478353;0.14990406;-0.0062125796;-0.17573965;0.18048027;-0.024447182;-0.014342908;0.009060449;-0.26572722;0.19724269;-0.22474298;0.032210264;-0.0124545265;-0.12758021;0.18045372;0.010276867;0.06299851;0.29753992;-0.010759305;0.15263191;0.015425581;-0.232248;-0.0067495084;-0.005821257;-0.0045254845;0.07511578;-0.28315255;-0.102352105;0.047839053;0.005031295;-0.18703882;-0.01346287;0.0026406103;0.014121065;0.18820441;0.00011835133;0.26426393;0.0965054;-0.23482208;0.012631416;-0.003527802;0.118096374;-0.40007448;-0.20904395;-0.0025392042;0.0073410766;-0.16030018;-0.02246893;0.0033729565;-0.032967485;-0.120084345;-0.013284552;-0.1615535;0.09760132;-0.17575881;-0.12094644;0.10497715;-0.014568821;-0.10799131;-0.0053652246;-0.18564542;0.032993626;-0.014292404;-0.1915069;-0.26609883;0.45648846;0.22660652;-0.0152891725;-0.05306132;0.020068944;0.28156286;-0.002910403;-0.012337711;-0.010527626;0.006869278;-0.025459828;0.21150117;0.019577632;0.03191805;-0.19784024;0.01491704;-0.002876688;-0.17669189;0.013472717;0.27606;0.08858585;0.26208243;0.0381354;-0.20307049;0.01776518;-0.5682686;0.00361441;0.022931576;0.00027468093;-0.015087608;-0.11881093;-0.007533095;0.09980895;-0.24716522;0.0046069734;-0.03225872;-0.36355376;0.1171509;0.14377524;-0.059102252;-0.0009315363;-0.15384665;0.008411375;0.055489752;0.03585066;0.0035235384;-0.24680865;-0.062223807;-0.00511912;-0.0023208868;-0.058962483;-0.31350526;0.3375726;0.004952017;-0.26476306;0.26222342;-0.37803045;-0.049101397;0.031827513;0.07367191;0.006042442;0.022735775;-0.2186092;0.008901913;0.017554434;-0.029642778;0.24129984;-0.121711515;-0.25792897;0.046165027;0.094379425;-0.09565407;0.21273391;-0.103365235;-0.22226009;0.0137738045;-0.12397762;-0.20185412;0.0063145463;-0.00044209417;0.10071436;0.2177232;-0.15801503;0.022120183;0.04769235;0.3384931;0.016456824;-0.22644253;-0.11811789;-0.35476795;0.057283245;-0.04063857;0.10341807;-0.012072567;0.19748737;0.113748126;-0.12234375;0.24555916;-0.26026243;-0.04790344;-0.044327177;0.1485906;-0.008351493;-0.19556767;-0.0054621263;-0.025302265;0.0104916785;0.014011315;-0.0073751747;-0.0016433186;-0.031502508;0.0032708342;-0.16370735;-0.0067936727;-0.05702822;-0.06649519;0.20440051;-0.026559224;-0.08788828;-0.24484447;-0.00881326;-0.28241166;0.12718411;0.15362038;0.124882735;-0.11292166;0.0026614235;-0.08270493;-0.070081;0.0014629588;-0.008599956;-0.015890421;-0.60243386;0.01820074;0.017705332;-0.058500033;-0.42514;-0.3843118;0.021276666;0.20800464;-0.0018592492;0.13369414;-0.015378757;0.021116208;0.025099494;-0.019564625;-0.029254887;0.19116037;0.103206545;-0.0064919125;-0.0065741413;0.030098723;-0.058628332;-0.010535409;0.06489111;0.33207694;-0.23740718;-0.0035054863;-0.1823922;0.07899597;-0.09821071;-0.08834173;-0.021466184;0.013317971;0.081483;0.010095939;0.17380579;0.18817282;-0.033387247;0.13208239;-0.25123078;0.07141213;0.09289523;-0.32431683;0.20752206;-0.13680956;-0.016957944;-0.026687443;-0.24822588;0.014026126;0.19806416;0.0016504152;0.15159509;-0.010619631;-0.018022554;-0.03187147;-0.079731114;-0.00927928;0.29371345;-0.004133998;-0.109127186;0.08263442;-0.16907607;0.047302652;-0.44483632;0.36463308;-0.079388484;-0.016395392;0.122214735;0.011725721;0.10767636;-0.010160487;0.07578553;0.036614273;-0.32392257;-0.22173318;0.22256368;-0.08916784;-0.15787055;0.12788197;-0.19328326;0.00097511476;0.09101546;0.37457782;0.050740685;0.004447617;0.023163466;0.0067480826;-0.0926331;0.021881875;0.18859988;0.017081363;-0.028718513;-0.012708819;-0.07962132;0.120545946;-0.20921108;-0.018116916;0.07425093;-0.08708663;-0.010742859;-0.17798863;0.15806383;0.013830027;-0.2993911;-0.0060781795;0.020439327;-0.011739585;0.04089684;0.043223727;-0.19729137;-0.17254438;-0.00027768468;0.33963114;0.0019072775;-0.1523668;0.012806455;0.23933525;-0.15345006;0.0077340566;-0.05917925;0.20561759;-0.514502;0.102657825;-0.08831969;-0.12268943;0.023149904;0.3501974;0.004646967;-0.053924117;-0.0008749212;0.034571502;0.08394152;-0.38507953;0.012421003;0.011660083;0.0076084095;0.17983697;0.045898158;-0.11906148;-0.13699037;0.026080202;-0.17883424;-0.026554674;-0.14051704;-0.0031373296;0.29812407;0.06573931;0.015959691;0.0028271107;0.0026806397;-0.2309683;-0.013962574;0.30008405;-0.20200413;-0.22705124;0.14267221;0.01712496;-0.0153727615;-0.0769391;-0.20811784;0.0076777507;0.12615174;-0.009413771;-0.25134826;0.035844084;0.07332387;0.11315119;-0.035716407;-0.36537066;0.014272935;0.26337135;-0.46600488;0.0051793773;-0.026756624;0.038648233;-0.0037826882;0.31927612;-0.0011193529;-0.112408794;0.011615505;-0.0056648552;-0.00904098;0.033914927;-0.067186885;0.0012884012;-0.4249497;-0.016618306;-0.04097265;0.008790647;0.31007034;0.20127742;0.28613576;-0.0687528;0.15776616;0.0049981964;-0.20168614;-0.25581816;-0.32780322;0.057430036;0.21067542;0.15948258;-0.00859487;0.021797994;0.0013436151;-0.010331769;0.16438372;0.27375603;-0.0061689587;-0.15844606;-0.01581505;0.014714715;0.1447794;0.028115354;0.019728677;0.012594458;-0.006314845;0.008798946;0.13457836;0.06494511;0.01148031;0.04999665;-0.0051070126;0.030380568;-0.3702384;-0.007394946;-0.05517701;0.13384138;0.20914893;0.088555716;0.076851584;0.24969952;-0.0023018098;0.18472016;-0.03245;-0.06955517;0.3185893;0.031493235;-0.29420146;-0.013881213;0.13206428;0.4847447;0.0020298273;0.12861323;-0.22937094;-0.5646287;0.008712011;0.00037700663;-0.41444364
-0.3473106;0.114106;-0.09792757;-0.03058423;0.0011830244;0.031517506;0.19207126;-0.15974656;-0.010270811;0.15438446;-0.0032161945;0.20583044;0.23233026;0.047513418;0.018920068;-0.027747784;0.07880709;0.034279883;0.052089363;-0.093888685;-0.22549413;0.0016903615;-0.10553611;-0.28493416;0.00966706;0.0067258882;0.00471792;-0.08699402;0.050089248;-0.48773253;-0.12983751;-0.0007494281;0.08824127;-0.4782014;-0.1854024;-0.14893492;0.2740131;0.08693911;-0.117621735;-0.10485764;-0.0070181317;-0.0025495184;-0.09470626;0.18571742;0.008895572;-0.06447744;-0.004898686;0.15495314;0.31206903;-0.006685673;0.009882197;0.07320925;0.14090632;0.004973098;-0.015556854;-0.0071510235;0.005103298;0.17765595;-0.059788685;-0.08464714;-0.020316362;-0.043940432;-0.011832435;-0.07862072;0.19573411;0.14666672;-0.038918782;-0.3955542;-0.07544705;-0.0023489692;-0.11569819;0.010285365;-0.00032590056;0.031018412;0.38723487;0.1376115;-0.010843398;-0.0046431255;-0.31836793;-0.0026739885;0.004044971;-0.040364835;0.0057127755;0.28513297;0.006843206;-0.1915218;0.39707157;6.113e-05;-0.0035476978;-0.010912281;0.011016728;0.09965338;0.021099903;-0.047370166;0.11395477;-0.19698668;0.16399455;-0.12191405;-0.045376536;-0.5434108;-0.015046026;-0.16771656;0.040384777;0.01469552;-0.21212393;-0.058085915;0.00489708;-0.09299866;-0.039477322;0.009514465;0.18594992;-0.061167173;0.08433321;0.02569353;-0.09308566;0.17827283;-0.030500531;0.16951945;0.015075532;-0.12837152;-0.043387167;0.005669969;-0.26284277;0.000516787;0.002167572;0.014902013;0.23187996;0.024158372;-0.01681098;0.05803515;-0.023850396;0.27944386;0.26483494;0.15546134;-0.0057552415;-0.08551983;-0.01194683;0.041301858;0.012194686;0.008186799;-0.3503323;0.12693655;-0.21958235;0.0064133545;0.008368647;0.14611565;0.02190966;-0.0058230534;0.22948952;0.18799277;0.0066172094;0.20011355;0.008568802;-0.15793033;0.0005846303;0.0017861931;0.009342941;0.003770196;-0.48956275;-0.058924608;-0.005045559;-0.015557683;-0.19622688;0.0050425264;-0.009288031;0.06137097;0.0817996;0.014406712;0.15686327;-0.01599232;-0.25255775;0.009581101;-0.0041961637;0.007947761;-0.06850318;-0.3712158;0.017025022;-0.009718277;-0.11222815;0.025506966;0.0010958425;0.09372372;0.080527075;0.10742056;-0.20341797;-0.008232814;-0.10232696;-0.08647139;0.03355768;0.015788207;-0.12998705;-0.010516675;-0.020192653;-0.014423924;0.030097615;-0.17616214;-0.15874307;0.22756507;0.028457131;0.013072488;-0.32063374;0.1370434;0.10966226;0.0030712485;-0.16785058;-0.003035227;0.10677316;0.016127812;-0.03419792;0.22353797;-0.00200445;-0.17393672;-0.0088116545;-0.0035200433;-0.0795758;-0.0010707004;0.38167378;0.116078116;0.28394908;0.07833449;-0.22586066;0.13541049;-0.31451622;-0.006924986;-0.41180062;0.015763082;0.003098084;0.02749102;0.01752735;0.033191044;-0.15140927;0.0006229261;-0.005057304;-0.24124698;0.028495314;0.06718682;-0.06576329;-0.0051647886;0.04407445;0.14122623;0.0626332;-0.0235288;-0.0027451804;0.043298617;0.11668926;0.013668892;0.009365945;0.0086887395;-0.23992103;0.30359757;-0.0038126963;-0.12564084;0.14553118;-0.40279922;0.2253896;-0.024458436;0.03111593;0.0006029006;0.120454036;-0.04030703;-0.02271284;-0.010425704;-0.036864247;0.32296222;-0.06660396;-0.04352062;0.055956557;-0.23866484;-0.15365526;0.15022522;0.24757434;-0.3533949;-0.009189466;-0.4448916;-0.07037987;-0.020167552;0.008094129;0.059776664;0.2171459;-0.44374743;-0.07878364;0.010918509;-0.01150142;0.043748092;-0.13420178;-0.1821345;-0.24905683;-0.09552165;-0.050051454;0.07004782;-0.004251158;0.15513003;0.11059919;-0.018675772;0.07290058;0.14788125;-0.030045548;0.023813302;-0.19134445;-0.00095816585;-0.07918635;-0.022611106;0.01696766;-0.08038157;-0.011273682;-0.06561771;-0.0053778305;0.011717181;0.015291038;0.021240596;-0.0026735915;-0.09853151;0.049635176;-0.009586076;0.0011332446;-0.05553979;-0.21084297;-0.006380714;-0.319403;0.19480395;0.118071735;0.09315313;-0.10797457;-0.008980426;0.044937704;-0.22328903;-0.051435806;0.02238594;0.017644312;-0.36359066;-0.005705525;0.26037273;0.13459997;-0.46257204;-0.28234473;-0.011161964;0.4395137;-0.0060433615;0.5479781;0.0043533025;-0.015750289;-0.01784368;-0.34604007;0.060782608;0.19022691;0.1251404;0.0029593906;-0.010932711;-0.011560091;0.12751509;0.0024979664;0.05826173;0.31287593;-0.206063;0.0032542874;-0.2362448;-0.07043005;0.17800106;0.007506863;-0.056321025;-0.034126814;0.1540211;-0.0020171418;0.13285692;0.06522432;-0.046645146;-0.03670709;-0.057024274;0.013421599;0.1501994;-0.21586181;0.25806457;-0.033575155;0.008706411;-0.049242005;-0.28086382;-0.052367743;0.1315934;0.006218005;0.26627573;0.0050834105;0.020762963;0.021832192;-0.10656487;0.002455794;0.28303012;-0.0070913066;-0.05130222;-0.10888645;-0.09668676;0.085289426;-0.4427862;0.30410773;-0.2888627;-0.013706813;0.21264133;-0.0066925525;0.12597238;-0.0072464077;-0.038445085;-0.021585701;-0.070387125;-0.19559573;0.20903024;-0.13332264;0.027352367;0.13648361;0.048870258;0.14159763;-0.006786942;0.1623458;0.021775305;0.004995112;0.06364358;0.004575372;-0.12592517;-0.01118193;-0.08644253;-0.019305779;0.09076009;0.012285103;-0.18967299;0.009070808;0.02628588;0.006445022;0.0058514276;-0.302039;0.028021999;-0.09604758;0.15610471;0.00612064;0.12933184;-0.006249904;-0.04220716;0.018864168;0.047495916;0.14726545;-0.051859297;-0.15322064;0.0010989306;0.30220532;0.07487177;-0.45229164;0.0058873696;0.016763335;-0.007012592;-0.07926347;-0.26832256;0.12837555;-0.40737584;0.36582914;0.040150393;0.0009186245;-0.010883814;0.50696266;-0.011105403;0.054668736;-0.16314544;0.10196057;0.019358858;-0.48178884;0.033371612;-0.16972703;-0.0936771;0.14307447;-0.044800285;-0.019528432;-0.004630999;-0.020287722;-0.0016291412;-0.019094586;-0.14122096;0.00566106;0.19132607;-0.058863763;-0.0117265545;-0.004016743;-0.015311542;-0.1659482;0.01891124;0.32978687;-0.09861162;-0.15338542;0.045293424;-0.008149131;0.0070770564;-0.06278712;-0.3921632;-0.23679233;-0.018252078;0.00042153543;-0.0053960714;0.000593879;-0.017453812;0.15953977;-0.13914223;-0.21596849;-0.014891931;0.20884629;-0.2506948;0.0032571345;0.1657486;0.25392747;0.015917739;0.0831703;-0.0073249144;0.07024957;0.035661206;0.009647748;0.0026564742;0.19127564;-0.05459524;-0.0033239776;-0.5007947;0.011589541;-0.08079977;-0.017502934;0.12401353;0.05327673;0.03418953;-0.19693772;-0.09802522;0.004310843;-0.17274779;-0.11218346;-0.14603747;-0.096689515;0.25814053;0.15081464;-0.004538476;-0.008861638;0.00496906;0.017493717;0.12909485;0.46081978;-0.0022301888;0.09320459;0.009692566;-0.007307617;0.1360108;-0.19883986;-0.0082896445;0.033871032;0.010920506;0.0037952438;0.19814649;0.16333054;-0.009901168;-0.18439619;-0.09772856;-0.020787172;-0.4168079;-0.0022646873;-0.20241636;0.046187416;0.109833166;0.0777086;0.31483322;-0.005542146;0.0035115427;0.32198617;-0.057421334;-0.14304876;0.21769398;0.018436886;-0.5180947;0.008250731;0.11560657;0.52066344;-0.011534734;0.14334595;-0.23784395;-0.32068905;0.008495968;-0.00065705297;-0.39432675
-0.36201626;0.2023586;0.010029815;-0.14923702;0.012589545;0.06460937;0.1470337;-0.2902494;0.005554468;0.22603385;-0.016819898;0.39027137;0.2210078;0.14325349;-0.028113654;-0.010771631;-0.18235879;0.18948668;0.030967353;-0.051231787;-0.16513418;-0.017635863;-0.08451919;-0.42219275;0.001090486;-0.00096192246;-0.013085327;0.053400725;0.015556708;-0.4052947;-0.21170457;-0.012204868;0.006405452;-0.15431057;-0.2657638;-0.04202682;0.2660456;0.09438477;0.28503653;-0.038805183;-0.0058603524;0.0014521058;-0.08106807;0.18267386;-0.007571223;0.10107487;0.0038928285;0.002364859;0.2530953;0.029040193;-0.00082352845;0.16889344;0.23820445;-0.024607847;-0.003859525;-0.211965;-0.0043555447;-0.14808801;-0.013264004;0.074709676;0.0073805805;-0.01237713;-0.0041067447;0.16708255;0.20873357;0.14170393;-0.013318001;-0.2976792;-0.2976073;0.0029052282;-0.10104005;-0.015519689;0.000988394;0.12737149;0.41365722;-0.08198728;-0.0035816468;-0.22074352;-0.023222072;-0.0030279718;0.0003626066;-0.086706586;-0.06466898;0.21002483;0.009320494;-0.23432285;0.09810537;-0.0042234785;0.0012917019;0.01402409;-0.010033373;0.023442054;-0.0363915;0.2218534;-0.16242549;0.019041877;0.023870673;-0.0944019;-0.039598078;-0.28093168;0.007783856;-0.23452863;-0.10528114;-0.0040770993;0.019153317;-0.12693185;-0.0017507466;-0.06010321;0.04094565;-0.004772529;0.19958523;-0.032017343;-0.054948915;0.055141088;-0.13173406;0.058844794;0.05393313;0.24433431;-0.015985882;-0.17177893;-0.005925606;0.0018902277;-0.08422269;-0.0036168122;0.0030475443;-0.0013043991;-0.14072147;0.010039574;0.0109583875;0.33555922;-0.02706011;0.14388624;0.0030338566;0.13657907;0.018308163;0.07929998;-0.073193625;-0.17422551;0.00967587;-0.0014007101;-0.30613032;0.09596251;-0.07587176;0.1681456;-0.007736972;-0.13817608;0.08400116;-0.0057624453;-0.0042547313;-0.10234564;-0.004956688;0.14481433;0.023471517;-0.1031053;-2.7186914e-05;0.0051294817;-0.0095205745;-0.22130287;-0.260657;0.02928671;-0.11140468;0.032459594;-0.0059202495;0.010299139;0.00019811986;0.15832373;0.028866433;-0.008047578;0.0204542;-0.015943483;-0.13150921;-0.006411539;0.016480943;0.06727369;-0.14657076;-0.3575468;-0.04074707;0.005492758;0.09566125;-0.0044371104;-0.009704316;-0.1934971;-0.037778687;0.14100365;0.16339986;-0.22078899;-0.06981499;-0.009631282;-0.06508687;-0.0024657624;-0.29441884;-0.014600468;0.1781401;-0.0061667445;-0.026709221;-0.124487706;0.0027393075;0.124067456;-0.12755835;0.008342783;-0.13032764;-0.118704766;0.051910326;0.002590419;-0.17143145;0.0026523492;-0.08905832;0.00067104335;-0.03968014;0.05578541;0.022880007;-0.20381346;-0.007522743;0.019841058;-0.17943333;-0.007990532;0.3001178;0.20476383;0.44326884;0.15980175;-0.29317898;-0.061815962;-0.19632807;0.0039669103;-0.4573254;-0.013011927;0.011398211;-0.058139745;-0.001472881;0.26042128;-0.10562964;0.018652406;0.10441372;0.10957826;0.15454789;0.17477337;0.0446312;0.0065590977;0.009951534;-0.23766188;-0.10518334;0.0032061448;0.004743891;0.26132753;0.16982642;-0.05369567;0.006103019;0.016926862;-0.36726427;0.061738256;0.014760774;0.07798422;0.04460014;-0.20202802;-0.17270285;-0.03348489;-0.040420134;8.842107e-05;0.057981633;-0.013114512;0.0060723196;-0.007883054;0.035198953;0.2599808;0.14732598;0.11106221;-0.12698027;-0.2295449;-0.07735669;0.21524815;-0.118575044;-0.12481656;-0.0050169867;-0.42080894;0.06078147;0.02180429;0.0067868996;0.08536011;0.19277507;-0.6573702;-0.44162682;0.11822101;-0.16281301;-0.18415149;0.055957228;-0.014349805;-0.05488758;-0.067250006;-0.26112506;0.21313177;-0.005408037;-0.13612252;0.035468183;-0.13842145;0.088908866;0.2387587;-0.00041560957;0.017362276;-0.07737221;0.008176684;-0.06169442;-0.004213761;-0.003808603;-0.051153436;0.0134442495;-0.03580318;0.016100118;0.04339933;-0.021301845;-0.09226073;0.002948774;0.019307574;0.17487696;0.24805915;-0.027698962;0.106380895;-0.45020056;0.010851851;-0.115737766;-0.118970305;0.11197216;0.3116868;-0.043434802;0.010792256;0.06051671;-0.24288301;-0.012595712;-0.0150535805;-0.018538399;-0.5495927;-0.0034538098;0.022912856;0.035230245;-0.23148327;-0.27533433;0.011134225;0.17944936;0.005661535;0.32762057;-0.00079169986;0.1637451;0.016567353;-0.33242598;-0.007651365;0.11053339;0.08962029;-0.009377523;0.002393971;-0.0043312944;0.22772196;-0.00032332688;0.23718417;0.06429565;-0.30637115;-0.00855415;-0.20729056;0.05745151;0.07670656;-0.08072287;0.0043936884;0.023595866;0.1859939;0.0003420001;0.14061737;0.10250088;-0.025011921;0.11266174;0.112157024;-0.022000669;-0.04466959;-0.09341858;0.02218137;-0.25832155;-0.0041520693;-0.028557349;-0.26205462;-0.13273434;0.08618295;0.0016546558;-0.057815984;0.0011821131;-0.0071879146;-0.012073204;-0.13698038;-0.0011581844;0.15625848;0.0045615444;-0.045391925;-0.057567958;-0.053118173;-0.031615004;-0.11386135;0.0024855873;-0.39345863;0.018726328;0.07105744;0.013008973;0.08973584;0.010865333;0.10747186;-0.0025892074;0.0055372887;-0.17449132;-0.037752558;-0.15817234;0.0151372;0.22025427;0.13991009;0.056146733;0.02125593;0.091085486;0.2645928;-0.008978375;0.04992753;-0.010865174;-0.03998078;0.0041314983;-0.38994798;0.0037688434;0.056996934;-0.0020263605;-0.12470731;0.06424401;0.1489913;-0.009748536;0.011584486;-0.057742648;-0.020931391;-0.08262318;0.067962386;-0.008123981;0.09212048;-0.0020276508;0.00015782505;-0.00055052456;0.06877429;0.17866594;0.06466412;0.021377888;0.0035144547;0.20910269;-0.039692447;-0.35347247;-0.009650205;-0.03260317;-0.06484488;-0.16046347;-0.25900215;0.3409383;-0.19508728;-0.003147045;-0.1223196;-0.06737088;0.004594464;0.36098891;0.009370259;-0.025892174;-0.20679948;-0.028624728;0.26703608;-0.40240163;0.005811097;-0.18033668;-0.18410175;-0.003979131;0.04475483;-0.19320087;-0.02098912;-0.03462639;-0.21474941;-0.032411784;0.12964123;0.0022338298;0.12554291;0.03736658;-0.0023956331;0.006287514;0.01568551;-0.23200655;-0.019052705;0.4580281;-0.07295784;-0.1149187;-0.05236678;0.015741479;-0.002155594;-0.28221205;0.12362008;-0.1522771;0.026943652;-0.008820401;0.1352184;0.017160611;-0.017854024;0.25625205;-0.27718726;-0.051636375;-0.006717637;-0.010854717;-0.1136099;-0.008390959;0.30749133;0.29496166;-0.0004117425;-0.0051931776;0.022779755;0.22112218;0.0024692146;-0.019098826;-0.008318068;0.2884316;-0.18002278;-0.0033269017;-0.36917114;0.004569194;-0.123074844;-0.00081582484;0.13997154;0.019414688;0.029419163;-0.13878903;-0.21510555;0.004267074;-0.023287596;-0.18168515;-0.2378986;-0.1365567;0.18656036;0.3872764;-0.0015621799;-0.036486216;-0.00834812;-0.021240888;0.040236235;0.41444692;-0.00517494;-0.122227736;0.0040910095;-0.0126791;0.110317975;-0.12513801;-0.020853033;-0.15933278;0.0064328946;-0.0040862337;0.3438427;0.045017526;-0.001871836;-0.4242563;-0.08089132;0.029089812;-0.36463842;-0.0004939055;-0.18298374;0.07825132;-0.03310317;0.039107412;0.06791845;-0.2944863;0.0055276244;0.4142859;0.06501512;-0.27561;0.047768697;-0.050958846;-0.46288338;0.01604026;-0.0010507077;0.14108582;0.005695167;0.28520226;-0.10534719;-0.18399203;-0.012649913;0.014888612;-0.30998716
-0.3742117;0.057551607;-0.07768912;-0.25774837;-0.030532058;0.14175646;0.19781315;-0.043909185;0.0034851762;0.31446183;0.020674832;0.25592366;0.14979829;-0.12570058;0.138397;0.04652732;-0.11901815;0.026852457;0.01168479;-0.34881166;-0.21361604;0.0055049937;-0.0048487745;-0.3215069;0.100400046;-0.0006717908;0.0073317504;0.010478534;0.06815903;-0.5316823;-0.15555009;0.009259189;0.2559045;0.05287382;-0.07081575;0.17447563;0.37750635;-0.13302039;0.36965877;0.024306925;0.0038480817;-0.013963483;-0.3672371;0.08803595;-0.006609931;0.14263059;0.0010712037;-0.25283298;0.19698113;-0.022360528;-0.0054251514;0.2509952;0.38460806;0.02568501;-0.010791354;0.007416273;0.012842901;-0.079251096;-0.032217797;0.0903355;-0.004471716;-0.19634978;0.014170515;0.030365339;0.10889111;-0.0789133;-0.029052144;-0.053051777;-0.13604961;-0.008524133;-0.37418413;0.012140876;-0.01645865;0.08546337;0.26687405;0.163273;-0.013580088;-0.053440504;-0.07983538;-0.00432941;0.0034668734;0.037194833;0.05808098;0.017793728;-0.0033003346;0.007000888;-0.11015367;0.003896072;0.016210929;-0.006723573;-0.018296335;-0.283112;0.13410985;0.10352172;-0.1398521;0.19068229;-0.22469935;0.03543227;-0.09700397;-0.025735626;-0.006681959;0.03577907;0.18007137;-0.016769245;0.053523026;-0.17836797;-0.0038803031;0.15298264;-0.04283918;0.0027686178;-0.030723339;0.20585458;-0.074660584;-0.039878264;-0.22073513;0.050723266;0.29496768;-0.011348639;0.017005116;-0.2373403;0.038483366;-0.0017395465;0.108958006;0.011408808;0.0032749488;-0.008728489;-0.28569978;-0.19489147;-0.0010467675;0.2880162;0.06294192;0.24082455;0.13636003;0.1307046;-0.024738278;0.20043115;-0.037954547;-0.0706714;-0.008739978;0.0018016103;0.027034197;-0.21562724;-0.21530882;0.1428257;0.009884248;-0.1274272;0.09210016;0.008298107;-0.024740169;-0.20641457;0.0044855615;0.2390397;-0.044883784;-0.04008901;-0.010477273;0.0017033091;0.001989414;-0.0027664977;-0.006926333;0.024812821;0.013720082;-0.00800634;0.10806757;-0.0064791515;0.006361348;0.27827865;0.05146245;-0.01630393;-0.17312817;-0.15691546;0.03795905;-0.0035437015;-0.018383136;0.095923536;0.09312506;0.0065421956;0.020161444;-0.010988689;0.10409976;-0.0004936672;0.009282511;-0.22248976;0.07641636;-0.10628603;0.23224364;-0.21985064;-0.13107857;-0.038552295;-0.33028072;0.010031238;-0.17311071;0.026504476;0.028687749;0.015645513;0.013522888;-0.15994048;-0.16951507;0.036896046;0.09031921;-0.0146020595;-0.14368463;-0.18998064;-0.20154728;0.016717415;-0.23758645;0.0015675761;-0.059518866;-0.011395421;0.088987164;0.007665536;0.015303526;-0.11988264;0.005493118;-0.015286277;-0.04295693;-0.009368009;0.2851968;0.10924183;0.20220745;0.08458465;-0.036330644;-0.05724609;-0.042411663;-0.0122321425;-0.19199853;0.017306006;-0.014138916;0.11279504;-0.010296122;0.06081737;0.024436828;-0.0076167597;-0.11669399;-0.1771923;0.069865175;-0.036320765;0.2330594;0.0050190906;0.08718756;-0.08702264;-0.1505508;-0.0015489876;-0.0013125627;0.26594135;0.19993351;0.0010527939;-0.010137929;0.07403669;-0.050009366;0.01659346;-0.0055630086;0.038496777;-0.14426112;-0.17088345;-0.38231254;0.0071071046;-0.079527415;0.0127316965;-0.08685207;-0.24208103;0.0043716556;-0.0029856318;-0.13613231;0.19251776;0.030708203;0.097251154;0.074000716;-0.17463274;0.0585318;0.020483611;0.025786765;0.14164767;0.0025005701;-0.5129977;-0.022646688;-0.022600276;-0.007296618;0.0985323;0.23770045;-0.37618235;-0.30135462;0.030707555;-0.0017616034;-0.33866343;0.17345913;0.04538228;-0.18121059;0.065982915;-0.35712013;0.28133062;0.008172046;-0.20218928;0.17765431;-0.21848221;0.16472748;0.3151808;-0.010111485;-0.037257664;-0.10882005;-0.02214129;0.022457074;0.013424159;-0.017423123;-0.018500205;0.003584587;-0.072409764;-0.007776479;0.09639349;0.013691881;-0.065199375;-0.0073392014;0.16807535;0.038852382;0.20162244;-0.14517003;0.33073154;-0.25939822;-0.003875459;0.06346084;0.0041824235;-0.14466919;0.15885174;-0.053806335;-0.001275233;0.004166179;-0.24724965;0.005162103;-0.00683595;-0.0031511798;-0.52334034;-0.0011495196;0.11820256;0.003945212;-0.27589378;0.063857265;-0.014645243;-0.06738634;-0.005125139;0.29300454;0.013724619;0.054961044;-0.004577283;-0.3586759;-0.24672332;-0.11957394;0.022806013;0.0018388149;0.0009579965;0.00017590374;-0.0235109;-0.0012295655;0.22569521;0.08316793;-0.57205296;0.006543399;-0.3801144;0.13887091;0.1519688;-0.03181283;0.11830412;-0.007431634;-0.060238935;0.0018045645;-0.11761924;0.17345893;-0.08092081;0.25922257;0.44522926;0.02610832;0.05940364;-0.08494862;0.10290608;-0.4653799;-0.0037214328;-0.060424812;-0.2942944;-0.0047754277;0.02996182;-0.0051085344;0.06694062;0.00041108488;0.0164935;-0.008535354;-0.18379125;0.0040431865;0.07550107;0.012263291;-0.15304276;0.020037992;0.23696668;-0.24488845;-0.3991912;-0.1200078;-0.54764694;0.005254901;-0.018168133;-0.016373929;0.101743385;0.006050385;-0.101766475;-0.020850658;0.28159338;0.12233173;-0.09521851;-0.03431111;0.039868146;0.29277748;-0.026115032;-0.3393852;0.19235903;0.031645957;0.23844439;0.0073911264;0.098785885;0.0056932336;-0.02301188;-0.0151080545;-0.30391803;0.0027634443;0.050933905;0.0021759393;0.012785104;0.12611373;-0.22364023;0.006636249;0.11443361;0.013727865;0.022898236;-0.105558515;0.1307945;0.0053447224;0.10788261;0.0066064023;0.014534884;-0.002047493;0.21373801;0.20555544;0.085966215;-0.12675779;-0.0077693206;-0.021814827;0.20170425;-0.50254744;-0.0027365023;0.060822085;0.0967566;-0.0072460664;-0.2265884;0.23925212;-0.049403477;-0.05680932;0.04435533;-0.25459823;-0.010710602;0.046643887;0.00763471;-0.011293423;-0.23504698;0.0402914;-0.12834677;-0.3513715;-0.022226054;-0.211688;-0.18001287;0.087243125;0.12496801;-0.36561862;-0.07702641;0.13008235;0.06460327;0.021237312;0.35113093;-0.004310062;0.0801425;-0.11411133;-0.0038076532;-0.011710886;-0.0147219105;-0.1397873;0.012118436;-0.023560327;0.053825527;0.19822633;-0.1773963;-0.01759416;-0.010851774;0.10730049;0.19436619;-0.1530106;0.12739666;-0.013988116;0.2755493;0.03282075;-0.010109999;0.15102649;-0.4367438;-0.1318773;0.0035506277;0.021737233;-0.14884835;0.0028075546;0.11193976;0.11984432;-0.0018711988;-0.06905654;-0.016450413;0.07107339;-0.0039174277;0.00451471;0.0030670578;0.23908561;-0.22574598;0.0069908123;-0.42995843;0.0018400386;-0.02864241;0.002476134;-0.030287793;0.0026542402;-0.07340974;-0.04258182;-0.203981;0.0086832;0.27578112;-0.052676104;-0.21931104;-0.053652048;0.12146563;0.23312454;0.005180218;-0.118936524;-0.006610822;0.021145673;-0.06770103;0.18827689;0.0116035715;0.0873018;-0.0041278256;0.009637659;-0.19383155;-0.047610275;0.0051536146;-0.062467773;-0.02064763;0.010826424;0.22025263;-0.07464595;0.002842061;-0.62418693;-0.064700074;0.013597152;0.05496526;0.0032216841;-0.12555285;0.091499224;0.0429961;-0.018256364;-0.05188049;-0.17862122;-0.005348524;-0.01092425;0.1675062;-0.4121937;0.1453148;-0.21113613;-0.097676456;-0.012772342;0.049165577;0.08604886;0.00032770282;0.2948921;0.22781278;-0.101531915;0.013215652;-0.01269065;-0.48347425
-0.23654045;0.20185618;-0.06436875;-0.003592669;0.020268578;0.047689326;0.14692155;-0.13793586;0.013499448;0.10185143;-0.022453723;0.3787356;0.2975308;-0.0032618882;0.08643073;0.049248327;0.088956036;-0.21571143;0.1602444;-0.31905618;-0.013562237;0.004442927;-0.024662465;-0.3111638;0.046390872;-0.00035746826;-0.0053328425;0.048358817;-0.04697942;-0.5503938;-0.076404996;0.0059083067;0.083306275;-0.23182696;0.17812583;0.061280545;0.36344296;-0.01000252;-0.029822899;0.054072507;-0.0036653187;0.0066453023;-0.18968986;0.11339984;-0.012670733;-0.15227932;-0.0038140465;-0.21630393;0.17151962;0.011623235;0.0120451795;0.08240256;0.26735878;-0.020975526;2.0839218e-05;0.18481882;0.005524851;-0.29769227;0.04356784;0.08280885;0.017064795;-0.1772743;-0.01753807;-0.19530275;0.08080069;0.029975941;-0.02360697;-0.06829969;-0.11261384;0.0021625452;-0.22082898;0.005761898;0.011608472;-0.02861494;0.02553178;-0.2606011;0.010812599;-0.058366857;-0.19276097;-0.0019142099;-0.011231753;0.15441647;0.03243834;0.115950085;-0.0017521357;-0.1186748;0.01123184;0.0046765977;-0.012164508;-0.0025131966;0.007854872;-0.09160068;0.020761235;0.0181978;-0.03297495;-0.022018721;-0.17127155;0.00028591423;0.0926968;0.11943264;0.013622589;-0.007581411;0.18585102;0.0040127346;0.28618273;-0.19193202;-8.577554e-05;0.03922509;0.018506635;-0.0055881944;-0.056638315;0.083940335;-0.16756508;-0.093903825;-0.64030457;0.20593372;-0.09307841;0.11250882;-0.03539788;-0.11286484;0.11093122;-0.0013255872;-0.06412348;-0.004803877;-0.0003187844;0.008232521;-0.04150213;-0.017703082;0.014761078;0.0552514;0.14296828;0.28586432;-0.17468691;0.18023896;0.01898778;0.18018179;-0.122402005;-0.1295541;0.019371802;-0.015562595;-0.19567108;-0.007741911;-0.2733831;0.2756503;0.001659755;-0.15103479;0.041134436;0.0017243857;0.007313458;-0.06940665;-0.005077266;0.08868808;0.012180925;0.026308702;0.009858619;-0.01026806;0.004108461;-0.060489234;-0.005609097;-0.009199805;-0.07441726;0.0033305492;0.086509444;-0.0023083447;-0.0207584;0.27876306;-0.13913329;0.006412741;-0.07130461;-0.11735048;-0.13674666;0.014899662;-0.008760626;-0.019772224;0.09448923;-0.24211489;0.017369058;0.001797354;0.13220099;0.0036027122;-0.008117687;-0.29400432;0.03693986;0.031343;0.036811236;-0.4047439;0.11482509;-0.04060632;-0.15584163;0.00646278;-0.13312754;-0.014971682;0.09232458;-0.021019306;-0.0029060484;-0.24985078;0.15917139;0.3606792;-0.07795321;0.0059022033;-0.14113173;-0.052975696;-0.2554143;-0.018637586;-0.33671987;0.0034962876;-0.10439794;-0.02113705;0.102827914;0.20758604;-0.045675978;0.0788381;0.0018010045;0.010540351;-0.076060236;0.0013126648;0.18858485;0.07822811;-0.04624162;-0.17554854;-0.1286327;0.1048034;-0.23898683;0.020471102;-0.15580145;-0.011277427;-0.006752458;0.16491629;0.004241986;-0.078671694;0.025636258;0.007228694;-0.15643306;0.0018533084;0.040120378;-0.09767416;0.20760456;-0.0018353758;-0.008177276;0.09882482;-0.042750522;0.001972885;-0.0017277439;0.11142781;-0.049387455;0.03590457;0.015595212;-0.0138548855;-0.29036674;0.085407645;-0.00936094;0.04726674;-0.40656534;-0.03186184;-0.21273215;0.021129783;0.045442943;-0.012327237;-0.04622865;-0.35350272;-0.0031644525;0.0012217659;0.13465197;0.03097838;0.15602022;0.11297784;0.18769798;-0.17917925;0.116734356;-0.0023936923;0.35309145;0.15432541;0.012900246;-0.47017768;0.15951133;0.010587916;-0.0063913697;0.04276495;0.096031815;-0.35973644;-0.41413048;-0.16088381;-0.54888743;-0.05728287;0.12196849;0.15300477;-0.367295;0.06298604;-0.49011582;0.112545155;0.005838128;-0.122148015;0.083022326;-0.019181626;0.108561106;0.25022963;0.029863156;0.026476212;0.051475365;0.016079267;0.25717586;-0.0045340476;-0.0042547653;0.14880107;-0.010052719;0.009924906;0.0007799962;-0.015409477;-0.007863999;-0.21187964;0.014322464;0.15782627;0.02033921;-0.051510863;0.12848233;0.32257584;-0.21477658;-0.005000738;0.13550016;0.10766804;-0.2611861;-0.16337894;-0.2584636;-0.0074461647;0.015380819;-0.2501596;-0.014019857;0.0020137832;-0.002203508;-0.33478904;0.0038386434;0.046493046;-0.013374257;-0.25478995;0.02155195;-0.0025014447;-0.05858953;0.009457718;0.09016175;-0.022397896;0.12253616;-0.004823023;-0.40614974;-0.20677827;0.029494476;-0.03021753;0.009907938;0.009681084;0.008096463;-0.16948901;-0.008446636;0.09243115;0.15322845;-0.23068553;0.004232606;-0.5038482;-0.10261088;0.1648356;0.03402147;0.022118108;-0.003066071;0.14318356;-0.015320817;-0.25959754;0.1589907;-0.026846338;-0.0062543256;0.20338073;0.10081637;-0.029390493;-0.15613641;-0.029757598;-0.31817117;0.0051893317;0.14438841;-0.1341332;0.06738216;0.09289644;0.004731273;0.16353136;0.0025755502;-0.014122676;0.021832354;-0.14211772;-0.004043852;-0.23695841;-0.012511413;0.08593932;0.017383605;0.05013966;-0.07130481;-0.37789366;-0.039074816;-0.46370226;-0.0068837116;0.02643802;0.010937383;0.12394149;-0.00090198306;-0.09294578;0.01043397;0.18947831;0.11305849;-0.071756914;-0.030790899;0.12252043;0.21639822;0.06289551;-0.08362128;0.08096424;0.31379977;0.1465489;0.004025581;0.23535009;0.0046294057;0.039971955;0.00038694247;-0.2232238;-0.0035297067;-0.22364973;0.01048323;0.023079338;0.08507725;-0.1277977;0.0048422655;0.07927921;-0.027954469;0.0070639714;0.033000052;-0.1486411;0.013822127;0.21170521;-0.010507298;-0.04401373;0.012160676;0.28682458;0.014733325;0.19237106;0.041340727;-0.0017695532;-0.08226046;0.33122984;-0.48422968;0.004159292;0.2980906;0.06804586;0.19013838;-0.16710362;-0.14637694;-0.004367066;-0.21570991;-0.07458258;-0.48090452;0.013103137;-0.21442182;-0.0105999205;-0.12368284;-0.4956047;-0.2175836;0.20683081;-0.36601186;0.029721467;-0.24397221;-0.07436674;0.060350083;0.13158564;-0.2879488;-0.263409;-0.0012374709;0.10876046;-0.04902857;0.32564765;-0.0066639916;0.12994124;0.22653341;0.0051703956;0.016603146;-0.007713118;-0.18094221;0.0036625632;-0.0121381795;0.42024443;0.20820679;-0.14992222;0.005428043;0.014897673;0.061943475;0.43868634;-0.27295265;0.0439836;0.016728327;0.16787559;-0.20902821;0.036684103;-0.25572175;-0.15590024;-0.18067041;0.009524476;0.030353487;0.021765556;-0.01388701;0.12151823;0.050453838;0.004242151;-0.003832927;0.0044315853;-0.12047645;-0.0012794802;0.00015721345;0.009348869;0.023363153;-0.0075072586;-0.003815424;-0.16087486;-0.0054081953;0.009394933;0.001688418;-0.10411408;0.039060034;-0.05925362;-0.10997903;-0.03708164;-0.02028978;0.3283239;-0.01321691;-0.2568382;0.026054852;0.20493567;0.091772646;-0.002744256;-0.09817191;0.002307881;0.0030035193;-0.011315582;0.016998528;-0.007816775;0.10326336;0.00951576;0.010887486;0.06972758;0.0008713637;0.010874766;0.10588869;0.00046364788;-0.0075534424;0.1442819;-0.062591046;0.021413919;-0.37414658;0.042521562;0.01995218;0.15028067;0.0008217165;-0.046640705;0.051083814;0.14103413;-0.30135134;0.01969984;0.26044586;-0.019267974;0.07236266;0.13331121;-0.40219796;0.25489935;-0.1994678;-0.35224113;0.024125308;0.05089561;-0.22291788;-0.010231652;0.35361135;0.22299947;-0.051670935;-0.021926949;0.015630694;-0.1486092
0.004396065;0.23865256;0.039998416;0.19406052;-0.0026729642;0.08428863;0.20046403;-0.24420352;0.0007316927;0.011967207;0.017563034;0.15753475;0.07146065;0.10705936;-0.15708077;0.06920841;0.13989085;0.06034803;0.2482443;-0.40538117;-0.12774827;0.01475709;0.12248377;-0.41991946;0.03517397;0.007956908;-0.005232379;0.046862382;-0.015178429;-0.6125752;0.07139965;-0.002604039;0.09516917;-0.23953407;-0.13467686;-0.03406567;0.48786867;-0.22014004;0.18316455;-0.07076922;-0.0010717933;0.016240615;-0.12018229;0.23120333;0.015050452;0.30750743;0.0077265077;-0.073477335;0.3187173;-0.015912527;-0.010995611;-0.10027042;0.19097221;0.015866857;-0.01148372;-0.051653374;-0.023515737;-0.31758177;0.08722839;0.07854774;-0.010578426;-0.16513453;0.017470572;-0.17638177;0.03366305;0.007222891;-0.039641064;-0.19419552;0.030196782;-0.003585506;-0.21104103;0.004168508;-0.0077842954;-0.20849472;0.032836765;-0.27653527;1.1757991e-05;-0.13681701;-0.24976559;0.00096661283;0.010497889;0.048486143;0.18547916;0.3348013;-0.007169853;0.07559894;0.23656085;-0.018706994;0.006924961;-0.0039270734;0.007321505;0.022032663;0.013130911;0.04878627;0.046297815;-0.01803624;-0.32413042;-0.061317753;-0.03208186;0.25675893;-0.0051137577;0.1973483;0.21719028;-0.00043962972;-0.1617949;-0.13597576;-0.0027646567;0.05466379;0.00611397;0.0059137326;0.017253049;0.023834927;-0.2734275;0.07259331;-0.26278508;-0.043436207;-0.12666611;0.2083387;0.007569439;-0.11001482;-0.055837967;0.0055370927;-0.063630775;-0.008230791;0.005384454;-0.022112459;0.03718279;-0.16785549;-0.0059706396;0.045566313;0.33772546;0.26266575;-0.14790703;0.2356136;0.002605514;0.11609149;-0.2812214;-0.16580181;-0.015514589;-0.00032678136;-0.09579763;0.15886575;-0.37404615;0.20411915;-0.021005943;-0.2594544;0.025954906;-0.010889249;-0.16613309;-0.0021212192;0.008194155;-0.04534815;-0.02397831;-0.10582804;-0.010545622;0.004967061;-0.0008599412;-0.2532507;0.032344516;0.15748017;-0.15154998;0.002874658;-0.13803801;0.00078546634;0.012817544;0.12951796;-0.11767647;0.004345325;0.17758022;-0.09784299;-0.21567321;-0.0014072361;0.005310663;0.013099381;-0.21517923;-0.27718696;-0.0029181722;0.01415549;0.20368683;-0.0070718536;0.020796085;-0.2649909;0.20130928;-0.0732188;-0.11142605;-0.32686734;-0.0012073237;-0.22994524;0.11815933;-0.0042590066;-0.1546191;-0.00031008854;0.20010297;0.0072868913;-0.0028124081;-0.13297135;0.0811371;0.08898461;0.15754195;-0.010146889;0.022972383;0.017054565;-0.23127307;0.011258717;-0.24700665;-0.0010091605;-0.013551196;0.0292439;-0.2214897;0.08358074;0.005123834;0.06196775;0.0048920577;-0.010531297;0.18543386;0.00589136;0.21864454;-0.020999419;-0.001744732;-0.08979463;-0.24956025;-0.08895986;-0.36362705;-0.013360705;-0.41163653;-0.0041603744;-0.001590178;0.28442082;-0.014905442;0.10584435;-0.061848678;-0.015635466;0.12367704;-0.22340828;0.06844997;-0.034476697;-0.08957416;-0.013453059;0.19198568;0.023738116;-0.10927683;-0.008683708;0.0047617196;0.093500376;0.10379888;-0.009124373;-0.009791917;-0.04506766;-0.50526583;0.15221488;-0.00052006025;0.051964168;-0.24635394;-0.051049266;-0.28481287;-0.0024860355;0.09453232;0.0023527495;-0.2794131;-0.0058386214;0.0129807005;0.004719557;-0.14004251;-0.020303061;0.22002172;0.025965767;0.11088237;-0.017380456;-0.081119925;-0.0043943697;0.50175536;0.11468925;0.0025157563;-0.3188606;0.20698766;0.0022244435;0.012425732;-0.036748488;0.057619445;-0.19827852;-0.059314862;-0.2324328;-0.5952494;0.10092628;0.23500279;-0.0058299387;-0.07691584;-0.057816703;-0.51133424;0.1530752;-0.005965026;-0.13784522;0.09005224;-0.06255732;0.19123964;0.21925183;0.091822796;-0.03564425;-0.042351075;0.014166083;-0.094181746;0.01462193;0.006517993;0.01509968;0.0017659869;-0.03294585;0.013036005;-0.023466136;0.0037170039;-0.055998273;-0.0016628616;0.11214028;-0.14575735;-0.12642325;-0.06665238;0.2031568;-0.102852635;0.009091387;0.070699796;0.013827861;-0.07182404;-0.28439125;-0.2547605;0.01717358;-0.0672657;0.06501716;0.00910756;-0.0022898647;0.01329715;-0.38834608;-0.0005257678;-0.01369867;0.01910467;-0.123636454;-0.08444204;-0.007766714;0.026053535;-0.008125522;0.010665223;0.015961923;0.22237246;0.0039443285;-0.36132544;-0.21684968;0.31904167;-0.007256529;-0.01115615;-0.0033407728;-0.024531947;-0.09139555;0.004765301;-0.00870314;0.375516;-0.48396212;-0.00541524;-0.005680936;0.017645018;0.38126;0.0454297;-0.04991575;0.02827405;-0.15202172;0.011182794;-0.11112241;-0.05172754;-0.1830408;0.062588826;0.16737047;-0.054329947;0.18729575;0.18206519;0.094621114;-0.12939504;0.0008575699;0.172967;-0.14800847;-0.08232601;0.043066323;-0.017291384;0.11594428;-0.0075943433;0.006306286;-0.005428788;0.07666942;0.010779355;-0.07468308;0.015888834;0.034851436;0.020011373;0.13123557;-0.03457218;-0.04571947;0.021085614;-0.30694535;0.004387355;0.09581987;-0.008900851;0.08243151;-0.008270048;-0.10909893;0.022201046;-0.29660398;0.021612342;-0.10992774;0.0307502;0.27328506;0.35154644;0.07211602;-0.0050450335;-0.12893037;0.5278092;-0.00095146196;-0.010003196;0.27517715;-0.01443732;-0.05397962;0.0037337309;-0.1786434;-0.002818826;-0.3901097;-0.025919814;0.23437968;0.13001706;-0.24965157;0.002960861;0.11642355;-0.014322496;-0.03236383;0.1452338;-0.29624787;-0.025797876;0.06837966;0.012837921;-0.012174849;-0.019611372;0.33536434;0.078108676;0.0048275404;0.09464005;0.008669953;0.120126314;0.31402564;-0.2696296;0.010185755;0.40682715;0.10291879;0.2993889;-0.11504176;-0.04717141;-0.03426373;0.18547307;0.035770696;-0.21953346;-0.025701066;-0.15036075;0.012814553;0.04218187;-0.49511993;-0.24412006;0.33721203;0.012262273;-0.03477522;-0.2282154;-0.020409297;0.15204394;0.09347134;-0.16041462;-0.40906537;-0.029647134;0.06353484;0.009983817;0.06591057;0.004916566;0.12078953;-0.047903784;-0.0037585006;-0.0015361763;-0.0025912225;-0.03708578;-0.013728717;-0.06971359;0.47319463;0.24694234;0.17187093;0.017907692;-0.009031006;-0.071630776;0.5311697;-0.2292806;0.35804683;-2.6137175e-05;0.1677898;-0.1426408;-0.011418313;-0.39714825;-0.3027555;-0.045130834;-0.012463142;0.038011283;-0.29825822;0.009271758;0.39435026;-0.08548371;-0.0050368616;-0.04777786;-0.014078259;0.08208142;0.009039163;0.012349292;-0.00699536;-0.1346175;-0.23183067;0.010049718;-0.16086744;0.002124565;-0.022742245;0.008765128;-0.16145392;0.33867654;0.13972802;0.059388366;0.09596836;0.007112932;0.33964682;0.043134827;-0.40195814;0.0923667;0.32462132;-0.008888997;0.0123034865;0.13392796;-0.010298303;-0.009598827;0.18688273;-0.28515643;-0.00028397134;0.12516646;0.0015375608;-0.014567253;0.10966297;-0.04476136;-0.01909637;0.1449614;0.006646327;-0.013242137;0.23065971;0.044480853;0.00024635205;-0.14201367;0.49256006;-0.04109143;0.17606902;0.003191805;-0.04299871;0.10031636;0.34724638;-0.6684862;-0.16490972;0.0717284;0.018784523;0.08208999;0.3099641;-0.29980233;0.18183447;-0.47157905;-0.36304337;-0.028063491;0.022769006;0.24043952;0.010318571;0.47788653;0.061064307;0.10086271;0.009858552;0.0016657022;-0.028372891
0.22657816;0.33161482;0.27386558;-0.02581497;-0.0023870962;-0.10085153;0.37636;-0.048657067;-0.0018914407;-0.07827962;-0.0019863974;0.36644453;0.095606215;0.066669635;-0.36235586;-0.14695065;0.29490533;-0.042051848;-0.12560412;-0.35198078;0.22567037;-0.0037594032;0.17126732;-0.22326133;0.059929408;-0.0012751122;0.0054468713;0.01883397;-0.051549874;-0.439895;0.29031083;-0.007180574;0.2195747;-0.5576086;-0.00643131;-0.27702597;0.19460067;-0.16260748;0.11322879;0.063403785;0.0048829606;-0.0013283839;-0.08545384;0.17370163;-0.007999215;0.447344;-0.0069493717;0.043065563;0.13356361;0.00391691;-0.009867162;0.116503075;0.09220576;-0.0073218914;0.028267486;-0.114366755;0.007555506;-0.30054793;-0.09573755;0.013239255;-0.002148538;-0.024999453;-0.0050476417;0.30402815;0.36233553;0.16747005;0.01316864;0.0034431308;-0.05170844;0.016073408;0.00029620895;-0.03036776;0.010178987;0.006056225;0.08239954;-0.1739915;0.002662654;-0.11668563;-0.33673257;0.008724651;-0.010281488;-0.14508066;0.024197714;0.20770648;0.0030047086;-0.017540554;0.09705976;0.0019897008;-0.010191472;0.0105383275;-0.022828236;0.0879811;-0.106456846;0.020320836;-0.004063931;0.13284925;-0.19962956;-0.17196229;0.05704604;-0.001256372;0.00063872756;0.20053934;0.1895889;0.015159642;-0.20462252;-0.31606;-0.0064603584;0.31259683;0.003711099;-0.0051229736;0.08420476;-0.225998;0.124366246;0.071832955;-0.09293668;0.05522148;-0.20806362;0.17966998;-0.0019495343;-0.20122865;-0.07229169;0.0030359235;0.0702563;0.0038331582;-0.008102229;0.008097595;0.033798404;-0.11768559;0.0074151936;-0.0071453927;0.21764785;-0.00465691;0.11380333;0.3834356;0.0035219197;0.11702274;-0.020359647;0.064120434;0.002834705;0.013104344;-0.08152631;0.009861174;-0.2435405;-0.069195;0.011333694;-0.104414746;-0.25859222;0.0014162784;-0.17313963;0.005650288;-0.008490382;-0.10022703;-0.018912857;-0.11471446;0.023330437;-0.010867805;-0.010813499;-0.20863952;0.124087125;0.24797018;-0.13616078;-0.007257402;-0.121323965;0.005661682;-0.004315797;0.05437655;-0.04337056;0.0033203901;0.33484703;0.11673175;-0.074437805;0.026849454;0.0026007565;0.0042582126;-0.016180288;-0.24396674;0.0124747;-0.008102258;0.20173422;0.0023290268;-0.020483315;-0.47276026;-0.089324586;0.18991996;0.07758281;-0.17618541;0.18178922;-0.0050277836;0.044300884;-0.022646049;0.11932362;-0.0057237586;-0.026312442;-0.014483018;-0.0137704145;-0.355294;0.22626138;0.10798315;0.054753717;0.019001937;-0.22710718;-0.11191464;-0.17872286;-0.02137165;-0.018374857;-0.00094221695;-0.3219706;-0.017273733;-0.1868213;0.20129868;0.029383445;-0.16496843;-0.004374867;0.00031183125;0.058501683;0.011676754;0.18879585;0.047184158;-0.1592119;-0.117096975;-0.0823098;-0.03819163;-0.13521875;0.0045202216;-0.641157;0.013066692;-0.0039776596;0.25355047;0.00705854;0.08652278;0.049578246;0.010514457;-0.2551253;-0.41044;-0.11680125;-0.0787466;-0.2972273;0.013003458;0.23787607;-0.12125037;-0.27821818;-0.00093643577;-0.010675172;-0.0043514688;0.13933066;-0.00019144853;-0.002022998;-0.02739707;-0.39509597;-0.05784234;0.002557336;0.06728127;0.004618458;-0.10032445;-0.27724242;-0.0038486;0.19714479;-0.011004938;-0.2534721;-0.23295034;-0.0047783605;-0.011230769;0.25698787;-0.17303747;0.051192433;-0.0882073;-0.12916301;-0.03845227;-0.15055275;0.3138604;0.34567937;0.20539963;-0.009340112;-0.38142854;0.19294268;-0.0026581723;-0.009105706;-0.33296138;-0.2416742;0.12362631;-0.01778791;-0.08073923;-0.21748622;-0.15382074;0.031950798;0.021063061;0.2453755;-0.06362952;-0.38346356;-0.04470612;-0.008748031;-0.10317895;0.055198144;0.20297793;0.29751945;0.08568115;0.12171749;0.023097321;0.0013218597;-0.0042750915;-0.19335522;0.0007228854;0.014666482;0.26087084;0.0026158642;-0.03899252;-0.0011428928;0.022535382;0.0029596612;-0.11200823;-0.0014951973;-0.25677553;-0.13950075;-0.119949006;0.05894889;0.26666406;-0.119171545;0.014326681;0.020561757;-0.035073344;0.14559631;-0.22912021;-0.18843707;-0.006013011;0.0617581;0.27582338;0.07855009;0.00019661873;-0.0024037217;-0.20099865;0.007890635;0.040073194;0.023901556;0.1778338;-0.084695436;-0.0013505879;0.07838551;0.0039168433;-0.30733836;-0.008074415;0.42491788;-0.0044881096;0.07328269;-0.28754434;0.075546354;-0.17689121;0.018640783;0.010900049;0.014433168;-0.23758964;0.010695917;0.340948;0.222006;-0.12878156;0.009709361;0.008251784;-0.07337622;0.48026285;-0.13243614;-0.0257026;-0.0038796617;-0.21747398;0.007472987;0.016745554;-0.21072787;-0.1595873;-0.14417407;0.04933992;-0.19471677;0.09706914;0.31422287;-0.0054742605;0.09208773;0.012300473;0.18794727;-0.1827819;0.037454687;0.024533324;0.0076930337;0.44192007;0.00232719;-0.0016374163;-0.016909521;0.0052281674;-0.015796892;0.06141311;-0.008448139;0.22665443;-0.23920754;0.30192164;0.008394511;0.15872078;0.11044756;-0.3190069;-0.010862962;-0.040014848;-0.0032823957;-0.011922498;-0.0010962072;-0.17711568;-0.02698859;-0.40705454;0.13734461;-0.07242734;-0.03395164;0.16146931;0.36992547;0.0988882;0.13456619;-0.09415392;0.6296633;0.2457266;0.0004519877;0.111809686;0.0045399894;-0.06016208;0.002702002;-0.5003801;0.008554484;-0.17083164;0.010993845;0.22170857;0.09768891;-0.23066163;-0.006818924;0.18835671;-0.15172851;0.0027110172;0.104156666;-0.29282084;0.001047131;0.20597363;-0.013458366;0.044537313;-0.0007954008;0.28292194;-0.08518076;0.25091228;0.04381818;0.0033700452;-0.1275597;0.13956144;-0.14933859;-0.021392157;0.23423442;-0.2367045;0.29824996;-0.06423417;0.121514566;0.028298011;-0.06796204;0.075618;-0.46696025;0.020729162;0.15969618;-0.005343127;-0.18407115;-0.4709232;-0.1705628;0.23662755;0.08481336;0.023201728;-0.36047623;0.10279569;0.112397596;0.29588342;-0.19543774;0.046747062;-0.006877974;0.19718014;-0.0008632251;0.10215147;0.014868626;0.050482545;-0.047447093;0.014748785;0.011672962;0.01221921;0.093098365;0.01148198;-0.3691728;0.3341933;0.26672325;0.419049;-0.007516226;0.011332732;-0.023996523;0.586567;-0.46261272;0.3960858;0.0050474517;0.030324316;-0.061548933;-0.022763988;-0.13648036;-0.45493716;0.010685402;-0.013561957;-0.13155514;-0.26570278;-0.015933821;0.22402696;0.02532367;0.002272359;-0.066888526;0.012761064;0.015825242;0.02294169;-0.002592369;0.011130143;-0.019009963;-0.28557527;-0.0052305222;0.04315511;0.0076269563;0.13731505;-0.0072686826;-0.05138497;0.23955534;0.2544643;0.054669853;-0.12907471;-0.01658576;0.32288042;0.15322359;-0.33446324;0.057731066;0.32238966;-0.14237328;-0.02905063;-0.082454324;0.020084864;0.0066738166;0.14558709;-0.15160456;-0.0011983295;0.1650489;-0.009977559;-0.010605411;0.03033972;-0.0005055678;0.033164877;0.17904635;-0.015616696;0.0038751732;0.26145118;-0.14666177;-0.017753253;-0.14433199;0.43941212;0.020505862;0.12414846;-0.015571652;0.09824966;0.020929072;0.43122503;-0.7328798;-0.16721387;-0.0699466;-0.006522905;0.21859361;0.4771092;-0.28750816;0.30399835;-0.07990558;-0.41140974;0.02015703;-0.19162998;-0.03187712;-0.029845715;0.3710627;0.0675231;0.18264295;0.010948458;-0.0028287296;0.11444806
0.24663296;0.27762336;0.10774673;-0.18773508;0.012846482;-0.20317338;0.20567891;0.17600329;-0.0065670293;0.102243446;-0.002765723;0.13585842;0.13488813;0.20099233;-0.1836053;0.027654428;0.2693011;-0.24423984;-0.054033272;-0.21115866;0.17934704;-0.002366355;0.05951988;0.21581519;-0.08161468;0.0016239044;0.009104289;0.044098813;0.044998087;-0.32472613;0.35195464;-0.0023243108;-0.16145876;-0.6195674;0.29123184;-0.53794354;0.14735365;-0.21700728;-0.04896351;-0.0062599964;0.0069810944;-0.004517724;-0.006578086;0.15850875;-0.0018859478;0.29261705;0.0031046844;0.06153366;0.041362144;-0.010644871;0.015114773;0.13247089;-0.15059176;0.0016990468;-0.018030038;0.021146297;0.003872726;-0.34038162;-0.11204541;0.16961214;0.010445751;0.2576315;0.010924682;0.16827117;0.3339798;0.22227696;-0.034486257;-0.19799004;-0.22904189;-0.007044878;0.15174897;0.027656695;-0.012317697;0.33840278;0.26763475;0.0819487;0.007468847;0.051214136;-0.2566695;5.028042e-05;0.0028210792;0.11037661;0.28826585;0.07366035;-0.0036761435;0.06528142;0.02521486;-0.007000161;0.0056287735;0.01516354;0.017274179;0.3474912;-0.021369422;-0.04054208;0.056796856;-0.25196978;0.010531627;-0.21776012;-0.023247167;0.0013864354;0.012549032;-0.15678258;0.107259385;-0.01268928;-0.057559345;-0.44914544;0.008914978;0.4443706;0.113811985;-0.00043340988;-0.15828824;0.13691789;0.1428722;0.021141661;-0.14473641;-0.20176955;-0.43076724;0.1886214;0.016858492;-0.07148086;-0.03238849;-0.014302504;0.15103048;0.008418806;-0.010157978;0.008938262;0.17604522;-0.03532636;-0.012288975;0.17407258;-0.031591356;0.1457309;0.026527686;0.482195;-0.011551918;0.012873724;0.06585179;0.13865641;0.0031209781;0.0048888144;-0.3640942;0.28583843;0.06935435;-0.17993237;-0.008591162;0.019154634;-0.2592771;0.0131244;-0.011903069;-0.1069331;0.0036558344;-0.07510476;0.028122624;0.02841343;-0.013708892;0.011056134;-0.00080888136;0.14146398;0.13581774;0.32979995;-0.23332857;-0.007685428;-0.16920389;-0.0032879454;0.002282576;-0.019530864;-0.124210574;0.009617533;0.06561762;0.11356575;-0.08237952;-0.046603426;0.0044828397;-0.19369799;0.07681878;0.13820907;-0.006690318;0.0042652637;0.12943412;0.0036885736;0.012502944;0.2500113;-0.056447007;0.28021872;-0.16443422;-0.38528875;0.10912035;-0.10569373;-0.035940874;0.011234067;0.0088220695;-0.005875624;-0.18721427;0.019593408;0.016685015;-0.13048887;0.05235329;0.18840751;-0.011858073;-0.026859747;-0.021011474;-0.04175726;-0.436345;0.013071736;-0.13260663;-0.0030565248;-0.29084247;0.026232695;-0.06200806;0.43750444;-0.016858257;0.06297389;-0.007460815;-0.002009346;3.6658003e-07;-0.01780247;0.12503739;0.05696862;0.07337485;0.027531728;-0.08199509;0.1649929;-0.1344159;0.023602778;-0.4437844;-0.011025929;0.017338082;0.12421568;-0.0003984317;0.15456496;-0.07253906;-0.006944202;-0.029645566;-0.42678553;-0.3073938;-0.24506444;-0.22098637;-0.0101646185;0.13456364;-0.059049975;-0.17653002;0.0007056038;0.012515505;0.0027778773;0.15903136;0.017484324;-0.01345518;-0.027153214;-0.4525213;-0.059617262;-0.006961168;0.17908998;0.044672463;-0.008593514;-0.28882036;-0.01943995;-0.22453104;0.00909954;-0.27784857;-0.18670188;-0.008457481;0.012147306;0.026591474;-0.14700978;-0.022382861;-0.10659653;-0.02090815;-0.0890249;0.034265373;0.16837744;0.17257656;0.20973416;0.0064853583;-0.05484446;0.0895238;0.018487448;0.008512753;-0.413243;0.018395418;-0.09608964;-0.16205566;0.10701397;-0.09554497;-0.17711912;-0.28595036;-0.0096021565;0.43475312;0.13640249;-0.295992;-0.13443889;-0.00015621206;-0.06128079;0.17487475;0.21115935;0.4067062;-0.010543114;0.08456001;-0.037776727;-0.2663436;-0.009177887;-0.21206854;-0.011566248;-0.002344479;0.37148827;-0.0030441026;-0.015122416;-0.0027267502;0.013743895;0.022094581;-0.16298306;-0.00064507127;-0.12199029;-0.08227766;0.25098684;-0.13087054;0.24645321;-0.23201734;-0.015274003;0.13623452;-0.01516504;0.033144243;-0.09048504;0.07655516;-0.0070413747;-0.03364421;0.26760274;0.031226192;0.009446948;-0.0030393773;0.10141272;-0.015332262;0.2291575;-0.049906835;0.15495522;0.098429054;0.024729664;0.3164834;0.0040625753;-0.23624907;-0.00034444884;0.23152341;0.015737265;0.17578427;-0.29264483;-0.2807823;-0.10064628;0.0040443153;-0.012625904;0.0011980637;0.18148336;-0.004652245;0.14723635;0.031161515;-0.18522273;0.0102145625;-0.13461234;0.012595427;0.59844637;-0.21083175;-0.006979109;-0.024943717;0.05000298;-0.026756436;-0.17476696;-0.33188066;-0.13340986;-0.2609467;0.15492328;-0.1697936;0.050103776;0.14526927;0.039637636;0.23530501;-0.01837153;-0.1020196;0.0058748457;-0.18029617;0.049958117;0.003798611;0.36485267;-0.0079003405;-0.006459273;0.020154404;-0.28602397;0.0058421902;-0.12105975;0.0061600874;-0.15157703;-0.22224256;0.09424192;-0.100653164;-0.1899486;-0.27648243;-0.1495939;-0.004704543;-0.08374712;0.0034138535;0.14343654;0.0065121804;-0.120212436;-0.0036838588;-0.1386478;0.2683877;0.0462013;0.038603947;-0.003916788;0.26685315;0.12736908;0.017809091;-0.10718047;0.5345393;0.30276933;0.008873956;0.22985397;0.007215715;-0.22769085;0.0027438304;-0.2975152;-0.0054206066;-0.10432902;0.0013865717;0.14469829;0.27767184;0.004890252;0.013591174;0.15914616;-0.12081181;0.023972731;-0.012831371;-0.38459933;0.0034803788;0.3837632;0.010148064;0.023851164;0.0008506851;0.26276386;-0.12946665;0.1570417;-0.21792084;0.000949192;0.12530257;0.3133639;-0.23924495;0.012817354;-0.05337535;-0.17691845;0.1883829;-0.28909636;0.059075136;-0.1458018;0.0875119;-0.110686064;-0.26849806;-0.012596768;-0.23786421;-0.003957408;-0.15300998;-0.44437015;-0.24131022;0.20907652;0.19879884;-0.014487986;-0.16275871;0.059303083;-0.057837885;0.10908377;0.049537685;-0.3940885;-0.041173954;0.34023127;-0.029790755;0.10594127;-0.025215484;0.06370266;0.0072345026;-0.028832586;-0.017245721;0.013459922;0.044225696;-0.013982091;-0.42251652;-0.039899472;0.025242632;0.3882301;0.015003521;-0.019784326;0.08994437;0.50401354;-0.028178195;0.3099967;-0.0050695217;-0.31697622;0.14397378;0.019245213;-0.28345203;-0.26672348;-0.24386898;0.012443972;-0.106434256;-0.168078;0.011885595;0.356018;-0.038976967;-0.0022993726;-0.076740466;0.0020850187;-0.153767;-0.03997286;-0.013890909;-0.005440655;-0.04423866;-0.27368864;0.0027917752;-0.022329604;-0.0025082096;0.15411404;-0.010562184;0.06776612;0.13363118;0.11648588;0.1117982;-0.1201259;0.010639255;0.22362624;0.15426628;-0.39475295;0.020322077;0.23443386;-0.4198041;0.009070806;-0.0002821277;-0.017270515;-0.009597729;0.29192954;-0.1691501;-0.0073708473;0.18501864;0.001843278;0.014042669;-0.1572238;0.11790871;-0.03330905;0.22070944;0.021310817;-0.0068007763;0.28733027;-0.2484369;0.0013776118;0.040117458;0.34811276;0.0086053405;0.024398563;-0.0006934485;-0.062975444;-0.0033304798;0.27649406;-0.53363013;0.122954294;-0.046576522;0.01817101;0.22302034;0.39864874;-0.32036412;0.20687707;-0.26358414;-0.27535024;-0.00565741;-0.05311007;-0.12230286;0.015899409;0.22365333;0.0054627336;0.28364778;-0.009878399;0.00019036193;0.07389017
0.08271088;0.30928156;0.3741128;-0.08279035;0.009282513;-0.15681373;0.044071224;0.25560752;0.0065438347;0.3741135;0.009374551;0.11375955;-0.07882973;0.13332464;-0.020811707;0.12729777;0.32137987;-0.22171745;0.19378687;-0.11061244;0.17424706;-0.0042505064;-0.0062878286;0.3316537;-0.031146461;0.0022323777;-0.021231508;0.060311794;0.025757482;-0.14849822;0.28333253;0.012175354;-0.17693481;-0.47376904;0.33842173;-0.46085286;0.17990074;-0.1391214;-0.2992869;-0.01253944;-0.009874082;0.00025349928;-0.09516603;0.054393735;0.01266856;-0.08502659;-0.0040579406;0.05249884;-0.0058962265;0.010996701;-0.005908512;0.02051899;-0.11477454;-0.017329268;0.023182618;-0.025524538;-0.017616788;0.0033174043;-0.057150256;-0.00031947155;-0.016123671;0.1920047;-0.016143754;0.23613128;0.26059914;-0.0678555;-0.034972634;-0.014482952;0.2791484;0.002703416;0.06636272;-0.025042765;0.0048431465;0.19964193;0.40770522;0.17136675;-0.005831841;0.19222406;-0.3552571;-0.023657586;0.0046609933;0.124195054;0.27833655;0.028163925;-0.0050036046;0.11191425;0.10141812;0.018948182;-0.0049712113;-0.018409481;0.0028605522;0.40329227;0.01741065;-0.24035873;-0.09529989;-0.1371409;-0.030993644;-0.027765078;0.22312266;0.17708164;-0.007928437;0.02600731;0.19835015;0.0046168193;0.2220513;-0.090229176;0.009030678;0.4057822;-0.06465812;0.00018131254;-0.42008963;0.20919938;0.19190449;-0.0084529165;-0.13140555;-0.27976206;-0.41214436;0.23860252;-0.0059679938;-0.22683209;-0.042449024;0.005801069;0.06667754;-0.0077926633;-0.0036694002;-0.0032394934;0.17349115;-0.2773254;0.008243157;0.026802039;0.11498412;-0.12244689;0.07920671;0.36219868;-0.01928536;0.07141621;0.0875714;0.18570639;-0.0057905363;0.0042980188;-0.19766049;0.10298005;0.4058962;-0.2640625;0.010923742;-0.026797941;-0.30423936;-0.004230162;-0.10795359;-0.024017615;-0.008972305;-0.19522615;0.008883742;-0.13295814;-0.01995948;0.0026814688;0.005909229;0.13742273;-0.038941234;0.4076861;0.090453856;0.0019406273;-0.017751874;0.010513013;0.00017004166;0.1612552;-0.27885213;-0.012257869;-0.22472262;0.21318352;-0.099078536;0.024264485;-0.013539835;0.0691758;0.10502775;0.10723292;-0.02413844;-0.009499233;0.058779016;0.007848563;-0.015213218;0.42198634;-0.17372221;0.14818975;-0.12476133;-0.20849518;0.17052275;-0.019776098;-0.026702069;0.01690157;0.17609687;0.0093982695;-0.105829276;0.008637988;-0.011348349;-0.29608724;0.29542583;-0.11354847;0.02835237;0.012312336;0.15604739;0.034434993;-0.09981567;-0.005502542;0.033781223;-0.009966325;-0.112069696;-0.036844753;-0.20459725;0.16410704;-0.12488806;-0.055246044;0.008807479;0.0023290194;0.14709699;0.00627086;0.049426652;0.18649587;0.08668061;-0.03755908;-0.113617204;0.07337905;-0.13534115;-0.023276458;-0.14165099;0.021133104;-0.00098821;-0.11213212;0.007840407;0.091652565;0.01314657;-0.008838359;0.07607444;-0.15116884;-0.26695573;-0.09901124;-0.16189812;0.0031692313;0.12653849;0.020137457;-0.30854544;0.030018985;-0.010063955;-0.11315669;-0.178234;-0.005886421;-0.0076822587;0.038945068;-0.20371261;0.021940285;0.007847442;0.15763009;0.001005401;-0.101423636;-0.2947355;-0.025958283;-0.28655824;-0.006627914;-0.19311784;0.04668669;0.0039768917;-0.001921164;-0.19667567;-0.17773275;-0.028653668;-0.052184194;-0.024344906;-0.11116843;0.2711423;-0.05550803;-0.06641218;-0.10516749;-0.005289467;-0.13078558;0.044311095;-0.0056333514;-0.0031470435;-0.37380007;0.32650623;0.048577357;0.0060125296;0.046501353;-0.15231192;-0.21572267;-0.47297177;0.2539005;0.7148824;0.33982491;-0.20203502;-0.18444219;0.015966041;-0.13962473;0.17625506;0.3006629;0.04966223;0.113687605;0.18527137;0.021955347;-0.3882403;0.001173246;-0.20368807;-0.0067968196;0.0017852074;0.32363978;-0.0022414455;0.018992461;-0.0072735045;-0.011868269;-0.019775635;-0.03671969;0.011281186;-0.028179321;0.026310878;-0.067513995;0.29429522;0.093551144;-0.33539912;0.010495742;-0.10104579;0.054008994;-0.09729314;-0.14018121;0.05784988;-0.00032754295;0.044790205;0.10753846;-0.027472295;-0.012172154;-0.0020009682;0.4210032;-0.010809225;0.02411319;-0.1464786;0.038058504;-0.0030529713;0.010208533;0.16404781;-0.003930181;0.105374575;-0.000802837;0.15325968;-0.022358367;0.1741751;-0.068337545;0.0059366478;-0.27461997;-0.015443852;-0.012828172;-0.0014173068;0.02228772;-0.009495117;0.049040757;-0.12016117;0.0012962227;-0.014335069;-0.018192735;-0.057707127;0.3605555;0.055063594;-0.049047727;0.01510779;0.27318156;0.020182595;-0.12688656;-0.44983825;-0.14118284;-0.20618008;0.34003812;0.03150455;0.20221813;-0.1824561;0.16180044;0.42530125;0.010383476;-0.19720131;-0.09401828;-0.27558097;0.06336701;-0.021821482;0.36699355;0.00976467;-0.003834723;-0.021471316;-0.5174833;0.003186694;-0.18737316;-0.0036417202;-0.082468204;-0.13553908;-0.13983496;-0.04517491;-0.66039693;-0.36647812;0.12206932;-0.0037391079;0.06098281;0.0014022844;0.14194398;0.011194663;0.04415846;0.043701492;-0.27212536;0.21238671;-0.013236752;0.05122665;-0.06346709;0.09457759;-0.18006219;0.1229424;-0.22549888;-0.037566245;0.15325716;-0.0063424422;0.3072028;-0.00565963;-0.04165765;-0.0024130682;-0.2707731;-0.0033712392;-0.033212468;-0.0064452416;-0.0026641295;0.2489485;-0.014517588;-0.02056293;0.19994016;0.018188503;-0.004349457;0.09942591;-0.1707631;0.0019049762;0.33745462;-0.028008696;0.040886685;0.0034429554;0.18010864;0.06953138;0.3087715;-0.07772777;-0.00057681836;0.09958581;0.025356695;-0.24944949;-0.0042357207;0.0063305744;-0.24856463;0.19169755;-0.03883372;0.20483394;-0.2137199;0.26638547;0.13189808;0.01641774;0.0021259598;-0.13348284;-0.0029688438;-0.09805617;-0.28828833;-0.1761569;0.32007638;0.2277257;0.0017407858;0.022237081;0.06603316;-0.10039392;0.15921097;0.028309409;-0.45596248;-0.16445282;0.10096512;-0.051185343;0.045376584;0.021365436;-0.17662114;0.25010413;0.009951105;-0.0043735104;-0.008154178;0.034055002;0.021634398;-0.4683875;-0.1678083;0.015314759;0.18783678;-0.008595099;-0.008020553;0.18250029;0.33465317;0.2553714;0.32320845;-0.014242263;0.03499392;0.0359842;-0.06520343;-0.0007891041;-0.22592042;0.06506498;0.0005332988;-0.106568374;-0.2067384;-0.010425751;0.012699086;-0.07743602;0.009718549;0.045247972;-0.0105784135;0.025249636;0.0012207333;0.018769812;-0.011430184;0.106642865;-0.37684828;-0.005821405;-0.21828341;-0.01531798;-0.0042630704;0.019067913;0.0906611;-0.18306091;0.27825925;-0.16042763;-0.0728319;0.0062382356;-0.04936046;0.05173715;-0.30088478;-0.09745405;0.1320262;-0.4406415;0.015091584;0.109325;0.0013968406;-0.0021022668;0.0007061511;-0.2954028;0.008298899;0.17442994;0.009713325;0.0070077726;0.07610465;0.29653415;0.014092216;-0.050038848;-0.012280456;0.014141078;0.04005684;-0.051090382;0.0046694116;0.0015617743;0.3098616;-0.02733209;-0.13095215;0.015163795;-0.20627145;-0.024425922;0.11561271;-0.38864398;-0.16245835;-0.22620822;-0.017231578;0.29671288;0.36254948;-0.29140761;0.14395308;-0.21499245;-0.034038465;-0.004054721;0.0012467221;-0.20598762;0.0096138315;0.27254015;-0.12756559;0.25239167;0.005186258;-0.018179916;-0.17351998
0.067490496;0.2080464;0.24595404;-0.043509588;-0.025091724;-0.11676761;0.06835428;0.21900144;-0.024874864;0.30245745;-0.0031263556;0.0017911111;-0.19235608;0.123829305;-0.25356734;-0.11421036;-0.19143645;-0.17637736;0.037147187;-0.11203033;-0.06658124;-0.009545004;-0.040881723;0.3599183;-0.055683337;0.0005027356;0.017451452;-0.11273194;0.0055463337;-0.04985956;0.08130918;0.0014013171;0.044650514;-0.48427853;0.3916325;-0.400884;0.31783533;-0.044039614;-0.022580128;-0.087265044;-0.007805021;-0.0053331912;-0.23431525;0.15751028;-0.003969567;-0.20380111;-0.005825833;-0.13092598;-0.018600432;0.004951223;-0.0052693756;-0.005603733;-0.06816027;0.024832902;-0.019028623;-0.15532222;0.018590298;-0.24540283;-0.0022720376;-0.014384874;0.008650634;0.26542664;-0.010639414;0.29243314;-0.011085461;-0.19145615;0.00010893118;0.06206565;0.061631586;-0.0058283564;0.032676373;0.013078381;-0.008887174;0.28192982;0.17253467;0.36070284;0.0008244757;0.15562569;-0.15739648;0.0147371935;-0.012243907;-0.20554805;0.0810905;0.035836685;0.019922342;-0.10381714;0.14658909;-0.0020963107;0.006072128;0.0053418316;0.012404184;-0.13931358;-0.14935724;0.012267324;0.12713464;0.071892194;0.071291104;-0.23595238;0.25063586;0.3318613;-0.009855925;0.085657515;0.27010158;0.0061741816;0.016399847;-0.07541343;0.00711264;0.111770034;0.039806325;0.016635649;-0.09255744;0.28682587;0.29243177;-0.016523384;-0.19616573;-0.30145565;-0.28972772;-0.011862567;-0.0027135843;-0.10831077;0.0011132618;0.00043312646;-0.048349492;0.0007324921;-0.013723416;0.004295794;-0.06420587;0.07817956;-0.014427304;-0.09694302;-0.06592578;-0.24346076;0.025480686;0.37021458;0.018066285;0.21841648;0.098093785;0.11425681;0.0016324238;-0.019720647;-0.031496875;0.004378762;0.20580922;-0.12774506;-0.007316919;0.13576107;-0.21652107;0.0057870527;-0.2778347;-0.06895714;-0.00018366445;-0.25088623;-0.02437982;-0.035882916;0.0041923;-0.012933804;0.0056332573;-0.0016336696;0.035926536;0.096760154;0.16871971;0.00020672774;-0.23257343;-0.0066428804;0.0017295328;-0.03617621;-0.09487106;-0.013782197;-0.004481485;-0.10923508;0.18966383;-0.019384885;0.004344696;0.015081264;0.23077974;-0.013214064;0.033993848;4.2441665e-05;-0.004704368;-0.008894929;0.0047565764;0.19505727;-0.01910277;0.30423737;0.04429664;-0.18639995;-0.02606191;-0.1123726;0.25041384;-0.019464722;0.22011508;0.008544708;0.24349804;-0.0047860923;0.022826273;-0.21511815;0.3094123;-0.24963772;0.043047566;0.0010826462;0.08729291;-0.092770785;-0.15505679;0.0045745606;-0.0058009285;0.010250882;-0.008388779;0.022067394;-0.26346692;0.16393837;0.112862274;-0.13177058;0.008077573;0.0027798414;0.09525546;-0.0045873853;0.26968002;0.098734975;0.23839225;0.066663824;-0.24207406;0.008231263;-0.14736398;-0.000972839;-0.36007002;-0.012252756;-0.004936051;0.13978346;-0.0065057743;0.12756856;0.090445064;0.011589989;-0.052088987;0.21422617;-0.28420183;0.07539555;-0.09760433;0.004994614;-0.18114777;-0.042821746;-0.35874543;-0.01800533;0.0051049558;-0.30277526;-0.0036696023;-0.0055638733;0.02497702;0.06860536;0.043044504;0.20855887;-0.010130454;0.1135255;-0.16511014;0.05617619;-0.45204285;0.034827452;-0.20691574;0.01300479;-0.3091133;0.11652625;0.0043783053;0.009666003;-0.18139556;-0.013838541;0.05957762;0.13371968;-0.27567407;-0.22778098;0.26751354;-0.09208359;0.059247166;-0.08646056;0.008582567;-0.20419182;0.0006751337;0.0046081487;0.00050457235;-0.34484547;0.18087247;0.015538478;-0.21779418;0.119742304;0.03384394;-0.18284835;-0.2742634;0.26000044;0.40547734;0.12859562;-0.58819515;0.04017221;0.0020026444;-0.35817415;0.04140962;0.28321588;-0.1143265;0.17072803;0.12497125;-0.0058302623;-0.10402106;0.0052227573;-0.019957915;0.015221367;-0.0031259893;0.32782954;-0.002723923;-0.06818494;-0.009910697;-0.02656758;0.00031916902;0.04808714;-0.01922822;-0.09945934;-0.3741859;0.11619035;0.0036295967;0.2193311;-0.23949544;-0.013998654;-0.34156725;-0.022715328;-0.167977;-0.16201623;-0.03990723;-0.004289724;-0.032217376;-0.14465351;-0.013281323;0.0025287736;0.010067062;0.5388426;0.017930446;0.10875271;-0.1611473;-0.02770322;-0.22619861;-0.024557028;0.18903592;0.011769298;0.1125774;0.012444055;0.3032665;-0.0040237717;0.23058014;0.0035212198;-0.089460924;-0.18612981;-0.0011101458;-0.0025380396;0.01219536;-0.086914144;0.0058628735;-0.032434415;-0.20340648;0.24563327;-0.004120611;0.20535739;0.033977564;0.06255334;-0.14015178;-0.042360682;-0.0059372107;0.14266627;-0.006380614;0.033239868;-0.25757828;0.03944372;-0.32792303;0.49382734;-0.015694143;0.1881423;-0.028749283;0.051493645;0.35827118;-0.010468626;-0.07641193;-0.008874844;-0.3294403;0.050214183;0.018555079;0.19156955;0.005690818;-0.008807015;0.02667631;-0.37796706;0.007829752;0.06695273;-0.009232562;0.098227404;-0.09115389;0.058673143;0.11550667;-0.50643504;0.13898571;0.13461652;0.0026100834;0.038263224;0.0119404355;0.022711381;-0.0062426915;0.049512006;-0.023046704;-0.18214817;0.0043776818;0.022564268;-0.027395263;0.090784036;-0.087094076;-0.053510264;-0.07592847;0.009985124;-0.14798625;0.07375045;0.0024990872;0.18512362;-0.0055249645;0.002267777;0.005215632;-0.0020134083;0.009380333;0.07444647;0.008265803;-0.21618111;0.14580218;-0.2988468;0.012103457;0.23252955;-0.12095978;-0.028751068;0.065123886;-0.07508735;0.0071991556;0.36051917;0.032839503;0.024314336;0.0008966387;0.13914445;0.10612663;0.30709606;-0.05564384;0.007053729;-0.0017511768;-0.13761696;-0.19826649;0.0038135692;-0.34745723;-0.18976009;0.41944966;-0.11116904;0.2772753;-0.1977443;-0.035687637;0.18878342;0.030768802;0.008447321;-0.026649255;0.01061824;-0.13005127;-0.117229916;0.021477401;0.2882041;0.34527022;-0.0074117263;0.046547435;0.12501961;-0.11852522;0.21071161;-0.016449079;-0.45140976;-0.09864747;-0.025886102;0.11741456;-0.028739212;-0.006286699;-0.10664762;0.09992533;0.007620028;0.008584194;-0.0032679506;0.011883043;-0.0032205305;-0.50089616;0.030395808;-0.17684335;0.14488229;0.0032569533;0.022193173;0.007042558;0.20339939;0.25606313;0.13989918;0.01897125;0.49631682;-0.21197514;0.019536728;-0.1681001;-0.14595887;0.011532346;-0.015677411;-0.224806;-0.21541724;0.010508188;-0.14190449;0.00970015;0.0016123264;-0.083798364;0.008542735;-0.12780629;0.003570242;-0.012436332;-0.018299088;0.2534722;-0.3776429;0.0066036712;-0.353399;0.015373596;-0.15409881;-0.0033315162;0.033491433;0.06852406;0.08490639;-0.056355;-0.15597203;0.003970046;0.053581875;0.30111587;-0.17243227;-0.04520867;-0.069256134;-0.24018963;0.0018371715;-0.17484763;0.02044463;0.0008309604;-0.10574279;-0.37842497;-0.003953118;-0.038836274;-0.018091187;-0.0022196842;0.060495283;0.21495606;0.014211685;-0.017746288;-0.0023165531;0.0023526477;0.09690651;0.047525506;-0.009924703;0.0030173773;0.28645697;0.024597509;-0.35424745;-0.0020495374;0.038766112;0.11713403;0.02354124;-0.21304476;-0.09967214;-0.129649;0.015522395;0.10374567;0.32115012;-0.5905725;0.28169346;-0.025893614;-0.038884472;-0.0059931264;-0.0067528686;-0.06115335;0.0044407425;0.043731388;-0.07071534;0.044090033;-0.012785732;0.01852017;-0.33126298
-0.024741272;0.18554494;0.011628328;-0.21610315;0.015253012;-0.19565059;-0.0039728484;-0.010701768;0.020100962;0.3015312;-0.016846232;-0.26228958;-0.13122794;-0.14848423;-0.10947765;-0.047402218;-0.077344455;-0.20245343;0.07411203;-0.10307274;-0.13603832;0.023138262;-0.061275456;0.08028209;0.057491116;-0.014159857;-0.010702997;-0.12510069;-0.04143965;0.03068283;-0.017409677;0.012359887;-0.10252466;-0.5729236;0.46290952;-0.3594454;0.1667128;0.19867429;-0.35356632;0.0019228567;0.004063097;-0.014871264;-0.06311752;8.423876e-05;0.0072435834;-0.21611577;8.936362e-05;0.0008593561;-0.34981385;0.012953759;-0.0042552683;0.22088225;-0.11141741;-0.024045229;0.018364534;-0.09337895;-0.0024318998;-0.17865051;0.0059176385;-0.058653656;0.015717125;0.21154149;0.013354145;0.007355306;-0.351382;-0.14571391;-0.040398724;0.15993668;0.021894848;-0.0020962975;-0.060482454;-0.01183633;-0.0026540768;0.22926004;0.33366522;0.25012565;-0.00062811095;-0.11439786;-0.054953445;-0.00060803466;0.002370655;-0.35318553;-0.26918393;0.05299859;-0.026585955;-0.09510388;0.0064162165;0.0073193996;-0.004982103;-0.009040916;-0.014856829;-0.035318334;0.06463876;-0.110881135;-0.041015908;-0.15698507;0.21226999;-0.16199198;0.45960042;0.20524183;0.0028213903;0.17671095;0.047275443;-0.003916225;0.09692857;-0.034741435;-0.0023669363;-0.073623665;-0.027611589;-0.026254553;0.080251485;0.37888238;0.036357645;0.039790723;0.072786756;-0.34915212;-0.28171632;0.007967998;-0.009011625;0.105149165;0.109640464;0.016828736;-0.019522928;0.003611309;0.021687768;-0.0028025736;0.13930969;-0.14457561;0.01557666;-0.08709689;-0.11447655;-0.074467525;-0.028587367;0.30358574;-0.0020793702;0.24054378;-0.098593436;-0.03221534;-0.0019721775;0.0079781655;-0.09986382;0.16535315;0.03638925;-0.21632533;0.008433305;0.048237175;-0.23001;0.011075945;-0.18804073;0.16362426;0.01744243;-0.13807203;0.0011555504;-0.15734755;0.0049167755;-0.010344553;2.4100493e-05;0.16332737;0.053235043;0.017874751;0.08159806;0.0025155519;-0.06615431;-0.003255392;0.008222272;0.16902778;-0.050673816;0.010615374;-0.0622601;0.18291995;0.090445854;-0.033969935;-0.012331109;0.24647036;0.3491639;-0.0695213;-0.032117773;0.0015599221;-0.051329225;0.012827182;0.0024697818;0.064282335;0.049763512;0.14667909;0.19276682;-0.19672959;-0.07443289;-0.03905388;0.22860701;-0.0013709267;0.10959877;-0.0029320465;0.117334984;-0.010231643;-0.00922869;-0.11483475;0.08001403;-0.19998622;-0.2487274;0.0028145483;0.0706408;0.16067334;-0.14872693;-0.0068615633;-0.13525371;0.008801594;0.019913336;0.01140608;-0.08926711;0.07504532;-0.027007759;-0.10993149;-0.010821785;-0.002849356;-0.010592605;0.0025129328;0.24246542;-0.021603221;0.21573018;-0.36787012;-0.25299639;0.03236645;-0.1800586;-0.010954874;-0.70288974;-0.00898453;-0.005452397;0.16033874;0.0022904645;0.0753573;0.05883903;-0.0004200491;0.12264788;0.0434397;-0.43338367;0.05007902;-0.25046685;0.004421603;-0.057304345;-0.070388034;-0.1543191;-0.035494402;-0.017073726;-0.37075037;0.20985503;-0.055025317;-0.006870606;0.013226773;0.09934698;0.102064796;0.014395835;0.09521724;-0.30132532;-0.037620723;-0.4399604;0.0032841982;-0.45831048;0.002626779;-0.21433775;0.11709646;0.013421121;-0.012403804;0.031094605;-0.091598436;0.23537622;0.3087011;-0.11943492;-0.21849546;0.04970882;-0.14501181;-0.13227859;-0.17894305;-0.008930694;-0.27796808;0.016249638;-0.010105421;0.008334742;-0.19315447;-0.11081936;0.04698791;-0.3023186;-0.081432976;-0.20178953;0.1314031;-0.19375594;0.20077254;0.09898772;0.21016505;-0.15469173;0.27084264;-0.007162166;-0.15462533;0.13821383;0.2362364;-0.022385603;0.21263789;0.05344355;0.003490887;-0.075526;-0.011614191;0.23225436;-0.0078913625;-0.004699475;0.07573054;0.009647384;0.039704237;0.010061731;0.0066921827;0.004631724;0.14430448;0.012723547;-0.00025183873;-0.27770698;-0.02852775;0.10800412;0.22749577;-0.28484616;-0.006961938;-0.071214356;0.09859647;-0.19568133;-0.07476556;-0.022765784;0.014872638;0.021766556;-0.28064066;0.050838146;0.013256124;0.0047190078;0.35269642;0.0014381713;-0.2751983;0.116334975;-0.10045181;-0.00039315852;0.0017666646;0.15547813;0.0013854355;0.23192883;-0.009299465;0.3049945;0.012241279;0.19670601;0.100950085;-0.2750981;-0.07996781;0.021477414;0.011476783;0.013788567;0.22964059;-0.00014020492;0.024684548;-0.0006012115;0.0050490005;-0.0002543547;0.13204508;0.046010666;0.10665464;-0.14925605;-0.03052726;-0.008444927;-0.008947653;-0.002153097;0.1892418;-0.14739123;0.076678984;-0.18527865;0.44889048;-0.036137577;-0.01674329;0.07141427;0.016811194;0.60068995;-0.0010327441;-0.096320726;-0.20512863;-0.11477919;0.2147452;-0.006766814;0.16255319;-0.016757902;0.016366411;-0.009829351;-0.35397896;0.009627819;0.19680397;0.011657565;0.065088265;-0.0767778;0.1058531;-0.009140449;-0.7608633;-0.22836298;0.10385774;0.014233931;0.08562199;-0.0057060625;-0.0205453;-0.014133632;0.3760261;0.0021836194;0.16414334;0.008173503;0.116257034;0.0640945;0.041709345;0.1976869;0.020474194;-0.024642974;-0.1574852;0.07706668;0.088278234;0.008866608;0.035202917;0.013357249;0.22564916;0.007671945;0.08684945;-0.0038973968;0.14281362;0.0026360434;-0.11346407;0.17731802;-0.22401807;0.0021753747;0.123769216;0.18456288;-0.0072177993;-0.036382742;-0.20807728;0.014771481;0.19599125;-0.012450323;0.005745135;0.0052880277;-0.07898933;0.079877764;0.31491736;-0.10724219;0.0015541438;0.007177664;-0.2582215;-0.100981094;0.007650197;-0.16068095;-0.20525557;0.39107853;0.07850964;0.10263376;-0.091429904;0.12537917;-0.029045278;0.21582744;-0.0008246398;-0.022304945;-0.00038393887;-0.13143091;0.034266576;0.13826743;0.26643634;0.18027331;-0.026584154;0.11270283;0.24686562;0.034833983;0.35689625;0.17456779;-0.18686567;-0.22366242;0.05096331;0.07687158;0.0555722;7.875044e-05;-0.078177206;-0.0042701303;-0.0037135456;-0.009579825;-0.0035436472;-0.10563577;-0.001732477;-0.5919003;-0.015445729;0.10016647;0.1134655;0.008175271;-0.008243395;0.054184332;0.025619116;0.21936077;-0.18066378;-0.005137929;0.39849427;0.0916275;-0.0063282675;-0.04582031;-0.1215425;0.079414696;0.015485998;-0.0732913;0.08908173;-0.007728734;-0.1006976;0.17218053;-0.004902389;0.030465841;-0.013333988;-0.08128349;-0.064783916;-0.0039585344;0.021127157;0.29369542;-0.07686675;-0.008684947;-0.2948852;7.993156e-05;-0.20125976;0.0009746378;0.33304316;0.33418584;0.05857861;-0.18945342;-0.21327738;-0.012821326;-0.08957542;0.16290474;-0.029468918;-0.10260721;-0.03640842;-0.24684714;0.0025733788;-0.23092394;-0.01845195;0.0031519288;-0.26246992;-0.30485898;-0.0074268044;0.0040708533;0.018132273;-0.006382686;-0.21354176;0.30452073;-0.022340858;-0.062110648;-0.002475695;0.009547385;0.037391294;0.07568125;0.015504324;0.03414533;0.26150545;0.01461173;-0.28992537;0.0046884264;-0.00067283615;-0.029071871;-0.071639106;-0.37004778;-0.23399012;-0.07112265;-0.004296461;0.34956977;-0.054291118;-0.48893976;0.25198224;-0.030781312;0.03831249;-0.006468662;-0.09477875;0.10170549;0.005090766;-0.28468686;-0.17631587;-0.027671611;0.0136235785;-0.01632479;-0.058434747
-0.27735022;0.007584033;0.1526931;-0.22868632;-0.014293821;-0.17139918;0.017924454;-0.18857305;0.005302734;0.10645555;0.012663675;-0.09155889;0.089831255;-0.17950334;-0.0010178107;0.07488547;-0.6157847;-0.38750318;0.06113477;-0.12186829;-0.05158031;-0.003523891;-0.072834715;-0.43334848;0.09564973;-0.002582631;0.005155521;-0.2055163;-0.03391146;0.14093423;-0.19936304;-0.008597988;-0.2532452;-0.018312933;0.49165982;-0.5153656;0.16405544;0.16673501;-0.37242353;-0.013430511;0.0070550055;0.024860114;0.1491219;-0.006230246;-0.0065081986;-0.08612838;-0.004900788;0.027968593;-0.05353494;-0.012407138;0.020711869;0.19919325;-0.23014899;0.035246797;-0.017919512;-0.45132536;-0.0048647886;-0.4077827;0.107753314;-0.21037638;-0.0050311205;0.34967732;0.0026125074;-0.23283426;-0.62009335;-0.4299444;0.016166648;0.31114417;0.31774014;0.009234326;-0.044598572;0.0037153354;0.0074726827;0.24297394;0.17288467;-0.031361457;-0.016908979;-0.37708274;0.021656321;0.003278645;0.006333493;-0.19335933;-0.06453608;0.11281713;0.011812739;-0.0970496;-0.2760206;0.0007295122;0.01092104;0.0102470005;0.02212695;0.057703573;-0.18171431;0.018703798;-0.09438715;-0.068121135;0.25962636;0.031902947;0.388703;-0.0067575877;0.0038708898;0.17113292;0.03550743;0.0003625917;0.13832232;-0.0031160258;-0.009278057;0.1562757;0.09014428;0.011516771;0.20507276;-0.06773813;-0.104746275;-0.07916856;0.090858236;-0.033184372;-0.5946015;0.035317484;0.00899633;-0.035149563;-0.020372301;-0.009760906;0.25963458;-0.0051693236;-0.0034505653;-2.4704024e-05;-0.26125863;-0.15150596;-0.0021519705;-0.057661045;0.036039043;-0.06255239;0.07322938;0.13827287;0.003599316;0.14190248;-0.2773138;0.013921516;0.023767449;-0.003774122;-0.07766183;0.26087365;-0.21924865;0.091205366;-0.0025330463;0.062089734;-0.049475864;-0.026064597;-0.13180733;-0.0061312574;-0.01823876;-0.03702661;-0.07679265;-0.20453921;0.007988804;0.00969344;-0.0077442145;-0.088034384;0.024697615;0.07989593;0.16905445;0.020809628;-0.19185723;0.010132767;-0.00068262964;-0.06927513;0.026450511;0.008447883;0.077256024;-0.0064623193;0.02575669;0.0396397;0.012752573;0.2825777;0.31840262;0.14703724;-0.0012267063;0.014716997;0.26918414;-0.011109614;0.009383749;-0.019390061;0.06541079;0.15930222;0.02472229;-0.12647527;0.029777324;-0.12596914;0.09091579;0.017453812;0.15594357;0.0052758195;0.015093141;0.0047734743;-0.0037328089;0.061340228;-0.089945234;0.11382771;-0.13640699;0.00070463656;0.1297449;0.15652537;0.05613825;-0.01231559;-0.34552097;0.007926914;0.047012355;-0.021324683;-0.11333254;0.029445397;-0.023208488;0.034925904;0.001219857;-0.0041555665;-0.20308983;-0.010497081;0.09619533;-0.018110028;0.1373121;-0.39725006;-0.23493889;0.012804673;-0.13981366;0.0043288777;-0.61632735;0.0013246371;0.0027058085;0.103982925;-0.013040142;0.13995388;-0.008040265;-0.00085068296;-0.10816721;-0.061631646;-0.49687642;0.032133874;-0.241984;-0.00783195;-0.13251871;0.012528331;-0.12338247;0.020648286;0.0032635073;-0.37732527;0.39651123;0.0029428029;0.01564085;-0.003233293;-0.062324658;-0.036049467;0.0022424455;-0.045935262;0.23524849;0.06256039;-0.4858839;-0.0127276955;-0.69170123;-0.010188086;-0.21801053;-0.1280674;-0.031641707;0.003197019;-0.23632361;0.09054069;0.040402308;0.13267508;-0.016373534;-0.17081097;0.20805144;-0.16624819;-0.19219464;-0.20642152;0.006583091;-0.32320407;0.08015413;-0.008747073;-0.018401107;-0.08923131;-0.11404792;0.21832931;-0.033811696;0.070184514;0.14959528;0.021000495;-0.19346334;0.12446837;0.0028016886;-0.21316135;-0.20958461;0.38918018;-0.016788362;0.18947007;0.39557153;0.26492304;0.044938684;0.26529798;0.08456161;-0.003384889;0.004994921;0.0058953087;-0.20365085;-0.018522715;-0.0032930635;-0.02047664;-0.009144687;-0.015529586;-0.008724593;0.0077850777;-0.012574156;0.28296214;-0.014910468;0.020925907;-0.36461002;-0.028690014;-0.03329183;0.25993425;-0.3799479;0.009820845;0.2324948;0.28539357;0.08133761;-0.056255616;0.0478889;-0.005408986;-0.015518294;-0.15137482;-0.0013139355;-0.01165809;-0.018062254;0.066594355;-0.003508477;0.0929294;0.34299216;-0.21659589;-0.1541445;0.012103066;-0.05649769;0.0010657676;0.12860915;-0.0023491802;-0.19111104;-0.0097194305;0.3060283;0.17482041;-0.5025719;-0.005571187;-0.012441185;-7.9162266e-05;-0.014918666;0.22652395;0.0043148287;0.01440889;-0.015221987;0.053924646;-0.007861262;-0.004802133;0.045919098;-0.11806658;-0.19334124;-0.10044096;0.006735776;-0.20449106;0.0031117587;0.23000504;0.09378412;-0.049995564;-0.03909068;0.18769489;-0.015946489;0.09651649;0.11957656;0.46940762;0.58219165;0.0013746975;-0.15212487;-0.19472535;-0.15449615;0.35524404;0.0017941628;-0.08440264;0.016624354;-0.0026948703;-0.011621882;-0.14519541;-0.014805723;0.100650206;-0.009448602;0.32789406;-0.11113624;0.112720475;-0.064875364;-0.26155135;-0.31425712;0.20172462;-0.006108911;0.037903488;-0.0049609737;-0.0021806934;0.018447706;0.02534352;-0.018597798;0.10040618;0.063291885;0.19169694;0.07020428;0.09114608;0.08278081;-0.060687814;-0.24822171;-0.17734294;0.3633514;-0.07798868;-0.010174082;0.051488053;-0.015847323;0.13589284;-0.014485328;0.15164907;-0.0043618083;-0.14654776;-0.00830289;0.06877837;0.17852554;-0.38427097;0.0145999845;0.10660409;0.31674686;0.031937376;0.037833776;-0.26719072;-0.015482325;0.18189414;0.018390646;0.022392368;-0.017473057;-0.24936482;0.33532414;0.19010209;0.014286307;-0.014443873;0.1546603;0.048425313;0.0822853;0.0050312546;-0.3172555;-0.22551872;0.13669215;-0.08065111;0.090348914;0.022459967;0.115136765;0.19085298;0.2407471;0.019116227;-0.41279763;-0.005479712;-0.15216424;-0.13538907;0.48295686;-0.08682157;0.13121116;-0.0031051843;0.40134403;-0.33635542;0.06299433;-0.10646094;0.109221354;-0.23591657;0.073906936;-0.006825289;0.032230247;-0.05581719;0.0010777466;-0.058578253;-0.0567563;0.008223393;0.013176425;0.010862861;-0.2673182;-0.002059322;-0.16779122;-0.12690635;0.063099064;0.07756718;-0.015490823;-0.004520286;-0.15628563;-0.12942077;0.03835601;0.00063862524;-0.007585751;0.24065451;0.3025923;0.020818003;-0.104986094;0.0030344995;0.05026571;0.0049937824;-0.26071054;0.03585871;0.00020898445;-0.15766495;0.2358064;0.001878491;-0.1708992;0.008029453;0.06606892;0.04431281;0.015949942;-0.0063844635;0.25599414;-0.25992423;0.0063861855;-0.16198714;0.0017986969;-0.2048059;-0.014022093;0.55694014;0.19563028;-0.087807834;0.09786007;0.13766222;0.0013178643;-0.09689141;0.38361165;-0.12245532;-0.039120592;-0.017901508;-0.153841;-0.008618937;-0.14196798;0.009807581;-0.0048943823;-0.24951816;0.006386128;0.018982623;0.22176282;0.0020513136;-0.015123091;-0.5741102;0.29297808;0.012006698;-0.120048285;0.0004315783;-0.017527474;0.046613574;0.14120233;-0.0022775938;0.03106192;0.3266143;-0.038806513;0.104351684;-0.013424597;0.09414873;-0.018683296;-0.15077476;-0.16608746;-0.3800132;-0.16622005;-0.008172983;0.24404988;-0.027767671;-0.16682695;0.022761378;-0.09154068;-0.04325679;0.025971323;-0.24070066;0.101304606;-0.00033297244;-0.21383137;-0.03416166;-0.0062474897;-0.011232345;0.010104486;-0.021601705
0.19674216;-0.027387792;-0.07545349;0.089000374;0.010631813;-0.27447605;-0.016099798;-0.26469266;-0.0061189225;-0.051451836;-0.013091545;-0.15057042;-0.22187787;-0.15518007;0.047360737;0.0701569;-0.22210492;-0.20156;-0.14641196;-0.07254407;-0.114887364;-0.0107600745;-0.016153207;-0.9745802;-0.06528236;0.002234271;-0.0016661496;-0.042198144;-0.047842644;0.2574528;-0.1771847;0.00063491537;0.0212779;-0.17101459;0.42871955;-0.2931053;0.11985983;0.047262385;0.02322526;0.038198803;0.001774296;-0.0068148095;0.023835218;-0.2614618;0.014580722;0.037110902;-0.0015195005;-0.08216154;-0.25272694;-0.0012046975;-0.017200174;-0.013030932;0.062044807;-0.02535449;0.0026377537;-0.43368393;-0.0016666078;-0.3644283;-0.1415097;-0.1953254;0.0038935568;0.4570199;-0.003772552;-0.15377781;-0.37656012;-0.21569134;-0.0108127445;0.3581781;0.06962305;0.009299733;0.07074361;-0.0013303588;0.0034545814;0.019174835;0.08830294;0.006676324;0.02389294;-0.3780912;0.16199258;-0.0028884853;0.012745922;0.0051657804;-0.14862455;0.13614264;0.0046075205;0.08188295;-0.24224162;-0.005036311;-0.00014274707;-0.0008598218;-0.007713718;0.35908014;0.05913215;-0.030892523;0.12942785;-0.15941286;0.3623635;0.21175063;0.17436895;-0.0827055;0.001502134;-0.0326784;-0.014403939;0.0049226615;0.18507642;-0.06769553;-0.008159314;0.074398965;-0.017771214;0.00668723;0.14538181;-0.10387153;-0.2515782;0.03764557;0.087537184;0.13013165;-0.5677084;-0.08161259;0.0010759583;0.13957421;0.03644378;-0.010872018;0.15803078;0.0074874437;0.001782741;-0.00039245174;-0.20791341;-0.11682898;0.0018300504;-0.081359;-0.046540067;-0.05400755;0.00847984;-0.055781372;-0.005298438;0.20558868;-0.3238864;0.03846382;-0.015004317;0.00018131647;0.29223657;0.22284786;-0.19122212;0.25753284;0.0008899419;0.046336036;-0.2722227;0.0053429594;-0.057248313;-0.18273127;0.02085076;0.15408076;0.086130105;-0.028744327;-0.0014735719;-0.0017620174;0.018340252;0.26373717;-0.040686466;-0.0836048;0.2514096;-0.03375702;-0.3623899;-0.008651846;0.012812857;0.24654813;0.004391903;-0.016175829;0.031192238;-0.124578476;-0.032742172;0.0064529786;0.0003129184;0.33020955;0.22086316;0.113253;0.006964954;-0.015157719;0.37575445;-0.0113066705;-0.0056037353;-0.10731299;0.2045171;0.09780357;0.019452848;-0.37198177;0.2253483;0.029796978;0.032406643;-0.015900375;0.23093142;-0.0042055794;-0.037773676;-0.01690384;-0.0007419215;0.2940731;-0.17139623;0.337011;-0.24464607;0.0063621476;-0.041053314;-0.08893148;-0.062829964;0.012728501;-0.4351787;-0.015729938;0.010445807;0.0033312866;0.08885631;0.17456159;0.061120346;0.22870463;0.009835126;0.0065956376;-0.049773887;-0.002682126;-0.05083592;0.0046969326;-0.052978322;-0.40512508;-0.020462101;0.20613486;0.0235536;-0.008721747;-0.1219794;-0.0074690315;-0.005028231;0.034628168;0.0064904992;0.31545886;0.056968722;0.007442152;-0.016477726;-0.20958827;-0.24984293;-0.12639238;-0.3695291;-0.0018767797;-0.07909583;-0.09329179;-0.20700246;0.02309186;0.00909604;-0.3860893;0.2512008;-0.048785225;-0.020854507;-0.059804954;-0.08261646;0.31055996;-0.009289649;0.07680391;0.13076687;-0.070803605;-0.6661778;-0.04135044;-0.17762029;0.0030455026;-0.17152356;0.012828692;0.018661266;-0.007800656;-0.317265;-0.02073533;-0.13092369;0.42049092;0.20027223;-0.15230498;0.10793069;-0.011297069;-0.28769514;-0.0015125814;-0.01297704;-0.060405564;-0.15434013;0.0031471823;0.012073909;0.27992177;-0.0612978;-0.053554393;-0.05910748;0.002088704;0.010256896;0.338737;-0.10770253;0.026406512;-0.2118814;-0.09570297;-0.32034144;0.3200631;0.007392329;0.10350041;0.43273437;0.37170407;0.2950275;0.069303095;0.1486404;0.030921444;0.11054575;0.009259709;-0.16802086;0.012807167;0.01420999;0.10784744;0.01639965;0.0041488865;-0.0009942335;0.005870854;-0.0046474803;0.40597478;-0.0017145299;-0.2948565;-0.04267998;-0.39752185;-0.29896826;0.29582378;-0.39903802;0.0048712105;0.24220394;0.11440851;0.30373812;0.10424365;0.032116372;-0.008102018;-0.04267658;0.22423172;0.025604075;0.010592299;0.008068685;-0.016437078;-0.0134308515;-0.0710144;0.1568021;0.06317954;-0.18863387;-0.029665072;-0.03724031;-0.008720496;-0.058401573;-0.0016910575;-0.06493154;0.0026092592;0.13939232;0.26745304;-0.30962807;-0.14441456;-0.0008867425;-0.001721791;-0.0012332208;-0.018909765;-0.00061914447;-0.12742782;0.027260445;0.11727038;0.0143462885;0.03845809;-0.024207711;-0.15549695;-0.031009689;-0.03408494;0.0043980977;-0.17940928;0.007617727;0.26743183;0.15041135;-0.010236077;-0.08072377;-0.15888505;-0.02508634;0.11887112;0.1873004;0.34224007;0.4951855;-0.000111672955;-0.12589791;-0.103444286;0.10595929;0.39781585;-0.0020241616;0.026013717;-0.010940615;0.007967619;-0.009082172;-0.012421532;0.0022028284;0.1258197;-0.010527335;0.101511;-0.19176583;-0.06468041;-0.19899929;-0.45275962;-0.28644082;0.18815096;0.010570929;0.26645568;0.01449118;0.11641949;-0.024279593;-0.036248025;0.028844401;-0.033524584;0.13349162;-0.05547846;0.13175139;0.2324417;0.038443442;-0.016905542;-0.24645582;-0.0832683;0.051998712;-0.08951819;-0.0017062514;0.04359853;0.008134693;-0.22167818;-0.0063102967;0.061206892;0.0065820324;0.052177273;-0.0026418658;0.17582493;0.21353658;-0.293547;-0.02373996;0.15627675;0.39131257;-0.013306061;-0.20124532;-0.20416474;-0.00023088146;0.21372399;-0.010514794;-0.0023248317;0.0009938589;-0.17760456;0.31961223;0.2258392;0.103824474;0.0101308245;0.11480976;-0.010585557;0.24673995;-0.007834936;-0.34776175;0.00708214;0.01960233;0.1817904;0.06334231;0.058109213;-0.012450056;0.07690748;0.08059811;-0.01723965;-0.35130423;-0.00044200104;0.08218189;-0.030197075;0.26879588;-0.069313705;0.08567762;0.025241038;0.1111965;-0.35594842;0.110405855;0.1979448;0.07514852;0.09566015;0.21898848;0.19089207;0.029333852;0.104315065;-0.0066315173;-0.000518393;0.054497115;-0.012767505;-0.009390205;0.010490054;-0.20965195;0.0039103855;-0.3236002;-0.05705769;0.23019136;-0.072205715;0.0034521015;-0.009492704;0.0060634315;-0.1634126;0.021164354;0.09939989;0.003779271;0.09175295;0.23032452;-0.017315084;0.13921064;-0.01208602;-0.028037239;0.0040506315;-0.25804025;0.25401816;0.0024915026;-0.15487044;0.22826819;-0.0038051326;-0.22826706;0.0087266425;0.003783814;0.0065913424;-0.0134014925;-0.00732552;0.16839303;-0.1612714;-0.008434027;-0.16292612;0.0035325603;-0.07024203;0.016132444;0.3932367;0.08603686;-0.07466856;0.090519115;0.2793139;0.0073100287;0.4771106;0.22605754;-0.0707366;-0.023279063;0.0009838728;0.12740275;0.004006787;-0.15284385;-0.024151051;0.016372187;-0.18210298;-0.036982413;-0.018173782;0.0007369879;-0.0017057714;0.01546859;-0.30500367;0.09683736;-0.010261006;0.092768036;0.008391424;0.00834746;0.15165024;0.17882316;0.0021135071;0.053939197;0.14726898;-0.01011606;0.11019546;0.0076245135;0.108263254;0.09047056;0.074054286;0.041997053;-0.05387614;0.16010024;0.0072814706;0.3451445;0.042373516;-0.23265375;-0.23300193;-0.019183425;0.0072058467;-0.015441996;-0.12228947;0.19079179;-0.010660659;-0.017516835;0.109075874;0.014760036;0.016230138;-0.0108296815;0.05084326
-0.057404447;-0.036647417;-0.29026812;-0.19247454;-0.002546155;-0.0013493026;-0.09391698;0.09122055;0.0069929166;-0.0080995215;0.017095312;-0.34965247;0.04301592;-0.03505345;-0.041323382;-0.11733995;-0.16888194;-0.30955735;-0.10169872;-0.16458972;0.06650959;0.004303909;-0.19678879;-0.91222453;-0.10899179;0.0051701446;0.0065333648;-0.035175543;-0.04652507;0.34482408;0.05085614;-0.008952522;0.15894431;-0.09933791;0.23991224;-0.020291392;0.057861567;-0.07462723;0.07577189;-0.07935523;-0.012925807;-0.0005439399;0.002958366;-0.1747857;-0.0029079856;-0.06660914;0.009147908;-0.09479835;-0.11861087;0.0032140417;0.0120548885;-0.13028584;-0.2848569;0.0019506008;-0.016164994;-0.5079999;0.011417997;-0.35596344;-0.01689539;-0.24525096;-0.01081622;0.47175443;-0.008685161;-0.056126412;-0.137337;-0.14415728;-0.009144287;0.33116397;0.042410962;-0.019018292;0.047874082;0.009441389;-0.008777291;0.14355206;0.28144923;-0.31146342;0.011227936;-0.026190374;0.2958968;0.003979228;-1.761575e-05;-0.010217929;-0.07563836;0.105613634;-0.0038927775;-0.01047153;-0.015721016;-0.013332325;-0.005938034;0.010141481;-0.0018546968;0.0066554304;-0.081644215;0.070937894;0.28682426;0.018080527;0.452324;0.18029252;0.10057913;-0.00026052783;-0.0030117305;0.11005438;0.16994788;0.011196877;0.2461582;-0.05649094;0.010836877;0.15126286;0.060422055;-0.013353527;-0.06391133;-0.17757577;-0.4991778;0.019200051;0.09172426;-0.058212053;-0.3341703;0.011474089;-0.0033068545;0.16492553;0.02737588;-0.004104115;0.5088056;-0.0025538525;-0.005693725;0.008808343;-0.104384385;-0.1862175;-0.010679208;0.19829671;-0.22996414;-0.13999283;-0.07110346;0.09699162;0.007818371;0.12573764;-0.4062661;0.070367455;-0.0017389762;-0.0067485413;0.39612985;0.2294036;0.0053794277;0.09804269;-0.010155351;0.13855225;0.052365813;-0.016479371;0.033494;-0.14600033;-0.024150133;0.10219567;0.021380963;0.4101709;-0.0063823266;-0.0017218562;-0.011195589;0.22235912;-0.25840986;0.142483;0.16999777;0.024045674;-0.27154714;0.001657168;-0.01386251;0.06667074;-0.037157755;0.020632917;-0.10401815;-0.3220218;-0.021241017;-0.023622753;0.009530876;0.2947572;0.1533763;-0.11436021;-0.0062700575;0.0014811793;0.43433812;0.018064458;-0.0076307296;0.04658259;0.29467776;0.022084098;0.20929776;-0.2887398;0.13101171;0.2654914;-0.083640024;0.011251856;-0.06306078;0.01164895;-0.031137103;0.0041585327;-0.02069191;0.22572127;-0.124571554;0.06339469;-0.17871127;-0.006586093;-0.052614897;-0.11396379;-0.27553517;0.0076682908;-0.14477296;0.0022758078;-0.19787124;0.014661365;-0.06422822;-0.099351205;-0.05463271;0.1536697;-0.00027342385;-0.016754514;-0.038092356;0.019452596;-0.29033387;0.11225678;0.08560773;-0.49409977;-0.20485705;0.036051136;-0.08972114;0.007909656;-0.0998599;0.007645764;0.009034622;0.026937049;0.004078849;0.21797907;0.0075653493;-0.011773819;0.029458981;-0.03238434;-0.41545603;-0.06938287;-0.3243129;-0.00493035;-0.16950248;-0.0486967;-0.09950065;0.016186936;-0.0017360442;-0.069632076;0.07017497;0.046414666;0.019679505;-0.036579624;0.04044352;0.28517255;-0.0023788777;0.03018623;0.009075183;0.09343021;-0.28866446;0.0092281075;0.16146903;-0.007230711;-0.048221804;-0.09102111;-0.005139217;0.009384611;-0.45429504;-0.09359407;-0.2259974;0.35341397;-0.15729907;-0.19816312;-0.12628551;-0.24021511;-0.07983614;0.015888467;0.008519245;-0.15039697;-0.068229996;0.0222519;0.0006909461;0.2515015;-0.22157107;-0.071294725;0.04164217;0.11416884;0.1972731;0.3572038;-0.19685055;0.35953435;-0.45478696;0.0026039924;-0.36456484;-0.13197473;0.0011624929;0.04642054;0.47723266;0.24169672;0.28878424;0.05388076;0.17575273;-0.013397401;0.14819638;-0.016961321;-0.11844753;-0.00095872534;-0.0053665573;0.14128718;-0.03210178;0.015128247;0.016480014;0.021386592;-0.002548919;0.37206024;0.0058832397;-0.14655223;-0.20143674;-0.5234948;-0.06098118;-0.048813976;-0.24458227;-0.011650867;-0.08161426;-0.28414407;0.2665413;0.22315153;-0.22470735;-0.005542334;-0.008879066;0.20671391;0.029811634;0.0036709872;-0.006364328;-0.17986898;0.024747109;-0.07239221;0.022296926;0.002263448;-0.009636009;0.023727864;-0.030673508;0.0030696169;0.13361616;0.008948731;-0.072131015;0.009649222;0.19401179;0.24715734;-0.20450328;-0.13359205;0.0013440007;0.0018300366;-0.0042743227;0.09589908;0.0027188994;-0.018850915;0.062008142;-0.12597771;-0.01127571;-0.028780129;0.07127841;0.026001113;-0.22552899;-0.070235014;0.0023329752;-0.12407084;-0.010466112;0.15375912;0.17496182;0.023199972;0.29718742;-0.4552821;-0.024209326;0.22297515;-0.016040882;0.0803495;0.33860675;0.014377221;0.028429342;-0.047383137;0.06345249;0.3447555;0.026239196;0.14633308;0.00291026;0.0043199183;0.0014561905;0.046057597;0.0002094668;0.034918305;0.024393477;-0.011696155;-0.10065935;-0.14092775;0.010982728;0.1145099;-0.2667976;0.30185536;-0.008829173;0.39333645;-0.01611951;-0.03666249;0.025096709;-0.22062942;-0.02703491;-0.061108056;0.21034078;-0.35586676;-0.10418779;0.18330282;0.017033173;0.0313952;0.18256266;-0.051837377;-0.25558862;-0.20637503;0.004796627;0.19360997;0.006828852;-0.19819584;0.009903293;0.040041156;-0.006787033;0.15687498;0.0008058839;0.2987454;0.24783786;-0.3862511;0.007382523;0.21627475;0.06897822;-0.002888812;-0.20316856;0.068546034;-0.010393801;0.17585392;-0.008322492;-0.028308082;0.0015876865;-0.094232775;0.31174657;0.1449188;0.15167414;-0.020437988;0.10310353;0.19463006;0.24384913;-0.0044775335;-0.09041355;-0.04354881;0.020393182;-0.09629302;-0.08188414;0.20884508;-0.2459776;-0.057397682;-0.062269036;0.0014548876;-0.41281787;-0.01685123;0.16106376;0.009694305;0.10123225;0.05368317;-0.167204;0.027693663;0.045482837;-0.14447503;0.022346374;-0.3067718;0.0059388764;0.019225804;0.1269251;-0.035638172;0.0319565;-0.16668697;0.0035940863;-0.01491635;-0.11217654;0.008470003;0.010654295;-0.017129427;-0.19948693;-0.014190528;0.16877662;-0.048414342;-0.042412277;-0.11912429;0.0080147395;0.014910828;-0.12308105;0.023459498;0.20186809;0.11467061;0.0046474235;-0.22231375;-0.34684113;0.0037762742;0.0744235;0.13361081;0.073835105;-0.019749701;-0.27998546;0.206457;-0.008945875;-0.13448861;0.11056702;0.005603931;-0.03815077;-0.011386025;0.06267743;0.003976999;0.01428043;0.02748926;0.11859707;-0.079487436;0.0054245894;-0.12838286;-0.0012540226;0.05140789;-0.01573314;0.018622933;0.18486455;-0.08401502;0.22791153;-0.11064529;-0.007926607;0.41073173;0.11790023;-0.1645346;0.014427649;-0.05586144;0.11742168;-0.011807632;-0.17564404;0.020645643;-0.008297206;-0.078269064;0.0801574;0.009262289;-0.01115188;0.006161999;0.006461048;-0.10500056;-0.02688469;-0.004321265;0.06671741;-0.010116085;0.0133854225;0.10187962;0.011718106;-0.005840151;-0.05740981;0.24903415;-0.007082308;0.2757029;-0.0036032146;0.08188565;-0.07148394;0.00048285586;-0.2939699;-0.015227357;0.26184827;-0.012106274;0.18670782;0.08336751;-0.040161446;-0.1477733;-0.18365827;-0.21803339;0.0029462858;-0.09256942;0.24678002;-0.0016717997;0.16614598;0.09199388;0.04932649;-0.00088068575;0.008827578;-0.2495337
-0.17398898;0.03443261;-0.39095974;-0.11264275;0.0040935404;0.067304246;-0.21121305;0.22228639;-0.00215893;-0.15177357;-0.0016268955;-0.12889147;0.120280564;-0.16228326;0.12676509;-0.26415995;-0.15544166;-0.27520335;0.09385465;-0.047073808;-0.11796939;-0.006607829;-0.07561418;-0.49770957;-0.06777611;0.0094254;-0.002332253;-0.0590607;-0.0048806453;0.25054833;0.25000322;0.011247419;0.28247374;-0.17344081;-0.14108059;-0.12141823;0.07015455;-0.19078036;0.077872686;0.020756762;0.012298154;-0.0002582709;-0.29050887;-0.12271445;0.0033050475;0.022780128;0.008006264;-0.085948385;-0.20651774;-0.004338968;-0.010646587;-0.08516592;-0.33764634;0.020453144;0.004241576;-0.35128152;0.0061059175;-0.45438567;-0.14161497;-0.02050797;0.010691687;0.28594756;0.025291836;0.19438677;-0.012577479;-0.047273457;-0.06132804;0.16515797;0.06689911;0.016374921;0.14361942;0.005698157;0.029571902;0.40184435;0.07458294;-0.21670757;-0.024434607;-0.1196654;0.22594117;-0.012821579;-0.0105484035;0.19304824;-0.3575012;0.26722014;0.0048636873;0.0014839711;0.10127726;0.0051897233;-0.0015367573;0.0012491831;0.008299591;0.003914314;0.10214898;-0.18742558;-0.04944688;0.27264112;0.28843492;0.25370738;0.21199384;-0.0245059;0.007563688;0.10886875;0.072795965;-0.01665701;0.05397025;-0.0544206;-0.0057637147;-0.017657313;0.04046438;0.010937966;-0.08941945;-0.24372815;-0.20287208;0.07469061;-0.16351138;-0.25331506;-0.4927164;-0.2583194;-0.009345948;0.0034100716;-0.04822982;0.01585398;0.39376825;-0.0012692325;0.010856369;-0.009907356;-0.24498908;-0.13910304;0.007008386;-0.045896232;-0.014704235;-0.11662829;-0.00442062;0.11867959;0.012855026;-0.03210302;-0.42912632;0.41848698;-0.0031034788;0.012827667;-0.2472508;0.096706286;-0.090855464;0.15604404;-0.015076056;0.3411579;-0.2248763;0.01962305;-0.11488816;-0.07782387;0.0074873846;0.10559265;-0.011352038;0.44944975;0.016537491;0.023944253;0.010421493;0.20953357;-0.4281773;0.3032648;0.16818;-0.021009246;-0.2991045;-0.0054879133;-0.0029078017;-0.074708015;-0.09163646;-0.011454426;-0.07096444;0.046824154;-0.23011865;0.0064120623;-0.019359626;0.3078586;-0.12676379;0.12616041;0.0215195;-0.0016909221;0.25169846;-0.004763839;0.009416239;-0.12071465;0.17352048;-0.20993167;0.08954638;-0.091791406;0.22759064;0.19252093;-0.13909036;-0.0037864298;0.21756719;0.0046010194;0.23299864;0.025999138;0.014268066;-0.0089366855;-0.32690465;0.11071152;-0.15862074;0.0042268545;-0.018063996;0.010318006;-0.10383812;-0.01204344;-0.2448215;-0.0020864748;-0.12563424;-0.022093965;-0.16337435;-0.07889699;0.07000375;-0.08322923;0.0018484362;0.010088394;-0.0073602046;-0.008780996;-0.20137978;0.09968901;0.06900956;-0.19099437;0.15075955;-0.17998198;0.047119364;0.0058306386;-0.17353626;0.0034117608;-0.007870668;0.1639542;0.0046288003;0.07562746;-0.01105717;0.012129785;-0.04061892;-0.08396985;-0.20533684;0.065600686;-0.10743586;-0.0049210056;0.0620993;-0.029298326;-0.04713709;-0.051924955;0.013544385;-0.08040301;-0.03130613;-0.06958468;-0.010620995;-0.023411663;0.09664405;0.45664528;-0.0067581204;0.20191446;0.023060715;0.250701;-0.24944758;-8.6849075e-05;-0.1144211;-0.010654805;0.12577851;-0.0063492698;0.019326836;-0.0031968255;-0.4783615;-0.020420587;0.010341771;0.46039486;-0.15469667;-0.07521107;0.10562642;0.06306325;-0.021780336;0.19817753;0.011616182;0.04970457;-0.030758753;-0.0133690545;-0.010961965;0.15590554;-0.13578254;-0.272402;-0.015044274;0.13542373;0.2915322;0.18775831;-0.15744095;0.2285684;-0.06029069;0.31035367;-0.40984792;-0.5104244;0.010685898;0.15176444;0.40249935;0.4374137;-0.046667255;0.025965728;0.15060101;-0.0023375151;0.17703007;0.020999392;-0.55029345;0.0014366639;0.0078122914;-0.15251155;0.020895088;-0.003779457;-0.004040871;0.032679453;0.0061793276;0.15954767;0.003225499;0.057447474;-0.19183978;-0.05204129;-0.21904331;-0.080972515;-0.21169166;0.016328378;-0.38499966;-0.1392835;0.16888107;0.028152723;0.031257205;0.0126517685;0.008700518;0.14277156;-0.0042010583;-0.014588576;0.01764801;-0.0302618;-0.0120601365;-0.3290125;-0.17998025;-0.0703174;-0.040114157;-0.020022428;-0.018570589;0.008195622;0.19102725;-0.0078055602;-0.12586142;-0.000668916;0.29952613;0.3565153;-0.0402038;-0.038245942;0.009324951;-0.0003863117;0.0023235213;0.104552306;-0.006126551;0.0018911076;-0.06865597;-0.36257866;-0.0022130518;0.09361282;0.14008106;0.017665468;-0.16078345;0.07191653;-0.008520661;0.089020304;-0.0030179077;0.2779926;0.07397776;0.15819101;0.18099014;-0.47479934;-0.05535717;0.119732805;0.13107322;0.07620257;0.17070687;-0.0042988495;-0.02657344;-0.26954;-0.075585485;0.27332157;-0.027979769;0.070754014;-0.0041028317;-0.0025777733;0.018194778;0.23110719;0.00088705367;-0.23893812;-0.016258309;-0.0062435046;0.0013903538;-0.10578138;0.34266034;0.08157833;-0.20424013;0.36982632;-0.018589232;-0.24757412;5.2772622e-05;-0.045908675;-0.016124181;-0.35463467;0.019632448;-0.229401;0.2642421;-0.12661253;-0.016854463;-0.009748541;-0.14342393;0.124957584;0.08545403;-0.08127605;-0.16767748;-0.21179368;0.004361058;0.09007301;-0.0017687146;-0.0133133745;-0.004578927;-0.11124786;0.012421004;0.063647605;0.011134458;0.26634613;0.2329019;-0.24797757;-0.009890537;0.15944636;-0.016370766;0.025079861;-0.26902395;-0.017302562;-0.0010002558;0.31418836;-0.012593165;0.02179415;0.0029016517;-0.13342257;0.23429115;0.07541603;0.18845333;0.0041984;0.35849002;0.09053494;0.014601486;-0.0058236937;0.2831227;0.24120593;0.059257798;-0.17448382;-0.12195854;0.097598754;-0.17271385;-0.25319508;-0.08711328;0.0010316989;-0.12351358;0.019754115;-0.07193448;0.15239656;0.10724264;0.3022883;0.014889745;-0.013189089;0.07418697;0.26615286;-0.107095346;-0.37405595;0.033473372;-0.105225034;-0.39474642;-0.20582503;0.088554956;0.07452639;-0.0017606372;0.19349998;0.34142503;-0.0012726301;-0.004514118;0.0054842522;-0.16625252;1.9345794e-05;0.44567364;0.16806997;-0.08654763;0.07331558;-0.026012441;0.008587486;-0.013629857;-0.25274807;-0.0076077012;0.09122654;-0.00072509097;-0.22023806;0.06916023;-0.016688526;0.08449905;0.028998107;0.067398936;-0.0025109025;-0.03994991;0.17954035;0.012055126;-0.21660975;0.480914;-0.010550754;-0.120050974;0.008406385;0.11855557;0.0017768918;-0.0017617538;-0.027175635;0.050449904;-0.31973886;0.0062577566;-0.113903135;0.009478517;-0.07114242;0.013670655;-0.22503397;0.20655572;0.1723636;0.14693308;-0.04220064;0.013969136;0.043043073;0.035623286;-0.21054265;0.06211261;0.0042801;0.27467796;0.02058106;0.26865673;-8.0449696e-05;0.0023974366;0.12092651;-0.35806474;0.011185583;-0.05484038;-0.010961925;-0.0136273885;-0.007031981;0.019528043;0.011428267;0.09168228;0.008938235;0.0049151992;0.08442465;0.032342542;-0.011778496;-0.011032722;0.28717607;0.025741613;0.17669941;0.00035259884;0.08734836;-0.25880405;0.108557;-0.18411441;0.16864845;0.22146319;0.008593928;0.058705572;0.10795283;0.047915425;-0.072802834;-0.1765632;0.0056895292;-0.0004662241;0.017274832;0.30213135;-0.008038473;0.023211563;0.056750078;0.05580474;-0.0050918735;0.008916212;-0.071317814
-0.19039665;-0.055588223;-0.2791344;-0.0028213698;-0.003916941;0.117569596;-0.24506016;0.22809638;-0.0096971635;-0.07957033;0.0017074635;-0.104069255;0.07631542;-0.22198924;0.07603577;0.18705899;-0.16905902;-0.28143385;-0.0084326165;0.05513091;-0.0602022;-0.0040012794;-0.027123757;-0.40161338;-0.017330911;-0.017281102;-0.003637477;0.05539152;0.013121729;0.07165835;0.17442377;0.0010242218;0.12562847;-0.028804589;0.42183948;0.030804282;0.063573256;-0.1294324;0.1138686;0.10053033;-0.0119406255;-0.009390268;-0.15233833;0.059663583;0.00031817262;-0.16309412;-0.0056980005;0.07267848;-0.054041438;-0.0032911007;0.0022324396;-0.07480605;-0.3173476;0.0007906925;0.016373692;0.025052879;-0.0065912977;-0.21652149;0.022685392;-0.08896454;-0.0112712765;0.27522942;-0.009154453;-0.14374629;0.06248027;0.054496154;0.013908558;0.16163133;-0.22388794;-0.011027726;0.14569378;-0.022320904;-0.022495119;0.05795017;0.13940527;-0.11896592;0.001415959;-0.027800396;0.25070634;0.010648842;0.010768634;-0.041756213;-0.09590769;0.121498145;-0.0071679587;-0.19387981;-0.004898484;-0.0009259536;0.0075099515;-0.017127573;-0.0071351724;0.016646102;0.22084244;-0.2524251;0.14741398;0.21632448;0.60748374;0.038058497;0.016110992;0.122742385;0.012519662;0.26401895;0.035156716;0.014242901;0.10432744;-0.23701689;0.010649617;0.050787497;0.0103926435;-0.00495929;-0.3157339;-0.18773368;-0.18724096;0.24588804;-0.03842044;-0.12364991;-0.23944183;-0.29759088;0.00894868;0.36857766;-0.10979568;0.0023766507;0.27848375;-0.009894317;-0.003896932;0.017528161;-0.22794996;-0.33864123;0.016373536;0.21274582;0.068148226;-0.19393893;0.17203844;0.37853646;-0.01531608;0.005384088;-0.19908077;0.26130438;0.0046498664;-0.007841393;-0.28760052;0.16787311;-0.016609486;0.5277189;0.009018541;0.22770013;-0.2776586;0.0028403609;-0.36768728;-0.010713315;0.0063982047;0.083739735;0.06856713;0.69811976;-0.0076131085;-0.007583265;-0.0143999625;-0.18067111;-0.13475828;0.039950177;0.11386581;0.023303494;-0.1607372;0.017698416;0.0062743705;-0.08669421;0.15881002;0.005057829;0.101279214;0.17188536;-0.41955832;0.016068501;0.009172342;0.076751694;-0.13329305;0.1495905;-0.005751683;0.0028639436;-0.104051724;0.0067175627;-0.0073644654;-0.07576698;0.2330846;-0.24481584;0.075296804;-0.19315583;-0.129495;-0.015459765;0.071886465;0.011826378;0.030050822;-0.015600192;0.23596509;-0.02801419;-0.012178604;-0.071940094;-0.20405418;-0.024826936;-0.1314142;-0.0050804242;0.09777917;-0.07396558;-0.074635476;0.01314127;0.17219104;0.006012056;0.07787764;-0.0012045777;0.055461112;-0.09560237;-0.020162197;-0.3494113;-0.0044272137;0.006174099;-0.0017693376;-0.0138271535;-0.035364375;-0.065936536;-0.07387473;-0.26465952;-0.13825208;0.04968858;0.20166543;-0.0022278207;-0.02391882;-0.012290418;0.0090573635;0.0662433;-0.014653424;-0.100075215;-0.04969987;-0.0011285088;-0.09521406;-0.26035175;-0.276691;-0.26498944;0.056706224;0.0070207617;0.19512147;0.2521859;0.14885272;0.04249231;-0.0063387714;0.0038917165;-0.14689784;-0.031003885;0.0047275866;-0.010478048;0.23495916;0.4154723;0.01035396;0.02620901;0.06476032;0.14512627;-0.08801164;0.02533359;-0.31663308;-0.0020224373;0.010155828;0.041955363;-0.01897426;0.012948346;-0.14027517;0.06311458;-0.106597915;0.31150502;-0.12786748;-0.06813575;0.19704767;0.07600056;0.10299055;0.056075193;-0.004558112;0.2574807;-0.04262721;-0.005997374;0.0029564232;0.23409149;0.11481119;-0.18368585;0.15789714;0.16295801;0.36495227;-0.19232371;-0.26276863;-0.044728678;0.11283814;0.1310937;-0.2980705;-0.3020843;0.007804696;0.25600758;0.27652797;0.25617316;-0.013383004;0.12710012;0.091329664;-0.020688824;0.100095674;-0.010056371;-0.53064317;0.016419346;-0.0016634663;0.01719976;-0.0045891004;-0.025909415;0.005331031;-0.017276987;-0.012773108;0.07712648;0.005814002;-0.070903;-0.37737218;0.054153014;-0.20682041;-0.100855;0.042699065;-0.012428043;-0.16274916;-0.10260312;0.13135193;-0.22529227;-0.06488343;0.00035645926;-0.060485207;0.17793193;-0.009988197;0.004872229;0.0054006367;-0.32682893;0.013501355;-0.30067486;-0.014708118;-0.037725702;-0.042376366;0.0220033;-0.12654637;-0.013809665;0.48525372;-0.004032534;0.033603266;0.0028553195;0.30240256;0.10398462;-0.21213757;0.043252714;-0.0108381715;-0.0037404562;-0.012407488;-0.13653925;-0.0049543804;0.06536648;-0.14564112;-0.41310588;0.006712915;0.0030533294;0.18341005;-0.23917077;0.020874277;0.13751955;0.0044417484;0.22994784;0.012714021;0.42051804;0.019365929;0.16150194;0.029874407;-0.68525934;0.007004783;-0.028854577;0.012134858;0.17957602;0.12445934;0.0040820604;-0.18424396;-0.15577538;0.02900325;0.30263004;0.0049942867;0.097246595;0.014784678;-0.011221705;0.0027850703;-0.051564;-0.0038272352;0.050895486;0.0016284338;0.13258615;-0.18360241;-0.23426463;0.06691927;0.22031385;-0.13157734;0.23698363;0.0049841553;-0.032082334;-0.004087185;0.16690288;0.017643375;-0.16128904;0.01075202;-0.20995586;0.32804942;0.09032199;0.22049192;0.14534448;-0.1511817;-0.1493038;-0.03084509;-0.118843235;0.104501344;-0.21441656;-0.010850841;0.028199896;-0.0063528633;-0.04069664;0.0014854163;-0.058520842;-0.008516506;0.03864694;-0.01431805;0.2175518;0.13746251;-0.49843898;0.005995212;0.10619591;-0.0028583605;-0.0158335;-0.21841426;-0.22298706;0.011531532;0.21201593;0.015285309;-0.030495064;0.003940439;-0.26283607;-0.09556131;0.06433887;0.26648414;0.005101275;0.35271072;-0.17496677;-0.036041964;0.0120461965;0.19534306;0.21958254;0.14792675;-0.021472929;-0.27674165;0.18562001;-0.11607755;-0.069364205;-0.5261564;0.011408328;-0.30862063;-0.001675444;-0.28926432;0.2117618;0.12482635;0.06260342;-0.020050945;-0.0511604;-0.06663289;0.2773219;-0.1397341;-0.35037798;-0.05318759;-0.21280089;-0.39334413;-0.3056625;-0.05317558;0.0076669073;0.0029790208;0.20202023;0.18042964;-0.015249999;0.009997637;0.011902981;0.013229234;0.020589346;0.48596528;0.29617545;-0.19256409;0.03686082;0.018794576;-0.01693761;0.07461506;-0.2291394;-0.0981215;-0.17546517;-0.0035426794;-0.32214573;-0.1822078;-0.037357893;-0.029423794;-0.05772882;0.17559549;-0.0069803945;0.12873046;0.18202342;-0.009733105;-0.13305058;0.2591173;0.015099125;-0.13163732;0.004687991;0.03475912;0.019206712;0.00041411805;0.0013006896;-0.09139716;0.060408134;0.0060602585;0.10490411;-0.008366078;0.010326867;0.011440795;-0.056773923;0.3222814;0.11705828;-0.19633852;0.0077275117;-0.029424531;0.28124937;-0.1381069;-0.064675435;0.08429269;0.019110646;0.22843572;-0.0032321704;0.038403653;-0.0009829928;-0.005678934;-0.007698346;-0.44409445;-0.013330336;-0.09597315;-0.0012828326;0.010918729;0.23990226;-0.093129136;-0.00026319516;-0.11944487;-0.0010291621;-0.02125381;-0.09214318;0.043604225;0.01155026;-0.065884024;0.2537235;-0.0068387105;0.18294336;0.013882699;-0.077269144;-0.23517518;-0.02422572;-0.29844618;-0.18475063;0.2562668;-0.002326876;-0.014233742;-0.030179914;0.28487843;-0.13846402;-0.18153532;0.0894896;-0.005338452;0.13269985;-0.17136869;0.01780543;0.11085498;-0.3850589;0.17722633;0.0023433913;-0.0034357733;0.0013923885
-0.0024125797;0.1740967;-0.18648514;0.20852385;0.0021626723;-0.07461052;-0.29015225;0.11947631;0.005255114;-0.09297565;0.0018287814;-0.26394036;0.016368454;-0.25996444;0.053861406;0.06551757;-0.3675246;-0.23818292;-0.16487981;0.10382736;-0.072267644;0.00011140869;0.11906324;-0.2244582;0.09786062;0.014488255;-0.0066996724;0.020411722;-0.076932535;0.06657906;-0.017046545;8.252897e-05;0.12670648;-0.1418367;0.27164316;-0.232729;0.012871886;-0.34242004;-0.05407334;-0.013747946;0.0072935275;0.005452383;0.11065018;0.17170696;-0.011236579;0.12695828;-0.004136797;-0.12740174;-0.40349945;-0.009937495;0.0050349073;0.25629503;-0.25617722;-0.009684147;-0.028856274;-0.13580333;-0.011625415;-0.23273183;-0.025744824;-0.23855804;0.011259495;0.18466705;-0.0070792004;0.1410035;-0.0021925266;0.10794603;0.014664884;0.11543778;-0.21887651;-0.0031767066;0.029384993;0.012780247;-0.005856412;-0.15350397;-0.06479933;-0.10240587;0.0031226627;-0.05848042;0.36052576;-0.0105747;-0.009408084;-0.1079886;-0.12928456;-0.05512558;0.011689971;-0.20424478;-0.10830289;0.011080352;0.0010857355;0.012244504;-0.008372947;-0.12707686;0.28923336;-0.48518932;0.18389294;0.0971315;0.32371858;0.11112084;-0.20179734;-0.03808686;-0.016339509;0.0725695;0.18997538;-0.013577254;0.0050009335;-0.18008588;0.0054631545;-0.0865506;0.085126385;0.0056316056;-0.27846172;-0.03131427;-0.26809597;0.11461395;0.0661448;0.009989132;-0.22794282;-0.31789082;0.012735342;0.18614435;-0.15026721;0.0072660297;0.25618303;0.0073614093;-0.015062362;-0.017584082;-0.48328108;-0.18691371;-0.0148970885;0.3207294;0.081665605;-0.2031172;0.21388973;0.32018006;-0.0074087796;0.040437777;0.083494894;0.006805833;-0.003771455;-0.0008235836;-0.057302915;-0.10857819;-0.059135832;0.18684596;-0.006736907;0.115962915;-0.13039266;-0.01482192;-0.5669438;0.029631935;-0.008790201;-0.057209097;-0.021977646;0.37912402;0.0020935463;-0.0070652114;-0.015095247;-0.032155428;-0.07003238;-0.1734844;0.039481286;-0.02046566;0.009849265;-0.01218808;-0.009757047;0.093979046;0.23685502;-0.005241436;-0.04409348;0.19400223;-0.30647266;-0.0026339144;0.00406958;0.051443063;0.14951102;0.097823046;-0.0051300647;-0.0046832105;0.11479904;0.002071022;0.01174312;-0.063863195;0.09799767;-0.17582472;0.3763805;-0.18916629;-0.16756287;0.061041746;0.22820197;-0.0191638;0.2824079;-0.0019202695;0.3678984;0.007274338;0.013526221;0.16701911;0.08417309;-0.13181834;-0.13631353;0.016431056;0.27878723;-0.029144363;-0.2631587;0.0016729314;0.09054079;-0.006011554;0.036424726;0.013101872;-0.24219939;0.04640752;-0.023565205;-0.088875085;-0.0077721863;-0.018858794;0.005123485;0.00883454;0.1406637;-0.33515382;0.15105975;-0.2341677;-0.012960414;0.27646402;0.124461666;0.0020847253;-0.011861916;0.01720466;0.007819233;0.0874436;0.011624813;-0.057612766;-0.19890669;-0.017035864;-0.12510228;-0.029800767;-0.13908318;-0.058278758;0.13721272;0.010926781;0.2048688;0.03502479;0.18490279;-0.05826746;-0.0095141055;-0.1135132;-0.2864846;-0.0046779634;-0.008024256;-0.074065045;0.18023992;0.49307534;-0.003101174;-0.025308719;0.24004604;0.007625118;-0.080992624;0.023900455;-0.43481734;-0.008228047;-0.0054900777;0.057916597;0.0057707373;-0.009079835;0.03426801;0.10428548;-0.12925805;0.29643422;-0.023434661;-0.026328152;0.14233226;-0.19414271;0.2303452;0.11525742;-0.0019267437;0.32295266;-0.15014674;0.015006223;0.0065202867;0.049706593;-0.18860075;-0.037291914;0.121714;0.017411178;0.3845324;-0.45927885;0.0969071;0.0048640105;0.13391769;0.05099429;-0.1757164;-0.46798727;-0.002540104;0.27764422;0.41735008;0.13002212;0.24371374;0.20795457;0.09982788;0.017665837;0.060213625;0.0080159865;-0.43942878;-0.01152563;-0.028416015;0.021285938;0.003140959;-0.04130909;-0.006732207;-0.010237667;0.013114189;0.08559386;0.011343981;-0.00089738047;-0.3261519;-0.0022194234;0.19090623;-0.18461427;0.058976714;0.011862478;-0.093324594;-0.17925777;0.074581474;-0.08190548;-0.22464943;-0.016931653;0.100924686;0.38881117;-0.047189068;-0.0029205969;-0.015172632;-0.1655615;-0.015125111;-0.28596488;0.031794935;-0.11155659;0.17562057;-0.0016929739;-0.16016124;0.011683949;0.056833297;0.013704071;0.018268483;0.0041888305;0.4569783;0.088104;0.13534197;-0.034850925;-0.0046753637;0.008480565;0.026900165;-0.28230348;0.0049877525;-0.018296728;-0.12424435;-0.2145475;0.010544114;-0.29862615;0.08351804;-0.37463546;-0.032057635;0.10553713;-0.008615689;0.23967482;0.00039992516;0.39474928;-0.0033288293;0.12394933;-0.05091709;-0.71050954;-0.04786029;-0.13617314;0.16692999;0.071366094;0.27758104;-0.004932602;-0.09305346;-0.08664472;0.12209993;0.29257005;-0.005238126;-0.092916116;-0.017512487;-9.136463e-06;-0.0075453795;-0.23795675;0.014705968;0.18197894;-0.0060238205;0.31819102;-0.31428888;-0.060111597;-0.24534346;0.03076647;-0.09774479;0.2291319;-0.0033328037;0.010550071;0.015316481;-0.033653118;-0.024984691;0.05607707;-0.026014572;-0.0007566312;0.23082274;0.2127646;0.16912302;0.17451134;0.11464897;-0.021472374;0.35008785;-0.1267511;0.36670527;0.06499723;0.007672983;0.016405528;-0.006230187;0.10680161;0.00970733;0.2128836;0.0054510515;0.31681517;-0.0032134873;0.013866379;0.14171325;-0.32316422;-0.008846851;0.1076639;-0.0022633846;0.0051410557;-0.017780513;-0.42545247;-0.009860873;-0.03542057;0.0028520562;0.015777297;0.0003167647;-0.2761675;-0.1941366;-0.0016243979;0.00953366;0.0019385013;0.33481076;-0.38982543;0.05922278;0.006062431;0.23015518;0.018134985;0.18166365;0.13228385;0.04879873;0.3102129;0.2827748;-0.3529306;-0.4180004;-0.024439536;-0.4469795;-0.018494036;-0.34226057;0.028958427;-0.06394691;-0.030799441;-0.1267518;0.015313782;-0.01436365;0.36863163;0.022563858;-0.28463235;-0.1701919;-0.21617128;-0.38266647;-0.10471343;0.009318583;-0.18046845;0.009760042;0.18409845;-0.05112439;0.0194548;-0.027195388;-0.011301843;-0.08044421;-0.015171625;-0.0049729724;0.5064079;-0.106842756;0.21603133;-0.016902259;0.00379218;0.1717542;-0.29013547;-0.012031318;-0.24734259;-0.009139204;-0.16136988;-0.024680456;0.015606243;0.060203124;-0.062670514;0.19267268;0.013280757;0.14145517;0.32749686;-0.006188999;0.041495413;0.16664742;-0.0017346655;-0.16281708;0.0044998573;-0.081974156;-0.030420495;-0.0062144604;-0.0006447539;-0.072473355;0.081201404;-0.003786339;0.10911285;-0.014143982;0.043234937;0.000609178;-0.07246219;0.28765464;-0.022774098;-0.1028115;0.06618329;0.013737393;0.29382396;0.09176886;0.20004125;0.0054852194;0.01099322;0.3010955;-0.00411581;0.07764304;0.017841002;0.004445689;-0.1630309;-0.3566743;0.016258504;-0.103965886;-0.007620257;0.0028261992;0.09686436;-0.0742626;-0.003460478;-0.18342127;0.009218591;0.0030777974;-0.016617468;0.10534632;-0.011061185;-0.019891834;0.21254885;0.036624778;0.10490271;0.0030372625;-0.0994223;-0.1578943;0.06658762;-0.4697355;0.022540404;-0.14615259;-0.0007622649;-0.059008483;-0.091176845;-0.006916497;-0.45273173;-0.2628788;0.07884299;0.012506215;0.022741122;-0.04401157;-0.007630696;0.03474444;-0.14303605;0.122600995;0.0008606606;0.003279782;0.051454987
0.027502371;0.11377081;-0.022910537;0.43037575;-0.0021473032;-0.11512198;-0.3169184;0.040131498;-0.003958086;0.18842074;0.000116982614;-0.2329454;-0.11463421;-0.21752991;0.038227126;-0.059055753;-0.25899523;-0.11997703;0.0061878534;0.1439923;-0.14337711;0.010923324;-0.024841536;-0.038877264;-0.041896135;-0.0013843683;0.015174394;-0.12481294;0.0043434543;0.10140102;0.148106;-0.0005456458;-0.11216323;-0.061415136;0.5500299;-0.29203895;0.15236402;-0.24772714;-0.19877073;-0.042515766;0.004775094;0.010253317;0.090700366;0.062035426;0.005147663;0.3187031;-0.009327191;-0.013039818;0.016311083;0.0049578086;0.005071153;0.18498884;-0.20607343;0.0002268678;0.02808061;0.13386808;0.006947469;-0.15584429;0.030253155;-0.14495422;0.0030065188;0.14764416;0.013062894;0.24575683;0.0074285623;0.3111591;-0.0018978915;0.026933182;0.18586971;0.022321355;0.22039212;-0.00021685433;-0.011165645;-0.032386083;-0.05229147;-0.06507123;-0.0067935186;-0.122556;0.028431151;0.013079107;0.0024941699;0.09075706;-0.059543405;-0.17285857;-0.005274175;-0.23434882;-0.24508506;-0.0046202587;0.003985685;0.0019908443;0.013426633;-0.13523999;-0.010075927;-0.37488735;-0.023308255;-0.30404186;0.09873503;0.0810468;-0.10307264;-0.34204504;-0.0036880798;0.27521995;0.053123128;-0.012225215;0.003240543;-0.14473407;-0.018677132;0.08447259;0.05378303;-0.00943307;-0.044639435;0.11910791;-0.38863924;0.0979012;0.25375935;-0.036677185;-0.105189346;-0.38420308;-0.01942059;0.42139333;-0.15518765;-0.0028401588;0.10638006;-0.00018041674;0.009917775;0.010334729;-0.36788133;-0.32797134;-0.00467917;0.17690344;-0.038545445;0.05606326;0.23066442;0.13866627;0.0013536215;0.11660526;0.1863213;-0.015091819;-0.01340858;-0.0027696828;-0.024887383;-0.21685834;-0.24097441;0.18056758;0.016421815;-0.089193895;-0.17246558;0.012872197;-0.54988456;0.13958195;0.0058636484;-0.0012985719;-0.008617367;0.1982725;-0.0020849616;0.00062922057;0.014457408;-0.27115127;-0.23821008;-0.11267772;-0.06132601;0.026791941;0.06976062;0.010376548;0.0035424943;0.04169588;0.36424807;0.0005671;-0.025353178;-0.18740201;-0.2755655;0.007831482;-0.014663322;-0.093423;0.11786424;0.123647794;-0.0071476107;0.00032626913;0.07634593;0.009528504;-0.01228147;0.00858403;-0.012605948;-0.082296826;0.22106767;-0.3219546;-0.12017071;-0.00982214;0.288764;0.005848147;0.4204841;0.015511201;0.548109;0.006032474;0.017286079;0.07722561;0.3215245;-0.22866705;0.060185093;-0.012761927;0.3082901;-0.039495446;-0.2582116;-0.00976012;0.3368006;0.007141045;0.2747536;0.005168808;-0.51815003;-0.009010891;0.054649465;0.118464515;0.0016130554;0.029719194;-0.055568434;-0.00028409262;0.050446156;-0.5638761;0.1989607;-0.09460357;-0.07060017;0.07890015;-0.09412898;-0.021866387;-0.08062831;-0.018318892;-0.004747614;0.18782309;-0.00919787;-0.18172587;-0.14130329;0.01670731;-0.1444512;0.07993536;-0.12141434;-0.070935;-0.0867383;-0.015426282;0.17649797;-0.044219103;0.19597411;0.020973204;-0.0016930464;-0.3005208;-0.13853663;0.017407324;-0.019373927;0.026471412;0.060111947;0.40342492;-0.00434977;0.15555336;0.39149544;-0.225883;-0.099899374;0.028668165;-0.30082712;0.01692155;0.19467051;0.47473428;0.007127848;-0.008329192;-0.19276255;0.07634962;-0.080445655;0.3201017;0.02855059;0.026718121;-0.41341695;-0.27888626;-0.054227803;-0.013825467;-0.013969152;0.0502738;-0.022985274;-0.019160464;0.0036275731;0.08862159;-0.25369513;0.041600436;0.019477503;-0.19740574;0.2466304;-0.23596516;0.04041528;0.35233372;-0.116622746;-0.1051271;0.2705252;-0.13961007;-0.0014839533;0.13984145;0.21183029;-0.09139025;-0.025813911;0.08070897;0.0779577;-0.024018537;0.029056117;0.0040463526;-0.21194646;-0.0013019408;0.03346936;0.021815766;0.004507479;-0.009497412;-0.004513618;0.03172053;0.008834624;0.0691084;-0.0037716317;-0.071676455;-0.55286574;0.2319713;0.122037426;-0.15877154;-0.08927359;-0.008200028;-0.28071246;0.054712556;-0.07528052;-0.024832398;-0.4424677;0.015924117;-0.059904326;0.3010683;0.005413595;0.0006504347;0.0068654157;-0.07247708;-0.0004056376;-0.28348577;0.21292435;-0.20287982;0.26615363;-0.00750119;-0.036534235;-0.006118616;-0.23949608;-5.6435387e-05;0.085748404;-0.0043463525;0.22442985;-0.053636946;0.24404885;0.030787397;0.0028014511;0.00068429776;-0.0040891464;-0.16721869;-0.015774317;-0.14237261;-0.2545943;-0.16636404;0.0032521267;-0.2304337;-0.031780384;0.042511765;0.13390125;-0.03345976;-0.00021844696;0.0466915;-0.005248688;0.24201332;0.0646439;0.042805754;-0.0768784;-0.5282769;0.040842213;-0.1081832;0.24435623;0.0935427;0.155862;-0.0052773985;-0.084935546;-0.14913303;-0.051938623;0.3454138;-0.014051033;-0.02028061;0.0013424429;-0.0013151687;0.00095809036;0.05652635;-0.009400401;0.026061958;-0.006147356;0.30900484;-0.22878821;0.21512789;0.28214255;0.19197622;-0.007471913;0.09057876;0.01596261;-0.035934392;-0.004399005;-0.13661268;0.022701062;-0.059380986;0.01139597;0.026837248;0.055312067;0.13962758;0.0044715228;0.1981003;-0.09926315;0.06632893;0.43732876;0.1318824;0.25746572;0.1080151;0.0005825951;0.0289743;0.0076395078;0.20612758;-0.0053113718;0.13814032;-0.016910173;0.056053285;0.009012864;-0.0450663;0.20901625;-0.37005368;0.026770568;0.24742037;0.08284934;-0.012276794;-0.06253926;-0.19274364;-0.0022325416;-0.013310376;-0.014390981;-0.07160373;-0.006270059;-0.05522129;-0.044050224;-0.178448;0.24732968;0.018509278;-0.1121203;0.09452753;0.21912543;-0.014849836;0.43186912;0.23891436;0.21482189;0.027451726;-0.017813353;0.2931292;0.21129967;-0.081483155;-0.30011266;0.02559588;-0.26817927;0.021812303;-0.53187543;0.020160288;-0.001390325;-0.37273926;-0.075504266;-0.041779224;0.13858303;0.02752478;0.18401349;-0.46943521;-0.13982618;-0.2550931;-0.24479865;0.10718262;-0.0616503;0.028062861;-0.015696589;0.09914035;-0.43704253;-0.012837235;0.017815761;0.00787585;0.10856742;0.010125276;-0.04260708;0.2528907;0.12932457;0.33632255;0.006374029;-0.0033556155;-0.0035603573;0.046199612;0.17284021;-0.23319499;0.006061388;-0.050904084;-0.044245977;0.033624686;0.4008299;-0.10604776;0.14264245;0.010757619;-0.030813474;0.29155648;-0.010544578;-0.10974931;-0.11701502;-0.0001512752;-0.109136626;-0.0071314573;-0.06909395;-0.011599383;0.012255941;0.0061227344;-0.03180389;-0.13761501;-0.004191648;-0.07858374;0.01451587;-0.067121446;-0.019886797;-0.13670218;0.007909696;0.15744041;0.11810418;-0.27871054;0.001992521;-0.124907784;0.1428649;0.18316019;0.088529795;0.02934593;0.21925335;0.00038894886;-0.044734754;-0.024918862;0.008421802;0.040966377;-0.369798;-0.0061154594;-0.15597641;0.0019874915;-0.018775713;-0.0736094;0.0308793;-0.014456247;-0.02561153;-0.010852713;0.0036562628;-0.035550434;-0.093653254;0.020312086;0.06450635;0.020703396;-0.03956388;0.1302897;-0.01576398;-0.16596629;-0.105433434;0.032930985;-0.21532439;0.105383545;-0.055649217;-0.003860161;-0.013303487;-0.05451183;0.00045241741;-0.3769367;-0.1827252;-0.122287095;-0.017569318;0.022916354;0.15215644;0.001496406;-0.042827476;-0.094018735;-0.0064933747;-0.007909566;-0.009630585;-0.05600599
0.3099851;0.21769911;-0.018145505;0.44697294;0.0068732784;-0.1131731;-0.0013515813;-0.035606254;0.009726916;0.20359266;0.009692559;-0.17163703;-0.1882513;-0.15048207;-0.075676955;-0.12749164;0.041326877;0.12424386;-0.016551174;0.08929044;-0.30618203;0.00684327;0.0924248;-0.16916746;-0.042471584;0.0020676919;-0.01137622;-0.12166326;0.042397242;0.08453238;0.032937538;-0.0053567095;-0.41188052;0.052526347;0.04648364;-0.37690175;0.08935854;0.03256358;-0.24207707;-0.028824013;-0.011707463;-0.0021929278;0.2093999;0.17664835;-0.00042191887;0.32931498;0.010208121;-0.13436057;-0.046035565;0.0024123944;-0.018020364;0.054225255;-0.28210816;0.0014360907;-0.011637319;-0.0062836437;-0.009263377;-0.25981182;0.035061147;-0.12678926;-0.0058866236;0.11808187;-0.004694111;0.057115786;-0.2888795;0.31924105;-0.046460006;-0.009716779;0.08477734;-0.003235556;-0.0003672476;0.007848489;0.010255406;-0.10303744;-0.24309178;0.1922033;0.008595956;-0.027258795;-0.31651333;0.0007877205;-0.016999675;0.2741565;-0.06360941;-0.3225567;0.006159459;-0.030508338;-0.07594992;0.0130433915;-0.007522331;-0.014081038;0.0030975468;-0.048727833;0.013671148;-0.32238427;-0.03694911;-0.39538535;0.18966255;0.13199826;-0.10499925;-0.47010252;-0.0043557948;0.11491247;0.14357772;0.020179007;0.14325465;0.059955567;0.025153885;0.09718927;-0.07800587;0.012142757;0.29157156;-0.018960737;-0.32605004;0.017643642;0.28341576;0.004786928;-0.3259879;-0.12611121;0.011126717;0.22043844;0.00994017;-0.0018229757;-0.04401849;-0.0017100796;-0.010381954;-0.014346026;-0.5018882;-0.3319466;0.0069662547;0.09265841;-0.10085037;0.4403785;0.06599083;0.13226002;0.013568195;0.060795076;0.014050646;-0.036835756;0.012490353;-0.0059411833;0.30257046;0.011601312;0.0058410084;0.08848004;-0.0067999316;-0.23914059;-0.2340294;0.004650978;-0.32177243;0.089723565;-0.0011746562;0.07549029;0.005285723;0.2235422;-0.007361007;-0.00926475;0.0056051426;-0.5612664;0.06284301;-0.21583039;-0.061665602;-0.01794217;-0.07076515;-0.0018069692;-0.0023560345;-0.13893877;0.48508114;0.004917955;-0.046699338;-0.09641049;-0.3113166;-0.0061131357;0.012779069;-0.19408788;-0.08316973;0.030706692;-0.00076183124;0.009060001;0.12895358;-0.0029675555;-0.0006503632;-0.110035464;0.031587053;-0.04844324;0.30463174;-0.33532032;0.05444522;0.0068547744;0.30528766;-0.0046752496;-0.15229806;-0.005659903;0.3314556;0.006787161;-0.013264496;-0.07051111;0.0953554;-0.067457885;0.095415056;-0.004986908;0.13270545;-0.10261586;-0.05382712;0.018702952;0.17405298;0.009564855;0.38603964;-0.0138658825;-0.45497805;0.09866622;0.021293642;-0.068302244;-0.0116845565;-0.024464037;-0.069304295;0.004236734;-0.23027039;-0.5004347;-0.002092025;-0.037083354;-0.033243235;0.07196597;0.1327023;0.011492143;-0.051829007;0.0034405927;-0.01245323;0.18794253;0.0031287218;-0.2039936;-0.03439685;-0.0017070504;-0.25159848;-0.0752118;0.09794664;-0.36373663;-0.18868835;0.015295912;0.1460479;0.14871757;0.14006767;0.045283236;0.0013031475;-0.2602874;-0.13915797;-0.008292221;0.011473892;0.0043118554;0.020468388;0.31765622;0.006611637;0.18202715;0.23955628;-0.5285969;-0.28545925;0.054567017;0.029547226;-0.0023888121;0.10604355;-0.14561735;-0.006652961;0.010210165;0.04117241;0.14353696;0.0929664;0.038767267;-0.07880681;-0.06032163;-0.30476093;-0.009557323;0.17369157;0.052377105;0.0036335741;0.3466984;-0.24250668;-0.002642605;-0.004072596;0.20050624;0.035843924;0.29680112;0.3318342;-0.40079987;0.21862711;0.11444638;0.094645195;0.06285438;0.12015607;-0.35593113;0.24955122;0.0931373;-0.004119243;-0.004948923;0.0006871028;-0.27066332;0.17414863;0.09451945;0.20973477;-0.012250769;0.24194403;-0.007308183;-0.24129188;0.0016444314;-0.0075322213;0.17596243;0.0011083292;-0.00023465461;-0.0061370046;0.0034065903;0.013058421;-0.08388888;-0.010851425;0.059554134;-0.3096059;-0.058696374;0.1522089;-0.09951162;-0.16687578;0.0072172307;-0.20423852;0.12194714;-0.25588107;-0.023522135;-0.7757497;-0.0019021666;0.0035613382;0.110594586;0.018996138;0.007954439;-0.008552807;-0.09785825;0.009249264;-0.22383521;0.06510506;-0.24502331;0.3987394;-0.006817907;-0.09301718;-0.00027309166;-0.36168313;-0.0059270896;0.022831736;-0.008145229;0.22365126;-0.12944049;0.3606791;-0.08285602;0.014806333;-0.0037100178;-0.013564343;-0.25841597;0.013142231;-0.17487341;-0.21223803;-0.070706286;-0.022382934;0.0038506414;-0.13086793;-0.0517399;-0.0861199;0.051369615;0.022874033;0.008822927;0.017836154;-0.06702276;-0.1574737;-0.0014607705;-0.18561327;-0.21552162;-0.031757753;-0.044424;0.3952575;0.102967426;0.3126439;0.008053287;0.0073434887;0.053006582;0.053933993;0.31230918;0.01608587;-0.16810729;0.00839719;0.011293331;-0.020867359;0.22108294;-0.004243468;0.19531544;0.017625077;0.13081779;-0.36935937;0.052335545;0.021722376;0.5116351;-0.07050712;-0.12678994;-0.020015636;-0.12911713;0.010622987;0.088953905;-0.002860567;-0.18636532;0.028507935;0.16493136;0.077098005;0.3028038;0.16157877;0.22139098;0.22800228;0.112704426;0.38868624;-0.08995524;-0.12996213;0.26150665;-0.0018933329;-0.023178924;0.0062042642;0.2674362;0.00035593193;0.08587641;0.014783704;0.09072638;0.0061714426;0.22470097;0.15316734;-0.35872528;-0.020735601;0.113489814;-0.05021541;0.0071150446;-0.07077149;-0.3277314;0.00805311;0.12501599;-0.0016670243;-0.007322188;-0.005110628;-0.011311103;-0.0652229;-0.38269383;0.41021594;-0.01918776;-0.0950281;-0.14099506;0.12384876;0.010214239;0.5100721;0.22466573;0.11307282;0.2529125;0.029667763;0.17569302;0.041874185;0.21002254;-0.030497167;-0.005712204;-0.08068207;-0.022012414;-0.47338372;-0.13056847;-0.122193225;-0.3057564;-0.2265542;0.024869151;-0.020241803;-0.19146442;0.058665324;-0.4616463;-0.26105505;-0.0018416089;0.30648386;-0.21897538;-0.076271206;-0.21747455;0.0094435355;0.034722894;-0.20392998;-0.0011818318;-0.0029516106;-0.0015463625;0.13122;0.010980726;-0.05059066;0.21343854;0.08413772;0.44380465;0.004436061;-0.0026008345;-0.13612203;-0.054127667;0.12942734;0.095015645;0.017012214;-0.20276918;-0.035940588;0.04115794;0.09868178;-0.0014954958;-0.08332229;-0.018112727;0.0051941;0.29720604;0.013587464;-0.026583131;-0.50659657;-0.015198513;0.13008271;-0.011324641;-0.14352076;0.009879765;-0.0012260273;-0.009671579;0.108129196;-0.2754742;-0.0068192007;0.06632224;-0.00558845;-0.15789615;0.013904073;-0.033300593;-0.07634454;0.10387112;-0.03619603;-0.2188045;0.006372562;-0.2128945;0.2983091;0.20426552;0.01958536;-0.06338557;0.23171106;-0.006063958;0.07683123;0.012822066;-0.011358986;-0.068807185;-0.3317615;0.007071322;-0.13809085;0.01681597;0.013330966;-0.19123547;-0.18570645;0.0038312376;-0.065522306;0.0018231727;-0.0052602533;0.13916038;-0.3095041;-0.008671183;-0.20950344;-0.29335046;0.016393501;0.1470263;0.0058966996;-0.21088025;0.086322114;-0.04555344;-0.14033061;0.16175076;-0.26341304;0.004631467;0.037619088;-0.28692;-0.06095385;-0.20553567;-0.07359487;-0.1853734;0.0022470595;0.093765035;0.2565385;-0.01112397;-0.013166321;0.057985418;-0.07300499;-0.002495662;0.009947456;-0.09266651
0.038756955;0.068011306;0.011058885;0.3923361;0.012675495;0.17008089;-0.27957863;0.07354723;-0.006851033;-0.04966219;-0.002786357;-0.15699492;-0.13498943;-0.020598937;-0.21732514;0.095302984;-0.115081675;0.17956133;-0.06500068;0.12621517;-0.20294999;-0.029548362;0.0015734643;-0.38613525;0.06834203;-0.0010814075;0.00031229554;-0.15186568;0.18932936;0.117900856;-0.041278303;0.003576858;-0.07510597;-0.0713056;-0.011119899;-0.16084473;0.038327742;0.21933214;0.034871638;0.15226632;0.009120209;0.009067208;0.21624984;0.32809365;0.0030315742;0.23831712;-0.0037033956;-0.32717907;-0.48585135;-0.007838777;0.012958622;0.12628546;-0.22658499;-0.0022204856;-0.008113586;0.04323919;0.005873575;-0.20053405;0.005334331;0.011868561;0.0066714683;0.18036257;-0.0055441973;-0.11190321;-0.06676589;0.3277618;-0.0116244415;0.094503835;0.16524982;-0.010194005;-0.12125146;0.00076273206;-0.003757064;-0.22325304;-0.21953918;0.11507375;-0.004369949;0.12858969;-0.39173302;-0.011222111;0.0067016957;-0.060271334;0.052467138;-0.33199552;0.0007260815;0.0046739527;-0.3295542;-0.027153278;0.0030082904;0.005947067;-0.0037302934;0.0329573;-0.07208175;-0.18091492;0.0009338844;-0.22301383;0.20820048;-0.017333405;-0.042847466;-0.06917155;0.002988899;-0.12165822;0.22198646;0.0032556187;-0.066922605;-0.044329625;-0.007422648;0.10712132;0.01864302;-0.0151775675;0.31228206;0.06490243;-0.32277706;-0.12521216;0.27836195;-0.1092419;-0.109547555;0.057224635;-0.0027763075;0.19019806;0.09298704;-0.011316952;0.23139033;-0.001567532;0.009732892;0.018811716;-0.45856982;-0.2487053;-0.0144537445;-0.041689314;-0.058197945;0.18257342;0.12479097;0.104138985;-0.021085609;0.07738134;0.19342212;-0.025332771;0.008857458;0.008648492;0.3065065;-0.19671027;-0.02500675;-0.20387039;-0.0041023935;-0.2582415;-0.0041114422;-0.0026983034;-0.043818448;-0.1387351;-0.010660623;0.02569286;0.035427853;0.03624835;0.01244282;0.013136821;0.006335556;-0.5438185;0.15084894;-0.05814934;0.0046637305;0.0033772541;-0.049975324;-0.007956839;0.012643336;-0.17320943;0.20101395;-0.017787473;-0.1973757;-0.17312077;-0.15580088;-0.022991791;-0.0016942285;-0.1234279;0.3712044;0.010268759;0.008059893;0.00688123;0.004474726;-0.012752477;0.019313019;-0.29013765;-0.20114887;-0.1213494;0.10845159;-0.18202984;0.30087942;-0.07862437;-0.013432241;0.021634137;-0.19859625;-0.0003363667;0.2497531;0.0014238111;-0.0074955104;-0.1725387;0.18559282;-0.103250965;-0.0067464737;0.01082896;0.06772918;-0.23261775;0.2850168;-0.01756714;0.24465501;-0.0045715426;0.20995899;0.020959249;-0.38685793;0.30197772;-0.052723918;-0.065300584;0.006052121;0.016890634;0.0892783;-0.0073959744;-0.018326245;-0.3169964;-0.16179715;-0.20736262;-0.03087419;-0.13808824;0.04048452;-0.004742133;-0.08173453;0.00028805123;0.0020055803;0.22098331;-0.009366392;-0.20398116;0.14278163;-0.0076661753;-0.23520283;-0.022190038;0.054237127;-0.5528318;0.043565616;-0.02116139;0.100931376;0.0062728985;0.1470027;-0.039123874;-0.0048488355;-0.19374298;-0.17117597;0.012965039;0.0016329513;0.054590974;0.11500588;0.36187497;-0.0048996056;-0.025103986;-0.086392984;-0.4642853;-0.10784311;0.018970996;0.12268818;0.008946395;0.1316528;-0.14397746;0.021911148;-0.0058294884;-0.15507248;0.276643;0.105155304;-0.15773088;-0.29404968;-0.12222139;-0.11279607;0.07682145;0.15491045;-0.14990571;-0.012157835;-0.2858457;-0.09484012;0.01125046;0.0030892694;0.23636399;-0.100519635;0.14930767;0.20619982;-0.2765927;0.06710919;-0.052359812;-0.0074740276;-0.10751851;-0.22157995;-0.097050466;0.13621275;-0.35113713;-0.0063686515;0.092324406;0.11791402;-0.18823321;-0.04702067;-0.04919263;0.09638442;0.020192891;0.19907598;0.001491603;-0.094103284;0.0026100418;-0.008051524;0.27171868;-0.013880619;-0.010532297;0.0023832177;-0.011883389;-0.0067880107;-0.084524035;-5.2036514e-05;0.032135207;-0.18314505;-0.12581097;0.04888015;-0.119761504;-0.055193763;-0.0030446928;-0.24439901;0.07449159;-0.43996358;-0.11925374;-0.6294747;-0.0048644454;-0.011365985;0.04675648;0.051938154;-0.007490724;0.0032290532;-0.059106477;-0.014342139;-0.24847467;0.106047936;-0.24045418;0.45470488;0.015968235;-0.0109255165;-0.0004779576;0.1315544;-0.009191485;-0.18343797;0.012079105;0.1478013;-0.16860087;0.20031697;-0.06760599;-0.017903728;-0.0068239314;0.0029411078;-0.10639659;-0.009030144;-0.19509079;-0.3859718;-0.0025823016;0.004960014;0.09089652;-0.124196485;-0.24883126;-0.22471344;0.12482163;-0.008189873;-0.23073709;-0.01709796;0.1342956;0.07587133;-0.040112335;-0.36758506;-0.065787904;-0.0051005534;0.022248803;0.27371207;0.104943305;0.063767344;-0.012355508;0.26523516;0.11678326;0.17572355;0.36495623;-0.02302672;0.18099268;0.020784363;-0.008066345;0.029556673;0.21457106;0.008190663;0.17998277;-0.009388595;-0.07582984;-0.3076637;0.12401156;0.08050098;0.45016366;-0.26144916;-0.12398457;0.02393372;-0.1949575;0.0023662266;0.14191937;-0.034222916;-0.12712647;-0.037716597;-0.029339544;-0.003425183;-0.07364083;0.070835754;0.3328054;0.1608257;-0.21510342;0.45358807;0.029559774;-0.081303425;0.043169897;0.0038667822;-0.0937873;-0.0024219537;0.20723903;-0.016779214;-0.1669064;-0.012585612;-0.07025982;0.00084628735;0.12052166;0.19400534;-0.19869275;0.02466198;0.074886985;-0.023368627;-0.0018201852;-0.19458911;0.18408147;-0.006573315;-0.046244856;0.0055485847;-0.019700188;0.010538913;-0.1360202;-0.16040303;-0.3299204;0.13074002;0.006582246;-0.24491164;0.09776096;-0.0076024104;0.0042546643;0.113179795;0.21153137;0.11719336;-0.039558418;0.055327706;0.2557138;0.11286901;0.082645535;0.17147717;-0.015303384;0.26831275;0.003007707;-0.12800778;-0.12279679;0.113611184;-0.31192157;-0.24364422;0.04769419;0.15354867;-0.15978546;-0.054127675;-0.10280824;-0.09255549;-0.032979142;0.1664374;0.133174;0.0359147;-0.07451659;-0.00600336;-0.08848472;-0.17928328;0.010072397;0.024610983;-0.020532869;-0.091154695;-0.010223969;-0.18581589;0.119048804;-0.00520577;0.2515657;0.011776999;0.014549825;-0.0028237086;-0.021639658;0.2603879;-0.06834439;-0.02413808;-0.04354901;-0.2634295;-0.03638692;0.23931004;0.25217316;-0.29225707;0.013371211;0.048467316;0.22113097;-0.011108731;-0.08292174;-0.4454983;0.013293825;0.027487334;0.003055677;0.05855278;0.060448218;-0.005614231;0.003371031;0.05947549;-0.10051436;0.011851623;0.26773348;-0.002393581;-0.0804285;0.0043770056;-0.07728113;-0.1352419;-0.05360952;0.067642085;-0.26828405;-0.0032040195;-0.088073544;0.06075422;0.18026526;-0.048327696;0.12278329;0.054402407;0.0029027401;0.11747353;-0.010268796;0.014229257;0.08368565;-0.24995075;-0.0051156757;0.074759625;-0.0067295753;-0.0090535665;-0.31924132;-0.052343648;-0.006877206;-0.29709756;-0.003014978;0.009756517;-0.16739842;-0.40316036;-0.012254508;-0.085295334;-0.26888222;0.0034712185;0.18870474;-0.0032478014;-0.054291222;0.19886623;0.18850023;-0.033433262;-0.05492021;-0.14857915;-0.012490878;-0.141247;-0.27917293;0.007331507;-0.13602719;0.08327111;-0.20519374;-0.0008529469;-0.033094577;0.117144726;0.02182432;0.08097243;0.043423515;-0.1939668;-0.00061522657;-0.012824552;-0.1888205
0.21942078;-0.28847814;-0.33427516;0.12442995;-0.014300257;0.058420423;-0.023850698;0.13768056;0.001911011;-0.017960124;-0.00091827806;-0.116254605;0.11945841;-0.06629201;-0.042812087;-0.0023264722;-0.042600725;0.16405837;0.20951732;-0.04519777;-0.23795976;0.028130868;0.013316854;-0.31121042;-0.03305155;-0.018386677;-0.011269653;-0.10304005;0.032172307;0.034695975;-0.050509423;-0.0056576813;-0.08290477;-0.07327687;-0.122297876;-0.30851775;-0.28547746;0.17370227;0.10456423;0.08310031;0.0026140877;-0.012549788;0.006267847;0.1166017;-0.00020271954;0.06473734;0.0022420909;-0.059257746;-0.031461313;0.014554987;-0.0054918877;0.043449245;0.13128132;0.0075742877;0.024491008;-0.2903876;0.009360655;-0.22263558;-0.0036171929;0.20696275;-0.010676498;0.24844417;-0.017791357;-0.123432264;-0.23532782;0.33461562;0.042425837;0.021388015;-0.122523196;0.0007686403;-0.24404703;-0.012297222;0.008819555;-0.32169962;-0.16097994;0.014277556;-0.0040575513;0.042043224;-0.15196599;0.0050560273;0.011133629;0.23188859;0.048269607;-0.11065752;-0.0075524617;-0.14465226;-0.11629416;0.022494698;-0.017906817;-0.009078632;0.012741234;0.081144005;-0.17149584;-0.22925413;-0.16433033;-0.0063165356;-0.07366653;0.04586999;-0.10053361;0.17672601;-0.00082085317;-0.29976696;-0.010050944;-0.013560226;-0.03289012;0.3122165;-0.0022252963;0.22539823;-0.0348018;0.019174093;0.07417889;0.036614407;-0.054557413;0.13230583;0.28713033;-0.36667532;-0.30999255;-0.016457925;-0.007548808;0.040973347;0.13108379;0.0007849305;0.342874;0.010433511;-0.0017680066;-0.012456552;-0.062245138;0.026576852;0.017977877;-0.15566583;-0.1032864;-0.080120146;0.15267108;0.14206421;0.01435949;0.06023475;0.16895232;-0.0009000208;-0.004347571;-0.00804628;0.35670012;-0.005749814;0.06599744;0.013839012;0.007706447;-0.1540313;0.038783394;-0.0127065005;-0.15909633;-0.30114684;0.014703222;0.038602307;-0.027719846;0.15919423;0.0016080799;-0.0026144667;-0.0041904394;-0.3172705;0.043498877;-0.11762501;0.07631577;-0.0130158;-0.17160173;-0.009320725;-0.017391866;-0.10220337;0.2933125;0.015936816;-0.25066644;0.20394982;-0.01748898;0.008173357;-0.0032693823;0.03651842;0.055264868;0.028941553;-0.00102095;-0.0059769084;-0.09412165;0.021114117;-0.030403482;-0.19931431;-0.12547213;-0.08285657;-0.051643305;-0.47206888;0.12516254;0.028206456;-0.43670613;-0.010449447;0.0667788;0.0108346995;-0.088609785;0.009847891;0.00051721086;-0.109879255;0.18643174;-0.18018445;0.04811346;0.002538567;-0.09132123;0.09655287;-0.025108615;0.005447781;0.041594636;-0.0071625602;0.15633264;-0.021800095;-0.18659037;0.10249193;-0.004052816;-0.20826676;0.01428978;-0.016860057;-0.01093999;-0.00381211;-0.112481594;-0.21162394;-0.19704078;-0.24941307;-0.1991186;0.20224099;0.105005994;0.012844302;-0.0018386717;0.010457956;0.013635323;0.43690923;0.020623516;-0.3294342;0.081191316;0.017747844;-0.07412135;0.07652928;0.037077367;-0.7203504;0.15393353;0.00016421563;-0.076380655;-0.02216113;0.11769432;-0.012203965;0.02023666;-0.07476558;-0.40658048;-0.0011013688;0.0020574876;-0.011139385;0.058042794;0.27761182;0.0064919414;0.1676716;0.14280555;-0.19556426;0.0069370884;-0.01869931;0.07130967;-0.009394766;0.054958954;-0.10882174;-0.019500442;0.0027748956;0.19303074;0.045639485;-0.006984237;-0.048077393;0.09707114;-0.07104892;-0.1488649;0.12735692;0.27727103;-0.12930602;0.014553688;-0.31381798;-0.039962884;-0.0067959907;0.0018650416;0.04299428;-0.25213876;0.1441206;0.20159206;-0.036415793;0.04701907;0.05259944;-0.115607165;-0.10335872;0.14208552;0.062367104;-0.09267187;-0.3027408;0.018441755;-0.14696394;0.14442492;0.10369904;0.086162254;-0.06322633;0.04031241;-0.039648633;0.23136936;-0.01485717;0.0077421926;-0.009086886;0.0094493;0.0037787517;0.0061801863;0.038578697;-0.0029273794;-0.013797799;-0.013788503;0.07685189;0.0036255962;-0.021256369;-0.325077;0.12280848;-0.298748;-0.17988546;-0.14841935;6.836341e-05;-0.20120324;0.23214616;-0.43907297;-0.24892522;-0.2538058;-0.0028194303;0.017600615;-0.34566262;-0.044441428;0.0029749863;-0.009687959;-0.16384321;-0.00012752815;-0.1132304;-0.076549545;-0.14426072;0.5475253;-0.025304163;0.0451424;0.007391462;-0.11254745;-0.004661256;-0.19509089;-0.0021732345;0.048729002;0.11076162;0.31976035;0.064391725;0.019058695;0.0057150577;-0.007983106;0.13244888;0.014987243;-0.1498684;-0.3127986;-0.11794432;-0.0038184745;0.32745954;-0.03431763;-0.0944093;-0.13779059;-0.0536761;0.010295056;0.11363756;0.004907441;0.030274052;0.024897477;-0.09498912;-0.45339757;-0.1608901;-0.0789167;-0.02887162;0.25912026;-0.06753344;0.13534637;0.005144863;0.34503406;0.04733232;0.045236744;0.354303;0.02399715;-0.21327072;-0.022870537;0.0005904412;-0.022089845;0.33033022;-0.010082595;-0.08539169;0.005646681;-0.32591215;-0.3113501;0.1309219;0.32316622;0.2401953;-0.19379866;-0.1644851;-0.022354556;-0.09383266;-0.009067901;-0.009480035;0.030020798;-0.15431575;-0.0028123995;0.31544828;0.03481739;-0.10950559;-0.03824666;0.22518823;0.17724836;-0.0076373518;0.063826;0.43177214;0.0862927;0.21374735;-0.013647834;-0.11403566;-0.0064508948;0.22271076;-0.0004193656;-0.076106325;0.021804243;-0.17841049;-0.011326292;-0.14407976;0.18596558;-0.54592025;-0.020312237;0.15155885;-0.023926485;-0.01381352;0.0027075673;0.3512674;0.0089737205;0.082249224;-0.010543836;0.05632295;-0.00014045117;-0.1027799;-0.081060246;-0.24528842;-0.008253781;-0.015068177;-0.39755893;-0.18519539;-0.33574894;-0.00733151;0.033931237;0.18277432;0.11067926;-0.01191247;-0.23972763;0.21535197;0.0024811893;0.034147874;-0.05456485;0.002319737;0.13171066;0.010671107;-0.19426964;-0.09832588;0.081639424;-0.2224605;-0.37454093;-0.00573294;0.0322014;-0.040212076;0.099650204;-0.14419748;-0.37852174;-0.03231671;0.19429097;0.13494307;0.015756387;-0.14152922;0.0057490184;-0.15043809;0.08565245;-0.010540751;-0.012745402;0.014292542;0.1548151;-0.009440943;0.026394926;-0.029861154;-0.09181649;0.16905786;-0.012602067;-0.008817087;0.14511535;0.1771935;0.22879697;-0.24081665;0.013192557;-0.18354094;-0.09635812;-0.051661596;0.23723708;0.14345963;-0.54044545;-0.010126575;0.16130887;0.1318456;0.0025824;-0.30687806;0.047655977;-0.0014683816;0.029197762;0.007195968;-0.17138036;0.009386706;0.006942949;0.014757777;0.019715874;-0.16024107;-0.0065900595;0.13324866;0.011636969;-0.18126695;-0.011787129;-0.24683832;-0.12246651;0.037753962;0.00077873725;-0.33413413;0.0056841555;0.27426627;-0.14781162;0.1155752;-0.16415617;0.14647871;0.12142273;0.016517963;0.097178586;-0.0066250125;-0.01570929;-0.018472115;0.22591498;-0.0041373773;0.16744651;-8.280346e-05;0.011368375;-0.15934967;-0.037111733;0.00980007;-0.17987879;0.0044574114;-0.0012899818;-0.08308365;-0.2679647;0.0119557725;-0.060882337;-0.19765389;-0.013938435;0.25770926;0.01730736;0.053288125;0.14903891;-0.0043082885;0.025609862;-0.21695285;0.1751246;0.015227882;-0.3006429;-0.20402832;-0.058933087;-0.018020049;0.10074592;-0.10240571;-0.009851186;0.017615218;0.22264877;-0.0015355211;0.109941624;0.17419712;-0.12887716;0.0005040472;0.008776988;-0.14359164
0.2480864;-0.4201841;-0.21182507;0.19002613;-0.015634375;-0.025798589;0.091199465;0.11014615;0.0020810438;-0.21691297;-0.008303193;-0.21166655;-0.2225188;0.07054591;-0.096213825;0.028769325;0.04168573;0.21153785;0.030183064;-0.033919457;-0.096634306;-0.040052857;-0.051733397;-0.25521898;0.04930852;0.0053932555;0.013682187;-0.14976405;-0.10173247;0.19522804;0.13293724;0.026468122;0.031183185;-0.13532245;0.14677568;-0.19457449;-0.13918224;0.20511295;-0.087366804;0.1310384;-0.0015990305;-0.002668364;-0.100780986;0.21342988;-0.003275941;0.057764918;2.2639024e-05;0.17008725;0.0997147;-0.0021952966;-0.014420827;-0.07689745;0.015310941;0.0014926409;-0.017790684;-0.16740438;0.0077888616;-0.17178456;0.01655468;0.03511027;0.0056027677;0.17168786;0.016008211;-0.1373631;0.2009816;-0.022603462;-0.010129218;0.17037295;-0.26488534;-0.005615268;-0.16499801;-0.0058903135;-0.0018357886;-0.185569;-0.5805246;0.15939984;0.007139549;-0.110429704;-0.09517606;0.004640982;-0.0061802343;0.10845317;0.23766802;-0.051166054;-0.005187249;-0.17226519;0.060918055;-0.011271759;-0.0002281609;0.01463634;-0.012428504;-0.07290086;-0.14301766;-0.28823403;0.066160165;-0.1379441;-0.077313155;0.14918587;-0.10291199;0.35335085;0.0037687477;0.17844464;-0.009339244;0.016291548;0.056218505;0.067573376;-0.020201059;-0.048650805;0.049622636;-0.016145855;0.08098556;0.02200341;0.05548228;-0.0550591;0.17937337;-0.10009209;-0.1782978;0.07347364;0.0014323895;0.44846562;0.09752108;-0.013139231;0.40223765;0.0021799875;0.0015291494;-0.001711862;0.27241373;0.122123055;-9.576538e-05;0.34269044;0.2533325;-0.34635606;0.12652482;-0.05116603;-0.0049436735;0.22765723;0.17305966;-0.22204944;-0.0033112324;0.015435312;0.32237518;0.33597803;0.1559885;0.0011851996;-0.023981744;-0.1204543;-0.007625123;0.017440967;-0.14034703;-0.106762394;-0.013364104;0.1955824;-0.006923763;0.11265707;-0.006362397;-0.005216344;-0.008982081;-0.28653607;-0.15781038;0.038776163;0.23608956;0.011946833;0.07677864;0.012211186;0.009367618;0.16890107;0.07757492;-0.0038345577;-0.3422043;-0.025141697;-0.11000139;0.014975775;0.0012397998;-0.119207785;0.06306094;-0.086610876;0.0048844987;0.005273183;-0.30482;-0.005727491;0.024181949;0.036453336;-0.048563946;0.1337955;0.06646938;-0.11300515;-0.07488019;0.16274153;-0.39640284;-0.0046517593;-0.057004355;-0.0119016515;-0.15101752;-0.019894939;0.003247873;0.0120874755;-0.24684376;-0.33670232;0.22651374;0.0043910528;-0.03612214;0.10213561;0.10845044;-0.016715646;-0.06424605;-0.028104924;0.042112056;0.018313672;-0.13067083;-0.04895164;0.013775381;-0.24148151;0.0062871617;0.016819106;0.012431215;0.01133194;-0.2358003;-0.26431352;0.15709066;-0.27390802;-0.010096197;0.15065593;0.19169448;-0.016618073;0.26234648;-0.007292204;-0.0056817587;0.30694944;-0.013692572;-0.24951772;0.1461726;-0.026081152;0.09856176;-0.24432199;-0.07303856;-0.49828;0.52182114;-0.00048632923;0.08756261;-0.0119035775;0.2410233;0.03715279;-0.01468977;0.086895704;-0.1429429;-0.018958284;-0.001314288;-0.04003689;-0.114773795;0.116084844;-0.016855033;0.19669354;0.12702897;-0.3049093;-0.006564852;-0.020778354;-0.10788818;-0.0021422287;0.02779717;0.06050868;0.0049407743;-0.0052963835;0.029983684;-0.030046029;-0.20466463;-0.06768824;0.05545681;0.015971774;-0.0833764;-0.14222144;-0.045817643;-0.104269475;0.0016009257;-0.15158205;0.007575397;0.00059176085;-0.00612291;-0.14376071;-0.20202345;0.13657972;-0.099606395;-0.012873594;-0.12129647;0.13114853;0.035603557;0.15811536;0.17882076;0.09284855;-0.19729336;-0.14100528;-0.010678569;-0.12549902;0.41936246;-0.04085775;0.26967221;-0.07118139;0.160568;0.033397555;-0.022765154;0.018309452;0.17994201;0.0049355594;-0.0053719967;-0.12503551;0.0076901726;0.019652458;0.003563443;0.036481578;-0.010599341;0.19516848;-0.016762245;-0.12133374;-0.2363366;0.14410725;-0.015934832;0.020418346;-0.14750668;-0.015983623;-0.20323105;0.19417334;-0.36871248;-0.17312321;0.0062045506;0.0026277124;0.0032198376;-0.19467314;0.055386912;0.006973196;0.00070674735;-0.15608267;0.0057671443;-0.1550706;-0.16817746;-0.016192704;0.42895782;0.012239089;-0.19697218;0.0038929414;0.040334918;0.005869503;-0.24492066;-0.023604454;-0.027115729;-0.09127961;0.14077547;-0.11668939;-0.013040856;-0.007073535;0.0064757485;0.09793686;-0.0058986996;-0.17758298;-0.20145342;-0.05689046;0.005702697;0.27884609;0.01802988;-0.14979935;-0.26646343;-0.096194394;-0.010499707;0.27795956;-0.01539817;0.08173437;0.11579564;0.117596105;-0.2687657;-0.27308714;0.05872361;0.067826174;0.10810945;-0.07410448;0.20260279;0.0025795163;0.38334408;0.0850629;0.14562878;0.16743542;-0.011159003;-0.43037006;0.016217401;0.006510359;0.01717469;0.22726719;0.016187513;-0.12164979;0.0010141857;0.010688176;-0.27339414;-0.2410863;0.14166649;0.09550699;-0.48646224;-0.10134909;0.0044241017;0.20063233;-0.006483146;0.021518854;-0.018948335;-0.24201882;0.03746315;0.146013;0.1658792;-0.37954625;0.02645309;0.17504232;0.03900067;0.06723368;0.1259995;0.5362233;0.04265444;0.070860475;0.020059396;-0.08595087;-0.004711647;0.024047384;0.008628975;-0.03330731;-0.02022605;-0.22688113;0.0073015587;-0.05665979;0.135014;-0.2255392;0.0048580556;0.108652405;-0.01870762;0.01683602;-0.017688163;0.28099832;0.001201873;0.0208509;0.0049302657;-0.029622482;-0.0040106806;0.10835133;-0.13051462;-0.22270913;-0.19845627;0.012878997;-0.07765788;0.14256397;-0.40851036;0.011795382;-0.05783305;0.1567106;0.24423882;0.024112126;-0.35274395;0.08580347;-0.019751687;0.11886215;-0.018338919;0.010427116;-0.047921516;-0.02011237;0.3345379;-0.15732057;-0.052086506;0.016443968;-0.1249662;-0.025774384;0.064390734;-0.08984775;0.05018361;-0.43694344;-0.09169005;0.100690804;0.22773866;0.04574025;0.03190597;0.31807467;-0.011024302;0.075066134;-0.27109838;0.007076911;-0.003844126;-0.008724302;0.02000186;0.007780105;0.17231554;0.04997225;0.25007614;0.26101142;0.01351739;-0.009627229;0.050131984;-0.033069704;-0.073889956;0.15781945;-0.0035063757;-0.17743713;-0.24505283;0.0068982006;-0.06703944;0.124789745;-0.19724819;0.019630669;0.2774451;-0.02751482;-0.014155352;-0.3087647;-0.017444937;-0.0026336599;0.123980194;-0.02171349;0.12152716;-0.03771265;-0.016040102;-0.008637703;-0.16672526;0.1632497;0.005585259;0.3586582;-0.009766511;-0.18604547;-0.005829489;-0.19320077;-0.3412387;0.2920438;-0.18785524;-0.14297242;-0.016019832;0.32674056;-0.11630924;0.09312825;-0.007722102;-0.03172093;0.23026244;-0.02008726;0.15133749;0.011753095;0.004738447;0.03458023;0.18832193;-0.0075221453;0.105318934;-0.0019674166;-0.0001660639;-0.03234709;-0.011912173;0.010245426;0.076879434;0.005534675;-0.0031410092;0.10542814;-0.20950226;-0.019391662;0.012605916;-0.06314494;0.032079704;-0.0017948429;-0.02270067;0.17276028;0.38813198;-0.0016155483;0.26599976;-0.1738088;-0.032975126;-0.015305239;-0.043674458;0.32954398;-0.053427868;-0.079781435;-0.0038768752;-0.4348651;0.0007524475;-0.14328514;0.18500741;-1.6789612e-05;-0.06456046;-0.056256168;-0.31939054;0.010044884;0.0070047313;-0.06696414
0.049640026;-0.29651454;-0.2769969;0.1951588;0.011022873;0.047289472;0.06122866;0.15739062;-0.0073142434;-0.21788183;0.0006955365;-0.24818102;-0.015377657;0.06264848;-0.04110411;0.054697674;-0.10376296;0.28656584;-0.29958713;0.050743975;0.00068168266;0.031690456;0.01809202;0.24276635;-0.25565487;7.6082964e-05;0.014241428;-0.20934913;-0.0020591666;0.087399505;0.03850395;-0.01817272;0.251692;0.2625054;0.16957895;-0.22639428;-0.07540849;0.27722088;-0.032001022;0.120352775;-0.0065752612;-0.009888776;-0.09826106;0.24446486;0.0057463245;-0.1592782;0.0024738205;0.28199065;-0.0437258;-0.006698526;0.013384946;0.13986793;-0.22890936;-0.01287629;-0.007581145;0.008189958;-0.014909208;-0.12288619;-0.03524158;0.1846343;0.001426253;0.2544357;0.009470323;0.12833042;0.14484029;0.03498138;0.058874942;0.247437;-0.4325981;-0.011461272;-0.05779034;-0.0059284265;-0.003452806;-0.08395136;-0.5789034;0.034420013;0.005401013;-0.12606807;-0.15137796;0.0017549813;-0.0006206808;0.00862191;0.044537485;-0.014217601;0.004118031;-0.13269293;0.030235926;-0.0014895503;0.020788824;-0.016193783;-0.012486487;0.1256438;0.03361425;-0.09588422;0.20000076;-0.3991253;-0.06543938;0.1957641;0.010748731;-0.11494263;0.001949207;0.12524486;0.18784133;-0.00830518;0.36794543;0.26791415;0.0130978385;-0.30619246;-0.009987262;0.0090073915;-0.15220717;0.13516779;0.17637299;-0.09698632;0.03134642;0.1114575;-0.27303186;0.22646908;-0.0026098194;0.048718292;0.15000504;0.006105183;0.2563339;-0.0025867342;0.0016523519;-0.0025318896;0.28670207;0.1163071;-0.0033853156;0.34836575;0.21625358;-0.24117465;0.07315542;-0.010208311;0.013176359;0.05189776;-0.07799343;-0.27708757;-0.0028800594;-0.0041999677;0.21128209;0.32302535;0.07911087;0.14762487;0.02368528;-0.11416134;0.04728607;-0.015868023;-0.13794409;0.2760367;-0.004918078;0.19695768;-0.04147771;0.08973561;0.003693386;0.014954692;0.004237928;-0.06828823;-0.14229368;-0.1455474;0.11933513;-0.023078203;0.19381349;-0.0015726655;-0.0073210155;-0.0048631816;-0.02462061;0.0057939086;0.10423183;0.02593086;-0.090822235;-0.005691433;0.009805151;-0.099254236;-0.1914499;0.08077587;0.010824303;-0.0071329777;-0.3946367;-0.005701252;-0.020181466;-0.2638771;-0.06579442;0.2466304;0.12730114;-0.016190879;0.25312334;-0.030948441;-0.24004366;0.0059919665;-0.13806817;0.006253453;-0.16011666;0.013638117;-0.007749631;0.1428731;-0.3825041;-0.21992905;0.29348123;-0.0067868694;-0.07307274;0.14609481;0.3358805;0.024684997;-0.091801666;0.017436005;0.09715822;-0.03040274;-0.42652652;0.09157495;-0.03169488;-0.31199875;-0.015783938;-0.0068053813;0.04730438;-0.011525031;-0.11512227;-0.15313803;0.12606134;-0.21301627;-0.22196637;-0.1621539;0.21076746;0.018749177;0.38962218;-0.0059289997;0.0015306103;0.23110789;0.00822577;-0.22533481;0.09422718;0.0013640571;0.23664086;-0.29090747;-0.17655265;-0.3054953;0.44443843;-0.00039821662;0.043086506;0.19428846;0.2639363;-0.031078609;0.011670791;-0.03496374;-0.18991806;0.006509106;0.0057143434;-0.030889457;-0.19093409;0.010311342;0.005811859;0.2020063;-0.15169968;-0.29632577;-0.1069859;0.005993231;-0.009993335;-0.009502761;-0.10163101;-0.13729677;-0.013179735;0.004810864;0.031395905;0.03905783;-0.03883253;0.18588147;0.027694283;-0.029297616;-0.02395837;-0.11546435;-0.098547705;0.0072747446;-0.0001323225;-0.25099725;0.19199131;-0.022682546;0.0002480001;-0.029751612;-0.15651762;0.17433023;-0.2213041;-0.063305534;-0.16389994;0.41322246;-0.20594199;0.07208178;-0.05462254;0.14507368;-0.36864325;0.06362243;0.004459503;-0.041915692;0.17438793;0.0926042;-0.046673764;-0.200161;0.039571434;0.022141857;-0.13172;-0.012641306;0.11980256;0.004405051;-0.003910201;-0.007837288;0.0011120447;0.013039573;-0.0014487151;-0.026220893;0.013072323;0.09294052;0.023128865;0.14439613;-0.16766976;0.09596053;-0.052967515;0.2379949;-0.07240297;0.01929034;-0.27663574;-0.24536063;-0.25776547;-0.06965797;0.123503596;-0.010780164;-0.022995519;-0.32086194;-0.017282464;-0.0048053605;0.015839355;0.038396977;0.0037149913;-0.15269573;-0.17680448;0.16997615;0.26502985;-0.007112089;-0.052513458;-0.0049587074;0.34086862;0.006122365;-0.116686136;0.023128042;-0.1359212;0.10004396;0.009922681;-0.11874917;-0.00646954;0.002264467;0.00031057486;0.09329038;-0.012992787;0.060089357;-0.13770927;-0.042475913;-0.005438833;-0.04180797;0.060317487;-0.18354008;-0.49368468;0.06817242;-0.0029719737;0.17863089;0.01623621;0.04067337;-0.0024075226;-0.25915682;0.099699266;-0.26442108;0.0075559914;-0.06755485;0.10660341;0.16369802;0.09353884;-0.0034183532;-0.06953536;0.15760559;0.22054246;0.12229549;0.0065244217;-0.31743884;-0.01757835;-0.002899698;-0.0154357795;0.2935062;-0.027599925;-0.13981476;-0.004313128;-0.045960434;-0.15348694;-0.06352326;0.08260111;0.1081339;-0.5817928;-0.35360882;0.016516607;0.052669708;0.0075041708;-0.11148916;0.011114398;-0.028150246;-0.037388407;-0.15713638;0.13897914;-0.3618486;0.052780055;0.06994988;-0.22756748;-0.108573005;-0.11566481;0.3484713;0.15421139;-0.07449406;-0.010346108;-0.19816402;-0.0036526269;-0.14877105;-0.0013259077;-0.18610096;0.00057589356;-0.39047924;0.00478759;0.023030574;0.13976823;-0.2989562;-0.01474742;0.10763774;0.028922502;0.0017766445;0.07746453;0.29367498;-0.0076450463;-0.10432835;0.001285525;0.010131716;-0.003979619;0.15158297;-0.01777361;-0.4417118;-0.146815;0.0035931324;0.18141454;-0.21847394;-0.28055075;-0.00480317;0.10094928;0.11049985;0.24485274;-0.14692941;-0.13278987;0.016434288;-0.17214394;-0.04689937;-0.3738357;-0.003061735;-0.06192988;0.030123148;0.29643846;-0.22248784;0.15778068;0.10613484;0.015872955;0.010719721;0.19459479;-0.2820748;0.14989327;-0.15448438;-0.0967358;0.20083833;0.18682046;-0.017832683;0.0008044257;0.44375283;0.012190885;-0.14655161;0.15401511;-0.00930225;-0.001018071;0.0063951835;0.03805807;-0.017343089;-0.020435551;-0.15554622;-0.0018759586;0.3209416;-0.017781923;0.0062430897;-0.07038779;-0.08844789;-0.21577165;0.17909943;0.006971704;-0.064031824;0.13480374;0.042525996;0.014881804;0.20459415;0.059449226;-0.0011824201;0.17917149;-0.12833469;0.014246785;-0.0818377;-0.081418164;-0.0073779942;0.034209862;0.017214581;0.19169886;0.04714051;-0.003017454;-0.00041310958;-0.13336308;0.2589152;-0.00771404;0.1457437;-0.0053842547;-0.2069864;0.009422348;-0.24748175;-0.31722075;0.35600716;0.018687064;0.08557936;0.008743323;0.12851278;0.063935146;-0.05737397;0.019433118;0.1342415;0.08068433;-0.005600232;0.15061647;0.011097701;-0.0032319163;-0.2760112;0.27582467;0.0013081381;0.100426055;0.012420958;-0.0034518866;0.0962359;0.017068367;0.0027489904;0.27972078;-0.021092847;0.0063227857;-0.035093505;-0.08919761;0.010572356;0.013279657;-0.29282898;0.02258958;-0.00063460506;0.017385658;0.13857076;0.26649976;-0.065199055;0.088145785;-0.1857015;-0.07126306;0.008282358;0.08230118;0.05417545;-0.0971984;0.08648865;0.020007608;-0.2837435;0.010256969;-0.026392981;0.0526167;-0.00876618;0.10969047;-0.092592105;-0.23303607;-0.004602157;-0.003562941;-0.03172151
-0.13987549;-0.31796694;-0.1483241;0.21860498;-0.009589508;0.14276117;-0.016078204;0.23426543;0.00035543993;-0.03588206;0.0025748487;-0.14037931;0.19330624;-0.052629925;0.15488817;-0.06757888;-0.09914364;0.26083192;-0.1669431;0.18387264;0.1533366;-0.01113844;0.14328094;0.15676695;-0.019480556;0.011688157;-0.0154622225;0.0583883;0.0072917705;0.121429004;-0.18291472;0.0022960263;0.31259254;0.44436082;-0.085306175;-0.2499469;-0.28312513;0.21961863;0.062304676;0.059440207;0.009033868;0.010312555;-0.048322413;0.053231597;-0.01349283;-0.064879216;0.0012896819;-0.048947502;-0.03017593;-0.0060737426;-0.009997224;0.09473517;-0.11635618;0.015176736;0.035479963;0.20113352;-0.0027982641;-0.26109806;0.04733807;-0.07911636;0.014348016;0.11779665;-0.009772895;-0.123963915;-0.053609505;-0.117940456;-0.03735374;0.37013236;-0.20350073;0.02818061;-0.02010874;0.01244738;0.0147675965;0.019647386;-0.31688204;-0.21529591;-0.0029513605;-0.28177094;-0.2883782;-0.012314611;-0.0023514552;-0.22880161;0.04263335;-0.121890575;-0.0049376055;0.035320945;0.062292606;-0.0033852847;0.0060193148;0.0064862357;0.015141887;-0.07998124;0.114168674;0.035110973;0.0577114;-0.3034905;0.17761853;0.21485758;0.24754463;-0.38962698;-0.002422123;-0.19658928;0.022406386;-0.008572233;0.06933928;0.2837073;0.0077414378;-0.26751867;-0.16143782;-0.0007247256;0.2095727;-0.050706245;-0.018837098;0.013043405;-0.036657;0.012133254;-0.29443297;0.23815897;-0.0011549791;-0.036320757;0.14927974;-0.001680494;0.17926866;-0.004876263;-0.0035754933;0.009020828;0.05328994;0.08524578;0.014174131;0.11943263;0.075106435;0.0127266385;0.041003026;0.039347317;-0.021233719;0.18069328;-0.026690276;0.08691319;0.01127919;-0.017168881;0.1959658;0.42511958;0.08231823;0.007839789;-0.0011837614;-0.042628285;0.030376969;0.003122398;-0.22190438;0.22568123;0.008678038;0.17345361;-0.0074981567;0.08601817;-0.0025023832;-0.0038743615;-0.0020934462;0.023299256;-0.039141566;-0.34063005;0.100111336;0.016590647;-0.052410584;-0.003315242;-0.0059300247;-0.18870263;-0.06426336;-0.0021786592;0.23432916;-0.11017096;0.10293564;-0.005287579;-0.017183855;-0.113871515;-0.08763974;0.17056759;-0.035907406;-0.011054376;-0.22114183;0.00013689668;0.006962496;-0.36186;0.02704217;-0.21328072;-0.24117558;0.039641686;-0.02448122;-0.100190036;-0.055998154;-0.017255962;-0.10037767;-0.01593591;-0.2678984;-0.0050368686;-0.010538971;0.21321067;-0.2637944;-0.3243083;0.23532285;-0.0006112694;-0.2057699;0.25812992;0.1999868;-0.010596865;-0.111766286;-0.0003333666;0.08393339;0.01441505;-0.41877902;-0.08694219;0.07817039;-0.09705994;0.005648421;-0.005440121;-0.071985014;0.014235043;-0.22117086;0.14577985;-0.026777709;-0.11978489;-0.1916387;-0.5070278;0.31324288;-0.01002009;0.13554066;-0.0071639414;-0.0032379776;0.0434643;-0.012072854;-0.08647698;0.048546292;0.014013306;-0.022065496;-0.23352534;-0.31600276;-0.37852156;0.2886525;0.010551996;-0.09375976;0.011705149;0.17792581;0.003780686;-0.0020471418;-0.333231;-0.004462205;0.0018618302;0.0014009459;0.087827444;-0.09392025;0.01758855;0.014076329;0.24557105;-0.27010083;-0.31394506;0.022860881;-0.012385274;0.21592465;0.0027706882;0.05279498;-0.027380414;0.017727124;0.007212553;-0.44900087;0.027656028;-0.15007225;0.18703395;-0.16356964;0.13765882;-0.00019228626;0.061100032;0.13685843;0.026840458;-0.00029603142;0.15865414;0.320542;0.02771514;0.011189437;-0.097447775;-0.18866293;0.19061258;-0.143447;-0.002164966;-0.13834421;0.20715035;-0.26567367;-0.21618271;-0.069029585;0.12351718;-0.27226484;-0.0045236866;-0.01507875;0.031531043;-0.037556853;-0.09828927;-0.056092773;0.068543054;0.13297963;-0.02203949;-0.019098897;0.019515114;0.054391373;-0.00875934;0.0037269576;0.011603289;-0.013622216;-0.050185353;0.009334511;0.018589048;-0.009619685;0.19707121;-0.0090306;0.24046716;-0.20940912;-0.07557479;-0.042967867;0.014713069;-0.121791385;-0.012325179;-0.12041906;-0.44357753;-0.1987286;0.04252291;0.27840245;0.0073674386;0.040196884;-0.43111834;0.011761947;-3.147874e-05;-0.016570782;0.26960188;0.006193702;-0.02180175;-0.018014152;-0.026750011;-0.0038312715;-0.0021469449;0.17686589;-0.013653167;0.6477522;0.00318009;-0.21406244;-0.009584329;-0.2540744;-0.07346375;0.06349742;-0.085646786;0.00117603;-0.0026742416;-0.013015758;0.083638355;0.008600243;-0.0011961875;-0.031322606;0.10388806;0.00498815;0.13160673;-0.061111327;-0.13194212;-0.40735972;0.09698829;-0.0088928;-0.19931364;0.009540577;-0.055798337;-0.10458077;-0.16102482;0.20334706;-0.114442386;0.026844919;-0.074391656;0.20335217;0.13944617;0.15586929;-0.009431304;-0.31250513;0.14762084;-0.05392447;0.2108272;-0.024208313;-0.3214213;-0.011270836;0.0060432404;-0.0015748589;0.12245889;0.014035357;0.12252377;-0.004999422;0.032023836;-0.3300155;-0.023274697;-0.22438581;0.18662621;-0.11290813;-0.27857226;-0.0041111303;0.44974056;-0.010267653;0.2957739;0.003144366;0.20964521;0.033020303;0.05716897;-0.34177423;-0.054086808;0.1938278;0.1348254;-0.2839131;0.14135744;0.3375885;0.20405015;0.026575528;-0.02033855;-0.0060017295;-0.4449268;0.0026660564;-0.1691016;0.011410812;-0.15576807;-0.0002758826;-0.24818286;-0.024714768;-0.02751476;0.16095342;-0.31631356;0.003713829;0.24110512;0.058856413;-0.0091374805;0.05567301;0.2709893;0.0010971582;-0.121393755;-0.006900979;0.003142517;-0.008497503;0.016438851;0.076387115;-0.46972093;-0.15974891;0.006381543;0.34314832;-0.1562325;0.044034537;-0.010984709;0.053680036;0.17403659;0.101638794;0.015432463;0.11069747;-0.024626667;0.0054893806;0.21339162;-0.3379655;0.009633077;0.39241436;-0.012367042;0.22849381;-0.27582082;0.311128;0.004032311;-0.139057;0.010153524;0.33587444;0.0767136;0.09302776;0.20078768;-0.17037708;0.20582461;0.06586471;0.076479144;-0.005435222;0.057491034;0.003384593;0.011504722;0.18521564;0.012286275;-0.0014868957;-0.0037268887;0.021078127;0.017135708;-0.13025674;-0.052072495;-0.061350588;0.0047872155;0.0019236895;6.364505e-05;0.24056655;-0.53978676;-0.25940225;0.17061819;0.00276018;-0.080833;0.030668724;0.0102891335;-0.27367374;0.12189992;-0.14424558;0.002456664;0.11014808;0.10719626;0.0010115388;-0.20771667;-0.16235247;0.00087555766;0.02682872;0.008229422;0.06707493;-0.036347546;0.010551783;-0.003087369;-0.09339204;0.11391536;0.01476208;0.47011068;0.013015152;0.00032493848;-0.0045279814;-0.006686007;-0.27247107;0.46904373;-0.031495553;0.07414407;-0.011946166;-0.22038075;-0.11329242;-0.09954726;0.044931803;0.2043331;-0.09878377;0.01785551;0.2114455;-0.03457574;0.010248877;-0.014451451;0.36553147;0.00861713;-0.35598323;-0.012710367;-0.0063479147;-0.005856999;-0.062479235;-0.024033852;0.13798195;0.01005941;0.013375635;-0.20395996;0.04214813;-0.0016621668;0.0435842;-0.21828644;-0.032546975;-0.088417985;-0.010438409;0.09515596;-0.113734975;-0.11978857;-0.35781786;-0.23673098;0.095123775;-0.0044361;0.085736156;-0.04596291;0.10552974;0.24525234;-0.08944625;-0.027798569;0.0020398821;0.2505964;0.04411166;0.013818308;0.33421522;0.1633654;-0.14075206;0.0010975566;-0.0056929244;0.15164118
0.09849056;-0.103362516;0.08784915;-0.076613195;0.0038557264;0.008009914;0.11069829;-0.2117489;0.005263885;0.04257572;-0.0066862293;-0.12097966;0.3885063;-0.05755609;-0.0130980015;0.058215823;-0.41894385;0.39842618;-0.05746749;-0.09813649;0.0066692606;0.0018449664;0.1321766;0.05802149;-0.047905345;0.0013831301;0.0065661673;0.057455767;0.0826848;-0.06477687;-0.22972296;0.0018357424;0.14526519;0.52610433;0.28025395;-0.1450005;-0.24108261;0.11860617;0.3126502;0.113479316;-0.013764045;0.017551707;-0.13522866;0.2683596;0.020425767;-0.009312696;-0.008163798;0.16463062;-0.0004260758;-0.0013415294;0.016015053;-0.007237121;0.042689722;0.0027297093;-0.03013233;-0.02432583;-0.003947461;-0.0899014;0.114910774;0.16339003;-0.016446678;0.026797181;0.009596144;0.09305119;0.08280705;-0.16068631;0.020431507;0.22971413;-0.24168347;0.005061648;0.30906302;-0.0018545608;-0.01145691;0.10972613;-0.34836307;-0.03965201;-0.0060932664;0.08333129;-0.20000274;-4.3264878e-05;0.0044782786;-0.057704255;0.091493964;-0.14748614;0.0017731537;0.19651209;0.17541657;-0.0033876814;-0.024010466;0.0016509643;-0.010721706;-0.09165242;-0.13371262;-0.22168708;0.096452594;-0.23975866;0.25200436;-0.054973498;0.15836565;-0.24184132;-0.0026866873;-0.18960749;0.10478172;0.008820229;-0.235735;0.28151077;-0.008869195;0.11049759;0.11583881;0.007227074;-0.15036826;0.088153414;0.107423164;0.014824288;-0.024125876;-0.07087958;-0.55602133;0.1318079;-0.0035520243;0.31982437;0.13807134;0.014361771;0.20768884;0.0022169345;0.011903062;0.0072116316;0.060321964;-6.00575e-05;-0.02022378;-0.2007106;0.07880569;-0.007086404;0.018058974;0.094962515;0.0264097;0.17366844;-0.09585825;0.21651702;-0.020598771;-0.0028927801;0.2170543;-0.035716742;0.1554866;0.2074632;-0.0109611405;-0.015961891;0.070180826;0.022075942;0.15493535;0.26722717;-0.0072856853;0.27376547;-0.018806808;-0.21615359;-0.018624237;-0.0061623715;0.0078053162;-0.004476941;-0.24243987;-0.1810467;0.14495766;-0.0071978527;-0.056011435;0.006349838;0.0032641476;-0.47420093;0.01934618;-0.0040632603;0.055431385;-0.1056413;-0.09110058;-0.006361412;0.014684083;0.23898746;-0.20811757;-0.34064448;0.001975523;0.000596261;-0.055062473;-0.017135326;4.3528504e-05;-0.29735965;0.06097318;-0.19015394;0.049919285;0.3203421;-0.038549017;-0.05212648;-0.047508582;0.011679118;0.02964325;0.017804109;-0.2782914;-0.0026662704;0.030544454;0.258705;-0.16514947;-0.31835702;0.30962586;-0.010950594;-0.28523555;0.23166442;-0.05648111;-0.0057498766;-0.048548933;-0.0049221325;-0.19069709;-0.010481346;-0.06568179;-0.067331515;-0.035404477;0.119737394;0.0012828928;0.01305053;0.049738795;-0.015909703;0.054260593;0.15614326;-0.24830905;-0.20885648;-0.1259688;-0.49617442;0.47378692;0.0049855895;0.016407197;0.019491943;-0.0016850412;0.24953155;0.008008433;0.020274607;0.05898453;-0.008180779;-0.053338803;-0.38553557;-0.16603152;-0.20143566;0.27203664;-0.00033833736;-0.07975495;0.02486691;0.007255974;-0.017830454;-0.0025036202;-0.06864117;0.12172651;-0.016249191;-0.0019313635;-0.020274619;-0.21638371;0.1182031;-0.013627451;0.34973264;-0.33779934;-0.3102251;0.05222136;0.009589795;0.08029922;0.0042684963;-0.011717173;0.019710708;-0.00039146782;-0.0052793426;-0.010141579;0.055332333;0.04401706;0.07586747;-0.34690008;0.09432038;-0.1457259;0.0765106;0.0873648;0.105093576;-0.020806214;0.38147578;0.4582153;-0.0047544795;-0.016704656;0.014833392;-0.121783905;0.21967787;0.13129638;-0.040108707;-0.112789676;0.34989178;-0.15929258;0.20923418;-0.16315375;0.31052107;-0.024613038;0.09158109;0.01099749;-0.056124125;0.15125886;-0.20397809;0.018614916;0.09042756;0.19182046;-0.00074282463;-0.010927317;-0.01438086;0.15640219;-0.008101389;0.009238545;-0.120531045;0.012423478;0.010417356;-0.015712652;-0.01202171;-0.011997897;0.014898295;-0.012106078;0.23232551;-0.28697595;-0.24322876;0.31914255;0.063563846;0.06284021;-0.0043846574;-0.040357087;-0.06864778;-0.04596262;-0.055963214;0.3094965;-0.00219921;-0.06464865;-0.3897913;-0.01103977;-4.1290896e-06;0.008936401;-0.041148476;-0.0066721975;0.020648163;0.10432705;-0.025404282;0.022096962;-0.0060894727;0.20434287;0.020980556;0.13380025;0.0049744872;-0.072438076;-0.0029758054;-0.22817144;-0.23371601;-0.09038337;-0.028703151;0.011161704;0.0072672553;0.0049435333;0.0020705604;0.0018525952;-0.08622745;-0.09702096;0.025705049;0.015130731;0.37561366;0.0104437;-0.037114155;-0.2970954;0.08142399;0.026236672;-0.21065465;-0.009585976;0.047731668;0.06490543;0.012484758;0.19150257;0.08292126;-0.016882535;-0.100783765;-0.02231232;-0.14325131;0.21053316;0.009835812;-0.38980263;-0.18700293;-0.113189556;0.045060813;-0.009914556;-0.35942045;0.020454418;-0.012988497;-0.0036034754;0.26686487;-0.0016345757;0.06311611;0.01761768;0.01830219;-0.3146949;-0.08754167;-0.5132371;0.40618536;0.0011677706;-0.094542034;-0.0151351;0.3074287;0.006845641;-0.15766315;0.0055304016;0.22992876;-0.022205831;-0.12544997;-0.110214755;0.11269483;0.03675801;0.07322439;-0.25217885;0.42138055;-0.08967333;-0.0018593502;0.11683702;-0.12562346;0.0051563377;-0.37047157;-0.0056582093;-0.22883722;-0.0078078993;0.13588813;0.0015866323;0.023689957;0.010949874;0.31732577;0.29154086;-0.27690783;-0.011649584;0.23095699;-0.14968058;-0.011029196;0.0460971;0.29329515;-0.0041339304;0.09233888;0.029276082;-0.009766532;0.013329429;0.13475646;0.081122175;-0.20285042;-0.12536538;-0.005976341;0.0396141;-0.07503189;-0.0513855;-0.0025892784;-0.121009834;-0.099143855;0.2512894;-0.011428323;0.16964151;0.018108448;0.025997901;0.09858749;-0.26995066;-0.011923399;0.42837548;-0.009410311;0.12822321;-0.058551554;0.18553413;-0.21841238;0.0010503947;-0.034098886;0.36625785;0.088489026;0.1347145;0.28405964;-0.22531609;0.24577302;0.25568354;0.18307112;0.034529895;0.23792185;-0.0025551692;-0.07356655;-0.3385933;-0.010791278;-0.0077619837;0.0068438295;-0.074006304;-0.0062550036;0.005585322;-0.13035502;-0.049670205;0.060780846;-0.022654066;-0.0009602176;0.13775745;-0.17206714;-0.19594897;0.19235717;-0.0055485945;0.12689354;-0.045570396;-0.03974897;-0.35408086;0.24378219;0.56374407;0.0015573931;0.24671604;0.13399899;0.0017045385;-0.096234865;-0.16171509;0.010184679;-0.16165838;-0.014267003;0.16696359;0.016735293;0.009411624;3.6324935e-05;0.03586993;0.078535795;-0.0022015641;0.31363678;0.017181799;0.02972911;0.010895562;-0.1384233;-0.33150533;0.25646636;-0.17211087;0.18265367;0.028758995;0.014165548;-0.0455027;0.13796513;0.10010268;0.10669832;-0.114973366;-0.00898994;0.20229492;0.029979747;0.002864591;-0.0181697;0.07766043;-0.008039188;-0.24015196;0.0073927017;-0.0018248088;0.0039847326;-0.20970322;0.009524849;0.19799247;0.0066760997;-0.028545681;-0.45215806;-0.13356797;0.005209461;0.05559503;0.013172467;-0.028671432;-0.03511591;0.004445986;0.025718277;-0.21150696;0.03502977;-0.1076092;-0.33119297;-0.011439979;-0.00424238;0.030868318;-0.55493057;0.29582772;0.11611066;-0.042263646;0.11624947;-0.0061193025;0.4514931;-0.07951259;-0.004540255;0.22873366;0.16576993;-0.046392407;0.0048707104;-0.012573991;0.1281618
0.11042665;-0.21287492;0.20392944;-0.22543754;0.002709197;-0.074602544;-0.04846173;-0.25210232;-0.009164668;0.13185616;0.003905378;0.09096838;0.21580386;-0.02933171;-0.106150456;-0.0145683745;-0.23671593;0.30065376;-0.100247756;-0.14008443;-0.031278852;0.0028376956;0.17841254;-0.09274205;0.18127874;-0.0016392106;-0.009385536;0.17572865;-0.085205406;0.088818625;0.027148833;-0.007874527;0.09039634;0.096061;0.2845041;-0.11667671;-0.22091411;-0.07629029;0.04324202;0.07923343;-0.00020528365;-0.010103073;-0.07039939;0.28441203;-0.01013831;0.12231451;0.0064332555;-0.08791323;0.12114271;-0.008240035;-0.014570442;0.015260974;0.048389845;-0.017559934;0.013651331;0.09520205;0.0078623975;-0.20527615;0.029268226;0.0016255899;0.0009905507;0.10490034;-0.019808222;0.079540625;-0.11497424;-0.14160253;0.059588097;-0.004461801;0.0036069558;-0.014032677;0.21769875;-0.00084616034;-0.007704241;0.11795563;-0.32886213;0.027242756;-0.008955276;-0.067485854;-0.09166163;0.0021640048;-0.0026909488;0.026260244;0.1038403;-0.1568904;-0.0076148426;0.10543941;0.026684163;0.025763588;0.0036190948;-0.00084164477;-0.00877212;-0.028632889;-0.10283358;-0.24871407;0.023881314;-0.42734656;0.16005287;-0.30596083;0.06273848;0.17997164;-0.009702156;-0.15783094;0.19870277;-0.017721519;-0.036250725;0.18646446;0.0048785503;-0.14426798;-0.03595079;-0.013860811;-0.32088932;0.20371917;0.069179624;0.077386096;0.083123796;0.1400261;-0.37465903;0.20791359;0.019359604;0.24525303;0.039902445;-0.0011476025;0.39980152;-0.008419683;-0.0024824904;-0.014066061;0.14486034;-0.21232572;0.0037037893;-0.34483555;-0.010355284;-0.3180452;0.31541172;0.11063289;-0.021771703;-0.12929136;0.004577898;0.12478279;0.013415618;0.009032086;0.19023527;-0.09849202;0.010332032;0.2948715;0.008901425;-0.12838446;0.069897614;-0.024038602;0.1838447;-0.02045028;0.0043829763;-0.0116701415;0.020887144;0.0478937;0.029099304;0.010105078;0.006832635;0.036618873;-0.21412684;0.0065838355;0.07301323;-0.003665693;-0.13404948;-0.0026231788;0.02052489;-0.4205425;-0.3179686;-0.00588605;0.15464029;-0.12414765;-0.041896723;-0.008436795;-0.02037172;0.36506653;-0.1531074;-0.3737207;0.019194402;0.009697295;0.055050284;0.022566814;-0.017233878;0.12369348;0.06453546;-0.08728504;0.09504097;0.22670308;0.1597242;-0.10661872;-0.5052246;-0.0038971112;0.12215846;-0.022285141;-0.24610804;-8.255374e-05;-0.004496392;0.21177495;-0.15233023;-0.3236898;0.40102023;-0.002720253;-0.3427818;0.25239652;0.091552265;0.00588402;-0.28608775;0.009755766;-0.12889586;0.009384527;-0.37210786;0.2954316;0.035358142;-0.007127098;-0.0018922619;-0.0069602756;-0.045830067;0.0046204417;-0.04852571;0.23375176;-0.25755507;-0.15786563;-0.066517614;-0.459365;0.11640078;-0.01749038;-0.03557355;-0.01875946;0.006949391;0.07002878;0.0001254108;-0.023306621;0.056330584;-0.011641412;-0.044531405;0.0052296524;-0.13000368;-0.27032104;0.19296484;-0.016492177;0.054648753;0.22411272;-0.08653297;0.0077277604;-0.0012141637;-0.23435514;-0.06284341;-0.03873477;-0.005990811;0.003824829;-0.08099803;0.13405879;0.007925091;0.15378654;-0.31670314;-0.2174862;-0.0996349;-0.012868674;-0.18217467;0.0060454803;-0.048540294;0.3397152;-0.009218686;-0.0052239266;-0.17116117;0.24981079;0.18079293;0.07994849;-0.36518294;-0.02181563;-0.11237506;0.10738977;-0.05280534;0.028614381;-0.005995334;-0.032977358;0.5446557;-0.009313073;0.010720551;0.19424969;-0.24718231;0.08483043;0.08163828;0.022340218;-0.2798156;0.23708804;-0.20473981;-0.16455258;-0.10868183;-0.068793066;0.06454782;0.18491004;-0.0051539326;0.07491;0.079201564;-0.15977512;-0.023219109;0.10736891;0.124707654;-0.009122785;-0.02008461;-0.00013915625;0.05788531;-0.0039006807;-0.009998114;0.1406842;-0.0043513966;-0.035381168;0.0075388644;0.007859091;0.028967498;-0.010786304;0.012734072;-0.16745493;-0.21367155;-0.1793553;-0.030935653;0.018641563;-0.07313415;0.027722403;-0.034886245;0.030048778;0.07614784;0.012167248;0.26303056;-0.0030678143;0.010547076;-0.40743083;0.03547634;-0.00969763;0.00036235087;-0.038612965;-0.009320718;0.09491874;0.17162949;-0.26591486;0.4265223;0.015860772;0.13896824;-0.019083045;0.06942975;-0.008120106;0.07591382;0.0075391163;-0.017357148;-0.2952965;-0.18849473;-0.14459038;0.0007771603;-0.0046475152;0.011940429;-0.047081243;0.0029665555;0.029789142;0.0439207;-0.1278981;-0.019909441;0.4827325;-0.011730684;-0.2622674;-0.03308073;-0.10491854;-0.019914148;-0.29940405;-0.0057442184;0.14448407;0.085494265;0.04589757;0.120169014;0.03132171;-0.07366341;-0.17899509;-0.34568852;-0.5170769;0.16906641;0.009581559;-0.17995301;-0.042239606;0.13209762;0.048056215;0.025387118;-0.26972255;-0.008948335;0.004119958;0.017787388;0.25640538;0.0061798384;0.01743127;-0.029330045;-0.25575736;-0.2929742;0.22755292;-0.2721401;0.30054867;0.0058582104;-0.2234436;-0.0039518382;0.11511301;0.014087893;-0.40231174;-0.022814965;0.11726432;0.0140664065;-0.18767777;0.067154475;0.07239173;0.07660067;0.07622862;-0.40688932;0.22046307;-0.10664918;0.14019367;-0.3444339;-0.07800669;-0.0030509722;-0.35590145;0.017791098;-0.21857077;-0.005094547;0.17902467;0.0032329452;-0.0022854577;-0.00549014;0.37688467;0.19949366;-0.16230537;0.011507321;0.10294741;0.09655291;0.0011541513;-0.13927661;0.18342236;-0.004000284;-0.17145944;-0.033685762;-0.023433931;-0.0061468757;0.12421614;0.16824429;-0.31910843;-0.13769789;0.011502266;-0.07914292;0.059475902;-0.032078743;0.004462156;0.0814969;0.08566681;0.12786007;0.120117925;0.12244279;0.1369979;-0.124963485;-0.07778301;0.04013073;0.01593361;0.3585035;-0.0072704623;0.21977517;0.13888569;0.023903549;-0.13386399;-0.29606616;0.01734649;0.34383297;0.085600086;0.33446744;0.05596943;-0.07197223;-0.18234517;-0.30536816;-0.06405711;0.06023003;0.35955;-0.007024092;0.17925501;-0.14373238;-0.0025633378;0.014881875;-0.0032905843;0.047877833;0.0032600348;0.27654317;-0.24464758;-0.112425014;-0.20013231;0.011369358;0.0096474495;-0.0037215443;-0.08979524;-0.08327198;-0.041791696;-0.006547242;0.2911713;0.19389416;-0.0055217827;-0.41888252;0.37694317;0.044209104;-0.022146333;0.0811759;0.2916015;-0.0028800152;-0.07660996;-0.12759416;0.0022223291;-0.36534697;0.009157981;-0.010192747;-0.00020923816;0.0050664423;0.023793371;-0.06594549;0.09176253;-0.011855972;0.15770388;-0.02240805;0.053571887;0.0024555414;-0.17334807;-0.0065722577;0.121946275;-0.23391789;-0.067630194;-0.011405212;0.15764114;0.087307535;0.2438472;0.09550863;0.20999566;0.13313307;-0.014494773;0.26180324;-0.017740391;-0.017883006;0.19109122;-0.002508293;0.01308204;-0.16546486;0.0071027554;-0.0031734388;-0.046858273;-0.45980254;0.004510331;-0.12869735;0.0061016744;0.016354466;-0.4698809;0.10450982;0.00014142753;0.15814865;-0.0212502;-0.038092107;-0.32103544;0.0014702436;-0.08875969;-0.18139799;0.02950379;0.18422675;-0.23241423;0.003579565;0.009445833;0.2543685;-0.65281993;0.4351446;-0.17838295;0.040251654;-0.13060637;0.0038080856;0.21450993;-0.06665227;-0.010477793;0.24808225;0.033907283;-0.06035079;-0.009108879;0.009174591;0.031768795
0.23145033;-0.14504355;0.08482752;0.08171608;-0.004045336;0.02907846;0.15074529;-0.06936392;-0.010834577;-0.051043898;0.0027575623;0.17962576;0.12718007;0.09398397;-0.013882531;-0.15899222;0.14789191;0.2593548;0.0034570142;-0.2736444;-0.1608545;0.013579745;0.21229446;-0.040551312;0.06536002;-0.009255205;-0.0022174327;0.042812116;-0.11903936;0.06191161;-0.03592681;0.010755007;0.13480736;-0.11148358;0.31942472;-0.13848764;-0.37421194;0.1028135;0.35276493;-0.05594535;0.0135777835;-0.0039821398;0.033601355;0.38677055;-0.007907672;0.072951525;-0.017078843;-0.15785025;0.032337423;0.01981352;0.008632287;-0.039597694;0.2390667;-0.010417311;-0.00974211;-0.3800001;-0.00063807535;-0.21889105;-0.14213634;-0.0555014;-0.012097781;0.12465894;0.0038869425;-0.07677153;-0.2764384;-0.10335924;-0.0023767692;-0.33802533;0.09417613;0.018363008;0.20865878;0.005417707;0.003406353;-0.02795208;-0.1668399;0.291731;0.020845076;-0.3553033;-0.095470354;-0.004248085;-0.0065664565;0.31336567;-0.079330124;-0.35837734;0.0044813235;0.2005995;0.021670202;-0.014738935;0.011345958;0.002466073;0.010005477;0.067186296;-0.14691035;-0.10011242;0.12191163;-0.28878072;0.01993685;-0.34994513;0.09381495;0.1734134;0.014132099;-0.40550065;0.041114684;0.013519436;-0.16200665;0.24268036;-0.0052936203;-0.01733947;-0.0070025;0.016839141;0.011143367;-0.008202844;0.1224728;0.08310979;-0.25800163;0.3197794;-0.346747;0.11332284;-0.0037227198;-0.07080548;0.1354988;0.009157572;0.50594527;0.009805931;-0.007898187;-0.0027143338;0.3215751;-0.1767333;0.0099102715;-0.26466224;0.016991673;-0.23531964;0.27434558;-0.16088626;-0.005024355;-0.1522334;0.11969889;0.061703324;-0.016266469;-0.0036530774;0.29098812;-0.5860958;-0.05133242;0.19873127;0.0038029652;-0.2905299;0.10569829;0.013115118;0.082478546;-0.32439062;-0.0044108327;0.21608788;0.0016607326;-0.12544325;-0.014125578;-0.018651504;-0.012868376;0.39372566;-0.39300936;-0.036744084;-0.047242697;0.014540699;0.1174804;0.0013229183;-0.011749301;-0.22754358;-0.27156;0.0131751895;0.16435634;-0.17669481;0.035147864;0.012106611;0.009330913;0.19103467;0.19305499;-0.3516652;-0.017127117;-0.0011941137;-0.0019971123;0.0007672523;0.01172433;-0.08360165;0.0619469;-0.16799441;0.02647845;0.18081212;0.22324584;-0.06952802;-0.57954305;0.01801266;0.031117726;0.017893659;-0.15409675;-0.009828036;-0.020436134;0.3595023;-0.28402847;-0.32853436;0.14356752;0.00806316;-0.2806474;0.21965873;-0.015368891;0.015853848;-0.57164675;0.011315749;-0.209047;0.009584179;-0.3337189;0.024599247;0.056405973;0.1736056;0.0009204034;-0.008633705;0.07915394;0.0048769107;-0.2048741;0.029765913;-0.16849662;0.13690525;-0.15901254;-0.12536547;-0.14526163;0.027158508;0.12436067;0.020865694;-0.0023008673;0.12950857;-0.0020150498;0.03427665;0.10689515;0.016360732;-0.019534767;0.006981959;-0.17462388;-0.33612284;0.3599003;0.014936423;0.22084215;-0.08422298;0.13108958;0.010307895;-0.015758246;-0.14377612;-0.036570728;0.0047106124;0.0012994609;0.06174711;-0.0216727;0.2140363;-0.003490685;-7.872235e-06;-0.099913426;-0.27349812;-0.03964282;0.004586448;-0.114927955;-0.005906016;-0.092799686;0.08262433;-0.000369113;-0.0003928073;-0.30951345;0.18891357;-0.022421401;0.26543683;-0.2599357;-0.03293106;0.09119993;0.14700815;0.05963335;0.06559768;0.02096908;0.41496134;0.41127017;0.0057412414;-0.009340083;0.12187786;-0.22447191;0.27696306;-0.2113365;0.07267231;-0.27293515;-0.06392188;0.027760679;-0.055282928;-0.051195655;-0.08588012;-0.009460787;0.09041898;0.005753254;0.040497378;-0.07539325;-0.053254493;-0.16072893;-0.029608427;0.22277243;0.00041938986;-0.25887647;-0.01110374;0.06427559;0.016260773;0.008167223;-0.051245693;-0.004324145;0.016710548;0.0022961083;-0.042104233;-0.01252838;0.2069981;-0.012489166;-0.09396776;-0.076815404;0.040847495;0.02373222;0.012951692;0.11025391;-0.03245;-0.050238803;-0.03079827;0.17447765;-0.22391666;0.44586328;0.0009994411;0.058269113;-0.14960358;-0.045559175;0.0018712974;-0.0009554839;-0.3418308;0.004434555;0.00781999;0.14915662;-0.3544056;0.39807013;0.0067122756;0.13887542;-0.0017983211;0.169663;-0.012590527;-0.06697277;-0.0062384624;0.019700484;-0.006245107;-0.0859469;-0.07457051;-0.007172078;0.004944529;-0.011846507;0.049621053;0.004043351;-0.03272782;-0.2221207;0.04997451;0.0023897283;-0.031441547;-0.07699648;-0.018532267;0.02168435;-0.07159395;-0.0067465543;-0.12393178;0.011303974;0.046016254;0.08801823;-0.084835336;0.031478744;-0.15191321;0.09825976;0.09117301;-0.17023669;-0.5612659;0.3291453;0.0034647014;-0.16221023;-0.14588115;0.14472762;0.20788598;0.0059840754;-0.3018235;0.015781606;-0.00699275;-0.02442102;0.04136702;0.0016281857;-0.17859975;0.038603876;-0.5375452;-0.11444142;0.012225609;-0.12003863;0.47476584;0.03278632;-0.12555806;0.023810426;0.102678835;-0.0047611543;-0.010211866;0.013286761;0.034660663;-0.00649861;-0.28839037;-0.06101678;0.15779787;-0.032729983;0.18779011;-0.3711426;0.21811916;0.0410593;0.04096272;-0.30149445;-0.08694903;0.007414142;-0.18638414;-0.01131966;-0.21716416;-0.0045328666;-0.020729754;0.001604012;-0.036130898;0.0066360207;0.2363128;0.20152825;0.08355689;0.0045426507;0.18396771;0.113318406;0.017357996;-0.20572278;-0.030740479;-0.0017117594;-0.2023777;0.022481216;-0.016327366;0.0052908207;0.12703428;0.052175954;-0.50621617;0.048370045;-0.009715058;-0.29421884;-0.09803241;0.11069661;-0.0043513617;0.11281568;0.10001526;0.11683279;-0.11916519;0.20692302;0.011125895;-0.14167476;-0.05028898;0.27187783;-0.011876566;-0.04304662;0.0025306745;0.07939045;0.24185707;-0.15813954;-0.2937736;-0.27091327;0.020445384;0.14302364;-0.03289451;0.08312345;0.08194628;-0.22169973;-0.14265352;-0.48646533;-0.085086375;-0.04435715;0.32760912;-0.0074194134;0.40736955;0.3657781;0.008990895;-0.009573799;0.012320038;0.07167909;-0.0022663323;0.24647115;-0.31870154;0.21965216;-0.10091935;0.01596626;-0.0031599393;0.15709929;-0.053768706;0.15930875;-0.01227887;-0.012863554;0.2551194;-0.34019905;0.071737766;0.07356398;0.37994903;-0.0949396;0.0065516266;0.069237106;0.2466396;-0.00887993;0.059646804;-0.06557464;0.0018647569;-0.20282096;-0.016021464;0.05111806;-0.006328521;-0.029480817;-0.020865029;0.1567895;0.07252751;-0.0013752126;0.02275899;0.013069057;0.10467259;-0.01185018;-0.041744575;0.026042817;0.13564052;0.1435898;-0.36932385;0.0035201053;0.043708466;-0.07000925;0.34617063;0.05572605;-0.065368645;0.1929614;0.015445707;0.41340914;0.019834118;0.009513766;0.24357204;-0.21727097;-0.006684091;-0.08520901;-0.0016317078;0.008633327;-0.30975705;-0.46856546;0.0052196933;0.10395315;-0.018245779;-0.0059866044;-0.1547261;0.24689364;-0.001325118;0.24180552;0.034015324;0.009796208;-0.56185555;-0.0052922857;-0.08716253;0.021837996;0.12350585;-0.046854876;-0.15733488;-0.41938674;0.010575538;-0.008292104;-0.4372287;0.03462848;-0.17873326;-0.12821755;0.12780087;-0.015530948;-0.004328838;-0.05625673;0.016440526;0.17441133;0.05557209;-0.14347443;0.006506743;0.007041528;0.31075794
0.030246992;-0.07617362;-0.014010268;0.22440107;0.008665771;-0.014473302;0.08062934;0.12865616;0.021205848;-0.00015955884;-0.012428928;-0.10668785;-0.26989728;0.1413126;0.048135754;-0.08007984;0.0706426;0.07024929;-0.24880143;-0.40437466;-0.22786897;-0.015951633;0.11728446;-0.13785212;-0.030323936;0.00694729;-0.0010118828;0.110637575;-0.06857392;0.01046254;0.27549866;0.006559021;-0.18474498;-0.02812326;0.18860996;-0.22580032;-0.31561852;0.04846598;-0.006030897;-0.076228164;-0.0010273077;0.0022695975;6.187901e-05;0.6765424;0.020968238;-0.11609942;0.021121517;-0.11752926;-0.18027116;-0.0062425225;0.0036041113;0.28426227;-0.16205773;0.0027159166;-0.0039501768;-0.2398086;0.0025996917;-0.12433196;0.02836968;0.12227027;-0.001003058;0.22455981;-0.006469715;-0.10167102;-0.030345425;-0.051901102;-0.023754247;-0.26645428;0.18828245;-0.028365783;0.34580046;-0.0060985317;-0.0043231663;0.14376475;-0.23957561;0.13994813;-0.01565175;-0.3679036;-0.12873018;0.0025023115;0.014910911;0.055342097;0.040149648;-0.20362316;-0.008682869;0.22962035;0.16166821;0.009394828;-0.009442302;-0.016223047;-0.0044891993;-0.044814605;-0.2629506;-0.034838915;0.009769072;-0.36520734;-0.3670969;-0.3204737;0.0017443082;0.16139564;-0.005602134;-0.7833726;0.09886509;-0.0045316713;-0.1408699;0.025234943;0.008353133;-0.2083343;0.05697516;-0.009667548;-0.25396633;-0.23465286;0.20916073;0.17111276;-0.33901104;0.21396938;-0.20297264;0.11759065;-0.00876004;-0.108954415;0.16701025;-0.022470815;0.57783216;-0.008294694;-0.0036957175;0.0021647864;0.33079273;-0.16213028;-0.017973715;-0.10564658;0.116327815;0.04687952;0.27292413;0.07036612;0.01602642;-0.005218902;0.008278724;0.20163861;0.00077388744;0.007997118;0.3579615;-0.27929756;-0.33598587;0.08875002;0.0091236895;-0.35085332;0.123316154;-0.007876917;0.25868252;-0.400125;0.0012580913;0.27347454;0.029370274;-0.20931332;-0.00049144484;0.012626088;0.013277996;0.3348472;-0.34509474;-0.0733548;-0.25521103;-0.029776527;0.21555817;-0.0044345674;-0.002960718;-0.23691775;-0.26884708;-0.006512576;-0.015906302;-0.007573547;-0.09957675;1.7889772e-05;0.00666091;0.027041553;0.41818824;-0.28575605;0.021126471;0.0210823;0.03153964;0.007862357;0.0057724784;-0.15569995;-0.048554838;-0.044141844;-0.34406587;0.27597868;0.26665038;-0.31686708;-0.5224789;-0.011425895;0.1674098;-0.0106348535;-0.100479856;0.008173098;0.0021025517;0.16810453;-0.12673374;-0.48934123;0.04913534;-0.0033969036;-0.17034389;0.37640986;-0.15824671;-0.0047058044;-0.38929927;-0.022677785;-0.08077014;-0.015678503;0.083814025;0.00091088685;-0.06206361;0.11396739;-0.0086166505;0.0049324394;-0.22389589;-0.009727945;-0.22714446;-0.29535604;0.06697506;-0.020734204;-0.27069643;0.10673741;-0.12748846;0.0014053077;0.1254613;-8.4746105e-05;-0.009107736;0.24140254;0.013478824;0.062697895;0.21602455;0.010689349;-0.11634503;0.12489942;-0.07119452;-0.38591972;0.2811853;-0.008021033;0.11035369;-0.102391236;0.07040987;0.026006624;0.012474287;-0.2208435;0.12352613;0.012119628;-0.00010535961;-0.025631305;0.025756964;0.107818194;-0.0028407488;-0.14003997;0.28183678;0.13159457;0.108108245;0.032973807;0.44927952;-8.730955e-05;-0.10984605;0.37209916;0.0011867882;-0.0015244841;-0.2344956;0.057415925;0.12960802;0.06780192;-0.24465203;0.017882604;0.22635248;0.017994812;0.15677606;0.19813597;-0.0053439206;0.23864655;0.25026602;0.004084643;-0.0027980607;-0.009501477;-0.20199391;0.2500489;-0.16510549;0.19435917;-0.11065234;-0.28711665;0.124276154;-0.16127929;-0.057473198;-0.044273645;0.3359712;0.2450437;-0.002563157;0.098114;-0.0856164;-0.20064874;-0.10305628;0.010292602;0.18687414;-0.002106488;-0.09246171;0.016629081;-0.1220319;0.005467926;-0.00034583802;-0.2045746;0.010135556;0.02309466;0.0065345224;0.0025773733;-0.015869515;0.25002128;0.018051153;-0.14884883;0.19021684;0.06308573;0.20142798;-0.026691502;-0.09474642;0.010273526;0.05994091;0.03858255;0.26282242;-0.33543932;0.68296206;0.0053773974;-0.019681701;-0.30274358;0.017456455;0.01662043;-0.00694282;-0.32116973;0.007225869;0.038211312;0.27276355;-0.36741808;0.2598786;-0.01852044;0.15790053;-0.004491061;0.067694426;-0.0011694536;-0.15166992;0.016530737;0.027251838;0.0117695145;0.08975477;0.011054116;-0.0063069058;-0.0027279493;-0.0029466443;0.099503726;-0.011955497;-0.0928502;-0.17433082;-0.00700608;-0.0020465811;0.031038119;0.08390729;-0.23324361;0.21185745;-0.047336835;0.008534297;-0.15828969;-0.0029928398;-0.095110774;-0.14299645;0.03358993;0.18947446;-0.023252392;0.016688405;0.24747051;-0.23026384;-0.5350344;0.23912951;-0.019571707;-0.12567757;-0.3362862;0.10422184;0.27816477;-0.017023046;-0.3432118;-0.012759881;0.0019013806;0.012269402;0.025444996;-0.0023867863;-0.0039512697;-0.025241027;-0.71024925;-0.4132615;0.11793057;0.05329448;0.17159474;0.053305905;-0.052072767;-0.0036729395;-0.14327659;0.0010874962;-0.011246176;-0.00092935184;0.048535813;0.010247311;-0.07383172;-0.14379907;0.037031535;-0.043825503;0.058333974;-0.24843809;-0.087340705;0.23275709;0.17463343;-0.3101988;0.011872257;0.0029502653;-0.20287268;0.002299504;-0.052960925;-0.000103636885;0.02163431;-0.0057588187;0.17635801;0.008029382;0.10211282;0.27351126;0.2636387;-0.0071514584;0.20232971;0.23341762;-0.00639616;-0.023201596;0.23170258;0.00614512;-0.28572258;-0.0075559034;-0.010001975;-0.0138442805;0.13115801;0.086822815;-0.4103447;0.15553722;0.00032021938;0.19868281;-0.074463084;0.15168622;0.014200022;0.058454785;0.23828381;-0.09701786;0.1348271;0.3451179;0.106365345;-0.30277136;-0.104595184;0.26627362;0.0011308414;0.20211647;0.004226493;0.08949039;-0.08025293;-0.12230531;-0.32194728;-0.10337166;-0.015878944;0.24100022;-0.20185208;0.12549014;0.043573402;-0.28142235;-0.19692785;-0.38297567;0.022129975;-0.0628725;0.15293214;-0.010569585;0.18662423;0.11501569;0.016591193;4.4671157e-05;-0.02038516;0.11341775;0.004947275;0.07258237;-0.23671974;0.16505574;0.120642826;-0.0075535183;-0.0047874846;0.03839931;0.009945002;-0.0375301;0.053613998;0.023841405;0.06997881;-0.27532834;0.005615991;-0.28584442;0.28606394;-0.30895367;-0.001728682;0.15372945;0.21651775;0.010735999;-0.047454983;0.15486841;0.004116125;-0.14110903;0.006046515;-0.060191903;0.042150706;0.0033743866;0.023545975;0.24877514;0.24287845;-0.005032803;-0.10088408;0.010009401;0.07570712;-0.009946994;0.033489138;-0.00059835345;-0.2108403;-0.040155336;-0.21078219;-0.0008227386;0.015801176;-0.32490152;0.24887872;0.035296112;-0.059603065;0.14058773;0.0038704108;0.36323267;-0.0059653544;-0.018084439;-0.020910775;-0.14507976;0.004902083;0.037381567;-0.004984486;-0.005775713;-0.3741873;-0.09602987;-0.01196462;0.07585692;-0.006996477;0.0024821046;-0.35652605;0.07279664;0.006564478;0.21096505;-0.073005244;0.030606234;-0.6560131;-0.020132242;-0.22297083;-0.14136569;-0.285516;-0.005306101;-0.13962288;-0.51383793;0.0018328717;0.025300793;-0.24502552;-0.25721467;-0.2627592;-0.34418046;0.0031019773;0.013512262;-0.34659436;-0.18862894;-0.014535553;0.014107296;-0.23373537;-0.07466994;-0.010968767;-0.014970785;0.25671706
0.16948736;-0.101486854;0.052490536;0.21783334;-0.011677669;-0.1390124;0.0065643596;0.3014099;-0.019186018;0.06322338;0.017947374;-0.051227413;-0.42756453;0.2131812;0.032170836;-0.109927684;0.23272248;-0.17967609;-0.25049254;-0.21632142;-0.27357772;0.010613026;0.19932826;-0.120287076;-0.116063505;-0.012574752;0.0008507806;0.18087445;0.024481352;0.06066112;0.2945106;-0.0139378;0.14357726;-0.23736146;0.042301595;-0.067403704;-0.13719697;-0.124061696;0.05496505;0.1255893;-0.0011721888;-0.004182872;0.04698963;0.47992507;-0.017828766;0.09238023;0.0024314858;-0.060040284;-0.14610797;0.004542467;-0.015104192;0.08139759;-0.20541596;0.012412805;-0.00088931626;-0.32524064;0.0063218693;-0.2946947;0.046858616;0.05127344;0.010066445;-0.24229336;0.009777369;-0.18980272;0.08623284;-0.050601408;-0.015793804;-0.019414796;0.103440255;0.007397345;0.33807653;-0.0051596193;0.01374809;0.2825038;-0.24505877;0.19908963;0.018910725;-0.49805966;-0.1409782;0.0012906888;-0.016217196;0.11180703;0.060256694;-0.14336133;0.010023669;0.38778836;0.11705702;0.00025515215;0.002181414;0.013585011;0.008002267;-0.21869507;-0.12092183;0.2094962;0.017686004;-0.24767642;0.017448578;-0.06483377;-0.07554231;-0.017488789;-0.00021476607;-0.6404152;0.20124987;0.00021281929;-0.17692995;-0.24239324;-0.0010183353;-0.16250798;-0.07142375;0.0015805792;-0.24432102;-0.10508233;0.107786834;0.036024082;-0.45577642;-0.07728694;-0.13714996;-0.041231103;0.008068162;-0.026275346;0.17889644;0.015849842;0.22108845;0.012259989;0.0008195407;-0.009353672;0.10203506;-0.07255624;-0.0024468538;-0.13516861;0.14867511;-0.17572993;0.3012513;0.10013281;-0.017589074;-0.09046037;0.085366815;0.14939444;0.015688179;0.008600266;-0.09334192;-0.03823157;-0.26083183;0.1879533;-0.0041851345;-0.38967434;0.109188244;0.0088423565;0.09265465;-0.037664544;0.0036821258;0.3882091;-0.038656346;-0.32372344;-0.013264574;-0.020976882;0.00025991016;0.4109059;-0.37741882;-0.038769938;-0.21011698;0.020137705;0.066191755;-4.0835377e-05;0.014483816;-0.41538876;-0.2263579;-0.015004962;-0.009229068;0.04393577;0.0059848074;0.028745549;-0.00046038805;0.17660762;0.38293773;-0.04289308;-0.019618306;-0.032881007;-0.00095108943;-0.0077272807;-0.0020440454;-0.17337635;0.066522166;0.063736;-0.12752733;0.115790986;-0.14455502;-0.12251877;-0.18003093;0.0001299636;0.40106112;0.014984451;-0.24589372;0.007080439;0.010840057;-0.03778563;-0.11893156;-0.3509524;0.018360227;0.012734209;-0.08122984;0.26218185;-0.049239684;-0.017707495;-0.1455448;0.016642563;-0.04395995;-0.0005771983;0.26212952;0.010577222;0.022680283;-0.11325629;0.009045705;-0.0077204145;-0.24827056;-0.007719042;-0.021378294;-0.27465814;-0.21166818;0.15162693;-0.0044803577;0.11260685;-0.056534823;-0.012777787;0.073450536;0.00030261965;-0.00022140499;0.46069878;0.0019951959;0.0747065;0.25971648;-0.021047475;-0.017871892;0.0024656365;0.20164934;-0.3032505;0.24875374;0.009185316;0.10313047;-0.13954891;0.1508736;-0.010146382;-0.0036435816;-0.1927985;0.2928356;-0.012695993;-0.006895903;-0.08361916;0.06308831;-0.09471627;0.008090266;-0.29514048;0.380397;0.45831838;0.2140816;0.0016240337;0.013080439;0.005714036;0.045421425;0.3062078;0.010574588;0.0066938465;-0.35223395;0.171173;0.06501817;0.06992906;-0.0935658;0.020680247;0.0214875;-0.2700247;-0.21389693;0.37437153;-0.010808751;0.12408968;0.22014683;-0.0149937;-0.012532858;0.099464096;-0.2760572;0.2949925;-0.036667474;-0.014168858;-0.10928819;-0.22024417;0.122153535;-0.23511507;0.024083134;-0.1670063;0.028870415;0.21542667;0.0022989698;-0.20923474;-0.10694895;-0.17037486;-0.103501864;-0.06566763;0.1937005;0.008282108;0.19493903;-0.01702161;0.08097349;0.006439998;0.0015280736;-0.19936374;-0.014446528;-0.035843335;-0.025720276;-0.01993157;0.010185499;0.1962123;-0.009192796;0.041177027;0.042189386;0.20858887;-0.07784357;0.15239304;-0.14088741;0.0066997474;0.023499118;-0.034534227;0.15072452;-0.17792083;0.56616914;-0.005336027;-0.014645342;-0.014673407;-0.010911654;0.0022827792;0.0058191703;-0.3749005;0.0065454445;0.0010010187;-0.10394768;0.026787497;0.18598062;0.0348383;0.26040298;-0.000870148;-0.069546185;0.027444482;0.1270103;-0.017734602;0.00038607512;0.0882883;0.14956404;0.032815725;0.013408085;0.011397023;0.015650135;0.08639645;0.0042806664;0.0803706;-0.056655474;-0.24391016;-0.0007047007;0.113668315;0.12864317;0.050512522;0.058050975;0.03843925;-0.03015146;-0.13174547;-0.009053662;-0.318215;-0.2947589;0.18381849;0.110832274;0.20142682;-0.11683854;0.28065792;-0.116273604;-0.37187898;0.17976797;0.009791695;-0.09474291;-0.47032282;0.08501241;0.2604061;0.006292231;-0.2674789;0.008432315;0.0016763902;0.019188924;-0.14286268;0.0015827705;-0.1909633;0.0069776927;-0.43439642;-0.36207187;0.02054634;0.16758244;0.053835843;0.07800996;-0.008672989;0.010597558;-0.24527197;-0.009075382;-0.079833515;-0.0074914917;0.054261193;-0.022400744;0.09458775;0.17785196;0.17342438;-0.069724716;0.030633412;-0.18550946;-0.10663524;0.20039679;0.22332345;-0.13221684;0.1090355;-0.009141879;-0.26511016;-0.013674363;0.08562457;-0.00886763;0.09419116;-0.0029555608;0.3053905;-0.019626576;0.28080878;0.17835419;0.4289764;0.0062384126;0.16865134;0.28276533;-0.016971044;-0.07332207;-0.008846671;0.010501892;-0.19533727;0.008288146;0.0012479307;0.018746512;0.07113516;0.12884673;-0.13778262;-0.0028338425;-0.004995785;0.092411906;-0.057918463;0.32132068;-0.023690887;0.07770933;-0.06474319;0.015443883;0.0025620467;0.1597584;0.09617328;-0.013121719;0.18586335;0.17825627;0.010906287;0.10829365;0.003606179;0.061949022;0.06275092;-0.31898454;-0.2333113;-0.07175713;0.005713992;0.3217191;-0.038985353;0.23601243;0.14463854;0.12412085;-0.19733745;-0.0725264;0.28069794;0.055454087;0.1444328;0.0027558734;-0.109934315;0.059762362;-0.010192886;0.009074226;0.0048333625;0.17059413;0.0038773944;0.20319763;-0.15201758;-0.013802192;-0.123251945;0.002626745;0.0101310685;0.12572666;-0.077656336;-0.14562958;0.29204938;-0.0012895409;0.19952619;-0.07687688;-0.0055902596;-0.47618127;0.04758997;-0.2687084;0.024236329;0.13710922;0.01723848;-0.008937682;0.00017963511;0.22253516;-0.019209782;-0.40873137;0.0064745024;-0.1997193;-0.016424512;0.024562215;-0.037768237;0.116645694;0.315568;0.004052773;-0.117677115;-0.006155338;0.17208172;0.006821081;0.10563142;0.29564106;0.09672153;-0.22275123;0.1691325;-0.0067818267;0.19668846;-0.42943537;0.14314736;0.1019288;-0.11120302;0.10932678;0.000880417;0.23462787;0.013321145;0.0174937;0.16095611;-0.13076219;-0.00348461;-0.021804778;-0.0041995794;0.015968172;-0.30347043;-0.10612378;0.02718652;0.14716458;0.016454542;0.005978757;-0.30224362;0.13742857;-0.002603663;0.022647662;0.03402336;-0.073864445;-0.6020772;0.027397603;-0.3208055;0.0026132232;-0.3012426;-0.23282248;-0.094929054;-0.44742143;-0.0069945552;0.16237634;-0.22895145;-0.0632515;-0.2571711;-0.17446545;-0.174482;-0.011770695;-0.059443377;-0.22819464;0.019416079;0.022986662;-0.06753122;-0.23099014;0.016082985;0.025191722;0.18895695
0.3143898;-0.056525055;0.05273234;0.086305186;0.01650187;-0.29992226;0.06927386;0.22071436;0.032403957;0.048278388;-0.009878302;0.06580434;-0.42993733;-0.0013073097;0.14558803;0.08974211;0.13463198;-0.09474118;-0.077664934;-0.044893093;-0.18492444;-0.005569966;0.07549266;0.06997516;0.010173187;0.0103611555;0.0032416594;0.0076295086;-0.06193319;0.17314333;0.12857758;0.0074247173;0.070522256;0.024765775;-0.0722696;0.22341812;-0.09035575;0.016315406;-0.015843997;-0.0377463;0.012648139;-0.011139235;0.09234206;0.33542717;0.010355818;-0.12764661;0.0037754094;0.11664018;-0.031075599;0.00582618;0.020845508;0.21635178;-0.31009683;0.013993975;0.02972818;-0.59419215;-0.0032620651;-0.27295876;0.0703019;0.003964313;-0.0012420402;-0.3160977;0.0047566774;-0.18944217;0.075985186;-0.047550034;0.06324356;-0.118161604;0.14212795;0.011131539;0.48829278;-0.0044649807;0.010984114;0.042655017;-0.2608771;0.050779536;-0.008552618;-0.3320423;0.0659944;-0.0040034577;-0.008487321;-0.15878154;-0.110392444;-0.07395646;-0.0006944604;0.2774023;0.18321735;-0.0076048463;-0.00037371175;0.008529038;-0.0097962795;-0.2323869;0.010363533;0.2727132;0.15200007;-0.22899756;-0.25986212;0.32052892;-0.052952677;0.04395617;0.0085035665;-0.5725297;0.05684028;0.0013141872;0.35223094;-0.057529382;-0.005609911;-0.20255154;0.036753327;0.0019929432;0.051564142;-0.3864867;0.041891836;0.28234;-0.06350652;-0.18066768;0.00040176057;-0.06185732;0.013810794;-0.037079863;0.16413178;-0.011764036;0.047281116;-0.008202283;0.005209965;0.014853703;-0.1904536;0.002514424;0.008572188;-0.04279996;0.4093132;-0.07259384;0.1843283;-0.20902556;0.018561339;-0.14301316;-0.06539588;0.06902184;0.007980068;0.00310382;-0.082609676;0.25442505;-0.17959866;0.17218417;0.004578101;-0.13089265;0.087593585;-0.01635445;0.1597614;0.06624641;-0.0028745544;0.4144359;0.061429057;-0.286338;0.006225886;-0.004298261;-0.021099374;0.33838966;-0.08256558;0.08600293;-0.17072065;0.0104831485;0.1341966;0.0036839284;0.004008695;-0.017869579;-0.2947245;0.025344877;-0.04623183;-0.02406217;0.0931759;-0.0295886;-0.0057430645;-0.15868483;0.4174458;-0.07573545;-0.012720649;0.0052553;-0.05393909;-0.008396993;0.0050614853;0.07340644;-0.007919817;0.2826409;-0.06236202;0.15930612;-0.21645287;0.022473313;-0.14643656;0.002797618;0.14544873;0.0013771333;-0.183699;-0.013182415;-0.0063083265;-0.04315378;-0.23893252;-0.01937879;-0.15646061;0.00534943;0.07090012;0.08740586;0.008363604;0.0044449135;-0.39001244;-0.00173977;-0.048850343;0.002510411;0.09543332;0.044471867;-0.00182034;-0.05540006;0.0062671076;0.022106744;-0.1641905;0.014165752;0.0014466526;-0.21695858;-0.46626052;0.17471392;-0.02715506;0.11163037;-0.32679582;0.0017204263;-0.35156527;-0.006442733;0.018832557;0.41002735;-0.014435048;0.0961751;0.24456272;0.005747562;-0.22980061;0.2131943;0.06785011;-0.2717553;0.02527498;0.0018306174;0.13676709;0.04162281;0.175287;-0.01830375;-3.412884e-05;-0.12395557;0.2580291;0.009294248;0.009145323;0.045588903;-0.13025472;-0.12993336;-0.0069053145;-0.2132343;0.2298098;0.44502276;0.15593456;0.020290082;0.22872064;-0.004680094;0.021139238;0.24097016;0.0020614893;0.009907391;-0.1921859;-0.041928496;-0.013336986;-0.21292923;0.109021716;0.12678477;-0.021579284;0.08260689;-0.28330728;0.44530272;0.007970646;0.10382111;0.20795666;-0.0025908137;0.018970601;-0.048966322;-0.31123054;0.29904374;-0.3639454;-0.0822936;-0.040129766;-0.021901213;0.083911136;0.13100241;0.07762338;-0.21774971;0.24744946;0.043454763;0.010514613;-0.34964895;-0.16080211;0.0063684448;-0.2445123;-0.060505062;0.095653825;0.0018325223;0.38156202;0.0142971175;-0.066433296;-0.010674907;-0.0096904375;-0.24969213;0.015297493;-0.05502243;0.026862072;-0.0283976;0.0030178772;0.062413957;0.012924835;-0.097184084;0.18515079;0.059796568;-0.13937216;0.19499849;-0.07660239;0.0044496004;-0.14211966;-0.017870521;-0.07073596;-0.05430962;0.41022238;0.0064935707;-0.042297263;-0.01797146;-0.04098176;-0.01612374;0.0104433885;-0.14482674;-0.004035414;0.08949098;0.06873379;-0.05006388;0.21317565;-0.023595657;0.3407268;0.013142786;0.06306105;-0.001044333;0.24799353;0.009152288;-0.038100634;0.2848058;0.22524917;-0.08077442;-0.008189256;-0.0004698826;-0.0057036695;0.27654195;0.010413404;-0.06458367;-0.05824374;-0.26479426;-0.003193085;-0.49266705;-0.05235858;-0.06443667;0.023047237;0.016545981;0.026007766;-0.3153728;0.005385746;-0.15534027;-0.41525054;0.07386577;0.15918724;0.3728817;0.08598192;0.3610333;0.1449531;-0.38525897;0.11596656;0.007174196;-0.23748656;-0.23845099;0.15650181;0.18893676;-0.0024896944;-0.15696819;-0.018074902;0.009728729;-0.010425876;-0.025827516;-0.012253468;-0.37317348;0.014130901;-0.37717712;-0.008187285;0.04405974;0.06448799;0.124169536;0.08976609;0.13588488;-0.013936212;-0.18120328;0.0049623726;-0.0364678;0.012096545;-0.22234485;0.0028416913;0.11678384;0.22948484;0.29885313;-0.101639114;-0.065326445;-0.33365875;-0.23145062;0.20103677;0.07349046;-0.022516036;0.009598925;0.023210818;0.120786995;0.01995641;0.15005589;0.010089881;-0.08241135;0.013339843;0.26068604;0.013236963;0.23242968;0.27727586;0.39771518;0.010667142;0.15830432;0.16260576;0.0076290583;0.041903816;-0.25703883;-0.00027696765;0.006585447;-0.018953709;-0.04084306;7.7047196e-05;0.10366393;-0.037708685;-0.21738017;-0.26348886;-0.011803193;0.0382975;0.008855922;0.16604994;0.018247327;0.018932292;-0.08719112;0.170982;0.20570257;0.30767456;0.032260835;-0.07723768;0.022464082;0.17974022;0.0036632058;0.40052924;-0.0015609444;0.26719615;0.3536076;-0.12508959;-0.11946791;0.22137271;-0.058001902;0.22871217;-0.3141472;0.1511098;-0.16590242;0.14310496;-0.0927525;-0.29836008;-0.008873256;-0.013094315;0.023438385;0.007516571;0.020227643;-0.035400845;-0.008568964;-0.015429226;-0.018381516;-0.0065227244;-0.0043259044;-0.26169476;-0.16355707;-0.039445397;-0.02192162;-0.0068062805;-0.0131505905;0.11716057;-0.05407639;-0.32395378;0.25745848;0.017528258;0.025809485;-0.041712496;-0.0065786093;-0.19299112;-0.07202616;-0.075251445;-0.018681517;0.2779325;-0.07112884;0.0005792655;-0.0738726;-0.016278991;0.012117603;-0.09101091;-0.005584447;-0.1863513;0.018430265;-0.011975107;0.011081671;0.09664962;0.19526193;0.0063781557;-0.09156082;-0.021737404;0.15625115;-0.010698205;0.05886313;0.30874;-0.03519243;-0.14757223;-0.036949;-0.002590346;0.20530643;-0.27159172;-0.008477027;-0.037850007;-0.18169202;-0.040096845;-0.013201247;0.27830976;-0.005749828;-0.005425589;-5.6403027e-05;0.1458441;-0.007133355;0.1350601;0.016999243;-0.009774433;0.05311995;0.16470681;-0.01591272;0.18869014;-0.022240113;-0.001199323;-0.34923303;0.14443551;-0.004430416;0.1965365;-0.1339303;0.018224517;-0.38098863;-0.009900564;0.22923042;0.06290718;-0.022986617;-0.25615233;-0.2319028;-0.5266448;-0.010741196;0.017046884;-0.14783077;0.005240742;-0.17225674;-0.1994816;-0.1475029;0.0073813377;-0.042683348;-0.18976854;-0.0052895853;-0.13090385;-0.20440316;-0.16357882;0.0020735324;-0.021925809;0.32418072
0.025300242;-0.062480167;0.2492793;0.10350083;-0.021763809;-0.28793162;-0.10392062;0.14049697;-0.030293196;0.029329496;-0.00022223011;-0.0874485;-0.15037034;0.10514751;0.16555086;0.022150787;-0.017151922;-0.088636465;-0.23916896;-0.10594733;-0.11736411;-0.007075093;0.1597318;0.003964261;0.048784;-0.018390724;0.007740423;-0.015088657;0.027503459;0.020249685;-0.019586487;0.0021629732;0.054720495;-0.15559475;-0.10533227;0.10060376;-0.14552219;0.12919204;0.025308562;0.06474064;-0.008278636;0.010367634;-0.025551595;0.06414565;-0.015827974;-0.2958312;-0.0131728705;0.12238046;0.043489695;-0.023723776;0.011305599;0.26084;-0.19511849;-0.010248515;-0.030580297;-0.7111119;-0.0337412;-0.26041988;-0.032116335;0.00048385863;-0.013786642;-0.20445256;-0.017824838;-0.090074345;0.40576246;0.17042682;-0.011117;0.13727689;0.09334017;-0.005613185;0.38383475;0.020016931;0.0018585583;-0.11139835;-0.37770113;0.027102815;0.008886713;-0.52584296;0.034617584;0.0034120092;0.01525556;-0.07257627;0.082521565;-0.20053208;-0.006198589;0.2930969;0.037958402;0.00031085868;-0.004671923;-0.014279795;-0.007938689;-0.18895176;-0.008844984;0.4520614;-0.0856806;-0.28263092;0.009957303;0.5182149;-0.10475272;0.16385356;-0.0060123964;-0.34964776;-0.024510259;-0.0027230692;0.3209907;-0.22767846;0.005695682;-0.15256183;-0.0033487738;-0.008572321;0.2709954;-0.24404521;-0.018883666;0.22797157;-0.023399238;0.24474712;-0.082800336;-0.071109846;-0.0051377937;-0.31375656;0.22205243;0.007842268;0.02879314;0.013316831;-0.0039555538;-0.022392945;0.030321857;-0.09235247;0.009073163;0.12688111;0.49831715;-0.038060226;0.15768291;-0.19762294;-0.015291866;-0.38299003;-0.0009473421;0.14000554;-0.013612296;-0.01692164;-0.3075239;0.15843706;-0.3961529;0.19504958;-0.00977381;0.045276746;0.10576512;0.0060311584;0.076483265;0.24088691;-0.0068538697;0.035916943;-0.013061548;-0.39341244;0.014333516;-0.0044481214;0.016516602;0.21233214;0.08013087;-0.05740118;-0.066861905;-0.020262133;0.29239973;-0.01303339;0.002317775;-0.066455774;-0.047435105;-0.007603873;-0.08215167;-0.061461493;0.22328445;0.006116383;0.010578913;-0.2965011;0.31714904;0.29352197;0.030822163;-0.0072283037;-0.23037404;-0.0026390927;-0.0021421728;0.24958824;0.04143955;0.007350511;-0.21131627;0.34078977;-0.103378415;0.10734863;-0.14981693;-0.0003206999;-0.078065;-0.013434711;0.047557782;0.0030941595;0.0069469144;-0.2851503;-0.109132186;0.24414137;0.023450615;-0.0016055653;0.005981838;-0.035926044;-0.14245786;0.007273297;0.038106162;-0.004343078;0.027893353;0.0044974387;0.008141284;0.15473698;0.04306521;0.12177725;-0.00888959;-0.020862538;-0.1683097;-0.01088272;-0.11647259;-0.17166373;-0.27791983;0.16923474;-0.09026081;0.04829385;-0.1534629;-0.006237158;-0.2854806;0.0025571603;-0.005492604;0.15468931;0.014757398;0.15015225;0.19424471;-0.009630359;0.042157773;0.24142577;0.0243867;-0.1795124;0.047644734;-0.009378561;0.15757665;0.12793471;0.19151746;-0.01464284;0.0016568685;-0.035187263;0.2571844;-0.026800627;0.009836604;0.008443387;0.15307567;-0.16686963;-0.0020042118;-0.048941623;0.38398743;-0.030120868;0.34479508;-0.023112783;0.061841153;-0.014755916;0.081680745;0.20031323;0.0058343653;0.0027750398;0.07803563;-0.13102505;0.008945971;-0.10049815;0.32157332;0.16849893;0.17834862;-0.118169576;-0.04008927;-0.18623677;-0.0073787565;-0.017906573;-0.047964677;0.017315192;-0.004889496;0.051133133;-0.08421329;0.096374266;-0.4205183;-0.0057985745;0.03669982;-0.07302788;-0.16870576;0.36541343;-0.11084136;0.113947906;0.19435985;0.054832537;-0.006591233;-0.3005566;-0.2788408;0.003563186;0.021261698;0.07409609;0.221047;0.0073751975;0.2136188;0.017082686;-0.09197629;0.008916054;-0.00984595;-0.22123127;-0.0065943645;-0.02909159;-0.007835948;-0.00072303216;-0.008232373;-0.016709404;-0.010101489;-0.18789846;0.1338746;-0.019502873;-0.012447724;0.17912455;0.07274765;0.00088588573;-0.20403363;0.3187547;-0.037166547;-0.054690387;0.30224878;-0.006958742;0.03181479;0.07754595;0.01840147;0.001779444;-0.009278661;-0.41259804;-0.0065301624;0.032616884;-0.026182938;-0.029428916;0.30155823;-0.011945664;0.45298386;-0.006445836;-0.13509445;-0.006047018;0.17577407;0.010774306;-0.056717206;0.23125193;0.4710743;0.047320258;-0.008549353;-0.0006102359;0.0038345437;-0.15257995;-0.017469313;-0.23785806;-0.064460285;-0.48877975;0.0026887145;-0.40120608;0.021745589;0.06363857;-0.085610785;0.036581457;0.00064849027;-0.23149447;-0.000742548;-0.05375668;-0.5727472;0.14896499;0.14514546;-0.19582961;0.04358468;0.28175372;-0.06292613;-0.35518232;0.16834968;-0.004442894;-0.10472995;-0.20206775;0.08983486;0.13592881;0.0017015914;0.10167022;0.022367535;0.0018142827;-0.007698906;0.06551165;0.014707733;-0.05022869;-0.0016003081;-0.4001204;0.16219479;-0.1573017;-0.025289748;0.041462585;0.07825973;-0.02758586;0.0021463647;-0.16274685;-0.0033003541;-0.030128926;0.0048812674;-0.14867324;0.03244981;0.30474925;0.44404805;-0.055298407;0.03493729;-0.05158699;-0.049260247;-0.25569174;-0.07500961;0.06937836;-0.17597848;-0.068958744;-0.033068173;0.2409081;-0.006166537;0.10183927;-0.008765776;0.097376525;-0.022481758;0.12112006;0.0031954711;-0.14130668;0.23143195;0.09262422;-0.0152867455;0.20308489;0.26053697;0.011069938;-0.003081052;-0.22993347;-0.006300352;-0.15204574;0.0059728404;-0.017545845;-0.0034959512;0.050741352;0.10046276;-0.055940326;-0.39567664;0.024235908;0.08814023;-0.19174708;0.13712667;-0.00452418;-0.030429201;-0.2211633;0.18664931;0.041289024;-0.0686282;0.09250633;0.023416188;-0.027411703;0.18796676;-0.006511198;-0.03724623;-0.0021335809;0.43783703;0.035993595;-0.005411709;-0.14001565;0.23077957;0.017921714;0.038964942;-0.3288001;0.28486782;-0.06761764;0.14348829;-0.13900629;0.02336305;-0.27236882;0.05823673;-0.2353438;-0.0038764493;0.16696173;-0.05688176;-0.0012271589;0.0047658538;5.5846573e-05;0.16349751;-0.01922391;-0.08988939;-0.33588102;-0.32434556;-0.08894174;0.012773645;0.0054686824;-0.044657446;-0.07332664;-0.37506923;0.4077312;-0.023695443;0.3354058;-0.0982815;-0.02603135;0.0768683;-0.21878298;-0.14007625;0.009530763;0.088344805;0.07858346;-0.017725503;0.22092836;-0.13413514;0.0021221046;-0.021773972;0.00690725;0.1331386;-0.012406369;-0.007630391;0.0019854947;-0.042215083;0.29085344;-0.0043901443;0.15682717;0.0060864184;0.08058712;-0.00033595445;0.020836944;-0.14897475;-0.11795791;-0.020518724;-0.031916566;0.0011644718;-0.25057465;0.011469953;0.03364729;0.013942871;0.034645822;-0.12224388;0.006943185;-0.017021159;-0.003578187;0.017316777;0.008259766;0.34601393;0.004476045;0.14799084;-0.013774435;0.010319841;0.16471672;0.14088266;-0.00049904536;0.34846747;0.026358387;-0.026246043;-0.47561827;0.08162914;-0.009490336;0.042837773;-0.08647528;0.042728376;-0.32775223;0.012256133;0.15257214;-0.2269351;0.2717422;-0.40782315;-0.20781206;-0.54550153;0.019369382;0.093553305;0.0009745305;-0.10507456;-0.120404474;-0.14566916;-0.13473469;0.0049108244;-0.0948186;-0.0660659;-0.00263986;0.027951688;-0.1695941;0.10844758;-0.0062019587;0.01963125;0.27861688
-0.17918421;-0.10597577;-0.011177323;0.2847817;0.010030983;-0.113454774;-0.008170964;-0.032642547;0.014392126;-0.18833847;-0.0033271266;0.27017424;-0.1795871;0.03771443;0.038154714;0.08265239;-0.086683474;0.07003673;-0.055559896;0.045069862;-0.032921292;0.027356924;0.10597406;0.06395094;0.073912926;0.021495188;0.002968897;-0.13579139;0.018106326;-0.10249171;-0.07623479;-0.0073551596;0.17228135;-0.069514915;-0.1623714;0.099498264;0.010421328;0.23176971;-0.16326852;-0.22036022;-0.017191263;0.0025349387;-0.18459159;0.08107974;0.020217964;-0.32915393;0.007907487;0.18047029;0.14430071;0.014295026;-0.016283253;0.026573118;-0.029602861;-0.005655388;0.019208973;-0.6319493;0.032263428;-0.17812894;-0.08988656;-0.22365081;0.02350601;-0.15141107;0.0057895468;0.07010882;0.36531913;0.08938695;-0.009584518;-0.054350447;-0.013355221;0.0038789508;0.14617702;-0.00086495903;0.0016489992;-0.31613573;-0.36627808;-0.10047812;-0.007969472;-0.22980127;-0.058348678;-0.0026259527;-0.007564737;0.04886053;0.06534816;-0.09557629;0.009231296;-0.041428864;-0.21087384;0.01212886;0.0027985834;-0.0097821355;0.009227957;0.010837785;0.22488835;0.029393189;-0.25206023;-0.24592976;0.028358966;0.24917027;0.18159968;-0.03866192;-0.010418611;-0.16474523;0.0970993;-0.0007529416;-0.12067418;-0.50557804;-0.004177806;-0.06945843;-0.07866153;0.0006538286;-0.04521528;-0.20553093;0.029990649;0.21139872;-0.2883617;0.30517408;0.07616789;-0.306088;-0.010470118;0.035891265;0.21694645;0.0052906615;-0.001953989;-0.022259902;0.003249861;0.021928648;0.12440201;0.046417765;0.015490397;0.22855875;0.32991254;-0.13093835;0.15521367;-0.07826229;0.010065591;-0.34315497;-0.025872927;0.032593284;-0.015829168;0.0042862403;-0.2396976;-0.12988985;-0.34474128;-0.18674636;-0.00029371557;0.034625653;0.026461435;-0.0028815449;-0.15510495;0.11403099;0.0021562863;-0.020944636;-0.07418267;-0.15455651;-0.028034205;0.0096333055;-0.017424935;-0.20440309;-0.11143181;-0.17566954;0.014657887;0.005038788;0.05343876;0.0059524905;-0.0045464644;0.14213312;-0.13028665;0.009987649;-0.032243613;0.08918728;0.10225053;0.00030822214;-0.0045425994;-0.16207097;0.20274545;0.13425323;-0.011740318;-1.6087188e-05;-0.5821106;0.0048355223;-0.0037091763;0.31251928;0.006446656;-0.06938409;-0.08043664;0.35258478;-0.15212443;0.20845383;-0.09876481;-0.015275401;0.10013469;0.015745755;0.020278359;-0.002975378;0.0026507662;-0.37198222;0.10352207;-0.0825921;-0.0035197148;-0.0060793986;-0.1289261;-0.01043;-0.030206962;0.0063607274;0.14126197;0.006095228;0.19828701;0.0014557356;0.14952306;0.046785004;0.013009697;0.04011656;-0.00580983;0.0012207921;-0.1346225;0.012772669;0.025536343;-0.13504203;-0.20436215;0.1824815;-0.248463;-0.019429732;-0.011853783;0.01590928;-0.22537448;0.0062077045;-0.0057832845;0.19167842;-0.01575047;-0.052161742;0.17795484;0.005862708;0.06344592;0.0043693422;0.07476838;-0.18394998;0.0032443888;0.0040017925;-0.053779144;-0.017234858;0.11257094;0.045045715;-0.017630402;0.31554836;0.15525602;0.013327239;-0.014317662;-0.05440208;0.0060189907;-0.19102266;-0.016303658;-0.20594597;0.22198768;-0.029056564;0.3476013;0.030375412;-0.07139603;0.023611754;0.0439271;-0.16774592;-0.019484391;-0.01577828;0.13560517;0.12462278;-0.13228716;-0.047464855;0.09643431;0.32708526;0.15050896;-0.12597491;-0.06007771;0.037329897;0.011172915;0.053968564;-0.22666974;-0.021911737;-0.0009547535;-0.045587663;-0.31624502;0.20296249;-0.25430262;0.05535014;0.0884865;0.229505;-0.14280729;-0.038485367;-0.15765554;-0.020753765;0.32879654;0.021938791;-0.01683942;-0.32860947;-0.36159527;-0.051744368;-0.23569863;-0.06674688;0.20982072;-0.0019087539;0.23810036;-0.008728003;-0.20773499;-0.011675325;0.005326162;-0.14819796;-0.004655441;-0.025932666;-0.0047123185;-0.009090171;0.0026282545;0.01747852;0.020306116;-0.08775437;0.014291375;-0.123660766;0.08262755;0.29900524;-0.043731462;-9.2678136e-05;-0.198332;0.33112928;0.12594;-0.1377754;0.3973149;0.0057831877;-0.027160466;0.02780035;-0.002507397;0.0058532767;0.003850687;-0.1055687;0.014183029;0.079226986;-0.011985384;0.12819591;0.013044523;0.0015413426;0.31153095;0.017663408;-0.033727597;0.016908105;0.27157855;-0.016081933;-0.06019967;0.27284586;0.3474964;0.08157191;0.0031889689;0.0129958205;0.0055446792;-0.018185072;0.018930975;-0.20826595;-0.10734911;-0.52121097;0.012811949;-0.31933707;-0.07941472;0.12954074;-0.21775885;-0.0014104319;-0.0033674182;0.16509801;0.0038143701;-0.07820137;-0.4615786;-0.039739158;-0.17537926;-0.062189147;0.053868685;-0.038017232;-0.072415985;0.022859149;0.035708014;0.001726193;-0.33661038;-0.15263893;0.06829313;0.03545455;-0.013073993;0.2216147;-0.021911846;-0.018540788;0.008230466;0.22657736;0.005282396;-0.13000788;-0.009771811;-0.28544798;0.038963594;-0.048543155;0.24139324;0.12416162;0.0066238614;0.019080093;-0.008908719;-0.28968775;0.005046366;0.08204876;-0.013735016;-0.016395146;-0.031620853;0.05801812;0.25965053;-0.3333222;0.06506872;-0.05146418;-0.10847153;-0.38604945;-0.1243539;-0.14447926;-0.5361118;-0.04933894;0.019616779;0.32017666;-0.0082788225;0.09595576;0.0063029043;-0.5670106;0.028605878;0.026372623;0.018255321;-0.20926943;0.18846795;-0.13071878;0.013264456;0.16942388;0.31226102;-0.010222481;-0.10338182;-0.30641967;-0.0019917146;-0.17523436;0.010067011;-0.027862335;-0.0022628142;0.00547486;-0.23076908;-0.3237291;-0.18883523;-0.02087465;-0.1639304;-0.19635092;-0.12018494;0.007217631;0.06255958;-0.15252073;0.16702168;0.13689381;-0.20921135;0.062840454;-0.004304139;0.15060616;-0.020810679;-0.0014216471;0.045809317;-0.008012304;0.4404777;0.19832644;-0.31270897;0.0528132;0.01960689;0.018462999;-0.1583386;-0.25807855;0.14843096;0.11964663;0.2381666;-0.36596173;-0.24621996;-0.2661999;-0.04888645;-0.30972248;-0.0053130086;0.20282239;-0.052770887;0.00070880476;0.0049759285;0.010189415;0.2535949;0.010038027;0.12633851;-0.19785714;-0.23913898;-0.17018579;-0.019884838;-0.010518438;-0.0035881607;0.17137724;-0.6874879;0.29593158;0.00051212066;-0.23361062;-0.121745214;0.047280744;-0.13276957;-0.16292605;0.3118867;0.0037210798;0.28736195;-0.14092334;0.021435767;0.04385888;0.049685445;-0.018611703;0.17072837;0.00472352;-0.08337897;0.03873414;0.0034306569;0.00909835;-0.12353875;0.24157362;0.002357066;-0.040087055;0.0032278944;-0.09612727;-0.0021001608;-0.09042252;-0.29311952;-0.20729572;0.08501169;-0.17469141;-0.0007297465;-0.42576623;-0.14718445;0.042823818;-0.050382655;-0.117368855;-0.005922237;0.009843072;0.0750245;0.010072157;-0.014257708;0.26303345;0.25215766;-0.0033340259;0.2630487;0.011922209;-0.0011346756;0.28085995;-0.0041810474;-0.010772904;0.3011526;-0.0009109815;0.016609436;-0.17968833;-0.029100135;0.014616961;0.090915516;-0.21468556;-0.041005228;-0.26095253;-0.024205225;0.17993525;-0.16198342;0.3250313;-0.012340145;-0.17396663;-0.41829368;-0.019353468;-0.07763638;-0.031781;-0.13687958;-0.22450022;-0.10336605;0.2906175;-0.0027208952;-0.17133212;-0.33871597;-0.0018587395;-0.019450966;-0.23513228;0.11670918;0.0019260801;-0.017102024;0.4365919
-0.21593685;0.2173366;-0.05911218;0.12678285;-0.0002871852;-0.32855287;-0.23371904;-0.069941506;-0.006399902;-0.45800555;0.006544951;-0.06362591;0.24559948;0.18775333;-0.041876774;0.20434012;-0.39523897;0.116275765;0.0007541505;-0.20987317;0.045969285;-0.020932078;-0.009387755;0.055469237;-0.02587911;-0.021330371;-0.014001584;-0.107131205;0.13016365;-0.25416386;-0.31338918;0.008631445;-0.1698674;-0.03964196;-0.0031975394;0.11472612;0.056893278;0.24628976;-0.0888099;-0.16032085;0.004189541;0.0057511292;-0.14870937;-0.0045152656;-0.0015289529;-0.11802549;0.0024351333;-0.00029167387;-0.012395196;0.006423144;0.0017734414;-0.18364336;0.055852592;0.0077395397;-0.018599108;-0.42748702;-0.007910486;0.07385239;0.2230358;-0.070001364;-0.007962839;-0.19540125;0.012389731;0.25182748;-0.0014393769;0.13471375;0.040477794;0.051299352;-0.13880855;0.006834331;-0.0035057594;-0.016024401;-0.008627835;-0.25672272;-0.20783015;-0.23148043;-0.010630366;-0.019824438;-0.10472563;-0.009482439;0.0075972653;0.24338509;0.109808706;-0.17956887;-0.010865567;0.018041432;-0.075933754;0.003271887;-0.004925914;0.018745484;-0.018988088;0.027340604;-0.005315322;-0.03616625;-0.27218053;-0.31035116;-0.017187819;0.18036862;0.08488182;0.006445434;0.012040194;-0.11992971;0.0014161083;-0.0003070489;-0.15392877;-0.20803156;0.009150802;0.16000475;-0.13170291;-0.0032476056;0.15182108;-0.14583723;-0.22151248;0.21454866;-0.28600246;0.046904426;0.14363796;-0.29658523;0.004039101;0.09890279;0.15254267;-0.00392215;0.05397414;0.01323857;-0.0012310768;-0.014683098;0.19599243;0.17466065;-0.015947632;0.2429823;0.056881983;-0.28369537;-0.011627336;-0.08550653;0.0035314306;-0.4233975;0.07166755;-0.07466325;0.020028379;-0.008604153;-0.49407136;0.11462086;-0.29612038;-0.3219844;0.0013271215;-0.12995528;0.19851983;0.009126102;0.03038241;0.10018366;-0.010899314;0.12692648;0.061317142;-0.13361356;0.01808014;0.00951988;0.013302121;-0.41936076;-0.020599946;0.1546938;0.02099955;0.0032701064;0.11780658;-0.0019578177;-0.007277166;0.23728846;0.104994744;-0.0018652389;0.20753232;0.09453712;0.09263821;-0.011101528;-0.0012536327;-0.2884869;0.022008698;0.039171316;0.005413976;0.008850367;-0.3489049;-0.0027557528;0.0036058715;0.045187138;0.054350026;0.043625917;-0.055025175;0.32860446;0.015399005;0.18198816;-0.033396486;0.009973694;-0.04874281;-0.011201167;0.028606525;0.006327878;-0.011082473;-0.580782;0.116325185;-0.12296829;-0.18626805;-0.0011719457;-0.014825497;-0.003910191;-0.035337552;-0.013361101;-0.0025315986;0.00017350205;0.4043271;-0.025552608;-0.055221274;-0.04504813;-0.00860449;-0.027501943;0.0109702675;0.0060540996;-0.15837747;-0.015049966;-0.024802957;0.023262866;0.056313597;0.3274208;-0.07333484;-0.29529047;-0.027566087;-0.011455189;0.15416145;0.011809417;-0.0011085445;0.03763545;0.005770418;-0.12164628;0.14633292;0.009443206;0.0960002;0.025581202;-0.0740804;-0.21639228;0.19739248;-0.002371452;-0.059580684;0.028311865;-0.032955647;-0.033804685;0.008915828;0.083766535;-0.06265683;-0.026450753;0.00384948;0.03741427;0.08630645;-0.24004568;0.016586991;-0.1700233;0.026255032;0.016145803;0.21540856;-0.00558281;-0.06697392;-0.0085366545;0.051330414;-0.29052448;-0.006673402;-0.0065132165;-0.28619653;0.121349715;0.05192936;-0.06293968;-0.24238941;0.28750184;0.15747178;0.22812133;-0.069843575;-0.2392562;-0.014419399;0.06718871;-0.14974077;0.016155133;0.0050669927;0.08248552;-0.2989369;0.2138569;0.047840632;-0.3139113;0.263829;0.060836937;0.15792815;0.029158683;-0.12307318;0.08481371;0.40616643;-0.006938024;-0.0011328291;0.19389077;-0.40970373;-0.17484474;-0.46119845;-0.11124159;0.08311198;-0.01686756;-0.00512327;-0.0112978425;-0.030665243;-0.003505423;0.0029429912;-0.18676767;-0.0026051186;0.03436604;0.013524585;0.022634171;-0.016389279;0.0911536;-0.021890128;-0.035347585;0.10641641;0.16787533;0.21047947;0.04896357;0.07164281;0.011563629;0.09968386;0.09913182;-0.02594687;-0.27762407;0.20762466;-0.009823007;-0.026616547;0.25798756;0.025695808;-0.012790726;0.0054563363;-0.27922595;-0.025402375;-0.10343215;-0.32120323;0.11772371;0.17394057;0.008696789;0.28119636;-0.020741936;-0.061586794;-0.015031197;0.20554483;0.0009689274;-0.011020215;0.18268439;0.06786038;0.1748529;-0.0017064811;-0.02550861;-0.00071033684;-0.2364944;0.0019958923;-0.14796762;-0.0066673295;-0.36240828;-0.015285164;-0.023916755;0.044120003;0.23242956;-0.17775914;0.010575068;0.03423659;0.16602105;-0.0043239025;0.20079826;-0.05046459;0.00584631;0.015367401;0.062046852;0.09612865;-0.21528082;-0.25959766;-0.004443569;-0.033486594;-3.674339e-05;-0.02393389;-0.25983727;0.0067558107;0.030441543;0.031554814;-0.04537821;0.01098072;0.009902574;-0.02340129;0.17664756;-0.0027776593;0.05179933;0.014995338;-0.22036019;-0.051997185;0.15927777;0.38245025;0.1187228;-0.15094477;-0.14053796;0.0008664517;-0.43554214;0.008209045;0.1494497;0.024251156;0.04004027;0.014988897;-0.14831474;0.21306418;-0.29807982;0.10317181;-0.10944253;-0.22112902;0.08499423;-0.37770805;-0.16410069;-0.44568035;-0.018446371;-0.010063015;0.3328361;-0.009624476;0.2393441;0.01196168;-0.32703263;-0.026495365;-0.16599765;-0.020916339;-0.28031185;0.24719329;-0.17512327;-0.0064552845;0.28254318;-0.07642253;0.014184064;-0.038761344;-0.09936233;0.004626374;-0.07820485;-0.01091427;-0.0067916447;0.007886559;0.08277899;-0.15248032;-0.23997648;-0.09742635;-0.00944885;-0.00013133611;-0.2394071;0.10938095;-0.00724059;-0.11107138;-0.23086913;0.13373962;0.033647504;-0.04493614;0.07852606;0.038876414;0.32755405;-0.09526121;-0.0039438144;0.008072204;0.01708316;0.41986924;0.3102936;-0.33141008;0.0011089254;0.10975527;0.002681105;-0.20557193;-0.11038031;-0.002141988;0.16287386;0.3180925;-0.4791618;0.10314443;-0.4169301;0.12711008;-0.3262674;0.008833889;0.42481056;-0.03251666;-0.0042187995;0.0085490765;0.008359464;0.29273853;-0.0056982813;0.4016705;-0.04468253;-0.2292294;-0.13186584;0.024483118;0.011085645;0.1532297;0.171738;-0.5089854;0.35853288;0.009175859;-0.20961842;-0.21787477;0.0015744842;0.022190755;0.016519994;0.072531365;-0.008154938;0.12064536;-0.044963546;-0.0043707313;0.18740281;-0.15477298;0.008843862;0.188451;-0.025315698;0.30365357;-0.020989805;0.012803421;0.0061228364;-0.22487876;0.05124099;0.0025158299;0.023717279;0.0014717927;-0.092526235;-0.009276962;-0.22295298;-0.33839196;-0.020224681;-0.09246315;0.0155267315;-0.0060267462;-0.6292851;-0.17069878;0.008454605;0.008683166;-0.10395461;0.03440107;-0.019840425;0.29363948;0.009997303;0.0027435701;-0.016000053;0.18234089;-0.002306927;0.319697;-0.0031197276;-0.0139730405;0.299951;-0.3232555;0.014268023;0.30333745;-0.00059873116;-0.0055822567;-0.08831348;0.09472618;-0.00455173;0.043513067;-0.40026012;0.028917547;-0.43031964;0.006373686;0.25266385;-0.19011647;0.000664591;-0.12535597;-0.057038825;-0.23853767;0.02209194;-0.2576558;0.22298047;0.03792538;0.04933043;0.0036966633;0.4837414;0.004309147;0.09164755;-0.28586993;0.004727405;0.11314411;-0.00088431593;0.06217906;-0.0072319573;0.0042086854;0.31184736
-0.025423488;0.16908772;-0.026310386;0.22609381;0.009629586;-0.29493564;0.054713044;-0.21536693;-0.0027085065;-0.3714686;-0.003533067;-0.11524226;0.26775303;0.17596419;0.23872384;-0.15905781;-0.15000665;0.29741216;0.008127144;-0.07738973;-0.027408993;0.0040508895;-0.16905962;0.031029375;0.0577656;0.0152411405;0.007839586;-0.100289084;-0.06555962;-0.14565977;-0.18573569;-0.0028596325;-0.34420693;-0.3418045;-0.20012942;0.30236202;0.19807924;0.12702198;-0.014199738;0.035417877;0.0038678655;-0.013894881;0.06752313;0.07486886;0.001242907;0.24150352;-0.0198829;0.038365345;0.114289366;-0.00744201;0.0064949105;0.120926954;0.14377587;-0.000100800455;0.00030165695;-0.36519936;0.0012944636;0.10304096;0.14566438;0.1042887;-0.0100315185;-0.04878233;-0.018131455;0.04628871;-0.10253333;0.27469462;-0.018342748;0.05424077;-0.001554636;-0.010003715;-0.20884354;0.0139268935;0.0056412197;-0.09996559;-0.16460262;-0.1811586;-0.0019788174;0.12777843;-0.05280057;0.014332405;-0.006905653;0.26627168;-0.018285045;-0.16861802;0.012896428;0.009586398;-0.042895492;-0.007258193;0.0028448433;-0.012072227;0.016347155;-0.26563588;-0.07550178;0.06176101;-0.118663885;-0.021224461;0.10628274;-0.031502094;0.032100927;-0.17256083;0.0053847525;-0.062441356;0.029737992;-0.003583131;0.21183616;-0.047916904;-0.011581217;-0.04896048;-0.0021433632;0.0014361126;0.19652389;-0.11085119;-0.49692935;0.1191457;-0.437175;0.08775027;0.17998175;-0.15214825;-0.009343496;-0.09476681;0.11512504;0.005228756;-0.08103169;0.011500334;-0.004208114;0.00034779057;0.01668837;0.1134395;0.0069515263;0.25394937;-0.066248305;-0.33404282;0.043892052;-0.057703003;-0.007975729;-0.23430167;-0.1035441;-0.09354141;-0.00044955575;0.018156745;-0.50177383;-0.0534229;-0.039805453;-0.004828478;0.006607446;-0.034542073;0.33877382;0.0036719409;-0.35876983;0.010994073;0.026140684;0.025640406;0.012616499;-0.22435097;-0.005393969;0.005656991;0.0017511196;-0.17215407;-0.03492166;0.23739421;-0.04663761;-0.0026314599;0.056524694;0.014363194;-0.0008148353;-0.1570184;0.22230639;0.00083145546;0.10723455;-0.046213176;0.1217762;-0.011471893;0.019503575;0.055395667;-0.05260974;-0.062188428;-0.020146508;0.013254711;-0.035455745;-0.00044522397;0.0006297286;0.25399876;0.0015815195;-0.028465465;-0.02787816;-0.0036159705;-0.06626388;0.033407193;-0.016387213;-0.008882334;0.012503301;-0.0021508054;-0.079732955;0.0012778165;-0.00044257104;-0.34630457;0.030808724;0.12330529;-0.16948138;0.006286095;-0.094871975;0.1623244;-0.014972253;0.0043546045;-0.05659485;0.01392555;0.24732423;0.023717571;0.03634364;-0.192767;-0.11795433;-0.2933207;-0.022286117;-0.0018202679;-0.21480767;-0.002681611;0.059311423;0.06243585;0.25785857;0.22431695;0.015680471;-0.25233895;-0.08727524;0.0028981243;0.21466994;-0.016945172;0.010320609;-0.003817358;-0.00871738;-0.1213573;0.12759188;-0.00066545873;0.12326441;0.16559696;-0.22771959;-0.35100567;0.0694606;-0.005689866;0.00081909803;0.04976377;0.09532762;0.05283689;-0.002365339;0.18945822;0.17039758;0.032123707;0.0056756283;0.024388753;0.17870025;-0.102399066;0.008920251;-0.1801534;-0.30606234;0.037379835;0.1091567;-0.004013913;0.09106444;0.0077663036;0.09446804;-0.33081487;0.022024058;0.00082540256;-0.07873741;0.23852842;0.23668888;0.090131685;-0.49328113;0.24988301;-0.27420217;0.104075015;-0.07483358;0.117211215;0.003579413;0.13704991;0.194528;-0.0002480434;-0.008223451;-0.059662245;-0.24636093;0.185624;-0.010146994;-0.29229084;0.22718577;-0.19269598;0.41617164;-0.0211907;-0.29383022;0.27054253;0.23502469;-0.24510692;0.004410244;0.12318275;-0.5124329;-0.173698;-0.4647616;-0.305851;0.19641237;0.026914585;0.14105535;0.0016189889;0.08252999;-0.009378711;0.015763644;0.039249837;0.0062717837;0.05711784;-0.0050397897;0.034383368;0.036058143;0.04409227;0.009483253;0.09764363;-0.15226269;-0.07789915;-0.050126057;0.10516715;-0.06672417;-0.01528767;0.034850042;-0.07697452;-0.1022572;-0.21155909;-0.016520979;0.008492365;0.020834316;0.21545912;0.010222906;0.014992481;-0.004285678;-0.27981952;0.021772737;-0.026071774;-0.25419918;0.102872424;-0.15471506;0.002579146;0.17547229;0.013229889;-0.09620216;-0.0226083;0.20680958;0.0025307476;-0.0199229;0.06489087;-0.14391904;0.107466295;0.008977129;0.012927065;-0.009997286;-0.19562304;-0.015124879;0.15492257;0.08386405;-0.08587609;0.009874288;0.09560943;-0.037647;-0.0211233;-0.15923707;-0.05914128;-0.025709242;-0.1029677;-0.011394531;0.11646947;0.1005351;0.0026059225;0.23139419;0.0889327;0.12808158;-0.19878547;0.08161335;-0.06197445;0.094317816;-0.006503815;0.14776559;0.0073723323;0.19022787;0.07711177;-0.041409574;0.08381261;0.0029779274;-0.008510688;0.022724615;0.07132435;-0.00852958;-0.0035865738;-0.0133066615;-0.001571696;0.167504;-0.06710539;-0.038110916;-0.30602503;-0.17156361;-0.042144805;0.010399039;-0.2880901;0.0003978354;0.024729824;-0.027032385;0.008958628;-0.002649581;0.11102678;0.41356832;0.033046696;0.03368814;-0.046964303;-0.39331883;-0.08940937;-0.21668568;-0.17549789;-0.1784797;-0.06405877;0.003980827;0.3549858;0.008335836;0.0016663478;-0.009306858;0.24877894;0.012402992;-0.09832874;-0.002616188;0.18785082;0.2039867;-0.2589822;-0.01743667;0.29009742;0.05965564;-0.01986338;-0.20824559;-0.20101419;0.004440024;-0.34962636;0.020758541;-0.020769864;0.0014229272;0.10944358;0.10728011;-0.3427682;-0.22068085;0.019208403;-0.30337447;-0.17962743;0.15195765;0.005833299;-0.008075365;-0.15595044;0.12907727;-0.07289004;-0.1394475;0.27315843;0.038611356;0.14002754;-0.19946939;0.0126889525;-0.14031552;-0.005964684;0.23601852;0.16992621;-0.22548693;-0.026271274;0.24700949;0.052321617;-0.4139933;-0.23913455;-0.21291533;0.23648867;0.407615;-0.4585064;0.085693724;-0.0887176;-0.008703459;-0.24990402;-0.0080404505;0.26064664;-0.15643899;-0.007231702;0.0016587792;0.0016965249;0.31607983;0.015095076;0.033856805;0.09546197;-0.14390709;-0.011538058;-0.017178146;-0.0043100175;0.095903866;0.3530196;-0.45080686;0.14930058;0.0014451172;0.262331;-0.3606418;0.008295689;0.106121406;0.13320407;0.07773217;0.006015881;0.17832704;0.24746747;-0.00740019;0.23761024;-0.31861937;-2.7496484e-05;0.30911168;0.014743851;0.145106;0.04326876;-0.027426694;0.0013686722;-0.19783631;0.20893891;0.0026629297;0.10307179;-0.002390129;-0.2417809;0.013393483;-0.30692968;-0.3633304;-0.1530432;-0.29268137;0.10500575;0.029744638;-0.46199208;0.1422462;0.019560084;-0.124928065;0.0014629507;-0.22083335;0.011434766;0.24028832;-0.03620748;-0.007219731;-0.15096873;0.006266484;-0.0024755697;0.4074187;0.0028027112;0.0058480995;0.12474726;-0.094276346;-0.02162423;0.15437147;0.0027110113;-0.00024111895;-0.007870158;0.01837951;-0.00600615;0.11818018;-0.2620545;-0.0036105565;-0.47446984;0.0051845117;0.2643646;-0.3124264;-0.03876828;0.021485595;-0.4555703;-0.2505945;-0.0095031;-0.4148259;-0.016500287;0.1398402;0.13591613;0.13456692;0.5350774;-0.018935807;0.14435574;-0.10726567;-0.00070520584;0.31062666;0.019598627;0.1563195;0.0028542797;0.0016788311;0.20919046
0.061722077;0.069076456;0.08395566;0.030568695;-0.0059723654;-0.26737633;-0.14059918;-0.19346756;0.0007755036;-0.11407823;0.007931211;-0.0064765583;-0.01978701;0.13586198;0.32203472;-0.05048225;0.11827085;0.056812897;0.13038741;-0.08649579;0.13086663;-0.0014668312;-0.09776393;0.17342973;0.0067503555;0.007251052;0.000922812;-0.07216758;0.069001436;0.0815472;-0.14641781;0.0038558673;-0.15622854;-0.49488103;-0.20363523;0.21978521;0.13963607;0.1860847;0.03470526;0.07052176;0.010292689;0.022322785;0.07101713;0.056354955;-0.015546434;0.117066726;0.005852256;0.27085826;-0.044484995;-0.000323109;-0.018389294;0.121316016;0.15980306;0.00091830996;0.021098936;-0.36073852;0.010221699;0.16276152;-0.08381417;0.21322201;0.019171068;-0.11212806;0.0038773664;-0.33197492;0.084440805;0.03291939;0.013175158;-0.090064086;-0.17302847;-0.00366339;-0.3383881;-0.018787589;-0.022370793;-0.08629129;-0.18641128;-0.03704482;-0.0054114233;0.07442741;0.02530276;0.00422189;-0.009363079;0.49470294;0.14722466;-0.4154627;-0.017896067;0.1162076;0.11604903;0.00963561;0.0037755256;-0.000932771;-9.9974335e-05;-0.0034936978;-0.1953491;0.01690095;0.025114464;-0.121718146;0.23395342;-0.03850052;0.06795078;0.0022601949;-0.0035054118;0.052318443;0.012183368;0.019138617;-0.07879138;-0.12195526;0.011351932;0.029734166;-0.011589998;-0.0019211795;-0.023730746;-0.046053816;-0.34716097;0.07166386;-0.50710624;-0.058409125;-0.092011236;-0.156863;0.016716963;-0.012583956;0.0006761401;-0.017748056;-0.0047540166;-0.012139776;0.013745524;0.013836703;-0.05651295;0.081933774;-0.018730463;0.20560913;-0.06919964;0.025028374;0.1726523;-0.02327916;0.0005057664;-0.120936126;-0.20990415;-0.061068654;0.00014907507;0.00045938624;-0.8679028;-0.24755476;-0.22366486;0.23153964;-0.0048778807;-0.0097368285;0.22528848;0.010333508;-0.2557157;-0.04547636;-0.016950367;0.033069704;0.03898369;-0.001758321;0.00085372373;0.00029546552;-0.001135167;-0.23957257;0.25708473;0.309829;-0.0974538;0.012752571;-0.16384138;-0.020617185;0.012474629;-0.045914937;0.08674481;-8.918181e-05;-0.063293874;-0.11096072;-0.09003293;0.011356942;-0.021430526;0.006728849;0.047648992;0.15045896;0.004489466;-0.012067426;-0.011158451;0.008790709;0.0039441767;0.38222626;0.0031507243;-0.11135345;0.10463749;0.019173944;0.059710056;-0.1535111;0.199923;0.014983454;-0.17399894;-0.005932729;0.15138453;-0.006574463;0.0046995836;-0.40628758;0.25352627;-0.04424895;-0.53824705;-0.0146172205;-0.020958;0.24447352;-0.202106;0.0013165282;0.056984052;-0.015690595;-0.021403924;-0.015835678;-0.14116064;-0.1605205;-0.026225314;-0.26886097;0.008563078;-0.016213067;-0.15414824;0.008114779;0.24510221;-0.0909581;0.2644674;0.23015174;0.043714207;-0.4490254;-0.29578668;-0.005472408;0.19834803;0.0063706483;-0.016718216;0.098398715;0.009403575;0.14157908;-0.053979654;-0.0059830174;0.21139748;0.02330943;-0.5265079;-0.43161932;0.14882442;0.0036229366;-0.16000552;-0.017832186;0.25955734;-0.06279985;0.0073201726;-0.11597215;-0.09388439;0.032858826;-0.001557916;-0.08789031;0.17527765;-0.09362911;0.0011654487;0.03479867;-0.26883703;0.12423162;0.041547105;-0.00012715832;0.049884703;-0.00017145678;0.14236003;-0.49443892;-0.024093607;0.012183468;0.10319631;0.13984591;0.28026062;0.19646876;-0.4235289;0.030201491;-0.42627126;0.075139105;0.16292512;0.15945429;0.014755767;-0.0006824062;0.19221868;0.008730666;-0.0026872787;-0.10642086;-0.255347;0.0028659946;0.04168182;-0.14921814;-0.09488744;-0.16930631;0.28927886;0.28446576;-0.26220262;0.100605644;0.2788815;-0.47241858;0.001647385;0.035959262;-0.44408184;-0.15643133;-0.21100134;-0.24775629;0.22930971;-0.034656357;0.14091618;-0.004894197;0.24958783;0.0029451977;-0.0065785144;-0.13712981;0.009283602;-0.0014229184;0.0026527154;0.0337615;-0.00362786;0.16629478;-0.012340154;0.27539048;-0.07665438;0.121782646;-0.057261184;0.2569298;0.050176404;-0.0138738;0.19504204;-0.053362433;-0.2897345;-0.0333126;-0.023929639;-0.012538912;0.011437785;0.081897795;0.008970799;0.00064943754;-0.0048714583;-0.55803907;-0.011035483;0.037247483;-0.42589325;0.28610307;-0.22784215;-0.0027785574;0.17238909;-0.017674072;-0.15546018;0.0056552673;0.14836647;0.009676691;0.06725646;-0.02420377;-0.15565632;-0.046577685;-0.0047858125;-0.01545678;0.0052726795;0.081014104;-0.0026568277;-0.036560483;0.22809611;-0.02843288;-0.010031733;-0.082368165;-0.012532206;-0.016316945;0.06366719;0.008852064;-0.00034134748;-0.2153737;0.00019500864;0.29644275;-0.1710608;-0.092890166;0.0811693;0.030127162;-0.04958234;-0.33035627;-0.050651345;-0.23167142;-0.12976927;-0.004501263;0.088511966;-0.088430144;0.30023855;0.024076566;0.00958667;0.2678635;-0.020926576;-0.0020216128;-0.014887839;-0.033118162;0.0037944408;0.28382885;-0.0048848703;-0.00019492595;0.27491242;-0.09060464;-0.0995532;-0.4226083;-0.08295165;-0.21370949;0.007226508;-0.20276691;-0.008904027;-0.12115628;0.0071701547;0.044913076;-0.021180138;0.029768756;0.003366185;0.16278358;0.14212546;-0.06384117;-0.5069199;-0.12031134;-0.5181161;-0.43040225;-0.04415489;-0.24549411;0.006069057;0.25658756;0.013047081;-0.16928849;-0.0039081206;0.5765907;0.006546055;-0.1338393;0.01360271;0.04104055;0.3238885;-0.24831267;0.008347571;0.29458797;0.095370814;0.009933674;-0.14386787;-0.46325982;-0.0074062664;-0.15487394;-0.0035384572;-0.044749614;-0.0075674043;0.015788874;0.024611818;-0.18710896;0.0071881036;0.0037976443;-0.14269222;-0.24847351;-0.048588753;-0.007668321;0.1456676;-0.16790816;0.26496527;-0.12168786;0.13030836;0.23776759;-0.09971215;-0.17047262;-0.11893651;-0.0055525023;-0.030624064;-0.0016820398;0.14446104;0.25190198;-0.038735252;0.18153845;0.2788295;0.029026296;-0.34978467;-0.34719038;-0.36548537;0.17581487;0.22003788;-0.3624527;0.062349252;-0.11602431;-0.0444743;0.09709789;-0.0015485666;-0.07764671;-0.16210271;0.013240887;-0.01439708;-0.00059224915;0.4897891;0.004704794;-0.2580139;0.079614356;-0.15728806;0.041386925;0.004210959;0.008731238;-0.059098896;0.36678788;-0.042589508;0.050511226;-0.010082105;-0.05415646;-0.4127776;-0.0031247425;0.062286317;0.0945197;0.058049493;0.00079749455;0.1990436;0.4629918;0.0035962486;0.20307615;-0.15438019;-0.009118383;0.39985314;-0.01132065;0.1691206;-0.046957377;0.008391467;0.005648285;-0.13436976;-0.015322288;-0.005841139;0.1742148;-0.008072761;-0.19428916;0.004747818;-0.16900289;-0.24365087;-0.1462341;-0.004800726;-0.145547;-0.0061685974;-0.26877248;-0.034919117;-0.026761182;0.050593358;0.17925462;-0.22395284;0.011540002;0.1679282;0.012752137;0.0024150459;-0.2851853;0.24636263;0.0073007424;0.075597525;-0.015157832;-0.008441763;-0.0066017397;-0.22447702;0.020484176;-0.11607216;-0.011307421;0.007875339;0.0943024;-0.08944853;0.0014977397;0.0968163;-0.11801359;0.03787978;-0.12979496;0.009408509;0.2548902;-0.09084772;-0.076134056;0.229705;-0.22591351;-0.42630526;0.007462891;-0.13396588;0.07848915;0.0030292699;0.28700632;0.14031366;0.34267914;-0.0002686777;0.14218155;-0.17208643;0.0019860778;0.32224104;-0.13764578;0.26865715;-0.0108752465;-0.00942427;0.2042208
-0.014777254;0.13446036;0.11208773;-0.043870155;0.0128116235;-0.09123176;-0.04452842;-0.13555291;0.014555307;0.1033458;-0.0044287457;-0.24128237;-0.0503353;0.12415125;0.0144743435;-0.12765644;0.23221475;-0.22048338;0.065280795;-0.15423146;0.18300566;-0.009917651;-0.014656205;0.34595838;0.022882005;-0.00802848;-0.006069358;-0.0079646325;0.027653893;0.04891682;-0.34881082;-0.0078291455;0.061559267;-0.43711007;-0.42403364;0.23579589;-0.012809586;0.075459294;-0.06161724;-0.030379958;-0.012359017;-0.014462012;0.045502666;0.037907973;0.003982988;0.054635026;0.011132451;0.14979897;-0.26115316;0.001953523;0.00909311;0.35030603;0.16252753;0.003179333;-0.0039403033;-0.42220157;-0.021121804;0.31620473;-0.008969796;0.024888437;-0.008789319;-0.09029494;0.0068460363;-0.3927801;0.032799255;-0.25106356;0.03835415;-0.3099262;-0.21987042;0.0077718594;-0.07183199;0.005525019;0.016416192;0.18042006;-0.31445172;0.14862531;0.014628549;0.13902095;-0.0324052;0.0035288646;0.006227009;0.3490203;0.08774864;-0.26650962;0.015477643;-0.35949588;-0.12063411;0.007464221;-0.0028279677;0.022708276;0.0036020877;-0.047585227;-0.022178829;0.07469808;-0.17079256;0.16276857;-0.116920374;-0.006243364;-0.025313444;0.24240333;0.008145338;0.09964069;-0.049737025;-0.006264496;-0.101550795;-0.24943765;0.0038859334;0.25313982;-0.064808406;0.0027548654;0.23534524;-0.22536755;-0.18618958;0.13719054;-0.40023184;-0.017782765;-0.108776554;-0.08575054;-0.02085439;-0.27131745;0.0031296113;0.012164656;0.01834546;0.00089618005;-0.017444085;0.0039577866;-0.26716533;-0.13574891;0.014742401;0.027348476;-0.036750216;-0.08308069;0.15427133;-0.19412477;-0.01336026;0.0032122186;-0.0076617887;0.02647914;0.0059840083;-0.003217388;-0.48601434;0.019113492;-0.015396158;0.08934433;0.0121631455;0.059455622;0.08001341;-0.024129841;-0.39584;-0.1138889;0.005345243;-0.20303643;-0.059297625;0.003658952;-0.013284398;-0.011605746;0.011274605;-0.26503742;0.30745953;0.0626537;-0.003434447;-0.011991228;-0.033757262;0.0075106197;-0.01082384;-0.100813895;0.14130871;7.294188e-05;0.01921838;0.04379774;-0.2930237;0.00457443;0.0080748405;-0.08038376;0.12082888;0.04852315;-0.009517973;-0.011080747;0.23843771;-0.01637287;-0.012225084;-0.008015717;0.08975462;-0.16497336;-0.01888159;0.09366374;-0.13778308;-0.09853666;0.02742854;-0.010822068;-0.20892943;0.0129914405;0.14377263;0.013215238;0.0031418668;-0.5752437;0.47150448;0.15133171;0.030351436;0.0064897873;-0.12548165;0.30248094;-0.27426267;0.009813073;0.21837157;0.0112724975;3.34102e-05;0.021403495;-0.38876742;0.0665998;0.07279393;-0.2796306;0.009810532;0.023130266;-0.09049863;-0.0016666822;0.18114102;-0.08304256;0.11255226;0.3415934;-0.059255783;-0.16526586;-0.3739844;0.0073484224;-0.11015313;-0.01320732;0.010142384;-0.004437225;-0.006237161;0.29161498;-0.029186781;0.0019080545;-0.08654846;0.16571929;-0.365837;-0.35392046;-0.0157258;0.005465176;-0.16928284;-0.012723027;0.0673743;0.022195585;0.0023980697;-0.24355029;0.15063527;-0.028682934;-0.013254203;0.05185237;0.18792354;0.14296497;-0.007289161;-0.053835314;-0.20068713;0.2542676;0.004934588;-0.008547524;-0.19975024;-0.0061654467;-0.0008259434;-0.26140264;0.0066217785;-0.005074456;0.13517927;-0.104607984;0.49425438;0.24045289;-0.22662058;-0.075128354;0.1257678;-0.12837358;0.023398738;-0.034266297;-0.0050736703;-0.018165264;0.13680942;-0.020018758;-0.005225844;0.01843964;-0.27290004;0.17322335;0.16283472;0.027452873;-0.036264244;-0.14493516;-0.3246163;0.16557604;-0.26491544;-0.13599719;0.34872633;-0.3369861;0.0015704273;-0.1431986;-0.31865543;-0.033499822;0.093532376;-0.06202836;0.27628717;0.03840043;0.32291874;0.0046653063;0.0840925;0.01839255;-0.0135055855;-0.26570997;-0.0015683076;-0.005599779;0.007825359;-0.013941104;-0.02640943;0.18427035;0.005709092;0.17758027;-0.15912083;0.042725347;-0.07999646;0.2258506;-0.03935229;0.010343301;0.21419245;-0.19592184;-0.13844514;0.14423631;0.11015711;0.015317302;0.024942832;-0.03859382;-0.0070057707;-0.0065367655;-0.008379499;-0.41713837;0.01385626;0.18712877;-0.42410985;0.27602148;-0.19261973;0.013891064;-0.0068497425;0.016596867;-0.3286019;0.010350219;0.13888013;-0.0042526526;0.091286995;0.16202728;-0.22025439;-0.018744303;-0.0053084455;0.01258096;-0.012185201;-0.039911363;0.010874414;-0.17546456;0.23838405;-0.29022324;0.0121463025;0.08061968;-0.05502698;0.21216601;-0.006990265;-0.02782527;-0.011827477;-0.26072928;0.011622978;0.4681002;-0.12908323;-0.016008021;0.2142872;0.09345331;-0.091818884;-0.15442468;-0.031578146;-0.1603686;0.05901379;0.0033135463;-0.24763471;-0.045219675;0.12987415;-0.05310849;0.002481821;0.24555025;0.013346347;-0.0050623487;0.02175686;-0.03736548;0.0017955005;0.2903746;0.010905244;-0.004465297;0.18996087;0.11263052;0.06525262;-0.447513;0.33009246;-0.22396493;-0.0080748955;-0.20860893;0.0027851805;-0.22887862;-0.0060540964;0.041355383;0.028097479;-0.14410943;-0.116276875;-0.12157699;0.23382042;0.104726866;-0.1902871;0.10480078;-0.42064247;-0.4545205;-0.027215824;-0.13057566;0.0025451304;0.019877652;0.00087805087;0.015065557;0.00809051;0.43887025;-0.010407773;-0.01265666;-0.00666203;-0.032815464;0.3003384;-0.05155945;0.0029372883;0.32979324;-0.27054048;0.0013126623;-0.1915367;-0.39085826;-0.015893487;0.034617674;-0.0035228992;-0.020885319;0.0018535535;-0.14394502;0.1828382;-0.284234;0.11090256;-0.00738715;0.0048602847;-0.131601;-0.20462212;-0.0028699567;0.26727667;-0.2536449;0.03473902;-0.18281521;-0.19839886;0.14258277;-0.10172482;-0.3258254;-0.060128044;-0.0052404464;-0.2670827;-0.0004620437;0.18739669;0.28764996;0.20310998;0.030384958;-0.04368172;-0.018525586;0.09854471;-0.2966589;-0.22025147;0.16169998;0.17959388;-0.18514314;0.1103803;-0.14764671;0.0063977754;0.085829936;0.00041564173;-0.10324916;0.16239442;0.004729994;-0.017980017;-0.005679277;0.37815526;-0.014727769;-0.40292767;-0.015877819;-0.31720883;0.05442444;0.0026801152;-0.009760145;-0.19048648;0.3933941;0.0063899527;-0.13020411;0.03355598;-0.30160123;-0.33675534;0.013835321;0.1844151;-0.23889199;-0.16316609;0.0071072313;0.09278828;0.33056593;0.012931379;0.13131964;-0.07165594;0.008217311;0.37655798;0.018363867;0.019367483;0.04949885;-0.000993583;-0.011208523;0.081367336;-0.030845148;-0.002199557;0.055761486;-0.003515372;-0.102301426;-0.005553885;-0.016636403;-0.11702512;-0.4230543;0.100522906;-0.010619512;-0.019778587;0.15622288;0.099710524;0.10421459;0.008684204;0.22917828;-0.15527819;-0.006379182;0.31928837;-0.0020828634;-0.004870175;-0.20755498;0.15206821;0.0070240814;-0.110127516;-0.006623265;0.025439613;0.18689029;-0.3151661;-0.018890062;-0.0064246515;0.009587191;-0.010912756;0.022639636;3.4601544e-05;-0.0071838857;0.19972679;-0.019640224;-0.0034279672;0.11456486;-0.011369459;0.24851987;-0.14052305;-0.18455641;0.4009496;-0.37278056;-0.6288612;-0.00847974;-0.034560338;0.14656177;0.024083495;0.36137286;0.21192881;0.37079394;0.011561656;0.31750393;0.053224817;-0.008618278;0.20182285;-0.2694683;0.1595965;0.019942056;0.021561166;0.0045649237
-0.15308864;0.12094461;0.0059278;-0.06912801;-0.023990383;0.07511208;0.16206452;-0.09676033;-0.013760399;0.20459378;0.00011819183;-0.07599922;0.040836297;-0.063793615;-0.12829;-0.027576827;0.33321336;0.032715533;0.20538905;-0.07234954;0.09744865;0.015937798;-0.07261526;-0.044719648;0.040403597;-0.0027719429;0.014839762;-0.0603554;-0.10111797;-0.045577854;0.03607518;0.0017638264;0.2689628;-0.4321627;-0.45370173;0.34517232;-0.06402046;-0.055607744;0.014279483;0.13678461;0.0013199119;-0.013952593;0.0716597;-0.22677976;0.009745794;0.14762118;-0.0015846699;0.1414842;-0.29510668;-0.0015133615;0.0062808483;0.3560093;0.27233115;-0.010048778;-0.0072157998;-0.08795643;0.01850579;0.25880072;0.021367533;0.16805284;0.009599129;-0.088430054;0.0029092222;-0.14245482;0.19769342;-0.18618207;-0.036341142;-0.3593967;-0.09710256;-0.010802281;-0.23084342;0.012544992;-0.009660239;-0.029857332;-0.46969083;0.025329197;-0.010452048;0.21165247;0.097427845;-0.010667228;0.0005203608;0.12907651;-0.06313836;-0.29311037;-0.0073101413;-0.20331077;-0.024203742;-0.006994217;0.00719776;-0.008190179;0.009318812;-0.12374349;0.11988049;-0.08061703;-0.023538025;-0.018040894;-0.14759177;-0.00355051;-0.15617913;0.25202113;-0.006817053;0.053759318;0.024802158;0.0015911451;-0.11110126;-0.30945465;-0.0040894547;0.13088788;-0.042205427;0.00033949048;0.16660948;-0.32514635;-0.11186712;0.2905174;-0.14211151;0.29166847;-0.09391314;-0.18360732;0.0048011914;-0.46065658;-0.058236964;0.008647945;-0.09171065;-0.011196492;0.00040973062;-0.003114849;-0.2627863;-0.04094167;-0.01446926;0.009002841;0.025208024;-0.18607388;-0.031047065;-0.14145547;0.020629028;-0.087959394;0.0352854;-0.1692166;-0.007822191;-0.014040572;-0.74831444;0.13316369;0.12968212;0.09243754;-0.021529358;0.14740923;0.14886616;0.015807623;-0.41711703;-0.18203752;-0.006987724;-0.08825451;-0.0149801625;0.04288837;0.028982613;0.00046253894;-0.008951714;-0.17192419;-0.039254036;0.042691268;-0.037147377;-0.015015408;-0.16220894;0.012802502;0.003927943;0.07103571;-0.19013104;-0.020067556;0.038954567;-0.10452562;-0.18515442;-0.004429893;-0.016759975;-0.14099629;0.20126502;-0.0074717095;0.0063148336;0.003832796;0.047044355;0.0075823986;0.0039675217;-0.06053539;0.116312444;-0.05457526;0.12434501;0.4585323;-0.03603233;-0.1256202;0.11153789;0.010235234;0.17717466;-0.014142904;0.18774082;-0.002058557;-0.0052070473;-0.123871505;0.5739829;0.21729368;-0.11873377;0.0056536556;-0.11211197;0.10019816;-0.08761632;-0.012119756;-0.25501618;-0.0063494816;0.037755948;-0.016356904;-0.023221936;-0.040429033;0.06311696;-0.22427581;-0.003500274;-0.019664604;-0.22049294;0.0014149711;0.28088996;-0.018175257;-0.18140712;0.32885686;-0.10626614;-0.122536965;-0.10301597;-0.005334385;-0.44187352;0.005593572;-0.018854704;-0.034945026;-0.0018567967;0.3378195;0.011027449;-0.011435117;-0.030904312;-0.041270506;-0.43450886;-0.26030722;-0.03174866;-0.010992995;-0.023367466;-0.2590725;0.15002288;0.013258234;-0.0028538418;-0.31620997;-0.08617694;0.005685839;0.005165245;0.0032396293;0.16338748;-0.010110364;-0.0017255024;-0.081499964;0.03124681;0.22907442;-0.0920655;0.08620208;-0.13089094;0.0012975318;-0.1566991;-0.15067664;0.014022894;-0.0001880479;0.13022041;0.06505942;0.18529186;0.13789919;-0.30380154;-0.002257529;0.043619312;-0.23549308;-0.26931283;0.21517001;0.006224325;0.16880183;0.061074235;-0.004402378;0.016285336;-0.03709658;-0.14958954;0.11299538;0.126362;0.14269844;-0.023651056;-0.12784779;-0.46015966;0.1417535;-0.38763043;0.008068843;0.29183656;-0.54163116;0.0030902005;-0.25275755;-0.22511438;-0.07151325;0.067392804;-0.12303524;0.22953606;-0.01931456;0.06672706;0.012233816;0.26272067;-0.01816423;0.00016240551;-0.2090175;-0.0082567;0.07183394;-0.003018422;0.018502383;0.017458882;-0.024859982;-0.007434739;0.18164437;-0.14502695;0.039215844;-0.066698045;0.25093493;0.06261804;-0.017469877;0.3558384;-0.1377622;0.15039179;0.35916665;0.10739323;-0.0016664836;0.034362;0.057701323;-0.013702186;0.003942083;0.014916784;-0.049734987;0.0004991151;0.24824357;-0.54401934;0.11743428;-0.3138856;-0.026165828;-0.061680578;-0.008087633;-0.03843981;-0.0129256975;0.2617982;0.00046880537;-0.24886988;-0.02200663;-0.1349619;0.13020283;0.009956793;0.002330028;0.009536641;-0.034895755;-0.0031075482;-0.014105604;0.33620155;0.041691974;-0.008882091;0.0433169;0.0312928;-0.016767753;-0.038091037;-0.044859014;0.027954081;-0.25335142;0.00071442797;0.6081292;-0.32582504;-0.21990366;-0.067999296;0.20984246;-0.06116039;-0.1867354;-0.17306249;-0.18943883;-0.09039969;-0.0038413447;-0.08341857;-0.011807097;0.10505256;0.03661381;0.01694044;0.08394088;0.012025378;-0.00019467172;-0.014639927;-0.010577275;0.0070354645;0.016991366;-0.014831077;0.22139257;0.19318941;0.12153798;0.29798982;-0.28264678;0.27421162;-0.27654767;0.007173078;-0.18969053;-0.008769308;-0.35345262;-0.0012891027;-0.113102995;-0.02430362;-0.096141;-0.034030166;0.0020474577;0.10744265;0.038985163;0.005880335;0.19293009;0.08422782;-0.2119289;-0.07333365;-0.12108267;-0.0056184614;0.037931588;-0.0015178389;0.20860192;-0.005776555;0.07276509;0.0037849674;-0.20984982;-0.0053318734;0.1966629;0.26622823;-0.1288968;-0.005451471;0.22829892;-0.442074;-0.001801373;-0.059177108;-0.17794324;0.012886574;0.16002123;-0.015844578;0.0076131364;-0.010852192;-0.090936005;-0.019116094;-0.41027954;0.1592475;0.00856622;-0.0040954077;-0.19514535;-0.43227088;-0.00062684406;-0.15585119;0.012446705;-0.011489496;0.028658375;-0.14786181;-0.10251854;-0.078206025;-0.51324296;0.14283575;0.0032025299;-0.03853068;-0.014514252;0.54868054;0.25696716;0.00536282;-0.24381873;-0.06486774;-0.036251325;0.06912394;-0.2568268;-0.16352354;0.12074224;0.086949304;-0.038513396;-0.12769973;0.16322805;0.0006803246;-0.19724691;0.0067912214;-0.17887391;-0.12435505;-0.010226903;0.021282742;0.0002899055;0.6064532;0.0023395952;-0.3304201;0.031267375;-0.35332677;0.035363868;-0.016006397;0.009071687;0.12782498;0.35884959;-0.14796562;-0.12970187;-0.028771318;-0.21157777;-0.0073031373;-0.0013127844;0.085015886;-0.23172872;-0.17493895;-0.0067812526;0.25879318;0.25182647;-0.025418423;0.04041248;-0.11130235;-0.0081019085;0.4909779;-0.003347532;-0.09645117;0.012846566;0.018360084;-0.001918207;-0.016333692;0.020550352;0.0042173592;0.26735607;0.014274653;-0.106696464;0.00068787846;0.08797795;0.030432329;-0.30950135;0.16581883;-0.19270782;0.016368894;0.2989231;-0.032145467;0.1569385;0.08112056;0.26537254;-0.071196295;-0.01699512;0.21050361;0.0046502464;0.010563994;-0.08311011;-0.058784638;-0.0075633726;-0.06311552;0.013481496;-0.02045049;0.1590703;-0.08688531;0.01227157;0.26317573;-0.007533145;0.018007578;0.05674658;0.08582088;0.01580122;0.259985;0.017105823;-0.050804846;-0.0064923423;0.0067865686;0.21504055;-0.0029949183;-0.3300918;0.28324553;-0.3273313;-0.7178557;0.008911931;-0.19729227;0.47409934;-0.048924014;-0.015727594;0.3512879;0.21775481;-0.014970392;0.28051895;0.03189208;0.0035311827;0.19786623;-0.095458254;0.060901605;-0.015713384;-0.016033402;-0.025683466
0.22386874;0.22531678;-0.06328409;-0.06560875;0.004983192;0.058048952;-0.03476567;0.023584148;0.008580394;-0.02831724;0.0055257077;-0.018043729;-0.014757927;0.0389547;-0.4771266;0.18363611;0.096280456;-0.2968863;0.19507244;-0.18915255;-0.06810229;0.0051527647;0.0037355225;0.18716864;-0.013868914;-0.0065271095;-0.011248972;-0.11578131;0.07005936;0.21274687;0.069403805;-0.005676982;0.25444955;-0.13164787;-0.3147935;0.23954785;0.012174906;-0.02815208;0.44734323;0.04860522;0.014176002;0.018033123;0.1770943;-0.0911695;-0.0032812355;0.031382293;-0.0026348366;0.05393367;-0.062193822;-0.0032146396;-0.00560029;0.32787198;0.31660503;0.007456226;0.004337237;-0.18288483;-0.0061525493;0.17709786;0.061435897;0.0207035;-0.026882824;0.08724948;-0.007123085;-0.019569227;0.06532821;0.062875174;0.0105968015;-0.4400899;-0.18115294;0.0055487286;0.009816496;-0.0069400272;0.00722543;-0.26344973;-0.2638025;0.043846373;0.010143634;0.13193186;0.18678787;0.0044554616;0.0013537434;0.14643346;-0.089317665;-0.1616005;0.005108792;0.0083951065;-0.29019696;-0.014033016;0.0037673276;-0.0073619126;-0.01907646;-0.1878459;-0.10105699;-0.0069379215;0.046110768;-0.14056508;-0.0078450255;-0.083512545;-0.104260966;0.27545047;-0.013958489;-0.054443516;-0.0059945066;-0.006644831;-0.19459069;-0.4355566;0.00296146;0.04747305;-0.01694128;-0.0014764575;-0.058655664;-0.16896605;-0.31402838;0.2086114;-0.13910024;0.33082798;0.066558935;-0.038651884;0.004049252;-0.31116217;-0.090994425;-0.008104893;0.20247492;0.012177697;0.02070264;0.0026281758;-0.5113761;-0.07621404;0.00014952551;0.20452772;0.0048694895;0.023390912;0.21872966;-0.13714233;0.0014054317;-0.06650679;0.058585204;0.06639908;-0.005152303;0.00784127;-0.4195438;0.06931381;0.10204991;0.09881623;0.0070198914;0.20154881;0.06786057;-0.0236942;-0.5498073;0.12660542;-0.0065214196;0.040102065;-0.043202713;-0.012506645;-0.028973682;0.003324417;0.0024695513;-0.045491707;0.07495437;0.06288886;-0.16709013;0.011887207;0.15587074;-0.015725914;0.004493133;0.071052395;-0.20767072;0.025852853;0.22101004;-0.13341695;-0.20805427;0.004703433;-0.007903326;-0.20481303;0.3021631;-0.16253811;0.008056129;0.011634968;0.006552027;-0.0040935306;0.011026092;-0.109626584;0.16740772;0.060417436;0.104888335;0.39342785;-0.19523096;-0.009414116;0.16012025;-0.023346217;0.12056122;0.016865958;0.11444836;0.0020969564;-0.0012073241;0.13979372;0.5838808;0.1878073;-0.0975211;-0.0032797842;-0.31441823;0.15908;-0.22941585;0.0068314974;0.06234322;-0.00969885;0.06343003;-0.0020901393;0.03174273;-0.06956651;-0.08105591;0.13452616;0.009889319;0.008300061;-0.16883105;-0.015151281;0.17048337;-0.034653485;-0.17123623;0.18323377;0.11431058;-0.008012426;-0.02896013;0.020244611;-0.17271432;0.0037981821;0.022114767;-0.06322607;0.0069753;0.25055355;-0.14089227;0.0030749128;-0.13693228;-0.086159244;-0.08525945;-0.3576567;-0.10966615;-0.0041610906;-0.26922804;0.02866211;0.06548719;-0.018186346;0.0076787346;-0.016900219;-0.17775045;0.0652202;-0.011169273;0.064742714;0.10865792;-0.15334421;-0.011155014;-0.11208402;0.039584104;0.21024859;-0.07747691;-0.051343713;0.17477956;0.009143831;-0.34611258;-0.328882;-0.0033210847;0.0034023202;0.10747899;0.096051276;0.14944248;0.30338922;-0.46315894;-0.073914595;-0.02296808;-0.21338353;-0.092488706;0.49517146;0.004605722;-0.071445234;0.07834793;-0.0011220374;0.00313857;-0.13147701;0.0076992568;0.07767453;0.2795853;-0.11959498;-0.068186;-0.15709276;-0.3693796;0.06341311;-0.11853942;0.0818678;0.26230535;-0.26795268;-0.0003807077;-0.15333536;-0.35737285;0.07136197;0.20525634;-0.086390235;0.12841754;-0.0030751117;0.09854521;-0.018082373;0.22319672;0.02033018;0.0027835276;-0.3169544;-0.021723447;0.011688209;-0.006966997;-0.03802482;-0.014664018;0.016514279;0.017366631;-0.06823062;0.071341574;0.08999693;-0.10730027;0.09687888;-0.06358706;0.0026868053;0.2130303;-0.38621074;0.13958119;0.2715405;0.090748094;-0.001142896;-0.029499074;0.002828962;-0.0073072473;0.008730482;-0.005082505;-0.14625446;-0.009420994;0.25369087;-0.31206596;0.34270474;-0.40256637;0.007569596;-0.10558023;-0.008130616;0.02565781;0.0065509025;-0.06348797;-0.008909867;-0.10125482;-0.141188;0.06017081;-0.0001975413;-0.014771903;-0.009763755;-0.0034911213;-0.15188456;0.004529148;-0.0751989;0.3614885;-0.12285149;-0.010027382;0.30474427;0.014709605;0.07765951;-0.11009223;0.07399862;0.0009554786;0.09911821;-0.01262625;0.31275713;-0.5113266;-0.197195;-0.18952614;-0.15673587;0.047426965;-0.13832277;-0.02434591;-0.19534259;-0.27132866;0.005909282;-0.07913786;-0.03442015;0.09771755;0.04406993;-0.009370019;-0.15222488;-0.007030484;0.0017347223;0.0054697604;0.091697656;0.0057256473;0.025491433;0.017305117;0.27339163;0.1736845;0.25491259;0.22784221;-0.16075635;0.15148741;-0.2216182;-0.017199932;-0.05483188;0.0059513603;-0.13328151;0.019010404;-0.5486383;0.010392048;-0.17091846;0.104273185;-0.00943539;0.03368226;0.06604095;-0.11671909;-0.2883994;0.19874941;0.15353645;-0.12872002;-0.18843083;0.012782768;0.051779184;-0.0036288481;0.35030517;-0.0105035;0.16160952;-0.0038131292;-0.08803809;0.010087472;0.20920667;0.24768572;0.07256253;0.01606897;0.22765912;-0.3069966;0.0035117406;-0.094444916;0.06414991;0.012954973;0.094015196;0.00018310575;0.029229451;0.012078833;-0.025848106;-0.25063628;-0.31760758;0.29333925;-0.024727227;-0.07339512;-0.2590291;-0.36343354;1.4352913e-05;-0.24119696;0.0253694;-0.06743601;0.18571527;-0.36914745;0.1251354;-0.15466441;-0.47828814;0.29424554;-0.0032435835;-0.04614262;0.013314937;0.22019511;0.14690287;-0.22365963;-0.28399602;-0.19904098;0.031394158;0.021097476;-0.1271996;-0.08886652;-0.093291715;0.19340613;0.019194493;0.050435513;0.3523628;-0.05136794;-0.26481602;0.0017357479;-0.13616647;0.08942021;-0.002337342;0.0003418622;0.008243056;0.4466577;-0.0118040815;-0.03842329;-0.113017425;-0.11965575;0.045292966;0.024860065;-0.0022116082;0.39524016;0.29844153;-0.1081551;-0.15932295;0.016191183;-0.13966289;-0.117218085;0.006632551;0.12795766;-0.255773;-0.43546042;0.00013161384;0.28801206;0.2738428;0.028891437;0.068895;-0.14098114;0.01107095;0.31649354;0.005179425;-0.06380933;-0.05219918;-0.0023393792;0.0025960563;0.10600563;-0.02897941;-0.0041470267;0.14629331;-0.009270534;-0.20555751;-0.010015412;0.17594454;0.113752104;-0.38949025;0.0973275;-0.2611752;-0.026223732;0.08790986;0.12627588;-0.026134184;0.01106874;0.120851025;-0.13849866;0.01469552;0.40710154;0.009600233;-0.005981385;0.047694452;-0.10755628;0.00046648833;0.14392124;0.003754415;0.004979618;0.05531086;0.058881447;-0.008870228;0.07970157;0.01371028;-0.012194581;-0.035816353;0.024310669;0.002774108;0.09640678;0.1247668;0.029563837;0.14430225;-0.007124952;0.0338173;0.18182199;-0.3588259;0.17328717;-0.21717015;-0.47709894;-0.0071310573;0.034874763;0.21484174;-0.08760796;0.26071203;0.20741393;0.17312515;0.021068428;0.02354299;0.06732627;-0.006787992;0.13566534;-0.005396243;0.028440807;0.0103961965;0.023011481;0.24017586
-0.028819874;0.23255488;-0.031528052;-0.113449566;0.011585264;0.077232264;-0.0071527637;-0.099542744;-0.0083444705;-0.23296249;-0.000653128;-0.28731877;-0.21532801;0.41855267;-0.00014790201;0.042346433;0.059629653;-0.37583143;-0.040355634;0.05467011;0.040623914;-0.00846435;-0.12660858;0.27207327;-0.14221156;-0.0021892348;-0.006165099;-0.18675551;-0.019853737;0.050202046;-0.032134976;0.023694396;0.17170766;0.36780125;-0.0786379;0.31500286;-0.023101008;-0.04224786;0.023807;-0.059904158;-0.015993735;-0.004989072;0.343297;-0.033205;0.0065145707;-0.20282328;0.0034780202;-0.007716816;-0.19964299;0.012472541;-0.009549574;0.2998107;0.10031533;0.010225926;0.00054723566;-0.34613132;-0.00504338;0.33828175;-0.03191164;0.112881236;-0.006893008;0.12562098;-0.0035892818;-0.027626568;-0.14651321;-0.01223243;0.028597664;-0.289814;0.22085753;0.009149786;0.006697915;0.0060960287;0.0025466345;-0.37683442;-0.30053055;0.08838592;-0.00949764;0.16839962;0.03831877;-0.0014343975;0.0058349543;0.22912855;0.058840033;-0.113883205;0.0033509166;0.167218;-0.2129514;0.0029578176;-0.008771509;0.010653136;0.004658512;0.17195873;-0.1290073;0.22083075;-0.014664204;-0.20421265;0.17244723;-0.05218165;-0.2709422;-0.11504619;0.0057895775;-0.17511073;0.069197424;0.006391159;-0.04153242;-0.18692379;-0.011043691;0.071576886;0.056409523;0.008561241;-0.25233093;-0.0013265571;-0.11570498;0.1626767;-0.07357675;-0.0143541135;0.16080834;0.019181293;-0.0060997875;-0.34990513;-0.16568731;-0.0028144403;0.22155522;-0.010228168;-0.008967661;-0.010979908;-0.6081186;0.050570942;-0.0023317894;0.19753173;0.015312611;-0.081183724;-0.045678016;-0.2432065;-0.01714606;-0.022326691;-0.016658276;0.062953316;0.020058323;0.00625575;-0.2586524;0.11087629;0.24059199;0.07916474;0.015637267;0.18019602;0.17512359;0.0083702225;-0.3597634;0.066324964;0.010388937;0.0144650545;-0.00084329734;0.15812618;0.012190549;-0.011359085;-0.0051700114;-0.09259012;0.025872739;-0.074394524;0.0023474277;0.010187492;0.277263;0.007504124;-0.01420276;0.3212383;-0.31722558;-0.013560767;-0.08610215;0.085691825;-0.26724488;0.0006138415;0.019215249;-0.15357256;-0.17274036;0.09804703;0.007308634;-0.003931409;0.11526396;-0.008482187;-0.005468907;-0.28248665;0.24340497;0.0060644927;-0.24889831;0.3295015;0.04776175;0.16047296;-0.0024310164;0.017549403;-0.13548294;0.0023257497;0.035819177;-0.01019852;-0.0020446717;0.17789486;0.34813842;0.11674152;0.031386677;-0.0024020276;-0.34221956;0.033973746;-0.12652573;0.00039755763;-0.19554122;0.009347808;-0.018309876;0.012434027;0.21866328;0.05510195;-0.10870183;-0.13069943;-0.01064269;0.003558505;-0.19532739;0.016514504;-0.07039759;0.08620325;-0.1830716;0.17960158;0.19620657;0.16754748;0.027774142;-0.010707075;-0.44610482;0.007749198;-0.00506831;-0.05785942;-0.011753946;-0.03187557;-0.1750278;0.009303905;-0.14555426;-0.12687701;-0.10029421;-0.11224628;-0.15270057;0.004398158;-0.095326826;0.08038931;0.0604704;4.874318e-05;-0.0035144133;0.0060110334;-0.21294966;0.014022584;0.008533833;-0.05425488;-0.06966219;-0.070289895;0.016373832;-0.13426988;0.0009113847;0.16788289;-0.01350638;0.02084238;0.12907735;-0.005671545;-0.3243658;-0.060894653;-0.009073772;0.010782019;0.06101254;0.061323926;0.3077327;0.0062948647;-0.46866554;-0.07662401;0.04301049;-0.16254944;0.17059538;0.5071227;-0.007719612;-0.021400394;0.22482632;0.010231637;-0.0005672513;-0.10692478;0.020123046;0.09254436;0.30605364;0.15154341;0.109878436;0.120543785;-0.24361774;-0.09267591;-0.07595795;0.18948974;0.23717682;-0.07455965;-0.0073366947;-0.011298444;0.0054957857;0.114714146;0.25337267;0.014665364;0.1655476;0.031000424;-0.044702586;0.004759114;0.20173994;-0.011360612;0.012838085;-0.41821498;0.027073167;0.0138887735;0.013963874;0.0226325;0.011103406;-0.044828143;-0.0011582837;-0.021257887;-0.11856066;0.058974892;0.002443817;-0.14091037;-0.009194998;0.0056600496;0.012105748;0.08021348;0.06352561;-0.04040549;0.0611743;0.017630104;0.008396767;-0.045699783;0.008789005;-0.012006926;-0.009035847;-0.14444844;0.009658775;0.21996248;-0.19523956;0.36464337;-0.38310853;0.0009318774;0.24432302;0.017010525;-0.058518723;-0.006376808;0.12730083;0.013591082;0.021034285;-0.20684357;-0.045067444;0.071880974;0.0053801253;0.0026811657;-0.014362659;-0.1849555;-0.014498635;-0.21447322;0.16745287;0.014620285;0.0043239715;0.029428773;-0.046765395;-0.028837115;-0.22373621;-0.07231721;-0.010432615;0.030646183;0.012020771;0.20701534;-0.20686485;-0.028105896;0.042722832;-0.17401916;0.04433983;-0.3020949;0.011771117;-0.085211545;-0.25535747;-0.009330999;-0.1441474;0.03988223;-0.008730736;0.0745424;-0.0043108226;-0.1358108;0.0018544605;0.0076423693;-0.01471821;0.4854053;0.003132039;0.16783844;0.0061886352;0.26993772;0.04631431;-0.00058855035;0.11879847;0.07299529;-0.2659649;-0.3491696;0.018727383;-0.01063583;0.0012495619;-0.279774;-0.006010883;-0.15099917;-0.0050507192;-0.2695717;-0.068588875;0.22237651;-0.036433414;0.26082477;-0.021088377;-0.27179244;0.04484733;0.40777493;-0.22941527;-0.2522063;0.0040747034;0.13363874;-5.6575587e-05;0.32430002;-0.0018040445;0.16186918;-0.0009396997;-0.1160656;-0.0017697914;0.5399235;0.23277004;-0.03351991;-0.010655871;0.19071913;-0.10184315;-0.008979584;0.06999326;0.010902007;-0.0041442327;-0.17130147;0.012851758;-0.01755333;0.008648634;-0.011735234;0.032856073;-0.11943029;0.09469556;0.010435305;0.053527456;-0.10045031;-0.18656576;0.0011099881;-0.36403227;-0.049599033;-0.1356337;-0.17456296;-0.22113705;0.16599199;0.23111254;-0.51381916;0.047129434;0.0021715064;0.4453426;0.011209593;0.21985875;0.08885348;0.062001504;-0.16595222;-0.1808607;0.012990975;-0.06925549;-0.35544783;-0.05108237;-0.051497545;0.16298315;0.2560821;-0.007870185;0.2614268;0.06578686;-0.013724388;-0.009373183;0.065577745;-0.1454901;0.013467123;0.00618706;-0.012182135;0.30236965;0.017198624;0.11164957;-0.0958701;0.16328013;-0.11128658;-0.004378684;0.0010352071;0.0057662353;0.078176625;-0.20704997;-0.06353357;-0.012651409;-0.11793508;0.3446256;-0.03712738;0.085176095;-0.3905414;-0.54697907;-0.0030932545;0.28864738;0.16962232;-0.016686903;0.08564635;-0.22180136;-0.005986753;0.19806452;-0.0075437725;-0.1320404;0.057740413;0.0027223825;-0.013256219;0.049608532;0.08463816;0.0149029745;0.17413665;0.011776088;-0.2855091;0.020695766;-0.20087934;-0.020786557;-0.107687324;-0.084004015;0.09917709;0.008870069;0.06805673;-0.105477184;0.118733905;-0.12380149;-0.057843078;0.021126818;-0.00859212;0.32370132;-0.010391991;0.01518853;0.13759714;-0.18028918;-0.0014576251;0.2073607;0.0010803989;0.006840819;-0.121380605;-0.13955335;0.022758752;-0.15358567;0.007956119;0.00040203522;-0.02894212;0.16471171;-0.01077552;0.28884676;-0.055798795;0.0013669338;0.20227815;-0.010446356;0.104045756;0.3497115;-0.17503515;0.07861301;-0.38591635;-0.46956602;0.012502777;0.01549381;-0.019073714;-0.093136825;0.08665695;0.20404863;0.26841146;-0.00928872;-0.05079223;-0.0002259668;0.012423399;0.1595733;0.08676611;-0.016939227;0.008465963;-0.025422897;0.30013302
-0.10071808;-0.112569;-0.03764632;-0.1114604;0.0042782114;0.05984335;-0.26222923;-0.03676739;-0.00145661;-0.17943732;-0.005895372;-0.06397921;-0.21103963;0.35501397;-0.051630657;-0.14080822;-0.026068848;-0.17415449;-0.24332786;-0.043747623;-0.17420496;0.0031546722;-0.069614425;0.131467;0.14157209;0.0014395348;0.0037404327;-0.1787825;-0.019535467;0.08074119;0.072889626;-0.016988179;0.15889774;0.12697549;0.034549743;0.36438587;-0.011684067;-0.06750103;-0.02414112;-0.12979707;0.0148701705;-0.008754877;0.25520927;0.115332246;-0.0011637149;-0.32006252;-0.01237406;0.031045293;-0.17963983;-0.008565697;0.012190953;0.29526404;0.12926821;-0.012705518;-0.0038195637;0.07824277;0.0056536268;0.18842301;-0.11166798;0.031089634;0.02191742;0.015410775;0.013992121;0.09754943;-0.09245822;-0.0491397;-0.035485063;-0.08613017;-0.02863498;-0.013842184;0.0001659694;0.0013474369;0.0036081986;-0.30466744;0.12976627;-0.008217524;-0.006036815;0.03732148;0.036415644;0.008927679;-0.008080061;0.19059889;0.07766898;0.039236445;0.0128445625;0.25943655;-0.09631487;-9.5467636e-05;-0.005750845;0.0071124546;-0.00956943;0.07361386;0.009635049;0.3172124;0.010407109;-0.1523783;0.29763576;-0.14078164;-0.48102006;0.072811775;0.0006571611;-0.38873333;0.121892266;0.00053490663;0.027462002;-0.21850571;-0.009439088;-0.1733435;-0.034007106;-0.0019688094;-0.14438012;-0.086807184;0.115184;0.15953192;0.36838013;-0.29273516;0.16352345;0.0038036034;-0.0031252191;-0.3743976;-0.22278818;0.0048981574;0.20366864;0.0016884259;-0.015828963;0.0021596854;-0.7166789;-0.14695768;0.015537184;0.19534065;-0.050024863;-0.15213427;-0.32790735;-0.056114852;0.020330247;-0.0060032955;-0.00096102856;-0.46107915;-0.01906995;-0.013039087;-0.06338774;0.15191822;-0.10671815;0.34054777;-0.008170542;0.1124948;0.19913815;0.01791045;0.04407927;0.2300655;-0.020698432;0.11981138;-0.017155644;0.06865976;0.0030782332;0.01453362;-0.012773052;-0.21599394;-0.051480744;-0.108525336;0.057038683;-0.0028630455;0.41128284;0.00080842903;0.014639744;0.24889734;-0.5350124;0.011791002;-0.2167018;0.12331717;-0.22897437;0.004595559;0.007819277;0.27180907;0.01372774;0.11156947;-0.0152787035;-0.008286224;0.04316617;0.022625837;-0.003597447;-0.22387923;0.21493483;0.14080548;-0.35701722;-0.1786336;0.42588717;0.056665644;-0.050905466;-0.018867625;-0.2692116;-0.012399481;0.23937385;0.008498989;0.0013606247;0.20076835;0.22652288;0.14317606;-0.05187564;-0.0066745174;-0.346147;0.045416057;0.030586125;-0.0083894925;-0.36076948;0.003930526;-0.12909275;0.0025148906;0.33679682;0.08652782;-0.075184986;0.13131838;0.0027854154;0.0075633577;-0.26859474;-0.01945788;-0.016468737;0.14453226;-0.0868497;-0.013641082;0.04366692;0.45743847;-0.069609255;0.0059387884;-0.44295087;-0.00030584534;0.015603365;-0.27658427;0.013673367;-0.27124372;-0.13578367;0.00274325;0.31695262;-0.21472757;-0.02001917;0.016455188;-0.0771969;0.012397857;-0.10416365;0.054428153;0.116962194;0.017816791;-0.005844338;0.050303895;-0.111882865;-0.04820908;-0.0065185083;0.01332773;-0.050888967;-0.15147884;-0.017414633;-0.049475826;-0.12703657;0.2463381;0.23076372;-0.021713385;0.22953361;0.012937147;-0.19583021;-0.023669243;0.009346597;-0.004207627;-0.10806792;-0.027533282;0.1130668;-0.23490854;-0.4232463;0.0040426515;0.10697619;-0.06756178;0.17796025;0.26014242;-0.0040911804;0.10563913;0.17551091;-0.0078765005;-0.012973127;-0.11313014;0.20436855;0.07845501;0.15799259;0.18139534;0.08107951;0.1921106;0.112524055;-0.045667037;0.12216512;0.2787112;0.3927584;-0.1418232;0.0019191179;-0.22536594;0.14081135;0.13736999;0.05321686;0.011492215;0.26997942;-0.034102496;0.19335014;0.00265619;0.27662563;-0.0042152074;-0.0038434041;-0.48372376;-0.005077376;-0.025809936;-0.018480875;-0.018238436;0.003073161;-0.03043359;-0.0012056035;0.19996935;-0.10156659;-0.033368006;0.20474869;-0.09192859;-0.14697129;0.01288688;0.05258278;-0.023276884;-0.05495308;-0.07029495;0.22676384;-0.010005477;-0.026773112;-0.14952542;0.0072114794;-0.010139183;0.0030108509;0.107780874;-0.005928622;0.17193665;-0.33548293;0.15808365;-0.1322942;-0.017487694;0.12974696;-0.00054150226;0.16843995;0.0033376704;0.033843137;-0.017635992;0.292961;-0.09541759;-0.13454081;0.073955;-0.01226877;-0.019576998;0.023162626;-0.08301827;0.0061489055;-0.011694633;0.064383976;0.08261396;0.0015918724;-0.11798626;-0.0671944;-0.22414896;-0.22029512;-0.068460576;-0.026853923;-0.009494462;0.0016780453;0.13014252;-0.00025914924;0.0030433026;0.24851699;-0.20690706;0.01388721;-0.097360365;0.12421207;-0.08540739;-0.2625654;0.007836977;-0.23376495;-0.10937883;-0.18384519;0.027853701;0.0065451064;-0.08925241;-0.012799842;0.012463587;0.009298387;0.21181478;-0.019489417;-0.004074347;-0.017330406;0.10169104;0.1710589;-0.079134576;-0.051328275;0.035368945;-0.25114456;-0.31840482;-0.013133077;0.009850205;-0.0033771493;-0.17871113;-0.010494627;0.32939085;0.014027402;-0.295756;0.060220446;0.24061859;-0.026277548;0.047835015;0.08822369;0.05568527;-0.18129703;0.16068064;-0.016421666;-0.34395427;-0.007369364;0.07103151;0.002586033;0.17481312;0.015295705;-0.12671424;0.0003613601;-0.16338447;-0.009957306;0.5361868;0.3048173;-0.1133246;-0.012539782;0.28124246;-0.15915874;0.014030935;0.15716392;0.14531551;0.003395068;-0.27283457;-0.00990724;-0.015801994;-0.006510512;-0.048463844;-0.056137342;-0.11864652;-0.10633596;-0.01835127;0.1362818;0.11103151;-0.16019261;0.0047288393;0.012792327;-0.23170476;-0.18361667;-0.083514355;0.027493024;0.2556288;0.020491444;-0.3104526;-0.07521324;0.0029278544;0.44780654;-0.01953957;-0.07369759;0.18611854;0.06844652;-0.2484102;0.0036878723;0.02320978;-0.15266615;-0.4521523;-0.4387324;0.2515192;-0.09579524;-0.018053904;-0.09278491;0.061034236;-0.050027773;0.14057572;0.0046662265;0.15873538;-0.074858084;-0.0032978836;-0.0043558916;0.0015402437;0.23092526;0.011128352;0.22508046;-0.031323615;0.060820065;0.09190802;-0.021561012;-0.009798302;-0.17956004;-0.20314775;-0.1631064;-0.20257534;-0.007613863;0.15647274;0.21660636;0.0048887106;0.2590918;-0.36278984;-0.44823864;-0.0050768326;0.2165965;0.17534025;0.007071298;0.27747163;-0.4161495;-0.008809904;0.21699451;-0.002582492;0.031859413;-0.07609345;-0.00046332408;0.011647291;0.017153936;0.17821224;-0.010349287;0.101194546;-0.01707446;-0.24115336;-0.01681627;-0.4231315;0.0005305923;-0.08883126;-0.47137636;0.16308285;0.0018644682;0.30038875;-0.08024972;-0.08978743;-0.102641314;0.007384009;0.11876432;-0.00027740977;0.25029197;0.008891163;-0.0041257557;0.028227272;-0.18171659;0.0009263194;0.07720472;-0.014832351;-0.011390603;-0.036475882;0.006385087;-0.035306815;-0.049825013;-0.003971305;-0.0026331937;0.16967377;-0.1418456;-0.0045992294;0.2922926;-0.27534533;-0.0053246142;-0.15965968;0.02084491;0.16717574;0.29648823;0.16952562;0.0940448;-0.13690557;0.028130887;-0.011671748;-0.06668369;0.19108723;-0.08588902;0.11872721;0.3270964;0.24384119;0.010280143;-0.034749668;0.07032122;-0.013196221;0.11289173;0.31173888;0.043489903;-0.018503377;0.018198011;0.50854015
-0.12671319;-0.3635157;-0.022682343;0.022090025;-0.012256847;-0.15516086;-0.039616283;-0.08744179;0.012576952;-0.10770603;0.0052602566;0.12899284;-0.30317843;0.19445875;-0.12676215;-0.043010224;0.007211993;-0.29474887;-0.09966694;0.19002567;0.016573228;-0.0043887426;-0.05116967;0.29670492;0.1275225;0.007597354;0.00074208056;-0.08377592;0.03886839;-0.01910844;0.15702641;0.0054125134;-0.06849785;0.23911855;0.06576825;0.24306284;0.112906635;-0.20692654;-0.030334642;0.017635038;-0.0177223;0.011224261;0.19580622;0.228524;-0.022692459;-0.2559303;0.006081603;0.051278986;-0.1471216;-0.0058855168;0.013687463;0.15320864;-0.03104906;0.013604608;-0.010892696;0.16702014;-0.012998901;0.09529781;-0.0042708097;-0.17419045;-0.007663597;0.015299964;-0.021540506;-0.12904173;-0.2454575;0.0025971872;0.0013343521;0.14759752;0.0014597952;0.016373532;0.041541297;-0.014256673;-0.0052452716;0.009132258;0.16619247;-0.09042678;0.014200897;0.15123636;-0.23047693;-0.006553566;0.010525488;0.059027717;0.06075666;0.104985066;-0.0173055;0.5108581;-0.046696473;0.01265086;0.010356148;-0.0046174317;-0.001865049;-0.06260798;0.0392737;0.18562175;-0.04372686;0.11718908;0.42571217;-0.07318759;-0.50124806;-0.15867092;0.0058723753;-0.4153255;0.25800958;0.008979331;0.2317078;-0.60374504;0.012327498;-0.32082686;-0.02109885;-0.0048782304;0.33727762;0.028156068;0.24776882;0.31972772;0.23866186;-0.29789695;0.17812376;0.090018325;-0.00036185907;0.076685846;-0.13882683;-0.016928462;0.114672355;0.010452198;0.0064113922;-0.002601537;-0.7204487;-0.0073416415;-0.009276288;-0.035968155;0.03977008;-0.2750218;-0.21350633;-0.067369446;-0.0016323663;-0.012650142;0.15645778;-0.39440277;0.0038981626;0.010159854;-0.20233843;-0.114316225;0.067275956;0.1449952;0.0004913427;0.13952652;0.23565917;-0.005047126;0.009398274;0.31868142;0.028487952;0.32570806;-0.07176881;0.058245543;0.0014897577;-0.019005127;-0.006968117;-0.32799956;-0.090711534;-0.094437905;0.107685216;-0.0052739005;0.41357747;-0.00637011;-0.018558726;-0.0028427083;-0.113500625;-0.0002314741;-0.19589365;-0.2167821;-0.21371347;-0.0069487942;-0.013495831;-0.0029651255;-0.23615028;0.09317406;0.010687738;0.007982214;-0.066318445;-0.010469995;0.009097892;-0.28662604;0.23521823;0.00219662;-0.17818885;0.07780917;0.53650254;0.13070102;0.019953592;0.008413859;-0.11828637;-0.00021733408;0.2026519;-0.010398803;-0.012323853;-0.008991084;0.003416358;0.4918043;0.029443372;0.0077428548;-0.5098394;-0.101082824;-0.07889388;-0.0004786735;-0.056833543;0.0011465473;-0.4433025;-0.026795715;0.13188326;-0.09994675;-0.016043674;0.13765606;-0.009829415;-0.016569255;-0.4008231;0.007129555;0.2040155;-0.16239662;-0.04095542;-0.011389947;-0.067531504;0.10909198;-0.044824332;-0.0060535427;-0.41876724;0.010084012;-0.023396922;-0.1630419;-0.0034048369;-0.33232367;-0.2688336;-0.009353015;0.25307465;-0.23643064;-0.08505425;-0.1147934;-0.13867141;-0.015597213;-0.030366793;0.16900983;0.15337192;0.0018398886;-0.00789312;0.17821476;0.21672142;0.030620988;-0.0012944938;0.04840709;0.010753004;-0.19415137;0.019228479;-0.11942251;0.10105299;0.259313;0.09090671;-0.0402326;0.08560757;0.006499336;-0.14240047;-0.032431077;-0.023070093;-0.019649116;-0.09291163;0.11088791;0.010017261;-0.11306145;-0.46390453;0.00017138924;-0.18498017;-0.22758266;0.17587103;0.13702258;0.0041236025;0.2845523;0.20427646;0.026150176;-0.0055425493;-0.047948815;0.20661402;0.10201225;0.2785684;0.22459033;0.16566947;0.25376475;0.1593963;0.07791482;-0.028699813;0.08108044;0.4519265;0.26023957;0.0006957099;-0.42736742;0.011155279;0.24796665;0.00143929;-0.1527475;0.10414069;0.0060012094;0.008388218;-0.010036209;0.13424194;0.010521677;0.009324773;-0.5755048;-0.0012014889;0.016074555;0.006082207;0.0035082242;0.0025094121;0.15468949;-0.0031062611;0.045301624;-0.17815612;-0.20748863;0.022876754;-0.05659867;-0.017202964;-0.0042298916;-0.039560325;0.3178281;0.0021062368;0.13640082;0.08913016;-0.0015519703;0.015401509;0.033103887;-0.0146300215;0.01858298;0.006711062;-0.095832966;-0.0024925338;0.31975323;-0.3592826;0.32897452;-0.38404006;0.028812759;0.005899522;0.0017182198;0.3197542;-0.011349713;0.017985728;0.008098541;0.10295236;-0.1762451;-0.009882225;0.09329585;0.0131960735;0.01774363;-0.005514881;-0.056285992;-0.0035150645;0.19251806;0.27898163;-0.19185707;0.008719776;0.021291498;0.02238397;-0.10553923;0.017333858;0.029038671;0.011858632;-0.015708517;-0.012302657;0.022518063;-0.09189895;0.04855464;0.27539712;-0.1162703;0.11663302;0.17051308;-0.054751158;-0.08978724;-0.2828463;0.007242203;-0.32172313;-0.16659625;-0.04688553;0.058130857;0.0011946223;-0.022839183;0.007008278;-0.024235383;0.0052229688;-0.20202877;0.016214041;-0.07756043;-0.010256172;0.18776013;0.15920353;-0.1525654;-0.19130681;0.001444245;-0.33415362;-0.11053253;0.008501186;0.0076735104;-0.008992419;-0.06091294;-0.0023677072;0.018309994;-0.004973914;-0.07093669;0.27076045;0.112821326;-0.07794682;0.043854527;0.05161913;-0.07217244;-0.068321735;-0.05106645;-0.40645403;-0.25877407;-0.0018935835;0.18046623;0.00077051553;0.016013553;-0.008219092;0.06610931;0.0052317223;-0.072713986;0.00958236;0.18288349;0.21810605;0.01899723;-0.00035023643;0.33962414;-0.035748586;-0.0032067122;0.19612837;-0.06514365;-0.0031578976;-0.31987655;0.024723992;0.021143973;-0.012555602;0.023453686;0.13282062;0.0638866;-0.28575298;0.02078927;0.24909861;0.23012002;-0.1472456;0.015619085;-0.021375896;-0.28965014;-0.087086774;-0.17339227;0.16551174;0.35246143;-0.03834934;-0.24007082;0.028860122;-0.0038780898;0.2684941;-0.00036063054;-0.3604277;0.19428952;0.008776516;0.02422674;0.08554755;0.021006295;-0.33863968;-0.2795;-0.34457093;0.15633368;-0.22477366;0.11224315;0.083380654;0.00044184807;-0.048813555;0.08863387;0.008197764;0.1740129;-0.14815997;-0.0010082787;-0.009915297;-0.010338682;0.44255042;-0.010065612;0.23006332;0.17635654;0.41719967;0.25026882;0.021335553;0.0024519255;-0.22768185;-0.46518743;-0.07020211;-0.48720634;-0.00089960464;0.20259772;0.19944645;0.020669378;-0.073523514;-0.30944902;-0.090679996;0.0054947087;0.17068686;0.24258657;-0.0054363525;0.27664053;-0.38968447;-0.0004112228;0.09083687;-0.00031232298;0.13427761;0.01611151;-0.006059272;-0.0056158267;-0.009024019;0.07946617;0.001045579;-0.0017739555;0.008532517;-0.22209492;0.019625705;-0.2630908;-0.13016823;-0.12851714;-0.36402288;0.1711668;-0.00026315395;0.15017709;0.0046452475;0.042853992;0.0029651285;0.11402201;0.34046656;0.013413787;0.24970956;-0.005363701;-0.004828519;0.13084827;-0.045077126;-0.0065897447;0.030714741;0.0070430436;0.0033908398;0.03320732;-0.16672477;0.020302566;0.056312375;-0.010623034;0.0072419364;-0.08070817;0.05483139;-0.012740101;0.08288917;-0.02787154;-0.0016288926;-0.1974198;0.007360501;0.11956363;0.21804784;0.26669216;0.28488052;-0.17373356;0.18670255;-0.0026072396;0.12928514;0.1666074;0.03989316;0.0030273001;0.24527144;0.5019946;-0.012298177;-0.04191844;0.060387768;0.004368115;0.099093795;0.35716602;0.092182435;0.005913324;-0.0068992465;0.26610819
-0.30445373;-0.11193994;-0.15147951;0.0068668444;-0.005099735;-0.033080004;-0.025079256;0.027618064;-0.008854216;0.15783842;-0.001555855;0.09685412;-0.00667753;0.023886861;0.17639805;0.2726327;-0.15102741;-0.37013537;0.12723085;0.18410727;-0.120941356;0.00056276703;0.1608618;0.17256051;-0.021370266;0.010664716;0.014520843;-0.06325839;0.037620954;0.12257128;0.06344196;-0.0127531765;-0.3626753;0.09956033;-0.0268104;0.21288496;0.14263733;-0.3044084;0.19246309;0.13253406;0.006627681;-0.001646382;0.02005047;0.28495857;0.032411747;0.047368735;-0.0050722123;-0.06140638;-0.05771382;0.0015210785;-0.008180315;-0.112032376;0.22972238;-0.008768322;0.014765316;0.18281332;0.011945703;0.030353053;-0.041820794;-0.20078336;0.018149896;0.015212367;0.02227395;0.010709132;-0.08192847;-0.07511819;0.09237477;0.35463452;-0.035999887;-0.03741005;-0.06107136;0.011976731;-0.0059038587;0.07291648;0.19020206;-0.12805454;-0.014845331;0.009144789;-0.04750602;0.0038322806;0.010115744;0.0671176;0.19898854;-0.17029706;-0.00038480898;0.28464812;-0.0076956977;-0.0049153236;0.0030578626;-0.011169999;0.013344712;-0.005759059;-0.06957398;0.2823703;-0.24351837;-0.09830957;-0.17316012;-0.25704664;-0.54921806;0.13074815;0.0008158318;-0.4895049;0.18272465;-0.004425632;-0.024808558;-0.48004887;-0.0018812758;-0.013733039;-0.027316043;0.00025442286;0.28912508;0.23780568;0.09799371;0.3594472;0.21988203;-0.46417823;-0.05096376;0.0047695315;-0.0002324802;-0.27269733;-0.3267177;0.013620466;0.020811444;0.0024094863;-0.0068619694;-0.0011860078;-0.24835968;0.028746367;0.0018686573;0.0076587875;0.18612914;-0.23481917;-0.34326002;-0.15623477;-0.0152519;0.0013139333;0.08579555;-0.25621593;-0.00529465;0.0059613525;-0.038350448;-0.043952905;-0.21484981;0.0678973;0.0027259805;-0.16549166;0.085758224;0.0017891623;0.18843772;-0.036815405;0.0014463078;0.26707953;-0.0027186414;0.09922528;0.0013369261;0.022759922;0.026691513;0.02023163;-0.37800583;-0.013089243;0.11464393;-0.00028466102;0.06977993;0.0033484402;0.009698905;0.0011269901;-0.03987727;-0.009207069;0.057882115;0.054751273;-0.20470075;0.016883217;-0.0031897845;-0.04207634;-0.5561679;0.30876684;-0.018761143;-0.0055497726;-0.02219608;0.0074211205;0.0014146081;0.06233359;0.0064473404;-0.07005713;-0.09889198;0.015058008;0.50092435;-0.19276948;0.04475352;0.0040881233;-0.054439954;0.0019140495;0.3092786;0.005711661;0.009918921;-0.1306145;-0.24548773;0.23329127;-0.01236513;-0.0032521882;-0.34520903;-0.338499;0.049214557;-0.0029285615;-0.11128483;-0.012219012;-0.25878736;0.024597986;0.19282651;-0.34924155;-0.0027264524;0.13425033;0.017503383;0.006664515;-0.21653053;0.0058150585;0.2278782;-0.08700578;0.03614602;0.32016233;-0.06105925;0.2680056;0.081791885;-0.008057157;-0.2573445;-0.013882873;0.011957912;-0.17729388;0.007696999;-0.32117516;-0.36209774;-0.0127814505;0.375036;-0.14711341;0.015069806;-0.07597808;-0.24027404;0.011936134;0.04027508;-0.1440715;0.076566316;0.013211854;-0.0026331726;0.15315706;0.16372566;0.052245643;0.016981771;-0.026490629;-0.008555047;-0.11140457;-0.016677093;-0.035217695;0.05958029;0.27959374;0.21650319;-0.032437913;0.11633737;-0.022421243;0.01027014;-0.064896934;0.02041513;0.005319812;-0.20849457;0.090336405;0.042841077;-0.05081274;-0.26792726;0.017586287;-0.03495833;0.0764796;-0.21248305;0.0668362;0.00047398554;0.11919277;0.1093681;-0.012724273;0.016704962;-0.26939157;0.17454201;0.08298501;-0.0026050815;0.25541055;0.17647958;0.18854877;0.15825255;0.25245112;-0.085601375;0.07952315;0.66731113;0.43549326;0.012731614;-0.36152562;0.03202334;0.04756553;-0.21534598;-0.038786426;0.17273751;-0.002204166;-0.044142306;0.020130748;0.112944536;-0.011356755;-0.027223649;-0.4010323;0.0028730363;0.012234161;-0.010481104;-0.01893761;0.009682758;0.030808376;-0.012103602;-0.27465245;-0.001257702;-0.1639546;0.1312212;-0.15212624;0.055070397;-0.001679166;-0.04648572;0.3368253;0.17521244;-0.16248158;0.1655631;-0.007876424;0.013952926;0.17485552;-0.054720774;-0.014357635;-0.01821984;0.0040244665;0.0055792728;0.18335313;-0.05430627;-0.056636084;-0.21634938;-0.006077666;0.145203;-0.005473646;0.22417293;0.024163513;0.18073289;-0.00032789;0.19163933;-0.15786542;-0.13677935;0.19538626;0.005987942;0.0035957354;-0.008245379;0.06786706;0.0015270504;0.15730894;0.36508572;-0.09660886;0.0075363056;-0.1402398;0.106960945;-0.10285356;-0.0077503184;0.13912146;-0.012356953;0.20260884;0.00084502465;-0.06682251;0.14327966;0.07025126;-0.1277069;-0.15601163;-0.06425303;0.3826462;-0.20440862;-0.14266185;-0.25559106;0.00031533538;-0.21647948;-0.1721516;0.11260933;0.23211929;-0.007937657;-0.14222182;0.0011234912;0.014831047;-0.0037263383;-0.37357864;-0.009388088;0.13149978;0.012828161;0.17032948;-0.03519268;0.119532935;0.06156105;-0.010808605;-0.11665856;0.014640304;-0.007621436;0.39460132;0.0076297442;0.2625948;0.0036085243;0.36874202;-0.005007922;-0.037696917;-0.19547665;0.24827813;-0.04496362;0.294238;0.09433904;-0.26380315;-0.07895602;-0.18928918;-0.14732617;-0.08698869;-0.007868188;0.24725251;-0.0018917408;-0.0961635;0.0015862135;-0.18674561;-0.0051956093;-0.48561817;-0.0022743265;0.106071815;0.3335127;0.037972823;0.013320485;0.28430563;0.15493907;-0.023078352;0.16633669;-0.16677608;-0.015508877;-0.17349829;-0.007295421;-0.0041679763;0.00823203;-0.119582474;-0.13008045;0.14617525;-0.001434696;0.0006324544;0.24015105;0.0053893463;0.06509179;-0.023164928;-0.02318436;-0.25749725;-0.13844766;-0.23538938;-0.1506996;0.17861572;-0.22506389;-0.23769416;0.2001119;-0.013407213;-0.034004994;0.0190958;-0.4362158;0.060277592;0.059446357;-0.036412578;0.07931843;-0.0051211207;-0.4151938;-0.0042405245;-0.076027736;0.2519499;-0.14390823;0.011987966;-0.24189065;-0.13251466;0.039889764;0.085734524;-0.011317244;-0.10962116;0.09916487;-0.01775654;-0.00202669;0.008586715;0.3470371;-0.0027827423;0.12500295;0.15547554;0.32239413;-0.08956631;-0.004197065;0.005455626;0.0918315;-0.6084976;-0.03082538;-0.3898461;0.009413843;0.33421585;-0.29717302;-0.023849506;0.029136881;-0.19279318;0.09030179;-0.004108832;0.0254763;0.37436727;0.0019369957;0.33870938;-0.17110692;-0.00092549174;0.16149202;-0.009177299;0.051263954;-0.003187084;-0.003694111;0.004485441;-0.029211808;-0.045362562;0.0010849376;-0.06574463;-0.012139556;-0.059301913;0.009151503;0.041085336;-0.14469549;-0.21238154;-0.0826993;0.23044987;0.0036599727;-0.12719314;0.2827601;0.059739668;0.14316528;0.14495803;0.24429096;0.001819922;0.14515404;0.0028736817;0.0025925073;0.06534973;-0.092358;-0.014332855;-0.13397114;-0.0038063987;0.0067334175;0.18022056;0.05328306;-0.01869946;-0.2240336;-0.0074169314;-0.025427563;-0.09562416;-0.056599155;0.007915206;0.19421227;0.043179404;0.010323227;-0.034458853;-0.013667708;0.07493344;0.15471327;0.327404;0.5024763;-0.031340417;0.28506035;0.0038491369;0.058246538;0.41277128;-0.0020249677;-0.20405293;0.26287675;0.306248;0.015920356;0.122110374;-0.0068868273;0.0046321983;0.0019706711;0.15863527;0.17299183;-0.0045200684;-0.013432106;0.10664105
-0.19715503;-0.20099641;0.09244956;-0.36984232;-0.0052818647;0.083288915;0.019023532;0.1497634;0.013218625;0.19927762;0.004324797;-0.18277158;0.030641327;0.16930795;0.28471315;0.038429033;-0.11750734;-0.18714885;0.0018334135;0.29561713;0.02551953;0.00806533;-0.03174166;-0.17574802;-0.1645807;-0.012617074;-0.009579823;-0.16521199;0.0060208524;0.20190376;0.048895862;0.016357815;-0.20295061;-0.06182304;-0.07687059;0.14125526;0.1324567;0.063844055;-0.08422904;0.11683425;0.012463942;-0.0065010833;-0.03501957;-0.028820956;-0.0075065712;0.38548476;0.004287974;0.11701246;-0.13355419;-0.012653756;-0.0025026954;-0.04193037;0.06948583;-0.01158572;-0.0072637387;-0.0014446763;-0.0129529815;-0.07298284;-0.15117285;-0.10494858;-0.02429594;-0.026703749;-0.01324195;0.24490161;0.2093227;0.06967528;-0.05253696;0.16356225;-0.31940272;0.028652282;0.08973466;0.0040846593;-0.0028998875;0.19659778;0.1809136;-0.14595224;0.026879057;0.121126875;-0.16209237;-0.006683887;-0.028286448;0.34836182;0.12788773;-0.16014075;-0.003659821;0.2569369;0.18613736;-0.0058225817;7.8105935e-05;0.007049219;0.01855323;0.32515517;-0.04077758;0.2446459;0.11088188;-0.009342158;-0.18115942;-0.15427446;-0.45376807;0.22824395;-0.01064441;-0.34954154;0.12884684;-0.0005028469;0.13446693;-0.42565623;-0.0019196469;0.011434134;-0.066876054;-0.0014778698;0.15342295;0.09169838;0.22110611;0.272876;0.27040887;-0.26759753;-0.2035871;-0.048938148;0.005511625;-0.13440041;-0.29035515;-0.005571259;0.15562321;-0.009226355;0.01588102;-0.0001980307;-0.08638486;0.15561235;-0.011561506;-0.18386506;0.14910859;-0.08036378;-0.28582525;-0.13296264;0.009226116;0.047443986;0.24109413;0.2645846;0.008860703;-0.009029116;-0.04630728;0.1008437;-0.08345701;0.056725435;-0.012923936;-0.39798072;0.0033040345;-0.011037956;0.31348354;-0.048038073;-0.0042168777;0.3990079;0.00864306;0.09432549;-0.012734463;-0.01996411;-0.012514885;0.15907891;-0.43660936;0.07496154;0.10503254;0.012064527;-0.20031756;-0.0018300762;0.002914841;-0.20964897;0.07488121;0.00040605903;0.120796986;0.17742398;0.015837634;-0.03697147;-0.014075189;-0.063433915;-0.31069097;0.114383884;0.008199339;0.010632161;-0.06563177;-0.013255544;-0.015513752;0.058130372;0.028870238;-0.004946705;0.070866756;-0.13990386;0.34672838;-0.016195422;0.0030079596;0.0005486424;0.09688032;0.0017096176;0.05496474;-0.00044833194;0.0057615465;-0.16557862;-0.3539085;0.10454508;-0.11601485;-0.00745963;-0.37758568;-0.3740846;0.020512447;0.011139556;-0.1802995;-0.002640615;0.011347899;-0.022413766;-0.052190244;-0.2929578;0.044850126;-0.09663916;-0.009179991;0.008210441;-0.28148523;-0.003185723;0.22305448;-0.10231781;0.052382313;0.4602341;0.1727521;0.10246681;0.039903846;-0.0005393781;-0.11493543;-0.012356407;-0.008751318;-0.25956988;-0.00708737;-0.27968124;-0.26382047;0.02212158;0.3473684;-0.034115944;-0.01576397;0.18625045;-0.1598811;-0.014394943;-0.1661642;-0.08980717;-0.04808633;-0.016646737;0.015298578;-0.33421138;0.30550137;-0.004355827;-0.010296466;-0.011069591;0.023763647;-0.29058346;0.02709633;-0.081447035;0.039813686;0.25330362;-0.02081323;0.013350521;0.059310738;-0.00028409902;0.15502249;-0.013721279;-0.00957256;-0.0019150613;0.0094181495;-0.13390245;0.14418907;0.053247545;-0.2862451;-0.10055437;-0.04309996;0.04905898;-0.5635972;0.029852262;0.007424156;0.30707842;0.18087125;-0.0013844345;-0.0037153915;-0.2186631;0.30794135;-0.03800012;0.06708072;0.2815714;0.2285001;0.12929009;0.36830744;0.6695067;0.047733843;-0.039371364;0.70054924;0.05059336;-0.025998965;-0.18440093;0.2390844;-0.12582442;-0.00053483166;0.05147294;0.1553269;0.01780251;-0.18608916;-0.020669954;0.15988934;-0.0017640901;0.015141188;-0.28615302;-0.0066521997;0.019281758;0.019069003;0.004077004;0.0012496733;-0.1870187;0.020925123;0.08110977;0.05134249;0.12391068;-0.050289277;-0.067108914;0.05089336;0.013554764;-0.2991725;-0.099612504;0.19173633;-0.13100521;-0.07461662;0.018266654;0.0010240162;0.07136153;0.07230901;0.014501858;0.013791279;0.039485335;-0.0032072328;0.14011598;-0.016663678;-0.2554019;-0.14421463;-0.0059070974;0.20181099;-0.016157791;-0.022624427;-0.015917458;0.14684935;0.007171044;0.19213273;0.0869358;-0.17639355;-0.053413317;0.0031900262;-0.010460887;0.016811682;0.34137952;-0.012841906;0.40868413;0.2618834;-0.18808573;0.00313389;0.037773885;0.07547852;0.18495831;-0.17301796;-0.023276811;0.02388941;0.4555997;0.0039489507;-0.035962388;0.034612723;-0.02386628;0.04244787;0.14408734;-0.087896034;0.40825608;-0.09677483;0.068209045;0.113289304;-0.0034059398;0.16309948;-0.19862843;0.055251572;0.30386105;-0.008446971;-0.14423247;0.006120242;-0.008229775;0.0007881197;-0.16930938;-0.006144159;0.05468394;-0.0047854506;0.2279033;-0.06067988;0.17083114;0.2152753;0.015924348;-0.31284562;-0.1771678;-0.0033392988;0.29300097;9.1722985e-05;0.31648842;0.01746833;0.3917715;-0.00719716;0.013033544;-0.3168652;-0.33465013;0.035910957;0.15461816;0.24306668;-0.4655103;0.07489694;-0.067818634;-0.2055421;0.054374292;0.009032093;0.19585648;0.019941077;-0.09961557;-0.00224368;0.051540334;0.012922517;-0.24963361;0.009388744;0.12041289;0.23478733;0.2029315;-0.0095500965;0.33293143;0.10111879;0.012047165;0.046603385;-0.110509895;-0.0069497027;0.036236294;0.0162796;0.020740956;-0.005520587;0.023006584;-0.20090821;0.15233015;-0.24058537;-0.015843565;0.2825393;0.19635056;0.12399537;0.013958356;-0.10203883;-0.44474396;-0.0058560795;-0.20879517;-0.070871845;0.2173282;-0.0450592;-0.37434024;-0.016694218;0.0022137617;-0.14759777;-0.019580508;-0.31924903;0.16119663;0.093001924;-0.24949378;0.09279806;-0.052625902;-0.2202708;-0.102903806;-0.3357052;0.12037876;0.09159933;0.043389175;0.059136525;-0.044696283;0.04036717;-0.20424111;0.014453128;0.10642451;0.012039005;0.011426648;-0.0070450734;0.0035693173;0.41866717;0.0020469385;0.20715344;-0.011270092;0.069549836;-0.2801145;0.006244771;-0.013841238;-0.10825055;-0.16758022;-0.16260949;-0.08319826;-0.012499739;-0.034502774;-0.30949768;0.055793617;-0.22782724;-0.19541271;0.064921044;0.013803204;0.06950142;0.13418233;-0.008092218;0.35375932;-0.13440378;-0.0072613484;0.25240025;0.007122928;-0.052398685;-0.00850802;-0.008549356;0.00082442793;0.09037045;0.30342457;0.004536402;-0.009344307;0.011248652;-0.0676947;-0.021010851;-0.043722644;-0.10146257;-0.4253269;-0.034701727;0.095129125;-0.005206359;-0.13883281;0.20567551;0.0365235;0.10923655;0.10786902;0.26132327;0.0011803722;0.26714346;-0.023795111;0.011049385;-0.101280786;0.042953786;0.019948002;-0.022600321;-0.001512983;0.015292534;0.17896008;0.23727947;0.028057255;-0.015368116;0.012097574;0.013759432;-0.046055708;0.14634809;-0.004047964;0.09221154;0.07142757;-0.009631505;0.057526924;0.012395809;0.0005894207;-0.07784777;0.20174837;0.5157082;-0.13119853;0.074960455;-0.0022831531;0.30445763;0.14562683;0.052127134;0.09104595;0.24185663;0.36673453;-0.022287657;0.06838327;0.23695615;-0.011598322;-0.16629925;0.12096783;0.27297392;-0.003730771;0.0019829932;0.23328057
-0.2557891;0.072296314;-0.11713674;-0.2558539;0.004592722;-0.18828562;0.06167502;0.09369007;-0.01811513;0.31901208;-0.0007305902;-0.15347078;0.06823521;0.07701269;-0.11978696;-0.08908805;0.033085324;-0.24602403;0.067563504;0.18283087;0.0192531;-0.013814915;-0.19649322;-0.10873818;-0.13019145;-0.009008888;-0.013128446;-0.1689004;-0.076700605;0.37596905;-0.20288257;-0.018263286;-0.08186836;-0.16707417;-0.17945747;0.1426051;0.13264355;-0.14139174;-0.043851364;0.035160247;-0.008389004;0.003219387;0.0348049;-0.11825977;0.006961796;0.39116478;0.004028064;0.12445592;-0.13703974;0.018657979;0.0025120575;0.00054411194;0.28115073;0.01899535;0.011640339;0.018126806;0.01002674;-0.054617457;0.046389844;0.0148082245;0.0058804946;0.08503857;0.008576821;0.14870389;0.43719932;-0.013802823;0.015473593;0.29878125;-0.39221266;-0.008208716;-0.121593006;0.0049217264;0.0072016013;0.19364557;0.1901305;-0.22703537;-0.019304128;0.20247124;-0.08644221;-0.0070204316;0.00789717;0.20205222;-0.17950805;-0.17935376;0.006821595;0.19935474;0.34838426;-0.0002210393;0.0038335177;0.017096616;-0.0050364495;-0.04230818;0.014440012;0.22841266;-0.22511376;0.30283046;0.1477668;-0.0062275995;-0.39649218;-0.09152652;0.0055890772;-0.2758069;0.09518036;-0.013734153;-0.053704422;-0.43540278;0.0071196146;0.16371934;0.027780449;0.0022358052;-0.17410555;0.08266327;0.42610595;0.083446264;0.11892658;0.075294964;-0.30591816;-0.0932173;0.0012839686;-0.20112649;-0.13325018;-0.0044205743;0.070597686;-0.0035998293;-0.0094610015;0.005975559;-0.20264772;0.016415698;0.009683901;0.02583226;-0.003605725;0.10455441;-0.16488013;-0.13407637;-0.014746285;0.017699746;0.18208677;-0.17296821;0.009403535;0.0031189043;0.023030221;0.43334326;0.0020405962;0.02421769;0.017999213;-0.14948927;0.19691752;-0.0056725484;0.030334583;-0.08859786;-0.020144947;0.013630284;0.062307477;0.09486907;0.0048845285;0.015089807;0.0039426577;0.21582119;-0.274193;0.26974255;0.061046492;-0.026433282;-0.24266195;0.00010545379;-0.014180871;-0.26381412;-0.030425152;-0.0005164185;-0.035490483;0.12383244;0.10369586;0.01594311;0.005721276;-0.1570114;-0.26517662;0.18291186;-0.011529705;-0.001931418;-0.14386633;0.00080104783;0.016600065;0.11605351;-0.022105964;-0.10173874;-0.13186197;-0.30317542;-0.16994086;-0.0811116;-0.082479194;-0.011382805;-0.12894292;-0.0011519813;0.03326873;0.014048232;0.014086258;-0.083322614;-0.5282486;0.399822;0.026183423;0.019699702;-0.26213512;-0.2927042;-0.17308383;-0.008469178;-0.1317301;0.008347395;-0.053381722;0.02097197;-0.063761845;-0.36664975;-0.018360516;-0.24053866;0.007157599;-0.02737536;-0.31876197;0.003017464;0.25238857;-0.086659096;-0.09843831;0.360668;0.28746027;0.061117917;-0.13422066;-0.013077132;-0.19690137;0.010076483;0.0071080443;-0.26638225;-0.006003334;-0.19217402;-0.2292155;-0.011480651;0.16022618;-0.0070121563;0.062277656;0.22127855;-0.113968514;0.011644823;-0.26049423;0.112486884;-0.025891986;0.021267535;3.1323485e-05;-0.31776658;-0.091550715;0.012834104;-0.0063468157;-0.051109;0.06031894;-0.033129226;-0.011780939;-0.24675155;0.0606623;0.12206073;-0.093907304;-0.022668675;0.12792294;0.005610901;0.09764772;0.17470062;-0.0021633331;0.020516543;0.30392078;-0.19289903;-0.17379417;-0.0891834;-0.23424959;-0.048322756;-0.4385115;0.056500427;-0.13738488;-0.0052518733;-0.012606641;-0.11351643;0.36964095;-0.008082891;0.01125305;-0.13592601;0.30675256;-0.19125296;0.061798684;0.2805889;-0.07174285;-0.35991773;0.34543014;0.45857605;-0.0678653;-0.115039125;0.4986015;-0.009861528;0.005661081;-0.2577347;0.13350111;0.003077264;0.16633853;0.026053479;0.2544176;-0.025561126;-0.2633456;0.007395155;0.10593654;0.013195308;0.0029885506;0.025145594;-0.00013466412;-0.009162953;-0.011523072;-0.031700715;-0.014541283;-0.43943328;-0.03141075;0.1531674;0.029058462;0.4172977;0.00067542185;-0.042433843;0.040585686;-0.038419317;-0.031776298;0.07742867;0.11403611;0.011080515;-0.19464882;-0.023777049;0.016779434;0.04394289;-0.037001733;-0.0054346756;0.005621084;0.015788944;0.00088279194;-0.113844045;-0.19240649;-0.21164742;-0.3264784;-0.0053996537;0.16354124;0.010078301;-0.21325083;0.007944552;0.1632586;-0.008443622;0.102189384;0.03166841;0.07295178;-0.112932906;-0.0045968597;0.003920875;-0.020530518;-0.21285978;0.017416734;0.3031561;0.05702773;-0.17611602;-0.026607187;0.04064913;-0.006209629;0.07813729;-0.02661355;-0.11198027;-0.02311668;0.24337327;-0.0118848635;0.13150199;-0.045638073;-0.021921853;-0.063921005;0.09114419;0.03341607;-0.122208595;-0.023176532;-0.03191159;0.042474438;-0.0036734696;0.0913873;-0.016753953;0.055549964;0.14254716;0.012757133;0.102550074;-0.0042048837;-0.00016259891;0.003460971;-0.16690277;0.013160405;0.15537567;-0.011956652;0.23380363;-0.048538625;0.03683055;0.25725973;-0.21472389;-0.10910194;-0.17935176;0.008455911;0.15070705;-0.0026883916;0.013711654;-0.02490238;0.22422293;0.012987954;0.16223665;-0.17270406;-0.4823244;0.029197678;0.3556915;0.26752788;-0.05874763;0.09525173;-0.045282174;-0.75388217;-0.0059374026;-0.012517027;0.3089731;-0.019542594;-0.18026613;0.015775636;0.20231979;-0.009216664;0.04393944;-0.0019878405;0.14623226;0.25236085;0.029975018;-0.0030684946;0.26149476;0.18539615;0.010068789;0.20151773;0.018196527;0.018844243;-0.04567393;-0.015699673;0.02929916;0.005908852;-0.14945431;-0.097209506;0.24153492;-0.07829742;0.011083078;0.18095078;0.21849263;0.23816893;-0.0022546656;0.097884916;0.038404997;0.032656115;0.01606299;-0.220248;0.153086;-0.04926527;-0.26829356;-0.14490648;-0.004901834;0.030139964;-0.008553852;-0.17709294;0.24735223;0.070802875;-0.26752937;-0.076301426;-0.022273278;-0.25385723;0.09452796;-0.5771036;-0.086864404;-0.009048258;0.12908186;-0.013234305;0.06942388;-0.018625883;-0.2979469;-0.013756525;-0.010785777;-0.050518554;-0.0057173655;0.019603875;-0.000885752;0.1726055;-0.021621767;0.053259727;0.18995796;-0.25384456;-0.008957544;-0.009242891;0.0042253123;-0.19022386;-0.17603643;-0.0118097775;-0.04896792;0.016572885;0.075285055;0.0032253498;-0.04856406;-0.20732962;-0.036358133;0.14763859;-0.0051977937;-0.07279306;0.10034868;0.018365493;0.31621057;-0.1278715;0.0044096233;0.19770975;-0.0046278285;-0.0648217;0.014697458;0.010549419;-0.003901874;-0.10180497;0.45243934;-0.009076577;0.17357472;-0.016150098;-0.21392971;0.017335325;0.03515842;0.06449276;-0.1971736;0.13896002;-0.0010878353;0.0011743016;0.09390342;-0.054400496;0.22986877;0.13694075;0.10059085;0.13237126;-0.017459167;0.16598748;0.015764872;-0.013856601;0.029142914;0.22907285;-0.003435936;0.19827983;0.005831839;-0.015874958;0.10449531;0.40799728;-0.018862696;-0.06623137;-0.0003162307;-0.0006171629;0.25176355;0.21841724;0.008369546;0.17271006;0.10122624;-0.0007134018;0.009289036;-0.019615432;0.08464727;-0.09821875;0.15457438;0.42560276;0.06548737;0.3147726;0.002087154;0.047530673;0.003246331;0.3740146;0.08277632;0.013159771;0.16179712;0.0059916195;0.057048585;0.12652281;0.0041792355;-0.12305474;-0.18539338;0.40305543;0.0014141223;-0.0018878919;0.025299294
0.054024525;-0.02249558;-0.27469862;-0.21395673;0.014300498;-0.20353678;-0.18246746;-0.11194345;0.024103453;0.12585919;0.00094252895;-0.08659951;0.23880623;-0.12471694;-0.41502047;-0.19104701;-0.16077805;0.20350772;-0.12347495;0.028881745;-0.0053119287;0.014589304;-0.13096152;-0.16124186;0.27752635;0.02059698;0.011099598;-0.23902181;-0.14606872;0.14279497;-0.29171672;0.0002084713;0.034945123;0.22194539;-0.13360861;-0.14294614;-0.06118502;0.08494393;0.03557104;-0.1269969;-0.011463452;0.004210167;0.067668214;0.15678261;-0.009582634;0.111744456;0.0033936384;0.114802234;-0.098213196;-0.002583669;-0.008698155;-0.058555886;0.110579506;-0.0078643495;-0.013028273;0.0052837;0.0001380835;0.10781659;0.091651045;-0.17684552;0.005359664;0.065203376;0.0056711393;0.08393569;0.024997147;-0.027016362;-0.015919894;0.13211255;0.052540578;-0.0022172057;-0.27811334;-0.018200155;0.017594334;0.2891421;0.17277989;-0.11059634;0.0076483954;0.18059759;-0.043101687;-0.0037639318;0.0018020004;0.060489897;0.009407551;-0.35044414;-0.01289786;-0.18390195;0.11210418;-0.0071667284;-0.005451075;-0.019678166;-0.0032613429;-0.16940466;-0.011557618;0.22156951;0.0059792404;0.40161648;0.21771616;-0.1451578;-0.18556048;0.22656578;-0.00059119886;-0.109131925;0.14931707;-0.0023488398;-0.2376296;-0.35841346;-0.026594551;0.07643229;0.006318429;-0.00010642557;-0.20798986;0.11851165;-0.12720472;0.0048000696;0.043551143;0.34621125;-0.62562495;-0.2054484;-0.0036138736;-0.03661928;-0.12382283;-0.0007906939;0.07988519;0.0030556223;0.011896736;0.0062312013;-0.3706844;-0.017474592;-0.0046564746;-0.046644595;-0.09609219;0.27173465;-0.26577833;0.009552688;0.0067233685;-0.023907397;0.12761657;-0.10997723;-0.013727145;-0.006792008;0.110826075;0.61340517;0.19061969;-0.26576167;-0.0039446736;-0.026027422;0.0038519865;0.016236683;0.06212413;-0.02731836;0.018330254;-0.007282609;-0.026045114;0.25145712;0.005803496;0.011435578;-0.005471967;-0.012541483;-0.56622136;0.17013684;0.021912394;0.019384935;-0.21094123;0.002336467;0.0090826005;-0.07288133;-0.19470403;0.0051273815;-0.019826828;0.21134563;0.07612381;0.01365497;0.0067768665;0.032326102;-0.2288781;0.06724408;0.019966291;0.005017211;-0.14585611;0.0013477991;0.016296322;0.19754955;0.045192346;-0.18559013;0.19392794;-0.31983432;-0.26041993;0.06762919;0.0078080967;0.0044399295;0.06782213;-0.003505643;-0.016440216;-0.0040689968;-0.015831877;-0.08141712;-0.4494511;0.2631877;0.057952043;-0.0053843874;-0.08540819;0.056613743;0.03532694;0.0076762233;-0.12542875;-0.00076303654;-0.21464728;-0.0055697877;0.10933342;-0.17180426;0.048618734;-0.08517752;-0.00852912;0.019182071;0.011119495;0.000567475;-0.12129747;0.14508879;-0.060436565;0.17341135;0.3045927;-0.1878073;-0.18064527;0.018407345;0.15540454;-0.010076036;-0.0039993552;-0.18337937;0.0067943735;-0.23657808;-0.0017299781;0.016124483;0.053581696;-0.00080768263;-0.07883854;0.38031358;-0.053542256;0.0008914324;-0.37703213;0.1561482;-0.05824136;-0.05673041;-0.008361806;-0.34635004;0.052493513;0.01694637;0.017461153;0.054654915;0.29742783;0.012653124;-0.007514387;-0.19830714;0.16854489;0.20216002;0.0018768196;0.013635084;-0.18501332;0.012338997;-0.009177783;0.060112134;0.0012489296;0.006658206;0.3483267;-0.17643787;-0.30387983;-0.018273449;-0.32219365;0.05280568;0.19312163;-0.1459908;0.13380861;-0.10527924;0.016291618;0.113176286;0.23619753;0.0008019689;-0.015124098;-0.05085303;0.25994244;-0.28129125;0.14954972;-0.04755455;-0.22515483;-0.18407276;-0.026336985;0.1379292;0.13747129;-0.09165644;0.22310005;-0.26465052;0.0036221978;-0.50357723;-0.043219734;-0.027633546;-0.26459727;0.1321437;0.246816;0.0043101446;-0.20292215;0.015011741;0.014211447;-0.009914534;-0.002397694;-0.17873509;-0.006037966;-0.068639375;0.0063810134;0.023186449;0.0029459193;-0.23531544;0.01068262;0.17189349;-0.060047563;0.30898812;-0.12263446;-0.17084394;0.053676583;0.0268451;0.009820228;-0.10021759;0.04849824;0.07346929;-0.33882722;0.015780346;0.032438215;0.11830928;0.035874695;0.010331084;-0.0031917798;0.106773354;-0.0059812637;0.3378402;0.09018869;-0.5544263;-0.17423132;0.01110719;0.14356786;-0.007353376;-0.2817761;-0.01768371;0.15224132;-0.0039898613;-0.2507586;0.08125367;-0.28705764;-0.11735794;-0.017225595;0.0089063225;-0.003846612;-0.220577;-0.017613519;0.25947008;0.22449143;-0.26204035;0.012470665;0.16645645;-0.008949028;-0.014353502;-0.09366203;-0.06061908;0.017770248;-0.1856026;0.014634929;-0.1544595;0.088729225;0.025260499;-0.07926369;0.18948719;0.02859058;-0.2933756;-0.15868887;-0.10403855;0.008742547;-0.0007711989;0.36152247;0.08602155;-0.018150581;0.23798606;-0.007734498;-0.009952288;-0.010514822;0.00026264696;-0.0040792455;-0.44013757;-0.0123118805;0.45408192;0.008521919;0.1390844;-0.09648783;-0.288298;0.006537757;0.043933194;-0.009276248;-0.10848609;-0.0042300853;0.1263974;-0.0010491777;0.034528736;0.024095789;-0.11856736;-0.016875232;0.28937852;-0.4172303;-0.27386492;0.10447396;0.2635147;0.09448373;-0.040285088;-0.06522414;-0.12851235;-0.5311928;-0.04912505;0.016097445;0.11151734;0.007618166;0.025212597;-0.0033379372;0.16161306;-0.0060937554;0.30477518;-0.00084928225;0.121908434;0.26431173;-0.10038576;0.012900194;0.1909264;0.359438;-0.0053989682;0.16589755;-0.0064308015;0.0023496307;-0.07515503;-0.013029801;0.031171102;0.0067477836;-0.1485766;-0.19005157;0.1702476;-0.0038115417;0.008382254;-0.014311337;0.32650727;0.29655665;-0.012913236;0.024980133;0.09394648;0.19035071;0.15736434;-0.15641378;0.26086822;0.14791161;0.02840212;-0.38781303;0.012497508;0.043972548;0.005654976;-0.28518826;0.1940392;0.20014521;-0.42239174;0.08485363;0.027123298;-0.06522015;0.36267895;-0.2887051;0.016091758;0.04457672;0.20507003;0.2947217;0.048062507;0.036171615;-0.16243756;0.007485089;-0.18504885;0.060234427;0.02182874;-0.011859962;0.013327561;0.34906745;0.023752356;0.16220242;-0.013594093;-0.27036867;0.06389707;0.008017678;0.011111849;-0.077059835;0.007503941;0.080917716;-0.17534323;0.005484859;-0.006388767;0.08202571;-0.0068140654;-0.18789598;0.07617423;-0.09990315;-0.0058625285;-0.13494883;-0.07554754;-0.015521032;0.23992379;-0.12474602;0.012197262;0.0728938;0.00975673;-0.21648301;-0.041679285;0.01735515;0.0032752773;0.05258847;0.5362419;0.0046295826;-0.21215753;-0.002697837;-0.15043277;-0.014388553;0.26245672;0.10173802;-0.24435212;0.063002504;-0.15320943;-0.011107739;0.20747793;-0.33947274;0.2977994;0.015476471;-0.20426804;-0.03661052;0.016653683;0.18703048;-0.0006727609;-0.0015948588;-0.20637615;0.12378803;0.005013653;0.19304778;-0.012683915;0.00052511896;0.056879066;0.38953602;-0.0052804537;-0.14427747;-1.2127819e-05;0.0049290024;0.2845498;0.17804524;0.0072199446;0.23156479;0.02906203;-0.0061376044;0.2564496;0.025489777;0.041182835;0.12058768;0.1399954;0.22950703;0.05962878;0.1709843;0.008492068;-0.23430453;-0.115383685;0.047139898;0.2393678;0.12484949;-0.10675335;-0.002858637;0.14614895;0.16850246;-0.0011086772;0.029994177;-0.12722029;0.24204321;-0.012605332;0.02113966;-0.123005055
0.24810469;-0.22586748;-0.39186713;-0.27665988;-0.007262768;0.023239324;-0.14263314;-0.13350078;-0.016126098;-0.2017539;-0.007261169;-0.09690201;0.13915116;-0.062423352;-0.21034382;0.05766074;-0.06343789;0.52319527;-0.21281606;0.051227663;0.14207321;-0.0013892361;-0.096673764;-0.036921337;0.01998595;-0.006884049;0.0031454714;-0.27447683;0.05560271;0.08355018;-0.11970198;0.012088357;0.090056345;0.22391957;0.045842938;-0.052285977;-0.13190842;-0.03234945;0.34886768;-0.033014096;-0.008218833;-0.010709416;0.073971234;0.022477278;0.011345137;0.009073856;0.006114427;0.120300405;0.018672118;0.0051202127;0.007267462;0.004409839;-0.016575852;0.0031297004;9.790314e-06;0.050339945;0.005314343;0.21070965;0.18862282;-0.09539677;0.00085570326;0.13244736;-0.013447409;-0.030094977;-0.27653047;0.06938813;-0.020472236;0.09084606;-0.018880123;0.010137258;-0.36387694;0.018602066;-0.019887412;0.12113113;-0.056509417;0.1512541;-0.007975284;0.19387242;0.112423845;0.0044630617;0.00411653;0.09229767;-0.29783276;-0.34899333;0.0126811145;0.14743619;-0.13388303;5.7910067e-05;0.006390603;-0.0025310575;-0.009998203;-0.06664251;0.007546343;0.33722803;0.28627902;0.2949543;-0.0046117282;-0.07604566;0.13766709;0.22133751;0.0067281006;-0.17123008;0.0116603095;0.0037884624;-0.17361534;-0.34136865;0.017356316;-0.09870975;-0.020329233;-0.0038175052;-0.2773137;0.23803961;-0.2413209;0.07374816;-0.101294175;0.3109012;-0.4625405;-0.1960995;0.007602077;0.09622104;0.03151813;0.004942253;-0.1271839;-0.0004912571;-0.009476461;-0.0021665609;-0.31245583;-0.042076368;0.014526823;0.04776609;-0.06086925;0.14489177;-0.19971102;0.107250914;0.012888672;-0.28425467;-0.06273422;0.0041152043;0.0015992235;0.0073346943;0.015196276;-0.2348803;0.36817122;0.059980623;-0.015438877;0.15394682;-0.3137776;0.0055240765;0.10028767;-0.21907642;-0.004637322;-0.0684594;0.009657416;0.14083166;-0.011950246;0.0036232371;0.018687207;0.11195339;-0.5639052;-0.08862647;-0.07349268;0.0020139979;0.004133584;-0.010778639;-0.0058425856;-0.18166177;-0.077666976;-0.021558281;0.26718622;0.12246948;0.11560395;-0.012401585;0.0033453426;0.30401888;-0.081162065;0.009344663;-0.00058449636;-0.015109173;-0.03252586;0.0030090103;-0.0040957024;0.2436729;0.04076414;0.1052335;0.10449183;-0.4126474;-0.11787324;-0.024456156;0.09823511;0.011594136;0.018138753;-0.0071421247;-0.15061527;-0.013868525;-0.00058528036;0.17434126;-0.2583804;0.33194333;-0.17364085;0.001691182;0.32596755;0.043087956;-0.32178748;-0.0068440167;-0.21303742;0.0031522063;-0.18593842;0.010920459;0.15755989;-0.107004754;-0.03193706;0.0066866297;0.0018921697;-0.007005963;-0.011075835;-0.009934399;0.0902358;0.12509249;0.044387545;0.049494147;0.34941915;0.14817037;-0.12863056;-0.009113131;0.21258922;0.010871822;0.0064839823;-0.058324732;-0.0016709385;-0.35200444;-0.022029065;-0.0052559474;0.021956379;-0.14570773;-0.04257355;0.1911608;-0.08763804;0.008534093;-0.34240225;-0.03211212;-0.003167647;0.08148725;0.0040860265;-0.24632849;0.15915868;-0.015969293;0.007898703;0.018114392;0.20653619;0.06348059;0.007324307;-0.008327455;0.10803488;0.13675565;-0.105286464;-0.008614985;-0.24054565;-0.012350862;-0.04260915;0.089515455;0.02196439;-0.0047409637;-0.10581527;-0.008647458;-0.12614472;0.06508117;-0.032307092;0.042773027;0.18736306;-0.1253545;-0.13048148;-0.10447231;-0.012921399;0.16677739;0.11114166;0.007331359;-0.0014978009;0.032749522;0.23966564;-0.43245992;0.12773614;0.013587188;-0.042068522;-0.08323598;0.011939552;-0.099124186;0.042603046;-0.04322256;-0.028977579;-0.1729116;0.0126003735;-0.61932415;-0.23554227;-0.10339949;-0.45139742;0.003994897;0.22150691;-0.020120354;-0.13799557;-0.0125739705;0.0488342;-0.0058788587;-0.0015498716;-0.24926694;-0.0016953959;-0.0080530625;-0.01703122;-0.044049412;-0.00981746;0.016291313;0.009990273;0.062101774;-0.074134104;0.15808564;-0.16410865;-0.09103863;0.17491558;-0.020524485;0.21380183;-0.20722868;0.09974527;0.0498889;-0.22111617;-0.0010731132;-0.03378315;0.08205497;-0.011793086;-0.0012267679;-0.0033059008;-0.015195286;0.018450333;0.12175184;0.18392019;-0.45035106;-0.26823884;-0.0064383196;0.135552;0.016561268;-0.16791528;0.016024744;0.2024542;-0.00071643345;0.027724085;0.20400134;-0.38352725;-0.09354405;0.0068450742;-0.0013865244;0.0020369538;-0.15869069;0.020604232;0.23487622;0.23932911;-0.23960987;0.0015565143;0.16573176;0.027747856;-0.10400685;0.13663924;0.04185005;0.001241595;-0.18774527;-0.0068262196;-0.08104211;0.10795724;0.070196144;-0.099697016;0.08113343;-0.039503273;-0.2129557;-0.10370789;0.072929054;0.14366458;0.0024910695;0.38975397;0.003538987;-0.10221049;0.24426723;0.023632176;0.041561656;0.0038487595;0.0068044625;0.009857862;-0.14669025;0.008610829;0.34379303;0.0014865681;-0.045433726;-0.09771793;-0.13396104;0.10782156;0.010093889;0.03392221;0.081102446;-0.004130451;-0.21664797;0.0028896634;-0.014288123;-0.018115617;-0.058247972;0.011414773;0.20337033;-0.45652768;0.042158123;-0.029462067;0.27196676;0.080693364;-0.09380736;-0.31371212;0.13825491;-0.33139494;0.0074549736;-0.004710696;0.12051877;-0.014373698;-0.15734112;0.011468096;0.34089997;0.008059382;0.25664732;-0.0009175353;-0.14897704;0.13990118;0.12620302;-0.014545603;0.26842;0.16888714;-0.0024390973;0.32843417;-0.13344845;0.0018957865;0.12185906;0.010257575;-0.028614081;-0.012840946;-0.22167079;-0.05500436;0.24942724;0.25579822;-0.007305278;0.021466462;0.40751714;0.05328337;0.0035158058;0.012274985;0.02863332;0.11606504;0.17105775;-0.48457822;0.24364682;0.3756731;0.07253092;-0.17358342;-0.012710268;0.0047354656;0.028912447;-0.21386698;0.10847658;-0.09969716;-0.34041497;0.33773053;-0.031192403;-0.09054211;0.3327875;-0.2742743;0.12495459;0.06893095;0.13335499;0.06693201;-0.0795365;-0.005692322;-0.2947962;0.0030791492;-0.23284152;0.025244357;-0.014834911;0.009155776;-0.0027546752;0.013117502;0.0072614565;0.12723747;0.042400133;-0.12465587;0.22407746;0.0017024679;-0.00029497402;0.044999555;0.00970388;0.34637025;-0.043227002;-0.016377233;0.056510586;0.14378259;-0.009231586;-0.2495694;0.10291217;-0.063130826;-0.0039204443;0.06407728;-0.31154352;-0.012955443;0.38371456;0.09813451;-0.006227989;0.20158762;-0.0082541285;0.0043074465;-0.0001581769;-0.010222646;-0.014171644;-0.064493656;0.37191015;-0.005950329;-0.2401449;0.016894402;-0.1415614;0.0034114195;0.17296982;0.09050524;-0.08716444;-0.017905394;-0.061282825;-0.0007585139;0.12417712;-0.17491661;0.22599342;0.026128002;-0.16403955;-0.07803708;-0.011088487;-0.04707438;-0.0048965286;0.010536235;-0.14216822;0.1438081;0.003927512;0.04611864;0.020795725;-0.0030808118;-0.111584775;0.112632364;0.009044903;-0.011283142;-0.020485802;-0.004989069;0.11391159;0.046504334;0.005755167;-0.025142632;-0.31287226;-0.003488601;-0.019797757;-0.011513762;0.004873351;0.10791211;0.08403338;0.07059316;0.16157636;0.26086164;-0.00696052;-0.18800274;-0.24160884;0.18309812;-0.121260084;0.16044314;0.021135684;0.017212678;-0.19620015;0.1430112;0.0013989073;0.08286839;-0.19400702;0.25536466;0.012591561;-0.010635161;-0.03783678
0.2949402;0.014318149;-0.1959066;-0.14516044;0.006662974;-0.034480095;-0.12243267;-0.2635839;-0.008089109;0.19067198;-0.004733808;-0.08799451;0.06286633;-0.14771496;-0.22269541;0.06338828;0.11090298;0.5374009;-0.1370633;-0.040898677;0.08975208;-0.008465449;0.04436937;-0.02397969;0.01705998;0.013490181;0.012593357;-0.21710218;-0.0603096;-0.027040469;-0.08944941;-0.004043758;0.060270023;0.59905136;-0.017705724;-0.12639028;-0.15319973;-0.013432038;0.25187;-0.12643583;0.0011028446;0.018184444;0.09150809;-0.021794325;-0.016366258;0.06887524;-0.015161404;0.0043997113;0.040122442;0.0021423278;-0.0086421855;0.09331511;-0.13094912;0.005954953;0.0234738;0.00036866774;-0.0036168715;0.39177495;-0.05792002;-0.08810819;-0.0025693646;0.047110364;0.006621792;0.0628514;0.07536678;-0.05086146;0.04759508;0.04560858;0.054523002;0.0026840614;-0.111643076;-0.0066041313;0.0052421805;0.12603235;-0.18251295;0.14261423;-0.0011510391;0.04294169;0.1467948;-0.005524318;0.008602786;-0.11551537;-0.16379347;-0.22385432;0.0006686468;0.061276827;-0.03078132;0.009615554;-0.007417886;0.015753204;0.004829826;-0.008962701;-0.28924537;-0.0066989074;0.17305315;0.27369145;-0.17844363;-0.14652938;0.11641929;0.0058145034;-0.0018644275;-0.208389;-0.006446675;-0.00051416794;0.049387183;-0.38542995;-0.014248644;0.04971758;-0.07373245;0.006107756;-0.0670539;0.24848329;-0.2207824;0.14897662;-0.083623804;0.15805928;-0.13464038;-0.20175003;-0.0092231305;0.2228467;0.14417411;0.008836412;-0.042985953;0.0021588958;0.010873298;0.0064639826;-0.3101861;-0.053221997;-0.021774799;0.26416874;-0.15920995;-0.19563487;-0.3167114;-0.0075266804;-0.009797386;-0.25465462;0.054082114;-0.26664793;0.0025962896;-0.0030042022;0.102656424;-0.25591582;0.16904555;0.09203178;0.0047480636;0.3305333;-0.430991;-0.024594445;0.0942361;-0.1620614;0.009039915;-0.057042267;-0.08879303;0.18376179;0.0016507157;0.008656364;-0.019047638;0.05699056;-0.2584172;0.040646125;-0.012066381;-0.0073162327;-0.0070497766;0.018515944;0.009344222;0.07511887;-0.2507248;0.017252855;-0.12763171;-0.012563528;0.04413792;0.013401164;-0.0012389085;0.19112025;-0.12653078;-0.07157816;-0.0051734275;-0.003638615;0.13259524;0.0002554913;-0.016547645;0.22572413;0.1707332;0.27848327;0.2566926;-0.11971921;-0.4308647;0.26012608;0.2813628;-0.0049645565;-0.24199149;0.0048161848;-0.08380537;-0.014552513;0.016067747;0.12783068;-0.1705013;0.23510906;-0.12886219;-0.0057782005;0.3663823;0.09606554;-0.2855597;-0.0077625206;-0.23413827;0.0068541206;-0.07202292;-0.011778248;0.13597032;-0.105326556;-0.04575336;0.15282735;-0.0004685348;0.0064933063;-0.0009100576;0.010491602;-0.3753218;-0.010946543;0.195073;0.081177466;0.33023748;0.13093252;-0.09218302;0.01125609;0.23194022;0.0050640567;-0.005220543;-0.062656775;-0.005096398;-0.22227634;0.15365086;-0.010285176;0.21587804;-0.05714479;-0.15125667;0.14566815;-0.0541907;-0.0038165215;-0.31250963;-0.32210276;0.05879965;-0.09297593;0.017599989;-0.35026124;0.33931652;0.008149699;-0.015245684;-0.010879916;0.3080954;0.023774317;0.0020436936;0.05455353;0.06595211;-0.078462124;-0.18814331;0.024844011;-0.06704332;0.0071079005;0.15561993;-0.04116448;-0.010519641;-0.0074482034;-0.22576451;0.11205672;-0.11589369;-0.10949343;-0.305654;0.17251296;0.082288995;-0.17263798;-0.038302332;-0.016944494;8.008553e-05;0.0995942;0.1639289;0.006413157;0.0028145814;-0.076296255;0.08377248;-0.47883543;0.01364989;0.04404451;0.0051576714;-0.04999094;-0.14802846;-0.18184294;0.20958716;-0.079775505;-0.047356438;-0.22376041;0.011810558;-0.5089977;-0.16315398;0.08145529;-0.40345412;0.026141055;0.12959643;0.0019881416;-0.2510426;0.005306033;0.19106649;0.009611666;0.013408615;-0.059234828;0.008383343;0.02172118;0.011651365;0.028499763;-0.010882887;-0.08959852;-0.004682655;-0.03936975;0.16388398;0.28624922;-0.034394804;-0.27686855;0.2080746;0.0015925578;0.39238337;-0.3226038;0.02741492;-0.124423064;-0.05145937;-0.0050101597;-0.054264165;0.22219236;-0.024334835;-0.0007136269;-0.007989941;-0.20334941;0.0107672475;0.03803725;-0.15285125;-0.38148236;-0.16126893;0.009657136;0.051349793;-0.01866899;0.08627816;-0.0075156027;0.14386994;0.016628943;0.1075959;-0.0128823565;-0.22522712;-0.09932961;-0.009291022;-0.0009518318;-0.00051462045;-0.041946914;0.00687627;0.007424952;0.29066673;-0.12737836;-0.00722578;0.07554311;-0.009986379;0.07584424;-0.09536959;0.02641816;0.0031152314;-0.055787195;0.011288813;-0.37529042;0.39676243;0.16180545;-0.09023253;0.11776191;0.031304017;0.14405803;0.069170855;0.2021604;0.09998513;-0.008551999;0.23685184;-0.06669677;0.20626555;0.1632521;-0.018290296;0.20590961;-0.00030630233;-0.013266415;-0.024669955;0.034712225;-0.008946774;0.14324845;0.0018555293;0.22070082;-0.11373072;-0.20414813;-0.25609726;0.31473422;-0.05305079;0.1499128;0.0212275;-0.043327857;-0.016560698;0.057475273;-0.0025027413;0.029086284;-0.008768022;0.034014825;-0.41448998;0.18760619;-0.10113945;0.24361485;0.2793493;0.023603542;-0.3742284;0.017275337;-0.56426996;0.09855947;0.007837951;0.18756276;0.02442503;-0.112043075;-0.0058717583;0.2889357;0.004826565;0.13809323;-0.015315615;-0.16725445;0.2706234;0.12723327;0.019712545;0.20606504;0.08254748;-0.0109167695;0.51369375;-0.1271068;0.009294252;0.15852484;-0.008412322;0.02670558;0.009643846;-0.23769885;-0.18557996;0.1922974;0.37246466;-0.013250812;-0.42642954;0.40735096;-0.092149295;0.0021967473;-0.08812127;0.133956;0.15637213;0.09851496;-0.27974904;0.36305168;0.12732172;0.16069601;-0.08606377;0.013802747;-0.44105914;-0.0014251595;-0.4775088;0.32484362;-0.039199535;-0.38067544;0.3248298;-0.005591639;-0.06691231;0.27957505;-0.02269075;0.018831115;-0.06479761;0.19251321;0.24807966;-0.080951616;-0.01035272;-0.254503;-0.00014938874;-0.41618857;0.10921953;0.005796939;-0.00778825;-0.0017500516;0.14228052;-0.0076606767;-0.05854285;0.15329878;0.09226807;0.12672055;-0.017397394;-0.0153037645;-0.043780662;-0.027796568;0.3372289;0.0784318;0.005044428;0.0613853;0.30759072;-0.02660374;-0.034793347;-0.005496112;-0.04139297;-0.009580908;0.18029918;-0.3073748;0.0014654704;0.23299621;0.021624938;-0.003246218;0.22925216;0.027648363;0.06875063;-0.02013726;0.017706329;0.018176029;-0.1085777;0.32227668;0.013363325;-0.27742612;-0.014054188;-0.27166498;0.007910224;0.5522044;0.08809999;0.11192095;-0.10201095;-0.19917165;0.0021528841;0.09426226;-0.06967549;0.09317451;-0.038467728;-0.2509835;-0.16530676;0.010422014;-0.18307985;0.02127343;-0.0063817063;-0.11743308;0.10318704;-0.009387111;0.049888466;-0.011072646;-0.004429564;-0.20563565;-0.41280326;-0.021292765;0.13783069;0.005144719;0.0035756936;0.08750213;0.021113077;-0.01278403;0.021411683;-0.16896789;0.010347676;0.044159174;-0.005082739;-0.12518589;-0.04282464;0.11935139;-0.040630337;0.15325087;0.179611;0.002525825;-0.054738335;-0.20380965;0.18267201;-0.08452479;0.14671008;0.092696585;0.0018207557;-0.25877002;0.10713501;-0.0078110727;0.086614296;-0.12570988;0.18278077;0.005049467;-0.0043048346;-0.23122446
0.41788793;-0.22011077;-0.44324037;-0.28775287;-0.0035395632;-0.1368426;0.14581017;-0.23382652;0.005345245;-0.023803145;0.017840227;-0.13638385;-0.24466555;-0.39200154;0.24692741;0.009901367;0.041359887;0.62202686;0.06678596;-0.07914582;0.27104148;0.0075821816;-0.11060172;-0.12469743;-0.16072936;-0.018444408;-0.021731742;-0.15377983;-0.039257675;0.09847609;-0.14752764;-0.004398103;-0.04544379;0.19145128;0.09968255;-0.08825699;0.028444977;-0.10265561;0.09089034;-0.008299392;0.013767736;-0.013971052;0.06490418;-0.05693845;0.009834674;0.06674243;-0.003982654;0.07480896;0.084679425;-0.0061789462;0.016754853;-0.032787967;-0.13018043;-0.024139024;-0.014245471;0.07465628;-0.017251335;0.46954086;-0.008766117;0.012596699;-0.004075113;-0.049943496;-0.0055293213;0.07654243;-0.1680051;0.1257532;-0.050862752;0.21394071;-0.057818618;-0.014792274;-0.18303633;0.01206531;0.00067452504;-0.07946346;0.2670408;0.12665547;-0.008366177;0.080572166;0.107861824;0.0074122204;-0.005258716;-0.0030336487;0.030207885;-0.11951142;-0.008721285;0.0069357636;-0.010423861;-0.00033829277;-0.0048053963;-0.006919549;-0.0017348734;-0.049125496;-0.2248397;-0.012147095;-0.08308768;0.26857105;-0.33303255;0.22308204;0.057937317;-0.16552877;-0.004331601;-0.12124796;0.04336693;-0.0022951486;0.26257464;-0.18416896;0.006929059;0.14152385;0.043413267;-0.0078192875;-0.28040755;0.033536904;-0.036553804;-0.02103713;-0.035165876;0.11639362;-0.011881378;-0.0018231753;0.008783075;0.15135114;0.08035814;0.01255123;-0.29018784;-0.0011217946;-0.00045357808;0.008965755;-0.5906779;-0.039639678;0.012762208;-0.009387118;-0.27014682;-0.191195;-0.19024992;-0.047247857;0.012904791;-0.13378441;0.24100006;-0.16784777;0.007081838;0.015120893;0.10246955;-0.26534528;0.26845053;-0.07264732;0.007707006;0.21923621;-0.09162623;0.012690482;0.18107425;0.0155805;0.003863098;-0.025158154;0.048853077;0.26159105;0.0047030705;-0.013858679;-0.0028589482;0.33918548;0.021854836;0.008225684;-0.05404409;-0.004561585;-0.027429422;-0.007733405;-0.00687687;0.13550584;-0.17923015;-0.0057327813;0.021081667;0.121656254;-0.07028491;-0.0019880056;0.008244053;0.057685297;0.003688545;-0.15507135;-0.0011308762;0.0028805756;0.38689277;0.0055113477;-0.008096344;0.25581658;0.29862192;-0.027197555;-0.07469302;-0.11203239;-0.28740558;0.09105401;0.24298404;0.0042615007;0.021141265;-0.00024739793;-0.106597684;0.018826993;-0.010613294;0.22970816;-0.1545854;-0.20636366;-0.016945817;-0.007184203;0.2121803;-0.17237285;-0.26156154;0.021149296;-0.40452582;-0.006556256;0.03454733;0.0136453975;0.23106249;-0.11129119;-0.006724895;0.15318063;-0.0011013729;0.008222576;0.0036409928;0.0053401715;-0.68877375;-0.21199995;-0.10704756;-0.15660784;0.25954548;0.2442461;-0.048010975;-0.00025599007;0.097967215;0.0014134165;-0.012134741;-0.09726544;-0.0036986638;-0.07900871;0.19337285;-0.0102186175;-0.0030204079;0.009400863;-0.09542167;0.09535186;0.09865866;-0.010777551;-0.29442725;0.005199002;0.06674487;0.041208897;-0.012278551;-0.2053829;0.13796984;0.018213067;0.0013632668;-0.007709271;0.33863828;-0.051398125;0.009553579;-0.14103888;0.0057523497;-0.1514155;-0.048965685;-0.00041705556;0.122554764;0.00044777157;0.1695952;0.15456697;-0.0075949905;0.0033656056;-0.12680867;0.015660811;-0.015611139;-0.17486063;-0.22163984;0.15872471;0.47509962;-0.16101205;-0.19421569;-0.035327177;9.476638e-05;0.3828357;0.09366544;-0.014703343;-0.001246702;0.072258204;-0.14681186;-0.43277124;-0.29556993;0.23730618;0.06524003;0.13128898;0.010656782;-0.35018384;0.1069763;0.062224995;0.08864932;-0.22362493;-0.021846939;-0.22978285;0.2248591;-0.23036237;-0.6459095;0.061050806;0.22830802;-0.017180508;-0.18558218;0.0044491207;0.15340829;-0.0067904172;-0.015312059;0.13141376;0.013349386;0.009072133;-0.00443977;0.012840086;0.017486617;-0.16316442;0.002263842;-0.26991776;0.16497493;-0.026750384;0.19586326;-0.26399225;0.08889507;-0.0043425392;0.41696048;-0.029463068;-0.10006649;-0.10475585;0.12157649;0.011171182;0.0623756;0.43007606;-0.02127755;-0.013575857;0.0031943254;-0.05622267;-0.024329284;0.05642029;-0.0058776764;-0.415793;0.16734907;-0.010724486;0.3331403;0.0016302185;-0.20706245;0.004048318;0.2887324;-0.005625265;0.13125604;0.029811343;-0.20173468;-0.008324096;0.012403308;0.006550937;0.006604945;0.054769542;-0.011742245;-0.014251342;0.17516772;-0.15081902;0.007967977;-0.034517743;-0.03359203;-0.11880457;-0.101414904;0.0042823767;-0.02665244;-0.088356026;-0.010950215;-0.48717204;0.15537867;0.31547552;-0.09422731;-0.0023913402;0.021314846;0.17804773;0.017426357;0.042584557;0.15731978;0.009889622;0.13339716;-0.10323697;-0.14484006;0.14608079;-0.0064858682;0.14848317;0.0072687413;0.015559519;0.008503947;0.007055324;-0.0022542835;0.0457257;-0.0043876898;0.026844246;-0.17775117;-0.10754519;-0.1571052;0.05754004;0.1812124;0.15381739;-0.020098127;-0.2974142;0.015085276;-0.13660313;-0.0038124402;0.115111336;0.01507713;0.07886015;-0.06925622;0.038958013;-0.13283916;0.4399303;0.06338381;0.13470359;-0.15239431;-0.057587523;-0.21308234;-0.073422395;-0.027517498;0.1326308;-0.012637023;-0.22928798;-0.009276661;-0.052541923;-0.004594924;-0.25025824;0.014031819;-0.05882732;0.20455742;0.111149386;-0.013299629;0.2108824;-0.16113953;0.009054456;0.34000456;-0.0007100877;-0.005900245;0.04309447;0.0032105506;-0.014555897;0.007407895;-0.20295729;-0.031370938;0.20662789;0.13966078;0.005919508;-0.5356711;0.19148485;0.06359019;0.0010090177;0.042416673;0.114701346;-0.080020025;-0.24751759;-0.2835071;0.32516983;-0.021098588;0.18528196;0.075569086;0.0067598955;-0.41423786;-0.01380772;-0.2786776;0.2309394;-0.08068146;-0.0107698;0.24788533;0.03486391;-0.028608205;0.49456933;0.11552824;-0.059525497;-0.018386388;0.16101365;0.08121723;-0.19032766;-0.046955455;-0.491156;-0.006246746;-0.3696107;-0.12011715;0.0029012281;-0.0015714355;-0.0050825938;-0.07989155;0.0022435172;-0.18655784;0.07204946;-0.268654;-0.15916054;-0.01043379;0.009095983;-0.056786235;0.038758643;0.032323733;0.22878525;-0.011424852;0.034653984;0.033849634;0.05813549;0.09703696;-0.112911575;-0.22176017;0.012951853;0.17104939;-0.3298133;0.009767404;0.12746984;-0.04068932;-0.022428328;0.069691844;-0.012931341;-0.17655914;0.0323056;-0.011026249;-0.0069219517;-0.2130381;0.32163423;-0.003508943;0.11113295;0.013394506;-0.07482576;-0.0056990297;0.15973896;-0.06630185;0.16118473;-0.16760339;-0.30093387;0.015928067;-0.01896595;0.15366352;-0.091770746;-0.013172791;-0.2812607;-0.03694782;-0.0038792284;-0.1437854;-0.020295277;0.010740679;-0.0814385;0.031714894;0.0031599354;-0.0071514123;-0.0054226858;0.010089807;0.20650119;-0.26551083;0.028547244;0.071364716;0.013915316;-0.0027427233;0.09851686;0.058908075;-0.0047291676;0.1972165;-0.06134886;0.010999629;0.02068449;0.0087392675;-0.32174334;0.046616655;-0.06955903;0.031376157;0.12856977;-0.05920641;0.011533226;-0.15720995;-0.18866068;-0.2038352;-0.16195096;0.11111252;0.23026834;-0.008374898;-0.121732615;0.2123856;0.0033037495;-0.024920149;0.15259385;0.36888084;-0.002382095;0.0013717808;0.18254067
0.22943829;-0.07172071;-0.34453306;-0.18545054;-0.009426763;-0.4107681;0.11253429;-0.092056215;0.004739246;0.039745092;-0.012952216;-0.060925685;-0.34038723;-0.19386266;0.06341045;-0.03179378;0.1546384;0.5442765;0.047074158;0.04166844;0.25977045;0.019537892;-0.16108525;0.08118666;-0.12479203;0.006998499;0.0051860735;-0.21375217;0.06098969;0.1404198;0.110876694;-0.016530849;0.11451649;-0.039300855;0.10985515;-0.091423765;-0.07813166;0.037734095;0.062484507;-0.053075783;-0.007906546;2.7005277e-05;0.21604888;-0.22309434;-0.008348831;-0.06668642;0.0015719855;0.076434754;-0.0030430118;-0.0034544298;-0.00087568443;-0.10687924;-0.21073562;0.004246889;0.019921497;-0.11198549;0.012210168;0.3891208;-0.034735605;-0.082112364;-0.0025571676;-0.24728331;0.013365171;-0.03167973;-0.16407616;0.13995154;-0.04882327;0.48211452;0.11677456;0.0021518536;-0.05285642;-0.007201709;-0.008957742;-0.10299267;0.24326058;0.32991678;0.013592001;0.11193304;0.161709;-0.0097279595;-0.009547584;-0.08955151;0.20653743;-0.15837811;0.002322156;-0.08685897;0.07485493;-0.0090713855;0.0054344838;0.0077573108;0.018952575;0.21809144;-0.15581791;-0.04343189;-0.07678192;0.13118304;-0.19614066;0.34853867;0.013347172;-0.17643404;0.0026850507;0.16263245;-0.030236546;0.011374018;0.08090845;-0.21301927;0.005960389;0.21011005;0.07928495;-0.011397561;0.12774663;0.19473244;-0.14827864;-0.08615116;-0.1395461;-0.007911964;-0.1546537;-0.026163556;0.0047321944;-0.0015708065;0.1553272;-0.016590785;-0.006251812;-0.0038821653;0.0017648292;-0.018140355;-0.34209245;-0.12435995;-0.016771914;-0.17731036;0.00086294324;-0.13554521;-0.1724968;0.034818567;-0.021489564;0.118151546;0.293861;0.05256091;-0.007765105;-0.009827534;0.048813675;-0.30635795;-0.019102488;0.009478995;-0.004766202;0.23016614;0.2019401;-0.010042947;0.17923893;0.105667405;-0.020196019;-0.18872832;-0.00018669528;0.1703379;-0.0051066414;-0.0010352633;-0.0073461807;0.41734168;-0.086242005;-0.21823338;-0.13338813;0.014582181;-0.121384144;0.0066760667;0.028929265;-0.029658081;-0.24997126;0.025859833;0.05722387;-0.18014072;-0.2147417;-0.016977297;-0.009804063;0.12256759;0.022462644;-0.17249548;-0.0090781;0.01226231;0.22669584;0.0037441964;-0.0079906;0.30342665;0.2720986;-0.16636975;-0.021421121;-0.15973574;-0.52865005;0.08341468;0.35912102;0.0016748329;-0.1751784;0.016008005;0.2467895;-0.0054380703;-0.0042085224;0.009029023;0.25271392;-0.2484761;-0.10775594;0.005903478;0.0041720252;-0.14344622;-0.25469017;-0.0059317728;-0.24134926;0.013004812;0.040259972;0.0027797197;0.06819427;-0.092859484;-0.028011873;0.24699202;-0.0012622423;-0.0058253277;0.0139324;-0.0020377152;-0.25260407;-0.17987175;0.15928781;0.17990053;0.13382262;0.3235413;0.036448397;0.0009741961;0.0287045;-0.014417358;0.0155157605;-0.13232447;0.024849275;0.0038814505;0.1534445;0.015253222;0.051697925;0.19280665;-0.24412604;0.23319331;0.028826224;-0.006563067;-0.04539842;0.109721;-0.07331859;0.015600315;0.010399712;-0.3183316;0.0058919415;0.014968133;-0.0067496896;-0.040669307;0.5789264;-0.16260988;-0.0056090383;-0.12021885;-0.07898846;-0.097537436;0.11896524;0.026242899;0.277143;-0.0151438145;-0.1708664;0.2988012;-0.0063239355;6.21793e-05;-0.009009533;0.030882036;0.15209587;-0.17856914;-0.15736234;0.17156345;0.0775989;0.1068027;-0.038437903;-0.0021250984;0.0068666367;0.46500278;-0.07053218;0.008871215;0.0011929644;-0.019710144;0.13107741;-0.33254668;-0.12026803;-0.061822828;0.03405264;0.122948594;0.15626863;-0.46069044;0.4182447;-0.21642649;0.19627325;-0.2736381;0.0026523885;-0.10192527;0.14864786;-0.19666761;-0.28200844;0.009545162;0.112405136;0.04087388;-0.17841156;0.008902525;0.13470216;0.0077404683;0.007080165;0.21913707;-0.021689918;0.04637373;0.0059731877;0.015260329;-0.0027243355;-0.10173306;0.0051316503;-0.13865714;-0.20280552;-0.25224325;0.09994275;-0.23166558;0.10238008;0.009111886;0.48225442;-0.051371742;-0.24302903;0.07964156;0.14531945;-0.022571221;-0.024677558;0.44529024;0.02591467;-0.0021002917;0.006257412;-0.18675576;0.017803546;0.02973173;0.0792064;-0.09566034;0.057290386;-0.013016701;0.24528389;0.0036615354;0.04949297;-0.0069455397;0.08711726;-0.0071712486;0.09303643;0.25631705;-0.24938491;-0.07546624;-0.0029972692;-0.0120720435;-0.016928859;-0.12514257;0.0052327495;-0.15265813;0.1861518;-0.044850163;-0.0016911041;0.022981213;-0.07888444;-0.14048354;-0.14362273;0.055602074;0.026281334;0.1924599;-0.01018028;-0.25253677;0.024952596;0.119955376;0.0055413283;0.020914596;0.03101774;0.08661825;0.15868118;-0.036763526;0.39018708;-0.0023829946;-0.13875015;0.05478987;-0.17564107;0.1487853;-0.017649496;0.3170729;-0.0026343714;-0.0031379994;-0.016200075;0.036701176;-0.0018207424;-0.30097693;0.010964876;0.15650496;0.011429947;0.04901616;-0.03612671;-0.04917646;0.059533156;0.21728964;0.0008695403;-0.1939721;-0.01725902;-0.048633497;0.011336258;-0.17963889;-0.014796252;-0.08915115;-0.06436963;-0.07500466;-0.026000446;0.31358624;0.12771529;0.32608747;0.022135109;0.044003267;-0.44122246;0.001445314;0.02579099;0.16951999;0.005261847;-0.030046834;-0.0006914992;-0.14106336;-0.009663263;-0.6698927;-0.020437224;-0.0036689767;0.2709291;-0.03400375;0.0037710578;0.16532819;-0.13702902;-0.0040681697;0.29510593;-0.19947425;-0.0044054547;-0.01707513;0.0106770815;0.021404834;-0.011320141;0.0019248372;-0.09883698;0.1955225;-0.0141468365;0.0070301592;-0.207288;0.19255291;-0.08588159;0.00083350344;0.074868545;0.1291262;0.019051349;-0.01936989;-0.36005422;0.529745;-0.010985291;0.05401889;0.41450506;-0.011272109;-0.2822258;-0.0020290243;-0.13870104;0.23806295;-0.018314796;0.15176673;0.15038507;-0.028680597;0.11874594;0.23333019;0.1025139;-0.25188756;-0.19099155;-0.1725214;0.015654733;0.10891666;0.022805652;-0.43660074;0.010653105;-0.14225389;0.27322137;-0.0030478174;0.002832554;-0.007317219;-0.2679406;-0.0139864385;0.010530925;0.045338787;-0.042994194;-0.050858464;0.028093396;-0.00011989939;0.012345257;0.053242303;0.09026559;0.18023299;-0.0003931616;-0.05616772;-0.062331535;-0.0011262569;0.06836681;-0.1816808;-0.06837429;-0.007373403;0.20065796;-0.10951053;-0.011010895;0.08230377;-0.30281922;0.006029062;0.20996645;0.0013091653;-0.097283214;-0.07873766;-0.006661599;-0.0038615577;-0.1589703;0.23166832;0.0061071557;0.09210528;-0.0028378232;-0.05937442;0.0010914771;-0.024034519;-0.06473275;0.32031667;-0.055522528;-0.10243677;-0.007774172;-0.16157784;-0.022356845;-0.21594444;-0.049675804;-0.266837;-0.04198289;0.0054746936;-0.3634989;-0.0019690183;-0.006134233;-0.06332481;-0.0041962527;0.0040725432;-0.013381235;0.011171416;0.0054841954;0.0057624853;-0.040400434;-0.008203862;0.0343537;-0.0044435877;-0.005557369;0.22406743;-0.08852779;-0.009153696;0.35277542;-0.15339227;-0.010921431;-0.024408396;-0.01308064;-0.2690158;-0.0075518354;7.27202e-05;0.32797942;0.41511953;-0.13772166;-0.021844408;-0.21418387;-0.1550271;-0.19216412;-0.29759791;0.14926738;0.1847822;-0.0015856773;0.03298243;0.3356456;0.002336953;0.018310674;0.2823569;0.3353774;0.0071530542;0.0007908818;0.29037055
0.020525029;-0.06295001;-0.3100695;0.091423236;-0.0038166193;-0.3519267;0.092259444;0.06594211;-0.005931365;0.07507869;0.017483985;0.07931098;-0.23663603;0.067000754;0.11117646;0.035120867;0.09097077;0.3096176;0.35320395;0.05405218;0.21565124;-0.031561065;0.060323752;-0.055740565;0.033193875;-0.007681396;0.003072574;0.016251897;-0.017654493;-0.05623031;0.045943405;0.01519861;-0.10076181;0.18132895;0.08322355;0.12392169;-0.06562622;-0.15938856;-0.039071016;-0.053784948;0.010796566;0.0033383574;0.31535044;-0.23149985;0.011429743;0.09202485;0.012987116;-0.11081568;-0.0035034239;0.0025906235;-0.018537685;-0.15737383;-0.21569723;-0.00015215627;-0.015349126;-0.09156943;-0.020324886;0.084669665;-0.052305967;-0.10469281;0.00083151826;-0.10491806;-0.009982224;-0.036913898;-0.27494663;0.00051185413;0.04177306;0.3899201;0.29410902;-0.005767006;-0.1888211;0.0007542136;-0.0041135577;0.20165086;0.44561824;0.25957376;9.251744e-05;-0.08334805;0.11815807;-0.007325276;0.017018232;0.25822926;0.25774857;-0.27709627;0.0075595994;-0.3632677;0.07810223;-0.00024727432;0.0033424878;-0.0030642864;-0.01661067;-0.09455665;-0.13976008;-0.2747365;-0.012596041;0.22663897;-0.31261984;0.41745993;0.11633057;-0.28393674;-0.0061856005;0.3543951;0.065288246;-0.022433018;0.039710026;-0.12801327;-0.0027295616;0.06821909;-0.000112376016;0.028349387;0.41292495;0.019077824;0.044321835;-0.05539216;-0.3569373;-0.3437593;-0.08703588;-0.0418879;-0.012789233;0.07345113;0.14517596;-0.0034872124;-0.098907426;0.012576338;-0.0012411501;-0.005128403;-0.5185714;-0.19021672;5.836819e-05;-0.21170115;-0.068574496;-0.002765859;-0.07309574;0.059404574;0.010665275;0.06392397;0.18599963;0.42602938;0.017015697;-0.0029998857;0.21161798;-0.3512506;0.018397039;-0.07045079;-0.00084280723;-0.0005961084;0.20849456;0.0014320789;0.2957606;-0.14622274;0.013924462;-0.11690491;0.021835787;0.13774517;0.023649136;-0.00928595;0.018245375;0.22115444;-0.12249285;-0.09732055;-0.09505765;0.0033179712;-0.15886891;-0.012997471;-0.025855806;-0.07856259;-0.24497767;-0.016332453;-0.054131083;0.032898873;-0.47525206;0.022569638;-0.013187897;0.023543797;0.016785713;-0.067034245;0.027861895;-0.0031143143;0.006939004;-0.014924819;0.021619782;0.055296425;0.22601172;-0.18517834;-0.023820715;-0.032118823;-0.6301577;-0.1391973;0.26991734;9.2426715e-05;0.02739466;-0.00731228;0.46055502;-0.007436665;-0.011836128;0.12217681;0.11756003;-0.2861284;-0.03334083;-0.011065829;-0.13925941;-0.22794135;-0.07742612;0.015998175;-0.27819037;-0.016434364;0.08227141;-0.014483311;0.08752672;0.04810364;0.036951374;0.016500687;0.014067801;-0.008611211;0.11168947;-0.0068887533;-0.25917917;-0.126659;0.25577593;0.01957811;0.10208802;0.39207125;0.08814237;-0.008618041;-0.34369743;-0.0062600696;-0.015600003;-0.25365716;-0.024489522;0.34467396;0.052485388;-0.010926701;-0.20170066;-0.12513825;-0.10569863;0.28098756;-0.039067227;0.012221931;0.08077571;0.091856696;-0.077438906;-0.02654251;-0.015811702;-0.28797904;-0.192019;-0.016159082;0.009442342;-0.052647702;0.44711366;0.0043218574;-0.010872708;-0.0370979;0.03830798;-0.1190071;-0.06071955;-0.04383537;-0.11197801;-0.0059612007;-0.16534759;0.1678777;0.014245911;-0.008078928;-0.18359219;0.10692538;0.20487621;-0.06476411;-0.09061513;0.06665467;-0.21343365;0.18006842;0.20379904;-0.30615368;-0.012261349;0.21112554;-0.08361183;-0.0012703532;-0.0041675703;-0.020944292;0.13220842;-0.20712397;0.034223754;0.19351858;-0.0009170906;0.15181263;0.104511246;-0.252711;0.4017168;-0.20594203;0.44557306;-0.2282764;-0.0021037278;0.021718739;0.21231619;-0.029154275;0.016143693;-0.224578;0.1261083;-0.035662588;0.021548327;-0.008811226;-0.06953829;0.0033482036;-0.009543718;-0.07217558;0.012045761;0.026168784;-0.014152286;0.024260992;0.0039647156;-0.19308868;-0.015417928;0.17911549;-0.10295295;-0.043163203;-0.056503322;-0.10347576;0.1875933;0.019084917;0.37240502;0.3333522;-0.3142748;-0.0725141;0.06246828;0.018025508;-0.014271707;0.26677805;-0.009195597;0.009382201;-0.011460215;-0.16961598;-0.00921934;-0.16477908;-0.02442621;-0.22775467;0.17637125;0.010026023;0.17649192;0.0067962585;-0.03746402;0.0033613446;0.038103145;0.0060896794;0.07792509;0.4484799;-0.11718048;0.046799462;-0.006814017;0.002566782;0.017001733;0.03964669;0.0030179496;0.04237699;0.31506777;-0.47909933;0.005702944;-0.20788886;-0.056188047;-0.07973662;-0.11959046;0.026267214;-0.027433513;0.15336168;-0.0016671073;-0.0031400826;0.03717987;0.119449444;0.14769448;-0.21685763;0.025082093;-0.075174935;0.15209883;-0.07753466;0.19843972;-0.0016206357;-0.49798572;-0.16491899;-0.22557884;0.06562474;0.0072884783;0.122976236;-0.0071923784;-0.023925219;0.0106826555;0.11332786;0.013228574;-0.020197941;-0.010112823;0.19783175;0.24399623;-0.04883792;0.056107324;-0.052362308;-0.284071;0.23673429;0.0037154073;0.048276644;0.0034526656;0.12142593;-0.0061077774;0.1530945;-0.0023471366;-0.0142136635;0.06744638;0.37876797;0.08442305;0.15633582;-0.06227405;0.032056157;-0.13554037;-0.036237866;-0.36255637;0.21225244;-0.002596663;0.17940153;-0.005081919;-0.058784448;0.010425868;0.074272506;-0.0027742342;-0.38418725;0.011322068;-0.55899;0.21974632;0.0729564;0.018493116;0.15186812;0.09487857;0.015285073;0.15677454;-0.10800285;-0.007892421;0.18607208;0.0007306207;-0.026641767;0.013177112;0.13472581;-0.053814296;0.25818634;-0.06005628;-0.0031690523;-0.4365736;-0.34546527;-0.23213342;0.008071395;0.028592642;0.16319455;0.18730141;-0.093925364;-0.46963075;0.333321;-0.16714783;0.087358974;0.22287871;0.0016260787;-0.16114795;-0.012022906;-0.0065591205;-0.06423838;-0.052526396;-0.11250815;0.113110915;0.025545051;0.011588791;0.23764028;-0.048983242;-0.22970377;-0.03729553;-0.0001780563;0.017541347;0.22718766;-0.06263299;-0.079946935;-0.0040758066;-0.03530376;0.052824244;0.003437856;-0.0042213085;-0.014179402;-0.12588613;0.0026665423;0.0011529691;0.05129926;0.30240878;-0.15445344;-0.007247837;0.0027074818;-0.07622769;-0.11715456;0.32191977;0.05041677;0.010505892;-0.33626562;-0.107332826;0.026803404;0.08247531;-0.3695948;0.10033755;-0.004724384;0.05626772;-0.13066244;0.013191576;0.053227667;-0.37521285;0.020833524;-0.015608333;-0.0049749515;0.0935757;-0.05261967;-0.0006940521;-0.0062344703;-0.094584055;0.063900545;-0.021260548;0.123740256;-0.00144042;-0.039117675;0.009907962;0.009271907;-0.08579053;0.27076483;-0.08933498;0.105120085;-0.0062433872;-0.26616943;0.014713726;-0.07995108;0.10965751;-0.30244097;-0.030396298;-0.0046594148;-0.26316637;0.0038859865;-0.0029618866;-0.11816864;0.18466781;-0.013897233;0.02801206;-0.0047991835;-0.0070482073;0.15498623;-0.054341406;0.008591061;-0.31024086;0.0042469944;0.010126802;0.07619034;-0.009814769;0.009120059;0.20800187;0.052440763;0.0014587118;0.19523959;0.018819;-0.34870946;0.13464178;0.10723664;0.09155633;0.5479994;-0.08523157;0.021080157;-0.17890865;-0.07881666;0.28367335;-0.16019215;0.17644873;0.11873349;-0.013869354;-0.12455719;0.33511612;0.0064419843;-0.02288266;0.3969409;0.42579558;0.00052147504;-3.931272e-05;0.15283677
-0.00551647;0.0916433;-0.35409477;0.15883477;0.007391854;-0.2825147;0.16337056;0.08010566;0.010142809;0.033294145;-0.016853351;0.09543258;-0.19840431;-0.3292872;0.12395655;-0.06780558;0.03463057;0.19989653;0.3567931;-0.008668778;0.39857423;0.012266613;0.1444389;-0.07142533;0.03820113;0.0010999236;0.012136115;0.028997615;0.13252792;-0.18000062;0.14691286;0.0021181998;-0.07695375;-0.18836464;0.058426052;0.06627715;-0.0790187;-0.21117741;-0.016409181;-0.02561418;-0.0012395717;-0.0016200118;0.29662663;-0.29522827;-0.0050134426;-0.0004992386;-0.0018832831;-0.15267156;-0.20175396;0.008336851;0.0063041835;-0.28142715;-0.23608702;-0.0057293093;0.008147466;-0.0067314273;0.021125892;-9.586934e-07;-0.047453895;-0.06354395;0.014415053;-0.11329815;-0.0050174478;-0.11843438;-0.2714868;-0.08547043;-0.04131908;0.23362021;0.032882523;0.018582664;-0.24431321;0.00018395654;0.004106927;0.18915047;0.40478155;-0.071577236;0.0077488725;0.062734105;0.32193643;0.008522133;-0.00016662656;0.064294055;0.23182252;-0.31781822;0.0126757445;-0.4154922;-0.19048432;0.016495455;-0.0028010132;-0.0033014496;0.0090864785;-0.055469885;0.03592325;-0.3582939;0.11623454;-0.14160293;-0.22667247;-0.069626436;0.09279852;0.08025466;0.013345883;0.19312748;-0.03894312;0.0064629903;-0.0053082174;-0.055100523;-0.0058233426;0.16668124;-0.0235376;-0.00836976;0.4657181;-0.029365828;-0.0018818142;-0.09464403;-0.1603166;-0.18358229;0.1615392;-0.08012627;0.008474382;0.26183423;0.045392875;-0.008599769;0.050789937;0.006024601;-0.0031208168;-0.0002767797;-0.20005368;0.010789441;0.02537166;-0.025439112;0.07309571;0.33244336;-0.04408501;-0.19481297;-0.0033234593;0.11079992;0.25508955;0.31189194;-0.018921543;0.0052977134;0.28571865;-0.25697497;0.00047477888;0.04006674;-0.008157552;-0.1096108;0.32292876;0.014082267;0.18543427;-0.0010301073;-0.0057355845;-0.33074224;-0.011578502;0.12606044;-0.014252955;0.008782644;-0.0009118153;-0.1907036;0.07146784;0.100058146;-0.06338732;-0.030832227;0.15425466;0.0056057777;0.0091042165;0.028462263;-0.08492618;-0.0013083213;0.013840353;-0.07708152;-0.3028255;-0.007874544;0.0038842147;-0.17210826;-0.08832207;-0.09955966;-0.026763616;-0.00197367;0.14671776;0.0067394064;0.015414508;0.14942153;0.25335196;-0.41934088;-0.17046185;0.12874228;-0.40585235;-0.09679244;0.07415515;-0.011069467;-0.014146024;-0.0057122507;0.17257425;0.016202811;0.019936413;0.09653867;0.12386366;-0.50846785;0.14276911;0.012393342;-0.0028607773;-0.09634251;0.28471744;-0.0044578314;-0.34121284;-0.0012636936;0.016159046;-9.007403e-05;0.049158372;-0.0334215;0.044334788;0.06007254;-0.0036223123;0.0076359543;0.17851393;0.0026506558;-0.05673657;-0.28440523;-0.013130906;-0.09099401;0.09720854;0.17251535;0.08122525;0.0016806782;-0.28236955;-0.00055331143;0.01554523;-0.21763182;0.020727186;0.13576059;0.15014122;0.010250421;-0.11368406;-0.16932653;-0.15259287;0.34044638;-0.20321223;0.00013919291;0.035419974;-0.18265086;0.0742837;-0.0266719;0.005694817;-0.27825022;-0.03802699;0.013651414;-0.011317701;0.020339223;0.37110877;-0.32862163;0.004987508;-0.10399336;-0.20142744;-0.01871443;0.056452576;0.028287113;-0.01621661;0.0038301682;0.10186864;-0.010919975;-0.024241121;0.0016892056;-0.021301746;0.0043834746;0.2422944;0.15825379;-0.19332075;0.00832132;-0.090002954;0.16473345;0.05015016;-0.1502343;-0.0045877425;0.023304159;-0.014701905;0.01796334;0.011610281;0.06477269;0.19232616;-0.0588281;-0.09533231;0.11777646;0.063104376;0.2158982;-0.031808186;-0.2749248;0.25642216;-0.19547516;0.52150846;-0.22624916;0.0022180832;0.09570883;0.10489982;-0.0065366887;0.22707684;-0.082191706;0.17861116;0.069136776;-0.14441368;-0.00089469674;-0.13772243;0.0146660535;0.021977697;0.06248992;-0.012520556;-0.066840194;0.01629432;0.00049739017;0.0030093144;-0.03069487;0.006834538;0.014405842;0.05037129;-0.020444652;-0.049562227;0.17918241;0.15697594;-0.013319714;0.09011978;-0.04826849;-0.538528;0.037259854;0.116237596;0.0012920783;-0.000372791;0.18788318;0.017678123;-0.0007789084;-0.0041952673;-0.033010058;-0.004145858;0.026535649;0.12750675;-0.06865607;0.09215153;0.02384986;0.2324878;-0.015340661;-0.23312338;0.007962042;0.18721054;-0.025733985;-0.019750943;0.3748495;0.08967822;0.02443715;-0.005314616;-0.021442333;0.004369739;0.14517015;-0.0053240373;0.054044556;0.24517499;-0.3868103;0.0010102917;-0.040830713;-0.036562923;-0.23346207;0.018208385;0.022138245;0.022764651;0.16828199;0.0041617476;0.047627762;0.2564721;-0.05859848;-0.07707927;-0.285658;-0.11004115;-0.25566986;-0.086348064;-0.07085778;0.4107743;-0.008661288;-0.58971035;-0.31189764;-0.24697836;0.055938356;0.016685246;0.10602905;0.011835091;0.032310016;0.014715544;0.09022329;-0.0052133077;-0.1871844;0.011690874;-0.0020462058;0.1855944;0.08253708;0.2553908;-0.30282846;-0.2749955;0.2488652;-0.0048518893;0.032943394;0.012838629;0.2043678;0.0044584144;-0.15382782;0.0173079;0.32881543;0.14606296;0.24127936;-0.04197386;0.00888219;0.041858964;0.021467961;-0.48650134;-0.10150801;-0.22434391;0.09837002;0.0119396895;0.32858256;0.0011997261;0.095627405;-0.004089628;-0.04669972;0.00478672;-0.387999;0.00014695346;-0.4508722;0.11355506;0.03916421;-0.021065816;0.19758014;0.08874865;0.00022943577;0.037003268;-0.1304777;0.014303535;0.088873915;-0.003962096;0.030831465;-0.01571193;0.2915158;0.10832874;0.19897689;-0.14118242;0.007374326;0.006621127;-0.33610836;-0.21332183;-0.0029796807;-0.080153614;0.20230576;0.14207132;-0.0957789;-0.15694946;0.31592846;-0.07508528;0.10681917;0.08420721;-0.019342348;-0.072682865;0.0070701228;-0.1336079;-0.2477242;-0.18104468;0.067016646;0.13367723;-0.02222278;-0.23483837;-0.017233156;0.04108549;0.117823586;-0.011875603;0.2685887;-0.17189766;0.08287337;0.003701547;0.1926593;-0.007134058;0.32945365;0.13899133;-0.005210542;-0.002756498;0.015696306;-0.23154522;-0.009731717;0.21451274;0.1577739;0.5745094;-0.27534634;-0.006862834;-0.0072865603;-0.024585363;0.15182853;0.57326597;-0.027801167;0.006827367;-0.09322682;-0.016408807;0.012071036;-0.03506164;-0.42745817;0.17623842;0.011101846;0.24549808;-0.1491084;-0.021629356;0.009102061;-0.3852234;-0.024391415;0.016183667;0.006519378;-0.046029612;0.01483436;0.009808584;0.0043725492;-0.131684;-0.15488465;0.007005365;0.42176032;-0.0053914348;0.03876845;-0.012656673;-0.15156813;0.07044441;0.13681026;0.25505355;0.07498906;0.012106974;-0.39753;0.11921713;-0.11757817;0.18535322;-0.12003649;-0.0826127;0.017585268;-0.07930994;-0.0030324191;0.010683832;-0.2547666;0.14347328;0.010849836;0.15644738;8.943258e-06;0.0042333947;0.13035992;0.13870378;0.0076094503;-0.30356264;-0.016951496;-0.0007554572;-0.058997605;-0.010096578;0.0013888092;0.20130613;0.15469487;0.039655086;-0.22468509;-0.006513463;-0.32797888;-0.055714216;0.14982894;0.14746358;0.389614;0.060991663;0.005108949;-0.29736376;-0.03631565;0.03780902;0.06978526;0.17898247;-0.08640197;0.014538111;-0.12006169;-0.033987064;0.016809825;0.0023247462;0.38947338;0.26370656;-0.013534693;0.004311754;0.26434487
-0.16140346;0.0240684;-0.52724373;0.08261062;-0.0010892153;-0.24669038;-0.1017627;0.14703572;-0.01748301;-0.18393852;-0.005023111;-0.20293093;0.12553802;-0.17457522;0.13572814;0.1319652;-0.3182246;0.30159155;0.19745097;0.05659794;0.47169754;0.002219743;0.23211148;-0.04993301;-0.006342163;-0.00785685;-0.013713438;0.04640328;0.0019273229;-0.33216202;0.07220078;0.008518295;-0.3459508;-0.16802682;-0.25955486;-0.16080418;-0.09451911;-0.2907256;-0.0047356994;-0.020118402;-0.023807103;-0.011811381;0.092647985;-0.06183479;7.5107295e-05;0.37629437;0.0017373359;-0.07107048;-0.06367181;-0.014644415;0.010368029;-0.21897809;-0.14730042;0.0052815857;-0.016323814;0.07309323;-0.0045145433;-0.10907103;-0.029701602;0.0032177903;-0.015058553;-0.19693431;0.005874634;0.12517518;-0.007979732;0.17860155;0.037534095;0.37575606;0.3055206;-0.010244409;-0.120759845;0.015618005;-0.0023474125;0.018732151;0.19938408;-0.15227474;-0.0031471176;-0.13535242;0.036712367;0.00237607;-0.011790158;0.13955505;0.12680523;-0.31758282;-0.023645302;0.0070462152;0.113668256;-0.013398099;0.0013045075;-0.010390167;0.0069379127;0.15603097;0.097444005;-0.016686529;0.14392766;0.10657519;0.25293222;-0.079035535;0.25094268;-0.28335816;-0.009043834;0.51376003;-0.051104188;0.007231583;-0.11776011;-0.12869191;-0.012929569;-0.12099072;-0.05331915;0.0022488448;0.098961465;-0.3354697;-0.20710827;-0.022117902;-0.277538;-0.19260223;0.4773215;-0.015282655;-0.0082776435;0.31536484;0.1393869;0.007363279;0.10761239;-0.02320691;0.00014518772;0.0010705012;0.18817486;0.0007241552;-0.01801893;0.030647222;0.2516033;0.55414885;0.021287775;-0.2938694;-0.0028848662;0.06316452;0.36679658;0.27583656;-0.00851724;-0.016904676;-0.031704158;0.13707592;-0.122102894;0.10601958;0.0054210736;0.07412513;0.27453968;-0.0019784048;0.19514278;-0.022757968;-0.02399601;-0.3692945;0.030062554;0.117667034;0.008080438;0.0069198594;-0.013702675;-0.3448777;0.0832533;0.25774267;-0.033061784;0.0143827675;0.026283223;-0.0063510817;0.006969014;0.20144601;0.016886009;-0.015596181;0.056597494;-0.123994164;0.029152408;-0.0022322487;-0.0067609507;-0.18268605;0.3046599;0.25052583;0.013207155;0.0023941637;0.13597772;-0.013821957;-0.018011335;-0.21097775;0.55214417;-0.62180364;-0.100230336;0.17819616;-0.19721732;-0.01567704;0.37713483;-0.0016233707;0.030674772;-0.0058323923;-0.01506661;-0.017646186;-0.0015585173;-0.0462034;0.19271971;-0.70951277;-0.07740384;-0.0097426;-0.088795744;-0.29611146;0.20591813;-0.0104709985;-0.1892941;0.011319264;-0.18028721;-0.010224173;0.12560898;-0.22677839;0.05623798;0.14955963;-0.004038345;-0.007214078;0.24479453;0.005205613;0.051798683;-0.11789043;-0.3923313;-0.023982748;0.12375237;0.25423858;0.07855855;0.000780409;-0.58455765;-0.0037618026;0.009214129;0.018124523;-0.0074035837;0.20821942;0.07874139;-0.0071674935;-0.057803243;-0.0409495;-0.031409487;0.1299174;-0.28726238;-0.00079182023;0.169714;0.0024760715;-0.014668053;0.049963057;-0.0063141696;-0.6544204;-0.015593161;-0.029516032;0.0022960112;-0.009623471;0.56412804;-0.15508342;-0.011612454;0.1313909;0.11655393;0.24585219;-0.03459293;-0.02863691;0.13209772;0.0030438765;0.065299004;0.03250907;0.0096525885;0.0075719957;-0.06500721;-0.12591542;0.1787941;0.20190719;-0.17004941;0.21958664;-0.18981312;0.17624569;0.13214956;-0.08682544;0.0037179685;0.079843715;0.018495254;-0.009532172;-0.0077682324;0.023475152;0.15897891;-0.118421465;0.13878533;-0.10495608;0.13058682;0.18951191;0.28974152;-0.12747978;0.46496826;-0.2665997;0.5765084;-0.4026394;-0.00511615;-0.09393832;0.11111506;0.025409373;0.47663936;0.05243695;0.08979837;-0.03931611;0.06624125;-0.003579343;-0.26737222;-0.007939156;-0.030949986;0.1774951;0.0011276528;-0.0915812;0.0050072987;-0.042415857;-0.006487159;-0.060546122;-0.00934043;0.09169512;-0.249451;0.08946581;-0.13056333;0.32795098;0.1921784;-0.017098878;-0.08101274;-0.019530471;-0.5776078;-0.1592627;-0.053507153;-0.019202521;0.0012057275;0.061452195;0.015549706;-0.0066215605;0.0024050036;-0.033228263;-0.0022309585;0.14492252;-0.034113754;0.010270482;-0.2497098;-0.022458196;-0.2393464;0.009789836;-0.5876314;-0.0062318714;0.059088793;0.016042778;0.13067748;0.27521154;0.11118543;0.06580706;0.0050675934;0.009195461;-0.012386924;0.10158394;0.007221992;-0.06786681;0.17571709;-0.52285427;0.0015162565;0.18423258;0.0043266714;-0.23431471;-0.10065762;0.01749113;0.012792075;0.18597248;-0.014960376;0.027488751;0.17390077;0.16676249;0.10751707;-0.052592166;0.03852325;-0.48793215;0.4304257;0.16238676;-0.029282218;0.0048035053;-0.511301;-0.11363218;-0.16296858;0.11387803;0.0064043505;0.24227233;-0.015791649;-0.01928106;-0.016548462;0.094376914;-0.013454417;-0.29058573;-0.017912785;-0.045247164;0.22937734;0.2322823;0.35391456;-0.3853072;0.011271237;-0.022569614;0.017689923;0.3361094;-0.0044586007;0.09609867;-0.0031967862;0.12261381;-0.01682012;0.3320099;0.046236258;-0.24993615;0.071877815;0.041741714;-0.2444575;0.11309393;-0.38005644;-0.072672196;-0.2885241;-0.033388436;-0.020290129;0.37517166;0.0034952522;0.11519574;-0.006119703;-0.31623787;-0.0036271072;-0.37119198;0.0077505647;-0.15997264;0.18206117;-0.14350317;0.0066273613;0.22031008;0.13117631;0.0028864907;0.13555361;-0.04384525;-0.0012465966;-0.04508673;-0.0075977924;0.023701297;-0.010325205;0.22387801;0.32306775;0.060238186;0.03646265;-0.0102202855;0.04877992;-0.44338846;0.13406454;-0.021390991;-0.037791893;0.072289295;0.15883972;0.22374092;0.27905032;0.3886045;0.17330185;0.15531074;-0.2182746;0.0011798727;-0.087117724;-0.008946223;-0.25437933;-0.2865905;-0.19232704;0.154835;0.038893804;-0.0041983775;-0.070664525;0.035570495;0.013615892;0.06765271;-0.448312;0.20638882;0.08205578;0.011887944;0.07416096;0.1429577;-0.01280226;0.1696927;-0.09766696;0.010738196;-0.0022456495;0.0023544878;-0.19979993;0.01370996;0.10818685;0.002553677;0.25871128;-0.17877239;0.012778318;-0.00060595176;-0.17959943;0.25872082;0.16754039;-0.010397318;-0.01119091;0.0068974593;-0.17139229;0.009838175;0.1432058;-0.22688459;0.04321616;-0.0024050851;0.3980196;0.25348234;0.017041633;-0.09662973;-0.4864985;0.00867768;0.095718235;-0.008204741;-0.0024461413;-0.02928752;-0.014572917;0.008525272;-0.14364243;-0.24834472;0.0045090425;0.26571158;-0.0043585724;0.04920365;0.005781426;0.025387855;0.20210005;0.09735765;0.5758682;0.0064281006;-0.0057391077;-0.03206035;0.40060523;-0.05326985;-0.023832377;0.112034455;-0.09940516;-0.003205064;0.21395428;-0.007889196;-0.007610653;-0.3682943;0.030660946;0.000105215906;0.25420955;0.00910342;-0.00705488;0.089444265;0.037678223;-0.023117637;-0.17431837;0.010258741;0.0053586736;0.022378882;-0.15002105;0.008878122;-0.064867474;0.42450693;-0.0514125;-0.15545256;0.0045897313;-0.20713398;0.028171392;-0.018435936;-0.017236289;0.19413736;0.04178963;-0.013968907;-0.318154;-0.25447893;0.04014008;0.21572958;0.10048724;-0.023040583;0.01169179;-0.22614408;-0.033178654;-0.021167077;0.102202445;0.3188234;0.24684273;-0.0008570628;0.0038787941;0.111571595
-0.17919874;0.15439267;-0.65817046;0.20557444;0.004943366;-0.21341413;-0.37118337;0.22019713;0.008171725;-0.49157587;0.00634179;-0.27890286;0.36014417;-0.020819314;0.0118757365;-0.1188354;-0.50335675;0.3968067;0.04114907;0.07387445;0.40730408;0.00057781086;0.34780136;-0.09578894;0.08803207;0.01037868;-0.00063366897;-0.032897983;-0.008288081;-0.33054534;0.2412468;-0.0045921523;0.14441709;-0.25955346;0.043030094;0.09824788;-0.02450161;-0.45005116;-0.13613363;-0.022019219;0.009744701;0.0039471034;0.098477095;0.043966237;-0.0032819416;0.27660128;-0.0060589057;-0.4085198;0.063454464;0.0127762975;-0.008667974;0.035517287;-0.20965521;-0.00053442246;0.0064587602;0.34885925;-0.0012259744;-0.03993314;0.0116901565;-0.090996176;0.0016658244;-0.23865262;0.0012971363;0.09705024;0.18743469;0.41035098;0.0045277555;0.37922093;0.28917918;0.00073541264;-0.075868666;-0.012668671;0.010250129;-0.22023323;0.3056937;0.1742987;-0.0057420237;-0.05434238;0.4701028;-0.0044054873;0.0062462543;-0.17329131;0.15502436;-0.13053472;0.006708533;0.2080001;-0.051828284;0.0019298232;-0.0037769657;0.009252465;-0.011722808;0.09905683;0.24768427;0.27147463;0.26987594;-0.03434937;0.5346533;-0.0717764;0.36459485;-0.18630426;-0.0016296033;0.3798749;0.064299665;0.001167033;-0.1487933;0.12701754;0.008718871;-0.11778506;0.023694593;-0.0072417827;-0.43049198;-0.32677367;-0.28337094;-0.05208447;-0.124302045;-0.39195123;0.7751634;0.08982658;0.006621519;0.14959799;0.15835696;0.004176795;0.09340033;0.008353307;-0.00075570773;0.004323019;0.2676763;0.20789741;-0.0033126357;-0.029984906;0.34574303;0.49230817;-0.19836089;-0.341887;0.0068000224;-0.18749185;0.42726898;0.15586782;0.015245889;0.011948695;-0.33360088;-0.11098964;-0.5190252;0.022777228;0.0033841908;0.13396001;0.54267913;-0.00845214;0.35929382;-0.21180196;0.021468133;-0.31622753;0.00339627;-0.29299548;-0.0031323098;-0.002137104;0.007833534;-0.35579804;-0.1034408;0.3962139;0.16676195;-0.0031317687;-0.15412912;-0.0005861463;-0.00805795;0.5182525;-0.053107012;0.013145143;-0.041820224;-0.008231977;0.07646206;-0.0006622102;0.012587903;-0.2182078;0.5469966;0.4117868;-0.0051129158;0.0016282279;0.054065492;0.0154881505;0.0020165085;-0.48508346;0.49181437;-0.5667547;-0.10401535;-0.021711757;-0.16535138;-0.00951851;0.49539685;0.0072467066;-0.31038743;0.006054167;-0.44634262;0.0067077423;-0.005743178;0.17148861;0.02633453;-0.3258798;-0.24991855;0.008884525;-0.18383849;-0.33681256;0.50485235;-0.0031933158;0.114364356;-0.0040206523;-0.425922;0.010338178;-0.07813241;-0.12644593;-0.011413248;0.2855041;-0.005079609;0.006294867;0.23553021;0.00075623457;0.28819898;-0.28502515;-0.560627;0.044457905;0.04339109;0.059684902;-0.09672047;0.0008584618;-0.31842208;0.009445142;-0.009802974;-0.18146247;-0.0021175884;0.14189279;0.27763635;-0.0016041569;0.27592474;-0.04639096;0.089194186;0.041242473;-0.043072715;-0.006700264;0.42314437;0.033695832;-0.046200413;-0.013377649;0.008078064;-0.46096835;0.094573036;-0.022440705;0.0033547054;0.020033125;0.46654183;-0.26949057;0.01668635;0.012502726;0.23512894;0.10918062;0.05403789;0.016924847;0.19932863;-0.0001667212;-0.158429;0.14782971;0.0033289532;-0.00039918508;-0.18383457;-0.2474912;0.47100225;-0.03809183;-0.22515944;0.20237364;0.004866686;0.16689156;0.41266316;0.4416709;0.008208794;-0.109914236;0.15014006;-0.0063687246;0.002807819;-0.04868966;-0.116198085;0.056884367;0.12391476;-0.2604959;-0.05630477;0.06324142;0.14098918;-0.46553886;0.6121493;-0.036492158;0.40448865;-0.34697413;0.0068031815;-0.34140342;0.018878786;0.036790602;0.61146265;0.107550256;0.1627732;-0.0006556333;0.13165249;0.0051525743;-0.3703325;-0.0021789332;0.015513072;-0.1101842;0.008346179;0.06965902;-0.010181703;0.022665374;-0.0052300473;-0.2782322;0.008535985;0.40564233;-0.25809157;-0.20235917;-0.036365002;0.20923313;0.28538376;0.005274875;-0.3191478;0.13263506;-0.22403023;-0.20043834;0.027042408;0.011128117;-0.0031939296;-0.118955344;0.013916887;0.0024473402;0.0054992936;0.22464874;0.007296463;0.0827389;-0.0074909492;-0.057004213;-0.4858854;0.0048052333;-0.1640663;-0.0021634724;-0.18867208;-0.0013652144;-0.30079827;-0.00403011;-0.12987474;0.44630206;-0.03280558;0.011336826;0.00013455463;0.00698994;0.0014757825;-0.027474144;-0.0039010562;-0.14629349;-0.026562843;-0.46507046;-0.005272812;0.2698857;0.015474827;0.17910871;-0.118609875;0.024350563;-0.0078055556;0.12115573;0.017326318;-0.0026530277;0.24241427;0.3038844;0.26464495;-0.20618647;0.07450505;-0.24910499;0.55183166;0.3155883;0.06115881;0.0023810316;-0.6380057;-0.16842148;-0.27246708;0.10816428;-0.008814489;0.10721783;0.010239837;0.007567156;0.012441585;0.12418456;0.005593979;-0.2499946;0.005072448;0.30106497;0.5868102;0.42727825;0.02561121;-0.16097881;-0.06974265;-0.051189642;-0.016118191;0.19844164;0.0010553603;-0.14095834;-0.0008328909;-0.065115124;0.005995989;0.57081354;0.44912422;-0.23176755;0.023633298;-0.110571966;-0.30326715;0.12392912;-0.64348257;-0.14482573;-0.53073716;0.10343582;0.007858323;0.40475327;-0.0013881299;0.25261405;0.0027059766;-0.7540895;0.008830374;-0.5861921;-0.0041625043;0.08408547;0.25891468;-0.36994684;0.002821625;0.27366868;0.06584616;-0.0031458708;0.09537499;-0.13703002;0.0012939121;0.022266129;-0.0013285693;-0.04080914;0.009711009;0.115634754;0.50715035;-0.008699101;0.06131987;0.010724923;0.3247351;-0.32484576;0.4292115;0.010659595;-0.06282569;-0.02915986;0.07778514;0.29295442;0.1539052;0.6352933;0.31694555;0.068790875;-0.44137087;0.017786441;-0.16650723;0.013256779;-0.38680997;-0.3063271;-0.09051618;0.37601873;-0.19704586;0.00090547017;-0.06953268;-0.15013959;-0.35606503;0.049223743;-0.1521396;-0.19128148;-0.1677919;-0.030298447;-0.004655028;0.815617;0.012596009;0.21417426;-0.113613054;-0.008913875;0.0012138148;-0.007957037;0.019114146;-0.007728642;0.13177404;0.10552916;0.63462865;-0.53436893;-0.0038927915;0.0085742725;-0.15532771;0.2888372;-0.09068101;0.15715325;-0.0017682449;-0.08708024;0.09067966;-0.056002155;0.23783892;-0.107606076;-0.3270952;-0.006245023;0.5041964;0.37442315;-0.010173575;-0.1656732;-0.8586255;-0.0035729595;0.16806866;0.009094677;0.02482724;0.042010836;0.014677658;-0.00827994;-0.106639415;-0.39260387;-0.0028385906;-0.036725212;0.0050173374;-0.109431684;-0.0059995456;-0.13857977;0.54315215;0.14051677;0.78018254;0.08582789;-0.0008256436;0.44923642;0.36131364;-0.057143286;-0.13798696;-0.04924108;-0.24033193;-0.0030902773;0.26725435;0.0059421617;-0.0018170048;-0.20122007;-0.294499;-0.0015648948;0.13753437;-0.008549003;0.0033732392;0.11726673;0.38637894;0.004018059;0.3200385;0.0056411545;-0.0072690914;-0.04014983;-0.26707557;-0.0035745266;-0.26712498;0.22942027;0.017755924;-0.54545826;-0.00621083;-0.24914053;-0.05899629;-0.23085359;0.00036014558;-0.025464125;0.21895954;0.0016480426;-0.32216352;-0.27053;0.18493135;0.25618657;0.16323902;0.10423191;-0.009074605;-0.10518891;-0.16372763;-0.0006120697;0.30834714;0.37178773;0.20620601;0.009345315;-0.0023224186;0.090754196
2.3746376;-4.6138177;-0.14279151;-1.9092157;0.044708;1.3200428;1.0132573;-6.0117245;0.016381444;-7.312762;-0.0032940174;1.1517714;-1.2983117;-0.17269175;3.3321974;-16.9144;0.78709525;0.23863596;-10.567312;0.8825068;0.22588857;0.00031923535;-5.4489813;-2.4977286;-18.57883;0.012106294;0.024286138;0.574455;-4.7330008;0.30174968;-2.7817647;-0.0084232045;4.781503;-0.13259992;0.21371365;0.6580415;-3.755422;-1.7053038;-2.7423265;4.5836043;-0.002796102;0.017275421;-1.1735463;-1.2913607;0.06569543;3.1083996;0.051009126;-4.5724864;0.31643358;0.025152337;0.06585926;0.6578663;0.4925248;0.011876226;0.054080732;-0.9794169;-0.013834462;0.21243714;4.063003;5.754571;0.020952057;-1.857455;0.09157226;-3.494394;-2.5133307;-5.6330914;0.09058444;0.78652227;-5.2762094;0.031570308;-5.298768;0.012741535;0.025342973;-5.9848914;-5.3788624;-10.707825;-0.0031072465;-2.9744291;3.4955683;0.014926093;0.04641247;1.9256079;-4.767203;-0.04812226;0.042043883;-1.0358951;-3.4053152;-0.009580092;-0.017712843;0.0024448964;0.007143617;3.6591146;2.2074769;-1.4289792;-5.7934737;-2.9094832;0.70159477;2.5584793;-3.1934655;0.6801681;0.00999157;-2.2264962;-9.560304;0.04086329;1.5952913;1.7180197;0.0040075653;0.27675462;0.19505626;-0.0080591235;1.087517;7.102334;3.1724048;0.38327476;-1.2957149;0.60798633;-2.0981371;2.5453877;0.00405762;-1.1708885;-1.4879423;0.033778142;-1.0310786;0.07171535;0.02821082;0.025988331;-0.60564196;-2.2363455;0.014117176;3.4366279;-2.2132387;-1.2480251;1.3148962;1.4264772;0.11756297;-1.1532842;2.4002635;-2.45505;0.06599465;0.009991998;3.145071;-0.9748661;-2.8585038;1.0971531;0.042919207;1.8182133;1.3632814;0.020366957;-4.4848824;-2.6119633;-0.007126804;-1.1184108;0.026128476;3.1600494;0.013988018;-0.003077511;0.028877659;-0.02220978;2.3811936;0.14000314;2.78615;-0.0015261987;1.1086379;0.070736885;-0.0010393879;1.8365614;-4.930133;0.032542396;6.500171;5.4351254;1.8592597;0.021640085;0.0021005224;-12.52696;3.0297806;-1.3083457;-0.025443157;-0.034229368;2.4536448;0.0695485;0.077118;0.46036744;0.37116826;-1.6711723;0.65123695;3.4045515;0.5761047;1.6949639;4.029742;0.017725367;-3.255479;0.016738968;-0.36677858;-0.034201432;-0.030554418;1.6951338;1.285496;-2.8034487;1.9011177;0.043609492;-0.4261828;-4.1677294;-1.3257352;-0.021204015;0.8058756;-0.0654415;0.010049171;0.050237365;-3.604242;3.7055728;0.33467436;-2.199956;0.0082214065;-0.031704023;0.036913622;-0.018326243;-0.8720058;1.2852184;0.6200224;-0.81417185;-5.647397;0.15982628;2.4042282;0.016813798;-3.0009832;0.035357222;0.03712522;-2.8201807;0.009915882;-1.9117317;-1.3960308;0.06567598;-4.514231;1.9998357;0.7272864;-1.57475;-2.355879;-0.0074305744;-1.8283902;-14.662639;1.3844848;0.039977413;0.00084214524;0.43429035;-2.8751926;0.013746092;0.122600794;-0.22039343;-1.6955867;-1.4176946;-0.011177012;-3.1320379;-6.02189;-2.3799462;-4.072294;0.14716363;-0.7376238;0.010960578;1.5501021;-7.088993;0.013250256;0.012976131;-2.5226595;-2.1004958;-0.53136593;-3.1376503;-1.1221181;3.9322562;7.5924134;1.1883613;0.0030437203;0.8521935;0.047411058;0.55746967;1.3518145;0.017284246;0.007882426;-2.9652064;-6.566023;-0.119481355;0.43526325;-4.1127925;-3.659165;4.1264496;0.9931671;0.7953132;4.403258;1.3259082;2.4910915;-0.33526823;0.013654259;1.302582;0.61345667;-3.3518922;-0.27758116;1.8718257;3.2807066;0.16838323;-2.5676355;-0.0047534443;3.743922;0.17966637;0.017171312;-0.27971277;0.018823247;-0.059862226;0.049229614;-10.014577;0.11418897;1.6831983;0.0009918876;-11.879677;-1.3684664;-8.512405;5.470571;0.40699577;-0.6922114;0.020876152;-2.7373424;-13.00213;-7.1259565;0.5401243;0.06045717;0.040051244;0.432016;1.2762156;-10.473935;0.015935889;0.02896749;0.75812435;0.010741641;-1.221043;0.2285134;3.184952;-0.729542;0.03891413;3.8005555;0.013254247;1.3405437;0.01870316;0.92785394;-0.039060358;-8.952544;0.97873944;2.6278837;-2.4071705;0.01979161;-0.015628487;-0.005864508;1.2994859;0.033482917;4.125157;0.28623387;1.7405291;0.027379554;4.170442;-9.74559;-0.9909324;0.7714646;-0.8714572;0.011076132;4.781939;0.010910237;-0.17640847;-1.5337824;-2.7416394;-5.744857;-0.031603016;-0.8723843;-5.7103148;0.5982812;0.77837735;0.61947316;0.009286242;0.72804743;0.5373938;1.276965;2.9558213;0.07868921;-0.4076418;0.058748037;0.005829295;0.003671464;5.0521717;0.020678816;-0.81270903;0.086314835;-0.7130932;1.9336878;4.24429;-1.5319376;-4.4723134;0.16496511;-3.0998468;-0.009776405;3.4351535;0.02647159;-2.0027092;0.053868257;-2.7969375;-0.010183732;0.41388157;1.6220835;1.1666809;5.4496408;0.2230543;-10.409194;1.1683495;3.1435244;1.0080793;-2.5868974;1.3239434;0.027548973;-7.480819;0.07025732;-1.4981006;0.054397322;-0.2691105;0.081825994;-1.0220513;0.016475473;1.0471207;3.6876345;-1.6687241;0.030427951;4.404146;0.6934426;0.06297004;-1.8953339;-4.536024;0.011219445;-7.837568;0.11198996;0.2523809;0.02953456;-0.21234795;-5.10303;-0.1367176;6.319446;0.0017346708;-3.6481001;-4.6406527;0.88095766;0.021782197;-4.491546;-3.0927653;-11.00186;2.0805058;-2.1737003;4.4011574;4.233259;-1.7075121;1.1990367;0.01756907;0.6530574;0.006967652;-1.3446473;0.9312392;-0.7973562;-1.8344309;-2.4048066;-18.955143;-0.19980738;0.015888985;3.303865;1.2106575;-0.1858638;0.748084;-3.6626477;-1.1008773;-8.830383;-4.263881;0.012193424;-3.9288926;7.3577075;-0.030786913;0.06817665;-0.05103773;-7.2623024;0.11325465;1.3189853;3.4360185;1.0766276;3.256021;-0.05422584;0.024734814;-8.9887085;-1.9973587;-0.17813186;-2.284068;-0.013568624;1.655413;2.215325;-13.087067;2.4922297;0.007097231;1.0744339;0.009314685;-6.8773875;-1.8321638;-0.018814748;-2.5057104;0.5458035;0.023879113;-0.28736454;0.02278132;-7.8188777;-3.3520207;0.007893984;0.020427221;0.88164824;0.95595384;0.0040136855;-2.829695;-0.041410476;0.045135453;0.05455162;-5.351722;-0.45558792;3.122619;0.5001719;1.9235902;0.020562213;1.3350099;-5.1799283;-0.9058163;-3.8962457;1.4764682;-4.7911105;-0.046370376;0.43617103;-0.024578145;0.027392069;-1.8355918;-0.26378214;0.023903213;-1.2694558;0.025049968;0.0005378381;-3.0619326;3.1623054;-0.04882119;0.20927687;-0.0013166392;0.09293098;1.197927;-5.598218;-0.0076360432;-1.1838851;-5.750689;-0.3546355;-0.8913778;0.0303029;-5.487175;-0.8765474;0.7830137;1.7391559;-0.76516473;2.1267734;0.031059781;-1.8506701;0.39047745;2.3588996;-1.9102902;-1.40997;-0.87364113;0.08696375;-3.639496;0.85407084;0.038614146;-2.1009002;-0.6740814;0.45537764;0.01128768;0.053141933;0.27544135
2.5331008;-0.81673265;-0.28044498;-5.0053596;-0.03354395;0.025478818;1.3719243;-5.598259;0.061102647;-3.1805556;-0.036607884;0.8951512;-0.41875908;-2.9118385;3.813117;-12.454128;0.4050632;0.047272515;-7.699372;1.4763854;-0.064348966;0.033845857;-4.3176174;-1.1511095;-17.480543;0.025667345;0.030980995;1.019729;-5.919933;1.2410829;-4.403914;0.04811759;1.1830786;-1.4719118;1.7389789;-0.26113027;-1.9774646;-2.126287;-4.884197;4.4233456;0.041128665;-0.016969608;-4.35099;-3.6788104;-0.012644806;2.2825642;-0.027295012;-1.3064443;-0.33963203;-0.006199272;-0.027977377;1.0436685;0.3735245;0.023878712;-0.003914576;-0.823413;-0.012521735;-1.1119078;4.8567405;4.518867;-0.009760081;-3.4887466;0.011154276;-0.32378346;-2.1879103;-2.807959;0.13437271;0.29862034;-2.94491;0.037705433;-2.1460872;0.050336614;0.03414421;-1.3751217;-1.1178921;-19.64603;0.04988301;-1.6027582;2.1553075;-0.012591417;0.070380285;1.1912032;-4.543513;-1.6997187;-0.034068532;-3.9849937;-2.325489;-0.0077808104;0.025821041;0.005073432;-0.007925105;3.7593915;2.3730333;-4.3660154;-6.0221777;-0.9114867;0.688207;0.08081712;-4.4127426;0.38245642;-0.016900264;-2.2483535;-8.467312;-0.0119432695;4.796643;0.92823017;0.040647022;-0.22284113;0.7026155;0.018745396;1.5596323;5.5026;4.0362706;-0.7414749;0.4202572;1.1768583;2.5053806;2.6886988;0.047841065;-1.3140326;-2.8050365;-0.009552166;-0.52663136;-0.019229623;0.015207962;-0.022208365;-1.4992316;-0.34001467;0.07249691;3.526461;-2.7312548;-1.9918905;0.28627425;0.7680562;-0.023250706;-5.3147817;1.7290035;-1.9938594;-0.08566391;-0.007210623;-0.44694784;-5.7355165;-0.618259;1.835383;0.02150485;0.72604096;-5.274771;0.009114208;-3.6507745;0.13137218;-0.0006847639;-3.1855323;0.027051106;3.272477;0.0014799541;0.008059064;-0.034568865;-1.8351959;-0.46865705;-0.46748784;2.4441118;-0.02158754;1.7465398;-0.03445786;-0.034742754;2.8799496;-1.1775547;-0.05461887;4.9932184;6.0815525;2.4232862;0.046037108;0.02169163;-0.7099571;-1.8041207;1.2030813;0.06986823;0.08133222;4.6663165;-0.042624522;-0.057502113;-3.3716447;0.14420208;-1.324053;-0.91278076;0.0327543;-1.1834652;2.0838468;0.80577236;0.033076108;-0.835945;-0.054631185;0.9368599;-0.0031128249;0.30234227;1.1834444;0.41111293;-4.0060315;0.70425427;0.017998766;1.230327;-4.5897284;-1.2837678;-0.016294435;-0.31699747;0.011090156;-0.32862845;-0.030757384;0.36522833;3.9158244;0.10774888;-0.38928837;0.06321644;0.0115854675;-2.041569;0.029207062;-2.6646872;0.5641067;2.325235;-2.4832036;-5.039778;-5.8358326;0.6614525;-0.022778857;1.5283237;0.025554541;0.014185954;-1.7073057;0.024648078;-0.40238464;-2.8217459;-0.016983232;-0.5732755;3.0974107;0.10549759;1.8935899;-4.954104;0.0008893337;-1.2248752;-16.123346;1.1819556;-0.031506106;-0.017301058;0.7571145;0.8904464;-0.016012;0.028269071;0.4430918;-0.8006327;-2.384866;-0.0016348201;-1.7220392;-4.0614495;-3.3643749;-2.6359968;0.16499813;0.36407608;-0.054745317;2.578264;-6.5379767;0.053592034;0.07065797;0.910748;0.58883274;0.3699695;-2.8633554;0.11062508;2.8643208;1.589853;0.45072;0.19010118;1.1664461;-0.044026766;1.0970992;-1.5560528;-0.031549282;-0.006629018;-1.3839571;-4.54248;-0.86612403;2.189489;-1.6872319;-0.45347723;1.7863537;1.89403;4.5024657;0.68652844;2.511922;4.83776;-1.1166444;0.050948463;0.9416832;-0.46444303;-2.915275;-0.32675683;0.77021414;2.9709258;-0.12507494;0.53186077;0.001503121;2.6698356;-0.035417043;-0.038847014;0.59487015;-0.021239266;0.017839415;-0.027469803;-12.135755;-0.032493077;2.0352714;0.038006324;-10.767465;-0.07461402;-6.183818;3.9626951;0.8738887;-3.7568824;0.012550021;1.3702546;-12.329347;-2.8906484;-0.39053693;0.5783948;-0.017259842;0.05313842;-0.36374992;-10.344697;0.019422159;0.010660222;-0.40030286;0.012428912;-1.7916154;-0.3976056;2.4546561;-0.8044984;0.039824985;2.9242961;0.02505593;0.02256366;0.010999594;-1.0177947;0.22049323;-7.29579;0.942001;0.6174736;-1.3268713;0.039337177;-0.0042316434;0.03383097;2.7656624;0.059594344;3.8885152;2.197149;1.4841857;-9.4336836e-05;0.9334901;-8.762036;-2.7874656;0.12133919;-1.2006415;0.12864108;0.18021229;0.07532134;3.6195195;1.0164994;0.61094457;-6.569446;0.74469775;0.07832076;-3.4612885;2.0324435;0.36301032;0.5178612;0.0045853164;0.53552014;2.6619291;2.0577385;2.556804;0.013211188;-1.9396802;0.021243112;0.06148586;0.03292698;5.6326256;-0.027389826;-2.651456;0.0023079263;0.47073597;4.214963;5.676194;-3.484737;-3.17205;0.6144413;-3.995831;0.07539959;1.1050107;0.032262735;3.1125076;0.02769287;1.0473268;0.07427227;-0.7951979;1.196446;0.11083361;2.0903332;-1.0317162;-2.3698938;0.65780294;1.8086892;1.9947727;-1.0790594;-1.2974724;-0.023366762;-5.534919;-0.02749515;-4.106141;0.00094918336;0.16864747;-0.008498569;0.33123183;0.00056063937;0.20707442;3.1194189;-0.060189676;-0.010780056;3.5141258;2.2223644;0.011824377;-3.0678837;-5.47487;0.04810498;-2.6645343;-0.0546755;-0.044022802;0.011583406;-1.2944664;-0.3297911;2.1426227;5.0390253;-0.013217179;-0.8381107;-6.8727713;-1.2288103;-0.031198362;-3.2901094;-1.1016246;-7.420879;0.36470792;0.79632807;2.3792782;1.696852;-1.5348704;3.25442;-0.018682783;-0.28594738;-0.0099206595;2.7293484;0.3930117;0.33470395;-0.20162123;2.5337002;-18.205006;-4.3576427;-1.2101305;0.20799212;2.4361148;1.4883834;-1.1248102;-4.4972043;-2.390484;-8.635756;-2.808462;0.042640086;-5.0759745;4.0274563;0.00096331455;0.029750824;0.22179322;-3.8696783;-0.026714757;-2.0115054;-1.4576899;-0.4848133;2.0747988;0.028894838;-0.00091799715;-5.9752154;-0.40546274;2.2530248;0.59019494;-0.0121750925;-3.6505291;2.6119924;-13.009425;-1.1359513;1.5571223;0.7364904;0.104517676;-3.0268898;1.554487;-0.008025406;-2.0745497;1.9857625;-0.0047206716;1.4428755;-0.0015207573;-7.1026073;-0.77698237;0.074220866;0.0491556;0.3046531;0.3897284;0.055585127;-0.57451916;0.0013931177;0.015049615;-0.0032452089;-4.2942495;-1.1862442;-2.046006;1.3441929;-0.5945028;0.0056049447;0.003128769;-9.120181;-0.6023962;-5.912786;1.8875735;-0.11070983;0.011845649;-1.6041915;0.032080803;0.04699384;1.7301434;4.387271;-0.0042375904;1.2804146;0.046966083;0.014079049;-2.695481;1.809351;0.18022917;-1.1468533;0.0012769023;-0.0702225;1.1307808;-6.5707493;0.0027888168;-4.6253047;-3.1202576;0.47479162;-0.2672221;0.013077357;0.83740205;1.9019356;-0.15251832;2.8584664;-0.82162577;1.0580691;-0.017525049;-0.7840608;1.2677783;0.75298184;-1.447227;-2.0231538;0.7070622;-0.01201486;-0.71514976;1.0556513;-0.030236628;0.01733813;-3.405335;-1.1891536;-0.028030246;0.013224194;-0.9064665
2.4359434;-2.137697;-1.1161542;-0.5086029;0.050089605;2.4703789;-0.7084779;-6.98802;0.03276872;-3.3070328;0.045403767;-1.2092716;-0.27211893;0.34677467;2.3210304;-13.159536;-0.22851127;-0.26041985;-11.436627;1.8113474;-1.3256333;-0.05962987;-1.8245094;-0.24436319;-18.252539;-0.07550053;-0.054635294;1.8132391;-5.666306;0.98125815;-3.4558842;0.053686097;-6.7988997;0.47808912;-1.4642044;0.50257987;0.9334116;-3.342198;-6.156301;5.216312;-0.025814176;0.04639156;-5.501999;0.36216408;0.021720808;2.000531;0.0009303284;-1.354933;0.5243994;0.02914717;0.0045503224;-0.006777962;-0.21408583;0.013504753;-0.0066259746;1.4013106;0.030315097;1.0614086;5.2231007;2.1759214;0.017452395;-2.7488368;0.024152568;-0.15437485;-2.849337;-3.9409914;-0.063841835;-0.7547201;-0.94717985;-0.09052296;1.5042465;-0.018041728;0.03337457;0.40657988;-0.045128208;-9.041293;-0.0064335046;-1.3565797;1.3338325;0.015438996;0.041787248;0.8834511;-3.108613;-4.6566963;-0.004104128;-0.055696137;-3.987613;-0.015200355;-0.00015541528;0.0006881299;-0.030815927;4.3884053;0.34440082;-3.665668;-3.4741328;-3.1379628;0.3842548;0.0075865416;-3.5437298;-1.1427737;0.01963817;-1.5651304;-6.7592435;0.0055607003;5.6947756;2.1584609;-0.023409154;1.32658;0.04027058;0.02065868;-0.8282395;-2.5988133;3.139475;-1.0689143;2.6575816;1.1373405;-3.0441537;1.6235764;0.011819354;-1.2641461;-3.0558152;-0.017328141;-1.1140081;0.010065574;-0.019949708;-0.0066533745;-0.09887106;-3.2536972;-0.071259074;3.5291386;-2.9954896;-1.2104449;-1.3625458;-2.1387503;0.024837172;-2.5126557;2.6150193;-3.992756;0.0874366;0.015801428;0.16943386;-1.7278795;-1.3327553;1.813256;0.0028403215;-2.218488;-6.041203;0.029015008;-0.76678187;-1.0426053;0.010717964;-0.06660865;0.02618994;3.8647468;0.004845054;-0.012954061;0.09393461;2.8047597;0.49420786;3.9478755;2.0423603;0.018048553;2.3574111;0.0396586;-0.040065862;2.2025814;-4.4870234;-0.046777204;2.861878;7.093614;1.9128112;-0.20518586;-0.025375651;0.5315164;-4.279309;3.530783;0.0021763283;-0.038630936;3.0648494;-0.0061334805;-0.057559587;-2.0950122;0.8604741;-0.7041373;-0.79667944;-1.0407481;-3.536532;3.6136103;-3.202937;0.057897817;0.9995718;0.05546593;-2.4301672;-0.00051157933;-0.16875765;0.9290688;1.4662067;-3.22412;2.3126793;0.0081465095;1.6597975;-3.9429545;-0.36258978;-0.025912065;0.7052738;-0.03657563;1.384311;-0.009290227;-0.36892918;3.5755918;-0.021482246;-1.5846868;-0.015156764;0.0077008535;-3.498337;0.0011768432;-0.1087801;1.2052144;-1.7248995;-1.4869391;-5.2836456;-6.5671425;-0.85239613;0.018856354;1.5559229;0.050963324;0.008468149;-1.1910563;-0.017129688;1.24797;-2.9980886;-0.016689723;-2.198739;4.1828856;1.3593841;0.98346424;-7.1005793;0.02375361;-2.6213207;-16.497005;2.6048732;-0.020159034;0.033816304;1.872493;0.670703;-0.010732864;-0.01068809;-0.5704627;2.2245443;1.3276767;0.011042514;-1.6661304;-0.36992413;-5.7685747;-0.2920086;0.1116155;2.6965096;0.012604735;3.9287539;-6.8010073;-0.00021923176;-0.035220485;1.3103737;1.1413207;-1.5796736;-1.7336625;0.79473966;1.114744;-0.91980976;-2.3654978;0.5047687;1.0365796;0.08129632;-1.4778146;0.37327093;-0.010447403;0.02025205;0.46858576;0.16173056;-0.65520996;1.5433567;-1.622552;-2.9684217;1.1379113;0.5318496;1.8422962;0.52319175;3.3573;0.55433697;-0.6731178;-0.0116479555;2.6870701;-1.1657141;-2.6800866;-0.41314578;0.40644678;2.820366;0.056385938;0.65304637;-0.03037545;1.698517;-0.020293085;0.0054989457;0.056324366;0.016477752;-0.20899129;0.048566703;-12.397234;0.015357935;1.9427332;-0.03546527;-7.643762;0.9618641;-3.891796;2.3174584;-0.03906945;-3.082406;0.098786116;3.5254323;-10.731102;-1.8005137;1.0706662;1.4915165;0.0056940713;0.27878752;-0.6420615;-10.439039;-0.02540125;0.009691007;-1.0023518;-0.01646142;0.09629452;-1.494824;1.0421187;-0.54816854;0.047380574;1.6744696;-0.00593153;0.68301654;0.014893984;-0.8340242;-0.0092051225;-5.4012513;1.9610449;-1.5098709;-1.8796606;0.023530105;0.031057915;0.06634029;1.5467834;-0.011732072;3.946704;3.6940818;2.4075634;0.0018770089;1.3747797;-7.8776965;-3.2740805;-4.532833;-0.73349637;-0.093405604;-4.037143;-0.026247472;2.5765455;1.8714575;0.63279134;-4.6842103;-0.08294319;-0.2742683;-4.565441;1.1810411;1.0888547;2.5988276;0.058556695;0.7044208;0.38792878;2.4950223;2.5710614;-0.032016147;-1.5593497;-0.008467122;0.00476065;0.052023698;0.025864147;-0.017407991;0.024324546;0.011040189;0.72955334;2.0585363;4.3843136;-8.559446;-0.65993166;0.38244018;-4.308306;0.010978828;2.4487789;-0.015839776;2.3576806;-0.014010743;0.27966;-0.07069045;0.3667742;-1.2354289;1.6863697;0.7275129;-1.8074696;0.60772806;-0.079202175;-0.8232591;2.2563791;-0.8203205;-2.0557067;0.00046050115;-4.515333;0.035740394;-1.0082927;0.061142545;-0.4774932;0.006141575;1.4330745;4.1023653e-05;-1.3548121;3.1563323;0.36254317;0.030198952;2.9363313;1.5409331;-0.03484788;-1.5817585;0.01865462;-0.051547676;-3.5860515;-0.002658453;0.24091573;-0.0058746184;-4.556654;-0.5238307;-1.9173766;4.354114;-0.01835403;-0.92969877;-6.027392;1.7936214;0.0175052;-2.1037517;1.6216375;-6.608211;0.82028455;1.6657236;1.131926;-0.5124043;-8.591112;2.3001785;0.010787834;0.7979257;0.0538058;1.6145155;-0.50690496;1.1914244;0.18793964;-0.8571658;-19.261135;1.1198714;-1.0518426;-0.80020005;2.2458367;-1.3985378;-2.009222;-0.4455102;-2.5548685;-8.4942;0.7982995;-0.007609717;-4.9240236;-0.37481067;0.018231316;-0.015709331;-0.09301908;-1.7833616;-7.92445e-06;-0.7517419;-1.6138783;-0.7983642;1.9271332;0.019860892;-0.02073845;-7.727425;1.1730931;2.3627884;-5.051056;0.0014716987;0.84167415;1.2028394;-14.015872;-1.05954;0.4254707;1.7213392;0.014105125;-4.4960737;3.023358;0.008361115;-0.6714835;2.5979276;0.05223622;-5.357057;-0.033197626;-11.619736;0.33996657;-0.06830435;0.010490759;1.3678489;1.7788153;-0.0039984784;-2.8150158;0.029956432;0.8090425;0.028588073;-3.7119741;-1.8196733;0.046719767;1.4369493;-2.9688675;-0.015599509;-0.658087;-6.201873;0.64656335;-5.8538713;3.0895429;-1.997844;0.019057961;0.31491703;0.08412836;-0.026532548;-2.7819576;1.2009447;0.023823943;-0.28001466;-0.017202249;-0.033378154;-3.2607691;0.45866296;-0.03766492;0.020229215;0.011417457;0.04173273;-0.09941428;-5.5394893;0.01940142;-5.508779;-4.9574895;0.30465293;1.1519402;0.00558058;1.8404603;-1.7160316;1.0416743;-0.55203396;-0.70265794;1.3869128;-0.0058556222;-0.18364556;2.4909148;0.79923606;-0.45436662;-0.6317292;-1.1008333;0.05283301;-1.9612496;1.7018961;0.0009490472;-5.5803857;0.039102726;-0.5366369;-0.016536208;-0.021947602;-1.284985
2.1773112;0.7632839;-0.5625243;1.3321944;-0.024013378;2.3173385;-0.2249462;-8.954325;0.007901383;-1.7611029;0.0015097177;-1.1388245;0.17356192;1.397088;2.410348;-11.384009;-2.0265608;1.0592153;-7.583327;-0.06657338;2.4681766;0.023957588;-4.0625114;-0.88777906;-16.235073;0.4784064;-0.014835331;4.1941786;-5.24419;1.7993999;0.7238467;-0.0006576256;-3.374982;-0.54853827;-1.95053;0.8150016;-5.333793;-4.2441707;-4.717386;5.8474956;0.00012580637;-0.008559847;-2.2626655;4.314462;-0.03564939;1.1077875;0.03146035;1.1272626;1.5193125;-0.0070318705;0.018852891;0.5692537;1.3018007;-0.038657546;0.017057128;-0.3260955;0.00027898152;1.8708742;5.625964;-5.632824;-0.00625897;-2.2083187;-0.00057547324;1.7375543;0.8769137;-4.8832593;-0.05192161;-3.047324;-3.3927026;0.22410502;-3.0434868;-0.023764564;-0.008632038;-0.9257616;-2.969973;-0.015321513;-0.034308266;0.12778373;-1.1417634;-0.010859514;-0.00011722513;0.7883399;-3.7256641;-5.038951;0.0025400398;-0.06550903;-5.0637693;0.034699563;0.0336548;0.028249323;-0.0047118617;2.4717748;-0.6875712;-2.0265594;-2.4127183;0.22617447;0.54062974;-2.5371442;-2.6148293;2.3431325;0.014450259;-0.27233213;-6.1815367;-0.017101586;2.9233303;1.6699802;0.014538173;0.057402756;-0.15377277;-2.1349459e-05;-1.2045922;-2.744083;2.0607533;-0.026680857;1.7842447;1.0546917;-1.327615;0.9169027;-0.000769543;-1.4485574;-2.6255996;-0.03681145;1.4810631;0.0020313188;-0.0037463738;0.0090308;-0.055419516;-3.3028955;0.09134247;5.4435415;-1.1688845;-3.500674;0.39866212;1.0531373;-0.061178967;-4.304215;2.4840636;-6.848683;-0.013891014;-0.07783961;-2.3629313;-1.3594795;-1.3044387;1.9143237;0.019454816;-4.3796144;-1.5641769;-0.04959382;-1.0927824;-0.30038068;-0.04205631;3.4274695;-0.042081013;2.871699;-0.028925665;0.0040862635;0.057273917;1.7642151;-1.6160412;3.4385226;1.6462044;0.13318565;2.581199;-0.04727641;-0.04105621;0.7710289;-4.301045;-0.0005809976;0.030665128;3.8335154;3.2728412;0.49172145;-0.009502266;1.0828906;3.012292;-2.0624084;0.086185224;-0.042702295;-0.8775497;-0.046197;0.021265771;-2.0188363;-0.9474724;0.5320563;1.2480782;0.21491748;-1.7942151;4.177359;-1.0293362;0.04165742;0.13446155;0.009936556;-5.20917;-0.011580645;-0.040979277;0.19989587;0.55526274;-2.3761933;0.2909071;0.008955204;0.64210004;-3.9013;1.1003723;-0.018852444;-1.4970713;-0.033751644;1.4175011;0.06841976;2.181233;-0.71477574;-0.23463021;-2.1490893;0.012922792;-0.002454348;-3.591466;-0.024188176;0.92559016;2.1856894;-1.7687273;-0.63203156;-3.8449385;1.4671971;-1.9396062;-0.0059544793;0.7965445;-0.009109232;-0.010434313;-1.8242507;0.0004675277;-1.4547614;-2.6103425;-0.04614004;2.0364935;-0.057367615;1.1474297;2.826541;-3.9456038;0.037962496;1.9276257;-13.227959;3.1714714;-0.020330323;-0.01566381;-0.6050756;2.0598009;-0.052470054;0.17994963;-1.0982077;1.6100143;2.3738773;0.00572789;-2.3074791;0.7796315;-2.2498772;1.2346324;0.006856525;-0.48255545;0.012926461;4.8283644;-4.1249633;-0.05036482;-0.004606251;-0.13213593;2.836172;-0.7878387;3.108239;2.132299;0.8085976;-0.5552538;-1.2816335;1.3138474;0.8924122;-0.027929356;-2.8283374;1.3904036;0.034694046;0.009959875;0.075909615;2.5659847;-1.3362653;-3.276898;-1.1747994;-1.9218743;0.85699254;0.76471215;1.3282632;0.405199;3.310349;-0.11088253;-1.3371809;0.0048791356;-1.3890015;-1.7751111;-4.9936156;-0.65712315;1.7666265;2.734781;-0.019202925;0.27562654;-0.024875086;-1.1198858;-0.04404446;-0.029410684;-2.4163768;0.0025541098;-0.23435557;-0.060588382;-11.912459;-0.0059248502;2.1122506;-0.0050441334;-5.5680046;-1.2061089;-2.9618053;0.74194473;0.649597;-1.9454263;0.046694998;-3.2372887;-6.718269;-1.9232656;1.5538772;2.5224173;0.03661235;-0.5851503;-0.617879;-10.25738;-0.01203254;0.028619943;-2.4747055;-0.018875722;-4.0905848;-1.4671348;0.011457521;-0.7812194;0.019205218;1.8334466;0.0075377263;-1.3645647;-0.008081459;2.6934144;0.0013667328;-3.660821;1.3433843;0.61113936;-2.8895042;0.021444548;0.0108283665;0.0008929532;1.9179641;-0.013157988;4.3533683;-0.53288716;-0.66050917;0.015073664;2.6991556;-7.9379396;-1.7294637;-0.5915046;-2.5857399;0.06981831;-4.7717175;-0.0038908103;4.015332;0.5901365;-0.2924338;0.3784201;1.2984061;-0.21600397;-3.9470935;1.0647776;1.9631189;0.50298834;-0.024644993;-0.038134504;0.8238303;2.9732358;3.981052;0.13861789;4.2197456;-0.037954744;0.0076576145;-0.00094934023;-2.2105339;0.037148476;0.061372288;0.023509182;2.7141547;-1.1887566;4.8580227;-7.149307;-1.6340934;1.1928704;-5.2069726;-0.0080955;3.0396805;-0.0028189728;-0.34405133;-0.03352051;-0.98935175;0.06492925;0.3245132;-1.2271855;0.3840014;-1.2587019;-0.9002218;0.066346675;-3.4861887;-0.1693617;3.0708816;-0.46007985;-5.3165436;-0.03799805;-2.9770114;-0.003736959;-0.21367392;0.04620468;-1.395991;6.730516e-05;-0.8237758;-0.022087067;0.4018729;2.9497905;-0.86295915;-0.011001215;2.6404703;-0.6577365;-0.005092775;-0.7094342;1.617539;0.014139303;-4.0158844;0.000210728;-0.045406155;0.009328268;-3.3400724;1.2932658;-1.8973792;2.4694004;0.005502111;1.3252697;-3.4333217;0.7172027;-0.04482773;0.89388037;0.19453119;-4.21856;2.0454755;-0.6121727;-1.0693587;-0.38224357;-5.1610093;1.1119952;-0.025071345;0.25635028;-0.067954734;1.9122862;-1.8826398;-0.16711168;0.75791883;-4.1956205;-19.021725;-0.566034;-1.4022105;-1.1556582;3.2356133;1.9741505;-0.11080916;1.4246287;-2.4005322;-8.355614;-1.3733497;0.0142783085;-3.7769718;-0.23123164;-0.00047084302;0.0263637;-0.034917496;1.0343882;-0.020558309;0.3180878;-2.769496;-3.2037222;1.4505152;0.009396629;0.015926415;-7.5789065;1.5561771;-1.2037023;-3.0099378;0.0494748;1.0214467;-0.77742827;-14.1071;-0.10847168;-1.1684837;2.2481024;-0.04447205;-0.36848336;2.3790672;0.020426523;-0.13809372;-1.3559288;0.041998062;-3.676844;-0.042649593;-9.657948;0.18656328;0.044994086;0.00088389753;-2.7769446;-0.1930781;-0.050114833;-4.4759946;-0.03838539;3.1064222;-0.06383863;-3.9955175;-1.3724903;-0.5937663;1.2047735;-2.1850638;-0.0060668797;-0.49656782;-6.042378;0.85921496;-4.3596897;0.8650137;-2.4587739;0.015644528;0.6659971;-0.005506423;-0.0260083;-2.47073;1.5204507;0.010084909;-6.3316774;0.018983556;-0.056042664;-4.277966;1.1876051;-0.06300443;1.4382308;-0.0009936055;-0.040013097;0.1240384;-2.6224933;-0.010107827;-4.309052;-4.0601864;0.10824596;1.4475304;-0.004375077;-1.6227167;0.47745284;0.15875399;2.8116322;-1.667779;0.08244629;-0.027405765;0.3272534;-0.40574697;-1.5493399;-0.04849275;-0.6052835;0.13700859;-0.009200518;-1.4350717;-0.22630544;-0.009262398;-2.757683;-0.26397613;0.8018892;-0.026654929;0.057137985;-1.7646832
0.71680564;1.00716;-0.7991945;2.4986942;0.014210686;-0.0127191385;-2.079672;-3.8770115;0.011417419;-2.350249;-0.05102136;0.5843317;-0.91568244;0.080050915;1.8209399;-11.792148;-3.7145448;1.2652019;-3.188633;0.08778294;1.3004135;-0.032232158;-3.6579394;-0.80899847;-14.55997;-0.1148037;-0.009648377;3.6421442;-4.915642;0.024128305;-1.7924076;0.0010702945;0.5195369;-0.8179549;-1.8568513;1.5889139;-3.8834841;-2.0162718;-4.178696;4.858143;0.013314187;-0.018012961;-3.3275237;0.764012;0.0017462557;4.514231;0.00026500205;1.3113598;1.7657874;0.042460416;0.0057463986;1.4871297;1.1195225;0.00979908;-0.0018903523;2.0357025;0.021409065;1.7563878;5.3608227;-5.3207884;0.0027547549;-3.4680421;0.03373329;0.94231087;-1.5304034;-5.906685;-0.0208041;-4.005988;-2.3292458;-0.10126743;-2.2164814;0.014841945;-0.003181329;-1.8552784;-3.1496487;1.0540631;0.035045594;-3.5531397;2.1876974;0.00014995756;-0.021461358;2.4748867;-5.5313125;-2.13182;-0.016127922;0.9183879;0.22418177;0.026562966;-0.0029045846;0.028004965;-0.017551897;0.64862555;-1.2210139;-0.7220146;-1.0105337;-3.6206572;-0.31817132;-0.9927851;-5.8220334;0.65826327;-0.013570742;0.14416824;-5.4817185;0.0021129162;0.24498244;1.4702129;0.043333847;0.5856046;-0.3333564;0.029287452;-0.6489316;-3.6743398;1.6101936;-0.8422676;3.165007;1.401163;3.19941;1.8135613;-0.006325612;-0.14734082;-2.4567754;-0.014963276;3.4764981;0.0075676516;0.059022825;-0.00309137;-1.898272;-1.0351934;0.103043616;4.0499854;0.05863972;-3.194878;0.7764642;0.48030972;0.011278501;-3.3303843;3.5791078;-3.1319225;0.0096267015;0.022061357;-3.4694455;-0.685699;-3.656337;1.4218705;0.043777376;-4.7733088;0.28121033;0.025816489;-2.8131316;-0.55486816;0.01766652;-0.646484;0.055349737;1.3740195;0.034268722;0.0046870694;0.02868033;0.84092957;-3.5107224;1.4869598;0.24229816;-0.029877022;4.075235;-0.01964046;-0.053536627;-1.869904;-2.8983467;0.005692631;0.98202187;-1.3362572;1.238602;-0.2499232;-0.015976697;1.8846965;3.556399;-4.4064875;-0.058275834;0.049160786;2.4546432;-0.017578742;0.0056113424;-2.2898767;1.6746359;-1.0491004;0.689551;1.1344857;-1.240454;2.8814123;-3.4076388;-0.002883494;-0.53090614;0.0133854905;-5.135664;-0.0053526238;-0.0037108446;1.7290316;-2.0092504;1.7734977;2.3811376;0.008868145;0.9948116;-5.594369;1.0688152;0.020328706;-1.9662535;-0.018412795;1.5714389;-0.032726012;1.0033041;0.39106178;0.1920948;-1.5162374;0.0040176674;0.017494477;-3.7120042;0.025491105;2.8892777;1.1789359;-5.456872;4.7770295;-5.0828;0.21047053;-2.2814796;-0.030541308;1.5084926;-0.029265257;0.019029671;-0.51825494;0.017665215;3.6058571;-2.4079294;0.047156323;-1.4206439;0.34238288;0.958516;2.9670417;2.467467;-0.018558433;0.76330054;-5.110036;1.2645731;0.069075555;-0.0025438897;-1.0166425;-1.1977034;0.12855034;-0.0011904759;-0.010065744;-0.8044098;2.67843;-0.006674076;1.4677446;0.5076806;-0.66083664;-0.594484;0.22239082;-1.16031;-0.028714122;3.9842548;-2.5797036;0.007211333;0.050852634;0.6748497;0.21093398;-1.8329247;2.4922657;-1.6560102;0.7778728;-0.72826135;-1.10831;1.0728579;0.28494078;-0.014409986;-3.6663313;1.843672;0.010572026;0.0014327687;-1.6929694;2.1251068;-0.45172635;1.7395121;1.1173661;-1.8321203;0.32132053;1.1088369;-0.17637528;-0.7923148;2.8901079;0.1516177;-0.6250558;0.011051599;0.98332417;-3.722145;-3.1588778;1.7199137;0.9665238;2.63971;-0.033751603;-1.9346608;-0.045094937;-0.79302365;-0.021917295;-0.0101001095;0.119090825;0.005464047;-0.36363366;-0.021411948;-11.409955;0.059256986;-2.0300453;-0.021834524;-5.892212;-2.9886582;-0.7817386;-2.7563026;2.368038;-2.9652488;-0.0041462136;-1.8407037;-3.9874203;-3.649418;-0.37782288;-1.8071883;0.037916303;-0.13519494;-1.2316215;-9.069167;-0.001680622;0.030259535;1.7522669;-0.029036859;-1.3167018;-2.7043839;-2.2887335;1.142998;0.015904048;-0.41633493;0.027179206;-3.354094;0.022157514;0.118078955;0.0011116647;-1.4931792;-1.635389;-0.07732538;0.35515976;0.00841935;0.0041776467;0.032293897;0.08748344;-0.009895193;4.837673;-0.26366892;1.700172;0.006438061;1.2476532;-7.1931195;1.1115726;0.64193785;-2.5171728;-0.07329017;-1.1586863;0.005882183;2.684474;0.06386252;0.33041868;1.4822364;1.5143071;0.94286686;-1.374281;-0.13993765;-1.8753619;3.5910025;0.124653876;1.7226719;0.763798;2.2812169;4.5552726;0.005287993;0.027700804;0.001729175;-0.019985529;0.050574604;-1.3505484;0.057890344;1.9518644;0.0006852188;-1.7552394;-1.951717;-1.020064;-0.17850794;-2.434065;1.4363118;-4.680032;-0.042760193;1.9244332;-0.006333003;-2.8278863;-0.033116974;2.1222358;0.04291117;3.6742947;-0.8538531;0.62792337;-2.8853886;-0.8039005;1.531445;-2.8491282;0.5698573;1.825935;0.9814132;0.30844352;-0.057827875;-1.2893652;-0.040696338;-1.4432806;0.0036050514;-0.17681602;0.019085389;-0.060456857;0.02934668;0.07172872;2.9069114;-1.6470389;-0.043989707;1.8834506;0.42885044;0.030487245;-1.7696103;-0.7403499;-0.042964976;-3.8496284;-0.014423787;0.13199171;0.0011727118;-1.835724;1.5699352;2.2261114;-0.65968484;0.0056783655;0.23495279;-3.6277206;0.6924578;0.0055710264;1.0281126;0.15353033;-2.4679952;0.6740095;2.3981812;1.0547334;-2.473924;-4.0258102;2.1541896;0.010348712;-0.64944094;-0.00077114167;-3.4171114;2.2309196;2.1056645;0.5025057;-4.204822;-18.280989;-0.24885644;-1.1186507;-2.4759848;1.2545075;2.1084933;-1.831388;-2.6719377;-4.9561596;-7.6945143;-0.90917027;-0.016704414;-3.8706412;0.01750693;0.035315216;0.053992473;0.071782716;-1.1601858;0.005930382;0.1766139;-1.1242297;-4.497822;1.5180602;0.010223782;-0.0097709345;-8.942346;0.50542784;-0.5048508;-2.627934;-0.037896585;2.7135804;-0.9887673;-12.884833;-2.3382883;1.72502;1.8486698;-0.007894652;-0.8846978;1.1222212;0.017914634;-0.43873432;-3.7335653;-0.01885591;-1.655893;0.0048468104;-10.726908;0.26187786;-0.030550364;0.035764128;-0.08283505;-0.89769894;-0.053795304;-5.7660985;0.0010946009;3.378697;-0.0053117746;-4.4223785;-1.4853653;-0.16908902;-0.61181366;-1.3297089;-0.017270558;-0.014181739;-4.2709365;-3.3535755;-1.9242947;1.8178099;-0.33794466;-0.014040057;0.43731937;0.032661308;0.006211463;2.9453754;1.078765;-0.0077521876;-6.1954613;0.0012734197;-0.040090404;-4.489726;0.22217534;-0.0074092182;-2.2089648;0.022466552;-0.014632049;2.900958;-2.429184;-0.047317438;-2.0911775;-2.8135319;-0.16254541;-2.1351523;-0.012593593;1.6056609;1.2349313;-1.4116682;1.9830258;-3.0662456;-0.5937352;0.08221973;-2.8097274;-1.768539;1.2214918;0.42530474;-2.7689834;1.4026283;-0.010514119;-1.0413264;-3.4997334;0.017090922;-1.4030712;0.2345319;1.7291852;-0.04358931;0.045880005;-2.9087296
0.798824;0.1609002;-2.294467;0.29284033;-0.050026126;-0.14422876;-0.53603673;-3.154211;0.050005358;-4.0833273;0.02833844;0.650062;-0.40727314;-0.5806669;1.1108849;-10.776031;0.46921432;3.211573;-1.7844709;-0.102268204;0.8053087;-0.0059750723;-2.6741388;-0.8284028;-12.573086;-0.039049987;0.014324581;2.6565852;-4.997127;1.7931739;-5.554914;0.05965686;2.3448863;1.711349;-1.8902137;2.2350342;-2.702094;-3.5891147;-0.33217034;4.3995748;-0.020858364;0.05001227;-1.0023781;3.4935014;0.04545034;3.1533961;-0.06285763;-0.5321483;0.92095864;0.03042336;-0.027749304;1.071401;-0.1356898;-5.774552e-06;0.04167435;0.42622524;0.04281444;0.8451008;4.436312;-4.63925;-0.0028940903;-3.6389847;0.011168474;0.68323964;0.12803288;-4.455623;0.10725668;3.0405288;-3.60511;0.00529645;-2.6065524;0.0064641633;0.017452687;0.6969049;-5.2251816;1.8039929;-0.026120992;-3.7513301;0.14831796;-0.0010878295;-0.04351532;2.4543865;-2.3332477;-0.8184967;0.017337626;-2.198464;-0.032842863;0.0546794;-0.016983237;0.051549613;0.004367416;1.6818005;-0.9785946;0.0060921838;1.229355;-4.5905805;-2.0325732;-1.1857681;-0.74507827;0.16582933;0.021792082;0.80831337;-4.8500204;0.014108741;1.1156449;2.2814205;0.0013223286;0.8987322;-0.46626374;0.02617843;-0.66510314;-2.849311;1.9115926;-0.5802426;-4.381799;3.1387398;0.53408885;2.1462765;0.0057924036;1.2368002;-1.7880452;0.010548273;1.9362768;0.026732568;0.01772562;0.0068511507;-0.24141231;-1.0015967;-0.006920969;3.9605503;1.401193;-2.117092;-0.18496858;-1.3524226;-0.02687203;-2.8033342;0.75925547;-1.1443702;-0.060961615;0.020654012;-0.37253;0.8221727;-4.001219;2.02291;0.0014876886;-3.983778;-2.840584;0.041284163;-2.4899716;-1.4488674;-0.00084995956;0.7334611;0.1540343;1.4727685;-0.01490877;-0.02953351;-0.021947913;-1.9557528;-0.53369004;-0.33558947;-0.245849;-0.015066646;4.397972;-0.0022711984;0.03732104;-3.1298437;-1.4747872;0.016538197;1.2873484;-0.24890128;-0.09144794;0.07408102;0.00751103;3.059091;2.2293093;-1.6217986;0.62576723;-0.064412594;2.6741025;0.019802596;0.03707489;-2.4379702;-0.6588291;-0.82785577;3.5580754;0.16502799;-1.6742129;3.5478492;-1.236789;0.014630159;-1.116396;0.018578358;-5.5882907;0.14700563;-0.019917892;-0.5261892;1.3818148;0.5798618;1.3498234;0.03321895;-1.7801143;-6.432154;0.022725618;-0.02968036;-0.3132423;-0.03127027;0.5636925;0.012007815;-0.46533635;0.5133884;0.15801838;-1.6307149;-0.020243794;-0.0032680368;-0.78609675;0.015165453;2.2045631;1.5047776;-6.055372;-1.103056;-1.6922463;0.77416193;-0.8135961;-0.02431214;2.2376602;0.018303063;-0.029114764;-4.1096473;0.008056854;0.6128238;-1.7399902;0.022213962;-4.852295;-0.42647332;0.074029855;-0.48644426;-6.609462;-0.014805081;3.1207001;-5.02767;0.18290655;0.04400503;0.064169906;0.3422911;1.3895034;-0.0077552153;-0.021466764;0.42997682;-2.4477024;2.7843776;0.30581722;-1.7077682;0.43503365;-1.2357316;-2.9773202;-0.0047678202;-1.0440736;-0.015550728;4.575568;-2.0816476;0.025769386;-0.0019139881;-0.041759454;-1.2137282;0.49368164;2.372498;-2.1233127;0.9141528;0.097722985;-1.6173337;0.7542889;0.96290016;0.039348274;0.66779363;0.9450568;-0.008544823;-0.011819456;-2.4956539;1.1402714;-0.72233844;0.5249403;1.4244152;0.593653;-0.18005681;1.6811419;1.9828652;-0.13807163;1.1728861;-0.2474916;1.0945137;-0.059765473;0.7186051;0.41280264;-1.6125911;1.3142067;1.4879315;2.4115405;0.20416899;-2.2932189;0.0043543936;-1.4659628;-0.027054496;-0.017656619;0.37057576;-0.04496968;-0.4214085;0.0011996917;-11.88262;0.08872559;-1.7143457;0.026301473;-5.139084;-2.4515877;0.570433;-5.373114;2.7350223;-3.2881439;0.008240137;-1.0531698;-2.3621266;0.9708925;0.5540794;0.014292293;-0.004022286;-0.048510894;-1.1578223;-8.795349;-0.0044619073;0.027912257;-3.264678;0.021819381;-0.96865314;-3.2928143;-1.6643115;-0.9907734;0.06433283;-0.9890027;0.078494385;-3.2828484;0.022174407;-1.4919261;0.032599665;-3.0697708;-2.0183723;-0.9369322;-0.44609168;0.07393309;-0.025166808;0.051536974;0.5179796;0.00083585194;2.787829;-1.9874864;-1.7277756;-0.012776139;-0.04373316;-8.809104;1.5812658;2.6532435;-2.537843;-0.0015052769;0.1881316;-0.011459862;0.73383015;1.1977569;0.082336694;2.4119608;0.73960507;0.04931833;0.23516177;1.5601342;-5.3957953;1.9675261;-0.029063633;1.0054109;0.97604406;3.1398704;3.03797;-0.005397766;0.66951907;-0.0070336675;0.026666975;-0.0048416993;0.6091525;-0.00045689696;0.9859054;0.050167907;-1.6352401;2.423468;-0.7684805;-2.110501;-2.639238;2.4016323;-4.282085;0.023256963;-1.0315496;0.027967492;0.48057714;0.1322805;-1.046833;0.020482212;-0.4736836;0.20588571;2.147896;-4.2229548;1.1494651;0.42349976;0.9110735;0.38296673;0.25503105;-2.872663;-1.4268107;0.010366189;0.023387522;-0.005897456;-1.0045803;0.03080601;1.0130578;0.050965402;-2.9636412;0.004599295;-0.68992054;2.5791833;-1.5235702;0.00983751;1.8868128;-0.260935;0.06308244;-1.156986;-1.6922426;0.0029362768;-2.9431946;0.027123695;-0.092428416;0.028971754;-0.9514893;1.7115024;1.0467074;-2.2435305;-0.007888777;-0.62402374;-3.8138757;-0.42910144;0.0184151;-0.6869999;2.9473326;-8.659968;0.98587316;0.6512881;-1.5376016;-0.4558286;-4.7915306;2.8017983;0.06855699;1.3371816;-0.03157579;-2.0249739;-0.60453355;1.3695971;-0.843691;-0.38122457;-18.153189;-1.2909436;-1.5003712;1.4367527;0.6796937;-0.37135234;-2.9219348;-0.18933661;-7.372919;-7.4837313;-0.20475225;0.0064989547;-0.8331487;0.78451556;0.0051306775;-0.0009457381;0.05213248;-1.5422431;0.00912697;1.2672771;1.4040651;-4.5290027;2.7617147;0.046282127;-0.01842263;-8.578841;1.0133408;-0.1968877;-0.42919362;-0.016732374;2.07809;-2.171382;-13.376101;-0.31407636;0.39325288;1.0222892;0.006948746;-0.7672287;-2.6481457;0.008786116;0.21748197;-2.789845;0.061730172;-1.4318752;-0.026328038;-10.063759;0.34168994;0.015279029;0.049310096;-1.6572242;0.23731335;0.043309957;1.6112913;0.011070966;2.5660179;-0.008773182;-3.8141372;-0.9874741;0.8707898;-0.03533029;0.7420778;-0.064687006;-1.4618112;-4.3932753;-4.6577635;-5.1908784;2.433218;-1.5853133;0.038144898;1.1430268;0.068668105;0.008781543;0.29896024;0.91839147;0.013275081;-4.7617664;0.008404512;0.0192027;-0.023143027;2.331915;-0.061639953;2.0970855;0.005444189;-0.030724326;0.71795285;-3.8100836;-0.0024115;-1.3884469;-3.3528738;0.13683632;-1.5733618;-0.020244386;0.7111874;-0.24316138;-2.01405;-0.6024163;-4.3212943;-2.7097232;0.0074417093;-0.35813454;-1.0794367;0.5128155;-2.0871317;-3.98135;-0.54225385;0.00011817923;1.2731546;-0.642701;-0.01189913;-2.1141057;-0.51075464;1.1929747;0.0111131575;-0.045315925;0.725589
0.35996827;0.23890616;-1.5278525;1.6451781;0.025812969;-0.9043753;-1.6722366;-3.761962;-0.023240145;-5.0376496;-0.046108168;1.225397;2.6468658;0.41438955;0.9765383;-12.021381;-0.17188735;0.63255674;-0.049523298;1.1086442;-1.2318721;0.0035707403;-0.007128549;-2.1263797;-9.664184;-0.05542612;0.0060920278;1.7994957;-4.7070055;2.6983502;-1.5529653;-0.008821841;2.4516728;1.0380645;-3.0047565;3.9042773;-0.48264137;-6.7811265;-4.449803;4.529026;0.031827975;0.001295356;-2.935424;-0.37197036;-0.041973382;0.28410557;-0.04263996;-1.6849859;1.1607383;-0.030474419;0.030917201;2.4868262;0.1872475;0.006481044;-0.011468044;0.28998533;-0.004145413;-1.109519;4.469002;-1.5629666;-0.003942959;-2.9193444;-0.022926856;-2.3438818;-2.3208477;-3.2148297;-0.062026553;-1.802549;-3.066158;0.019089973;0.37339774;-0.0075661754;0.0071200198;-5.048712;-1.8652201;1.3899109;-0.036184955;-0.97983795;0.81546485;0.019801976;-0.008861785;1.3054053;0.16790283;0.40258992;-0.040900998;-1.2221023;1.0962442;0.030862596;0.006881189;0.010537596;-0.013493642;2.2450795;-0.88884354;0.29134527;0.41944522;-0.6914581;-1.2246102;-2.8011367;-2.8063867;-1.2610494;-0.01112163;0.19861689;-4.763533;0.0027124991;0.07203578;4.5647707;0.02646036;-0.7456132;-0.26739323;0.020799898;0.026723158;-3.6237216;2.4029102;0.28972858;-1.1081884;0.5959878;-0.15458582;1.3267142;0.03633116;1.4988722;-1.0485007;-0.0025402976;-0.018190522;-0.025368141;0.008225306;-0.01837019;2.5174532;-3.3895233;0.04516071;-1.8592702;2.3229806;-3.9055436;-0.04697934;-1.7343442;0.004314075;-3.3173037;0.97680587;-0.81616336;0.043787815;0.011236611;-1.6485208;2.2910695;-1.9197096;-2.3414445;0.0169951;-1.5818974;0.16526379;-0.00096188835;-0.52948093;-0.9025098;-0.028530657;0.6185439;-0.05715657;0.7782073;-0.014760129;0.020271199;-0.010868791;0.16769804;-2.5934358;0.36931625;1.0709122;-0.027381146;4.079281;0.02003135;-0.022698065;-6.092937;-2.3196037;-0.0135037135;-0.1025238;1.5301703;2.7822127;-0.11613972;0.0069377925;3.1321912;0.86598223;0.98729366;-0.03855364;0.06451044;1.4765518;0.007914145;0.042266186;0.94137263;-2.7245739;0.86704993;1.8901851;1.4022567;-0.34510168;4.4393206;-1.6455591;0.03696601;-6.4799514;0.025031552;-0.5853625;0.029983904;0.00070414296;-1.3116125;1.2127795;2.157683;2.9207492;-0.009404714;-0.56083876;-3.844189;-0.9181203;0.009737287;-0.85211736;-0.032220934;-0.34753594;-0.033583034;-0.27618772;0.7948952;0.022469193;-0.10385739;0.035608362;-0.01944093;-0.82267416;-0.025444109;-0.58019227;0.21611215;-3.3798378;-2.2139175;0.14051273;0.6278328;-1.5354452;-0.0026077144;2.0675986;0.0412015;0.0067970897;-3.7945373;0.08813967;-2.0063343;-1.0360264;0.028996922;-0.3204095;-0.012174708;-1.3625606;-1.5933135;-2.395094;0.016043065;0.040442817;4.296403;0.3851144;-0.088483736;-0.030115113;-0.35935757;-0.33013567;0.1014321;0.007560078;-0.41670108;0.024744056;2.2661037;-0.08736132;0.322795;-1.8792247;1.466006;0.002992729;0.15571514;-1.2313343;-0.036907792;5.424131;0.30177316;0.008485816;0.0055680783;2.316494;-2.7867708;0.06382927;0.18721086;-3.0916977;0.6347303;0.31417698;-1.3634609;1.4617484;1.0402844;0.018920263;-5.9365897;2.1948636;0.07901987;-0.029867582;-2.396292;-1.0766213;-3.6976128;0.0633771;-1.373294;-1.564892;-0.0955261;-0.2417443;1.2935286;-1.9058366;0.7263979;0.44005698;-0.5303889;0.01985626;-0.7433131;0.1956576;-0.72239804;-0.28878984;1.2080201;2.034423;-0.2949353;-0.11724628;0.008129733;1.2467285;0.0038644762;0.037065152;1.3033766;-0.028226867;-0.2979495;-0.022632195;-12.152916;-0.0020202291;1.1064415;0.027138766;-7.0803537;-3.1305058;-5.05618;-4.2575336;0.4190453;-0.37301642;-0.05025912;-1.7388122;1.4718556;3.1184466;-0.8016537;-0.16085288;0.029635984;-0.24970157;-0.79717374;-8.901435;-0.024405252;0.034576185;-5.922243;-0.0036265391;2.0274644;0.61180377;-2.551351;0.36929855;-0.0134379715;0.541836;0.01242742;0.011143118;-0.01818997;-0.7872444;0.08578752;-0.11372699;-0.1861726;-0.8868953;1.4667342;0.022047097;-0.017145477;0.010830849;1.0938822;-0.01085187;2.285913;-2.0717335;1.2000713;0.012835157;0.48155308;-8.797906;-1.0702573;-0.008768451;-3.072883;0.02070904;-0.15637566;-0.006890177;0.8831216;2.4026494;0.52156407;1.3986933;-2.2974002;0.18121792;0.7471122;0.7259431;-5.2020617;-1.7429538;0.01013491;2.0313594;0.3765359;1.1128576;1.9452304;-0.011376915;-0.84608686;0.011705981;0.011837941;0.028356796;1.036103;0.010624276;-0.97461253;0.01499159;-5.010434;4.176554;-0.5531279;-5.781122;-3.985955;2.134068;-4.478028;-0.016655937;-0.37209758;-0.0078739375;-5.6577487;-0.05560432;-3.0740368;0.067938484;-2.5471783;0.3229493;0.48691872;0.6884462;-2.9373488;0.7538226;2.7801487;-0.06622551;3.2510471;-3.4796667;0.3966908;0.04168996;-1.735932;-0.044596013;-3.100462;-0.032010812;1.6664133;-0.009579738;-0.21672818;-0.023911333;-0.7219335;1.960459;-0.27516147;-0.015630288;1.3059598;-0.90055496;-0.018738244;-1.271904;0.2896475;-0.007134343;-3.7677445;-0.00431263;0.026967905;-0.051653758;-1.5559874;2.196719;-1.1680102;-1.6998216;-0.011707204;-1.6409632;-1.2950183;-1.1283559;0.004836707;-0.74757516;4.850196;-2.5003448;-0.3453869;0.9940789;0.8958487;-0.9416048;-5.618234;3.2699735;-0.047795534;1.7197056;-0.019068088;-4.417669;-1.5807452;-0.7442585;0.9485151;0.09393044;-18.345682;-1.1363716;-2.3470469;3.0718224;3.6374788;-5.100717;-1.967151;0.6885091;-7.5809608;-6.1741014;0.74327415;0.006394817;0.069957815;0.65659136;0.08316523;0.012925784;0.067894116;-1.7735721;-0.00800374;0.9144162;0.86212575;0.5534512;2.009334;-0.03370644;0.021898797;-6.7526383;0.6700835;-0.5940982;-2.7735608;-0.038733512;2.1532779;-2.3621464;-13.4218;-2.5301714;0.8910437;0.02024545;0.088549756;-1.9328326;1.4735804;0.01481132;2.0125687;-2.4986885;-0.01678068;-3.1116982;0.023547502;-9.990513;0.1368509;0.03071685;0.03705819;-2.577117;-2.1869085;0.044907454;-0.92818;0.075722575;1.8213702;0.0616627;-4.2554846;-1.8033377;-0.95179;-0.3326851;0.26277766;0.021534821;-1.9695888;-2.9582345;-1.9428929;-5.0642786;1.4472194;-3.3720298;0.03164877;1.1478249;-0.037085712;0.0155173475;-0.19718239;-0.11381523;0.03152831;-3.359194;-0.03794032;-0.01015073;-3.9238672;1.6531545;0.019959697;-1.7247537;-0.011663471;-0.018555662;-0.30774242;-4.661961;0.029127859;-0.078625865;0.011768041;-0.047979433;0.7802312;0.008297052;-1.9039677;-0.77695197;-0.4643493;0.6067498;-3.942026;-1.1260484;0.01908342;-2.1160152;0.43056208;-1.6167701;-1.8484906;-3.477012;-4.58754;0.0015870138;2.190657;0.012811752;0.008775524;-2.0894506;3.1319816;0.9161205;-0.01973166;0.021136623;0.5560069
0.2617873;-1.417379;2.2932918;-0.111775875;-0.0061324206;0.13255498;2.1125066;0.013555067;0.026097205;-5.0238075;-0.006349505;1.3010403;3.0998518;0.5985364;0.33325854;-5.948197;-0.59496546;-4.433647;2.1097584;2.4856043;1.1932557;0.00978908;-2.4209044;-1.4197558;-3.2226546;0.056068294;-0.022409061;1.327703;-5.265302;2.6758404;-0.4995957;0.027892288;0.3389545;0.2383849;-1.2957368;2.6062198;0.62189317;-5.8764277;-4.0579724;4.8233547;0.02672757;-0.0072019272;2.303789;1.809596;0.03380739;-1.0229406;0.63590765;-2.893817;2.7211738;-0.039624076;0.0018930605;2.7630599;0.75340486;-0.0059764525;-0.004569076;2.9945633;0.0038377282;0.70310587;4.6140122;1.0179003;-0.02388815;-2.5148864;-0.014397589;-0.10758447;-2.3592408;-7.4052444;0.016228719;0.91950065;-1.7903218;0.017613884;-0.7954501;0.024764528;0.001977133;-4.4604096;-1.8860419;1.5449414;0.0574615;-0.5747635;1.2126122;0.0005638697;-0.020391561;-0.91081005;-1.5712847;1.5900394;0.0017328797;-1.4730729;-0.12622541;0.034384586;-0.033809643;0.018919583;0.04649529;2.8610182;0.19903058;1.4322305;-0.2796431;-2.252876;1.3345417;0.15785585;-0.6621447;1.9595796;-0.019107843;-2.5989938;-4.623248;-0.0026780735;1.8750479;3.780976;0.015554368;-2.5535977;0.18402065;-0.028549671;-0.5376971;-2.5803812;1.4981657;1.5257424;-3.736952;2.5103917;1.0702778;1.7211195;0.07866131;1.3797183;-1.5670496;-0.02738223;0.3327224;0.0101567665;-0.0033551771;-0.004249811;1.8623846;-4.8677;0.03496803;0.039316382;0.88622904;-1.95406;0.98375905;-1.2680148;-0.021768877;-0.66891825;1.5479832;-1.5275924;-0.161504;-0.020780737;0.78845197;1.0541152;-2.0543802;-0.24107166;0.017800078;-2.7127724;-3.8328028;0.043316644;-2.7848883;-0.32970938;0.023657726;-0.6518717;0.09014375;-0.2789211;-0.014950182;0.0042811856;-0.010555711;-3.2380185;1.4111077;2.5070324;-0.3950405;0.0069936095;4.19791;0.078497045;-0.013010392;-3.3135722;2.0123737;0.07616061;-0.99739534;0.59821945;4.2278786;-0.056571353;0.034875307;1.5452906;-2.967542;1.6189187;-0.032898765;-0.017855782;2.3229272;0.049619798;-0.002323662;1.6723369;0.06112283;1.0752134;-0.4479606;-0.15968154;2.2140574;5.1193066;-0.41752177;-0.048975866;-7.287999;-0.054473948;1.8680714;-0.02134985;0.037115656;1.0219253;-1.2765068;0.9621364;0.63821965;0.016468793;0.83656824;-4.2857056;1.0990287;0.0014625767;-1.3600463;-0.045281265;0.47130027;0.021403385;1.392219;-0.38422528;-0.25480163;1.4985905;-0.0059575774;0.042703595;-1.8159584;0.008824714;-1.240138;0.7778075;-3.0730007;-4.1648946;1.4167141;3.2781703;-2.9665859;0.063343175;-0.7255198;0.028785162;-0.0036011557;0.6862102;0.024234701;-1.7733941;-1.490032;0.0755071;1.9748646;-0.83209455;1.7219881;0.46344984;-1.4962094;-0.016893893;1.5890138;2.9768112;-0.7941263;-0.010743732;0.018875774;-0.10235619;1.8596692;0.32998806;-0.02837804;1.6799808;1.3076782;2.389162;0.009756106;1.4571804;-2.2461648;-3.1068122;-2.8260674;0.73215306;-2.9521344;-0.0030488682;4.7193704;-1.2399175;0.06838057;0.020855894;0.9892094;-1.3848327;-1.9381678;-0.3724495;-6.038195;1.703181;0.44005924;-1.9662123;0.9249578;1.6193427;0.026167024;-3.5817652;1.280783;-0.012672962;0.038087223;-3.5704923;-2.7464168;-0.71709794;0.40721804;-1.9000955;1.0260435;0.3816714;-0.030970626;0.48475873;0.12562884;1.4139078;1.8601996;0.065661214;0.014617716;1.0532261;-2.0808048;-1.2240565;-0.6178439;0.74176633;2.228311;0.3403167;-0.07005293;0.025024492;1.8116994;0.022661425;-0.037783727;2.3860593;0.006729549;0.28904653;0.02032034;-12.1681;0.006045796;0.8005973;0.0039434293;-5.6748343;-2.6299708;-1.6186941;-1.1353744;1.790762;-0.6986926;0.10455797;-0.7408072;1.5527672;2.3969328;-0.0019105416;2.402658;-0.02447811;0.9759705;2.1972468;-9.228907;2.3806097e-05;0.049592342;0.7017705;-0.0016840043;-0.6690962;-1.2176274;-3.6122804;-2.304227;0.050468963;0.061684396;-0.024915572;1.2696728;0.022885507;0.022528676;0.0014646257;-6.4599237;-3.6774912;-2.0384774;2.326212;0.044728547;0.007854945;0.023071831;0.7818577;-0.008639361;1.9956743;-1.125983;2.1000755;0.022282623;-0.6292553;-8.257894;1.5053904;1.7647958;-3.867427;0.022495858;-3.5957613;0.002857156;2.1571612;-0.42624217;0.4748221;1.4453017;2.652909;0.68124133;-1.471767;-0.54781;-4.5814424;1.4028275;-7.5185366e-05;1.168282;0.7537925;2.1289253;1.1088822;0.07126842;1.6216581;0.009668843;0.03022617;0.0056063132;-0.77559733;-0.008645587;-0.37539005;0.07260489;-3.0244033;-0.1869804;0.08302596;-2.1261125;-1.0699253;1.749705;-2.8737793;0.04133265;1.0019139;0.027685497;-6.654068;-0.06564018;-1.8050061;0.018938188;-2.0636847;1.9028368;-0.6831758;1.8276569;-4.8742585;0.65333766;-2.9606743;0.9337932;1.195581;0.71021384;-1.9383315;0.03321563;-3.7548184;-0.21102314;-0.9982394;0.0117064705;1.0047562;0.07683614;1.6788139;0.03976194;-0.6575321;2.1221356;-0.5883933;-0.023455637;1.5785156;-1.4175223;0.03413916;-2.5176055;0.034116715;0.01856241;-2.5258362;-0.07281212;0.22038268;-0.03722849;-1.2767261;2.5961437;-1.2951788;-3.505532;-0.030256746;1.2454345;2.4687605;-1.3467495;0.028849045;0.89998823;3.3448966;-0.5143815;-1.1051277;0.3559513;2.715857;-0.6339335;-2.176339;0.5383873;0.03880347;-1.3970845;-0.023883346;-2.8294053;1.6836101;-1.3064158;2.635524;0.3664525;-17.527565;-0.9049465;-1.865185;1.1871686;2.0609233;1.8342601;-1.8886126;-0.19293773;-8.006694;-5.97751;0.99549925;0.032623406;-2.3757756;-3.1823335;-0.017866492;0.02039543;-0.021704195;2.0510418;0.022621151;0.8780807;3.2963161;-0.8873222;0.74177486;0.013539752;-0.019640801;-1.4139041;2.4422326;-1.6916739;0.76032317;-0.017510358;-0.1562951;-0.44918332;-13.377127;-3.3274643;1.1157095;-1.677198;0.038126342;-1.9588655;-0.19847216;0.021085829;0.806814;0.17031857;0.049042933;1.5511408;-0.016355056;-9.03229;-0.0019889295;-0.03848172;0.02277489;-5.6534705;0.91874266;0.044529673;1.038522;-0.022372546;1.2348678;0.05366209;-2.1890795;0.68894565;-1.8440816;-0.6098603;-0.271785;0.026146263;-0.7344802;-4.991726;1.4265223;-4.5070896;2.1284325;-2.9967964;-0.0055214805;-0.0390714;0.27389237;0.016486056;1.7500885;0.30949745;0.0031354937;-0.5667092;0.035248235;0.008180865;-2.4332688;-1.8934591;0.003671016;0.7505645;-0.022246784;0.029375898;0.37117347;-1.4723201;0.018068612;-1.3167586;-0.33221963;-0.17006144;1.1009846;-0.010450703;1.5282856;-3.193377;-1.9460086;-2.0949826;-4.253529;3.7160892;-0.006953203;0.046903834;-0.83411884;-0.040221334;-1.9643335;-3.7979126;-3.815166;-0.059166465;2.8482347;-1.0730428;-0.014846055;-0.590088;1.7463232;3.6040363;-0.028208181;0.019057678;1.7778778
0.9593796;-1.226018;2.8498724;-3.2837062;0.048128426;-0.03528591;-0.6331496;1.9672151;0.019646225;-4.2423515;-0.027539348;1.0245572;3.068254;0.82931685;1.2795186;-2.2335176;-0.08187838;-3.207094;1.561235;1.6482482;0.32082745;0.009477203;-3.200106;1.6200454;1.3825396;-0.03551387;0.04131878;1.598239;-6.013634;1.693927;-1.069006;-0.0073710764;0.35893825;-2.1352568;-1.8992381;2.0257335;-0.21666993;-3.8505304;-4.186063;3.2984357;0.013674652;-0.017129766;4.798466;-0.42225423;0.0006394435;0.50015837;-0.15609619;-0.63201;-0.55700654;0.004086868;-0.018809516;0.123382166;1.3850579;-0.0006119129;-0.024706222;-1.3733002;-0.021055935;-1.7326839;4.2688165;-0.5326736;0.029964548;-5.3374496;0.07754602;-2.7021854;-4.8823347;-2.042209;-0.110918045;-7.1178937;0.3900506;-0.054986626;0.054597005;-0.008074974;0.009284941;-3.937827;-1.1703508;-0.040911034;0.035905346;-0.6917741;2.1510134;0.01642501;2.2449263e-05;-1.5203494;-0.6743548;0.16887836;0.0010016467;0.37006798;-2.1136405;0.03345078;-0.022673002;-0.007163588;-0.0001716237;1.614276;-2.1112638;2.017913;0.1747268;-1.1607112;0.217946;1.3959113;0.027137863;1.9915541;0.024929605;-2.3827586;-3.4535396;0.03784975;2.4273822;2.9225721;0.019755201;-0.9390523;0.096342385;0.007861415;-0.8373504;-2.7469342;1.8423351;-0.715211;-0.4186942;1.4634395;2.076956;1.6474688;-0.018451907;0.2862657;-1.1140269;0.14796396;0.43861932;-0.002134703;0.06466038;-0.0046571195;0.82710326;-4.286783;-0.0023472463;-0.37959278;1.3457485;0.21250902;0.06041183;-0.5582327;0.034613628;0.9766007;0.80525935;-0.6007974;0.59303725;0.118435785;-3.9461095;0.2551536;-0.89742523;-1.6033885;0.06412096;-3.1339216;-1.6419767;0.032620896;-0.7970894;0.9498083;-0.0001509599;-1.77347;0.05510258;-1.277913;0.042500872;0.023617402;0.015557787;-4.1389256;2.3781781;2.1260595;0.43894774;0.021781767;3.673517;0.02542616;-0.04472408;-4.8046517;3.4591558;0.02874283;-2.5314415;-1.6140118;0.85397893;-0.08503525;-0.010581499;0.5395739;-0.7482892;1.2784188;-0.027097423;0.026824677;-1.4205983;0.032944288;0.073038615;1.783404;1.1172259;1.2397445;0.29774612;0.6087857;2.6335297;4.43175;0.340425;-0.007691125;-7.353723;-0.010414609;1.3318381;-0.04806108;0.017380554;1.5582666;0.009898286;-1.3195299;-0.35932043;-0.005395649;1.6072315;-6.5699897;4.3073645;0.01191512;-0.34537113;-0.011902451;-4.0094366;0.024169425;1.0680656;0.74643004;-0.22982569;1.7812208;0.055053998;-0.017615587;-1.1834742;-0.00509615;-1.4550207;1.6481724;-0.9964791;-1.3323046;0.5904765;4.8001704;-0.3221334;-0.010544045;0.13651569;0.08158207;0.012950735;2.3592947;-0.021399911;0.98715293;-1.0578454;-0.006895349;-1.7227635;3.250631;-0.3456972;-1.309833;-3.9525003;0.013994446;1.1104432;2.9075692;0.8321165;-0.046104953;0.0018309928;0.5626912;-3.8606596;-0.1177737;-0.00926409;-1.351758;1.2023876;0.6639681;-0.0031954446;-0.9296216;-1.8328893;-4.4337044;-0.24149421;0.26485083;-6.1571264;-0.049803723;3.2556741;-4.537906;-0.009303122;0.04029895;0.08720508;3.4147453;0.38958752;0.9567809;-3.9853902;0.98607975;-0.28812936;-0.4344176;1.637772;0.43452817;0.12968437;0.057697486;2.5478783;0.034566328;0.015727812;-1.6704127;0.25351256;-0.25977176;1.2511258;-3.4204726;-2.0681868;0.23937893;1.130313;1.2947814;0.6567643;1.3021624;1.3800145;3.317207;0.003513765;-2.779116;-1.5426936;-3.337543;-0.57324547;-0.20060205;1.772228;-0.14850704;-1.5221851;0.01336726;1.6837903;0.028339747;0.038248073;1.4127518;0.019685837;-0.11567914;0.020517046;-12.142814;0.12066017;0.45785558;-0.018689627;-2.5220017;-1.1416733;-0.16458039;-1.9596508;0.2029241;0.37157983;0.016939191;-2.6645052;2.0394804;0.43018803;2.5664291;0.14840765;0.037792966;-0.15286532;2.596453;-9.987813;0.04092251;-0.003464338;3.6362133;-0.012503392;2.1880078;-0.12021727;-0.53753114;0.8843778;0.01151985;-1.0048057;0.011825279;0.0029886074;-0.01573836;1.7191739;-0.015230788;-3.748867;0.047597114;-2.7313728;1.69684;-0.0052725947;0.007859648;-0.007228788;0.33473322;-0.02746761;0.9943974;2.2751567;1.7910528;-0.02215272;1.9584051;-8.349432;0.4584499;-0.83359015;-5.0485554;-0.050895847;1.8330976;0.031147726;0.17878124;-1.3738508;2.6820273;0.31950077;0.526466;-0.3104347;-4.007181;-1.3243837;-2.2079043;2.1428242;0.05652472;1.6075181;-0.05759092;1.1570733;0.09552778;0.021852894;1.2902589;-0.030846218;-0.028283166;0.015350346;-2.6872976;0.10534769;2.44798;0.0022245345;-2.4975777;-4.087151;-1.1201166;-2.2578182;-5.0231776;1.6019377;-3.3210235;-0.025637897;1.7386317;-0.0050370637;-5.2407503;0.36288762;-0.84080344;0.031012619;-1.5987856;-0.50250715;1.1929018;-1.0907032;-3.663821;-0.8578115;-4.8721414;-0.92986417;3.5186038;3.3390634;-2.6123078;0.036914326;-2.1404483;0.66807634;2.023629;0.03409432;0.98104167;0.02829838;-0.023070164;-0.003422358;0.3637318;1.8772477;0.47697452;0.029076278;1.2220511;1.0854421;-0.016077546;-2.2281127;-0.3528349;0.00948991;-1.1420305;0.03600767;-0.11247871;0.0008378778;-2.2524238;0.08243323;-1.0328151;-2.092812;0.03053308;-1.065315;1.5311278;-1.7809794;0.01148092;1.1066394;0.31172374;0.99962497;-0.334046;1.0501447;1.6219435;0.9936397;-1.2434281;3.805788;-0.013001671;-3.1304245;-0.009717577;2.85523;0.8290472;0.8694833;1.0157725;-0.0183316;-17.262625;0.18258838;0.15884437;2.740426;-0.22710909;0.301963;-1.3416908;0.33777702;-8.1744;-6.4947886;0.89143217;0.030575689;1.0068808;0.01749203;0.0052309544;-0.044490833;0.021367896;1.367773;0.018733725;2.209364;4.8646646;0.79151195;1.2943205;0.09453674;0.03290675;-0.6111916;1.3576852;0.31612435;-2.5343282;0.0075287647;-1.0871729;-1.6904916;-13.408067;-1.5824181;-0.49876124;-1.6380733;0.018131211;-1.5886167;-1.457387;0.029458392;-0.3153469;1.3408315;0.107476324;-2.2142477;-0.040612355;-11.014495;-0.06632569;-0.017848415;0.030485228;-5.722986;0.076718934;0.043105472;1.7609835;0.058404505;1.6732618;0.013521051;-2.892769;1.25653;0.5246408;-1.9045447;0.66939616;-0.044853017;0.7153848;-2.9378772;0.28923947;-3.3474064;1.7792673;-3.2238114;0.027268067;0.88260895;0.0018527389;-0.05564278;-2.5853972;1.1355497;0.020782536;-0.88374084;-0.05594521;0.016631503;-3.8026004;-1.3762034;0.023248252;-2.1357799;0.017578078;0.08164678;-0.15685087;-2.5704877;0.008704173;3.0122464;-0.9638462;-0.20385914;0.25595322;0.05110297;1.3834046;-1.091838;-2.9334795;-2.444645;-4.2538466;1.172265;0.040536355;1.2447121;0.48993704;-0.010502844;-4.0802393;-2.9872987;-1.7679288;0.03604828;1.6840571;-0.22911923;0.0071513634;-1.2359978;1.8033949;1.3542571;0.029042648;0.04555701;0.1783026
1.53728;0.3902287;1.9753519;-5.454642;0.008801482;0.4815203;1.9642097;2.6192782;0.022147713;-3.5671332;0.72923905;2.4103422;0.8383217;1.3498983;-0.72331214;-2.4113936;-0.62366104;-2.3221784;1.5915096;2.7196739;-1.8818398;-0.071238756;-4.784507;0.90460163;1.8058676;0.047237825;-0.017043592;1.1355796;-6.7325215;0.90729874;-0.9798473;-0.04430322;1.0393448;-2.7210188;1.1570504;4.628125;-0.6756556;-1.3467059;-6.0311685;3.3374138;-0.018871572;0.009811996;1.947634;2.0525248;-0.09767296;1.3148412;-0.030683586;0.7432005;-5.27532;0.0045175822;0.019951558;1.0120654;-0.6120485;-0.021611257;0.05427417;-3.8386774;-0.0048281746;-0.07151399;4.8915997;1.5314751;-0.0047597243;-2.1299944;-0.009944254;1.366513;-0.4125318;-2.4724743;0.009990132;-5.783684;0.022599388;0.042553935;1.3368058;0.033972226;-0.08324634;-5.0331464;-1.962748;-0.3241272;0.05470738;-2.1041064;2.2253892;-0.0378696;0.2916932;-2.0832994;-0.14763866;-0.0985664;0.27279446;-2.0656164;-1.2333442;0.03485402;-0.016176792;-0.0815715;-0.032665692;0.18236312;0.016210353;1.917801;1.1714793;-3.027108;-0.047248118;-0.19920164;1.4970675;-0.02107846;-0.015426684;-2.220832;-2.3378818;0.030654682;0.92407775;2.6708028;-0.046482485;2.163796;-0.15794533;0.4892588;-0.45726854;-0.58162385;0.8385554;-3.257954;1.0840576;2.3660955;0.15005173;1.5709614;0.04086961;1.7568359;-1.4179673;-0.009928975;-0.5868845;0.014893313;-0.002165915;-0.02156389;4.9580464;-1.4022511;-0.0127013335;2.1087532;-0.050129946;-1.6049569;0.67642325;-2.3295374;0.0129124215;-2.592397;0.33084968;-0.24369605;-0.14504693;0.014767568;-3.693273;1.4430768;-2.0148652;2.216232;-0.024584534;-3.0385034;-0.88030547;0.055251885;0.09204203;0.77076167;0.039559886;-3.5664911;-0.043906283;2.2141068;-0.028307756;-0.0015656593;0.03706198;0.07015452;0.035858255;2.3543162;1.1665881;0.04312176;2.3260698;-0.0130126355;0.045122046;-3.560182;1.3908336;0.027334088;-0.6356355;-0.33844894;2.0986445;0.7972408;0.5318009;-3.383475;-0.56774855;0.3125455;0.04030169;-0.017110568;-0.92372483;-0.034803983;-0.04623757;0.37213206;1.8104599;-0.11241479;0.81833726;1.0624305;1.0444628;4.5505667;0.8361798;-0.059656765;-5.9147215;0.043911982;-2.8693123;-0.019232491;0.0432818;2.4713292;-1.5837708;-2.2410548;-1.5614847;-0.0048098057;1.8854607;-5.4107275;1.9623944;-0.030276706;-0.5146481;-0.01331023;-3.8999052;-0.01725742;0.39901388;1.3753778;0.13378733;0.04972765;0.030971132;-0.010512884;-0.47304165;0.041091044;-0.011805203;2.7965562;-3.8221345;-0.8471642;-0.011928332;0.4170999;0.20411618;-0.035551015;-1.3665999;-0.030537346;-0.0015381365;2.2771237;0.024270121;0.6792266;-1.4783585;0.015104196;-1.4790107;2.3868294;-0.8841411;-0.54061115;-1.4034631;0.047813747;-0.4891643;0.43369958;0.7192619;-0.07107171;-0.00032572987;-0.7866622;-1.3206044;0.03886296;0.009500876;-0.33384988;0.73316973;-1.0073248;0.008988687;-2.856036;-3.8219182;1.7028915;0.33863407;0.028713094;1.9395803;0.0020841374;2.9497507;-3.5127912;0.0455147;0.007782283;1.4717727;4.0543365;-0.33386135;1.9947705;-1.509355;1.6192353;0.95983833;-1.730494;2.9259627;-0.39521858;0.0045916103;0.3170205;2.0161278;0.05638478;0.04915712;-1.7539948;2.4226193;-0.26917002;1.411464;-5.448788;-3.2962365;2.9965596;0.35816884;0.4215258;0.5876202;2.0692918;-0.08609778;-0.5686228;0.035577647;1.6390572;-4.8140826;-2.3043196;-3.326173;-0.8060155;1.8247358;0.815075;-1.2050304;-0.0071659177;2.4190805;0.08686682;-0.021669425;2.5434508;-0.05564967;0.10867726;-0.030459205;-13.305037;-0.019911202;0.6739442;0.007320147;-0.8912517;2.1541138;0.6216205;0.49419102;1.159424;-1.7661225;0.045897137;2.9305267;1.1253546;0.2773284;0.1846068;-1.8597128;-0.020133995;0.19891046;0.95697874;-11.413988;0.008559265;0.051005904;2.1815007;0.011297556;0.8422953;1.3723303;-1.5223196;-1.2304476;0.07101229;2.909297;-0.009754226;-0.47680634;0.022452919;1.7653904;0.07936797;-1.8300488;-2.3194473;1.4204899;2.435522;0.01640788;0.02684671;0.0051859524;0.077225715;-0.0055472963;1.6238756;2.2748196;1.4725128;0.034733746;-0.12592174;-8.840047;0.84629875;-0.7497558;-6.171654;-0.21253538;-0.7147948;0.02663699;-2.0314963;1.7400289;2.5589416;-1.580893;-3.1216173;-0.24734733;-3.5692413;-0.7195315;-4.0619063;-2.46242;0.011396063;1.8405628;0.90040165;1.0304031;1.9973434;0.11234736;1.9313867;0.3931727;0.018869478;0.023331106;-3.334181;-0.019698009;1.7670633;0.07014954;0.52150804;-5.47999;-1.1886005;0.3602222;1.2397852;0.7213327;-0.8405467;0.04085529;1.8125868;0.081103265;-1.4096656;-0.054947868;-0.5824849;-0.004296985;2.681071;-0.2293694;-0.58848315;0.41684893;-4.0695744;2.0497386;-1.8601531;-1.1457155;2.4082527;-1.8281482;-1.3677328;0.012375151;0.19001584;-0.21223594;0.5674352;0.023872018;1.8052791;0.011858419;-0.5517564;0.0148022575;0.9332681;1.6619;-0.1909657;-0.01054403;1.3085912;0.4628061;0.4731739;-3.2972298;2.686981;-0.012495559;-3.720806;-0.044428237;-0.014446267;-0.063532315;-3.0136387;-3.3253431;-1.0840348;-1.0078324;0.041808005;2.3069937;0.9029478;0.28396;0.007764408;-3.963553;-0.84744394;-1.2144576;-1.1338091;1.4220135;3.0050461;0.87053293;0.2624065;1.2135137;-0.035454657;1.851182;-0.013758166;6.9102187;-2.1266181;-0.45286307;0.75017154;0.5816215;-13.522765;-1.3521836;-1.6063238;3.3948452;0.80233216;-0.016026897;-0.19930415;0.9768382;-4.3183823;-7.5208445;0.680171;-0.02350448;-0.7037714;-2.3927772;0.0014691692;0.08630888;0.019920297;0.78141457;-0.104072765;-0.44970226;0.023159992;-3.5601306;-2.7186258;0.06980968;-0.032945056;-2.7851686;2.7788088;-0.6000434;-3.694511;0.0053355647;-1.6148156;-1.2941093;-13.969164;-2.8014808;0.6460257;0.48714972;0.013088261;-0.9095037;0.9902964;0.028320592;0.18244599;-3.088763;-0.016733903;-2.1224222;0.7598723;-8.239099;0.1113395;-0.02432493;-0.008839502;-3.4832892;-7.0066295;0.022076754;0.848914;-0.01005409;0.6893446;-0.0104378285;1.486921;0.7096662;-0.27487162;-0.0684268;0.8321353;0.010381745;0.9398029;-1.6582779;0.3714651;-4.340251;0.6258586;-3.385103;-0.003204252;0.049588475;0.0025456792;-0.01227807;3.154231;2.8577998;0.020629732;-1.3769066;-0.012825349;0.012792306;-2.412761;0.72705996;-0.045520138;-4.906851;-0.006903063;-0.021685667;0.37029058;1.9244504;-0.03313409;1.4443169;1.7697757;-0.29911706;-2.5016694;-0.05060523;0.66624653;0.22006103;-5.5077133;-0.28673226;-0.5368215;0.42078346;-0.027542505;1.8533792;3.865598;-2.4792747;-3.5188906;-0.85987824;1.4452964;-0.008980925;2.2610352;2.46189;0.026930444;-0.3871386;0.044998795;2.5828867;-0.03589298;0.053380903;-2.6832564
4.460501;1.5921742;1.1354712;-2.9088178;0.019274428;-2.4000611;3.8313513;1.693282;-0.053504832;-0.071595564;-0.16797362;2.8162148;3.5974543;-0.9817041;-0.5484837;1.0848268;0.117556274;-0.10618641;-0.15081373;1.6089325;-0.91483957;0.28749827;-0.4910025;-0.05950986;2.147059;-0.00084504054;0.0064847395;1.265937;-6.9695187;1.8059533;0.18032825;0.042220328;0.5441173;-0.8090065;1.0080539;1.5336384;-4.0325756;-1.0292844;-7.197822;3.641772;0.016358206;0.019226197;-0.6117737;2.4614258;0.43356457;1.5019431;0.015662476;-0.4865252;-1.718096;-0.019084105;0.0351133;1.6566668;-0.25487438;-0.04200939;0.015401589;-2.061856;0.06290691;0.3553108;5.0341682;-0.98950946;0.0031651151;-1.6013943;0.051777806;-1.4525503;0.35236564;-4.953813;-0.22236723;-1.8754724;0.28650358;0.02038899;1.642747;-0.0048351097;0.33026764;-4.7866354;-0.7612942;1.4339801;0.0010325827;-2.143386;1.6514758;0.053836152;-0.0517224;-4.7827992;-0.0831896;-1.2055277;-0.018161412;1.3097403;1.7218184;0.00672514;-0.023583177;0.69997936;0.04964986;-1.2828128;-0.38775182;0.47969738;0.7690646;-1.0379008;0.20983578;0.7058937;1.7865769;-1.4109918;-0.042455953;-1.7484456;-0.50555265;0.018294422;-1.1246439;3.4110274;0.03384905;0.8105247;-0.1724511;-0.053952258;0.09722123;0.044284146;0.2754362;-0.8653374;-1.0723586;1.31728;-2.853724;1.5185664;-0.021365412;1.4594736;-1.019861;0.014464284;1.3537221;0.03127449;-0.03088308;0.05947911;1.2479441;-2.6620576;0.099287555;-2.0789626;-0.6600848;0.34221193;1.8129051;-1.2336315;0.011210312;-2.923345;-0.39571348;-3.2184186;-0.05773519;-0.009984698;-3.265407;0.7155349;-2.3757536;0.27287197;-0.005094578;-1.9048754;-2.4396136;0.008529341;3.9402995;2.2341635;0.004776345;0.7220508;-0.0013917201;-0.4667057;0.018801253;-0.0010577952;0.013938367;-0.5852754;-0.79430926;0.18216634;-0.06734792;0.04450051;-0.4882938;-0.0075508314;-0.015538997;-0.75163376;2.1820943;0.06482243;-1.0233518;-1.8666036;0.729797;0.49224415;-0.09791538;-4.2956567;-0.27663383;-0.16649099;-0.026218897;0.011275066;0.74558717;-0.0225964;0.42111373;0.3962931;1.8129855;-0.55740905;2.29023;1.7277977;0.039645456;3.702704;-0.7577402;0.0053542927;-5.390427;-0.022999158;-0.45791337;0.012716917;0.022247817;2.1458297;0.020795817;-2.6466112;0.28166103;-0.0122056315;0.55506647;-3.1844373;0.7260913;0.02376003;-4.393142;0.023369906;-4.074935;-0.011382247;1.9370073;1.1305233;0.21203785;-0.8258407;-0.021758594;0.01032046;-2.0999913;-0.022840878;-1.6992859;3.715899;-1.2607882;-1.3427209;-0.32892737;0.069505714;-1.7116065;0.028384248;1.9099741;0.019832924;0.018505793;1.60985;0.1521051;0.59272647;-1.0721921;-0.023473939;-2.321925;2.1902583;-0.69489795;0.3073563;-4.678394;0.014697547;-2.9328337;-0.15144669;1.4205433;0.08036411;0.016044132;-0.8130943;-0.26494756;0.5444161;0.06430718;1.2606113;5.7710233;1.2149624;-0.0040510846;-2.2968526;-5.764879;-0.99401796;-0.08780504;-0.11955244;0.022998124;0.0518044;2.4330919;1.3000064;0.013925928;0.026407842;0.87568367;1.1776816;-0.9332192;2.7848198;0.92387986;0.8959151;-0.30408195;-1.5449811;-2.1141012;-1.3073785;-0.032028303;0.35454395;3.7564878;-0.010998202;0.03234966;-3.522213;4.1832247;-1.173815;1.05664;-3.5390193;-0.24769473;2.4969506;0.6475846;1.9353791;-5.255496;2.4732158;1.4223711;-0.8168872;-0.021449514;2.2083836;-2.0040612;-1.3088582;-2.043135;0.24352615;1.5215021;-0.44193596;0.23993205;0.060416337;-2.8548505;0.0120387105;-0.053860847;2.8356771;0.05408383;0.056848437;0.026799472;-13.475994;0.0062017804;0.4634872;-0.09961721;-0.7202628;1.280421;0.2538851;-0.7917381;2.6263015;-1.0423236;0.065561615;2.8329196;0.3484207;2.7654853;-0.364416;0.20869078;0.017661639;-0.23007672;-0.22829553;-11.858365;-0.06657909;0.034082837;1.4138103;-0.010106981;0.51891345;0.27174303;-4.572223;2.1344187;-0.025270874;4.0410066;0.02486756;-2.4922771;-0.02277187;1.0274417;-0.03889126;-5.255338;-2.5540774;1.7112437;1.7182343;0.002059934;0.056553785;0.033797503;0.24500985;0.053223815;1.3987465;-0.46625754;-1.7222319;0.005093438;2.208938;-9.117491;0.75789386;-2.5720417;-6.290484;0.473724;-0.7459449;0.043564692;-1.6810831;1.9301975;2.945604;-1.5853642;-0.6026235;-0.39229786;1.1929835;-1.0883975;-5.4451833;-2.1313026;-0.012023563;2.1611738;-0.019066596;0.66945505;2.2928503;0.0078240195;2.3682146;-0.09382218;0.04041326;-0.037399;-3.5525334;0.04589564;2.106537;0.02532157;-4.279684;-2.193283;-0.5339477;4.447831;0.24998242;-0.10606204;-0.4649475;0.020670498;-0.10001341;0.019082846;0.6184158;-0.02264396;-4.6867495;0.07016116;0.28957966;2.8103137;1.4813561;1.1471539;-3.954829;1.4165024;-0.71824163;-0.48479527;1.2958195;1.2088604;-2.5150447;0.009186393;-0.6130634;-0.089508355;1.8297577;0.002494268;1.929284;0.08131651;-1.0111268;-0.053120967;0.43399727;1.5464288;0.6886767;0.062594235;1.2531073;2.4405785;-0.069718316;-4.7288446;2.8208268;0.05473546;-2.7505882;0.13234383;-0.07701983;-0.086531624;-3.3333294;-3.7779589;-1.8207815;-1.855185;-0.008573833;-0.43854997;0.75688094;2.614841;-0.008807553;-4.576636;-2.2121673;-5.4365554;1.5822282;1.7273244;3.574206;-1.0901474;-0.48870885;2.7324018;0.05682497;-0.004403638;0.049584273;3.0594754;2.503146;-2.069311;0.7748617;1.3327674;-7.026848;-3.219479;-0.24671513;1.2813169;0.4779611;-0.5079524;0.16491483;0.95211667;-1.8494788;-9.10766;-0.68694884;0.048392937;-3.3474414;-0.5397867;0.004247858;0.069178596;-0.0067690057;3.5538325;0.7358503;-1.4154265;-0.27016214;-2.1502054;-2.4121208;-0.025639394;0.021402998;1.5854539;1.1224984;0.39071885;-0.6139999;0.014563954;-1.7637504;-1.3515713;-13.179365;-0.561017;0.018050456;-0.5042565;0.024826044;-3.7458348;2.33293;0.0027997163;-1.4729311;-0.16566728;0.05564717;0.8653861;-0.17485407;0.0654359;0.030292893;0.015530598;0.047277186;-6.371547;-6.869333;-0.054244768;0.030097168;0.014207665;1.0698339;0.007121485;-0.37104008;0.8824851;-2.205859;-1.1157086;-0.6372814;0.03285356;0.9862646;-0.1597831;0.4940884;-3.3255272;0.15168963;-1.7136458;0.03599227;0.98905945;0.06685;-0.008693795;-6.8616533;-2.6517892;0.024437416;0.27463648;0.017474473;0.02919583;-2.971914;0.8400651;0.04847184;-4.101271;-0.039972883;-0.010642386;-0.48847145;-0.4461153;-0.009767257;-0.122851804;-4.1340995;-0.18187183;-0.80617815;0.011299837;3.9262269;1.7068629;-3.586799;-2.565157;-0.23412311;-1.1472012;0.03064144;0.9595254;0.83636457;-1.3671585;-1.1269482;-1.834678;0.5389466;-0.057058968;0.29196528;2.0950203;0.022618383;2.466889;1.3298333;4.1073174;0.039444853;-0.0024261454;-2.1390972
0.88740516;-2.0468569;-0.06386063;3.0425892;0.04466147;-1.4454038;1.4580362;2.898899;0.062051192;-7.026978;0.03131343;3.1305456;0.9916491;-3.2876005;-0.685875;0.8418031;-2.1012077;-2.2771857;1.316763;0.7018475;-0.3547781;-0.096055254;-0.627767;0.3569122;2.5704734;0.048182268;0.01712697;0.779202;-7.311024;1.89147;-0.72930187;-0.00077234907;0.07608743;-3.0327935;2.2846823;-2.7682505;-1.3414407;-2.5962093;-7.821915;4.4485574;0.030506257;0.028982542;0.33000782;-0.64773005;-0.14306289;1.0826892;-0.0034315446;-2.018931;0.08702718;0.024518967;0.013427639;-3.2824845;-0.83648807;0.004929066;-0.0046178927;-2.093161;0.076854475;-0.78950375;4.9183745;-0.9231691;0.051860202;-2.4530034;-0.028997816;-1.6414919;-1.9923011;-3.8994007;-0.23350294;-2.3237567;0.06903509;0.025020566;0.32494786;-0.02602922;-0.10178803;-7.1674747;2.9012315;-1.1571939;-0.05499344;-4.071058;-0.22387557;0.029971885;7.5376134e-05;1.0490032;-3.2131417;-2.0199327;0.019780347;-0.08776552;-0.5309823;0.014781096;0.011798543;-0.2744271;-0.0050249114;-0.91358006;0.9723381;1.4637023;0.51141876;0.18435118;-0.7619614;1.4750181;0.19412486;1.157953;0.62566465;-0.8601577;-2.6467366;0.0038484128;-4.293256;-0.17165484;-0.008132127;-3.6424813;-0.062317144;-0.0057285414;-1.4906123;-0.47977653;0.31379527;-2.6179142;1.5928292;1.700371;-1.6081843;3.291276;-0.01804297;-0.020930715;-2.1729882;0.029205436;1.4959362;0.0013609311;-0.027818758;-0.026658168;1.2237288;-2.1043863;0.011270208;-1.7249811;-0.035286974;0.11535625;-0.33215886;0.17783467;-0.017816588;-1.24227;0.05498693;0.6525457;0.053288296;0.046540912;-1.1533196;1.6389955;-2.4169157;-0.69152653;0.040658545;-2.7935228;-4.833043;0.013031594;3.311099;0.9096454;-0.066358045;0.481774;-0.24656352;0.37618044;-0.00033394783;0.022725252;-0.00979452;-3.3597794;-0.09014321;-1.8000784;-3.615895;0.083801456;-0.17439976;0.067022346;0.056763906;-2.993346;1.9159696;-0.030276347;0.64794654;-1.6629112;1.290365;-0.3773223;0.09135109;0.14721179;-0.29805374;-0.9973178;0.00494128;-0.0119234;-3.0576227;0.049591083;-0.12039192;-0.08914205;-3.0014188;-2.2498844;0.24272262;1.0455912;-1.4990921;3.848375;1.2509052;-0.02015861;-3.9561622;0.024964854;-2.41714;-0.10951333;0.00090299116;1.0408447;1.5790637;-2.234917;2.2700999;0.0070714313;-0.1686409;-1.6146998;1.535303;-0.010526883;-2.0259323;0.002985979;-4.442455;0.01723855;3.099335;0.009560692;-0.25918493;-0.16236132;0.026390377;-0.09439383;-4.352036;0.007029584;1.8679003;1.373756;-1.7656771;-0.9373321;0.73747194;-0.20374607;-4.9918623;0.0150019275;-0.6765226;0.022368476;-0.011855655;0.44278044;-0.060318783;0.9091727;-2.1939707;0.03075223;0.028262468;-1.3607082;-0.379666;1.0909597;-4.150652;-0.012219396;-0.67523205;1.9168465;1.8087778;-0.010031993;0.0031868133;-3.401625;-3.9303164;0.006564269;-0.025941093;1.7499797;4.0060635;1.8201816;0.017199514;-1.5388056;-4.4511;-1.8693777;1.2991433;0.5286733;-0.8140187;-0.032841463;2.9336102;1.343119;0.058178637;-0.0065455474;2.2273881;1.8511928;3.1415544;1.5105733;-3.139288;0.5264043;-0.9320064;-0.9190538;-2.6019354;-0.484386;-0.036718935;1.0929587;1.250874;0.017822908;-0.023254642;0.66435057;2.5912447;1.6940014;1.6710306;-6.8376;2.56313;1.3689585;2.3801637;-2.7433255;-4.2136674;0.5563155;2.665677;0.004768922;0.0068363547;-0.5846038;-2.1140683;-1.336738;-2.2664669;0.8730488;1.5017114;0.060213905;-2.027563;-0.011230407;-0.47272837;0.018564455;0.030605242;1.5861546;-0.006948451;-0.24037097;-0.026431026;-13.879653;-0.02512523;1.5770372;0.2582612;0.33479282;-1.1387635;-5.6108546;-0.6874532;-3.6439567;-2.7848728;-0.038893618;0.12792553;1.4770212;1.7065407;-0.8583408;3.6233172;-0.09699332;-0.27308643;1.6262774;-12.887706;0.04170936;-0.0033185526;1.4028054;-0.0014177866;-0.77172315;-0.3129329;-2.5510554;-1.9858385;0.07599253;2.4001796;0.019894965;-1.9901854;-0.0298379;1.2408986;-0.01686779;-7.7385836;0.25574514;1.9221684;2.3748271;-0.0054994733;-0.00010179125;-0.043635115;-0.2392365;0.04782819;1.150677;-4.76947;-3.1505861;0.002514185;-0.541997;-9.291282;2.5641375;0.9371226;-7.189538;-0.12400439;0.101933055;-0.006336816;0.46377784;0.8651191;3.1032782;-1.3722072;-1.0979022;0.36227092;2.4562595;0.7506844;-3.0032744;-2.349545;-0.04622098;1.0783249;-0.11720247;0.5790028;1.1107708;0.06261015;1.6541681;0.038526222;-0.015296912;-0.012643162;-2.3732684;0.0023741892;0.46116197;-0.03407518;-0.9884433;-0.89900196;1.9024255;-3.0792305;0.59182376;0.5213766;-0.9995819;-0.017862014;-1.4995266;0.01978673;1.371396;0.014830635;-6.9933863;-0.046176143;-1.2992523;0.9751733;0.8880655;1.6355762;-3.2245007;1.4769846;-1.0769231;0.10440598;0.41706276;3.6992428;-0.55914897;0.00034978153;-4.1140504;0.092770204;1.2965776;-0.06327286;1.3589766;0.07724831;-1.6773696;-0.06752931;2.0470057;1.4048724;1.2223829;0.058778297;0.6695563;1.5791662;-0.07080765;-1.8328807;0.174139;-0.03711293;-2.9320238;-0.020663047;0.35424992;-0.06388152;-3.1446178;-2.0323899;-1.0778407;-2.0598443;-0.004611556;-0.4809588;3.41779;2.6121137;0.016070602;-6.646786;-2.35928;-1.6754084;2.7232397;0.91847825;3.2294254;1.55913;1.2354797;2.189194;-0.04963573;0.071450375;0.061393853;3.0039003;1.3103919;0.3894399;1.5493282;-0.5178771;0.9055832;0.3810375;-0.4725437;2.1613128;-0.29653245;-0.062434442;-2.6181629;-0.5156519;-4.4913177;-9.325942;-0.28945827;0.022104405;-4.4157166;0.39274076;0.028500728;0.032402724;0.07726408;1.2848523;-0.3122985;1.1606969;-0.06680995;-1.6050551;-3.8770645;0.03142032;-0.02462701;0.63089156;-3.6563258;1.8864096;1.3206054;-0.0115999775;0.13099724;-2.9976761;-13.733767;2.0514448;0.6733353;-0.26777542;-0.01158443;-4.114534;1.9419142;0.036830954;0.91827554;-1.6522543;0.034262255;-0.14641832;0.030698221;-5.566874;0.05659925;-0.04263497;-0.00035111952;-2.2542;-2.8566377;-0.059718758;2.814979;0.07851242;1.018014;-0.005740872;-2.9872184;0.3586568;-0.8007243;-1.306814;-3.1271212;-0.04873703;1.3524368;-0.8520903;-0.8118521;-7.632421;1.3859547;-0.44341514;0.050596356;0.5593193;0.013141736;0.012831922;-3.1811454;2.5814128;0.010656916;-1.7662027;-0.055857856;-0.0012448613;-5.1673408;0.94231176;0.018100927;-4.4353824;0.010884064;-0.006167149;-0.079982415;-2.4450145;-0.10318898;0.49702367;-2.482271;0.10652067;-4.936154;-0.0024277843;1.1798007;-0.2844659;-0.8166135;-1.7096312;0.3337252;-0.08738409;0.04882096;-1.9606161;4.1502285;-1.2346096;-3.7701776;2.680973;-2.69002;0.006692651;0.5501366;0.5692504;0.0019778325;2.7612157;-2.986872;3.0914729;0.037197605;0.08994477;0.32492748
0.56677276;-3.4130607;-0.6204641;0.015938807;-0.027952697;-2.8275745;0.7121648;1.3204477;-0.117140934;-6.519606;-0.040078238;0.15686792;1.2540857;-3.619393;-0.50805664;-2.5462725;-2.84086;-3.310829;-3.2337737;2.5040104;-1.9704217;-0.059255116;-0.3371764;1.1657007;-0.33286908;-0.026314298;-0.0020559237;1.4102587;-6.9018335;2.37865;-2.726288;0.016941998;0.9360933;-0.95756817;-0.122487694;-1.8795087;-0.91376173;-4.3628807;-7.7557845;4.6486692;-0.07572326;0.011059553;-1.6545027;-0.73489124;-0.02918873;-1.6347271;-0.0044551655;0.3416442;1.1524897;0.024752162;-0.021131808;-3.1171978;-0.4719515;-0.009165838;0.05252664;3.8848221;0.010279145;-0.9511384;4.885946;-1.765448;0.014331131;-0.5140541;0.44952586;1.6716492;3.334578;-1.473021;0.7148777;-2.2263672;-0.35795006;-0.04290924;1.1962544;0.007723019;-0.004449371;-5.851528;-2.0898552;0.5898849;0.02528075;-0.059491176;-0.57355475;-0.010623575;0.1864139;1.0682405;-2.0018651;-0.227182;0.029964931;-1.0462577;3.3144376;0.014239904;-0.00086321053;-0.09542927;-0.009482837;-0.9948753;1.8534617;-1.9716398;3.4495604;0.7721542;-0.1734647;0.19059446;1.4134635;1.663371;-0.1544708;-2.4669988;-2.229609;0.05246192;-9.143479;-1.0563253;-0.025423223;-3.2333627;-0.44413394;-0.004947173;1.1536152;-0.42585275;-1.06555;-2.120066;-0.11228964;1.3606535;1.5126271;2.8733485;0.004166701;1.0712447;-1.496158;-0.03492162;-0.12237009;-0.008337375;0.003709716;-0.012619929;0.5215136;-0.29929906;0.01669343;-2.907726;-1.4929588;2.9608283;-1.9051101;0.56949085;-0.005004432;0.90526384;1.5103161;-0.9310854;-0.019563952;-0.0037247213;-1.3192501;1.1613786;-0.018358393;-2.2931535;0.008834676;-2.5472968;-6.492724;0.010890012;3.7580225;0.86256975;0.5384296;-1.8395197;-0.08608098;-1.1783056;0.0130299665;0.040686294;0.0015565591;-2.0101;0.61453253;-2.6148174;-1.55853;-0.02932231;-0.842365;-0.01466684;0.06874374;-6.651878;1.8735487;-0.03774094;-0.6106066;0.089641616;4.24179;-0.075081356;0.030406572;1.2639021;0.9463469;-1.5663116;-0.05357817;0.03800961;-3.398403;0.014162405;-0.05443073;-1.0503355;-3.2354753;-4.375291;-0.8847106;1.6264728;-1.198542;3.5809362;2.4371796;-0.0043483186;-3.6928642;-0.000475097;0.30540004;0.35235316;0.042345885;-1.8329214;1.9809661;-3.2631145;1.2260244;0.008552649;-1.4448891;0.73716664;1.2221515;-0.014312977;-4.4756317;0.018456198;1.6831075;-0.0139856655;0.5742138;0.44189447;-0.36989254;-0.53082824;-0.012567967;0.26640886;-5.692654;0.00418832;2.3875444;2.0302825;-1.110187;-5.319382;-3.3209906;0.4765252;-7.8473597;-0.027523814;1.8433685;0.017441116;-0.03164066;0.64503986;0.009349266;-0.5655724;-1.5620346;-0.031864922;0.17422338;1.6507581;-1.1005821;0.6370827;-2.44408;-0.014605621;-0.44477493;1.0820295;-0.5349192;0.05294125;0.056572977;-2.637912;-2.400341;0.064835876;0.08512594;-0.39093372;4.61473;0.67678696;-0.0045504645;-1.6300497;-0.62494487;-3.671538;1.3554966;-2.246177;1.4670911;-0.016126502;2.1602747;1.9096707;0.102880426;0.018351194;1.2459601;0.32791883;0.58004826;0.01666789;-1.1420918;1.3944309;-1.2183257;-1.3677015;1.8332292;0.30654687;0.01007435;0.25504977;2.3840759;-0.011344282;-0.019769;1.3073697;5.061227;3.4482682;0.6471032;-5.444454;-0.027912144;0.2759119;2.9352684;-0.9921628;-5.5976553;1.667021;3.9865305;-1.399191;0.03913624;-0.55981606;-1.9249392;0.16531326;1.220012;3.3720598;1.5417626;-0.04283438;-0.09596685;0.038641747;-1.5661303;0.0073672915;0.026029188;2.4741797;-0.00029203037;0.08976961;-0.014443776;-14.941979;-0.027629491;0.2590905;-0.07820599;2.6004071;0.5204432;-2.894642;0.3385636;-0.95569074;-3.9276562;0.028916288;1.1295822;-1.123123;0.5613192;-0.8065516;0.39705038;0.62646747;0.0730371;-1.0537872;-13.677978;0.0024877794;0.027934313;2.0516999;0.005232682;1.2030921;-1.1110237;-2.5736926;-0.82668066;-0.041533556;2.312659;-0.008371414;-4.258597;0.038653456;-0.8070918;0.054215875;-6.039017;0.7736426;-0.118449666;2.5505614;0.01740636;-0.02339104;0.045664143;-1.5225898;-0.020447027;1.2305541;0.15992305;-3.8379176;-0.020640256;-1.0469575;-8.487139;0.5048973;1.2718514;-7.100277;-0.029587608;-0.65622157;0.054192126;-1.8283826;0.4111226;3.8573647;-1.0884157;1.521481;-1.7210283;3.5042388;1.9403509;1.1963619;-2.8683324;-0.055264503;-1.3534269;1.6978457;1.0072781;1.9968874;0.049713787;-0.45424435;0.05409471;0.04447592;0.011700927;-1.2888509;-0.001636528;-2.0139923;0.036879577;-0.055870116;-1.6548445;-0.3001622;-0.109115966;-0.04593263;1.6666439;-2.8533125;0.010798242;0.8258628;0.0045974734;0.66878885;0.03254931;-9.143523;-0.027655212;-1.618225;-0.9403631;0.38870123;3.0220456;-0.5079386;0.76700723;1.2967126;1.0328645;0.110168666;1.471311;-3.966437;-0.023082001;-4.2995186;0.0037173533;0.44058937;-0.0052109617;1.5554628;0.008227596;1.4943883;0.8589708;3.9420285;1.5515275;-0.76615584;0.049294665;0.85936993;4.0345984;0.02109393;-1.6355325;-0.7937215;-0.012463718;-2.673327;0.028610371;-0.093811795;0.31557497;-3.0291758;-2.5172675;0.47625896;-2.6826649;-0.012547291;0.011185953;2.5519695;3.0476851;0.02505175;-5.52007;-2.9723754;-1.2272286;1.3313013;0.107888624;-0.53653413;2.8302407;2.3025086;3.06384;-0.0062540653;1.2541025;0.043878607;1.414893;-0.40532738;-3.292278;-0.30889773;-0.6461169;0.05838534;2.5383568;0.27961978;1.7896571;-0.77849805;-2.4451413;0.35123497;2.9741638;-8.189977;-10.408916;-1.4896406;0.009981326;-2.7680504;-0.666546;-0.012455795;-0.012001173;-0.028132891;2.7149851;-0.075287536;-4.4067974;0.7263234;-1.3698039;-3.2797954;-0.0021100042;0.015410725;1.4238677;-0.6855373;1.0437502;1.9128201;-0.0071695712;-0.80927783;-1.6876565;-14.171712;1.3186324;-0.90944254;-1.0307591;0.06536662;-2.01164;3.1610253;0.004046926;0.48881987;0.17751305;0.0031496838;1.7811365;-0.03227754;-0.1843378;0.1659286;0.0033199845;0.033701304;-1.2306416;-2.1375713;0.022937477;1.761867;-0.028454902;1.7737324;-0.0032508194;-2.1580486;0.17458412;1.4267468;-2.099624;-3.6868818;0.06147639;2.8775828;1.0388161;-4.515474;-7.1604843;1.2260405;-0.70659953;0.019279832;1.2549682;-0.044323374;0.043941583;-4.5254955;0.30760166;0.0106306;-3.3517323;-0.05915431;0.027616195;-8.007599;-2.1253119;-0.04925523;-5.080144;0.00936965;0.009772599;0.48469248;-6.1418943;0.52419686;-2.3513644;-0.9613366;1.3471622;-3.2627006;0.014389129;2.0416405;1.4580222;-1.760401;-0.32134774;1.2875482;2.2676573;0.010663591;-1.6199548;0.3811198;0.18367033;-4.993152;-1.478043;-0.5826373;0.014967581;1.5002606;1.802237;-0.005294571;1.5334951;-1.9932166;1.1322595;0.06727972;0.039460573;2.1335223
-0.5852989;-0.8510084;-1.8895495;0.08632324;0.012466969;-2.7063372;-1.8217779;-0.013421502;0.68404937;-3.673982;-0.06106715;-0.50658154;1.4908408;1.6449212;-1.9407623;3.2672882;-3.319015;-3.4480808;-0.787602;0.7843741;-3.4248195;0.017516429;-5.254256;1.4622838;0.37020087;-0.016293112;0.02090093;2.3059034;-6.0347013;0.73892254;-5.094993;0.048247356;0.0247795;0.01656946;3.210141;2.5957298;-0.85786396;-0.50172883;-7.904367;3.8435857;0.0036763502;0.025127482;0.478599;-0.39146528;0.07756458;-1.081305;0.0049316054;1.0194153;-0.39041737;0.03175925;-0.014115784;-1.9843156;-2.7260442;0.014520284;-0.0331222;-0.078924924;-0.009525365;-0.40901372;4.6881943;-1.7690914;-0.06278709;-2.1149018;-0.076326065;0.8163824;-0.13056718;-1.0235825;0.312154;-0.50710404;1.477579;0.013286631;-0.39591765;0.004790262;0.003589976;-7.2505946;0.8703042;-0.38755527;0.004742026;0.028799968;1.1928322;0.06997367;-0.118692935;-1.4938773;-1.1535043;-0.83780444;-0.0463662;-0.058436345;1.1121497;0.052198634;0.021724386;-0.028253641;-0.010207225;-0.34999305;2.0551913;-0.9127618;3.8759952;-1.795835;0.109765224;-0.6222607;0.86156774;-1.2046051;-0.021938004;-5.6153445;-3.1326504;-0.04107633;-7.274841;1.3208787;0.06562344;1.5631586;0.05812711;-0.038753703;0.92256105;0.7246322;-0.09653535;0.903433;-1.4652195;3.1569679;4.3847995;0.9200249;0.09786455;-0.6005691;-2.3636944;0.00387255;3.7622368;-0.045048;-0.02830944;0.02669574;1.6994462;0.16338295;0.009851524;-0.57259125;-3.4852228;-3.7999594;-2.0624132;-1.6855612;0.005985255;1.050063;0.19790703;0.52198917;-0.024775637;0.02801119;0.4463564;2.1571362;0.85203946;-2.3473887;-0.033487387;-0.39907536;3.254849;0.011582041;3.3551795;-1.2698454;-0.112183906;1.8458536;-0.038883664;0.912862;0.0104161985;-0.036894135;0.06403738;-5.1450963;1.8982618;-0.44894;0.8876115;-0.05604804;0.84762967;0.108999334;0.0011771884;0.49408606;-3.1700213;-0.017968534;0.9315623;0.47964764;3.0484357;-0.03138638;-0.07198668;-3.0521483;-2.5085628;-0.35435048;0.061498575;0.015817119;0.6937012;0.002224176;0.015905697;-0.7352802;-2.0794342;-2.497185;-0.14033593;0.26111403;-0.7236724;2.1920447;1.7984449;0.041448865;-4.2496333;0.036230795;1.4762467;-0.12510705;-0.0023726025;-1.8517487;2.9080207;-2.0100713;1.379213;-0.010138296;-1.2103255;1.2919312;-0.4811433;0.074852705;-2.1407194;0.016788488;-0.25370848;0.009605474;-0.3564486;2.710533;0.2593357;-1.671856;-0.02924368;0.03058598;-2.8144333;0.011841134;-1.7873203;4.926974;-1.3581443;0.027578535;-2.423518;-0.33744654;-2.728178;0.0004737599;1.0251967;-0.017399978;-0.012977622;-3.4676828;0.013104748;0.1252804;-2.3137207;0.06516838;-1.636245;2.143925;-2.081205;-0.48675153;-1.1125003;-0.017790874;0.29553068;1.6227647;0.37619063;-0.104636334;-0.0484325;-1.6706741;-2.6034906;0.13390088;-0.037460815;-0.4946306;4.0536203;-3.4079566;0.02821703;-5.8691087;-4.477873;-1.8753386;-0.7825373;-7.656844;-0.08391027;-0.009904208;1.5542865;2.3943162;0.012974927;0.026754115;0.9170331;2.3090384;-0.12213389;-1.4111125;-1.0563253;1.2227052;1.0888929;-0.33275357;4.2240186;0.94527376;0.04633164;2.2129862;2.610675;0.0031992074;-0.04694771;0.4224185;0.5311939;3.1856363;-0.7681712;-3.7016554;-0.7481909;1.3109759;0.76409316;-1.119039;-2.9747703;1.0257484;2.8370125;-2.3925292;-0.007502025;0.82291365;-3.0232213;-0.0703313;-0.02371927;3.6501498;1.7980245;0.0855308;-0.10161553;9.617193e-05;0.9463876;0.013554259;-0.005500612;0.6590305;-0.024760703;-0.108793534;-0.086175054;-12.816896;-0.009670681;-4.4562535;0.035809163;-0.26312715;-0.08237436;-3.6716413;0.8295837;-0.48901105;-2.9087582;-0.09104458;2.8279905;1.6803842;0.46372372;1.5625912;1.5825543;-0.06930322;0.53486073;1.3246397;-12.029568;0.040159214;0.0035045333;6.865057;-0.020073816;3.642938;-2.4412396;-2.1067817;2.532949;-0.08011003;2.7970319;0.013726786;-2.8641615;-0.0628226;1.403118;-0.016393906;-3.7753413;-0.7707797;-0.52040076;2.9290373;0.023646407;0.077671245;0.014446195;-0.17201936;-0.04030494;-2.7302568;1.9620001;-1.9548981;-0.023526506;1.5625101;-5.4346156;1.7766815;4.5447316;-6.766596;-0.05362532;1.441474;0.020068785;-1.9149557;0.26382616;2.44649;0.18303557;0.5588077;1.2613262;0.24522626;2.6934056;0.02891156;-0.5547797;0.08249096;-0.025282513;0.7627228;2.99122;0.25090504;0.03488317;-3.230576;-0.04772179;0.011479067;-0.023481386;0.015889496;0.037158195;-2.1788335;-0.009066088;-0.61686754;-0.973532;-1.3046;-4.219994;1.0888402;0.5841516;-3.0853746;0.01840735;-1.09563;0.03806683;1.1140811;0.01779491;-9.122786;0.011243534;-2.6777482;-1.1885523;-1.5955853;-0.11727928;2.8317442;0.32805443;-2.0768392;1.0886296;1.5569267;0.29137656;-2.1381388;0.016561452;-1.5570709;-0.05641546;-0.47423804;0.031702794;0.4491788;0.020915955;0.55000716;-0.1791071;3.6627438;1.8659118;-1.2925677;0.032084577;1.5670972;2.4479227;0.0017493803;-4.135254;-1.0728825;-0.0018536595;-0.5481219;-0.038300965;0.18726395;0.47649318;-0.9165725;0.14548868;-0.7045029;-1.0846317;-0.009327815;-1.8460444;-0.39035732;-2.8484628;-0.016988575;-5.098488;-2.293105;-0.8523156;0.115856856;0.20271868;2.9698186;2.9737077;1.0825688;1.154782;-0.010858127;0.22826573;0.011533776;2.8683467;-2.7789826;-4.493995;0.08255994;2.0940697;-0.29939526;0.727613;1.9830322;2.376895;-1.1965256;0.9311488;-0.27037165;-2.4302738;-4.3753;-8.536291;-1.1926345;0.013429795;0.49842763;-1.4037349;-0.027947553;-0.06394488;-0.011048422;2.5540483;0.010998612;2.5435603;0.2863344;-0.43047082;-3.5124264;-0.076947436;-0.012420449;-0.12218169;0.004625733;0.4656189;1.3596321;0.02703209;-2.2202432;-2.5829768;-12.781661;2.803165;0.41306284;-1.5465745;0.015718136;-1.1031042;4.3828816;-0.019447297;2.7057416;0.03979318;-0.018073682;2.7909117;-0.022594694;-1.1555911;0.44979304;0.08014698;0.035259742;-1.7952034;0.84795105;-0.005300997;1.4611305;0.04377628;2.2508676;0.015209378;0.31581682;3.0450478;1.0512004;-3.6570334;0.88149446;-0.032493614;2.7508209;-1.7306243;-5.785182;-5.561722;0.3211409;-2.5122547;-0.011604337;0.7428279;0.05031557;-0.0060179476;-2.05154;-0.060707923;0.029119842;0.8114273;0.48589584;-0.011605534;-7.248349;-4.7239337;-0.00052442163;-5.3846107;-0.012219695;-0.025498612;-0.50780463;-3.2845173;-0.09359587;-1.0880042;0.7822864;-0.11222854;-2.47266;0.0010742191;1.7071482;0.20122428;-2.8313863;-2.1889389;-0.06863377;-2.7298076;0.02098907;2.662963;-0.20194092;0.9489544;-1.4447979;-1.2860955;1.7488867;0.026501076;2.438595;0.65327895;0.0018233235;-0.41962093;-1.8979883;-1.7280757;0.037130464;0.011791247;-0.8606456
1.4472213;-1.80575;0.17832394;3.385608;-0.0024460442;-1.4775331;1.1378797;0.030902663;-0.11364864;-3.3639312;0.00046029853;2.021074;0.23820919;-1.2800394;-1.8816289;-1.2970014;0.21375866;1.5000494;0.45902312;2.6042695;-0.3628729;-0.044227272;-3.2967598;-0.5017771;-0.32595578;0.024003653;-0.007940413;1.4802674;-6.7457104;1.4367089;-5.1921306;-0.02953021;0.6231888;-2.1760306;2.6818304;2.2815776;1.2109597;-4.081936;-3.340022;4.0034885;0.0034124819;0.01441653;2.6245177;0.359689;-0.11219367;-1.1211802;-0.009721647;1.4843127;-3.0438786;-0.029031675;-0.0032844248;-1.0264008;0.9682662;-0.051062495;0.04297455;-0.38889742;-0.021513855;1.0092566;4.9165792;0.14750595;0.007176712;0.79850864;-0.031315323;-1.5150999;-3.0053403;-3.0476758;0.15985899;2.4526854;1.5213273;-0.0022306035;0.2714592;0.03282469;-0.037782773;-9.251134;0.05619348;-1.5656184;-0.033928875;0.35203612;1.4517171;0.0084676305;0.01416245;0.07281293;-2.4120996;-2.6932716;-0.027220877;-0.6450635;1.7975357;0.007465988;0.0061792657;0.004148396;1.2524102e-05;0.8266476;3.5500891;-2.3778;-3.5428154;-2.4018853;-0.39981064;1.4832249;1.3631464;-1.1155508;0.015407366;3.4829679;-3.7410977;0.0043781293;0.8837759;-2.8013327;-0.026174271;5.5027313;0.20275797;-0.044477858;-0.2467364;4.1924376;-0.061486002;0.90735614;-1.8145763;2.27137;-1.0671498;2.4317002;0.025660973;4.451074;-2.5368476;-0.05945249;-0.763391;0.011604225;0.017907685;-0.024250168;3.5945845;-5.189704;-0.0116362125;2.4329364;-1.8603567;0.18186042;-0.79018015;-0.4707351;0.0047803423;1.8055973;3.5969083;0.8721205;-0.009822068;0.021246739;-2.0220516;1.1108809;0.035534173;-2.5096595;0.05042957;-2.5560615;1.9391906;-0.025970958;1.4632654;2.7889485;-0.080238394;-1.1040863;0.18199396;-4.0060587;-0.02404007;-0.028550575;0.021014903;-2.1096041;-0.036245517;-0.9682179;1.0804572;0.088286534;1.7147405;-0.038476877;-0.030901471;1.5092266;-0.06565725;-0.025516989;-1.5648235;-0.39682677;1.338354;-0.10044322;0.008496323;-0.42905208;-2.8759918;-2.0309248;-0.09878048;-0.008770007;-0.7147072;0.007807846;-0.0042765946;-0.21230543;-4.616445;-3.2491243;1.2915535;-3.4684613;-2.8995657;2.1451008;2.017657;-0.004826709;1.1643417;0.04553925;0.8618774;-0.06109629;0.006765747;0.06623511;-1.7016366;-6.137236;-3.5026214;0.02906738;1.3067954;-1.0537513;0.50795037;-0.03146879;-1.7628717;-0.03499226;-0.09294663;-0.032416236;0.08662935;1.1792119;0.1994749;-4.6314697;-0.060850084;-0.058572046;-3.3359432;0.008606266;-2.6428685;4.378709;0.015839051;-0.64952;-2.5334098;-1.4614656;-2.4391203;-0.02627666;-1.1128294;0.057334162;-0.018578926;-1.2900565;0.012023863;-1.9862453;-2.5415208;-0.027459702;-0.15795594;1.6891402;-3.2499154;2.1865933;0.5931374;-0.0042352704;2.8479195;-2.5790603;2.2373686;0.59084916;-0.0037285225;-2.0156026;1.1035329;-0.16845573;0.007282834;-0.18783394;0.5497563;-3.3026285;0.021209748;-2.1787062;-0.66284734;-6.6779184;0.113977596;-12.307079;-0.45530182;-0.0063577457;1.8821864;0.8324985;-0.030685322;-0.003933879;1.187718;-0.5215507;-1.7376776;3.221388;-1.3841617;0.70471096;1.2149334;-1.3942821;-0.6292645;-0.70208454;-0.0002826829;-1.4982955;3.0928445;-0.007271314;0.02685644;-1.5124427;1.0497432;2.512101;-0.31051722;0.15365952;0.002413764;1.7411984;2.208422;1.0718185;-2.7324164;1.552511;1.498595;-1.7320698;-0.024005102;-0.22331385;-1.6894139;2.1797838;0.6673928;3.6556444;1.8301479;-0.12317122;1.0777649;-0.0109700095;1.0516466;0.017942019;0.045833625;0.6640432;0.014820553;1.1351227;-0.11977167;-14.409503;0.02666481;-2.0018373;-0.03287049;-0.015054595;2.0672388;0.78023815;-1.8044168;3.1723158;-3.4582403;0.25754473;2.0553277;-0.17944862;2.3634443;1.7324635;3.659836;-0.046282843;0.12112263;1.3350981;-12.424449;0.004242707;2.0259231e-05;1.9310042;-0.02368586;-5.0645657;-2.1820946;-3.1588984;1.6468029;0.07428973;0.20675425;-0.046290018;-1.2942194;-0.032146994;-1.0155625;-0.0076231603;-5.364792;-4.331159;0.008059555;3.7371728;0.017191732;-0.03306668;0.017644681;0.25441253;-0.016077882;0.5169392;0.55610996;-1.8025378;-0.0038960623;0.7404058;-4.885473;2.3667338;0.49249792;-8.220904;-0.08770806;0.3825964;0.02446121;1.6614656;0.51397794;3.639674;-1.3258787;2.062188;-0.26528567;0.23422733;2.7700725;-1.4487308;-1.832002;-0.009220472;0.9164289;1.2438914;2.4159825;1.8787321;-0.04836991;-2.2273748;-0.016449431;0.030788023;-0.020451153;1.9111656;-0.025025003;-4.978479;-0.004683343;1.9214001;4.465658;-1.5434182;0.2844097;-0.064300194;0.1500946;-2.1152668;0.000978997;1.2184128;0.029899672;0.8907899;0.03673494;-9.292877;-0.0063273907;0.8109495;-0.2852486;-1.2959365;0.22268972;1.9575374;0.64762074;-1.3361195;-0.5663722;-0.53227454;-2.762968;0.13049813;-0.09681079;-0.5281539;-0.0009862407;0.47137523;0.016077807;1.2243496;-0.037206408;-2.3613145;-0.030157715;1.2559323;1.9358394;1.2403456;0.06044647;1.5737725;4.9847946;-0.055301685;-5.239671;-2.232055;0.0046638786;0.2735608;0.05815809;0.034097116;-0.07974008;0.044194408;1.4370626;-0.029830694;0.53479624;0.030465074;-0.96803445;0.7578352;-1.7395798;-0.023592733;-3.1145346;-1.6535505;-0.27738363;2.655394;2.7620823;2.396987;-1.1334531;0.85140276;0.18472087;-0.05982794;-1.429647;0.033554226;0.98687613;-2.2968156;-3.7677555;4.2467666;0.09380266;1.089756;0.7340998;1.6577363;1.8821754;2.0136425;-2.1744678;0.831099;2.8579211;-7.9938183;-8.581501;0.974181;-0.021750692;1.776506;-0.22817321;-0.0135039445;0.010971403;-0.05598802;2.3594458;-0.041689787;-1.0219696;1.4888812;-0.24304508;0.66332793;-0.025900124;0.0040722257;1.0555091;0.029690092;-0.6762347;-1.2545674;-0.00990945;2.4100504;-2.6138906;-11.415804;2.666629;1.1874874;-1.9525485;-0.018145695;-2.2854035;-0.24045075;-0.052553385;0.22730598;-0.05696982;0.02100947;1.84381;-0.013573285;1.2560782;0.5703094;-0.03169636;-0.0024503863;-2.8920429;-1.8284097;0.007865789;-0.42326555;0.014619526;0.075890265;-0.008570874;-0.5022877;1.3545455;-2.9379492;-5.2517753;-3.3518908;0.006491898;0.62924755;-0.81311995;-1.9805413;-6.639836;0.23236175;-2.3877633;0.014418032;-2.355109;-0.04262879;-0.020520834;-4.5429616;-0.5932946;-0.027964959;-2.3497655;-0.15281764;0.018335672;-2.6346865;-2.448657;-0.009752744;1.1917782;0.034095097;0.033345792;1.8438674;0.97350407;-0.023114454;-1.1303083;-1.0857122;-0.058691945;-0.49645242;0.0010115373;-1.8244021;-1.3677295;-2.8366344;0.0007533417;-1.1861569;-1.2214005;-0.010530077;2.9824684;0.3227373;0.7939502;-2.4422464;-0.19667526;-2.5012577;0.022947475;0.7484256;-0.91668564;0.016527448;0.8379749;-2.5646076;1.5334502;0.03711129;0.004951243;2.2956023
2.295416;-1.1841081;3.6796222;-0.11686762;-0.042050578;-0.1563332;1.5997902;0.040601727;-0.045439225;-3.1193917;-0.0014276585;-0.4713268;-0.992046;-0.11802996;-1.9198558;0.07281344;0.95181334;0.7781221;-0.7052594;4.242126;0.87604785;0.022574978;-1.0772363;0.46881884;0.31310424;0.067977004;-0.012570582;0.6417452;-6.7839813;0.13871655;-7.75389;0.04223873;-0.43061367;-1.0977616;-0.8159271;-2.60171;-1.7574819;-2.2998087;-4.2880287;3.0482993;0.019638624;0.04839454;0.30022663;-2.8303795;0.022375617;0.48712382;-0.00013336787;-1.5577383;1.0371908;0.041781995;0.014369769;-0.4954138;-0.33300683;-0.005106703;-0.033214185;-1.7378683;-0.025946489;-1.2306446;4.432885;0.86967134;0.026617909;0.1268238;0.026071873;0.36544618;-1.5663854;-4.301758;0.3337703;2.6892238;0.24862024;-0.015825821;-2.0217283;-0.0098114805;-0.031131677;-6.4592032;-2.116964;-1.5432202;0.024054626;-3.0933564;0.29516712;-0.01876519;0.06541144;-0.12536433;-3.8991969;-0.44119373;-0.038100973;-3.1618128;0.3925061;-0.0081389425;0.020157088;-0.022259617;0.025258904;-0.6156212;3.591521;-2.4882824;-8.124615;0.15082023;-2.6022747;1.2872119;-3.1868517;2.3546271;-0.009612973;-2.301725;-5.6220207;-0.010424129;-1.631158;-1.664051;0.01219258;0.8675073;-0.2880779;0.034955584;1.517752;2.4484098;-0.21511616;-1.9866028;-2.5485504;-0.20247875;1.3815331;1.0895736;0.050149128;-1.7054324;-2.5776267;-0.14867477;-0.2468076;0.07057772;-0.015203331;0.015035562;3.7086532;-6.036742;0.0004949079;-0.65437853;-0.6602834;2.328056;0.7558608;-1.0616397;0.019842606;0.20873833;0.6002025;-4.0287266;-0.034488946;0.021583922;-3.5077813;2.2623417;-0.74743176;-5.714285;-0.021263676;-2.8874476;-0.08984955;0.039190445;3.3695354;3.131304;-0.006602879;-2.004733;0.07617645;1.2424265;-0.014018802;-0.015313605;0.02865293;-6.4550405;2.3971343;-0.8149609;1.1383494;0.057134833;4.521285;0.041159544;0.0389998;0.9396228;-1.2024938;-0.0058766156;0.14546221;0.83085316;1.0327241;0.077260934;-0.0071864305;-1.7123094;-2.8252635;-0.8010047;0.07737462;-0.0021174157;-1.1563201;-0.0049606585;-0.053426385;1.2634768;-2.3934956;-0.5080469;1.919099;-1.4439379;-1.6722598;1.1127335;0.06635796;0.01366521;-1.3431436;-0.0073604113;3.0666087;-0.027961899;0.003968811;-0.57771826;-0.92010844;-2.7194638;0.03739434;-0.027233023;3.6088483;-1.8636314;1.5186744;-0.100194305;-2.3201692;0.036347345;0.3169776;0.031271182;-0.19167411;-1.973796;0.7712584;-5.339594;0.0434543;0.0051338375;-1.3891338;-0.03283667;-1.2744862;2.2914279;-1.4932026;0.27354676;-1.9786689;2.3577847;0.8197729;0.019266857;-2.3832922;0.0108660245;-0.005706693;2.4665744;0.0038540184;1.4599373;-2.6239185;-0.020673772;-1.2269601;0.683438;-0.9739119;0.48745462;2.9520078;0.05321204;-1.6766464;-2.6404302;-0.17609596;-0.13237672;0.046850957;-0.3352963;1.853834;-0.14425199;0.025677487;-0.47760293;-0.03444834;-0.7477024;0.019483987;-1.6541206;-0.5007935;-1.6122142;0.5592593;-12.987652;0.3168633;-0.019338582;1.0939059;1.5702041;0.0648104;0.0052635805;-0.1401663;-0.3305306;-2.9307153;0.009070071;-2.365784;-0.7495937;1.3599734;-1.1505305;-0.6515845;-1.2374928;-0.021058226;-3.9034595;1.0096029;0.018086785;-0.0012392512;-2.9316583;0.052367687;1.0944661;1.5633209;-0.63182634;-2.598592;0.78029066;0.19318183;0.9157664;2.4592187;2.0856614;1.0926927;-1.1095531;0.04266376;-0.034629893;-3.1940918;0.82207495;-1.1042932;2.4748828;1.61903;0.014212373;0.24241371;-0.010772018;1.5115833;0.0070649213;-0.006740606;2.9484777;-0.008908129;-1.6629318;0.6323407;-13.229729;-0.024591904;-2.1435256;0.05350391;-0.668499;1.9731143;-4.186215;3.05112;-0.8271004;-3.0304632;-0.07331804;1.426305;0.007006207;1.221803;2.8129258;0.9348001;-0.013314179;-0.07104005;-0.049663637;-12.536403;-0.0075134546;-0.00042631154;1.8050777;0.105453104;-1.179061;-1.761411;-0.35730425;3.1405368;-0.0029890335;3.8851;0.010243929;-1.4013878;-0.06490514;2.8766608;0.018992102;-3.5134246;-1.3656482;1.7831908;3.5003943;-0.024833228;0.0023396292;0.045907002;1.3970697;0.0435951;-0.0889295;-2.2587962;-3.5959153;0.04253815;0.8340258;-6.620836;1.7924052;1.0365634;-8.050662;0.127598;1.563778;-0.014233766;2.395359;-1.9512428;2.5387888;0.18992324;-2.4720008;-0.12926565;1.7214705;1.2838827;-1.3240324;0.6839085;0.0019357052;2.0605667;2.126193;1.0001419;2.2412615;0.084858306;-0.086046316;-0.008720476;-0.011867526;0.0053927037;1.849817;0.024046106;0.21436034;-0.009451761;2.3345182;2.2356148;0.90877306;-1.5219117;0.68480307;0.55347806;-1.4532741;-0.036039796;0.5060453;0.020697046;0.36298254;0.052021336;-1.5334682;-0.026806375;3.0074558;0.421587;-1.4003756;-1.0698911;2.9180567;1.5337635;2.5933268;-1.0140526;-1.2668806;1.6690446;1.4227749;0.019219879;2.9040096;0.01350054;-0.8412091;0.028940074;2.562615;0.013612622;-0.43227962;-0.054981895;1.8987116;1.5656095;-4.570593;-0.00039413443;1.5473088;3.3054957;0.044306844;-3.3749433;-1.0300478;-0.0045796097;3.0163002;0.009556509;-0.08513536;-0.048929684;-3.407663;-0.0045212223;3.4956727;-0.3508866;-0.025254415;-0.8114743;1.9849592;0.8049328;0.006241914;-0.25793967;-2.5883882;0.81826514;0.71718687;-1.2391788;4.121184;0.8399484;0.0833001;-0.18688269;-0.005192525;-0.5319202;0.023857558;-1.1195741;0.63361776;-1.3225582;2.7344987;-2.0429235;-0.12557249;2.9777765;2.4288487;4.1254916;0.7465743;-0.4372284;0.8887805;-0.82065153;-2.180978;-9.404517;1.4980415;0.015504179;-1.7101253;-1.4896874;-0.011507612;-0.04863627;0.035318617;-1.244646;0.025328035;-1.3397355;1.08361;0.71930814;0.012375296;-0.1331952;-0.00031295064;-4.7853003;-3.3685722;-1.6788472;-1.5442647;0.0053050695;1.167256;-2.2923057;-8.518106;1.9086049;2.2706609;-2.158093;-0.00059353735;0.7710211;-0.043773964;0.044545203;-0.44459036;1.3464848;0.037127443;1.248672;0.019904457;3.4879658;-0.5296751;0.05061474;-0.008564306;-1.6184242;-2.6762717;-0.015410559;-2.3236933;0.021780768;0.16103338;0.031584777;-2.7596362;3.3973353;-1.6771687;-4.5820293;-0.33166578;-0.050423417;0.15796907;-0.8929687;-2.5776155;-7.5771284;0.26116657;-1.1621048;-0.035739552;-0.120400466;0.028016092;0.02001448;1.7568636;-0.24098974;0.021370143;-1.3524382;-0.021881914;0.011688702;-0.2597206;-1.5715408;-0.00013082294;0.7020532;-0.0045361347;0.00040129974;0.30037537;-1.3395323;0.024642626;1.3525419;0.5167929;0.15210488;-1.1600127;0.040356588;-2.7535093;-2.8877177;1.2745535;-1.3060064;-1.0274724;-2.8030055;-0.018444614;0.4828816;0.80919445;1.6936572;-2.4659483;-0.32504907;-0.5045603;-0.018737854;0.0718709;-0.50609744;0.013251046;-2.015517;2.5791848;1.358945;-0.0036110182;-0.011208631;0.99809724
1.9384644;0.056816477;2.9538112;0.13735569;0.0076182005;-0.6671483;0.50078595;1.9920808;-0.0379706;-0.5854827;-0.025596773;2.0870261;1.268015;0.568957;1.1367011;-0.22868131;-1.5549159;0.38231367;-0.45447353;2.0252235;0.6723551;0.030575246;1.7949783;-0.9184003;-2.543981;-0.032495257;-0.011307042;2.9126847;-6.7997007;-0.82303673;-2.9763632;-0.029245043;-3.692079;-0.8310992;1.4915568;0.69103914;-6.7362533;-3.1001427;-7.0192113;2.6629367;-0.047334153;-0.05593772;1.4612732;-5.054275;-0.021673286;0.3023068;0.061086953;-1.6444649;-2.8977246;0.02057303;-0.011286782;0.7478392;-0.8156473;-0.0004898521;0.019425739;-1.2273668;-0.0038135855;-1.1691636;3.4595973;-1.5018426;-0.007999222;-0.2950447;-0.0074596386;-1.2315283;1.9181552;-3.7906122;0.19074968;2.2428315;1.1138238;-0.013525716;-1.8490663;-0.049870435;0.038783338;-4.679567;0.31238097;0.5129409;0.009731689;-0.06448409;-1.2038171;-0.023510003;-0.024105195;-0.91515493;-4.9902444;-3.05819;-0.00609914;-1.6668468;-0.2603179;-0.018146662;-0.007707314;0.0056921886;0.01698834;0.74422234;2.3798113;-3.4914227;-5.1766353;0.6507718;-0.011973522;1.128505;-0.8020307;1.7332668;-0.003280262;0.4917018;-4.8581395;-0.020526538;0.280216;-0.030602772;-0.00566366;0.40746698;0.20587717;-0.03196039;2.326732;-0.80809116;0.657672;0.96032;-1.6932473;0.42189944;5.289842;1.3210299;0.0521443;-0.6940025;-2.8407233;0.32490405;0.53348976;0.007979785;-0.025952166;-0.040021718;-2.8461342;-4.517746;-0.03309002;-1.3740687;-0.18108615;1.8576924;-1.7647393;-2.4424372;-0.014484286;-0.13754185;0.21830861;1.1049867;-0.0041152267;-0.021657985;2.0779188;-0.41731948;0.23553514;-0.423558;0.030445926;-2.9359808;-1.354384;-0.022865564;1.0426414;-0.07684773;0.00080577837;2.3626914;-0.05975712;-0.17076433;0.009879397;-0.02768287;-0.040528502;-2.3682911;-1.1965535;-1.6672003;0.6059169;0.026214786;0.98473346;-0.028923169;0.015242006;0.65018696;-1.7174134;-0.00730297;-0.31424454;-0.22650851;2.4445987;-0.18125734;-0.053278513;-2.9830308;-2.7833269;-0.867543;-0.0405966;0.07731596;1.0441952;0.0018780804;-0.028631294;0.69257164;-3.2153742;1.5359721;-1.6771429;-1.7932243;-2.1598835;0.5060347;0.33932588;-0.013140476;-0.26008603;-0.010598486;0.21948604;-0.07117739;-0.0061598965;-0.21982875;-3.99645;-2.7144117;-1.8895311;0.008443506;0.07163799;-1.2219388;1.6592396;0.044533744;-0.075956486;-0.017045476;1.81074;0.03500028;-0.4512914;1.1612779;-0.1792196;-5.832455;-0.017783282;-0.0060798097;-2.7307324;0.008778883;-0.97850716;0.6309491;-2.3964326;1.8121854;1.8152411;3.1797867;-0.4777882;-0.007837514;-1.6615578;-0.0017482751;-0.015881145;0.39070898;0.0016108615;-3.8881674;-2.7352195;0.074272595;-2.7425487;0.9294296;-4.3158283;0.9392726;0.70118356;0.0018311678;-1.1228539;1.5925915;3.1993604;0.03637317;-0.014773033;-0.4342802;1.4946835;-0.01630271;-0.015247519;0.7516136;1.4496524;-1.5525007;-0.003289923;-0.58733594;-2.1545947;-1.341395;0.075586714;-12.747548;0.5233201;-0.021546002;1.5650443;1.2549644;-0.05541865;-0.022280054;-1.6165413;0.21810374;-2.3892515;-2.2058291;-3.1637037;0.69066346;1.0019476;0.19135447;0.393702;-0.88142854;-0.02881436;-4.237434;-0.22370663;-0.045943677;0.028953997;-0.9436719;-0.58403635;1.8479383;1.1584897;-0.30242932;-1.433379;0.49618798;0.58199793;-0.5236944;0.89704126;1.2925225;-0.9214978;-2.1539657;0.014712682;1.75234;-1.8844174;-1.2646356;1.4057021;0.74180454;1.5157558;0.01940412;2.041609;0.022049969;1.8702595;0.05172842;0.047399294;2.2897627;0.039214924;-4.337588;-0.17847326;-12.336387;0.038072165;-1.1227758;0.014356641;1.0434815;-1.3430439;-4.355873;1.3933183;-0.49735177;-4.542481;0.030305779;2.034258;0.19235775;-0.2887813;0.07363922;1.8335084;-0.026040794;-0.46851444;0.65624475;-12.1707735;-0.009236549;-0.031340394;2.941417;-0.070677795;-2.9378662;-0.8229946;-0.37555364;0.98713547;-0.06412517;2.6616385;0.023126118;-3.443772;0.069033824;2.3346999;-0.053166144;-5.8664227;0.24426094;1.4217408;3.3673098;-0.051463988;-0.008816467;-0.023555456;-1.0780317;-0.056978602;1.9623086;-1.1213369;-1.9204636;-0.02234902;-0.6443981;-6.4990625;3.6748257;0.1321358;-7.4226775;0.15241188;1.4063152;-0.008778633;0.5378681;-2.785684;1.7807182;1.2949352;-1.3597189;0.3825094;1.9592147;-0.66113716;-1.704897;1.6307211;0.01425303;-0.19128509;1.7255787;2.3381126;1.9182228;-0.058704257;-0.44362393;0.021209383;0.0032629592;-0.020265765;-1.6129096;0.0012331296;-1.0682346;-0.050486732;1.0949663;2.2835627;2.274289;-0.19537301;2.955996;2.7744467;-1.1418271;0.045492284;-1.0220699;-0.01967361;-2.294325;-0.06301124;-2.2470624;-0.01868656;1.9711667;0.048752613;-0.6934314;-0.45442492;0.08601966;0.5377306;0.148492;-0.3456348;-1.5801225;2.496871;2.0011816;0.011897226;-0.7768378;-0.016871851;-1.5952727;0.031193214;-1.1867694;-0.0272876;-2.3699305;-0.039085533;0.16003285;1.5229781;-3.0790102;-0.02653385;1.4152342;0.010799832;-0.11093286;-1.1213703;0.06461588;-0.03984319;4.5579715;0.019163927;0.10493669;-0.021880044;2.7821193;0.4519497;2.4816766;-3.3438933;0.050458003;1.0876054;0.8363239;1.6579857;0.00365906;-0.8621708;-0.47099268;1.3718762;-0.043100934;-0.91323525;-0.17509378;1.8388861;0.5180509;2.406686;-0.011881451;-0.4519136;-0.027188927;2.2266529;-0.46719208;0.71753114;0.3992103;1.290963;0.62512934;1.5764256;0.40399787;-4.549329;0.4745661;-1.690705;0.9817133;0.5071655;-4.28605;-9.338392;1.1415994;-0.025250131;0.9495208;1.6821717;-0.10206196;-0.018292813;-0.042636883;3.6611106;0.005452375;-1.1691756;1.2451313;1.581911;-1.3391167;0.4129719;-0.026634613;-4.7398715;-0.5718838;-1.3174775;-2.239121;-0.011710471;-0.77197367;-0.49244913;-2.0927641;3.1422288;0.8503645;-5.7368455;-0.026122982;-2.6266458;1.2809846;-0.055649944;4.894484;1.2668464;-0.00071251026;4.004108;0.032679882;3.1623647;0.18176648;-0.037238408;0.009806912;-0.30107212;-1.8732319;0.04146338;-2.6781967;0.032846384;2.10427;0.003044656;-1.9745064;-1.1884965;0.8044719;-3.1588283;-0.71627325;0.034044724;0.7125112;-0.9669413;-2.3613853;-7.3694363;1.8545051;-4.2044816;-0.013201565;2.2548788;-0.01152361;0.00096981914;-0.6959681;-1.13826;-0.007970204;-0.27670464;-0.047713358;0.021395776;-1.8677089;-5.0133905;-0.123297535;-0.7091367;0.023158628;0.007373873;-0.47051498;-4.82316;-0.076005034;1.9519266;1.5737159;-0.53444225;1.2709707;0.023304056;1.0506779;-0.703075;1.0702021;-2.0148027;-1.2086072;-2.119772;0.006088015;-1.1119133;0.93370277;0.82729155;-2.2924469;-0.69387114;-1.390563;0.03767458;-0.78043735;-0.036768887;0.0017778567;0.28867266;1.1463692;-0.75454694;0.0146045135;-0.021997744;1.2995889
2.6025352;-6.4534316;2.6919003;0.07779627;-0.04182396;-1.1478225;2.7080972;0.77760845;-0.041968025;0.14325564;0.022212796;2.4914756;2.0419335;-0.0045278813;0.81230587;0.24655856;1.8617343;-1.4238883;-2.1054928;1.1555674;-0.9968366;-0.05764201;3.022229;-2.6895676;0.15142503;-0.019702395;0.026925175;2.8973534;-6.773817;0.40015137;-2.6289942;0.0002501098;-5.5343127;-3.3862183;-0.9992149;0.8529968;-3.8895748;-0.24408264;-5.8947153;3.2578826;0.015127113;0.047744807;-2.6414042;-1.5627725;-0.026066916;-3.1031349;0.05235814;-0.047201872;2.010563;0.02422451;0.024562275;-0.83130085;-1.7420819;-0.014102084;0.02211691;2.5967603;-0.0008368947;-0.21891949;3.598533;-2.4504187;-0.014435277;-0.9126009;0.02236843;1.6334193;1.8804051;-4.9914875;-0.40301132;0.86997783;0.48641977;0.004105965;-0.40364027;0.030354692;-0.06314665;-2.5024946;2.7626207;-1.2860187;0.0059539974;-0.015773341;-2.5130098;-0.047646597;0.0019394644;-0.65962386;-4.386513;-3.376097;-0.014590089;-0.8968868;-1.2289187;0.026930822;0.0035001305;0.01846637;0.00793523;-1.247912;2.2517502;-0.90435594;-6.9753275;0.5541398;0.2551477;0.11768178;0.43636373;3.0161028;-0.04830974;2.25671;-5.134395;0.007207777;2.0815206;-0.61714935;0.03902554;0.10556302;-0.10360768;0.027167503;-0.41836694;0.3613914;0.19921379;-1.8474227;1.7634214;-0.35610053;-2.2444313;0.8734488;0.103434615;2.0675125;-2.813949;-0.08210944;-4.3467207;-0.020943161;0.0773264;-0.015041603;-0.85729873;-3.119847;0.042863455;-1.3723571;-1.426407;-2.4588785;2.1570392;-2.1100342;-0.018173557;1.6877615;0.14114992;-6.1140413;0.0072242673;-0.07719349;0.9412904;1.8039007;-1.1443732;-1.0219247;0.05153258;-4.0079103;1.5530839;-0.0028022113;3.7294967;0.12381004;0.02744321;-2.1059852;0.18063587;-2.277684;-0.009181126;-0.024106551;-0.0073665194;0.66050303;0.3221281;0.39491254;0.11481854;0.073134854;1.7234777;-0.052392434;-0.014493275;-0.52255696;-0.2001877;0.063755944;1.8947018;4.461715;0.46705964;0.11641876;0.022914765;-2.0384562;-2.694495;-0.042249493;-0.019807473;0.08274686;-2.3154988;-0.012599806;-0.011924702;1.7794356;-1.8346016;-2.6780183;0.7595305;-1.9140027;-3.5606766;0.9125985;0.17386703;0.0147591885;-1.4946653;-0.0064187543;0.5071194;-0.0036592588;0.06090505;-2.4999006;-6.0648212;0.9988785;-4.114658;0.018697662;1.60599;-1.9379244;0.032469276;-0.049325176;0.5810459;-0.01173319;0.60694927;0.02840417;0.283071;0.99328923;0.017265761;-8.4677725;0.009771218;0.0113590835;-1.8845412;-0.017270992;0.12347023;1.8051203;-0.43111223;-0.6935805;-0.74510884;1.206475;-0.8205147;0.019549036;-1.6597886;0.030692575;-0.037843335;2.0568116;0.028656373;-3.0558279;-2.8024378;0.03701363;-1.3849263;1.5637347;-3.684995;2.665111;-1.4719713;0.013650339;-0.14428328;0.22762941;1.4593233;-0.010386338;0.041913867;0.122577794;1.7642144;0.1046731;0.021164048;0.1679552;-2.3448343;0.22166061;0.005718411;-0.9747432;-1.7565998;-1.3214152;1.0481309;-12.671972;0.23394151;0.016262297;2.0518258;2.1440582;0.016261697;0.031686425;2.9298308;-0.70846444;-1.551051;-0.29750538;-1.8221697;1.3498856;1.4659907;-4.3824286;1.549098;1.4732459;0.065839164;-3.6615286;2.7644267;0.026908765;-0.027691875;-0.34781945;2.119511;0.5127056;0.8227194;-2.2329135;1.8589426;1.0259755;-1.2330087;-0.06544495;1.4555036;-1.9769661;0.086356424;-0.6696167;-0.016184274;-0.740485;0.7758345;-1.1212946;2.2891111;3.4070663;1.6806223;-0.035262175;-0.07575997;-0.011732196;0.26132;-0.017026398;-0.04600822;3.227186;-0.0065568653;-6.8661447;-0.013392139;-12.244095;0.046668176;-1.492389;0.005049994;2.166122;0.2383462;-6.3598685;0.8444572;0.4075839;-2.071498;-0.05646996;-0.87184566;-0.864812;0.6358486;-1.9048421;2.8213165;0.027940016;-0.3455688;1.6549796;-11.653532;0.0477973;0.04094343;-2.4972563;-0.0035149178;2.2254775;-2.3597295;0.22051443;3.4564354;-0.028261313;-0.79400134;-0.053379733;0.7757095;0.023637597;3.3376434;-0.024554914;-4.652142;1.0335242;-1.4712512;3.677621;0.023126034;0.009504659;-0.02403788;1.9588687;0.04387388;1.5153716;-4.308142;-2.5189495;0.026204012;2.1449504;-6.887553;-1.3779303;-3.2800496;-7.9136333;0.023852458;1.0818605;0.027051507;0.044586387;-1.6921884;-0.33111688;0.5806202;-0.43277755;-0.98686856;1.7175188;-1.4694798;-1.6093957;-1.6462885;-0.016289927;-1.3451955;1.587019;2.8514314;3.1281893;0.009348304;-0.6328917;0.012837124;-0.019053873;0.03620944;-0.39425874;0.029902296;-1.4308425;0.003899979;1.4666235;1.3127888;-2.3468294;-3.2051055;3.2244012;0.78892606;-2.9790864;0.024028277;-0.23603947;0.019837344;-0.2685728;0.08241897;2.1787236;-0.02927493;2.3713927;0.1713105;-0.17735547;-0.22310948;2.701647;-0.3760356;-2.0674157;1.2719293;0.8838866;5.5862207;1.0155157;-0.037934605;-0.63350874;-0.044575084;-1.7839873;-0.042673133;1.7021252;-0.013960084;-0.66153497;-0.028160958;0.90406716;1.613786;-2.0503423;0.040047146;1.7026182;2.6147153;-0.13451445;-1.0917878;-0.44970033;-0.10366222;0.5428525;0.06240348;0.12652574;0.008816698;-0.401327;-0.9981563;0.41220683;-1.3113327;0.023126353;1.308813;-4.085171;0.76099014;-3.3137727e-05;-1.7983359;0.42260364;-2.371327;2.9914002;-1.3706055;-1.629293;0.8564273;-0.36103332;1.5640814;-0.05335823;2.004372;-0.0057920506;0.89139754;1.8005705;-0.38723043;2.0693798;1.6424252;0.2622642;2.8020608;0.42244786;-1.9485186;0.79503065;-0.6625753;-1.26602;-2.6447759;-6.6367774;-9.329688;-4.276178;0.045233775;-0.9871201;-2.49886;0.5963671;0.037006743;0.018016653;3.456947;-0.023984117;-1.5975292;-0.064775445;1.7314274;2.4089997;-0.113257475;0.020721907;-4.648383;-3.892511;-0.12190217;-2.9284022;0.039471865;-2.067687;0.47304413;0.5712417;3.3625987;1.9246353;-4.7576175;-0.007621063;-4.84618;1.377101;0.093831666;4.142777;0.36721286;0.020646477;3.2558486;0.015066413;-0.8248663;0.297482;0.013166409;0.04106191;-0.80941856;-0.8824215;0.0060679284;-2.4975872;0.002973411;3.250534;0.021202533;-0.6080992;1.9589798;-0.33347708;-1.5785733;-0.57137245;0.025810564;1.9559447;-2.129801;1.1428913;-7.5031257;0.8075075;-3.2659898;-0.03085414;0.045565043;-0.034679305;-0.021376058;0.29437366;-1.6710343;0.05979142;-0.9216924;-0.024867015;-0.039125815;-1.5304543;-3.4674418;0.5632148;-3.0067952;0.06308116;0.02549149;-0.46191704;-1.4202616;-0.0082164565;0.06228611;1.8203073;-0.25944743;3.4119394;0.053122167;1.6408374;-2.8460486;-0.5136845;-1.8120927;-3.083847;0.576816;0.0018446995;-4.4001703;0.20856999;0.52456576;0.039363034;0.6108991;-1.2279322;-0.039004505;-0.015507115;-0.09826006;-0.012493906;-1.0839797;1.6478778;-4.03537;-0.05323241;0.10566864;-0.2750084
2.1668553;-1.5501233;1.3944217;0.9904543;0.027381841;-0.17668279;1.2286328;1.1042999;-0.04215081;1.3782624;-0.03880359;2.937964;1.5310675;-0.027300423;5.2694783;0.8685561;1.2516465;0.3952275;-2.0709963;-1.0647758;-1.3811215;0.1621329;2.8384235;-1.2501209;0.122504056;0.03269941;-0.023206534;2.3585372;-7.5812216;0.026239455;-3.7134871;-0.0092300745;-8.935131;-1.081063;-0.31173503;1.4752854;-3.4510322;-2.1620045;-6.851935;0.8533038;0.025711728;-0.020983834;-4.9322577;0.8157079;0.009886413;-0.36775753;0.0127698695;0.69919926;-1.971427;-0.0025713164;-0.020139333;0.6840591;0.6765867;-0.04899096;-0.009965793;-1.3945947;-0.025829371;-0.8400772;3.0236478;-0.8048092;-0.08246489;-1.8785769;-0.041350596;-0.76605946;-1.881188;-0.26337987;-5.1262546;-0.03364926;1.0128102;0.065758415;-2.9871092;0.016073702;0.03705051;-0.5447021;0.6761211;0.8048927;0.012451794;0.13966219;-2.465724;-0.019936532;0.014188221;1.3906304;-2.7830126;-3.2113433;-0.045030992;-1.1334745;-3.284963;0.029119615;0.049269438;0.011732238;-0.019884652;-1.5996696;3.0409045;0.7887502;-9.415561;0.7219365;0.3305507;0.75639343;0.91141915;1.178875;0.048202414;5.680309;-1.46891;-0.019703811;4.585968;-3.1504016;-0.016040478;2.6007135;-0.3586466;-0.005696142;-1.4178793;0.42026722;0.34967223;1.0361375;3.2099066;-0.994324;-2.0450184;1.5307566;-0.034061212;2.9404109;-2.7418826;-0.030713392;0.31558308;-0.03168495;-0.024967818;0.0017293686;-3.6931627;-0.69401956;-0.0009306967;0.19001697;-2.2779958;-0.37939498;-0.074063756;-3.411553;0.0071711685;-0.7909798;-1.4534388;-2.6670468;0.009589826;0.033909876;0.11162821;-0.14993462;-0.4750883;-2.1631024;-0.014865586;-0.7637983;2.739166;0.019243283;1.762509;0.8183817;-0.06627555;0.86425066;0.01178941;-1.371772;-0.011987327;0.045864865;-0.0030857704;-1.3858057;-0.43227744;-0.4327294;0.0023376723;0.023771234;1.9938523;-0.05626861;-0.012484112;-2.8747559;-0.38318062;-0.023294412;-1.6385511;-1.3896083;0.23637216;0.0588274;-0.024914633;0.4838151;-3.5070224;0.6979194;0.044032536;0.0015358054;0.37254506;-0.028397406;-0.01683276;0.19537118;-7.692109;-1.7444869;-0.006818399;-0.40996078;-0.29530287;-0.04643175;-0.8670622;-0.031021759;-1.8783896;-0.008059975;1.0568154;0.03897444;-0.00073628005;-0.31353155;-5.047181;1.0536526;-4.7601585;0.04063459;-1.4078199;-1.1795487;-1.4996482;0.080343746;-0.3380933;-0.015663618;-0.553253;-0.026035476;-0.64910626;-2.526868;0.24743703;-9.279811;0.05914344;0.0018046959;-4.9701023;0.028845154;0.3404644;2.3884788;-0.7545544;-0.8265336;-2.0018764;3.1116254;-0.027485473;0.029541979;0.22565615;0.012915205;0.05618822;1.9458063;-0.017770343;-2.6638162;-2.7163262;0.019926261;-0.21481061;-2.378108;-2.2159643;-0.9305469;-0.23296805;0.0011204378;0.8333085;0.81646264;0.23302685;-0.075514354;0.011580179;1.0808146;1.2301605;0.0033299224;-5.9485912e-05;-0.22765373;-1.0492871;1.4230834;0.022506611;0.15930669;-2.090174;-1.7606238;0.9881332;-13.504577;-0.11085611;-0.027051503;1.655215;1.1921358;0.026629291;0.036639098;1.8379194;0.93052316;-2.4245617;0.5425126;2.1962664;1.4626551;2.0026429;-2.2311275;0.98166305;2.1289687;-0.03020936;-3.0160716;-2.9068882;-0.03139469;0.03342186;-2.3624783;3.0537252;-4.8905363;-2.1260552;-3.683576;-1.2088516;1.289418;-2.6693165;-0.8369754;2.2236612;1.8727965;-0.750649;-2.052052;0.04336403;-0.017246908;0.05196392;-1.1710658;-0.07017394;-0.0080360025;1.4722587;-0.034597814;-0.69962305;-0.022642437;1.8753495;0.0042912317;-0.01573748;2.2478886;0.061721712;-7.5829062;-0.0054046274;-11.441615;-0.016987003;1.5048535;0.006755832;1.9318981;-0.6274137;-1.6431398;-3.5993786;1.8270533;-2.0256624;0.029722381;-4.103101;-2.391491;-1.3155816;-1.2423745;2.345101;0.011872713;1.2876791;0.76606804;-11.182187;0.013306271;0.0019760816;-2.1096282;0.012597893;1.0043185;-1.4978719;0.95579;1.993235;0.01839738;0.5418715;-0.03816279;1.0403312;-0.0054772533;1.8918741;0.0050302786;-3.1328137;2.8476007;-1.5550779;3.3705714;-0.03805971;0.0016968612;0.023931583;-3.0694537;0.009078037;2.3267148;-4.14972;-2.982757;0.013030219;1.5248026;-6.055352;2.4202557;-0.9468645;-8.16674;-0.07901889;1.7829077;0.02840212;-1.3760978;1.1364985;1.0391268;1.6322839;-0.17808078;1.148684;2.2936797;-1.7474815;-2.9594462;-0.995288;0.030847382;-1.3399085;-0.5778788;0.82874155;4.8575273;0.024213927;-3.845644;-0.02212334;-0.024484286;0.013490917;0.25111774;0.0008608156;1.2035408;-0.0043267263;-0.17670852;-2.8679621;-8.222713;-0.14330667;4.2316575;3.155149;-2.9181662;-0.003487026;-1.4765799;-0.022436792;-0.13565491;-0.04595549;3.063886;0.053819776;3.2390075;0.21943003;-1.8921353;2.8220153;-0.02979358;0.6221474;0.63646054;-0.76691526;0.09636508;1.5695037;-1.719206;-0.022975048;-1.8920544;-0.021367399;-0.39901975;0.008033827;3.430945;0.016584953;-0.75878155;-0.0071950676;0.8994348;1.2468786;-2.8483691;-0.037154697;1.2688086;-0.9781758;0.37971434;-0.32506767;-0.9432652;0.71071196;1.9886135;0.027335789;-0.12051506;-0.08061921;-0.0005734632;0.3366429;-0.18945287;-2.270764;0.011827614;-0.64055073;0.7670408;0.16698669;-0.039433107;1.8968838;0.40902323;-2.0290563;-1.6276808;-2.7107782;-0.22953236;0.2895487;0.76010597;-1.025281;-0.001089239;-0.5663559;0.0049391235;0.70967054;-3.1062858;2.633169;1.6374589;2.2607572;-0.07051148;-2.3039987;-0.77735156;-0.8570699;-0.57403904;-0.19056588;0.12785318;-3.8181539;-6.878523;-9.366044;0.46073246;-0.0010925889;0.601479;0.47265744;-0.14860444;0.009089385;0.063815154;-0.06773664;-0.004248384;-0.6439589;-0.34962374;-1.4972289;1.7918677;0.07290236;-0.039602976;-1.5648412;-0.5181342;-1.1363561;-2.265497;-0.048532046;2.9287174;1.0354012;-0.38455394;4.3770933;-0.24511386;-4.168668;0.06729984;-0.5676642;-0.6638092;0.0022570973;4.977469;0.5978115;-0.018709475;2.203841;-0.060265988;-3.464998;0.024623785;0.026739415;0.018587183;1.4351752;-1.4235828;-0.0012763587;-0.43168613;-0.0019333935;2.331972;0.021970524;-0.23667313;-1.6241683;2.7097747;-2.135821;0.18273123;0.034134842;-0.19126827;1.8823649;0.8178034;-7.3410916;1.6140486;-3.2043304;-0.065770075;3.5445528;-0.046163537;0.021101484;-1.7829269;-2.688154;3.0610423e-05;-1.045474;-0.035868276;0.04574675;1.8439834;-2.2981477;-0.12662274;0.2027654;0.014133096;0.054345153;-2.7339325;0.42019093;0.009182724;-2.397372;-1.9860753;-0.0025669062;-0.35781255;-0.03542851;1.8156186;-3.342535;-0.41798657;-1.3031992;-0.804844;-3.6136422;0.0048292503;-1.3140527;1.1092759;1.3769072;2.2524834;-0.12378173;-1.7723591;-0.0693197;-0.56778955;1.2784021;-0.018164955;0.5563846;5.580866;-3.167086;-0.009178152;0.023653803;-2.0601723
1.0785449;0.6926492;-1.2236894;0.3475763;-0.013936232;-0.11315672;-0.031060666;1.830127;-0.015164886;-0.20342855;-0.0015585782;2.2513142;2.347018;-0.8439371;4.0632095;-4.01099;-1.618847;-0.8360633;-1.971867;0.98662186;-2.5749512;-0.01805108;-0.54969436;-0.78990936;-0.6608828;-0.050229676;0.022827718;2.2321603;-7.2630196;1.7836831;-7.181088;-0.010639402;-6.9516063;-2.229574;-0.6414288;-1.4069809;-10.0543785;-0.42514065;-8.272549;-1.1059351;0.0015802077;-0.0046958053;-2.5795217;1.4319726;-0.06054497;1.5060577;-0.050951622;0.48352584;-1.0944768;-0.010025714;-0.030201748;2.4268239;0.80260164;-0.024177207;0.004151231;-1.405872;-0.005056043;0.020240918;2.8824558;-0.3639399;0.012999617;-1.8881676;-0.020601714;-1.9693011;-0.5292619;-2.0104258;-11.8516;-2.8135417;-4.262642;-0.04264442;-1.3826128;0.016985618;-0.018035969;-4.4962745;0.3380766;-0.21541385;-0.029517084;0.4139521;-3.687437;-0.014799698;-0.036749873;1.575831;-1.3356808;-2.1165192;-0.016614955;-3.6933966;-1.3546673;-0.0057362;-0.018673176;-0.033173002;0.019186202;-0.07281847;3.3922448;0.6318572;-8.696141;0.8076898;2.7808828;2.8394907;-0.16540793;0.12241558;-0.02590385;4.585132;-1.846117;0.0018001068;-3.9362826;-1.7658197;-0.0057139127;-1.4825096;-0.38600814;-0.052121658;0.93750197;-1.3106061;0.86205494;1.1126255;1.4889052;0.21908315;-3.1307907;3.30004;0.02814463;1.2206647;-2.8090227;-0.011890481;1.065424;-0.04113245;-0.0160681;0.011218997;-0.5453462;-0.88312167;-0.0033433475;-0.96538043;-3.1221027;-1.5955954;2.0253384;-5.0772758;-0.002218701;-0.34577075;2.0513997;-4.4416347;-0.0035060158;-0.02737252;0.332995;-2.1932383;0.63752645;-0.15734707;0.04793531;-1.2446108;0.36174265;0.037215155;0.9125856;3.6618216;-0.00576218;1.8854673;-0.050627906;-4.7446566;-0.01869077;0.037831053;-0.01191142;-0.6142528;-2.6694596;1.2488031;0.89124244;0.00042877963;1.6548089;0.029160665;-0.01183457;-4.02583;-0.36648244;0.0042747557;1.3358834;-4.0840454;2.1227088;-0.11585875;-0.008801182;2.2092001;-1.6478001;-0.89340055;-0.045412328;0.003780542;0.42368257;0.4293169;0.005040499;-0.31924462;-6.0672894;-1.0315447;-0.54113567;1.3313761;-3.922093;1.297558;-2.6240892;0.35631245;-5.976841;-0.005383922;-3.1633062;-0.066265315;0.05828897;-2.6679955;-0.85787624;-0.6708195;-2.796644;0.008469021;1.4495606;-4.6679554;-3.1936963;-0.08088666;-0.35578755;-0.030414756;2.8498993;0.018073386;-2.2763422;-1.9852583;-0.052007195;-7.9598727;0.011993996;0.03656822;-3.6576378;0.007560323;0.87994796;2.2955694;-1.0770538;-3.211942;2.0564368;0.19130118;-1.5692447;0.04849705;2.3078086;-0.07687504;-0.019727184;-1.5975771;-0.0067967717;-0.5172337;-2.877016;0.017680082;-1.3461207;-0.65569335;-4.5017633;1.3192426;-1.5432838;0.002434586;-2.6614237;-0.85238254;-0.8016052;-0.027385762;0.011366213;0.31796396;1.0968934;0.01763215;0.00937081;-0.61964005;-0.37978977;4.8160205;0.022542154;3.9669394;-3.9411361;-3.4920251;-1.7772217;-13.469445;-1.0046273;-0.039529394;1.4462559;2.1332893;-0.020280331;0.034058355;-0.7355298;-1.1316804;-3.0835207;1.6260877;0.9726892;3.254035;-0.45518726;-4.9433284;0.12662382;1.146394;-0.07260277;-2.2673163;-1.4323871;-0.011416843;0.018371735;-0.4323353;2.5881722;-0.1015172;-0.117982;-1.1720773;0.7262243;2.6828873;0.70556134;-2.6894703;1.9972528;1.1705017;-1.6032158;2.7997324;-0.012047088;2.1077557;2.1190116;-1.1274008;1.5865128;-1.584339;2.052897;0.093212225;-0.9156477;0.028757218;-1.955081;-0.008098499;0.025807083;2.5508912;-0.05491659;-6.4172716;-0.020520113;-10.564004;-0.015641179;2.0372305;0.038573183;2.3429053;-1.0871706;2.683694;-6.5756564;1.1088635;-3.5983655;-0.0426059;-1.3302954;-3.2283385;1.5647546;3.184701;3.0443754;-0.00784286;0.03867115;-2.644871;-10.935187;0.05504043;0.05190766;-1.2324245;-0.107356876;-1.683648;-2.6278224;1.073857;0.875282;-0.023745846;-0.48430604;-0.029991964;0.21988457;0.017250074;-0.36928445;-0.022097832;0.44166225;3.2314093;-1.718091;4.3783083;0.054712992;0.01830372;-0.03991114;-1.9041069;0.007239521;2.1529257;0.2735207;0.032156236;-0.013733696;-0.08332931;-6.227341;2.944318;-0.69371647;-8.123507;0.076275274;-0.0731053;-0.027015854;-0.8666825;2.8186047;0.043756533;0.14768314;-3.4114218;-0.6412479;1.0667039;-1.2767216;-2.4122114;-1.2495596;0.028483849;0.59912354;2.1060722;-2.0193198;3.1763923;-0.009028777;-2.13399;0.032473397;0.013837833;0.026827142;-1.1754129;-0.024750702;0.45818394;-0.023329979;0.2351432;-3.8141742;-4.250516;0.16750972;1.286116;2.9287834;-3.8195913;0.04128097;-4.2790537;0.046985332;1.5869969;-0.056439392;0.4801639;-0.057258822;4.4518037;2.7625268;1.2715455;-2.180645;-0.4648532;2.1585073;3.3307552;-0.20065352;1.5856158;-1.3326576;-1.9868385;-0.0038174281;0.45415547;-0.016339073;-0.23259485;-0.03568723;1.5436394;0.027240245;-0.005580242;-0.0030938727;1.1986102;2.0729213;-3.4356549;0.013980819;1.7297881;-3.661676;-0.052914336;-0.80541116;-0.0567767;-0.25191137;2.9829628;0.015693976;-0.04727155;0.010114381;0.113504305;-0.08498737;-0.6795096;-0.6854313;-0.030106297;0.19054952;-0.98079365;-2.0888596;0.011164758;2.3817687;0.30504045;-1.7922843;1.4620562;0.6192584;-0.9962339;2.0122936;1.8581432;0.48390955;-0.059311982;-0.5255937;-0.019014038;-1.7358434;0.89981645;3.0633123;-0.47067374;-0.13623889;0.028654879;-2.1478372;1.0957538;-1.7252483;-1.0987608;3.4058485;-0.7282367;-4.763434;-5.9620414;-9.721121;0.49615338;-0.040610097;-0.8274251;-3.798155;-0.013459578;-0.034459308;-0.0013017047;2.4612415;-0.050340757;2.0587525;-0.48326853;-1.1773535;5.4869547;-0.037348982;0.009947005;-2.22549;-1.2909143;-0.041577324;-0.4988191;-0.014531597;2.6787057;-2.708156;3.0896115;2.0614023;-0.3522812;-2.455209;-0.004439044;-1.2824005;0.7573625;0.0054313974;1.3580062;-1.1119497;0.019044247;0.30208007;-0.013996553;2.3324568;-0.17029758;0.042235136;0.020579362;-2.5963612;-2.8450036;0.013602013;0.09730898;0.057065878;3.2713811;-0.0076575666;1.5443064;-2.2144542;1.3977457;-3.0970235;1.4102678;-0.026593171;0.27194813;1.9960835;2.18428;-6.6337256;4.465822;-2.88904;0.0364692;3.6648016;-1.0569434e-05;0.016793773;-3.168662;-1.4531823;-0.006293388;-0.07607741;0.029314691;-0.00032262743;0.884313;0.057414237;-0.058231104;1.055335;0.01941324;-0.010642531;-0.55503356;-0.8091457;0.03268158;-2.3869834;-0.6376786;0.121237725;0.5874738;-0.019733874;1.2571975;-3.6401105;-0.37882212;0.4341833;1.4908143;-3.6997516;-0.014811538;-0.87997997;0.9015913;-0.8309297;3.0305064;2.4384012;-1.9602818;0.5209567;-0.64692634;2.8311505;0.01883483;-0.00618562;1.3089895;-0.24389419;0.03541819;-0.023751242;-0.32237598
0.3788163;-3.8058834;3.8419533;1.7215334;-0.09677941;2.2893147;-0.3472219;1.9049067;0.0011268058;1.3564237;-0.05146353;2.9608564;1.339975;-0.27507567;-0.31442395;-0.29965243;-0.9209319;-3.0227406;-0.25819284;2.090552;-2.2791734;-0.04921428;1.736476;1.9098382;-0.5950506;0.048640214;0.03036807;0.8418122;-7.315817;2.8608732;-6.1284823;0.008334111;-2.9432168;-3.4923892;-0.9601689;2.064145;-9.613399;3.317446;-1.9559224;0.5803452;0.004241138;0.006103943;-3.2682924;1.1679347;-0.12646787;-0.7325657;0.009047093;1.0026305;-0.5656909;-0.016206967;-0.091697425;1.9060488;4.4052176;-0.090288274;0.016462538;-0.58338517;-0.067057036;1.1462191;3.0163736;-2.8931785;0.0054789716;-0.9963189;0.041858062;-0.47337908;3.384318;-2.909332;-14.442547;-1.0880277;-1.3553109;0.048249397;-0.6700259;-0.044510998;0.006996414;3.6584687;0.75646645;1.7802517;0.023456762;-0.9026698;-1.5373572;0.023143899;0.02251272;3.541723;-2.7027037;0.8516662;-0.001660384;-0.7650994;0.71798867;-0.037227463;-0.011224843;0.0011044828;-0.012706157;-0.5807229;1.9804283;-4.365936;-2.6089842;-1.9349506;3.5408826;1.6525633;1.0732195;-0.615314;-0.008508845;-0.7021513;-2.8889866;-0.0123018185;-2.214915;-2.709121;-0.04278314;0.77674496;0.32699502;0.0130328685;3.2910228;-2.7531834;-0.51310176;2.6879084;2.5642939;2.14999;-2.6166403;2.729817;-0.084244885;0.350417;-2.318286;0.019145526;-0.6858261;0.010387018;-0.003057251;0.0011448064;-1.0170845;-1.2818223;-0.00062823086;1.2872177;-4.246134;-1.6565095;-0.37532347;-1.1786284;0.023922857;-0.49531606;0.45069778;-4.870023;-0.011565779;0.01842832;-1.1524397;-2.0416415;-2.7437203;1.4767118;0.0010714539;-1.2881844;-2.0675511;0.012644144;1.092811;1.3126382;-0.025236864;1.2143443;0.03973114;2.9812977;-0.049793072;0.013363397;-0.012256221;3.3548324;-3.4507983;0.34327027;-0.99461097;0.06463487;-0.42334172;0.0003230271;0.003899311;-2.6086228;-1.2281091;-0.037489556;3.8266273;0.81002307;1.1565084;0.011844087;0.009634297;1.2118758;-4.0314302;0.2129309;-0.017140578;-0.06307173;0.48739326;-0.112845756;0.024506705;0.0917978;-6.6178007;-0.22077222;-5.6055613;0.11574438;1.7623235;2.0378814;-5.8973026;-0.118715756;-5.34157;0.020183548;-3.782798;-0.043335456;-0.049050532;-1.841243;-4.10823;-0.98922104;0.033034526;0.0013009396;-0.6218722;2.9088695;-2.6951532;-0.032866724;-0.6082386;-0.06968537;-0.4894066;0.0010696563;-2.5280051;-0.3992164;0.20349087;-2.958011;-0.012322748;0.07520538;-3.7856684;-0.010324447;1.7555429;1.6575756;-0.29909688;-2.4884436;-0.35440263;-0.015407969;-5.922096;0.0065184194;-2.256653;0.0036953911;-0.0011464022;2.132546;-0.027653553;0.13157187;-2.430723;-0.011108978;-0.17601477;-0.1420883;-3.4219184;-0.64156824;0.6912132;0.0012196028;-3.542851;1.3039823;-2.0537553;0.20688415;0.031741757;1.5753264;2.0379152;0.18119912;-0.024226513;-0.89016634;-1.4176791;3.4952145;0.008505135;-0.5822572;-0.827537;-2.1147168;-4.8157287;-14.911772;-0.29844555;0.03197086;1.6072176;1.1145421;0.030676914;-0.03966826;-3.9978278;-0.5953683;3.8093925;0.53216934;-1.4941351;2.776085;2.0884452;-2.3017452;1.6156758;0.8258297;0.13012005;-2.3780344;2.8348668;0.03765635;-0.011379628;0.48524132;0.60315794;-2.2279215;0.75867516;-3.4366176;0.63330764;5.0905414;1.7045828;-0.12538373;-0.64532375;1.204578;0.78837025;0.51737314;0.020447806;0.62039226;5.522313;2.0023878;2.0188663;1.0782046;1.9438986;-0.123771496;1.2042068;-0.04300116;1.8426402;0.0064916727;-0.071578994;3.2479522;-0.040931877;-8.2488;-0.068228975;-4.643276;-0.0075714337;2.746107;-0.021308972;2.1710773;-2.9866135;-2.7041237;2.0460048;1.475051;-1.4658945;-0.0070875646;3.7033894;1.2403176;2.2153878;1.066116;1.8353953;0.018020965;-0.43645787;-3.5446093;-10.181157;-0.012663756;-0.00971598;-0.72045636;-0.09143846;-2.3439772;1.4075754;3.4123125;-0.4107485;-0.0745701;1.8711298;0.008653372;2.2193518;0.0014507535;1.5551771;-0.033430606;1.950637;2.224556;-4.6701694;3.4101255;-0.017355777;0.014226255;-0.022895543;-0.99841315;-0.007498655;-0.7841083;1.3221924;-0.015726265;-0.00015833894;0.9313237;-8.036637;-1.3276705;0.9056468;-7.996802;-0.09323154;0.47383955;0.0011872695;2.2546673;1.4831421;1.1960478;-0.042669225;-1.0857131;-1.1328111;3.2382867;1.3569752;-3.1203914;0.8510752;-0.0024219449;0.37783018;2.3460581;-2.2290292;1.9853344;-0.031320676;1.5134449;-0.051956516;-0.0010275452;-0.066969626;-2.712772;-0.0031574399;3.5474253;0.011291833;0.025071202;-0.41348508;3.811943;0.3098836;1.5195202;0.9157189;-3.3790681;0.061694942;0.5307517;-0.003813448;1.2502749;0.049255263;-1.173748;-0.0053659044;4.199036;0.5315872;0.51026607;-0.8830242;1.5819775;0.9669544;3.1799932;-1.3022962;-1.7021749;-0.36905026;-5.3492055;-0.12132714;0.04680789;-0.0037285362;3.1196816;0.06010464;-1.3919129;0.068545714;0.34297714;-0.01875344;1.148389;2.0469928;0.064685896;-0.057132162;1.5473212;-1.1527214;-0.11316892;-1.3384016;0.41897267;-0.06143631;3.1425834;-0.062382687;0.06545266;-0.015686309;-0.56747234;-0.2539938;-1.8278675;-1.991446;-0.033372257;-1.1084371;0.54781467;0.40951774;0.0036597864;-1.641143;3.130889;0.69526047;-0.2684118;-1.9352422;-1.4046432;1.9204946;-0.35378078;2.4932647;-0.026816322;-0.3426764;0.026546225;-2.3261402;0.09481492;3.2738736;-0.76007986;1.4738649;-0.16077185;0.31686187;-1.6921506;0.5448389;1.5856117;2.8957932;-1.1937441;-4.5707664;-0.5932078;-10.636272;0.7800426;0.018672816;1.3045352;-0.83626163;-0.057833634;0.0014457761;-0.009923979;-0.8491439;-0.018669527;3.6728399;1.0114539;-1.3946029;3.3605986;0.027467847;-0.0128456615;-4.206186;-6.3715563;-0.611341;-0.53667825;-0.121678226;-0.6467528;1.4742211;1.1344111;-0.77363676;-4.0054317;-1.8308955;-0.004343673;-1.0206466;1.5369489;0.06263337;-0.13392136;-0.08026597;-0.0373448;-2.8454065;-0.015262605;1.4174293;-0.11560151;-0.011281962;0.0010786332;-1.9695449;-3.9094906;-0.05262231;0.8181304;-0.011823541;1.8154733;-0.021736732;2.434091;-0.36853495;-1.7472746;-2.1530876;1.7466218;0.009008021;3.178663;-4.6356926;-0.37343565;-6.6875052;3.4080307;-1.4123008;-0.0016582919;3.4778068;-0.038958177;0.0036304567;-2.1043513;-0.407495;-0.007368794;-1.9930718;-0.018943168;-0.004596367;0.5249864;-1.200994;-0.03574213;-1.6830792;-0.022449818;0.0024349086;-0.5820227;-4.242647;-0.021737687;0.67630845;0.38614565;1.1428425;-0.32057616;0.0313799;3.318747;1.455101;-2.4150534;1.5036047;-1.0461962;-0.14832713;0.027110908;-3.051631;0.914961;-0.93007517;3.9398148;-0.48163933;-2.2143123;0.131305;-1.1357436;0.1567524;-0.04461503;-0.8324422;-0.1798533;1.6580397;-0.006348812;0.022722367;-1.279799
2.7221885;-5.6881166;1.870293;1.4318546;-0.10505933;1.9564976;5.187145;1.5281484;-0.03930241;-0.11934437;-0.009099444;5.31943;-0.074285746;1.1489865;2.7961664;-0.21318235;-0.31114662;-1.9967227;1.8682044;1.1497109;-1.217993;0.0048318407;-3.3866966;1.2789439;0.055469144;-0.013549655;0.00626073;1.5097934;-6.962784;2.449553;-5.4883013;-0.0294657;-2.8473406;-3.6356263;-5.4569573;2.0100884;-8.14474;3.664713;2.297524;-0.06881361;-0.06360591;0.009072701;-0.7952541;-4.3700743;0.54557985;-0.25254345;0.0055820215;0.48774454;3.413389;-0.006206468;-0.0064216414;-1.234539;1.54351;0.6191114;0.010135662;0.016011856;-0.016553847;4.2436023;2.4732;1.1173438;0.018571345;-0.8409742;-0.022514002;0.13243407;-1.5270815;1.0253212;-12.661973;0.64154094;-3.426973;-0.023574138;1.2085093;0.034751188;0.03347254;-1.0270013;-0.049219903;0.5211981;-0.03330484;0.54920924;-1.0112094;-0.03887562;-0.018385554;2.4017253;-0.94169176;-1.6494004;0.013997305;-1.6807035;-2.7637918;-0.05052746;0.019965563;0.035367638;-0.013225977;-3.379468;0.83758914;-0.42340034;-4.429109;-2.213913;2.2405226;1.3068577;-0.09749786;-0.799971;0.0068030115;0.81737;-0.6556318;0.008912071;-0.3236329;-2.7903876;-0.01961728;-1.475457;-0.05362009;-0.022164393;1.2966602;-0.4528388;-0.23387013;-2.056351;1.539829;0.37069342;-1.371532;2.149818;-0.013634177;-0.9163381;-1.8623399;-0.061252903;1.5996162;0.017400527;-0.004787238;-0.037827946;0.744729;-0.2662921;-0.03087887;1.3011571;-1.6839098;0.7973152;-0.7668335;-2.0019035;-0.060264662;2.0719392;-1.2698824;-3.0885038;0.015280879;0.0059891636;-0.41281378;0.08811521;0.01912928;1.3425368;-0.0030480595;0.35311675;-1.788326;-0.015806736;1.5948362;-1.8172303;-0.01526266;-1.7914501;0.03418134;1.0428014;0.018307755;-0.047704943;-0.001280363;3.0456102;-1.5418845;0.7851211;0.5980618;0.0045288634;-2.218571;0.05225076;-0.012982145;-5.9740763;-2.6671624;0.053308103;1.6467508;0.60816526;1.4023024;0.035110984;-0.033108145;2.0936937;-1.8623481;-2.4028141;0.03615922;-0.00053740083;1.1391132;-0.06691771;0.06616904;-0.7378233;-1.148251;-1.7974498;-6.043394;2.6585839;0.55469817;1.4510101;0.08278901;-0.040846393;-3.082763;-0.008994755;-3.875515;0.45396638;0.054748114;-0.34349847;-1.7116627;-0.5957207;-2.262659;-0.014178318;2.297662;-1.3183461;-3.1084192;0.075860634;-0.4762268;-0.02984262;-0.48861504;-0.032156583;-4.1013923;-0.48934618;0.067278475;-1.4782677;-0.018508432;0.0008447294;-2.4399502;-0.015579195;-0.0031835968;2.2372417;1.7855304;0.28184673;2.508023;-0.59388953;-2.8946385;0.03557402;1.9179584;0.037591267;0.023523962;-0.8668622;0.0309398;0.98094815;-1.7692736;0.064221546;1.3508649;-5.16628;-0.44763085;-2.3156757;-1.086539;0.01058256;-4.118633;-0.55578136;1.1984278;-0.17480549;0.008547367;2.6929705;-1.3999245;0.6860486;0.001504426;0.15535094;1.8088808;2.2090433;-0.07576562;-2.769937;-0.71550447;-0.5911129;-3.5418427;-13.707563;-0.679775;0.031213833;0.95034325;-1.1370583;0.03580887;-0.029913053;-1.7030965;1.5245572;3.7601228;-1.538444;0.51453936;1.7237014;0.09556877;-1.8520683;0.8198081;0.3560274;-0.08687762;-2.387032;0.577254;-0.022843573;-0.03891135;-1.77944;-0.16597545;-0.6301486;0.85595244;-0.18609273;1.3691874;1.3612059;-2.0570922;-1.6670011;-0.3670581;1.9532121;2.0475698;-2.536031;0.013257193;3.6568615;3.1117444;0.040569216;-0.06058548;-0.88998955;1.611235;-0.010916515;2.6716828;0.020601558;3.5821044;-0.004752379;0.5891291;2.7258368;-0.0007771513;-7.920861;0.00052681164;-0.041779872;-0.00641498;1.6346961;-0.044388175;-1.6427742;-1.8741148;0.6170248;5.336661;1.1248124;-1.1154755;-0.020062905;0.20699781;-0.6061568;2.184049;0.23411632;3.4901607;0.00905354;-0.54901046;-2.9256837;-8.82735;-0.0022515163;-0.029558731;-0.10344327;0.456479;-0.13421814;1.6908673;1.1727278;1.7083398;-0.0686268;0.52678746;-0.021590909;1.2016293;-0.01706185;2.087672;0.03449245;-0.0071810717;0.7777928;-3.3927972;4.249524;-0.019942578;-0.016035024;-0.0428143;0.6348618;0.044770617;-0.36390835;-2.0398943;0.6493856;-0.026740994;2.000439;-6.493644;0.19603476;1.612358;-7.9730616;-0.012164172;-1.1410277;-0.0133094145;2.3657804;3.0346057;0.039898068;2.5704367;0.46658543;0.34362742;0.29572642;-0.41377652;-2.7457216;-0.20657995;-0.045013417;-0.57936704;1.1033896;0.7340224;2.3766441;-0.013481399;-1.2664856;0.045289457;-0.00035975548;0.068491414;-1.5876334;-0.048442945;2.662938;-0.028421883;0.46491742;-1.0355878;2.4987934;1.6070771;2.4376152;0.94726616;-2.1907315;-0.05189707;-6.353389;-0.031070491;0.56436884;0.08129095;0.62399185;0.0016220635;-0.6618447;1.46707;-1.9355239;-2.3196106;0.040422242;-0.34473795;3.3217826;0.458865;-0.37278736;1.9841075;-4.1124425;0.63076985;0.5352469;0.006992216;1.3036546;-0.029909937;1.5562736;-0.08144073;0.6531694;0.015354577;0.98882526;1.7977135;0.16530819;0.04322615;1.6215283;1.2677546;0.0082503;-1.0583165;1.3216809;-0.041420255;0.02653252;-0.043861296;-0.33206984;0.0824732;1.5970361;1.6936154;0.2817605;-1.7856214;-0.01718329;1.2109812;-0.0026025856;0.5855561;0.025581181;-0.77908415;-0.047954224;-1.7515172;-1.2915012;-2.5058165;-2.323392;1.8989377;2.240769;-0.004823654;-0.035599213;-0.1456529;0.026281439;-1.1186241;-3.1674569;2.7534266;0.83632755;1.7682362;0.1874757;-1.523917;-0.99534;0.43190613;1.6211137;0.33015215;0.22031578;-1.7819693;1.4507776;-9.251565;2.246567;-0.0006189354;-0.37392914;0.45083067;-0.050649427;-0.019185893;-0.009159871;0.46461642;0.033777766;-0.35713756;-1.1362295;0.5858028;2.810455;-0.082973644;0.024728084;0.13866907;-0.74640745;-0.92507005;0.22757638;0.6361296;0.6415075;-1.1615633;0.26815024;-1.7288914;-0.366093;1.8836569;-0.041187555;-1.206259;0.46018597;-0.032442596;0.8465889;2.6840158;-0.06594081;-1.1576113;-0.031398438;1.9488689;0.40172005;-0.042897023;-0.035645563;-2.710199;-0.7273514;-0.050847273;-0.22665904;-0.02991582;2.1229906;0.15189621;0.9080175;0.67904323;1.2123764;-0.3791277;1.72416;-0.042098783;1.2921036;2.804802;-1.271093;-8.0824375;2.8076446;-1.0039775;-0.027541352;1.6624842;-0.01933382;0.039139718;1.9492694;-1.8813432;-0.048302174;-0.9699049;-0.02197937;-0.017188938;0.039490227;2.7606766;-0.008650745;-1.4407738;0.02297897;-0.024775295;-0.99022204;-4.925819;-0.0358888;-0.16740653;2.0757487;0.87901795;0.63543314;-0.022172157;-0.01734335;-0.31347254;0.923731;1.146145;-1.0407355;-0.33053643;-0.03171839;2.4066598;0.15796334;1.9943194;2.9026198;-1.5852202;-1.8157938;-0.13627091;-2.8837385;0.89782447;-0.045367546;-1.2348162;2.1387875;3.3771443;0.040829215;-0.045222923;-1.0575397
2.8042307;-7.7048206;1.6741755;1.6901118;0.7041373;0.920832;2.3002405;2.971985;-0.0062771416;0.5738793;-0.011597147;-0.32288277;0.73912036;-1.219239;1.7147758;0.30723444;0.21982643;-4.334095;-2.0591393;1.9243004;3.6805332;-0.0013358342;-0.43250948;-3.4291599;0.12370333;0.0025913976;-0.03319947;2.1446054;-6.4996405;0.36816213;-8.869433;-0.032946087;-0.95373815;-3.043992;-3.4103184;2.1200247;-6.0757985;0.044504326;2.7727907;0.55529624;-0.03984693;-0.027228815;-2.7207103;-1.7448772;-0.07372814;1.8554059;-0.016454954;-2.5939;0.9464847;0.016968604;0.052024588;1.5991592;0.30856937;-0.11607574;-0.029303927;0.17330003;-0.059071906;-1.5116032;2.81732;1.8057748;0.0062916894;-2.8326876;-0.0031314678;1.4154054;-3.4114861;0.19231513;-12.733066;0.3764811;-0.51390284;-0.017801352;0.9342413;0.031348128;0.022373911;-2.2030416;-0.2500104;3.1974878;0.0029082892;-1.1610533;-1.5887793;-0.059900865;-0.024516435;2.775724;-0.99447113;-4.994535;0.016127162;0.5871165;-0.767151;-0.06178145;-0.010658794;0.013623282;0.10304809;-5.607451;2.3448663;0.11974445;-8.491716;1.9200233;0.65815693;-2.817929;-1.5942813;-0.7404509;0.022514148;0.5288477;1.2463939;0.12911855;-0.89760715;-0.16067754;-0.020430403;0.6760193;-0.1735429;0.03743473;-0.34038;4.4765916;0.88033736;-0.821605;1.4803939;0.8487287;-0.5657798;0.41484007;-0.019216008;-4.7978144;-1.9390962;-0.01052464;3.7814782;0.027023878;-0.039012372;0.02308584;2.902919;-1.2346905;0.029916698;1.7171453;2.133842;1.0798429;1.0415508;-1.3420829;0.028058833;-0.21926741;1.096382;-3.3438504;0.017672522;-0.022268314;0.37044278;-2.685669;-2.1709192;2.447231;-0.015164271;-0.41153523;-0.3016917;0.0109073715;1.3548928;-3.677441;-0.03224474;-1.0910796;0.09903113;-0.79213923;-0.028422592;-0.010154664;0.00796557;1.3591294;-0.18770023;1.1839119;0.6837894;0.04636765;0.06301262;0.13334846;-0.018805362;-0.36081794;-1.4512451;0.16548695;0.8206102;0.09673231;2.9613485;-0.030044923;0.003150383;0.90577817;-4.620017;-1.8617435;0.12408421;-0.023703735;0.36581054;-0.018528216;-0.03135201;-1.06892;-0.75034994;-8.3089285;-0.07405545;3.1938138;1.1793704;0.7926387;1.2496263;0.03976713;-5.0078588;0.042556133;-6.770162;-0.059155732;-0.024334533;-1.2626188;1.2694597;1.4466969;-2.4349625;0.018346736;0.98691404;-2.551853;1.7568971;-0.000153491;0.21882437;0.055828266;0.26205426;-0.044231363;-2.5990462;-0.027560852;0.265763;-2.8783503;-0.006893237;0.0026588028;-4.9223113;0.027167559;3.044653;2.0505297;-1.8719075;-2.2014806;2.7973073;-1.7572074;-2.587913;0.034150198;2.8332005;-0.011981634;-0.02302138;1.3452957;-0.004533346;0.6681026;-1.9501687;0.14865927;-1.0563722;-7.636896;-1.7669768;0.369515;1.3393195;-0.03446651;-4.3969226;-0.2733771;-0.07962783;0.13413447;-0.070997424;1.6099739;2.062854;0.68805945;0.030928645;-0.3566605;4.0203543;1.0224193;-0.029084958;-0.7711877;-2.8071287;-4.1925087;-10.204921;-13.910981;1.1307422;-0.00575522;2.7592793;-2.2771232;-0.03824552;0.02165993;0.6184094;1.3030002;1.0531121;-1.0516922;0.9475732;1.697345;0.0059645427;0.64771295;1.5880737;0.17447834;0.05784845;-3.5341086;1.4907678;0.011606914;0.13084559;-1.0314447;-0.12259398;0.5607043;1.847789;-4.0437064;-1.9062839;-0.11941091;2.3939426;-2.4600604;-0.29876602;2.426081;-0.7194398;-1.7435768;0.0014951963;2.0825486;4.157561;0.25832963;-1.5816728;1.5215936;1.6524246;0.052092724;0.6032588;0.0063561755;0.5278805;0.0013492237;-0.12508135;0.14487785;0.042137656;-9.271783;0.18606752;0.23828496;-0.03277946;1.7791021;-0.0053952048;-2.35018;0.25299576;0.044433016;1.017499;2.457587;-3.974435;0.059076898;-3.3378344;-0.48892164;1.6094683;2.561359;0.07888491;-0.0064296345;0.075221024;0.002648059;-8.545757;0.030213486;0.0010324065;-0.82872117;-0.023279948;-3.5761728;-0.84453815;-0.31059086;0.25071996;0.7365537;1.9285462;-0.06240877;-0.5597867;0.032376274;1.3022177;-0.018034117;-1.3490585;0.54589784;-0.3491169;3.8739467;0.0017525763;0.00590895;-0.026273314;0.78001356;-0.015262022;-2.6642804;-1.2987506;2.6787405;0.045854725;1.1334772;-4.500259;1.616557;0.98277265;-7.4793935;-0.07980476;-0.8339822;-0.030147554;2.6220932;1.3715338;-0.5124383;1.3081287;-3.763754;0.6334923;-1.6555806;3.486938;-2.3551717;0.7861611;-0.04501868;-2.0007975;-1.2430663;1.0561507;3.403693;0.022620516;-1.2039037;-0.013397922;-0.008420331;-0.06654364;0.23827249;-0.050767582;1.242517;-0.066894375;0.40810794;-1.6524017;2.35943;-2.9414663;1.9660642;1.3844104;-1.0463158;0.086854644;-2.9641924;0.02187253;2.869408;-0.03901465;-2.1329346;-0.03235332;-1.0401653;1.6403887;-2.2702134;2.8763258;-0.4159281;1.5227563;1.5815827;0.04381694;-0.4503723;0.795885;-2.6235604;-0.031492192;0.6711628;-0.024741227;0.47313085;-0.025073323;1.6600448;-0.03239425;0.025982257;0.0022843773;0.3464323;1.5910102;1.175862;-0.015167607;1.8182191;-0.48287156;-0.032055806;-0.92163277;0.107949376;-0.034890275;1.4628567;-0.05075426;0.14124475;-0.008618254;-1.1876236;1.4261698;0.50164914;-0.7661327;0.02008993;0.010909851;-4.080822;2.228756;-0.032585222;-1.8681993;-0.53535676;1.8054003;0.6912225;-3.1960325;-2.1599424;1.333993;2.4481826;0.45584536;-0.083473735;0.26839536;0.002213115;-0.4598207;-3.2020042;-2.26083;0.9562855;1.7621781;-0.009859686;0.9533146;-2.4734974;-1.2890072;2.242787;0.086212166;-1.1412565;-1.1784362;1.1243005;-9.940262;1.0326133;-0.018914893;-1.5405445;-1.7196448;0.0033836155;-0.020506976;0.019764954;0.5690605;0.0051787994;-1.3091545;-2.3438933;2.967141;0.04434943;0.20126678;-0.009389479;0.6821715;0.35003906;0.078943394;1.296183;0.03746938;-1.1831777;-0.7221049;0.3959787;0.09906011;-1.8314052;-0.29311922;0.030280553;-1.1161441;1.7403151;0.04519935;0.41996908;0.92619365;0.021951118;-2.7546527;0.0928721;0.9030277;0.121020354;0.03090458;-0.004788618;-3.8837054;-1.4874382;-0.08427587;1.312279;-0.009766747;2.100362;-0.04895449;-0.023052828;0.49847668;-0.6271524;0.53435457;-0.6008437;-0.01173021;1.3265562;-1.8580428;-2.6625;-8.524492;2.1161828;-2.8493338;-0.07288575;0.67049277;-0.054976586;-0.03605674;-0.07084669;-0.86842763;0.043292794;1.211958;-0.023081403;0.050711926;-0.25537974;1.5114692;-0.06717707;0.3546054;-0.014654326;-0.016906762;-0.5838995;-1.711405;0.06794998;-2.6164682;1.4563957;-0.51745576;0.04709865;0.0025350451;-1.2872105;-1.2962412;-0.6763833;1.2267745;-0.86883694;0.23868603;-0.010388602;2.8185768;0.024946816;-1.0760659;-2.0860689;0.12794597;-2.3394034;0.009431167;-1.4827497;0.84170234;-0.08032522;-0.64322674;0.44676876;1.8556576;-0.03388938;0.017615104;-5.4063063
0.6710116;-1.5228342;0.51363665;-1.0384754;-0.14628538;0.9944091;0.3494174;1.0798949;0.065077856;2.8626988;-0.009836664;0.10483648;-3.9537187;-2.4030793;0.15296595;0.28442243;-0.44972467;-4.9234266;0.6601113;0.97757125;2.7790928;-0.00425596;-2.0141027;-0.37499467;0.18928859;0.009747565;0.038332555;1.6862193;-7.43643;-0.67854184;-8.435061;-0.048468795;-1.4239252;-4.5855403;-1.3879919;-0.852511;-0.08343656;-1.6613668;1.3206118;0.48390567;-0.12234896;0.016184473;-2.1591077;-2.905403;-0.030259602;0.90537065;-0.006118798;-1.0761877;-0.019839773;-0.009349468;-0.004307656;-0.043768734;3.143825;-0.038663663;0.008645969;-0.9125892;-0.15144768;-1.495421;2.325092;-0.9717033;-0.0038313644;1.0915269;0.020756159;-3.1957877;-1.4504768;-4.5494647;-14.706522;-1.5046779;-2.1980765;-0.006356331;3.7757053;0.0020014893;0.008804063;0.33186868;-1.7162637;1.5421076;0.019558806;-2.211042;-1.9227139;-0.11078648;-0.011417049;2.077716;-1.9031569;0.18876417;-0.05238357;2.324079;-0.57657385;-0.020015003;-0.025001287;-0.01836518;-0.027363403;-7.9094377;3.3938801;-2.283032;-6.9251914;-1.1460495;1.3119056;0.3623306;0.0044506914;-0.7633953;-0.0104047535;0.98994994;-0.73291224;0.003060818;1.1318665;-0.17079864;-0.050894216;1.0828635;0.021570148;-0.0067646136;0.2676837;3.4995093;0.5617838;-2.2052805;1.2369221;0.5146147;-0.47871283;1.6266531;0.095156856;-4.9359245;-1.3836427;-0.005190835;2.6734586;0.032767043;-0.010119854;-0.040574096;1.3026602;-0.3874897;0.004969419;-1.3356876;-2.4918795;1.1497223;-2.7248254;-3.612735;-0.05188764;-2.1795938;2.6246617;-3.0512645;-0.014149221;0.025717195;1.9975582;1.4552115;-5.4410744;3.2187397;-0.0024868457;1.7465979;-1.795793;0.023643987;1.8614484;-3.4642928;0.010113799;-0.8902891;-0.017204594;-0.21648994;-0.05593643;-0.025737002;-0.039586194;0.41745642;1.4676571;1.609873;-0.15974003;0.010501164;2.3077111;0.04708163;-0.015526501;0.5538686;-5.367379;-0.03335457;-0.34494743;-1.6879591;2.296438;-0.08888742;-0.05836879;-0.1585201;-1.0697508;0.7240633;-0.09552394;0.034515344;0.8245331;0.02509914;0.0058259694;-2.0442789;-3.769971;-0.49563667;-0.4073814;3.0013347;-0.6750069;1.7540038;1.1106484;0.05697636;-4.4900365;0.067573965;-3.0894065;0.0052928166;-0.013153246;-0.8065929;1.9248912;0.9299696;-2.1153262;-0.017832126;0.41994593;1.1767536;0.73537666;0.009788909;-4.724273;-0.01965533;-3.3783104;0.018703869;1.3175247;0.007772327;-0.06792215;2.6138964;0.04120668;-0.05692626;-3.6190138;-0.019017674;1.2095884;1.6734506;-1.8225292;-0.21832941;1.5801224;0.13727184;0.19181748;-0.03679762;1.4363606;-0.022694377;0.0063368515;-2.0239043;0.001360785;-2.0016716;-1.3796622;0.027789986;-3.3206413;0.25269222;-0.46678454;0.46247727;3.124528;-0.027905505;-4.1002073;-0.77709955;-0.88042855;-0.0019498866;-0.006522532;3.0486975;0.5895003;-0.101380706;-0.02055376;-0.18013373;-0.2900327;2.010941;-0.06060584;3.0836167;0.298565;0.76610035;-7.421455;-14.74783;1.7049395;0.012505535;0.7901214;-0.56569266;0.025562283;0.007205222;1.924977;1.7295378;0.33261707;-1.2413707;1.9721724;1.8959459;1.3107505;-0.27283958;1.3691523;2.1584368;-0.03438563;-2.9856572;2.9180555;0.016584441;-0.021533206;-0.70638514;0.15139104;-1.2060806;1.4862574;-4.152076;-2.004675;3.3308306;1.1113418;-0.86101377;-1.8159643;2.3943503;-1.1408663;0.2838821;-0.06442708;2.0191371;3.8951237;-0.9465291;-0.7700328;-4.8990383;1.2350774;-0.20770186;3.9685266;0.018948093;2.481008;-0.024940345;0.021469371;0.06619875;0.05518861;-9.89292;-0.035274893;1.1293166;-0.07671602;-0.8358347;-0.008338162;1.2230784;0.78850436;-1.2927537;3.0176525;2.752755;-4.889506;0.031649977;1.4422784;0.29059744;-1.2807081;0.114504695;-1.1956096;0.0101287905;-0.55290776;2.0280707;-5.082562;0.009294301;0.0010392003;0.2147925;-0.026684914;0.28951514;-0.7748695;-0.6222431;-2.1656253;-0.11988076;1.5603167;-0.080924235;-2.1699576;0.14355803;-0.78198963;0.036781866;2.2476811;-0.3150017;-1.871827;1.1419158;-0.019751696;0.0006517878;-0.06300266;0.08072461;0.04306323;-0.56916356;-0.9300333;4.194527;-0.0035371454;1.2776104;-6.79513;-0.026193384;2.9468026;-8.757248;0.01047127;1.35612;0.017564727;3.4548986;0.6812208;0.7013068;1.3090794;-3.7077572;0.5105563;1.365907;1.0082307;0.26599425;0.8184668;-0.008728225;0.23760904;-0.49106294;1.3493711;2.180352;0.022832796;-2.0906904;-0.06875365;0.0061498685;-0.049526274;-1.2465;-0.04719051;0.9488738;0.031016583;1.3836068;2.0201268;0.94640994;-0.8781748;-1.3450743;-0.09509108;-0.44780633;-0.055120096;-2.4112089;-0.030095555;1.3004187;0.03164202;1.0480636;-0.029969037;-1.8792553;0.79097766;0.68120396;2.2810252;-1.1319989;0.1872029;0.41629153;1.157718;0.8609499;-1.285532;-5.1580477;-0.029622745;-0.07929866;-0.034545146;2.326376;-0.000657519;2.1498818;0.008030117;-1.9002842;-0.0040693423;4.0040135;1.1878322;2.726271;0.0014497093;1.2376454;-1.1743534;-0.05675292;0.06328581;-0.33071208;0.002063563;0.874962;0.053850226;-0.04369723;0.030734178;-2.3741145;0.13284451;1.4919802;-1.1201421;0.003614907;1.603733;0.110153936;4.135141;0.021471502;1.6727338;1.5174384;1.7892965;-2.6172085;-1.6191214;0.3881802;-1.8038272;2.3571007;0.157299;-0.017207416;-0.4263647;-0.01835821;-0.7841066;-1.2264248;-1.964551;1.0904915;-2.877636;-0.044287924;0.9289904;2.4821625;-0.403981;1.5358964;1.1310983;-2.0883796;-0.3100922;2.2069235;-10.604921;0.5409251;-0.008617422;-0.41775334;0.18234774;0.03025173;-0.078924805;-0.0024010043;-0.07033441;-0.04088967;-1.4484059;0.2809504;0.6100064;-2.015719;-0.088239804;-0.01847835;-0.061193317;1.2704911;-2.749354;0.2847327;-0.12258099;0.437756;-1.887286;0.28039044;0.6303627;0.53012556;-2.1031668;-0.072783135;3.1572993;0.2508596;-0.019870384;0.20525084;0.6396186;-0.053905345;-3.0974507;-0.030824695;-1.1469874;-0.07494876;0.0018266308;0.044487506;-3.4964392;-2.0114923;0.69318426;-0.34303543;0.0038692832;1.0891157;-0.0017925884;3.2157362;-0.8529213;-1.4628494;-4.9686604;3.8772242;0.03086269;0.76789665;-0.7128489;-2.3853629;-10.280178;2.8776336;-1.2680255;-0.05488671;-2.2465522;-0.037908424;0.0058661625;-0.9801772;0.5506166;-0.029217247;0.83518744;0.011446792;0.06396979;0.79389906;1.8965801;0.021530595;2.6314814;-0.006572125;0.06903132;0.52369267;2.5704887;-0.025938537;0.99433833;-1.0660645;-0.7183951;0.037290264;0.01732045;-2.527614;0.67871004;-3.7518082;0.59817016;-1.1036564;-0.44447887;0.018346036;-1.2764108;0.12519626;0.98706853;-2.0054815;-3.1449037;-1.7665225;-0.0747404;2.3408306;-2.1752577;0.40054938;-6.766021;-2.4462967;-0.49263692;0.04770274;-0.009330154;0.23083997
0.7922211;0.6989465;1.253565;-1.0480123;0.036593582;6.409441;1.2542096;0.38297585;-0.0131723285;-0.019815894;0.017887985;2.4282613;-1.6024277;-2.8861132;1.6584772;-1.0289661;-0.6526295;-0.926681;-0.65111303;1.8520341;0.075829364;0.017769147;-0.65914965;-0.03653568;-0.38162425;0.009346993;-0.0015554175;2.1820416;-7.3030443;0.5243815;-1.3793665;0.59770924;0.76951474;-2.648513;-1.8928833;1.9759024;-2.2512496;-0.27171373;1.0702862;-0.08241133;0.42381477;0.0067890137;-1.0424063;-3.858976;-0.0021498774;3.1290662;-0.0038017626;1.2290103;0.6151021;-0.007382294;-0.026591472;-2.0305438;0.7427964;0.038250163;-0.009093823;-0.4802918;0.662256;1.7421728;1.1014713;-0.49819762;0.0055342857;0.18494686;-0.003723769;0.7407057;-0.22552444;-2.8244855;-12.978177;-0.5453751;-1.7490482;0.0053913705;3.3430362;-0.026163733;-0.011725546;-1.3112302;2.5224338;-0.14233078;0.009113769;-1.126803;-0.7276949;0.7801046;-0.0348867;0.15594733;-1.2664099;0.30118337;0.045801613;-0.27270108;-0.33617574;0.35956192;-0.05179556;0.026174046;-0.03447224;-6.346113;4.942912;1.3285191;-4.9400673;-0.7735868;-1.2317104;0.46213123;0.9812239;0.83213824;-0.053876426;1.6610122;-0.7417623;0.0038982092;-1.4709759;1.0007619;0.27769884;0.03946197;-0.077753864;-0.036092557;2.6294856;0.03566129;0.7549882;-2.4644864;-1.495067;0.67891943;-2.763589;3.5532227;-0.002320346;-5.9595895;-2.2013865;-0.0010201244;2.3407094;0.056584228;-0.037364785;0.54994756;1.8989878;-2.8113215;0.055800106;1.3486831;-6.2216763;-0.72538;-3.7208228;-3.3376038;-0.034108553;-0.8261919;2.2431917;-3.9666564;-0.00033670542;0.09063386;-1.3066931;0.5430326;-2.1628084;0.117627315;0.07955991;0.295567;-3.3094888;0.05967979;-0.41120362;-2.8111691;-0.03266599;-1.3051481;-0.04605572;-1.7256013;0.047187064;-0.012269521;0.31468984;-2.7966113;-0.114744246;0.9608001;0.29476705;-0.0006911608;0.4481865;-0.037312035;-0.051028196;-0.055045824;-0.03523524;-0.013481669;0.032907072;1.786783;3.0098329;-0.0021892134;0.016256062;2.6682549;1.5111463;-1.447693;0.07586527;0.007133638;0.50807416;0.005028756;0.024284378;-1.0404547;-3.3433366;-4.9254227;1.608569;-1.0214598;-1.9327415;-0.51715094;3.5318804;-0.018038895;-7.606509;0.43141362;-3.9886155;-0.067605756;0.007803404;0.3842002;1.7352169;-1.4176383;-2.4283583;0.023833971;-0.37596554;-1.2168264;3.581704;0.11096604;-2.9032671;-0.0023579234;1.5239033;-0.0518745;-1.0663424;2.4135556;-0.0335015;4.5078077;-0.030304272;0.035583496;-5.387261;0.02857755;0.44359022;1.4581076;-0.738077;2.9174716;-1.740053;-3.2594767;-1.9799988;-0.00022156766;2.7000897;0.052000515;0.06567651;-2.5021605;-0.008181708;-2.94399;-2.0634859;-0.0008133761;1.6617401;-8.064819;-3.1448374;-0.5683159;0.13130091;-0.0046094563;-1.7234764;-0.550256;1.7482585;0.12807776;-0.03324382;3.8175242;2.0915587;0.4772589;0.0127684325;-0.048665944;-0.42232466;-0.39084744;0.00927581;-2.2499459;-1.4770986;-0.6793804;-3.3239276;-13.379242;-2.8506835;-0.0065384163;-1.7299491;1.6102711;0.03506559;0.010325855;2.1989746;1.1152135;0.82167363;-1.2759233;3.2195723;1.914167;1.4907992;-0.98615235;0.7673489;-0.023218859;0.008927829;-2.5856183;1.8398979;0.038342882;0.048137642;-0.15724751;-0.4421884;3.517261;-1.1524378;-7.6561627;-0.03168285;0.79817444;0.21510965;-3.4547424;-1.1628504;1.4894627;-0.8297387;0.2584182;0.013120474;-0.2515816;3.4133675;-1.8565195;-3.9054792;1.3068104;1.2280978;0.04136027;2.2073567;-0.003726778;3.6843567;0.050674736;-0.046006825;-0.11670146;-0.033527244;-9.453914;-0.060699176;0.1719021;0.08390374;0.9620857;0.037543327;-0.67036235;0.49272507;-0.03305199;-0.03649723;2.7561173;-4.4022512;0.0043385862;-0.40325877;0.18657601;0.24138696;-5.0629616;-2.790497;-0.025620578;1.1033243;3.5911446;-0.9147654;0.024960572;-0.0108957635;-0.5673369;-0.00066866237;0.83221173;0.043002907;1.2531313;-1.6646339;-0.098725334;0.28770912;0.53830737;-3.740925;-0.08742565;0.5238542;0.028111268;4.396689;1.8943931;-1.6130228;0.6484016;0.0739965;-0.046307754;0.5087052;-1.2041953;0.029686235;1.9861073;0.22976929;1.592797;-0.00026570418;0.9890144;-7.10352;0.26456934;2.006244;-8.315268;-0.021092398;-0.31104007;0.00453935;2.7560036;1.5642692;-1.0405022;0.5708593;-0.26067355;-3.1644666;-0.8656611;2.801006;0.3045116;-1.9620681;0.04757137;0.39710072;2.3281384;3.250255;2.3969052;-0.0032947941;0.2767692;0.089020364;-0.004398919;0.06280631;-0.61603427;0.45699653;0.09313621;-0.032994848;0.42222273;2.37023;0.4589178;-0.2474511;-0.16931123;-0.6499914;-0.16138265;0.13703288;1.3651613;0.0447691;-1.1592757;-0.059277285;-0.18663341;-0.05511266;-2.118645;-1.7651647;0.9987675;3.8976903;-0.9531625;0.41016102;-3.432038;1.9214412;2.2262473;1.3642508;-4.1778145;0.027316391;1.0847244;-0.0010846826;-0.9435135;0.02978482;1.5041689;0.0805311;2.1570091;-0.015896909;1.199796;1.1980863;0.37879923;0.0011035698;1.2204907;-0.5750978;-0.09899568;-3.1163292;-2.09851;-0.041078113;-2.7813237;-0.016916186;0.036552288;-0.02137987;-5.8467927;1.1620679;-1.0976511;0.9931775;0.034342073;-1.4376701;-1.2328374;1.4768924;-0.011244464;-0.6979935;-2.3011398;-0.15482731;-1.8363158;-1.4003333;-2.2976255;-0.14974122;2.2991326;-0.5992181;0.6473136;-0.1984738;0.009643456;-1.97521;2.8026876;-1.3272295;-0.45842177;-0.6284891;-0.06376065;1.4623821;-0.2945113;-0.0995619;0.1375499;-1.0657505;-2.7535834;-0.30687332;1.4094005;-9.315267;0.42497268;-0.0017761736;-3.712644;0.8613585;0.07244484;0.20070335;-0.02123716;-0.5023316;0.018194117;-1.2048969;-0.82836753;2.2475178;3.3670335;-0.006342772;0.018218722;0.35683975;1.3205614;-1.4696758;0.5532934;0.031685714;0.85417444;-0.7655415;1.0715373;1.0755383;0.02510451;-6.097413;0.16653448;-0.5502057;-1.7256262;-0.026047844;2.1765559;2.2648325;-0.0031272143;-2.4478128;0.019653788;0.33211583;-0.10943069;0.017075082;-0.006049486;-0.31252235;1.8483402;-0.17075628;1.4152559;0.03844276;1.611452;0.1806315;1.1524936;2.1273737;-3.987262;-4.232593;2.631277;-0.037384298;0.5598196;-1.6424823;-2.1144779;-8.27518;3.319224;-2.0283074;0.55941725;-0.5516588;0.40778646;0.028674021;-5.0036383;0.17636181;0.3855667;1.0636932;-0.0055608335;0.104024895;1.9973406;0.12136858;0.09283122;-0.07140138;0.031514917;-0.03807891;1.7672297;2.1353807;-0.009280331;1.3261592;-0.66726637;0.46872747;1.1988493;-0.002500656;0.16425335;-1.7477028;-3.0997736;-0.8620725;-0.17243277;2.0426764;-0.018028924;-4.3841434;-0.10971282;1.2651839;-0.9829005;-3.273295;-1.6200409;-0.012217498;1.898337;1.5961418;0.34307995;-3.06254;-2.326129;0.738273;-0.0047254898;0.041615847;2.8664527
0.86919814;1.2761667;1.1941929;-2.3068461;-0.01301853;3.638443;2.6117284;0.06636381;-0.00018290002;-0.40258503;-0.05199514;2.3171697;-1.6914822;0.612539;-2.578853;-1.7537352;-2.707358;-1.8911377;-1.1507045;2.003449;-3.4387388;-0.01621766;-2.7286937;-2.479572;0.20359792;-0.014927825;0.012006883;1.2476478;-6.6542935;2.6717155;1.3979751;-0.15606272;-0.25110328;-0.7382056;-0.974825;3.258912;-0.9342401;0.78102195;1.8364627;-0.8333481;0.037404694;-0.008253451;-2.034331;2.9147983;-0.018987263;0.9278693;0.014836023;1.5312985;-0.9044836;-0.015712718;-0.036918342;-3.9603548;0.35383347;-0.0100466255;-0.039514877;-0.68126976;-0.1494396;-1.3896006;-0.04601084;-1.6643018;0.052796334;-1.510474;-0.015377728;0.05378359;0.30263296;-0.67324615;-11.428003;4.465628;1.6788384;0.014201175;2.3610308;0.023314374;-0.03313318;0.6551948;0.6065958;1.1693026;-0.050039526;-2.0160458;-0.92949665;-0.15751474;0.011060769;-2.7464678;0.8503286;-3.0434375;-0.027295707;0.92368865;0.21224989;-0.081789665;0.62370145;-0.00835581;0.00010706632;-1.734763;3.1855693;-0.9366044;-2.4478326;0.506607;0.9269107;0.14892645;0.9217753;0.8591434;-0.017791983;-1.7220093;1.0939846;-0.011139397;-1.8060588;-2.4604704;-0.113863766;-0.4472408;-0.6177993;-0.023622394;1.1660253;0.3447938;2.2238698;-5.548824;2.7263215;1.761811;-1.0298915;2.818602;0.014962224;-6.6160326;-1.9664083;0.013722418;0.84440297;0.012120388;-0.004773922;-0.12871431;0.876995;-1.5815078;-0.014241386;-0.22078112;-6.965746;-1.0246029;0.31849286;-3.0370708;-0.13551861;1.7420428;0.51666325;2.3289387;0.0014483903;-0.036056343;1.7125201;0.49283865;-0.9026284;2.7796416;-0.041825894;-2.6483939;-1.5714605;0.0089577725;-0.27185097;-1.1222776;0.03826707;2.7411916;0.019418215;-2.745253;0.013374212;0.025160529;-0.046009157;-0.9723004;-1.8007988;1.5053812;-0.5387206;-0.07230259;-0.9717112;0.010768307;0.2387486;-0.8499896;3.5566828;0.029258892;3.7270472;1.392949;3.2762184;-0.07841533;0.040805;3.611915;2.613854;-0.19320069;-0.055263672;-0.0117490105;0.40320143;0.029306553;0.0035831174;0.18074197;-2.4416058;-1.1511232;-4.703021;-0.0043086708;-3.6955101;1.1782738;1.5237352;0.008763803;0.68764216;-0.03422934;0.8763823;-0.0051887385;-0.015491225;-1.7143062;0.36522642;1.7762269;2.1015348;0.014527365;1.1466053;0.922573;-1.4194982;0.013084168;-0.74691296;0.007080737;-3.2556944;0.056318987;-0.6480058;0.30176985;-0.040315323;2.6692874;-0.024917321;-0.07233426;-3.423622;-0.0501214;0.08980677;4.5728946;-0.4371528;2.452079;2.1042724;-0.9786761;-1.6915847;0.036114022;1.4245209;0.0010666096;0.0025553668;-0.5254897;0.001019836;-0.5860489;-1.9147825;0.015385711;-0.0733323;-0.81619936;-1.8494592;0.33654347;1.1153119;-0.011233184;-5.323506;-0.0765858;-0.7950265;-0.14041679;-0.0006547066;0.43972516;1.5542455;-5.142407;0.008627717;-0.5244427;0.647178;-1.6268665;-0.046693422;-0.2774622;0.9681862;2.8885517;-5.329726;-13.297144;-0.059296835;-0.029548422;-1.9913273;0.34452352;-0.025742425;0.01484924;-1.3738245;-0.86719334;2.3586957;-2.1096253;1.391492;1.7506046;-0.34915364;-2.0534878;0.7454019;-0.7750616;-0.007215768;-2.15289;2.1417904;0.018250462;-0.047125872;0.22601548;-1.3810061;0.4446269;1.8191819;-2.986658;-5.5410643;1.7975472;1.6844313;-2.3432605;-0.0119899;1.0264024;-0.0076268786;2.8065453;0.007499452;-0.92009014;3.2735302;-3.5965378;-1.7025751;-1.2754699;1.5028865;0.30582023;-2.9305868;0.007738833;4.547629;-0.03074022;-0.053826135;0.9160715;0.06174485;-9.4032955;0.018943252;-0.097915225;-0.01907941;-0.1924677;0.0136265615;-0.7786336;1.379004;-2.1270242;-0.5096667;3.3427424;-3.724473;-0.022525633;-1.4111247;-0.044352524;0.84853494;-2.2724304;-0.83956474;0.01008379;0.70327747;2.3017797;0.6370305;-0.006261739;-0.023834314;-0.3503198;-0.014533787;-0.16351663;-1.9116757;-2.7109616;0.6590067;0.17850335;0.4553299;-0.17460799;-0.27969187;-0.024731074;2.520646;-0.025278503;4.029271;0.69347596;-2.9661274;1.2908796;-0.05408459;-0.0349091;-0.15319525;-0.258588;-0.015067726;-0.033061724;1.7301621;3.2552454;-0.001632891;2.3708282;-7.6959434;-1.7581091;1.6187061;-8.24145;-0.046915732;0.6602339;0.022219587;0.5512558;1.0708266;-2.2711093;0.120349586;-3.1895702;-6.2142634;0.82119775;2.421909;-0.5649299;-0.74719733;-0.043610938;1.5183038;0.0057773213;3.046347;2.7064927;-0.08968477;-2.858973;-0.0042311284;-0.0005343919;0.012328788;-1.2458776;-0.18401216;0.87180865;-0.01242805;1.7971715;1.4319952;2.1373372;-0.11571965;3.0605989;2.73118;-0.4381135;-0.03481151;-0.8185302;-0.04408134;1.1271287;0.07306877;-0.6917788;0.04261931;-2.7102456;0.078328915;0.626109;2.5670152;-3.8775592;2.6372395;-0.5552882;2.0123768;-0.19717383;-0.13833754;-5.162713;-0.036454335;2.9450362;-0.006861718;-0.012277352;0.0146901235;-3.3406606;-0.017530952;1.7166536;-0.030052058;0.52435154;1.3911651;1.2312932;0.004563282;1.4401004;-1.750234;0.15843396;-2.495135;-0.6500234;-0.00057857437;1.4795699;-0.03325572;0.32321638;-0.054203395;-2.731763;-0.37005824;3.9170763;-1.08999;0.011344851;-3.1108963;0.8304586;3.1106699;0.010483833;-4.655446;-1.233686;-2.4601505;0.5398592;-1.2192584;-0.63935983;0.46118742;2.0801942;0.45820707;-0.19866635;0.5742974;0.025918525;-0.8610213;1.8333119;-1.0435522;-1.4090213;1.6846633;-0.14967164;1.0724577;0.51804405;-0.9767742;2.1776078;-1.418503;-2.8180661;-1.3759478;2.4052348;-8.493293;-0.24184756;0.008108669;-0.6823126;-0.11684857;-0.059317827;-0.07401425;0.039573975;-1.5626363;0.0016727962;3.4017236;1.2654029;0.8272002;-0.39024988;-0.011543536;0.03554366;-0.016485276;-1.5698327;-1.0710588;-0.6065582;-0.011186026;2.3092237;0.0812915;-0.15203156;1.8736823;-0.17802794;-2.0955226;-0.083877385;-2.1562002;-0.85211265;-0.03857968;-0.2739561;1.1324077;0.01599264;-0.12475469;-0.04546912;-0.12165048;-0.18228337;0.003793874;0.021752205;0.2952909;5.2451215;0.0050807064;0.06755667;-0.049070016;1.6281337;-0.073367596;0.9501632;1.5088199;-1.5245366;-1.2499251;5.0265975;-0.01373806;0.91169983;0.75258654;-0.96600616;-8.44126;4.0494647;-1.0298467;-0.007551226;-1.6609765;-0.05270216;-0.01157837;-4.669615;0.56314397;-0.10641826;3.0355632;0.019913707;-0.053312704;2.4692547;0.100725375;-0.024035202;1.2088549;0.00814384;-0.049655996;0.9531518;-3.3488057;-0.015781786;1.9693397;-2.6158438;-0.09253123;-1.4019198;-0.027594976;0.27346423;-1.3944113;1.0868522;0.65044075;-1.0720638;-0.44886523;0.03475943;-4.1368546;0.43761775;-1.0654744;-1.3173672;-3.1304672;-1.676811;0.008719631;1.0312665;-0.01581557;-0.026788797;-2.650965;3.458653;-0.72626805;-0.03685767;0.01512009;2.8590403
2.0039523;-0.63973516;-0.8478585;1.9857881;-0.022028465;2.9026139;3.5961666;1.150085;-0.019862454;-4.01931;-0.03320206;1.5728527;-1.5538541;-1.8711963;-2.775039;0.2765496;-0.8629955;1.2661914;-1.0637779;1.205618;-3.4542937;-0.036190815;-3.9854226;-0.14025907;-0.79411536;-0.0070107;0.013250595;1.6181937;-6.1765084;2.5418975;0.6168072;-0.03555514;-1.5766864;0.56386024;-1.0539579;1.2814656;-4.192228;-0.08207952;-2.6064517;-0.068536766;0.034061544;0.017850846;-2.2508807;0.21205151;-0.03130754;0.4372488;-0.0014926033;1.9142241;-1.8010677;0.0291275;-0.020790368;0.44299105;-1.8794786;0.09510381;0.011464976;0.8512792;-0.083642624;-3.9262452;-0.18063743;1.3373792;0.0068649217;-3.0095372;0.06425742;-1.9501631;2.2332776;-1.2727125;-12.410809;1.0859517;-1.551275;0.012735861;1.6502739;-0.02148179;-0.0055212057;0.31957522;2.1155488;1.1553738;0.012415247;-0.9144477;-1.4747972;-0.058924533;0.025741026;-0.9055985;1.313277;-1.6059593;-0.038177505;-1.8648363;-0.93407387;-0.010758979;-0.12884054;0.0015220473;-0.0017508743;1.2135713;2.3929572;-0.13878244;-1.5229514;1.2402527;-3.3759036;-1.3130631;1.0455728;1.0931535;0.016305426;-0.26041242;-1.6799991;-0.019849893;0.44198415;-1.0204356;0.020526398;1.7112595;0.1398872;-0.069440715;-2.1206188;1.0621548;0.7845115;-6.6937547;-0.05291237;1.5917587;-3.5643816;4.523274;0.036635146;-4.8514733;-2.037588;0.018872634;0.3378293;0.019699177;-0.09377501;-0.023045084;2.694159;-0.43588594;-0.040309936;-0.45668516;-1.6690373;-2.542112;-0.06223058;-4.866446;0.8233948;0.7804848;0.37913924;0.115306385;0.025867263;-0.017742386;1.0587056;0.68732053;0.18510379;1.6658342;-0.0059032827;-0.77524966;-1.6539805;-0.061800487;-0.058651224;0.775835;-0.0025466483;-0.6061825;-0.16068053;-1.7331719;-0.009394437;0.027612817;0.05545717;-2.2888145;-0.5614532;1.3059537;-1.3095676;-0.040805347;1.266696;0.049046762;-0.09146041;-0.99628794;1.7214719;-0.04633868;1.8899518;2.365936;5.1982493;0.05756764;-0.049397975;-0.27342045;-2.798009;-2.7483466;-0.062298987;0.02228051;-0.27795807;-0.026499826;-0.048281573;-0.34642902;-3.051933;-1.7549337;-3.7895243;0.98664445;-0.51274514;4.0230446;0.6823598;-0.04129683;2.6135879;0.035117257;-4.4562955;0.008840149;-0.0027542987;1.6361066;-0.22657678;3.6235304;0.858879;0.02718436;1.8009703;1.4399713;-4.6898155;-0.0456757;1.6614141;0.010772115;-3.7311888;0.053789455;0.8601689;-0.6484657;0.10623658;1.9779402;-0.015736716;0.028527034;-2.9122028;0.027174443;2.6488752;3.8821495;0.9195793;0.607861;1.8925186;1.3916221;2.2922635;-0.004090839;-0.037187036;0.07015873;0.03236041;-0.8320673;-0.011514862;1.191469;-2.0704901;0.001423993;0.11405534;2.7462149;-2.4318132;1.1391584;0.017624969;0.030269887;-1.7512112;-0.33336276;0.9870615;-0.07000784;-0.17513119;-1.5174774;1.3573986;-7.43366;0.052879367;0.6357455;1.203302;0.6162548;0.06196741;-2.219072;-0.5695666;3.191914;-4.064132;-14.77229;3.3885753;0.022815725;1.6964035;0.09264344;0.06973198;0.033121765;-0.71747243;-1.1439767;1.313551;-2.8304944;-1.0219307;3.2109036;-0.16521141;-4.2393827;-0.0496172;-2.784635;-0.06225916;-2.4415262;3.94173;0.040630244;0.01921709;0.42936474;-2.8444984;-1.1154919;-1.0634897;-1.7376962;-4.1736794;1.4356114;0.689375;2.5328777;2.5274224;1.2351741;1.5832486;1.3578289;-0.005748823;0.0092873685;3.9014869;-0.055421524;1.3934572;-2.3643267;2.2330053;-0.10916265;-1.017719;0.009306064;4.36207;0.007890616;0.05442563;0.4415597;-0.024702221;-8.916765;0.0075619896;-0.0018587305;0.05494155;-1.6964351;-0.039345518;-4.524174;0.87933755;0.8343397;-0.4808629;5.0437346;-2.4527678;0.10896644;-1.983012;0.52477133;-2.4157102;-2.056242;-1.1248106;-0.0128854485;-0.5805984;1.7662265;1.0924026;0.0040854113;0.04344837;-0.9834397;-0.004084931;0.5431189;-4.2276793;-1.4438118;1.8151455;-0.08542849;0.8736274;-0.061839607;-2.0411088;-0.04078223;0.7689226;-0.03358458;-0.15342298;1.4164429;-6.174194;3.036288;0.03988281;-0.020687545;-0.04383936;-0.39992976;-0.01674854;0.3946968;-0.36275756;2.843052;-0.009706557;1.2271789;-6.427029;-1.7275348;2.397952;-7.990976;0.17136966;1.0293386;0.0027491085;0.68770677;-1.4168788;-1.0041678;-0.93829;-0.07658283;-8.648535;1.0810426;-0.39934742;-0.35393584;0.37691265;-0.019743595;4.5138407;-1.3232512;2.9320326;2.3966935;0.19816439;-3.0754614;-0.009318353;0.011817712;-0.102206305;0.7058146;-0.06045963;2.3083906;0.036898322;-1.381251;0.10323605;0.6622621;0.11051352;4.4781637;1.6223729;-0.7615607;0.05272297;2.29142;0.041969325;-1.3827388;-0.052017532;-3.1280258;-0.05077463;3.9963446;-0.29228857;1.0803198;0.8549064;-3.4461303;1.4677862;1.6062787;1.2897477;-0.63291603;-1.6568375;-0.6650281;-0.013225035;1.2237463;-0.022404328;0.5402942;-0.04541589;-3.449405;-0.0022573862;1.8339279;0.013879046;1.5689932;2.125518;0.31100082;-0.00894884;1.8975354;2.2227447;-0.11786766;-4.736173;-0.83994216;0.025171824;0.73113537;0.02260317;-0.017768005;-0.01905017;-4.0908275;-1.2039647;-0.5447699;-0.66245455;0.0039056547;0.5494099;1.7573681;-0.032602802;-0.016756631;-2.961377;0.08628886;-1.2897;-1.3593581;-1.0385652;1.3007526;0.23548207;1.7245066;-1.3985529;-0.0789771;-0.5187669;0.004526175;-2.781566;3.3974645;0.21976699;2.3522773;1.2816138;-0.47062087;1.2510029;-4.005176;-2.2415645;2.0824697;2.4830945;-1.5880882;1.0842756;-0.87473583;-8.167406;-2.7210386;0.027789567;-0.22050881;-1.5946944;-0.025094118;-0.0133136995;-0.03171847;-3.2995026;-0.032284785;-0.3709413;0.64009744;0.11038267;-0.6279987;0.055040102;-0.02100823;-1.1018908;1.6668057;-4.817176;-1.2463803;0.028606335;0.8239942;2.0262952;-0.0025824215;-0.48248127;2.0609045;1.4981297;-0.012597343;-0.5404171;-0.9596161;-0.008012639;0.4485739;0.07821869;-0.018857067;-2.731457;-0.00031039407;-1.7717915;-0.04921257;0.03144579;0.002512916;0.99930036;1.583511;-0.016451286;0.54448116;0.02810172;1.6221238;0.06504301;0.017163165;1.0709863;-0.5326261;0.3483482;3.151515;-0.027782226;-0.06364784;0.8619281;-2.0715902;-9.239593;4.9397354;-3.0472114;-0.058404;0.33060783;-0.07263374;0.017495122;-2.444603;-0.45313796;0.036882482;3.4854999;-0.054381594;0.085719146;-1.0072367;0.46937382;0.04144637;0.40202442;-0.024005558;0.030889018;2.21367;-5.8755307;-0.024191946;-1.1982867;0.0005270548;-0.1844819;1.0431848;-0.030679204;3.4855294;2.131666;2.3832774;0.5438408;1.4865792;-1.2881103;-0.013944174;-1.9206364;-1.1361623;-1.2507439;-1.9811943;-1.1065174;-0.6894026;-0.022949867;3.7966197;-0.21315429;-0.12047747;-3.5967326;3.716007;-0.38055873;-0.013946673;-0.010129569;2.999479
2.5597544;-1.1314994;-2.1111767;4.0814238;0.02210027;2.494948;2.3616312;1.9708264;-0.023134047;0.30731508;-0.021560587;0.421417;-3.917639;-1.7504722;2.0382524;-0.25756505;1.9698836;-0.32572693;1.2821276;0.07581457;-3.1400924;-0.00799541;-2.7602727;-2.4910877;-0.108124204;-0.055728495;-0.017272001;1.7933645;-6.1112165;3.963452;0.50643617;0.0060988967;-5.146145;0.22744358;1.8498042;0.93039596;-3.8348517;0.77307904;-2.3217304;2.7820377;-0.07897369;0.024955;0.6367654;-1.8338053;-0.020937484;-0.51437694;-0.029924504;0.8708071;1.4130058;-0.06182328;-0.022325445;-0.8545258;0.83127683;-0.07170332;0.0063714874;1.4498559;0.0657591;-3.9523187;1.0988659;0.9509597;0.010222817;-3.5664647;-0.020740956;-4.1477094;-0.7540631;-0.9004073;-13.856857;-2.4635081;0.22447152;-0.03897117;1.7092446;0.03373706;-0.042461995;0.7709515;1.8476378;0.686376;-0.02077093;-1.7006196;-0.57114357;0.03033313;-0.0295721;-2.5867162;0.0023328469;-2.6239557;0.002603722;1.7896451;-3.536857;-0.034834344;-0.060402248;0.05949124;-0.009839192;2.0730891;2.8275654;-2.3611212;-4.3097215;-4.146306;-1.2091305;-0.33883357;1.9943708;-3.4397523;0.0004664101;-1.3063842;-4.397159;-0.009696642;2.7359688;1.0576324;-0.05766635;0.37437427;-0.51259226;0.03349478;-3.576212;0.8416412;1.5994431;-4.6463194;1.0599457;0.4108674;-2.7782834;3.1134827;0.014406091;2.3875337;-1.809084;-0.07786371;2.0187008;-0.022440657;0.6358532;0.015314207;2.231101;-0.3992981;-0.06560567;2.8214483;-0.20875533;-0.5427736;-1.1683304;-2.917885;-0.24446982;-1.8430451;-0.109382555;0.16517565;0.004979878;0.0128207905;-1.91691;1.269552;-2.3023376;1.6843823;-0.02500691;0.37884447;-1.8730408;0.019449389;-2.252244;1.2624338;0.018693645;-1.5416522;-0.16365084;-2.4856396;-0.021422166;0.06358171;-0.044166513;-1.6774347;-2.6449678;1.8232651;-0.51927936;0.008179864;3.9374926;0.017466662;-0.014932205;1.1681402;3.4156134;0.04868366;-3.7381432;2.219088;0.20356399;-0.09540148;-0.003652143;-1.8685728;-1.2200222;1.3758265;0.126015;-0.031066792;0.6417739;-0.065792054;-0.013747639;1.6643873;-3.2385018;-0.023685152;-7.1937833;2.4193563;-1.3732121;4.184365;0.42576116;0.0007214271;-0.3749972;0.019642549;1.0136445;0.026209004;0.03626706;1.8400409;0.5548305;1.1015481;0.96030694;-0.039648857;4.5529585;-1.187449;-4.167519;0.07921623;-0.76348746;-0.05669276;0.34907314;0.010666349;-0.9579845;0.88638264;-0.48397553;0.6917598;-0.024554549;0.024911594;-0.9969296;-0.014159005;1.5370291;4.603151;-1.1046474;2.0523245;3.4419632;1.3870922;3.5392873;-0.019261485;1.0193756;-0.037096824;-0.0064033726;0.8892445;-0.03353637;0.42603853;-1.6732769;0.056584943;1.3129504;1.2015451;0.34344524;-1.0879776;0.9975858;-0.036685742;-4.252851;-0.86740685;1.3411498;0.22054644;0.7298654;-0.9838169;-1.7239121;-9.64638;-0.06717633;0.17406504;-1.884788;1.4382164;-0.032011244;-2.1781332;-0.12663257;1.0457488;1.5767878;-14.417604;2.628066;-0.029470418;2.01926;2.3083584;-0.026876114;0.005714396;-1.8621165;0.16029778;1.9538844;-1.2512903;0.8837012;2.5630927;-0.4407154;-1.9489337;0.27433726;-1.9566144;-0.006690917;0.23386091;1.7008604;-0.0061278027;0.0061978423;2.280972;-1.0775261;0.602836;-0.68935794;-1.2833412;-2.3642616;1.8679434;1.3230784;-0.3364929;0.9864265;1.6233155;1.0848212;-0.96227807;0.0032841484;1.9095408;3.519605;-2.4703352;-1.7062032;3.1763473;1.8970251;-0.061778743;1.2215958;0.0061671045;1.577451;-0.038057588;-0.03759267;0.7251847;-0.04970862;-9.442762;0.0017127165;-0.0886286;0.111196406;1.6904924;0.0010219584;-3.730395;0.7306418;-2.5042272;1.5806695;2.7804456;-0.5008868;0.007440473;-3.6740327;-0.29419792;-3.2961836;-0.76535296;-0.5203224;-0.018328622;-0.70698863;3.7317019;0.16718414;-0.025812635;-0.03754815;0.083949916;0.037364185;0.2922298;-1.5461577;-0.9327007;1.1189374;-0.01778555;0.29558605;-0.0325849;2.0891933;0.00027902043;2.418404;0.006321991;0.52519643;1.1101403;-4.377988;2.4930592;0.0041402807;0.08119116;-0.02591341;1.2880217;0.009375933;-2.16944;-1.8818198;0.6489472;0.01728146;1.3283817;-7.5684;-1.4872354;0.66041046;-7.7228465;-0.14652954;-1.1352376;-0.028677102;0.8653382;1.1019168;-2.00889;-3.5409756;1.6540291;-9.943562;-0.9072713;0.6357416;1.3618927;2.5744336;-0.018920062;2.2679784;-0.20023663;2.0840175;3.2870347;-0.118270956;-3.4132113;-0.0071554147;-0.021072429;0.18349613;-1.2404022;-0.011965653;2.7441113;-0.022620153;-1.6574167;-0.26660386;-3.0377476;-1.3719918;0.3179546;2.7800581;-0.69557804;-0.026718939;0.37398157;-0.019452276;-0.18220347;-0.015410451;0.30531374;-0.041310646;1.8660905;3.1891162;0.65848047;0.3290605;-0.084246695;1.8552232;-1.4823799;-0.5269104;0.9362058;1.4467443;0.8318897;-0.041455645;1.3196145;0.017902952;-0.20770857;0.059087235;-1.2813643;-0.052254066;1.875559;0.017964633;1.389982;1.7996056;0.57877856;-0.0033785861;1.6817726;-3.446615;0.021108624;-3.6975582;-1.120935;-0.015661178;0.9095215;-0.023952357;0.15875483;-0.026312629;-2.543426;0.635531;2.3281841;-3.1328897;-0.026375555;1.5489042;1.3379904;0.10130305;0.0023605116;-0.71063364;-0.6091716;-0.987623;0.5372671;-0.742115;1.211247;1.0361733;3.6776738;2.9374075;-0.023253044;2.7435424;-0.0011149088;-2.8464632;2.144414;-0.23529665;4.508789;-0.4596683;-0.031250935;-3.169254;-4.5982594;-1.3697329;1.8703659;2.0591052;-0.7089315;2.2354198;-2.2576058;-7.6511807;-1.1319162;-0.030530857;-3.0257487;-1.0239671;0.004499906;0.017052002;0.037497144;-1.2437258;-0.018224556;1.9821534;-0.7425918;1.9769756;1.0707949;-0.026165718;0.0077813705;-1.6780995;0.15526544;-1.0389336;0.18637042;-0.014828914;0.5330179;2.8668652;-0.0051395465;-1.7396307;1.1617604;0.08414317;0.032520507;-0.08857759;-3.7209709;-0.0147832455;1.405907;-2.8334718;-0.014803612;-1.7992741;0.0020522862;0.88174874;-0.037143495;-0.043168522;-0.037339527;-0.69148254;2.8465796;-0.032686632;1.2088598;0.017831625;1.5911961;-0.051536784;-0.051719476;-3.0075378;-1.5996436;-2.0440896;0.7930505;-0.048111618;-0.13111624;3.3864768;-2.462972;-8.409377;4.4159007;-3.4255939;0.031449888;-0.26171076;-0.021275528;0.008831663;4.5528984;-2.607082;-0.029803894;6.040319;-0.021064078;0.036183707;-1.7689661;4.1237516;-0.033762287;0.20391211;-0.017386336;-0.047763083;3.3878703;-2.6940253;0.013384945;1.7713017;-2.3221085;0.25243905;-2.7468886;-0.027339026;0.42619297;1.7477332;1.9547299;1.58697;1.0550214;0.63908035;0.046949085;-2.104661;-1.2005365;-5.936705;-0.27604797;-1.9430703;1.1537653;0.00243272;3.0263522;0.21097003;-0.00018679812;-0.88681597;1.6700594;0.7710155;0.013225026;0.040528856;1.9421593
1.5813593;-0.9575166;-0.6764981;-0.27191734;0.069872804;1.1441475;4.073864;3.0461376;0.017833125;1.4744247;0.012807207;-0.16815005;-4.322518;2.4543762;0.17930438;-4.1511436;-0.74485993;0.21876274;3.2641413;0.8727425;-3.6625807;-0.007446988;-5.0460677;0.39638796;1.707544;0.010995217;0.0061897924;2.74474;-6.9978256;2.4732285;0.42115834;-0.0047469866;1.739089;1.9260739;-1.8292032;0.9851794;-0.35171932;-0.103987254;1.9023943;1.2472185;0.08275681;0.014028856;1.6421866;0.6065881;0.0022591546;1.5093637;-0.0047937073;0.87574345;-1.5431066;0.026933149;0.01067319;-2.2651916;0.10428266;-0.07311018;-0.010641655;0.34977078;-0.01081269;-2.8458273;0.4858017;4.933352;0.011712434;-3.0417287;-0.053467993;-0.8414187;0.7451812;-0.064042136;-15.65402;-0.2463496;-0.48411286;-0.023378793;-1.2805066;-0.052539505;-0.03953036;2.5007899;0.57660973;2.9155548;-0.04769014;-0.4579551;-1.3653215;0.020972399;0.019013848;-4.7355494;-1.8593607;-2.9424002;0.045304283;2.030232;-1.5119451;-0.017182535;-0.01550108;-0.015318096;-0.010693407;0.37814593;3.578381;0.19168718;-1.6413275;1.9115064;-4.7174425;-6.4008937;3.1997125;-1.8375167;-0.016167503;0.034564942;-1.4640749;-0.011537306;-0.21458268;2.81309;0.008609959;-0.4529822;-0.3047487;-0.0055207177;0.4304886;-1.1287644;0.66160697;-5.142031;-0.42596433;-1.666482;-2.1484263;2.5689802;-0.01834161;-0.5459216;-2.2213764;-0.0049098292;2.9342465;-0.022080686;-0.17025773;0.004923075;1.1268208;0.35684046;0.008767099;1.117015;-2.4919417;-2.1787484;-2.9690018;-3.2539887;-0.061255433;2.9397619;0.96300554;-0.81140774;-0.0032979576;0.033046532;-0.5117182;3.1829;1.0914843;-0.20318592;0.01901383;-3.0626063;-0.19406699;0.03110443;-2.316294;-1.7021699;-0.007932936;4.100124;0.04600143;-1.5554175;-0.026417814;0.019416405;0.04984522;-0.8494128;-2.2478461;0.9174798;1.4068881;0.003552505;4.8462896;-0.029788176;-0.008608705;-1.6751704;0.49447912;-0.0030235497;-0.3184158;-0.44923773;-0.4893355;0.06837756;0.008645866;-0.08122448;0.69402385;0.938299;0.009089637;0.03037638;1.10854;0.009389625;0.03315309;0.46460176;-4.6691384;0.4971447;-7.1127267;-2.905736;-2.6088188;0.68755186;0.9304095;0.10684117;-0.20143901;0.0057580736;-0.7337373;0.0037388476;-0.060742617;-0.4282959;-0.022349091;1.0485446;-2.7319396;-0.026174784;2.7155538;0.070759565;-2.971027;0.026736224;-0.15267229;-0.011173513;0.37468502;-0.046541657;-1.4612577;0.12908395;-0.12531832;1.2956188;0.0017194292;-0.01127242;-1.0641032;0.032030642;0.61894536;5.0804486;0.5239983;2.941285;3.90872;2.2879226;-0.014273772;0.062714584;1.5575839;-0.0035649394;-0.0072158887;0.7403308;-0.019137489;1.309037;-2.2525513;0.03340719;1.1251994;4.0400643;-0.43437263;2.8081474;1.8135856;0.04035444;-2.0764976;2.687242;1.1575874;-0.06089231;-0.20919536;-1.8135465;-3.4995584;-9.607011;-0.04969108;-0.62255824;-2.128508;4.6175337;0.022709245;-2.5767555;-2.8805437;2.0307217;0.7751887;-15.466664;-0.29035524;-0.019778432;-0.29757234;1.4195433;-0.03430565;0.010942364;-0.54207945;0.83345044;1.1019256;-0.15764059;1.9319931;1.0618025;2.004925;-1.8699347;1.426007;-0.10531079;0.026304659;0.8187554;1.1312492;0.00061081594;0.008199861;0.43689886;0.13111557;-1.2642943;-2.121633;-0.7424771;1.1138321;-0.50473803;-0.9545382;-0.3389035;-0.25930893;0.3537419;-0.76086473;1.8527119;-0.0031147022;-1.6467549;-0.116435125;-3.0462265;-1.2962826;3.5925357;2.1918314;-0.12530294;-0.41798142;0.00300372;0.4630628;0.008349155;-0.034233525;1.9341544;0.008466228;-9.616847;-0.004670956;0.12259695;-0.02442232;1.068195;0.01869741;2.9539382;0.84983766;1.2764051;3.1072423;2.8104072;-1.311922;-0.025118332;-0.8863401;-1.6131629;-4.4327025;-0.39518502;-0.21637876;0.0008427741;-0.96455264;-1.3699051;-0.2838619;0.031916577;0.015910646;-2.9386592;-0.010041199;1.4717231;-3.9245281;-1.8215508;0.42943528;0.062463265;0.30084607;-0.011914731;0.6862216;-0.038354192;0.3489348;0.00837084;1.4806983;2.3735228;-2.390092;2.5306509;0.0046508983;0.008719577;-0.018268691;-0.9908956;0.054314822;-0.57578194;-2.65403;-2.084859;-0.007879301;0.44943464;-5.368835;0.85574114;1.6195724;-8.967239;-0.16416107;1.6818129;0.011611303;-2.6840236;0.35557956;-4.6795306;1.6954668;-0.59102815;-10.745776;-5.176872;1.1132128;-0.8039169;0.19490561;-0.066119164;-0.52953917;2.0056946;0.82674813;1.8855586;0.008344867;-3.9725692;-0.027470887;0.021182638;-0.081237465;-2.359642;0.017842308;0.58585066;-0.0043656155;-1.231604;0.48817432;-0.8387666;0.21738933;1.9570265;5.0558953;-1.4494727;0.015306159;-1.9172318;-0.030387314;-0.5652285;-0.0032075653;3.336679;0.021069001;4.0295424;-1.6568129;2.68367;-2.0320723;-0.046392787;0.70916814;2.467339;-0.4662124;0.38405845;-0.23711562;1.6928594;-0.02456084;-2.614805;-0.018061709;-1.6574938;0.006916851;-1.91547;-0.008614696;-0.6883633;0.0024159648;-1.4287974;1.8512522;-0.40853488;0.017585281;1.6259199;0.76102495;0.02775996;-2.7950804;-0.4373479;0.0056864405;0.78329134;0.055083964;-0.0403137;-0.0066444078;-1.3975152;-0.10375326;1.4163444;-2.3205833;0.019296715;-0.7934826;-0.6067478;-0.3473638;0.027928915;-2.038215;-0.10613503;-2.2644756;1.4408658;2.1999683;0.38619778;-0.19687493;5.319001;2.3735173;-0.05282576;-2.643718;0.0342118;-0.57283014;3.323677;2.7246509;-0.010977839;0.07812743;0.09703959;-7.869976;-1.3981994;-4.4939127;1.9634738;0.2252393;-1.1883775;0.018195644;-3.5048628;1.3741908;-0.17590941;0.041295465;-0.38783965;5.532402;0.018911516;0.04540891;-0.001226845;3.0785882;0.016203448;2.5307572;1.3918169;0.45752937;-4.214888;0.014102686;0.020962328;-1.6342678;-1.8429406;-3.377127;1.1189923;-0.079963036;-2.7208872;1.4270538;0.20334882;0.010851905;1.0951955;-1.1946232;0.0066182027;-1.4319373;-2.3202791;0.0075802007;1.4365906;0.7267095;0.014838609;-1.1076461;0.0026003413;-6.210056;0.05440032;-0.006416844;0.030033585;-2.8168204;1.5088574;0.028537853;0.7792401;-0.02929205;2.5072472;0.039249413;-0.015222393;-0.17621808;-2.4212377;-0.37185416;2.583419;0.020267837;-0.7853884;-1.1089106;0.5501366;-9.35495;4.4614573;-3.9358592;0.0030168204;0.8294874;-0.07428798;0.019851549;-0.17958724;-4.456147;-0.044179007;0.84278756;0.004508103;0.0087103555;0.48385668;1.3700297;-0.022227144;-1.5587387;0.010667616;-0.043700926;0.12161379;-4.6368937;0.025785588;-0.78019446;1.810396;-0.2937106;-0.8343308;0.023181956;0.45420176;1.7776673;0.8416482;1.0546821;0.06318623;1.5835732;-0.03211293;-2.4549716;-2.6243775;-1.9968168;2.081786;-3.04225;-0.94565433;0.038490597;1.5412986;-2.963739;2.0618818e-05;-0.7773257;-1.0376714;-0.94791037;0.01504389;0.0018117643;-1.6742413
1.5052271;-0.3968994;-0.29465443;0.5894101;-0.0049507767;2.6226668;-0.20527177;-0.7951983;0.016835298;0.16133466;0.0033869022;0.31155956;-2.6818435;-2.2271962;-0.41035366;0.4470714;-0.09829866;1.5679301;3.682599;2.3778784;0.6289051;0.034534715;-3.5159419;1.1180408;0.9186796;0.08043583;0.042093366;3.1864505;-5.570737;1.1202079;-2.322162;0.008312303;-1.7588968;0.6293772;-1.2697304;2.331736;-0.6834641;-0.40263054;-2.4077892;-0.022294393;0.021387339;0.004209257;-1.7484677;-1.5326313;0.012378504;-2.2632797;0.021972788;-2.7465918;-1.6990836;0.05405598;0.03268939;-1.8287379;1.0334784;0.02960754;-0.02647044;2.6983032;0.014882065;-2.3304384;-0.48506433;1.809033;-0.027272904;-2.5365958;0.024211312;1.382119;0.05120985;1.4444798;-13.420685;1.1515924;2.4503193;0.016883517;0.50916636;0.06002321;0.036756434;0.6050585;1.3976326;0.5439047;0.0012284521;-1.1769595;-1.9575423;0.03574201;-0.047216013;-5.958227;-0.2314858;-2.002243;0.08000927;-3.0849779;-0.0888168;0.01646374;0.001120909;0.06370658;0.016266305;-0.7064539;3.174658;-0.3260169;-3.7124379;-0.26579818;-2.6752791;-5.772732;2.981687;1.4360859;-0.008749848;1.7998394;0.7970212;-0.01788995;0.14014843;0.49476442;0.019248074;-3.862637;-0.040618893;0.108437836;0.6217234;0.9642308;0.4634242;-2.555601;-0.85725844;-0.13618556;-1.2138742;2.7336385;-0.005254122;0.6560737;-1.8721236;0.02170654;1.8067042;-0.0014084628;-0.0480386;0.05450785;-0.21073931;0.9861237;0.12761262;1.9355955;0.5613572;-0.47160625;-1.5348402;-4.793263;0.064524926;1.3263818;1.6095337;0.6767974;0.020865552;-0.016587147;-1.1220918;1.8587126;0.113450445;-1.9065156;0.025379691;-2.3204846;0.41740683;0.03411519;-1.3710209;-0.3159;3.7357982e-05;2.6213477;-0.0059873145;-2.8824332;-0.0006300478;0.0155532705;0.031038607;-3.539224;-0.093419105;0.22746958;1.0769542;0.06395703;4.408655;0.09320496;-0.023182439;-2.8503442;3.5211976;0.015562396;0.39586395;0.9366308;3.746994;0.05390467;-0.012233607;2.9117718;2.4352055;-0.05570244;0.042853802;0.024468409;1.0358964;0.013952466;0.011284215;1.1544678;-1.0647848;-0.36431032;-0.61418796;0.6943677;-1.8611808;0.18884067;-0.92014414;0.015303176;0.8594662;0.021541148;0.8234194;0.016482262;0.0628472;-1.4031715;1.4619968;1.1763942;-0.56104034;0.02286281;3.1312766;0.70240116;0.6439481;0.053227134;-0.54691476;0.052151103;-0.45545295;0.0018952634;0.19262597;-1.2273611;0.35269248;-2.352837;0.0055678925;0.018104024;-1.3815613;0.0336278;4.021316;4.679454;0.9071025;2.9499767;1.6972386;0.77215433;0.46846518;0.011459931;0.78678954;-0.0132501535;0.021210099;0.5352931;-0.03052611;-0.6201616;-1.8379626;0.054677986;-1.592289;2.0628786;-3.2607834;-0.6873533;0.74006563;0.016364543;-3.4835439;-0.19752923;0.02676588;0.13263983;-0.045431286;1.196668;1.0606071;-8.640288;0.039992552;-0.5565064;-0.71515656;0.74405336;-0.038745873;-3.2051392;-0.924002;0.008102484;3.258883;-12.147745;-4.4212217;-0.0052843443;1.3969804;1.4300308;0.023757285;0.0025757481;0.9904752;0.99896234;1.870235;1.0624568;3.598508;-0.33484358;0.16972485;-3.8329113;1.2916756;-4.5597444;0.0066597573;-1.6459233;1.3086473;-0.036269654;-0.00406814;0.7280136;1.1832353;-4.1891766;-4.5552883;0.7263533;0.011756178;-0.0034924794;-0.7907214;3.5090516;1.5105053;1.2218302;1.2799356;-0.31149337;-0.012592522;-2.0066724;-2.089697;-1.7849803;-0.5927113;2.3179479;1.7596028;-0.25529775;2.1893816;-0.010338518;2.871127;0.0026450674;0.005849056;2.274307;0.0011109998;-8.092478;0.0023506533;0.14402127;0.09018869;1.9715145;0.007350284;2.283441;1.6843711;-0.49482965;2.4121323;2.7025862;-0.051791366;-0.010439236;0.78842694;0.61242634;-2.9666486;-4.5060754;-0.7870764;0.014432821;-0.13366434;-0.3344209;0.89495933;0.00876538;-0.0046592937;-3.6058815;0.0010807695;2.7034876;-1.4706299;-2.2233398;-1.2839386;0.0077815116;-0.14520909;0.075904496;-0.04661448;-0.041512605;1.7757856;0.08399299;0.84281844;2.7867923;-1.5061018;3.3825624;0.01369527;-0.004721081;0.02998349;0.86280143;-0.027701516;0.9690973;-2.4435399;-0.8263467;-0.033410344;0.8057194;2.5834856;1.6447041;-1.4415262;-7.461133;0.37734243;1.4831712;-0.0009916768;-0.5232639;0.577527;-0.24898835;-1.6152703;-1.397818;-9.926493;0.09201228;0.047881845;-0.061676987;-1.4060299;-0.024540743;0.18966302;1.5814717;3.2047856;2.142986;-0.017327195;-1.8898674;0.002004722;-0.013450758;-0.032110207;-1.3359758;-0.025598299;3.0110638;0.10630299;-0.8399668;0.77101254;0.082532614;2.7297323;-1.5584974;0.95786935;-1.3533099;0.06495091;1.3120508;0.03400864;-0.8375934;0.055461247;0.19461218;-0.024850897;2.4587839;-0.2544593;0.1901501;0.23690972;0.31239384;2.033229;-0.37010425;0.96080405;1.0611899;0.9163694;-0.38481516;0.023221755;-1.7074014;-0.009475937;-1.1839563;-0.012398569;-2.0319207;-0.014854991;-0.16669501;-0.009409939;-1.6928937;1.7151681;-0.8517022;0.010272221;1.5855385;1.2390702;-0.02347553;-2.598417;0.82216865;-0.010497143;-0.8425193;0.16026205;-0.0046007237;-0.00914523;-0.23431093;-1.4511412;0.9200169;-3.848254;-0.010821741;-3.4993289;2.0369864;0.90545887;0.022053294;-1.4514968;-1.7234845;-2.14516;0.6602743;1.8531578;1.5895653;1.1479281;0.13061433;3.1306908;0.020558322;-1.9323475;0.0002609385;-2.1314144;-1.531269;3.0983675;-1.6331772;0.8252933;0.069323905;-4.155071;-2.5440683;-1.5377796;3.7681408;-0.55957985;-0.14495544;0.49917048;0.6848448;2.6558564;-0.2676317;-0.009577242;-0.42403573;2.4760664;0.023089413;0.04059122;-0.0075045987;3.4907131;0.07494106;1.0836356;0.8173162;1.7754102;-3.2536137;-0.051414557;-0.025850095;-1.1137509;-2.241235;0.33187842;0.05536496;0.027275946;2.1832514;0.3360774;0.2661722;-1.2790629;1.4821234;0.21287994;0.04124933;-2.840847;-1.1971714;-0.0012559862;0.29225296;-0.49463734;-0.00731938;1.8086351;0.0068015563;0.26573893;-0.037367173;0.0809007;0.0027908105;-0.14114559;-1.1220866;0.03472591;-0.78279686;0.028132144;3.1202693;0.036537614;-1.6406343;2.9397187;1.7027645;-2.1956291;-3.0285037;-0.014433492;-1.8026117;-2.4677842;-1.9097415;-8.527214;3.630755;-4.1962724;0.010447448;-2.387713;0.0901043;0.0076684533;1.5181144;-1.3378613;0.04556589;0.1465318;-0.04619771;0.0040767565;-2.3969765;0.25342065;0.07937764;-1.0132504;-0.013189369;-0.023517648;1.3940554;-2.6391864;0.0020956188;-0.7265086;1.4007908;-0.69621176;-1.7769083;-0.036386754;1.3080708;3.0808973;-2.0066237;0.24422105;0.017773634;3.24408;0.042690694;-2.304127;-4.512822;-3.7632625;-0.5800252;-0.8537535;-1.5218663;0.019634064;0.92242634;-2.5059462;0.036982775;1.2826735;0.025683805;1.5252697;-0.024444183;0.01980691;-3.2422342
2.2614555;0.67501247;0.15991916;4.8215623;-0.0031576282;1.3875085;0.022154873;1.0010726;0.018532157;0.06045536;-0.010563223;-0.5782833;-5.1839695;-0.6301918;0.8723803;0.42181838;0.9703819;-0.8584803;2.776592;2.116953;-0.95676666;0.023954744;-1.7055894;-1.3134469;0.8651758;-0.043520708;-0.06159935;2.7723489;-6.7544794;1.1264054;-1.1511613;-0.02794401;-2.2655566;0.6859582;1.414418;1.8735807;-1.7593442;2.3873322;0.6545471;0.056864407;-0.038375273;-0.0064161876;-1.5318722;-0.0018760719;0.023039421;0.9225127;0.02538752;-1.6840696;-1.1940926;0.041214135;-0.02149727;3.1830966;1.272144;-0.080144025;0.024454048;-1.8951321;-0.0055293604;-4.966636;0.8380845;3.3740387;-0.02846976;-2.2431438;0.009830987;-0.19503742;-0.6267209;-0.9854205;-15.344128;-1.1173774;0.6873794;-0.034168776;0.120184496;-0.033857964;-0.01523803;-1.4234184;-0.2072645;0.9849367;-0.03121234;-1.7640359;-1.3096509;-0.019575855;0.005407859;-0.69150496;-1.9835356;-0.9552934;-0.021405717;0.43989953;0.88329804;0.010585363;-0.004716635;0.0051912297;-0.0766718;0.6275828;1.5211078;-1.079558;-3.6299064;-0.89980805;0.69755006;-2.0548313;2.315592;2.1531913;-0.01352763;0.8205982;-1.0552409;0.0034854757;-1.501679;1.4067354;0.009489153;-0.47039047;-0.58099;-0.019813623;-0.7254643;-2.3502655;2.21897;-4.451795;0.6598225;2.330945;-1.9359334;1.6954073;0.026017172;-1.0632629;-1.7692821;0.03333787;3.8542342;-0.020018721;0.014094747;-0.013483121;-2.7950492;-1.5943224;-0.039806757;-0.44946858;0.8393713;-0.5265703;-0.31459618;-4.983836;-0.048206594;2.3353744;3.4591556;-0.38035977;0.025776424;0.06283503;-1.5426589;0.5876983;-0.32596233;-3.4755702;-0.019153943;0.066891275;-2.0671368;0.05525653;-3.2246695;-0.7834545;0.0007659315;0.9519839;-0.047581587;-3.940436;-0.008755636;-0.023754794;0.07527451;-3.1243825;0.6275166;-2.0963695;1.0727168;-0.011195608;1.7647629;0.020085648;0.036014415;-0.7105778;-1.0214176;-0.02313033;-0.7821803;0.23205557;2.3274474;-0.046616104;-0.017639443;2.8093743;-1.424991;2.2344234;0.0069261035;-0.07071557;1.1532303;-0.0021745206;-0.004881798;-2.6374586;-0.20021144;-0.5501278;-0.770086;-1.5513866;0.39804074;-0.7178961;-1.0574725;-0.0073458212;0.8028711;-0.038341053;2.8902974;-0.022285255;0.0126204025;-2.3109512;1.086307;-2.3673923;-1.5676403;-0.043231476;2.3203583;0.6225296;-1.8518752;0.06465544;0.22886108;0.030938158;-0.288891;0.01008083;0.023616452;2.7015643;-0.052195616;2.462194;-0.0068728463;-0.022254312;-5.157422;-0.05471618;1.3761371;3.5233727;-1.9474283;2.5383625;3.5447505;2.569476;-0.7609112;-0.02825061;3.0761;-0.011806151;-0.033021927;1.2038381;0.0052736327;-1.1726078;-1.6365043;-0.017833633;-0.12761915;-0.31739396;-2.2273216;0.8721842;0.44646093;-0.02463175;-3.4347775;-1.1174146;0.24699286;-0.053997505;-0.071993425;-2.4420455;0.9116634;-10.992887;-0.06502728;0.2151441;-1.1711696;-3.5437472;0.011876767;-1.6118865;1.6417043;1.3838179;-1.0797684;-14.406553;-5.2337995;-0.03930497;1.2493466;-1.3891606;-0.033682514;-0.039093357;0.30348134;1.4118162;-0.102466606;1.4210575;2.7575524;0.32600152;0.86609495;-0.0072843204;0.17799772;-4.6497216;-0.06390685;-2.665999;1.5093861;-0.031297453;0.031879686;2.5546563;1.7228701;-1.8797679;-6.5693893;-2.0198698;-2.3991535;-0.80346215;-1.4618804;2.098164;-1.5018907;2.2262557;0.64454716;1.3747373;-0.006362029;-0.39294592;-3.0853803;-1.4129523;1.6889986;1.0200683;1.883996;0.06247292;1.4169391;-0.0046670437;1.8828261;0.09497558;-0.032708213;1.8820128;-0.07235433;-9.305237;0.005933189;-0.5936123;0.0065685697;3.3425086;-0.03006655;-0.2151413;1.2436354;1.589361;0.5270329;3.6561277;-1.8060911;-0.0425683;1.4313917;0.439751;-1.3655021;-2.0789754;1.910843;-0.018004138;-0.4125477;-0.52807367;-0.032996822;-0.0013744988;-0.017307803;-5.6923046;-0.008487973;-0.9530415;-2.8877118;-2.0901563;-2.3019848;-0.022959495;2.7691581;0.008168794;1.0305872;0.047657527;1.0836738;-0.036518227;-3.4248502;3.96721;-1.3944306;2.789826;-0.035546757;-0.022353182;0.021057587;-0.20957048;0.022186644;-0.45680556;0.41711828;-1.6092721;-0.008795685;0.902505;-2.1516538;2.9806433;1.2994157;-8.23322;-0.19372472;1.8573;0.03250014;-0.7038427;1.7985529;-3.487712;-1.999874;-3.4331129;-11.147862;1.6656415;0.49517956;-1.1961564;-0.046447907;-0.0009966203;0.67360747;1.9858366;2.739037;4.3083925;0.021657247;-1.2077917;-0.033776768;-0.028573465;0.059871264;-0.3949319;-0.0010647374;-4.939595;-0.004005107;0.49464455;-0.30774242;1.2007701;0.5381972;-2.1730368;2.0414348;-0.9460665;0.0037615146;0.54796946;-0.029851316;-1.8961947;-0.027397841;-0.7316452;0.03411299;2.83422;-0.51926833;0.8865495;-0.4568723;-2.0083628;0.9905094;0.47789878;0.9734753;-0.32998562;-1.9168289;-0.12106054;-0.00010052607;0.38205704;0.033770982;2.1348414;0.010220989;-5.718805;-0.01636998;0.8280871;-0.020780219;-3.70371;1.950201;-2.299168;-0.04296829;1.5891235;-0.08957786;-0.07662545;-1.5973102;-3.2795162;0.017883569;-1.0866997;-0.010423029;-0.022576235;0.043961033;-1.3854816;-2.0747564;0.29156476;-3.3582428;-0.103411965;-0.2993111;1.9575107;0.49650165;0.004055289;-3.222076;-2.1827276;-1.731092;1.0706495;3.4234662;4.0594907;0.97231054;0.061296366;4.4167438;-0.0142484885;-1.6771543;-0.019171178;-1.9535242;-1.2074203;2.8508384;-1.0916809;3.5640185;0.30292952;-4.2812333;-0.6770039;-4.1157246;1.6890085;-1.0142694;-1.8295442;3.2723002;4.4312606;-1.1792271;-0.36519065;-0.0076401797;2.2353475;0.23143831;-0.005615867;-0.016693017;-0.033381533;-4.6601386;0.064148135;-0.46139562;-0.6972445;0.95296514;-0.71664095;0.018281145;-0.025411978;-0.45133054;-0.16399172;-5.558346;0.96935785;0.093995646;0.42436352;0.6580791;-0.07110606;-3.480796;0.18144946;-2.606963;-0.009930818;-4.9146123;-2.2107093;-0.0068865716;-2.1074524;-0.4561191;0.007256795;-0.35623866;-0.031957764;-1.8142613;0.1542252;-0.017757637;-0.064372085;0.06981173;0.8949851;-0.04459016;-2.223287;-0.0029866307;2.310203;0.000410199;0.3857184;2.617513;1.3589536;-0.42038664;0.99592245;-0.15342036;-0.11202862;-2.6346462;-1.6960034;-7.330024;3.6343453;-4.1768594;0.006038341;-0.0751827;-0.050364174;-0.047654994;0.837887;1.6157408;0.01731931;-0.92722106;-0.022817437;-0.054925483;-9.161121;-1.8527126;-0.068027794;2.0526729;-0.0027739592;-0.029387265;-0.07134544;-0.25551975;0.015826201;0.2618057;0.08872248;-0.009328608;0.109117016;0.013839441;0.9161078;3.761099;-4.80289;2.075553;0.6811315;3.319553;-0.01912189;-2.2656362;-6.4555078;-6.005408;-2.6459632;-0.54383403;-0.985239;0.020448534;-0.36191157;-5.440062;-0.03574392;-1.7166514;-4.034623;-0.88784254;0.0297928;-0.0045296615;-4.0128922
1.6370312;-2.3782196;-0.721827;4.0807624;-0.061069243;-2.2744758;-0.48838654;0.63055027;0.030176442;-1.5024586;0.011024079;-2.3151054;-0.1593656;-2.0871215;1.8646073;0.7725247;0.39828026;-2.4313493;-2.834922;4.7008376;-2.4896693;-0.017096868;-1.7998298;1.709538;-1.8246338;-0.015117355;0.022722155;3.857908;-6.1024036;1.9826341;0.9283557;-0.03216024;0.7981781;-1.1298589;0.056478724;1.1850194;-1.5339483;-0.17096415;0.42178515;0.64603066;-0.010442829;-0.018275745;-0.7391388;0.25259396;-0.0010640858;1.861137;0.0032270914;-6.075499;-0.99732476;0.011243116;-0.010804966;2.4787056;1.3815147;0.02332329;-0.057433583;-1.3491745;-0.042118244;-1.5124223;0.078201875;0.16291596;0.02762252;-2.6628513;-0.024514003;-5.97564;0.35421157;-1.0295018;-16.290144;-0.3879826;2.9787757;-0.00019970642;-0.46140277;-0.0058715013;-0.037699644;-1.6299841;-1.4392006;1.8018327;-0.016510941;-0.64526194;2.0309174;-0.020602988;0.031352274;-0.036308922;-4.3223624;-1.1739357;-0.006347376;0.09302094;-0.6118428;0.0071451883;-0.031003935;0.034651868;0.025075106;1.8628408;0.6087148;-0.33062065;-3.8249946;-0.7056666;-0.6343492;-4.1418867;-2.9053576;-1.0597908;-0.0009927293;2.0288973;-1.1656679;-0.006183041;-0.3570146;-0.5459997;0.0018642184;-1.1392715;-0.64334786;0.029387116;-0.2789468;-2.9896061;-1.5669829;-2.1870885;-2.713458;1.2891613;-1.2381854;-0.0070741414;0.023752846;-2.8100476;-2.1285932;-0.014969224;-1.1236314;-0.034506883;-0.071702726;-0.047889303;0.13430095;-2.5247684;0.021158116;1.7067797;0.34166974;-1.6142788;2.1812935;-4.052788;0.019656742;1.9764985;4.2191157;-2.170094;-0.0020245928;-0.011262052;-5.705566;0.3868084;1.4241714;-4.1240706;0.01901981;-1.811409;-3.6448622;-0.029508967;0.7381356;-3.0816565;-0.020235667;-0.11807563;-0.03204366;-2.5724852;0.023567969;-0.024046674;-0.035814952;-1.3244988;2.333565;-0.7218251;1.3724556;0.023616431;2.6922183;0.008823241;-0.03578083;-1.4528862;0.120475106;-0.016447809;2.1883554;-1.8428402;1.7282287;-0.013940015;0.060654048;2.945345;-2.8529882;1.6800354;-0.0060583563;0.6293947;-0.92688197;0.007077208;0.023857119;3.5557594;-2.2263744;-0.7919598;-2.29547;1.902505;0.6447224;0.22941904;-0.19066387;0.020958822;1.8375043;-0.044330742;2.5898044;0.04696911;-0.020969024;-2.413791;1.8396297;-1.6187643;1.097556;0.009813853;3.4870486;1.0257322;1.6385002;0.04741328;1.2131777;0.017038994;-0.9261975;0.023180727;-2.0560493;-1.8550935;-0.21398707;1.9551828;-0.052174997;-0.041702323;-5.3322663;0.021735884;3.1200178;3.3246882;-1.7700847;4.332794;3.1479952;1.4825997;-3.6286538;0.054866124;2.1932144;0.020166008;-0.046845;1.1966624;-0.0029328624;1.7211038;-2.0353315;-0.0144554665;3.2057254;-1.0587714;3.047934;2.3111901;-0.27200708;-0.015293445;-4.902518;-2.8804188;0.78142023;-0.07082926;-0.016613573;-1.1118153;0.65505964;-12.443864;-0.051287327;-0.51197284;-2.3672383;-1.3020105;0.030887373;-2.171136;-0.23534162;1.7589066;-6.320807;-14.509615;-2.7871888;-0.11095903;1.7987876;0.0776804;-0.02805783;0.03269182;-0.12846245;0.13926658;-0.64804834;1.3916414;1.1446204;1.1587213;0.9826022;-0.018186836;-2.158697;-2.3573983;-0.00038198623;-1.7304932;-0.32436278;-0.055752855;0.015987854;1.3518233;1.2465026;0.36984792;-1.2487031;-0.41579878;1.4242895;1.0503459;0.45887122;0.5930384;-1.0234052;-0.1261203;1.193325;0.6924501;-0.056706093;1.9238099;-3.8767474;-3.0505605;1.4549316;2.8415687;2.1656973;-0.2926173;2.7530217;0.007393806;0.98302877;-0.03844187;-0.026621591;2.4779801;0.8037691;-9.684464;-0.019493004;-0.2683275;-0.028833525;-1.0715078;0.043189276;2.465974;2.070318;0.562282;-4.161038;3.331784;-2.0030468;0.01807612;-0.42187658;0.19627678;-2.0471387;1.2574674;3.3907404;-0.022385959;0.9734071;0.6649926;-0.074161515;0.013591045;-0.019814877;-4.904515;-0.052092794;-1.2863135;1.6353163;1.6069665;-0.011839682;-0.04490437;2.5338738;-0.033356834;-1.973792;-0.001331249;2.590295;-0.056246027;-1.492648;3.1466556;6.9051733;2.3240483;0.021278678;-0.007831268;-0.050611664;-0.08409338;0.009974108;1.2666368;-0.07836704;-2.9155762;0.01601812;0.7258164;-0.075935945;2.7082818;0.2601533;-7.8486414;0.0014339539;1.8843509;-0.02268892;-0.39422265;1.0041565;-3.0032575;0.44181755;-1.562666;-11.421756;0.890111;0.0025480087;-0.98409325;4.095967;-0.014754063;0.75681317;3.2772856;3.3308983;2.9391603;-0.011538973;-0.16212371;0.03056365;-0.00034139733;-0.01889015;-0.7151194;-0.05889373;-3.7379532;-0.029211344;1.5883425;1.0637262;0.25895274;-0.32071128;-1.6321429;-0.13718307;-3.1982749;-0.036751937;-4.6462207;0.047885794;0.65023535;0.04435026;0.22732481;-0.044715382;-0.5362156;0.71968734;0.5899684;2.695219;3.117608;1.2292981;0.061343472;1.5850508;-0.2397876;-3.2913802;0.22998737;-0.012720484;-5.484363;0.026227714;-2.079517;-0.029974407;-1.9049846;0.008571269;-0.5425325;0.008604246;-1.6515374;2.1468527;-1.7718313;0.0035092575;2.3813446;-0.7294815;0.03965076;-3.0492933;-4.1117673;0.011141395;-2.5512233;-0.029748384;-0.43884403;0.0078072967;-0.40956548;-0.3297648;-0.56112665;-3.60663;0.5065131;-1.0173464;0.95687294;0.5364034;0.014387951;-5.1429996;-2.8513956;-2.3175101;2.3185267;1.2589535;3.6620834;0.66405874;-0.36466864;0.77408445;-0.014350935;-3.5928857;-0.0018180965;-1.5005795;-1.8944316;-0.4015744;0.60549545;4.435554;-0.15764578;-1.2045225;0.6892702;-1.3716497;0.8644226;-0.23880379;0.7570542;3.4006503;3.2514906;0.8851934;0.90084994;-0.019796686;3.2254226;2.3707197;0.01625141;-0.016096119;0.018689236;-3.8578055;0.016252512;-2.3600485;3.7249496;1.5132548;-0.45618328;0.0007475502;0.009838841;1.7839904;-0.67408735;-3.0238786;0.23899817;-0.01271766;1.9932635;1.8511338;0.009025451;-1.3680552;0.69003433;-0.03874295;-0.016212868;-6.074972;-0.3414007;-0.07573414;-0.43770647;0.543216;0.014235612;-1.0043573;0.037635855;0.41886392;-0.007032951;0.017882781;0.004148719;-4.097851;1.7036693;-0.007942398;-2.5769668;-0.038046792;2.79782;0.007903185;1.001555;2.9243693;-1.5966331;-0.46180683;0.3066063;0.82028484;-1.4155959;-0.33454177;-1.5257187;-7.4468875;3.8204758;-2.0094323;-0.033461414;-3.579412;-0.035380226;-0.026878105;-1.354622;1.0721943;-0.057240944;-0.7374254;0.0058215177;-0.034388233;-7.3077917;-2.068601;0.03905006;1.0072545;0.0026175238;0.028205285;1.3961843;-1.4041725;0.0063327793;5.375339;0.30363032;1.506484;2.512506;0.02130885;-2.405763;4.284144;-0.5164709;3.0892234;0.60762453;2.0009003;0.013714373;-4.1526203;-5.3074245;-8.1454735;-1.3461865;-0.1744995;-1.1517588;0.03644047;-1.4474801;-0.2637194;-0.025470093;-0.013059674;0.023061538;2.6423483;-0.021291269;-0.04601602;-2.6909084
2.1583219;-1.4411154;-1.2116073;2.308385;0.014966078;-0.66788954;1.1857693;2.9783423;-0.0338866;-1.2407684;-0.0029956687;-1.4280967;-0.9310484;-5.0429125;1.8784213;0.8446377;-3.0394874;-2.2428555;1.1150401;3.320342;-1.596612;-0.00590413;-3.2916877;3.5480084;0.81873906;0.038908627;0.010461855;4.097347;-6.0467243;2.8493645;-0.72215015;0.0075460905;0.7498891;1.0953182;-0.3473007;2.468814;-1.2923334;0.15788096;-3.2232206;-0.015555442;0.005276623;0.04745086;-5.2478323;2.2988086;-0.011991832;2.1437886;0.008761229;-5.6913743;0.820879;-0.0015760355;-0.010004823;1.6240999;1.1470482;-0.016637085;0.05027575;0.9841248;0.024472125;-1.1182374;0.83821034;-2.3453484;-0.011505309;-3.6985967;-0.02366664;-0.02597959;-0.63305336;-0.92688984;-16.403093;-1.4589621;1.8628685;0.025793783;-0.2262414;0.0036284777;0.011509802;-0.48978236;-1.0279956;-0.45728272;-0.0534041;-1.5919366;1.6990721;-0.032971293;0.022167074;1.1229726;-0.41105366;1.614823;0.0010598105;0.51315373;1.5879221;0.0074349022;-0.041290782;-0.059933722;-0.033615794;-1.6897247;-0.17118134;-2.2681317;2.8729863;-2.39398;1.9034004;0.013018767;-4.6793814;-1.6073451;0.020241352;0.06332793;0.108836174;0.023468569;2.2373822;-2.0314486;0.0039555235;0.082583494;-0.35132393;0.04804419;-0.5623809;-1.4030491;-2.239476;-3.6522133;-2.3354738;-2.6664855;-1.3128618;1.5676497;-0.012489515;2.5020518;-2.4794803;0.042346787;-2.73862;-0.00616675;0.04246659;-0.028308976;-2.0747907;-2.4631693;0.0044438383;-1.3134128;2.1861253;-1.0677673;-0.98402655;0.7159482;-0.063778184;0.62325305;0.9479472;0.38585913;-0.024928348;-0.015909348;0.4448859;1.2944049;-0.20586835;-2.5729275;-0.0018051817;-0.099965096;1.1415265;-0.033300534;0.56633866;-1.8302544;0.028285837;-0.14651199;0.023938164;-3.309886;-0.056826983;0.03030441;9.364757e-05;-2.3535175;0.8918335;-1.1529568;2.1350791;-0.059029404;2.4570007;0.0108830705;0.034260035;-2.7272735;1.2028751;0.059866525;-1.5831072;0.65431786;1.6919852;0.03496107;-0.015641896;0.1561711;2.1887677;0.95596635;0.016214501;-0.05811058;0.6174873;-0.040062338;0.025798412;2.047618;-2.0181942;1.5377251;-2.1470196;-0.31073955;-2.567153;1.6397551;0.66657037;-0.010631803;-0.584615;-0.035874527;1.6899903;0.018094728;0.03983448;-1.7326297;-0.49337894;-4.1314855;4.481234;0.04049437;2.7904086;-1.5003748;-1.4796264;-0.019441865;2.913273;0.010403017;-3.7149522;-0.0060887104;0.30157596;1.0237744;-0.055680286;2.0890653;-0.004658856;0.018771408;-4.59882;0.01518495;0.64327705;3.8823874;0.752453;1.6564084;-0.2654421;3.3106499;0.7884332;-0.013264308;1.2386287;0.03216062;0.0069209994;1.5068672;0.02056494;0.6006534;-2.4098232;0.031233884;4.1879015;0.6184701;1.737916;1.239631;-0.63588524;-0.022745226;-2.1363397;1.7848325;1.5600605;-0.18952075;-0.0111894235;3.4186885;-1.8623043;-12.071094;-0.058026027;0.9844602;-2.5695033;1.3770652;-0.0167962;-2.8452322;-2.4161282;2.2076051;-3.4671535;-14.001037;-3.1813095;-0.10981658;2.9834344;0.87965477;0.028026301;0.00039340285;-0.512727;-2.9660633;1.2077832;3.571831;0.71470046;0.20018475;-0.62835765;-1.2949648;1.9750385;-2.3739853;-0.007865413;-0.85478127;-1.9931773;0.048002295;-0.018939234;0.3827012;1.124641;2.53426;-2.746513;1.171612;-0.32282966;2.7276978;-0.44906613;-1.5517722;-1.0013645;2.0314486;0.22764201;1.0880779;0.01566307;-0.9578909;-3.783486;-2.7334785;0.947733;1.7326547;2.2509356;-0.13300921;-3.6874626;0.010348713;-0.46064284;0.022187712;0.0830315;1.1035827;0.07083729;-9.557796;0.009131909;-0.0722909;-0.023358837;-1.0084691;-0.008271062;1.6575832;-5.1152835;0.45276192;-0.26871613;0.38899243;-1.051788;-0.04956466;-5.097513;1.7034101;0.28408688;0.9132968;-2.237908;0.029906055;1.0459164;4.36892;-0.17338233;0.044744052;0.0329339;-3.298022;0.013988184;0.67251337;-2.4042556;2.6202197;-1.990293;0.039497;-1.6019181;-0.044963673;-1.3284065;-0.061266806;1.0926921;-0.039143622;1.6752832;4.4556575;5.0415936;0.4871005;-0.0072749555;0.036327504;-0.044212427;0.054898642;0.029413102;0.22672306;3.6323988;-0.40329057;-0.032032702;1.1388365;0.30349776;-1.9193323;0.05551168;-7.901478;-0.14593273;-0.8874103;0.05356786;-1.7007915;1.7620783;-1.2175975;0.7608354;-3.271751;-12.087376;1.7004162;-1.3836976;-1.7292464;-0.50168806;-0.03345654;1.6342286;4.623801;1.0273414;2.5218875;-0.06706504;2.6047509;-0.0766516;-0.0020683408;-0.020434614;-2.851474;-0.019146096;-0.15835467;-0.032055013;3.1488597;-0.33174735;-0.7465585;-1.3363541;-1.3064637;0.39092496;-4.46494;0.016166132;-2.9790895;0.016148014;-0.2316642;-0.022980914;-5.609639;-0.050344232;-1.4136188;0.40127677;0.13381715;2.5563424;2.921938;0.15004136;-2.3355036;-0.81453764;1.7709119;-0.3750539;-2.9060771;0.01582632;-4.218428;0.02113594;-1.3919759;-0.03339041;-0.73501086;-0.009349555;0.20603901;-0.007261734;3.187849;2.3353255;-3.3222263;0.04580979;1.8081053;-1.3203688;0.014683336;-3.382834;-1.572012;0.038764797;-0.054966386;-0.026977574;-2.8676314;-0.036243334;0.15490536;-0.43622264;1.5616772;-3.3475795;-0.22499354;-0.801979;-0.6809253;0.55093795;0.019606965;-2.957202;2.130582;2.3601284;-1.3079278;-1.0912638;1.9223508;0.22037539;0.6331658;1.8535811;-0.032948833;-3.2786417;0.020700358;-3.0483007;-2.6566794;-0.5276884;-0.39994273;4.023409;0.08352769;0.5486309;2.8324192;1.5347886;-0.14044294;-1.8052555;-2.7194984;3.2562528;0.5822424;0.029390307;0.9734582;-0.05251847;-0.56050515;-1.4683641;-0.0090439115;-0.05944283;-0.007994259;-1.0412984;-0.03700991;-0.8599689;1.2470919;-0.045885656;-2.9349575;-0.05204914;-0.008534967;-0.7309747;-2.8691654;-1.7814848;2.5588763;-0.0081546595;-2.11431;2.3661363;-0.38885054;-0.6162842;1.4843715;1.0601594;0.01888507;-2.6418366;-1.095187;-0.025619894;-0.58578026;-1.4678128;-0.017731104;-3.3559122;0.0036438056;-1.3734192;0.044559427;0.002531562;-0.04514018;-4.6745176;-1.5990708;-0.03715881;-2.059199;-0.0017061072;2.557861;-0.015457874;-2.5853944;-1.0665059;-0.5709576;-2.4097717;-4.758649;-0.11236031;-2.6703603;-1.4890963;0.009511537;-8.487432;2.8310595;-2.8324316;-0.06443061;-3.7317;-0.04118808;-0.01974227;-4.679859;4.489665;-0.039477002;0.63164693;-0.047479127;0.03550027;-6.847484;-0.61826164;0.012659314;0.90812093;0.01075461;0.024279416;1.9977694;-3.6777387;0.016320165;2.8591175;-0.12290441;0.8922002;-0.70686835;-0.02176063;0.077433996;3.8771076;-1.4009315;-0.3125888;3.2809362;1.0655049;0.009724946;-4.1892734;-4.5076275;-3.8213317;-6.530729;-1.9439352;-1.5198177;-0.0028525547;-2.955057;-1.7784462;-0.027902314;2.4292018;-2.96923;2.6866765;-0.0065238695;-0.0444322;-6.757321
2.4591007;-0.26239693;-2.2012334;-2.1490166;-0.06627294;-1.7081735;1.0487256;-0.41110328;0.031049067;-0.97408324;0.007029324;0.25927666;-4.244639;-3.1064072;2.9306135;-0.27547133;-0.03669557;-1.9860363;-1.9126141;2.0815191;0.46196866;-0.004934092;-3.7107065;3.6341457;1.4871825;0.020907346;0.059651528;4.9328957;-5.595966;4.272819;-3.0010583;-0.027144372;-1.3584179;2.4369705;-2.4213622;-1.1974763;-0.57027334;-0.6635106;-2.6999412;-0.3322524;0.023989556;-0.06982041;-2.077767;1.685974;-0.030970654;2.0788703;0.007022622;-1.9669721;-0.17741199;0.076806426;0.0169495;0.7426523;-0.57723224;-0.03911318;-0.020465054;0.8348656;0.059110206;1.0456854;0.72799945;-1.088058;-0.013837011;-3.475255;-0.009858756;1.5057248;-2.0358903;1.1411264;-17.442234;-0.027412375;2.1405828;-0.019327126;0.39477286;-0.028994909;-0.00248618;3.0681314;-0.608511;-1.8628548;0.01157668;0.46282828;0.2208002;0.07719425;-0.0037409093;1.592728;-2.3235185;0.49615926;-0.033256195;-1.2908832;1.2695423;-0.011918093;-0.035978023;-0.025910363;-0.044506192;1.0531689;1.108737;-4.3287554;-0.23784749;0.36350957;0.90227515;-5.37841;-4.9048467;0.41228572;0.021452857;-1.2562883;1.9629169;-0.00018220753;1.8605065;-1.5773759;0.0049437066;-1.6757917;0.59740794;-0.022678277;-0.20229009;-1.3581748;-1.8573773;-5.385253;-0.81670237;-3.5046885;-1.2700047;1.4388553;0.03915144;-1.0480698;-2.872747;-0.0037755845;-0.6156271;0.009739962;-0.07790978;-0.0012528357;1.8800678;-0.97609127;-2.4396184e-05;-0.9376679;2.162775;0.33985057;1.3108337;-0.18408248;-0.0143695185;2.8562474;0.9339139;0.7708044;0.012670452;0.008456088;-1.7584664;2.0762823;-1.398438;-3.3339896;-0.020764712;0.48227298;-0.022073599;-0.023689076;1.4117814;-1.344346;0.013173258;-2.1738505;-0.11415781;3.2839253;-0.062215555;-0.01062999;-0.05119342;-2.7357564;-1.9168313;-2.1889687;4.24796;0.040283162;0.3536351;-0.008592414;0.018521423;-2.621625;1.6328276;0.021087112;1.1595819;1.3548495;0.95917034;0.054546863;0.011554923;1.4666914;-5.2601423;2.3709943;-0.05053679;0.022927051;2.0535486;0.018661836;0.06131158;1.357954;-2.26729;0.48756826;0.86205536;-0.024535498;-0.35038292;0.990017;-3.4631467;-0.009643649;-0.11180606;0.020336322;1.8561206;0.0028871542;-0.058410626;-4.5960765;0.17797996;-1.0512612;3.2763762;-0.0127274785;-0.81206685;-3.4524798;-2.7555003;0.017541993;0.1958117;0.025572622;-2.8782551;0.039610554;-3.7045841;1.4004142;-0.19419336;-0.79130524;0.010494637;0.012840774;-6.1255965;0.034025762;2.8837228;2.367338;2.3944688;3.023074;1.5319426;0.9409787;-0.7540575;0.02582756;-2.3493536;-0.017621111;-0.009067735;3.63076;-0.010665646;0.34025905;-2.8707857;-0.054056194;2.3953998;-1.0631034;2.6742284;0.9168836;-0.32582936;-0.0079516675;2.0234632;0.49485645;0.044997152;0.24687737;-0.060271397;5.0501475;-0.073083796;-13.181823;0.08066171;1.1665466;0.21557106;3.7951832;-0.013740841;-1.7324332;-2.5012112;-0.41396204;-3.9353378;-14.091321;-3.4250555;0.6414215;2.9523733;3.1399832;-0.024943888;0.011598669;0.32201657;0.2767794;1.5048724;3.9102218;0.29893485;0.32246083;0.020892153;2.196058;-1.2750986;-1.6211493;-0.007173693;1.2042507;1.2747314;0.06281166;-0.03685694;0.22083597;0.83137566;-1.9133891;1.9856013;0.78529465;-0.8279902;3.020969;0.875863;-0.24956492;-2.4235303;0.35172942;-0.7146795;-2.827899;0.0103207305;0.5381449;1.0270872;-2.2716818;-1.1568971;1.0067682;2.1838439;-0.058085244;-1.804217;-0.034977455;-0.8584644;-0.0013604031;-0.016013043;2.442035;-0.17659168;-8.500116;-0.049369417;0.8978055;-0.009548053;1.4116114;0.015914883;1.4680454;-1.833662;2.7106428;-3.099083;1.2584124;-3.4767926;-0.015776528;-3.6812785;1.3469323;0.6314469;-0.46764776;0.4879112;-0.0025526797;-0.21314585;-0.034765262;-0.14490908;0.062453404;-0.03780785;-4.0610046;0.057673365;0.062329028;2.8486247;-1.9525628;-3.025736;0.002866131;1.9648051;0.037596;0.872836;0.00013365534;0.34738183;-0.023965685;0.2142306;2.8069308;1.304853;2.939341;0.027174724;-0.009733409;-0.0035849374;0.6243545;0.013350117;1.428031;-1.3466536;-2.659953;-0.009643226;1.8180861;0.7128983;-1.3069192;-1.7751094;-8.047338;0.07764307;-3.7693825;-0.005260578;-0.42840084;3.37115;-1.6255604;0.77264655;-0.4806325;-13.392207;1.5592564;-0.9586778;-1.2047092;1.9712895;-0.03321025;0.5155605;3.647116;1.7330511;3.5295017;0.024337208;-0.9618324;0.027806137;-0.01751253;-0.03279571;-1.4310086;0.028655175;-0.39119634;0.04085261;0.3900692;1.0774713;-2.385657;0.81127644;-0.9045705;2.599754;-3.961217;0.070225574;-2.1077785;-0.020251384;-1.9351053;-0.060251296;-5.824461;-0.022548644;2.4283147;0.38422433;0.036676895;-0.46011698;1.7658108;2.4320323;1.6820233;-3.3314168;-4.2977657;0.81670225;-0.39764428;0.037177533;-4.1915913;0.015820887;-4.0678973;-0.018183192;-0.94607824;-0.012420176;-0.8699102;0.037720453;1.2526158;2.422046;-0.31394678;-0.0057187043;2.2167177;-2.3382463;-0.03752978;-2.5338097;-0.05100666;-0.019142443;1.6886361;-0.022751406;-1.0417233;-0.0074963532;1.6317706;-0.7853393;-1.1008413;-1.0974385;0.045299422;-0.9800604;-2.206268;3.9010282;0.0396759;-8.103508;1.6698897;1.2810879;-0.6010618;-3.3846688;-1.1317583;-2.832283;-2.385226;2.7577837;0.021225825;-0.507267;-0.01782165;-2.4156263;-3.8641167;-0.024854897;2.3306763;1.0423809;-0.046937514;0.9907297;4.4626455;-0.9514587;0.36661187;1.1896003;-4.6466517;1.2619975;-3.517665;0.30386165;1.1299403;0.014712044;-0.803224;1.1771643;-0.055208053;0.0056193774;0.023336649;-1.7150284;0.044339627;-3.4157844;1.4920971;-1.0054249;-3.1882558;0.08281159;0.051877104;-0.8156792;1.4369708;-1.6367387;3.7898023;0.00570945;0.46362826;2.9980612;0.18924697;2.4174888;2.4980774;2.022255;-0.04252714;-5.1125154;0.6317693;-0.09876425;-0.6795634;-0.119817145;0.03850717;1.0982322;-0.053168677;0.49401554;-0.33675224;-0.040711474;0.076002456;-6.7286916;-1.838394;0.008959981;-1.1939806;0.017266892;3.2126884;-0.024159377;-0.6884462;-1.8109514;-2.2516823;-0.4513865;0.104931876;-0.09629301;-2.5058842;1.1333942;-2.9051752;-4.4779305;2.2710578;0.15403241;0.020657614;-1.5541376;-0.028701097;-0.03082892;-0.5278998;3.3013153;-0.036065456;-1.1870697;0.0025574733;0.13865677;-2.9987457;-1.937536;-0.057119716;2.6548882;-0.024644189;-0.05503493;1.8203954;-1.7630074;-0.014038408;2.5781932;0.51631343;-0.66766465;-0.68557644;-0.025489984;0.6075448;2.9994576;-0.488972;-0.7803483;0.6867021;2.123579;0.035475682;-0.0048107603;-6.31665;-0.7691384;-0.83616954;-2.43651;-2.151603;-0.011421561;-2.4389656;1.2342682;0.050640803;0.5099096;-7.5271726;1.5911803;0.005926647;0.04791196;-1.8368962
3.1776385;0.0048989705;-2.2482567;0.17536782;0.028405074;-1.0761056;-0.5242348;-2.3101997;-0.0375211;-0.5501519;0.02877406;-1.4861802;-3.8750894;-2.64183;3.595158;0.37722665;0.66016173;-5.014812;-0.7968973;4.2718043;-0.8599623;-0.028623698;-3.5518782;5.327711;-1.0493202;-0.030335747;0.019147107;5.5888033;-5.2262864;3.317668;0.87403613;0.0135727925;-2.1637092;-0.7823434;-0.8168748;-1.8694212;-0.78191155;3.7749662;-0.96389365;1.9064256;0.04208743;-0.007157787;-3.1662672;3.0812218;0.05764054;-0.5726845;-0.020102726;-2.9506843;-4.514324;-0.055052385;0.0167749;2.3283787;1.2643659;0.019112242;-0.005555546;1.7630731;0.045196254;4.04515;0.30353197;-1.7442652;0.015465641;-6.3292255;0.0388387;-1.8721097;0.99397254;-1.284242;-16.622587;-1.6562252;1.668409;-0.014321945;0.07242004;0.039964866;0.019663118;-1.9585208;-1.2724583;0.69409984;-0.038470108;-0.5607122;-0.295189;0.02556302;-0.032688715;0.12022025;0.10121068;-0.88073874;-0.032330934;-0.95767987;0.014154288;-0.0033809645;0.001135946;0.0065916413;-0.00018583363;0.19432402;0.37151185;-8.953538;2.137797;0.83090484;-0.52585274;-2.5353613;-2.1880534;-1.1444613;-0.025598958;-3.074432;3.1127672;0.0363608;1.4077572;1.1225847;0.036956307;-1.9117682;-0.112627335;-0.00013438227;0.9622328;-2.914209;-2.3582916;-5.412083;-2.6572149;-8.427795;-1.3518487;1.4992986;0.04380354;3.7812505;-2.658749;0.018892065;-3.40841;-0.011711064;0.055881202;0.007936985;1.7706367;-1.6221497;-0.061519314;-0.94626313;0.0823009;-2.3247254;1.0133119;-2.3996236;-0.044932175;1.5227427;-1.7865841;-1.4780234;0.043491453;0.00094933674;-1.7222954;1.0470439;-0.32500312;-3.4640787;-0.008566436;0.81713533;-1.6115397;-0.022753838;-0.89982605;2.4371006;-0.010642237;-2.0016506;0.07888914;-1.9215738;0.011702577;0.03494917;0.030782873;0.6377478;-1.0811107;-0.75176316;4.595489;-0.03264818;-0.7533855;-0.03509671;-0.01936134;1.7894243;0.9912084;-0.006405002;1.631758;-0.19097528;0.7016606;-0.085152574;-0.014201238;1.4115682;-4.79206;-0.3878824;-0.016205002;-0.058359507;2.093385;-0.028059518;0.018388119;2.7481213;-4.4064302;-0.6076011;-1.0423801;-0.9239848;-1.5131234;0.7239431;-0.6594969;-0.0020830515;0.051088236;0.022764936;2.261496;0.057010893;0.048137818;-5.319509;-0.115331925;-4.5606494;1.1130606;0.00230207;0.85215735;-3.9186938;-0.94984454;-0.03295902;-1.83556;0.000380918;-1.4585259;-0.012747906;-3.0780387;-1.5975387;0.23671325;-3.4053938;-0.0438945;-0.015750596;-4.672217;0.010862976;1.1360554;1.0080208;-0.66901886;3.7921145;1.95597;-0.2647835;-1.6799566;0.004569921;1.159407;0.0065383026;0.029508987;0.19925272;-0.03477705;-3.3193014;-2.6685987;0.048602533;0.4392117;1.1083337;2.4656715;-0.4847351;-1.1086166;-0.009364832;2.233659;-0.42426038;-0.7347312;-0.17927842;0.010673205;1.8263384;2.6620898;-13.362071;-0.056453176;-0.27069703;2.7453356;5.6051683;0.002809954;-2.0434165;-0.48571298;1.9417319;-3.6008153;-12.421645;-4.2361794;0.53861034;2.4670088;3.0924554;0.011222572;-0.0123776235;-1.0302043;-1.0272745;2.5072982;-0.9926677;-0.91966736;0.27980685;-1.0979112;-0.4994025;1.9046172;0.64537483;0.03972139;1.7716789;0.16758367;-0.023665547;-0.048855197;1.3007268;2.6965604;2.8267019;0.88795495;1.2430638;-1.338197;1.2288235;1.0742121;2.2201807;-1.2955995;2.21344;1.3650079;-2.6338866;-0.0019709466;2.84388;-0.08150277;-5.1219907;0.66685545;3.3294148;2.2691514;1.1777257;-2.8815343;0.006803554;2.217559;-0.036789913;0.017076526;4.8893504;0.025500296;-8.740696;0.020565897;0.50895196;0.09795943;0.80056536;-0.009973155;2.11986;-3.2744234;-3.5320487;-1.5825529;4.1548543;-2.332906;0.0024279538;-0.573795;0.90572166;-2.2555683;-0.12736629;-1.797606;-0.020297114;1.7332343;4.7533374;0.10930117;0.039496034;-0.026940353;-3.525911;-0.0043575056;2.1669705;3.8234718;0.25660238;-3.2347538;-0.006440406;1.315436;0.013363597;1.1188343;-0.027777975;0.46035078;-0.008030844;1.8630617;1.6426191;0.7424628;2.135587;-0.020755418;-0.028077671;-0.0058622384;1.8040208;0.03026963;-0.40324578;-2.5816853;-2.0257845;0.014680032;2.6544795;0.79299456;-1.5876917;2.145358;-6.9407144;-0.11095985;-0.2526829;-0.020460118;0.59467554;2.0208118;0.5444925;0.6439094;-1.0683234;-13.475007;-0.8674532;-1.7867535;-3.2692025;0.26130277;-0.1263648;1.7250643;2.5355983;2.0759947;3.524496;-0.041250557;0.8756693;-0.049250368;-0.025039101;-0.011987251;-1.2274514;-0.016903277;-0.1323748;-0.030101215;3.6326683;-3.2257805;0.95936364;-0.88921285;-1.7635711;2.4785843;-3.718463;0.027459167;-5.5729327;-0.0009769658;3.126382;0.024599746;-2.691534;-0.0242167;4.554762;0.5054467;1.4270431;0.23113793;2.3158364;4.892789;0.9374316;-2.267211;-7.46458;1.3967128;-1.3865767;-0.014533172;-2.2136464;0.007400833;-1.5984122;-0.004530518;-1.0810887;0.020769725;-2.1521144;-0.00065838394;0.001291624;2.6802032;-1.4638368;-0.02371224;2.4193604;0.93253416;0.09935481;-3.3033361;-1.1121453;-0.020436078;2.7544384;-0.08917585;-5.266933;0.0024187681;1.8205918;2.8252583;1.5567265;1.6170629;-0.057720125;1.0982448;-2.0185504;2.9206867;-0.042342097;-7.2636194;2.9784591;1.9613723;0.60520077;-1.8692857;2.292923;-4.1570926;0.99992424;2.872303;-0.023131609;-0.38295853;0.031627245;-1.8761646;1.4040091;1.6531602;0.7401333;1.7270048;0.10667185;-4.183295;2.804872;-0.57610655;2.888487;1.7123781;-4.3844156;0.26003423;-2.2911973;0.42217502;0.67671275;-0.048419576;-2.078278;0.3520081;0.030235441;0.02608326;0.022564871;3.080017;-0.01918838;-4.427166;1.6837996;0.041768562;2.212828;-0.08825479;-0.006228563;-0.11199101;0.23887308;-1.0993971;3.3970754;0.019498946;-0.34760737;-0.04092335;-0.31674922;0.7773732;4.2471437;1.544942;-0.017953683;-4.0406346;0.46711367;-0.050377343;-2.6965258;-1.1602492;-0.01634008;-0.19063418;0.054648347;-1.6448435;0.38121873;-0.021019096;-0.012459883;-6.0886054;-2.1364367;0.02106829;-4.8164244;0.0136157945;3.75507;0.0022341204;-0.21935108;-1.945876;-1.0221156;-1.6725428;-2.8312573;-0.01877516;-3.374735;-0.040038157;-1.5445536;-2.1590185;1.5264015;-0.7516819;0.024249818;0.5622358;0.0443418;0.0142335575;3.008511;2.3179984;0.028644564;-0.44369563;-0.052107733;0.010487331;-3.9490876;-1.0704266;0.018886229;2.1779954;0.0010118862;0.041676838;0.8634613;1.3121762;0.0109220315;-0.22103186;-0.1295575;-0.60037494;1.3631669;-0.039881535;-0.70905584;2.6977022;2.0616682;2.185017;-0.8398582;4.319483;-0.05527281;-1.8074661;-5.160738;-1.9395843;-0.47011945;-0.550621;1.1193826;0.024839971;-1.7535934;-0.40197694;0.020180179;-1.0891757;-3.8420963;0.8363418;-0.013780265;0.002639559;-0.71569735
1.100281;1.7674237;4.3416233;-1.0203769;-0.0029358305;0.74918664;-0.092121236;-3.428954;0.015847143;-0.68891555;-0.053485427;0.23984803;-3.8738158;-4.1142673;1.3026843;-0.10564157;-0.46084708;-1.451602;0.15350099;5.805431;1.3288884;-0.01977665;-2.7884402;3.6009157;1.1081482;-0.015462193;0.030086225;3.9539182;-5.348722;3.6636994;-2.4707286;-0.022251617;-0.90192956;0.67575294;-1.8140242;2.2603285;-0.91587;1.3012723;-0.9020373;-0.4120918;-0.015573773;0.026758362;-4.773659;2.398225;0.0074591693;1.1999253;-0.014136335;1.274474;-2.926028;0.0008295441;-0.034140866;2.9069505;1.6773505;-0.013662194;0.06674529;-3.537729;0.03733472;0.21644647;-0.030632753;-1.5939436;-0.031469136;-2.9506483;0.012888453;-0.78521353;0.8274452;-0.32534733;-16.525726;-0.8417409;2.4442067;0.031722456;-0.4052513;-0.05551645;-0.009676336;0.5638252;-1.5153308;0.6125982;0.013803278;-0.65690607;1.1507876;0.025946993;0.045673557;1.1473554;1.3873899;-2.4881704;-0.053948343;0.9699611;0.7721526;0.06040087;-0.036645927;-0.03125784;0.03317182;0.7485027;1.9700665;-9.103638;1.691499;1.4043351;-0.50628585;1.4195397;-2.3852491;-0.7466393;0.0052711833;-2.5020561;2.8355575;0.0392738;2.3141942;-0.3582342;0.00021280868;-1.2702138;0.6174782;-0.027974823;-0.49887657;-3.1675115;-1.8110042;-4.9472847;-4.102808;-5.2768955;-1.2023665;1.5132719;0.036826115;-2.2340014;-2.6260667;0.052500516;-0.50751245;0.01132352;0.036490344;0.07320183;-0.27795213;0.48214087;0.06834396;-1.9802755;-2.4188077;-4.227034;1.0647323;-3.0424604;-0.012669915;0.15114307;3.328141;0.33524555;0.023285644;0.024433875;0.25981966;0.21371183;0.48657003;-1.6886873;0.03195376;0.55082744;-1.8890753;0.053212427;-1.5938419;2.785501;0.06736326;-1.634169;0.027423307;-2.161553;-0.03277649;-0.00014797402;0.008305886;-0.21088415;-2.5448153;-1.2390255;4.3027406;0.059281085;-1.149969;0.027575577;-0.00023410487;0.1616008;0.29942214;-0.0069539016;0.021984171;-0.023426224;3.3674724;0.017307172;-0.034630388;2.1492517;-1.4061747;-2.1509116;0.004545915;-0.0117600355;1.6528943;0.016495658;0.045540605;2.3159924;-4.809185;3.376151;-1.5432595;0.443272;-1.6403798;0.113582626;-1.6227626;0.055472977;-0.36679822;-0.004418596;0.9132927;0.0024515204;-0.014947125;-2.6114929;0.13896918;-1.494879;0.856039;0.017829008;0.23764019;-4.586328;-0.64707595;-0.008751124;-3.8438973;0.012575755;0.07744109;0.003395416;-4.663149;0.7731496;-0.23408924;1.5033833;0.026240075;0.041814916;-6.9072003;-0.001497857;1.8540154;1.2000104;0.34000903;-0.26440865;0.8481626;-0.47189033;-0.105807826;-0.036909584;-2.0095615;-0.051710647;-0.02702744;-1.8540076;-0.0033067428;-3.914196;-2.6316497;-0.022216493;-0.019684874;1.7481908;0.9258159;0.16010116;-0.25570863;0.004345041;-1.8702679;-0.89321333;0.6980357;0.04793073;0.027132079;3.2210283;1.445048;-14.04862;0.023201108;-0.1841474;1.6573862;0.08995666;0.04509834;-4.578276;-0.2910642;0.7325781;-3.3180776;-9.272512;-4.048303;-0.20540474;3.0004954;-0.31515083;0.010456907;-0.006689352;1.3737735;2.119279;2.980737;1.0342814;1.8884306;1.6430162;0.71058106;-2.0811827;2.381815;1.8837508;0.025029521;0.033617616;0.16175455;0.046500713;0.033596877;2.1148648;-4.784064;1.9039673;0.6802604;2.6156557;-1.426001;1.0892367;2.872723;0.018018123;-0.50226706;3.1613824;-2.5096116;-4.2684455;0.01962056;0.5225225;3.9192336;-4.2044835;-1.528488;1.1887386;2.294661;0.8118322;-2.1973176;-0.0033253764;-1.7269742;0.031785578;0.035391454;1.948379;0.025162337;-9.464332;0.031159822;0.0072184005;0.013870141;3.1891518;0.0006436513;-0.68988234;-1.826755;-0.58809304;1.9100711;1.3856759;-4.01833;0.034005184;-0.9501188;-0.54067075;-3.64446;2.6177533;-1.5618595;0.1492492;-0.12565908;2.432035;-0.39695838;0.02583236;0.017894255;-1.9939117;0.016587486;3.7847726;-0.67952335;-0.06561478;-3.611983;0.02645841;3.2434616;0.0015799976;1.5216568;-0.01128201;-0.2934309;0.012270081;3.100599;1.5047436;0.27892134;2.9955266;0.022403471;-0.026775379;-0.014997584;1.0184169;-0.007858197;3.0803885;-1.2541647;-1.0625825;0.0027775152;0.44483793;0.76116586;-4.5119333;2.6755;-6.2031403;-0.22506927;-0.30723688;0.026613774;1.9456413;0.48376763;2.0742624;0.5694156;2.4298017;-13.697437;0.4859784;1.7192179;0.39589757;1.2495526;0.11003029;1.1714039;1.0121455;-0.30396757;3.948938;-0.0033459438;2.3912792;0.0018103735;0.0062560625;0.039201748;2.7604876;0.009531466;1.9364238;-0.02585114;1.7743106;-0.9260006;-0.85131985;-2.369036;-4.365822;-3.725767;-3.946383;-0.024828475;-5.76384;0.016365439;-0.47966906;0.065117374;-4.4200935;0.029630776;1.8734857;-0.008605953;2.1613216;-2.3973548;2.4411476;4.7418275;2.1395836;-3.0381198;-3.1307034;1.4072831;-1.8815838;0.010226231;0.58783925;0.039212376;-1.7216737;0.04421337;-0.3057427;0.023950046;-0.5465173;0.0224854;1.6195573;2.5531182;-3.524199;0.0074029802;2.1311378;-0.5773105;-0.075247265;-6.657314;-1.3042939;-0.0070279688;1.5587924;0.07372549;-6.9393015;0.02336248;-2.2245228;0.6487309;-0.086670734;2.601607;-0.06893841;0.7785344;-0.848091;1.3597863;0.013987653;-7.555241;-2.6018856;-0.5464886;1.586893;-0.18368767;3.319701;-0.9201169;0.71709025;-0.3051778;0.017785829;0.49092394;-0.017070325;-0.9291167;-0.18476184;1.7947646;1.0164297;-0.9845364;0.41097626;-5.5905294;-1.3404509;-4.2996416;2.8417587;-6.5764666;-4.2639236;1.832321;0.07703168;-0.28569317;0.8880841;0.029338172;0.13468772;0.43551835;0.0025002682;0.050148167;0.00588797;4.3841095;0.020755995;-4.0365715;2.4918685;-0.15492721;0.51050156;0.027443578;-0.04305919;1.2075692;-1.8990163;-2.814455;0.8801677;-0.044241093;0.73015624;0.13648328;0.2197309;2.550972;3.3734012;1.3690841;0.016217524;-5.6337495;-0.84832054;1.1244202;-0.90122956;0.13648286;0.018431835;0.9640203;-0.009725284;0.33021396;-0.18386216;-0.021293133;0.0061585438;-1.0684109;-2.9275684;-0.0056551904;-3.9852164;0.048342045;2.338192;-0.030500436;2.660213;1.7009146;-0.8776095;-0.12713411;0.7993763;-0.021862643;-0.33538315;3.5932248;1.2356071;-1.3364539;-0.40012127;-2.3618298;-0.009950083;0.26274773;-0.03542798;0.06893489;-0.2871199;-5.027887;0.0314078;-0.43142512;0.03446487;-0.055797864;-2.80385;2.6677992;-0.060562473;-0.52502245;-0.024201328;-0.02841816;-0.4684011;1.5765471;0.041831996;-2.0735605;-1.5000458;-0.17936507;-0.5831962;0.02880479;-2.19813;0.39581117;2.2347605;0.38761666;1.6108727;-2.5720627;0.032147754;1.4152131;-3.373369;0.42783722;-5.4970264;-3.7622538;-0.10626501;0.008630921;0.7432502;4.2315345;-0.03749283;0.731342;0.49791592;0.36484385;-0.021467207;-0.02713611;1.1735617
1.53438;3.2664819;1.2450461;0.2891656;0.030800916;2.8848553;1.816001;-0.64153147;0.016207894;1.6607149;0.053985436;0.7579471;1.5763651;-2.7892494;-1.130823;-1.2085557;-1.3638277;0.01965701;-2.2581437;3.0446973;-1.5755624;0.0013682271;-0.021230647;4.593667;0.2189242;-0.01691672;-0.01815028;3.0090504;-2.462381;1.989961;-0.796624;-0.0033256975;-3.93048;-0.47566634;-1.8726268;2.4901092;-1.3254031;0.08020106;0.5537421;1.3085397;-0.014264907;0.013523295;-0.8742893;2.6369088;-0.022961162;1.576868;0.0016482172;1.3975672;0.05938539;-0.06390662;-0.020624915;2.0520248;1.0884367;0.029634846;-0.013635676;-3.6242075;-0.03449333;-0.13755473;0.17479132;-1.5629455;-0.026852112;-0.4800437;-0.0453101;2.5373507;2.9177654;-4.7702303;-15.134264;-2.0842664;1.1967616;-0.0016332841;-0.4585804;0.031452723;-0.0054665576;1.6147801;-1.9612645;1.1356573;0.03729236;-1.5027457;-0.9623238;-0.043723192;-0.056570113;-0.20539476;-4.676327;-1.0667787;-0.0032520602;2.2748048;0.7628047;-0.01798973;0.08667497;0.011980229;0.030727703;2.1279955;0.19372414;-6.6213994;0.13336493;0.30715063;-0.8766276;-4.0149245;-2.7002852;0.21129045;0.02963045;-1.9282715;4.0921497;0.040698435;1.0181118;-0.85763323;-0.024191797;-5.9021444;0.92217106;0.029683037;-0.36158454;-1.4171864;-2.6498318;-4.810697;-1.037908;-9.615991;-1.0575887;2.1675892;-0.032675073;-1.6970991;-2.3366482;0.061060872;-3.0344877;-0.04014165;-0.022492528;-0.046766434;-0.816611;-1.4005895;-0.008499547;-2.299725;-1.4841895;-1.2487161;0.82253546;-3.8707943;-0.018723102;-1.81966;1.0667909;-0.23878549;-0.06243666;-0.06265433;-2.2507255;-1.2141442;-2.4962234;-3.7645354;-0.03399354;0.37303525;-2.6560376;-0.034357958;-0.23772977;1.6467363;-0.06302165;-1.2151464;-0.026327247;-2.62132;0.008910799;0.031944387;0.036930066;-4.1202006;-1.4506602;-0.677499;4.8058243;0.03909572;2.1450496;-0.012721551;-0.038136266;-0.87142265;-0.016329547;0.0036742692;0.23314296;1.5835634;2.4756732;-0.069614634;0.02327628;1.033924;0.62756425;-0.7401018;0.00083012227;0.027039008;1.2915715;-0.028574573;-0.016848171;0.9097692;-4.6752872;2.67426;-2.78006;3.3799548;1.3954284;1.802667;-3.421302;-0.016745308;-0.2495271;-0.03692628;-1.8495541;0.008015978;0.032344766;-2.6863892;-1.7570522;-0.19279702;1.911796;0.051697146;-0.49794993;-4.764394;2.7180772;0.037033476;-2.1876497;0.0003345138;-2.564223;-0.013089107;-2.2604754;1.2707372;-0.02648438;1.2663608;0.019259032;-0.0123749515;-2.9263241;0.052926064;0.36963722;0.903634;1.1514257;-1.0315987;-2.9496424;0.26352757;0.4217661;-0.012007531;-0.41975856;0.05875457;0.003551793;1.6062912;0.02310344;-1.867541;-2.2246213;0.0009913379;-0.49576175;-0.9075519;-0.28137866;2.7806423;-0.2183578;-0.030982383;-2.7994318;0.07152031;1.4496142;-0.07029929;0.01680721;0.38379487;0.83830184;-12.473392;-0.00572651;-0.0071190284;1.6732275;-1.2341645;0.025958415;-3.4747796;1.6012108;1.3024414;-1.9778299;-1.7605342;-3.87455;-0.11496789;0.04779193;2.140817;-0.04247865;0.0062769055;-0.48545554;-3.985466;2.4954016;0.30982086;4.0155177;1.1382473;-0.23341651;-3.0377696;-1.1949853;-2.7425838;-0.024701083;1.5285531;2.7212908;0.036404073;-0.0018823042;-0.5697;2.9761188;0.8970032;-0.1655053;1.5175639;-1.0054513;0.49666035;1.2988364;-1.4140203;1.21647;0.035254072;-2.3982131;-1.628025;0.0091914395;2.284658;-0.1031907;-1.0607725;-5.952575;1.439738;2.1007462;-0.5291233;-2.5748076;0.014019715;2.3350036;-0.0076890276;-0.025059495;1.6105808;0.03488892;-8.073674;-0.01480175;0.17973085;0.010018161;2.643611;0.02253153;1.0347543;-2.8622339;-1.3985804;3.2861323;0.8576462;-2.4993942;0.041004192;-4.243834;1.7327746;-2.7225523;2.4586968;1.1601341;-0.059702225;0.50707674;-1.434874;0.016236756;-0.04872497;-0.0070121367;0.75486714;0.04014946;-4.324525;1.2483187;-1.9448309;-1.1900831;-0.001326949;3.3203955;-0.0046425653;-0.98445886;0.0031940655;0.23578747;0.026253225;3.29212;-0.7390735;0.031593896;1.5753633;0.0021698177;0.028532803;0.031573027;-0.90215415;-0.02114656;1.5510412;3.8369963;-2.2212527;0.03266599;-1.5512568;0.50209314;-2.102437;1.0312105;-4.2208314;0.5093937;2.1680179;-0.016909512;1.1901675;2.5498278;1.3320774;1.6503812;0.6236103;-12.033626;3.0305364;-0.6907038;0.38217396;-0.027130859;0.52198625;0.783855;1.5219622;-0.045260146;3.4256299;-0.024994582;6.0519657;0.05415537;0.048293;-0.04751942;0.70379937;0.013445286;0.99493504;0.048470866;0.13819985;0.26922774;-0.07836126;-1.6472851;-0.7357113;-1.4983096;-2.567236;-0.00170257;-1.6653302;0.033317246;1.6824677;-0.0032363515;-2.82664;-0.15360181;1.9125019;0.930013;0.39480782;-0.2512908;1.1810297;1.7026368;-0.60575885;-0.18449412;-0.39508438;1.2404406;-0.03553358;-0.020853877;0.26157135;-0.032778844;1.7588001;-0.0014684909;0.9097687;0.012642851;-0.8827467;-0.048833337;-3.3738186;2.3309145;-2.6793575;-0.008869717;1.9824502;0.022905234;0.06026307;-5.629524;1.0033872;-0.006147071;-0.13693601;-0.02126965;-10.020329;-0.052407954;-0.940125;1.6677142;3.4618125;0.5500709;0.039005145;2.0406833;0.7704894;0.5611304;-0.00988926;-2.7516327;-1.5838976;0.48186743;3.9587564;1.060159;5.8871126;4.7107797;1.6292136;-1.1212915;-0.04414694;-6.9650817;0.02875815;-0.113123015;-1.0271739;1.0118328;-1.2902399;-2.084451;0.14086187;-4.392503;-2.5900714;0.7059952;0.9844261;0.5259118;-1.2632744;1.7780455;3.2708216;0.28829113;1.0896817;0.0052344636;0.6415655;-2.40881;0.012208249;-0.035556037;-0.022799224;2.2260065;-0.026096983;-1.003478;1.2886391;0.105038166;-3.4311483;0.007929909;-0.041271504;-0.3609972;-1.9895551;-3.3145146;1.3280146;-0.016474146;-1.7337354;-0.75923884;-0.102137156;1.3593683;1.4827951;3.740435;-0.0028065206;-2.8430004;0.78493387;-0.2700937;-0.8307513;-0.2007892;0.030879527;0.8689917;-0.001754517;1.3311353;-0.13900617;0.019568892;0.04477162;-2.5664432;-4.2489324;-0.00684362;0.8605334;-0.016616479;1.3004525;-0.01903144;2.8384178;-0.75512993;1.011507;-1.2281854;2.1827428;0.029572662;-3.3846724;1.274816;4.0630593;3.1940193;0.15365788;-4.858199;-0.032011233;2.5176287;0.026208919;0.029480604;-1.1851437;-4.0198045;-0.02101062;2.0303059;0.067083076;0.044327687;-1.1696079;4.2348323;0.03816074;-3.9388523;0.017179476;-0.094147876;1.1010832;1.0251218;-0.01114914;-1.1079245;1.815411;0.057866123;-2.4161563;0.028929017;-1.3740295;0.8437175;-3.794781;1.7655845;-1.2701048;-3.1402404;0.0040907855;1.9906876;-0.6211841;3.6132543;-1.9185736;-5.9826603;-0.44099942;-0.0034762544;-1.7949139;4.264117;0.004541231;1.0580604;-1.9473648;2.0360787;-0.045100506;0.05726861;0.5801339
2.456595;2.533096;-1.9023465;-0.1142266;-0.0139597235;-0.88010925;-0.3311217;0.1329601;-0.001888706;0.66822356;-0.016093394;1.146212;5.3097205;-2.0756705;2.1702085;1.166;2.3002644;0.20697865;-0.36039683;1.760712;-1.1100497;-0.011257175;-2.9516346;1.8234768;-0.5446223;-0.022343194;0.0038948103;2.9292362;-0.36600637;-1.6253918;-1.6316164;-0.0136827165;-1.9909965;-0.48878834;-0.44451305;-0.92537206;-1.2837073;0.6281279;-2.2322361;-0.0122954;0.022095734;-0.002100904;-1.3157048;-1.138851;-0.014471809;2.593185;0.00078987185;2.7506223;1.3637837;-0.03422848;0.003518257;0.8077961;0.41401872;-0.014687824;0.0072978283;-2.0964262;-0.021398673;-1.294769;-1.1467546;-2.3031917;0.009385056;-1.3749651;-0.04128083;-2.0059292;0.46933207;-1.9735333;-15.26298;-0.17935653;0.46525428;0.06520985;3.182557;0.016330112;0.03221162;2.144579;-0.14588353;0.47886467;0.0113273375;-1.5024798;-0.07773599;0.002518377;0.024150195;-0.29048118;1.2029467;-3.9247882;-0.014233734;0.64335656;-0.14034031;-0.01602195;-0.028446892;-0.0031368013;-0.016950188;0.50108635;0.19975351;-6.798846;1.4599628;-4.032998;-1.1855508;1.1148612;-2.4295933;-0.3660816;-0.020902209;-0.48089227;1.9320089;0.0007914616;0.8449025;-2.7303514;-0.011911953;-6.1160417;0.57921195;-0.010413615;-0.30633247;-2.2489476;-4.2554793;-3.2358003;-2.154014;-5.06285;-0.7282525;2.6009328;0.029478747;-0.15188166;-2.1403713;0.046343293;-0.88577;0.00740798;-0.0063372795;-0.029893989;2.0075617;1.5832149;-0.036474;-0.25300005;-0.5826011;0.72645956;0.34440804;0.37603796;0.0017166979;-0.98153067;-2.7032206;3.6772912;-0.032492954;0.053560454;1.2215128;0.7580246;-4.249167;0.42576137;-0.0040491014;-0.23467226;-3.6432235;0.017527517;-0.9611011;0.23488095;-0.0212353;-0.15077242;-0.031768087;-0.20481798;0.027277458;0.0023267427;0.069571115;2.3283179;-3.0342484;1.0728936;3.8714094;-0.0291385;1.0190676;-0.0061468426;0.01107354;-1.2590172;2.384649;-0.040224183;-1.3065995;2.0586278;2.6175373;-0.11734879;0.013853777;0.8713068;-2.381472;-1.64634;-0.040626206;-0.04952825;2.4018588;-0.015820406;-0.050492328;0.9631392;-3.8986864;2.7339754;0.53381807;5.959962;-0.35144573;-1.4593428;2.0461082;-0.011472691;-0.43757692;0.0130760465;0.8488258;-0.008624607;-0.0051336647;-1.7268102;1.8720913;3.728596;1.0799435;0.0005540444;-2.3000045;-6.4025035;0.72879255;0.0013241695;-3.2332325;-0.0014175989;0.15976106;0.045278806;-4.7144666;3.1763892;-0.5216677;-3.5353446;-0.012994579;0.013105606;-2.8945692;0.009763047;-0.4224341;0.8166396;0.7889584;-0.819754;-4.007555;0.87510943;-0.26484814;-0.0038910585;-0.5041717;-0.04971076;9.167227e-05;-0.404901;0.09869147;3.1101828;-2.1590474;0.022815831;-2.884162;1.5718532;0.44872;-0.41781846;-1.6528947;-0.1869817;1.0780213;-0.74723566;2.365194;0.16536796;0.0031561984;1.2123317;-0.39024448;-12.570534;-0.019231692;1.3155797;0.5344441;1.4334117;-0.01527027;1.4602851;0.69846255;-4.2415237;-2.1040158;1.3827909;-2.2144105;-0.004338271;-0.64947695;-0.64552164;0.009542876;0.029781496;1.7202551;0.31049713;3.9439886;0.002739087;0.5638375;1.2891653;-2.6734176;-3.429179;2.0378606;0.862807;0.01926055;3.9264483;-1.7060732;-0.095172636;-0.010771928;1.2626029;0.62439185;0.13863704;0.18058924;-0.47261995;0.9649532;1.3551288;2.206529;0.8769665;-0.118454866;0.07447522;-1.8195627;2.5380971;-0.005544039;0.3292783;-1.0831563;-2.8679097;-1.3997445;0.85323375;1.923956;0.049839605;0.026413724;0.02179775;0.7307714;0.008177959;0.015563818;-1.9744781;-0.040368948;-8.623607;-0.015219403;-0.09574819;0.04580761;-0.8899417;0.019293213;2.2620966;2.1982942;-0.09026024;2.887097;3.3412728;-0.41862094;-0.011907731;-0.5089045;0.7052502;0.10024313;1.5129358;-1.8659716;-0.0020235064;0.039262976;1.0496395;0.31043035;-0.021000097;-0.0011674997;1.4931737;-0.023113815;-3.5128098;0.19820006;-5.669372;3.9029756;-0.017125167;1.7500418;-0.05403729;0.12999602;-0.010492165;2.0210576;0.03234734;-1.6341107;-0.02764847;-0.33288077;2.8347754;-0.007189534;-0.047393557;0.022690734;0.69138676;-0.022200543;-0.8819934;2.952161;-0.47260505;0.005005851;-0.12694344;-0.51461905;0.9210962;1.5284371;-3.2705913;-0.2262643;0.30724588;-0.022547752;2.4827695;-2.0499034;-0.16195248;0.648819;-0.006962213;-12.398533;0.34453005;3.419131;-2.3621428;-1.8707169;-0.1270608;0.84728897;2.5887578;2.1075118;3.7001073;-0.037259225;2.235945;-0.010098687;0.030390877;0.004046106;1.4257631;-0.025307927;-0.1798923;-0.019826561;0.5241123;-5.4197993;0.35775372;-2.4860485;0.87567097;-2.4584858;-2.4401398;0.05426365;-1.315861;0.017882092;0.74349266;-0.015584114;-5.140902;1.0319415;3.0558722;-1.5975806;1.9511341;-1.122799;-0.73623127;2.6284173;-0.82564515;2.7401135;1.3393847;-0.1787232;-0.05807782;-0.04965661;-0.1599151;-0.050873574;-0.58410513;0.00872602;1.770657;-0.04360718;-0.20479517;-0.009473513;0.9302359;1.9519954;-0.7420138;-0.016911449;1.8381673;0.8236254;-0.082115166;-3.7671711;0.09172644;-0.02673555;2.7127626;0.002036735;-11.32607;-0.009583331;-5.2993484;2.1819818;1.2465085;3.1852605;0.055028763;2.0797737;-6.2164207;0.9664442;0.036803953;-2.9175773;-1.2193904;0.029574765;2.5694473;1.9496131;1.5901359;2.0648892;-0.04373264;1.2274911;0.011757489;-3.8520088;-0.03798872;0.27607438;-1.1481966;0.21089925;-2.3411307;2.1635532;0.3376993;-5.0295978;-3.3042064;1.4466832;1.2224066;-3.1382105;1.3389578;1.1575311;0.3170808;-0.26092282;1.48949;-0.024750847;0.38765672;-0.8484203;-0.015697695;0.09779795;-0.018236507;1.1191411;-0.016050484;1.3196806;1.5443978;0.44519;-1.5153604;0.01103624;0.8499502;0.6382837;-0.03178648;0.34657845;2.2061489;-0.02204074;-1.3708109;0.12027383;0.29279974;2.5626056;-1.091447;1.6176586;0.030655596;-2.8810966;0.42614022;-0.10503162;-4.039663;2.8581064;-0.05122996;-2.6167023;0.038037576;0.75216013;0.03365244;-0.045528147;-0.01590009;-4.5008993;-1.2049699;-0.020501044;-0.22831899;0.053508807;1.447407;0.052098032;-0.13993455;-0.7413846;0.14604776;-2.2609053;0.31823787;-0.007978803;2.8960266;0.19917089;0.63027817;2.4162977;-0.03103554;-3.7097785;-0.047152616;0.999372;-0.023667574;-0.04605713;1.8272015;-6.062155;-0.031864367;0.67105883;0.07604796;-0.061266717;-6.399254;3.416338;-0.11947224;-4.8971543;0.05102623;0.028127532;1.890427;0.07808041;0.010487791;-1.9867004;1.5597272;0.20353967;1.0543548;-0.02694043;-1.9991661;-1.3152801;-2.7430842;1.833436;-0.018783733;-0.16386536;-0.034138322;-1.2526735;1.822989;3.7061317;0.7732588;-8.004158;-0.091407746;-0.039042808;-1.2414442;1.7837373;0.010838483;0.24782966;-0.87526125;2.6064932;0.018905107;-0.061731514;2.2533681
1.4971484;3.6319268;-1.1315385;2.748846;0.035720415;0.9048305;-1.8198168;-0.34653857;0.015674252;0.3769492;0.011559678;2.132139;1.2097982;-0.85332066;1.3240306;-1.2702779;-0.70464265;-1.3782078;-0.9970454;3.2961936;-0.5457834;0.0035257053;0.7092793;1.2235415;-0.23721085;0.035127677;-0.038845994;2.5949664;0.060904343;1.1729867;0.25199884;-0.015498172;-0.6731899;0.8952236;2.0890484;2.6391804;-3.7456012;1.3596369;1.6364677;-0.023019375;0.007089384;-0.013352299;-1.070183;-0.9269865;-0.010904129;0.67426157;0.010067912;1.7775111;-5.5902953;-0.07027934;-0.010172136;1.3176738;1.1909671;-0.041896936;-0.01962504;3.0944505;0.017484758;-1.1670654;-0.22646414;-1.374385;-0.009556237;-3.5034008;-0.018043729;-3.5226722;0.19791971;-5.556878;-11.821682;-1.6924753;2.8910568;-0.018314425;-2.5756977;-0.0708417;-0.015201059;4.0614104;-0.10817813;2.491702;-0.045412276;-1.6529139;1.5543964;0.0007493522;0.0056460146;-0.7056758;-0.8012542;-2.9083965;0.037219893;2.7657816;-0.19638993;0.04563309;-0.034543514;0.040643677;-0.015725918;1.5278447;0.4317949;-4.100218;0.4733076;-1.9986962;-0.8888783;2.2013507;-1.7123662;-4.2629757;-0.05313347;0.7959666;2.2022727;0.06271576;-1.3798438;-2.060233;0.011228768;-5.683502;-1.7839762;-0.02052133;1.881823;-2.0764034;0.14687559;-3.391151;1.0985397;-3.9740283;-1.0378634;2.247261;-0.045759417;1.7368;-2.4409127;-0.015318703;2.1788812;0.0019323111;0.030852323;0.0112947915;-0.81430304;-2.4363847;-0.012868028;-3.3221054;-1.252303;0.59297967;-1.1438105;4.7475467;0.03480261;1.264428;1.8839481;1.5417268;0.012694681;-0.010102299;-2.8856127;0.17485766;-4.6793613;3.8859203;-0.0023285775;-3.6829162;-3.9589849;-0.00931038;-0.76147395;-0.06406442;0.0120343985;1.6816628;0.17242047;-1.9971817;-0.0120468885;0.003506485;0.002072237;-1.2189733;-1.7365335;0.47394726;4.403538;0.0070968317;-0.0013220175;0.04051913;-0.02899384;1.2631965;0.81010604;0.03532875;-0.8012339;0.35406074;2.9042053;0.5902025;0.008673256;-0.8298829;-2.0198667;0.91599923;-0.011869256;-0.027270023;1.423445;-0.009209193;-0.046198945;0.2743234;-3.4315877;0.068776794;-0.66309786;7.1528316;0.30857784;-0.7226227;-0.55749553;0.0033236467;0.08562974;0.029739894;-2.3886886;0.008449171;-0.02052796;0.6146003;1.2327769;0.5292761;0.74893594;0.0014538482;0.55687207;-2.2079444;0.45559078;0.012688686;-0.4343245;-0.11282391;0.43492383;-0.017034307;-3.4946232;2.7825925;0.19010244;3.204225;-0.04830592;-0.0109894015;-1.1548098;0.006438821;0.67281705;0.99094325;-3.9740043;-1.8552144;0.8568797;-2.3830843;-5.201696;-0.02426617;-3.019055;0.029578375;0.006692022;-3.0404782;-0.009336396;-2.7533517;-2.3434284;-0.045429576;-2.2096891;-0.8978258;-0.76375765;1.0709543;0.73024106;0.7999398;0.29996845;-0.020983964;0.5197725;-0.015379983;0.030025799;1.514974;0.39155638;-11.632216;0.030546634;-1.8831651;-0.64735126;0.101160355;-0.0010833016;-0.5891817;0.7959845;0.0062637157;1.7310457;0.5370287;0.1710767;-0.044844832;0.5622521;0.67553395;0.015770769;-0.0018215058;1.851014;0.20838878;2.8610308;-1.5015497;-2.8221288;1.3711401;-2.9542615;-1.120267;2.006791;-0.94478774;0.03461494;-0.23770325;-2.2009475;0.1909279;-0.038456116;0.08871785;0.40367392;1.2018616;-1.3696613;-4.6525903;0.94462544;-0.6266639;1.2265384;2.3416035;-0.8807318;1.7595183;-1.2705189;0.6468605;0.020570394;-2.7959113;-0.72688365;-3.3618019;-0.47680676;1.1041799;2.1482575;-0.12795196;-1.0914881;-0.061725073;-0.35061726;-0.031958725;-0.0062043453;1.4186673;-0.0064500896;-7.9745374;-0.040316816;0.2328652;0.013250403;-2.0974154;0.01620051;-0.23784287;-0.74602246;-0.38357386;2.1453464;2.71866;-0.19058679;0.014927588;-2.19425;-3.3919828;-0.08291371;1.9508972;-1.6731255;-0.0139275165;-0.640258;3.0528617;0.14519393;-0.037516557;-0.020553505;-2.019491;-0.023392906;-1.9861046;-3.943819;-3.6745648;2.8554304;-0.0059632557;0.22866839;-0.0025386256;-1.7419611;-0.02422327;2.1212733;-0.015492822;-0.5007301;0.21770623;-0.8563066;3.1075644;-0.021982625;0.005563641;0.028158335;-1.3319027;-0.0036562972;-0.2532961;1.3539091;-0.71662384;-0.040382974;-0.63253206;-0.20887452;-7.3598466;-0.2196022;-0.6675888;-0.114026345;-0.698853;0.03586533;1.3587596;0.18067324;1.0501912;3.7668293;-0.12493742;-10.922798;-0.090804406;-0.35227478;-5.779608;-3.0864146;0.031176856;2.0947104;3.3067272;2.7064235;1.9436946;-0.013244278;-2.49952;-0.0302401;0.007891346;-0.08625224;-0.7552656;0.046733107;1.0844961;-0.002045984;-0.8785071;1.9561591;1.6711284;-2.6865249;1.0041366;-3.7684796;-3.3045847;-0.07027324;-0.0390747;-0.05036773;1.6997118;0.034451615;-2.9531155;-0.19966878;0.86863536;-0.19409898;2.289179;-3.1610556;3.0440586;2.2877204;-3.3222651;1.4882987;-0.029880073;-1.9427075;-0.20556246;-0.041558567;2.1061652;-0.019249761;-2.9535155;0.018837363;1.6096895;0.11691955;-0.94744194;0.028821316;-1.3708792;2.3492794;0.34582624;0.0028093655;2.420743;-1.3374985;0.033684555;-4.5667086;2.8285758;0.03499329;-1.6179777;-0.09946131;-12.523656;0.09886968;-1.773284;-1.2222364;-0.22936423;3.4242873;-0.035373982;0.89824116;-3.3539333;-0.87250686;0.008477569;-2.8077466;0.4131433;0.14666857;2.3383071;-0.4766865;2.8757703;-0.80311894;2.21821;-0.35712054;0.027433129;-1.1967065;-0.005189108;-0.5498409;-1.3377421;0.73303044;-1.1524193;-3.7100122;-0.12357311;-0.37151018;-1.0738184;-0.4364452;1.6714444;-1.4082999;-0.8327216;2.428725;2.0938296;-0.13009419;-3.0316541;-0.027846977;-2.8259377;-0.44712958;0.024550129;-0.032555807;-0.0029972533;4.1220603;0.006631108;0.51447445;0.7675838;-0.15539736;-0.97796;-0.056876946;-0.26933652;0.52302504;1.7006516;-1.9429204;0.022288322;-0.028528111;0.6669115;0.46999988;0.26445746;-3.011748;0.7071854;2.4540646;-0.013543704;-2.326888;-1.7871625;-0.042773172;-5.0505414;-0.22332996;0.03920661;2.6464725;-0.03396579;0.89235634;-0.23625392;0.0015897467;0.008654518;-4.818441;-1.001107;-0.003464228;0.31178147;-0.0069535933;1.8335407;-0.051280607;0.44675726;1.1821206;-0.12926356;-3.4011834;1.8516062;-0.0024941852;0.87824124;-0.55254954;0.04738973;2.002387;-0.55458623;-1.1362679;0.030604834;-0.15216284;0.044037305;-0.018334622;0.8130853;-3.185501;0.0040344507;1.1427581;0.03474847;-0.043159388;-6.528451;3.4669669;0.3578795;-5.017626;0.028506368;-0.019862507;0.6991256;-0.08872131;-0.008158115;-3.2464204;2.3834095;-0.038802966;-0.2593967;-0.0356589;-0.8269342;-1.0524664;-1.1166053;0.5627333;0.49509767;-0.8589082;0.035592463;-3.2340937;-0.60691434;3.9483604;1.5165632;-0.97476864;-3.4486942;0.01175273;0.7019952;1.2217503;0.014116756;0.3194415;2.624278;1.7602869;-0.032063805;0.020686377;2.7600362
1.5566732;-0.54241693;-0.48120874;1.6860507;0.026855161;0.5965687;0.9477961;-0.009264876;0.01726697;1.5133684;0.0030569532;-0.2678706;1.900698;0.5588193;-0.1335873;0.8758724;-3.6425664;-0.89531344;0.84958285;0.9985732;-3.8267238;-0.05708962;0.717344;0.17016496;0.8824963;0.0036029648;-0.02252532;0.93296075;-0.4220993;1.129738;-2.0205863;0.04384525;-0.23397051;-0.6218711;0.58075374;3.1459692;-4.4949064;0.55454814;0.16100137;1.6489347;0.037180282;0.061081722;3.5591025;-0.27264705;0.03044238;0.69315;0.055364806;0.48117176;-1.9610151;-0.2018328;-0.14703716;2.7663589;0.98208445;0.08517195;0.050851043;0.30076507;-0.004039432;0.5538806;-1.1479387;-1.4713523;0.029558633;-0.84640086;0.09057902;-1.0819695;2.1022449;-1.2042558;-7.655913;-0.7231596;0.7000153;-0.033635955;-2.6429012;0.14364456;-0.019476093;-1.0391271;-1.1861591;-0.84232044;6.8231675e-06;1.0814333;0.71570826;0.0006975565;0.022377871;-1.8167844;-1.6936945;-0.07988225;-0.001495142;-0.013189871;1.4559028;-0.004041258;0.011930123;-0.005133322;-0.008033507;0.67036825;0.64411306;-0.5665553;-2.6530948;0.54197717;0.28367552;-0.10314693;-1.5170707;-0.06956942;0.054540977;0.2231024;0.81032485;-0.0050761667;-2.5293078;-1.2288741;-0.07446664;-4.369878;-6.102023;0.035292175;3.8664722;0.521714;-4.986464;-2.2476354;1.4136811;-3.5111506;-1.4187822;1.6302257;0.028883563;0.44443834;-2.583353;0.02186903;1.0694624;-0.012734647;0.011217432;0.058856457;3.0991259;-0.5060964;0.113656886;2.7335212;0.15853475;-0.44110098;3.0227978;0.6345678;-0.016369615;1.7787908;-1.31406;0.053017575;0.010299677;0.07951677;1.3775951;-1.0390424;-2.328736;0.9641701;-0.0835912;-1.3133785;-3.139983;0.019971844;1.4305072;-0.9976598;0.010940501;-2.8549669;-0.064170346;-2.3226306;-0.003436489;0.029201386;-0.02072663;0.087155476;0.6499868;2.3762796;5.531318;0.008623715;-1.6491572;0.005249397;0.031972464;0.68205434;1.6417804;-0.043265387;2.2272592;1.1353582;3.4104123;-0.12049431;-0.023153184;1.4507105;-2.0385835;-0.21393839;0.03871057;0.029164178;0.009668964;-0.0021901974;0.03453924;-1.1018466;-3.3476322;-3.2506604;0.014879116;2.6532588;-0.24090078;-0.47040045;-1.1128294;0.06612113;0.16656116;0.038199533;-0.6655519;0.01468538;0.0005207465;0.2362191;1.4891717;-4.125884;-0.69829804;-0.015536051;1.4942349;-1.6512129;-0.22770076;0.007768317;0.92716855;-0.16175748;0.69704276;-0.016377697;-0.5675989;-1.052733;0.2682084;0.1532005;0.022538247;0.10125064;1.2876291;-0.002794567;-0.15550427;2.1181927;-7.669833;0.9467322;1.6969651;1.0762852;0.79878503;-0.002032551;2.438689;0.0019600997;-0.023448046;-0.13252988;-0.004573115;-2.558794;-2.590004;0.028839123;-0.090763636;-0.6438048;-2.10696;-3.6437852;-1.0069886;-0.2808823;0.13711116;0.33335972;-0.6476999;0.039833665;-0.021226542;2.242281;0.8533174;-11.730195;0.058018576;-0.16940236;-0.9639411;1.0292741;-0.010774782;-0.72924656;0.5606205;-0.6408223;-3.2934453;0.106490485;-2.914739;-0.01954487;0.9858591;-1.1688648;0.04997018;0.009155464;1.5622098;-0.509502;2.0476506;0.023812735;-3.3601532;1.1317021;-2.2587838;-2.1691122;1.0572821;-2.3730116;-0.00028835481;0.5879586;1.1367172;0.0032515442;0.012886784;3.0060863;-1.5908525;-2.0080674;0.7012911;-1.0119739;2.5605009;0.20142664;-0.5316642;1.2809478;1.0407143;0.8442775;0.12053334;1.1289186;-0.0038615875;-1.9584414;0.74484164;-1.6690046;0.51105404;0.53154206;2.198918;0.006098579;-0.51326746;0.02554085;0.8727732;0.0028698952;-0.022541003;0.6365181;0.012427888;-8.822087;0.010648241;-0.22088309;-0.00023549341;-1.9725916;-0.040700585;0.73390734;-3.5950887;0.15451731;-1.1908702;0.4813347;0.67296314;0.019077139;-2.596233;1.5915254;1.2788614;1.7529827;-0.43582857;0.051915064;0.4362654;0.4824526;0.24048436;0.00987254;0.022138331;-0.45560518;-0.018903174;-2.9437423;-2.1201136;2.2823145;1.913097;-0.05082414;1.7200953;-0.0036572493;-3.0186486;0.0020149944;1.946551;0.07562924;-0.5993048;1.7136757;-3.5688589;1.9120145;-0.039527647;0.030743403;0.08597866;1.0738428;0.009349731;0.39004773;-1.1417274;-2.0258791;0.035303738;1.7330482;0.17882653;-0.72987914;-0.48314407;0.33809206;-0.05321921;1.0594615;0.0054789814;3.494315;2.5975366;2.9107847;-0.72039896;-1.4405104;-11.382052;-0.4231192;-2.1137333;-3.23182;1.5187193;-0.060612425;2.3322515;2.5468457;3.759076;0.34356388;0.3989772;1.3677827;0.029988417;0.0059127314;0.0022696673;-3.2738028;0.040892344;-0.8617382;0.018728595;-1.2994179;0.48889038;0.1841415;0.72386163;-1.0341197;-5.594983;-2.9194994;-0.007148036;-0.8463467;0.00016024307;1.340358;-0.017484877;-3.027501;0.06470455;0.9288067;1.8870834;2.4629464;-3.3057907;1.6870166;4.5840836;-3.0236106;-0.11467581;1.4277973;2.0283318;-1.7185034;-0.011604323;0.6662571;0.013322911;-0.1804686;-0.012275859;0.08034087;-0.01566608;1.2184529;0.01893459;-1.4463404;2.1988702;1.2519038;0.049168926;2.0335293;-4.37405;-0.023402879;-6.82523;0.7499793;0.010981728;-1.661343;0.039991762;-12.142671;-0.0030305237;-0.47830626;0.1520273;-3.294692;-0.16447502;0.043129764;-1.2486758;-1.4384134;0.28327718;0.013004355;-1.6522002;1.1209905;-1.2557664;2.2643585;1.5490142;2.758678;1.7174497;-1.3261468;-1.8493147;0.033544842;-4.423696;0.024737928;-0.6461338;-2.5320108;0.93336415;-3.493033;-3.4457116;0.008109438;-2.5352073;1.2570633;0.9586075;-0.36342254;0.94258994;-5.6421437;1.9353514;2.6273215;0.64654696;-0.15165108;0.0061594574;-3.4864447;0.60419714;0.016097393;0.021192834;-0.027312825;-0.13312754;-0.04313626;1.9827427;-0.74659324;0.5654358;-5.599259;0.01614888;-0.0061233393;1.359408;0.1394156;2.2327428;-1.0118377;0.02451754;-1.8308729;0.535419;0.109743774;-0.40398917;1.1444229;0.7600719;0.021177486;-2.951601;-0.24078394;0.0110904975;-3.694015;-2.8791647;0.04784425;1.0739509;0.05698681;1.2777528;0.07600751;0.0033619916;0.034134153;-6.7573576;1.2385701;0.058267675;-1.2211871;-0.03155721;0.41003025;0.24238671;0.9283696;1.6283401;-1.4238837;-2.7724977;-1.1536033;-0.015630098;-0.8596265;0.21147795;-1.2276685;1.5998038;1.7256385;-4.0271225;-0.027795006;-3.9447482;0.065052226;0.038034048;2.51861;-1.7004656;-0.011986837;-1.1223372;-0.021815578;0.02333556;-5.8432455;1.5874509;-0.06654883;-5.083258;0.03542321;-0.049951605;-0.52761805;-0.83018625;-0.04378441;-1.8039908;2.9394374;-0.20189808;-1.0283449;0.02751186;0.4087395;-0.3679946;0.42086765;-2.2578657;-1.1006337;-1.254685;-0.051833495;-0.9437902;-2.4392848;0.9075656;2.2659326;0.5509356;-0.18297954;0.123902574;2.2290385;1.833087;0.031193031;2.0192595;2.3533068;4.392313;0.06573568;-0.027494198;0.35025057
3.3009186;0.5739814;-0.6301519;1.0189013;-0.017929263;4.005347;-2.968043;0.84154797;0.0065321815;0.4050557;-1.3884303e-05;0.025640896;-3.1521404;0.75511944;1.1802754;0.11873589;-1.4276459;-2.4062252;0.51979655;1.3877409;-2.994392;0.30433294;1.3763193;-1.0956671;-0.31836244;-0.065884195;0.009645154;1.358247;0.085580066;3.4989913;-1.6392547;-0.047759525;0.5288101;-0.5751879;0.5379267;3.2871819;-2.9424045;1.5595933;-3.019527;1.6641116;0.02079173;0.016321862;0.16069776;1.0683417;-0.05941217;-0.20535806;0.003058749;0.21303144;-2.3233528;0.9777581;0.4188503;0.74753565;2.0958512;-0.080842614;-0.05463238;-0.0057441914;0.0075380895;0.4366753;0.06286331;-1.6396147;-0.036284223;-1.2153326;-0.053914715;-1.229488;2.5837994;-2.9798007;0.58122;0.17466639;0.38089103;-0.021998268;3.4683723;-0.023356693;-0.020269128;0.061835334;2.2119002;0.26492417;-0.011511041;-0.1553976;2.0329332;0.024321973;0.0058160597;-1.2437519;-4.034092;-1.8833605;-0.019879555;0.62831277;0.948659;-0.010042659;0.02810466;-0.0027083831;-0.0012917615;0.4252388;1.0705998;-1.230752;-1.4917526;-2.4383817;-2.4829388;2.0273354;0.52205116;-0.6822614;0.012021435;0.17771068;2.152725;-0.034240354;-1.6895149;3.0875807;0.2547674;-2.4541104;-4.898509;0.008775537;1.257337;-0.11688858;0.06798771;-3.1884325;-1.3801074;-1.3025433;-0.021991577;3.7169597;-0.003107457;2.5929093;-2.8375587;-0.024727324;2.612918;-0.017804893;-0.01178334;0.0026641416;4.41653;0.21454255;0.07982432;0.7351965;-1.7344532;-1.5132049;1.4888877;-1.5332564;0.007886272;1.2889618;0.51350516;-1.3161517;-0.04072745;-0.030143661;-3.9394813;-0.08121597;-1.8099601;2.6172414;-0.017582718;-4.53455;-1.3506837;0.0060021034;3.12175;-3.2354882;-0.019137034;-4.1893225;0.036250815;-1.1431531;-0.04641495;-0.038516704;0.039606955;1.5058837;-3.0196605;5.234403;6.35384;-0.013403231;0.17067708;-0.027477583;-0.06695533;1.2248971;0.51208115;1.3481352e-05;1.5793837;0.46930844;5.088814;-0.041470617;0.0019079404;0.9999474;-4.384244;-0.23991033;0.030152693;-0.056224354;-0.1638632;0.0708111;-0.025615623;0.6678136;-4.398668;1.3713607;0.24162811;4.08319;-3.4130394;0.44055426;-0.10057428;-0.0074936724;-0.2846673;0.03561257;-1.1163807;0.026357634;0.07755763;2.5074987;-2.8995583;-5.578471;0.4200713;0.027805623;2.0474112;-1.1666789;0.8429514;0.0010233265;1.3556087;0.82295;-0.7051608;-0.052137975;-2.5546134;-3.3995454;0.47540903;1.8190217;-0.016051548;-0.005052312;-0.27963224;-0.018753022;-0.46817008;0.81809556;-3.0312483;1.4698937;3.9124725;1.0402553;0.9835512;0.039763622;-1.6624017;0.013966063;0.038697783;-0.95736396;0.04394449;-3.081589;-2.7616363;0.030601766;0.06053011;-1.7208033;-0.65445167;-3.1831925;2.1183822;0.021617413;-1.4940608;-2.3893936;0.2164858;-0.039895188;0.039785523;1.1081227;1.898729;-12.873164;0.016851922;2.316665;-0.3858858;-1.2178965;0.01749669;-2.9345248;2.0920713;0.4969846;-2.5709023;0.41217723;-3.8176198;0.0030412527;-0.5864797;-0.48562136;0.065459125;-0.0062609683;-1.486186;-0.4803642;0.7040225;1.8094472;-5.3016167;1.6606882;-0.4008284;-0.7504573;4.082389;0.558949;-0.05904085;-0.06631196;0.72882587;-0.02686692;-0.043737616;0.72965646;-0.89113903;-3.6076474;-1.8502351;1.0886471;1.9044427;-0.039775424;3.9358323;-0.3868997;-1.1625186;1.0885514;2.0189364;-0.42280635;-0.013555553;1.8577876;-1.3352842;-2.4058113;1.2433237;-3.669064;2.3249032;0.05642868;-0.34719625;-0.07607934;3.4236927;0.0011095217;0.006897585;0.43915498;-0.037394866;-9.486075;0.039041683;-0.71392536;0.016880775;-2.1613762;0.059355043;1.7163664;3.827347;2.5101752;0.31283355;-1.0221081;0.30202398;-0.09258385;-2.8005667;-0.88458717;-0.0672918;2.8849778;-0.88075244;-0.041360125;-0.10941791;-1.0118233;-0.028974505;0.02213492;0.01701929;-1.6564955;0.0034725147;0.6578731;-2.5702472;0.0016159313;-0.18486573;-0.022922382;-2.2516894;-0.008727768;-6.12016;-0.023695119;-0.83179086;0.0696789;0.6177182;0.90561664;-4.3615055;1.7836221;0.034739155;-0.0445209;-0.033627316;-0.76065874;0.020919617;0.7371294;-3.819344;2.2231107;0.007792171;1.5507654;-0.1892272;-0.61236525;5.727922;-0.39928302;0.22913612;-0.71977365;-0.046910115;0.42358935;3.451057;1.3290653;-3.6213963;1.2938255;-10.584273;-1.1990321;3.0535407;0.277221;0.6148166;0.051649522;2.2681365;3.0773158;1.9347426;0.5364293;-0.057258558;-0.88646954;-0.061053365;0.019026995;-0.06659285;-0.8740398;0.024943843;-0.1374789;-0.014660301;-1.1294459;-1.9565065;3.181903;-0.10021975;0.0103299655;-3.0326948;-2.5955443;0.0189148;-0.94619894;0.053855862;0.7712302;0.031255726;-2.6389534;-0.06922269;3.4807007;-0.5602834;-0.19992034;-4.4782104;0.51386166;3.2195718;-4.045874;4.4970417;2.1325846;-1.7495867;2.5599763;-0.07980044;1.4899511;0.0011043937;0.81635475;-0.017464677;-0.572917;0.0794767;-4.0721426;-0.013344846;-1.9154731;2.4132445;0.99423534;-0.042205356;2.2776582;-1.1827556;0.036990095;-6.1762815;-0.44492;0.027206425;-0.794181;0.49221438;-13.884654;0.0021274579;-1.8901235;0.35693756;-0.09853146;-0.3488279;0.015919227;0.37427816;2.7303638;2.3655498;-0.045538664;-0.26368988;-3.5931227;-2.224818;0.8439905;0.3962398;2.0273066;1.6637735;-0.66005206;0.93570757;-0.011284658;-2.6146054;-0.0035036593;1.2862872;-3.187775;1.1009369;-2.7063763;0.13439684;-0.31784195;-1.9730959;1.5261544;-0.46736512;0.26685247;0.7569544;-3.6103818;2.750224;0.80401266;-0.03181688;3.0957878;-0.0014523064;-0.19743527;-0.4089927;-0.014230633;-0.03574471;0.004518751;-2.775358;-0.016222298;-1.9734789;0.2788521;1.5513585;-3.8928444;0.007556104;-0.07756487;0.8395512;-3.3215938;-0.073415644;-1.552994;-0.033721626;0.23659004;-0.9636996;-0.07620254;-0.31575537;3.5649855;0.65413415;-0.048646025;-5.87809;-2.3033557;-0.0033489799;-2.8240912;-0.43447924;0.013520374;2.2964153;0.013781951;-0.047359735;0.16923302;0.014021847;0.24285565;-6.4838667;-1.3155789;0.02925591;2.5571783;0.013211166;1.0015447;-0.08555844;3.6000412;2.9481108;-1.1119692;-5.947898;-0.9810566;-0.0058716764;1.8497131;-0.6595501;0.4514047;3.189202;0.057643693;0.659379;0.039708517;-2.3216527;0.028875962;0.02304173;1.8777952;-2.6959426;-0.007574348;-2.3292127;0.067448266;0.014652797;-4.373028;0.054247487;-0.05738946;-4.0526056;-0.068461604;-0.022370059;0.95653087;-0.1911171;0.003769264;-0.03824335;1.7677498;-0.4694542;-0.6206209;0.045876957;-1.5845352;-5.398953;-1.6918659;-1.6901796;1.0041391;0.64450926;0.047430232;0.84535426;-1.7493619;0.87333953;-0.5504208;4.115154;1.0859828;-0.03947397;2.2659802;0.51188713;0.021835543;0.84544724;0.7721288;0.69255626;-0.022674365;-0.028445417;2.4566686
2.03205;0.33333725;-2.327766;1.0315762;-0.027402148;1.6737022;-1.6276463;-0.35313052;-0.028616915;1.1062576;-0.054794375;1.2641647;2.1841588;1.0398524;-0.49030176;0.4084373;-0.4108228;-0.93104434;0.77497643;-0.8929342;-4.4090595;-0.12201779;-0.52688384;0.759718;0.18294992;0.034673437;-0.013086986;1.2814456;-0.19976966;2.427755;0.67995906;0.040452283;-2.1136813;-0.5784236;0.28529295;0.855332;0.29409763;1.650074;-3.6370592;1.578772;-0.031967565;0.03148276;-3.146676;-0.30173266;0.009917589;0.8056085;0.0228861;0.18863107;-1.0781687;-0.16634388;0.5432093;3.6781292;-10.161573;0.00303352;-0.03098073;0.37679705;0.026141824;-0.18515809;0.6477587;-2.491736;-0.009886332;-1.2278645;-0.014233222;-2.0063438;-2.0504155;-3.6039093;-0.33385572;2.1000962;0.8355524;0.017061945;2.0847244;-0.052114;0.020772375;1.9244287;2.6079159;-0.86117077;-0.036469888;0.74025434;2.008193;0.005068397;0.004307525;-0.58003753;-0.22716844;-2.979386;-0.02450737;-1.0397105;-0.06346147;-0.018140314;-0.017707447;0.057039622;-0.031766985;-0.052181758;-0.26451248;1.8594421;-0.042654164;-1.2777488;-2.4732356;-0.7382878;1.8488652;-1.1046077;-0.063769296;2.9726675;2.5099301;0.029404595;-2.666195;2.4385917;-0.116186954;0.37596017;-8.932481;0.016047401;3.5582516;-3.55391;-0.1338301;-5.772213;-0.7625729;0.5666351;-0.19432686;3.6321192;0.021320209;0.10869892;-2.643948;-0.04398145;-0.46437538;-0.010837764;-0.024293782;0.038590122;2.5140853;-4.0694437;-0.006385895;-1.3875849;-0.43387038;-5.435288;0.50972134;-2.3482442;-0.04989989;-1.0440344;0.112849236;-4.3709493;0.004240905;-0.0001414958;1.2772542;3.0946684;-0.72331965;2.9674976;-0.063885756;-0.14758678;1.1542759;-0.032758284;2.9061036;0.26447657;-0.03967624;-2.8913603;0.015894735;-1.5210967;-0.06295754;-0.08150144;-0.07905727;0.41812965;-0.22283025;0.1359187;5.041112;0.0545149;1.062356;-0.0038533537;-0.043732516;0.573263;2.6317;-0.05667665;1.5949377;1.2937009;3.7288897;-0.0796936;-0.035288416;-1.6823223;-4.0622087;1.8753175;-0.023295142;0.012751561;-4.6105804;0.041546453;0.05923639;0.4584208;-2.6853101;-0.1379406;1.3161848;2.6877494;-0.55394274;0.3902113;1.3839483;0.017147852;-0.152962;-0.065240294;1.4728498;-0.05863932;-7.095174e-05;2.796411;0.27441135;-4.1886654;-1.8414801;0.022661421;4.8258204;-1.1945237;-0.29978395;-0.1044619;2.360562;-0.16878933;-0.6847525;0.02265387;-3.8681047;-4.628813;-0.065301865;-0.23265484;0.015168581;0.0224371;-0.74662393;-0.011792018;0.5909094;0.29649875;-3.7882428;2.2234166;-0.34603012;1.4155586;-0.5189914;-0.020868404;1.8652675;-0.043101463;-0.044712048;-4.6576924;-0.052778937;-4.448979;-2.6457605;-0.020768909;-1.1787336;-0.92685175;2.7565036;-1.2602367;0.3785836;-0.018947199;-0.33888945;0.9284037;0.26288062;0.030349247;-0.016235681;2.9434934;2.914588;-14.359293;-0.015889646;0.97003394;-0.6975391;1.8027389;-0.007006908;-5.3532434;1.4557514;0.8161741;-1.056941;0.5296629;2.0231729;-0.025609778;0.6387124;1.1349552;0.00538095;-0.016125683;-0.51382154;-1.4074593;-2.3767202;2.8509002;-1.743683;0.57601863;0.13455516;-2.5127664;1.3891037;-1.8468342;-0.053780373;-1.1829497;2.3784177;-0.013634994;-0.022644965;2.4201376;-3.6721377;-3.6001315;-0.2002519;-0.8634921;5.2630024;2.2903087;1.9534606;0.7378477;-1.2381943;1.0804117;1.4690613;1.1076198;-0.011331771;2.5602787;-0.4807138;-0.9654375;1.73853;-2.3304336;1.9678124;-0.13192591;0.22896133;0.00057722663;1.8724077;-0.058557875;0.010831957;0.07765725;0.011326809;-10.77391;-0.010679091;-0.01607106;-0.012700453;-0.18382119;-0.06292665;-0.7615671;3.5057802;0.7542679;-1.9112045;1.1109666;-1.6449258;-0.11475744;-1.5160863;1.5333754;-3.314789;2.1720214;-6.065194;0.013054953;-0.1365806;-2.9773898;-0.4455126;-0.01117088;0.025901081;-1.4094297;-0.016455907;-0.1912941;-1.777378;2.4388077;0.3296585;0.048096903;1.65199;0.03210657;0.8575001;-0.05767204;2.0342681;-0.06891329;-0.026963541;3.5452747;-2.3636112;1.2031084;-0.03638296;0.15765826;0.018751146;1.6118435;0.01698941;-0.19202071;-3.0566113;-0.4927652;0.02673353;2.3213148;-0.93201214;-2.1299376;4.6105933;-0.68945825;0.061122585;-0.72924906;-0.02150333;3.1970372;1.1212819;2.2220044;-0.88253546;-0.8718911;-11.544219;-2.1066022;-1.2709897;2.4964602;3.034026;-0.05673692;0.14474484;2.4795125;2.6932588;0.4624439;-0.051861588;1.1680869;0.023970092;0.01746466;-0.053518172;-2.581064;0.018729238;1.2975316;-0.029318979;-4.6949315;-2.8333974;-0.14944297;-0.66124266;-2.6740415;-3.202989;-2.537003;-0.036023952;-1.5652122;-0.02888138;-1.4113473;-0.028367963;-0.74653274;-0.027706942;3.1595488;1.1138998;1.8106015;-6.9078155;-1.2843375;0.2589928;-3.0812707;1.84964;1.9662125;-1.1931612;-1.6665798;0.019071285;-1.6709435;-0.016104102;-1.5484387;0.027302692;0.52675897;-0.0078578815;-4.7372165;-0.0023051372;-2.2713838;2.099063;2.9228363;0.053651005;2.146977;1.376214;-0.0313354;-8.517246;-0.33561194;0.0015141632;0.88798636;-0.16415386;-14.756453;-0.015632508;-1.5142378;1.8665469;-1.8545349;-1.7123777;-0.037430722;-0.343872;1.487423;-0.49595544;0.01270232;0.5758498;0.12139034;1.1688744;0.64061415;0.9183002;-2.2515965;-1.3200905;1.8251575;-0.10738048;0.027480856;-1.8549551;-0.05955046;0.7893086;-1.2405434;0.94424444;-1.2744082;0.72825164;0.43996176;-4.8946767;-5.3655214;-0.31945267;0.42849192;2.547468;0.017020345;4.82702;1.7880512;-0.44204342;2.4226377;-0.05114319;-2.977919;-0.08371985;-0.038572177;-0.04342943;-0.0030078022;-0.674538;-0.008454846;-4.6409016;2.3743503;-2.2821212;-1.3763801;-0.011505858;-0.071459;-0.5147637;-0.8247434;-0.933387;-1.202981;-0.035499044;-0.37482014;-1.8195761;0.06887255;-5.1088386;1.75981;-6.416987;-0.0038731792;-1.9013655;-1.1494836;0.00094719906;-3.556374;-2.8906388;-0.017712956;6.176591;-0.04614344;0.24799097;0.09444592;-0.025877371;-0.0223369;-5.4028196;-4.113459;-0.038432114;-0.7914722;-0.021210598;1.2404501;-0.030552983;-1.2830087;1.456806;1.2076049;-7.4307294;1.639023;-0.059720132;-0.0059552444;1.44521;-1.6765207;-0.30409023;1.4266995;-1.0496274;0.008713933;-1.3743746;-0.014732644;-0.062138293;2.3331108;0.07331083;0.028681098;1.1499906;0.012896053;0.031300433;-3.009431;-0.4079369;-0.08457762;0.85075635;-0.008484633;-0.044085853;-1.3339881;1.6865543;-0.03811166;1.5122241;-2.5224965;0.22278985;-1.0185045;-0.060249675;-0.62236285;-1.0355911;-0.1032527;-1.5769423;2.7932208;-1.6751468;0.04156814;-0.32707468;-3.1442926;-3.1903186;1.0078906;-0.20659666;0.37462956;0.0041809804;-0.28078142;-1.2128294;-0.061962955;1.888873;0.58074915;0.53011984;0.008138168;-0.028964318;-0.57963735
-0.3287553;0.6636973;0.6767128;0.5973997;-0.006266501;0.32499164;-1.6394992;0.73013294;0.067614324;0.4476547;0.007450728;-1.251542;1.3702245;-1.1865581;0.56568277;0.4582109;-1.0591387;0.46647972;-0.47238472;1.1021733;-1.8979169;-0.012062219;-1.0578911;0.23404585;-0.09686936;-0.021018965;-0.004508808;0.54939485;1.3936528;1.2005725;-0.3600188;0.011738106;-1.3613131;0.65163636;-2.9879084;-1.6786072;3.5448866;2.1791456;-0.7036293;0.7380819;0.052947737;0.18291625;-7.948664;0.06603152;0.033148713;-1.1568009;0.03713615;-1.3454514;5.2653985;-0.07628825;-0.14838152;3.7433038;-6.877662;0.034398045;-0.06656113;4.2256713;0.026842788;0.673797;-0.075465254;-2.5776155;0.012606282;-1.2244511;-0.03157799;-2.2860785;0.95271724;0.57405233;0.3757865;2.3853374;2.852881;-0.084095426;-0.60221314;0.045992803;-0.05003572;-1.6869193;0.8313332;0.7088469;0.045066647;-1.2974372;1.4980532;0.0012385455;0.036456864;0.916852;2.3414066;0.68371224;-0.019834282;0.49850437;1.9417999;-0.03537109;0.0019283498;0.014294044;0.006145533;0.13426304;0.485253;1.2887454;1.1801443;1.0309218;-0.77703524;2.299025;1.5586739;-0.35833025;-0.0037367095;-0.87853307;1.1758053;0.004770438;0.27615827;1.1003749;0.07027123;-2.6190493;-9.871546;0.0013938572;3.0310037;-4.49409;0.1793903;-7.1135454;-0.9597693;-0.38441762;-1.3002161;3.0049505;0.08250398;1.0173621;-2.7031236;0.03711674;-0.7978154;0.044831745;0.03970253;0.003305338;0.05305853;-1.3229698;-0.013640375;-2.602288;0.5819534;-1.3207152;2.7615952;-0.9730528;0.013516343;-3.5586576;-0.7512547;-4.776762;-0.04402547;0.0018111599;-4.531512;3.093698;-2.831524;0.90964526;-0.04917892;-1.2874602;1.9118818;0.013311736;-0.189284;0.033389524;0.66992223;-0.9948204;0.29518992;-2.928308;0.023743771;-0.0078673065;0.028840644;2.7051313;0.44248885;-3.0431886;3.6321857;0.006511318;0.72317535;0.033852287;-0.03405631;1.1191539;-2.3110723;0.012622059;3.3243933;-4.2048764;3.9273472;0.06803666;0.056952726;-3.7699862;-2.1437633;1.6105099;0.24591511;-0.045628697;-2.451614;0.008388693;0.0073687993;0.535798;0.23576403;0.34906262;-5.0530696;-0.92435193;-1.7452657;-0.14248325;-0.9626292;0.022954041;0.20688158;0.02019264;3.6686032;0.09667759;0.07609078;1.2012495;0.78435856;-4.790654;-0.22071443;-0.022954866;4.36251;-0.010533551;-3.235473;0.17344946;-0.07774008;-0.068777226;-0.3960657;-0.018184517;-4.819378;-2.4831316;0.16848566;0.43683597;-0.04471789;0.013134106;-1.0140893;0.019836158;-1.2021004;0.082481444;-1.3395935;3.4322255;2.3484075;-0.79917353;-2.9331706;0.004770448;-2.1033936;-0.0029638489;-0.04371839;-4.882483;0.071270086;-4.8544626;-2.7394729;-0.0039422223;0.6977947;-1.2824202;0.4518645;-2.1904263;-1.4734432;0.008851573;-1.1798823;-0.28109;-0.33435482;0.053169444;0.046802167;-2.175078;0.35579002;-12.374945;0.019093083;-0.3174459;-2.8240867;-0.25568366;0.009534653;-1.3928356;-1.524806;0.7129313;-2.6361105;0.24128237;0.1867306;-0.002559605;0.31726277;1.6476365;-0.026132861;0.0028174967;-5.1058345;-1.6270105;-1.3628027;0.7582213;-0.32478374;1.3932545;1.9527537;-2.5262349;1.5510788;1.5206362;-0.015076094;-0.28421208;3.2351701;0.019909387;0.018947357;-0.56087077;-2.16894;-1.2089139;-1.5159063;-4.281301;4.7188964;0.9574902;1.8984381;-0.6988301;0.0052388483;1.1656638;1.0114368;0.12760115;-0.007667386;1.5988142;3.215429;-0.421839;1.9563215;1.7355286;2.1739113;-0.028219597;-1.1813712;-0.011422726;3.2272086;-0.008274941;0.024834273;1.0354106;-0.058325827;-9.028219;-0.012391821;0.16811542;0.086147554;-1.097528;0.028216511;0.38085318;-0.95000595;1.9347403;-4.300249;-0.6939544;-0.9913852;0.41923246;-0.054315172;-3.4189293;0.50331676;2.9568787;-2.5285814;-0.05682328;-0.94049245;-1.9437282;0.027944665;-0.04047472;-0.04218378;1.4785331;0.030130051;-3.9170854;-3.9577203;0.16884258;1.3233683;-0.0460199;0.5930025;0.0250414;-1.4857523;-0.053808082;-0.804414;0.02986056;-0.4934201;0.93418324;-3.6958263;1.5743269;-0.026289003;0.5783249;-0.0009188382;0.28680348;-0.0069901985;0.6807505;-0.33095044;1.2434452;-0.0009970426;-0.076832026;0.021020906;-0.7490948;1.8748488;-0.27409303;-0.005982738;-2.8120384;-0.004318676;1.0854264;0.73717725;1.7976623;-0.3960973;0.85844254;-8.543319;-1.4283623;2.0036974;2.8478627;-1.6919479;0.03177973;0.08598911;2.814079;1.949843;0.19951414;0.052117962;-3.558652;0.036624935;-0.0038152905;-0.065607786;-5.0880675;-0.007842628;-1.1957374;0.047004912;-1.2609743;-1.4685695;-2.8941424;-0.42802942;-1.3283571;-5.9915204;-2.4864478;0.017909054;1.3907225;0.020672156;3.3318243;-0.011424429;-2.3517756;-0.04313425;1.9824927;-0.4374705;-0.25086406;-5.6208515;1.7443208;0.26836336;0.2653981;2.1852865;2.851184;0.27175832;-1.967153;0.03225843;-1.5137161;-0.05550567;1.1841185;0.012378268;-3.2568858;-0.012532002;-1.9307221;-0.01927136;-2.4410706;2.3937113;0.22726458;-6.0891507e-05;2.1012406;0.34297222;-0.02231608;-6.6749973;-0.8732111;-0.0072241053;-3.0090535;0.055666283;-14.173819;0.029359678;-0.023305392;2.9303994;-2.8220818;-3.5091894;-0.016546156;-1.715679;0.9848062;-1.954404;0.014952591;0.3659123;0.16080718;-1.7045311;1.2847127;0.09325609;-1.3510995;2.4522686;2.5793097;-2.6174157;0.010111209;-0.82726324;0.04290234;-0.08494183;0.1385075;1.1800629;-1.4290087;-1.7241611;0.11500285;-3.2381034;-0.44847712;-1.7368795;-1.9934385;3.549682;-4.132389;3.5420961;-0.9415314;-0.038113203;1.6800029;-0.00921716;1.8694911;0.6819901;0.047880057;0.012172334;0.013674386;-1.5144492;0.0096872235;-0.78630805;2.1606529;-4.4092045;-5.9219365;-0.018031282;0.016340245;0.49644956;-4.2487936;0.4661257;-4.4831038;0.046280373;0.032052424;-0.14261621;0.25203088;-4.1190567;-0.9898459;-3.1617062;0.014625219;-0.11578719;-0.55417156;0.01137216;-5.6796017;-0.06161119;-0.019301334;1.8652836;-0.017781502;-2.1088119;0.056996875;-0.00078719045;-0.053270638;-6.1689525;-5.6512194;0.03543921;-0.579965;0.050695635;0.16589953;0.045925584;0.98751056;3.1470227;3.9445426;-7.9761205;1.349404;0.017895795;-0.79477495;-0.9034591;-0.15201275;0.13173188;2.5229192;-2.3875914;0.04400457;1.3268981;0.00984708;-0.04057097;1.3574654;2.5449004;0.0013703712;1.8041425;-0.040787216;0.0031856848;-5.015418;0.50462353;0.086951554;-0.57915694;0.009518049;-0.01688918;-2.5439517;0.72133636;-0.023854999;1.7073973;-2.4139345;0.07720938;0.36892307;-0.03174162;-0.58440804;-3.0915432;0.516054;-0.40730387;1.3021916;-0.15370715;-0.005930901;-0.75617063;-1.3866738;0.5288152;3.1698675;-3.9101892;-0.29011297;0.05438154;-3.2628298;1.0165379;0.044470254;-0.082180746;1.1438388;0.49620068;0.0365931;0.07875228;1.8078101
0.051962722;2.1744757;-1.1452208;-0.7099936;0.050109193;0.34669694;-3.168997;0.41437218;-0.01561014;-1.5170879;-0.017007258;0.49620032;-1.0009294;-2.377433;-1.2644296;-0.9201016;1.1427724;1.0608203;-0.32730395;2.1788206;-1.9343315;-0.009119878;2.8599956;-1.1207281;0.19042091;0.014623443;-0.019111795;0.7415172;-0.26820812;-0.28784397;-1.524941;-0.008629294;-2.7448874;1.363708;0.08868964;0.031710908;-0.7289024;3.2077308;0.32727188;0.6382602;-0.010629097;-0.04952446;-6.1781216;-2.290444;0.020367084;-0.5690077;-0.0040105456;2.8333402;2.926039;-0.03629165;-0.11226833;0.83833635;-7.73721;0.06222127;0.039415017;2.7068098;-0.02723338;-0.23792571;0.091702156;-4.436895;-0.013827682;-1.588101;-0.0053997603;-4.4047794;0.9097679;0.5111;0.03021786;3.9813592;1.4833289;0.00870893;0.6126683;0.002445353;-0.013057125;-1.3375585;2.714168;-1.4065292;-0.023335403;-0.60753566;4.582079;-0.012327423;-0.0063485503;-4.09279;-1.6930208;0.026082655;-0.008066174;-1.099063;2.1608818;0.19816414;0.065973975;0.031017512;-0.124627694;1.4587578;-0.437283;-3.6032526;-0.5160704;-0.43747428;-1.7754273;-1.9358268;0.56922925;4.1325765;0.0021287133;-0.47922876;-0.9687433;-0.06070726;0.47323826;3.4336417;0.054136544;0.22320901;-9.304252;-0.02859337;1.8895712;1.3234073;-0.30792746;-1.7070891;1.0448462;0.20126908;-1.1231238;1.3136861;-0.04779868;2.8718886;-2.7353086;0.027269004;-0.5504092;-0.063626505;0.020230062;-0.0143155195;1.2333504;-2.267309;0.013971945;-2.2738998;-3.7345026;-0.22797555;-1.095574;2.9743264;-0.0012862434;-1.4711438;-0.54663324;0.06596399;0.06622459;-0.004739404;-0.7936595;0.21021923;0.2891133;-2.0225472;-0.07388524;-1.2790414;3.0987916;-0.012774907;1.5372059;0.3822136;-0.21140194;0.34517258;-0.05319272;-1.1689559;0.0025361278;-0.03413778;-0.036759682;1.5226867;-1.1490096;-5.0240264;1.7538849;-0.005353025;-0.6252307;-0.021562528;0.24787651;-0.43110308;1.4469383;-0.00092643255;-1.1746188;-1.30788;1.5128974;-0.012601242;-0.044742722;0.5687829;-2.0474792;-0.28452948;0.008790075;0.006361596;0.16460714;-0.007962615;-0.0053934744;3.3817222;-2.6440442;1.4188471;-2.9593303;-3.8862464;0.17116746;0.99795145;-0.55210596;-0.0011396095;0.08902389;-0.053796615;-0.22541453;0.031585734;-0.09932409;2.5711062;-0.56258804;-2.0993788;-0.48422697;-0.03958771;2.5263388;-0.31202194;1.3150469;-0.09373235;0.4942219;0.038215045;-0.35296994;0.024304427;-1.9386195;-3.8635507;-0.13344477;0.3586439;-0.018907642;0.062700875;-0.4108011;0.0015080562;1.3134133;1.5613874;-0.5586417;1.6570486;1.5479586;0.18387099;-1.6430311;0.015795492;-2.4903142;-0.00065818307;0.04059405;-3.1157546;-0.08532274;-4.798051;-2.8372204;0.043276507;2.4216373;-4.4910855;0.2613644;-0.06490882;1.2628884;-0.055229772;-0.2840275;-1.5487378;1.7984258;-0.028975487;0.0417211;2.215803;1.9219309;-13.682704;-0.02965618;-0.33146557;-2.984912;-0.49254063;-0.00037585114;-2.2993817;0.36650318;0.24766105;1.199168;0.7680872;-0.59268695;-0.00052425644;0.6063106;-0.34748474;0.017195182;-0.024230143;2.0472047;-1.8345207;0.83362776;1.8034177;2.4775627;2.8187819;-0.23800866;-5.688357;2.01091;-2.875817;0.4955831;0.88086885;1.6257194;-0.02268961;-0.009120322;0.23180814;0.60356355;-2.6999388;2.0432687;0.7179701;1.4051901;0.88040113;-0.35568058;2.978228;-0.24218348;1.2241787;0.9665093;-1.7403351;-0.01283969;-0.17736386;1.625291;-1.4400756;-0.17685646;0.8932221;2.1434264;-0.10136006;1.6991117;0.0029593385;6.142337;0.033430044;0.01186451;2.9001322;0.003388458;-9.575249;0.05354053;0.14592223;0.05205396;-1.5038693;0.01074254;2.6190398;-2.6021922;1.0380518;-0.86190635;0.79017043;-0.5884217;0.110469975;-1.8276603;1.0304589;0.6146628;1.1566671;-1.2351184;0.0057127797;0.5612908;-2.0889227;0.04533465;0.012130066;0.002249885;-0.6779787;0.044852763;3.2845151;-1.5857527;0.62274116;-0.7540322;0.08423081;0.76831627;-0.012454912;-0.45770195;-0.035012912;1.2536259;0.019957982;-3.1277673;2.3698657;-5.3570137;3.3346376;0.009358786;-0.09653896;0.010958598;0.14347716;0.024346808;0.9759759;-3.470162;-0.1538507;-0.010978965;-0.4139274;0.14346835;-2.7882407;-0.3347269;-0.29906246;-0.13386622;-5.5434546;0.4163746;2.803004;3.0252836;0.96706086;2.0967705;0.92266786;-11.298744;-0.8240125;1.5878634;1.4186274;-0.6183946;0.0015204435;1.2748363;2.6025198;-0.04500177;1.7965784;0.09853615;-1.5665954;-0.023680165;-0.039767876;-0.1425443;-5.5023623;0.01789854;0.8312862;-0.01610329;0.46687144;-1.075614;-4.9532638;-0.093883716;-1.0625274;-2.350319;-1.8855788;-0.032481514;0.44588447;-0.031622108;-4.799701;-0.024664981;-2.2454095;0.0323837;-1.4324408;3.5884871;1.1269803;-3.9808414;0.8691083;-0.7375655;1.7682878;0.8381977;1.9125404;-6.1835246;2.0379548;0.00426697;1.1646334;0.024699394;1.2473447;0.013743571;-0.6722796;0.014604844;1.3662815;-0.022013187;-0.9009782;2.3146086;-1.9252331;0.017662654;2.173913;-1.5855927;-0.0021086738;-3.8198285;-0.46586832;-0.021338616;0.21872494;-0.10243847;-15.482041;-0.0141468635;-0.29626647;2.0970757;-5.441987;-2.351205;-0.015273851;-0.47684795;-0.27408913;-1.9184394;-0.020820731;0.86860746;0.02654568;-1.0464057;2.3670042;-1.3746495;-2.072525;1.2582891;-0.2211552;1.3525282;0.010544062;-0.9065906;-0.02923378;-2.9307907;1.0273862;0.967328;-0.087714545;-1.3503269;0.07516697;0.5444578;2.2650967;-0.19241688;0.17246649;5.9002743;-4.9047704;1.4192908;-0.2706348;-0.22481324;0.033828937;-0.035979252;0.9618045;-2.0181844;-0.02623201;0.08527823;-0.08734726;-0.7414757;0.023050139;1.8509854;-1.2976695;-2.9548259;-4.59612;0.013377593;0.014182409;0.6031722;-1.7202934;0.6463544;-5.563864;-0.0073600863;0.90263474;0.16627564;0.35675195;-2.1013987;0.12162772;0.92252487;-0.04301399;-2.7197642;-2.470502;-0.024384938;-4.2608767;-0.797449;-0.01880831;-1.0276349;0.055092897;0.6851772;0.12730236;-0.0027666644;-0.014452659;-4.2390494;-0.034427043;0.028654;-0.85046655;-0.00026098394;0.28374144;-0.011305084;2.444119;1.1534584;2.3024843;-5.1867204;0.5366921;-0.03474499;-0.9535384;0.3822;-2.0310533;0.31627616;3.3230016;-2.880935;-0.007823284;-0.87755704;-0.012028136;-0.091562554;0.53670937;3.0637367;-0.013189063;-4.5626893;-0.018917808;-0.014069579;-4.315688;1.2491003;-0.09605753;-0.40679926;-0.039954267;0.043861963;-8.429022;-1.2706178;-0.011336934;1.4558227;0.68693614;0.089496285;0.44380194;-0.076256305;-0.95518064;-0.68086475;-0.23103549;-1.8110917;0.6607961;0.15933517;0.04191291;-3.182425;-2.7583895;-3.392577;-1.8239044;-3.1770735;1.1434538;-0.008773369;-1.1266974;-0.72248197;0.04377696;-0.5367665;0.53009653;0.9021387;0.02505488;0.022855194;-0.5921162
0.083101206;-0.68686277;0.35818404;-1.214845;0.01835061;-0.18007211;-1.7657188;-0.7042211;-0.03235015;-2.3167784;-0.0028269726;1.5687056;-3.3903754;-5.8122964;0.2005835;0.23944335;1.072365;3.173155;1.0123101;1.4529454;-2.2470222;0.00237144;2.266206;1.1144388;1.5828948;0.051103517;0.013965016;1.0130229;1.2092593;-1.3369759;0.19313657;0.0009372086;-1.1264628;-0.688056;-0.37296426;4.0309196;-1.281313;-2.9797983;1.4088606;0.22761893;0.016871275;0.03158955;-2.2866414;-0.98872465;0.007864073;0.7157887;0.03591279;2.801117;1.3702214;-0.004510743;0.013142582;-0.42937648;-5.938238;0.036658082;-0.031345453;1.8720485;-0.022846162;0.6089784;1.2326807;-3.1128085;0.017133376;-0.3018486;0.06877326;-3.9607086;2.0034742;1.5125115;-0.14807634;0.9794304;3.9918616;0.056177516;5.1372776;-0.01924429;-0.06339138;-1.102558;4.190327;-2.0796444;-0.026512723;-1.3212504;4.457562;0.005839991;0.032607984;-3.1222177;-1.6929951;-0.028611679;-0.0061328257;1.0161017;0.33742046;-0.04524737;0.013115416;-0.0012633839;0.90389884;3.4132073;1.0438634;-6.656047;-1.1135086;-1.9684013;0.33354983;-0.17370245;-1.1406933;1.2728734;0.036108132;-0.11534476;3.026644;0.07078348;-1.6488395;1.1213663;-0.021614606;1.5708101;-9.337576;0.029645285;-0.3342566;1.8663751;-0.64573306;-3.5877984;0.88802314;-1.8811312;-0.8272606;2.115825;0.0069332267;0.8654053;-2.7708309;0.08965711;2.427193;0.013184659;-0.018753337;0.018558323;0.06592147;-1.503892;0.04986434;-0.2050075;-3.4101627;-1.6286417;1.0160807;1.2688127;0.057371482;-0.84672457;1.1834036;0.7310105;-0.036766168;0.02071196;-2.1183383;-1.1233482;-2.830126;0.34588623;-0.029922234;-0.4737132;3.9195178;0.08812992;-1.0668778;0.5633776;0.01177954;0.869289;0.0963317;-2.8658097;0.044753328;0.034301378;0.026027475;-3.7238874;-0.4704158;-0.77173245;2.7440174;0.07341005;-0.26911303;-0.012233213;-0.117631845;-1.0730753;1.530447;0.038176924;0.4827357;-0.054990996;0.9694447;-0.12091504;0.08610503;0.60827595;2.9440463;-2.7172844;0.013816098;0.009034284;-0.15749589;0.029494582;0.13415073;-0.05328553;-1.6273952;2.2193367;-1.391145;-4.553192;1.1159399;-0.51947296;-3.1208568;0.036267288;-1.1888392;0.017744673;0.93630636;0.038878366;-0.004406638;1.5247626;-1.769894;-1.6723837;3.545361;0.10033082;4.0360413;0.24578789;-2.3444545;0.026218845;-1.3531145;-0.017526688;-3.828487;-0.00923316;-1.7247295;-4.125366;-0.016254948;1.3135153;-0.025360191;-0.00453208;-1.7559036;0.005087618;0.7269352;1.5074011;1.5399739;-0.22824897;1.2401435;-1.3671838;-2.0173287;0.008823217;-3.9925983;0.023946425;0.007703615;-7.930906;0.09877441;-2.567688;-2.889178;-0.0075495956;1.9749265;-7.1275215;-2.6207514;-1.9173148;-0.90814775;0.037799627;0.7529128;2.8425732;2.7097788;-0.0647643;0.016672187;2.6556726;0.4916497;-13.586654;0.013845676;1.4173899;-5.211721;0.3110162;0.09318605;0.7357762;-1.2989879;-0.16960414;0.22980672;0.8583386;0.49503377;-0.015191104;0.6718349;0.2730729;-0.020606743;0.07130969;2.0920327;2.0017023;0.84928715;-0.11365913;3.4995348;1.9424846;2.3549824;1.5379407;1.6598904;-0.12579437;-0.061982404;1.8675556;1.8734698;0.03442276;0.099534504;-0.39276677;1.2695309;-1.7996937;-2.1091104;-1.8808964;-0.9914486;1.4160799;-1.3561553;-0.97494125;-1.787758;0.5184927;0.17648147;-1.0267041;-0.00650664;1.5018742;-1.8779562;0.31161323;-1.1131562;0.6712053;2.0267553;-0.13879453;0.21760024;0.4557654;4.6823673;0.03273992;-0.0077095428;3.737464;-0.019883852;-9.323627;-0.07294596;0.21463335;-0.016752955;0.7080676;0.06560549;1.3643951;-3.7264142;-1.9671472;0.6642539;0.49905226;-2.1967938;-0.05407291;-3.8513265;-0.74872166;1.5487692;2.0742278;-0.9035031;-0.027757125;-0.7913727;-1.0385725;0.11867237;-0.03206009;0.10755559;3.495988;0.016412862;4.8675475;0.9207283;-0.17653894;0.94360435;-0.0003512783;1.3776329;0.03244114;-1.2606934;-0.016541354;0.5376;0.042908937;-1.7594626;1.8743385;-3.2980971;0.054348033;0.09053287;-0.011464361;0.0048067044;0.26942456;-0.028086424;3.4198694;-4.670233;-1.439548;0.0154747935;2.5870948;0.36551332;-4.955952;-0.96225786;0.9711891;0.07687909;-3.823812;-0.07265622;2.658026;0.36533;1.0654052;3.086965;2.0451353;-10.470089;-3.532737;-0.5676944;-1.4365817;0.96793264;0.09344645;0.835026;2.2989728;2.2270143;1.1290263;-0.004622265;-1.0990107;0.07046634;0.052897993;-0.09240415;-5.53751;0.010130234;-0.0024514936;0.031134909;0.9510163;2.1936295;0.121240534;1.7923721;-0.20807481;1.6568224;-2.4712927;-0.052622806;0.37129626;0.027416602;-6.361937;0.2697324;-0.53601134;0.04705227;-1.7880213;3.7810564;0.31801262;-0.8107071;3.4506574;-0.44233075;1.735413;-0.01247354;-1.7048544;-5.397733;2.2392642;0.04766261;1.1339527;0.015061577;3.4286613;0.039616406;-1.7321273;0.08295424;-0.5711333;0.0057497653;0.87453616;2.1266613;0.32982036;0.0361206;1.9233022;-1.0104698;-0.082757175;-6.2684855;2.280606;-0.019219687;-1.6193995;0.018598719;-15.626384;0.022943623;1.1621636;3.7048028;-6.1352067;-3.510125;-0.059395228;1.2917144;0.9126974;0.043162037;-0.015497007;0.67427635;0.45251054;-2.0877485;0.83406687;-0.55260164;0.5923647;0.36373556;1.7087181;0.95733553;-0.0024018688;2.296098;0.026833639;-2.835343;1.9781047;-1.3792131;0.67758447;-0.48376137;-0.055969253;-2.2931993;2.2690735;0.309852;0.8127413;4.973434;-0.7143138;0.44425374;-1.3125054;0.40419742;3.1171207;0.7842752;1.531913;1.7898184;-0.023348821;-0.021959467;-0.009764724;0.3727581;0.0154742915;-1.0490369;-4.8594475;-0.109152645;-1.41726;0.05820992;-0.0066371495;0.996025;-1.3967435;-2.0161614;0.51656127;-0.010524945;0.37433454;2.337723;0.09002889;-1.3347805;0.110451065;-3.1725323;0.23779531;-4.42689;-2.2166836;-0.0045310985;1.6456951;1.0484406;0.012109152;-0.37076798;-0.04164908;-0.60682416;-0.095906734;0.00469094;0.016182553;-3.354915;-3.0660775;0.026339754;0.2243459;0.089385025;0.6847306;0.03952098;0.5678755;0.048312098;1.4645267;-3.4565377;-0.69476414;0.038461633;0.9012031;-0.7377579;-0.49519005;1.5821161;2.1422846;-1.9909289;-0.013395048;0.96716833;0.011467251;0.99910897;1.1179564;0.3297083;0.038884394;-2.8551645;0.053756014;-0.050701197;-6.4716773;1.4466765;-0.029856402;1.2042242;-0.017833421;-0.081257775;-11.504544;1.0986178;0.055665337;3.393772;-0.27854076;-0.044609077;-1.7036563;0.73064595;-3.0436006;0.8610899;-1.3264449;-1.2696468;0.46743667;2.0971751;-0.021880098;-1.2838914;-1.715701;1.1590135;-3.3884716;-3.0059874;-2.7506094;0.024232792;-1.8260938;-2.7395194;0.00025028878;-1.2156667;0.5047513;3.0906456;0.03306569;0.0580478;-0.3161992
0.30296043;-5.386736;0.6087859;-0.9026156;-0.014151228;-2.1006114;1.6388968;-1.1761115;-0.031967055;-0.5906504;-0.00044601783;-0.7648599;-3.9817197;-3.0261807;-1.7060878;0.4077978;1.9721065;1.5549451;1.8622965;1.1702262;-3.9132028;0.040280003;-3.516791;0.34929052;1.7834709;-0.06461172;0.00825658;1.586747;0.11713642;2.5148728;-0.36253875;0.017648371;0.12178627;1.4481544;0.26642957;3.921567;-1.973095;-2.897687;0.48509428;0.92975676;-0.030136814;0.010550804;-3.4944403;-1.3988838;-0.01895573;2.339289;0.088135876;1.4299442;2.865697;-0.02432994;-0.035712626;0.9989993;-4.7520604;-0.042935178;0.04097446;0.12917925;-0.0027386;-1.2034191;-1.2638981;-3.3252294;-0.021350196;1.1111078;-0.039025683;-5.5829;1.6909157;0.9953303;0.10679419;1.4946393;1.0295446;0.03771764;3.136794;-0.008741425;0.6842782;0.2916275;4.209425;-0.7214426;-0.091380596;-3.4079897;3.661291;0.019393174;0.020673648;1.5408883;-1.2872479;-1.7505496;-0.048295245;2.600896;1.3028162;-0.012289568;0.036119148;0.02443289;-0.18740764;-0.5402345;3.6816597;-5.9893036;-0.5068351;-1.7949566;0.018502895;1.4876021;-6.6618824;-2.0444813;0.028699137;0.42669937;0.76665294;0.0132620875;-1.3594198;3.2159603;-0.003215672;1.1818894;-9.138054;0.047188845;1.804377;-1.0595251;0.039951883;1.9932321;-0.10342972;1.1657594;-0.8344393;0.19402336;0.021755427;-0.86044055;-3.3150306;-0.03161526;1.629971;0.0009362164;-0.011010289;-0.0034495927;-0.07945023;3.0131664;-0.032496974;-1.9096649;-3.0411353;3.0484247;-0.95366913;-1.1500245;0.013504416;-1.2939686;1.6832448;3.7106647;0.074905664;0.01161745;-0.6017626;-0.55302835;-1.3135269;-1.8333116;0.75088567;0.26976752;1.2913634;0.008487107;-2.0403378;-2.3549178;-0.0021181896;-1.7989774;-0.05189975;-0.3911546;-0.21113585;0.015548192;-0.036225043;-4.2205944;-2.8092842;-0.979797;3.1508179;-0.012997391;0.7577783;0.021698192;-0.033719797;-2.0304892;0.39858016;-0.003581564;1.6918343;-4.2943935;-0.72793424;-0.05129871;0.02585032;1.0480121;0.03325582;-3.3818393;0.013004887;0.018683683;-2.8819022;0.04589219;-0.05088124;-0.8272256;-0.89429516;-2.6060798;-1.54244;-2.4970868;0.028643133;0.12469818;-4.544229;-0.0135680735;1.6310829;-0.007995104;-3.715062;0.004625993;0.006619015;1.6068015;-2.9556491;0.7801904;1.2262639;-0.014531426;1.9355166;-1.3250527;0.4828996;0.018992836;-4.4807754;-0.013901866;-1.4139403;-0.023497013;-8.137419;-2.716184;0.12311351;1.4373261;-0.0010481621;-0.013398438;-1.6105821;0.033464003;-0.005547472;1.1584208;-2.9839027;3.6599805;1.0185549;-2.9731002;-1.8480822;-0.001735437;-3.2995927;0.015962526;0.71136516;-8.003022;-0.03810393;-4.6225657;-3.319555;-0.016345417;0.34540302;-0.36216512;0.30034548;-2.154951;-3.3656464;-0.053301554;-4.914297;1.405959;3.567193;-0.19452944;-0.047723018;0.106200166;2.5649;-13.39858;0.053055115;-0.32831278;-6.8621054;0.76409864;-0.02778795;3.9689317;0.99217916;-0.75812423;-0.9560153;-0.018016921;-2.8608902;-0.0011956228;0.21777678;-0.793803;0.015642067;-0.02533416;-1.5777372;2.1368353;0.13463625;1.608142;4.0008087;2.2645476;0.2534077;2.4200006;1.5894051;0.03835219;0.050639555;0.67908615;0.48932213;0.017688956;-0.0108471615;-2.2281716;0.5638827;-4.3837285;-2.8908358;-0.2543421;-0.16408053;2.790939;-0.4318151;3.7920754;-0.9980575;0.5381343;1.2094594;1.4159417;0.022738863;0.7979116;0.35321867;-1.2246283;-2.954685;0.4834889;2.4849045;0.6456952;-2.3109057;-0.1532803;0.35689858;-0.04109309;-0.02903688;0.08421944;-0.044299666;-8.711616;0.057233226;0.2701385;0.017549763;1.1858313;0.019552855;1.5178118;-3.7996078;-0.25565758;1.0177314;0.91913056;-2.5567768;-0.069002785;-2.9629023;-0.49762297;1.4110016;2.185753;0.8395533;-0.019025406;1.2372938;-0.75819975;0.6198238;-0.0061034723;-0.054411937;0.25526544;-0.012489023;1.6649934;0.3157161;-1.6285756;1.9670755;0.024580909;0.5449143;-0.006865531;-0.10113551;0.7221682;0.8459729;0.021845466;-0.02486055;-0.6950377;-4.6930933;0.73190534;-0.059283987;-0.016849874;-0.029281437;-0.14067885;-0.013169696;2.0703273;-2.817049;-2.1128337;-0.061495155;3.3917522;0.80910987;-2.9369724;1.5897715;-0.091429606;-0.061458524;-4.7993126;-0.043100968;1.1897838;1.4883081;0.83130753;2.9582746;0.5555805;-8.794254;-0.19083492;0.12204916;-1.0355822;0.23006666;0.035361595;2.7761762;2.9960022;1.1392769;1.8351325;0.06401652;2.2654006;-0.032898355;-0.019267796;1.2534796;-3.90099;0.029227585;-0.7647102;-0.0643422;-6.6373124;1.1935257;-0.9183875;0.4556238;0.087711684;1.6759554;-3.0837827;-0.006309259;0.6392676;-0.005364035;-1.4524777;-0.039977048;-3.7861743;0.005111883;-2.500759;1.3151118;0.74042606;-6.5461063;-0.32605815;1.0276713;0.7788965;0.57965857;1.0016608;0.21401;1.3484321;-0.0010702064;-1.5378836;0.03747247;4.104074;0.037815165;-1.3445696;-0.04635314;-2.2206762;0.013519689;-2.008438;2.487225;-1.3651984;0.02355737;2.2573197;-3.840938;-0.061117038;-4.1653695;2.5374131;0.0746029;-3.1632993;-0.04377731;-16.115896;-0.050649166;-1.5457715;1.1086206;-4.9302945;-3.2767265;-0.1917163;-2.1840525;0.7061616;0.27853835;0.1043433;-0.07365639;1.0832148;-2.6188056;0.88395256;-1.2893118;-2.2403822;1.6730283;2.9965944;0.24394494;0.010737953;-0.46357787;0.02584529;-0.80340034;1.0606154;2.387754;1.4107634;-3.45966;0.11555022;-0.050369713;0.7164432;-4.841945;-1.0718224;2.8016317;-0.077741764;-0.68722874;0.12583268;0.20963691;0.6084697;-0.18745165;4.448265;0.642259;0.027451482;-0.03478428;-0.004933838;-0.33060002;-0.010517549;-0.59701616;-3.6691487;2.542273;-0.3210713;0.035123464;-0.020995859;1.1063354;-0.90512675;1.6961265;1.7933006;0.003821702;-0.25261694;-0.98792815;0.16888878;0.04996103;1.9564599;2.716498;-0.10458249;-4.5698166;-3.022911;0.008330356;-2.7688036;-1.7187456;0.0027495918;1.2880214;0.049165573;0.65794283;-0.029766161;0.025915623;0.01698023;-1.1920063;-5.2393394;0.01764744;3.262435;-0.031000342;1.4843303;0.0002657645;1.932177;1.8089945;4.2624135;-0.5984124;1.6252295;-0.0017389283;-0.6739213;1.6353041;-4.7725344;2.0309525;1.2662834;-2.2198606;-0.0151310675;0.3022254;-0.012434157;-0.21423039;3.8597045;1.9614879;0.026424749;-3.12982;-0.048685893;0.036492426;-7.2067304;1.2341105;-0.065001115;0.49200878;0.3206065;0.038107127;-15.564679;-2.0035717;-0.02584638;2.1356568;0.8096421;0.5917049;-0.052026898;-0.24447708;0.3171776;0.7031917;-0.043033067;-2.1958578;1.3599224;-1.7309709;0.038418703;-2.1461911;-2.5652418;-1.381638;-6.1484265;-1.5929885;1.7202547;0.0438804;-2.9612963;1.1000917;-0.009616104;-3.492614;3.8779178;0.84320563;-0.008143297;-0.012296313;0.8053
-0.2716445;-1.0654248;2.6116135;1.7725233;-0.039234582;1.1563852;2.6688054;-0.821751;-0.062481485;-2.744977;0.019104067;0.081690155;-1.7300241;-7.5403137;0.40136954;1.2050638;3.3183475;2.9129431;1.1383276;2.5228913;-2.0448132;0.026100013;-2.5975392;0.58455247;0.35893664;0.0031059866;-0.029602166;2.0574985;-0.3947726;1.7603446;-6.0326843;0.02296601;-2.7200198;2.265049;0.028491713;4.715996;-2.6953037;-2.0954542;-0.63596493;-0.031279463;-0.030487018;0.0076326756;-0.6406484;-0.0015495651;0.03293765;0.7787278;-0.029989425;2.2076569;-0.7761822;-0.012528788;-0.011759906;1.017581;-6.9078145;0.017463963;-0.015674839;-2.0341;0.059729647;-0.13996425;0.5541008;-1.084946;-0.02208265;-0.06959687;0.06482163;-6.8335776;2.7370434;1.5930425;0.9583654;2.4373543;1.6568928;0.008345052;0.77362496;0.026920935;-0.06387926;0.50823236;3.042826;-0.011050845;-0.01622496;-1.2771418;3.1222577;-0.0070921276;0.008529509;-2.16641;-0.28085694;-3.3322678;0.044832274;0.82861274;2.0836623;0.05664571;0.044802785;0.05859851;-0.055586137;0.097179145;-1.7938963;-6.6295843;-0.12926367;-5.673927;-4.599824;0.9046108;-5.706368;3.6437447;0.012327909;1.1358969;2.6618862;-0.006417738;0.5647089;4.520005;0.01999873;3.5128999;-6.686857;-0.030478178;0.23678595;1.3722942;-0.8159429;-1.0178384;-1.032955;2.0122373;-1.1502044;2.7466705;-0.04937555;1.1768056;-2.970785;0.13172859;1.5987594;0.029028542;0.031031476;0.02112202;0.16223451;0.03614693;-0.0009328162;0.8324427;-4.788012;1.5103347;-0.13418853;0.26137647;0.0063039768;-2.7653837;5.1311126;-1.3160709;-0.005968546;-0.00468563;-1.0831281;-0.3889702;0.7467237;1.6598259;-0.11417888;-2.112872;1.3262854;0.024596358;2.1954608;-5.5945587;0.022028979;-2.6006463;0.029667526;0.40456823;1.101286;-0.08526908;-0.023727577;-1.7903259;-1.246205;2.2121372;-0.37743983;-0.0144599425;0.24411093;0.032204658;-0.024913257;-1.2959954;-0.018394155;0.0025404613;-0.4242299;1.082426;-1.997484;0.22555229;-0.0025496073;1.0122275;-0.6800648;-2.7865417;-0.027651446;-0.00081369834;0.046984643;0.012385404;0.04526639;2.6236594;-1.1737261;0.6562984;2.3264046;1.9474453;1.207285;0.28290352;-5.4203916;-0.008859625;-0.8381781;0.00452089;-2.1035025;0.053804785;-0.007367748;1.7768141;1.9742411;-0.4571984;1.9840074;-0.0033786045;2.1642308;-1.6323643;-3.1374044;0.009782387;-3.5484154;0.0058772992;-0.9333081;0.03442168;-9.25953;-1.6700503;0.03581228;-0.029783377;-0.049523115;0.009662277;-1.0302799;-0.008834514;-1.8728619;2.4172924;1.3862098;1.9887552;1.9711764;-2.548656;1.0171689;0.050043616;-5.6537476;0.02033839;0.17235307;-4.224367;-0.011732098;-5.9154005;-2.979414;-0.010341799;-0.07732198;1.7395035;1.454907;-4.158249;-3.2267184;0.04557405;-2.1125576;-0.19348776;3.348677;0.35943463;-0.0083257165;3.0471914;1.4107761;-12.980161;0.026722634;-0.74091154;-3.9736087;2.7683184;0.04721986;-1.2722098;1.1605958;2.858719;-1.443506;-0.13184196;0.9518854;-0.002431892;1.2400202;-0.5835773;0.018206099;0.066926174;1.6352016;-0.8344385;-0.16640845;1.6941801;-2.0771177;1.6764256;2.1424184;-0.41179407;2.7458677;-0.86500365;0.039792046;2.599028;3.738905;-0.0058119115;0.16952473;-0.51782215;-3.6372535;-1.4833008;-2.6674924;1.5018706;-1.3220831;-0.023281178;-1.8729635;1.5892764;-2.0185738;1.9943929;1.8076712;0.8062418;-0.028454013;0.44967607;0.0039474694;-0.8202609;-3.0140018;1.586786;2.536178;-0.26624134;0.032795705;-0.03100188;-0.16111547;0.102905095;-0.009951338;-0.48775363;0.00910759;-8.353452;-0.008818952;0.10850795;0.038419206;4.5763764;0.10032217;1.4699425;-6.354101;1.2226808;0.70353067;-0.42048505;-0.9148813;-0.016361348;-3.516372;1.4518394;-2.0601375;0.52065957;3.502877;0.0051959697;0.77327293;-3.7383838;0.3105796;0.04744887;0.026494453;2.9372344;-0.018887607;-0.92657715;1.2101068;-0.58915883;3.419403;0.08250849;0.033670064;0.03775837;-0.9735395;-0.026893286;-0.5703324;0.044971492;-0.092635095;0.33700138;-1.8441769;2.8725116;0.03917174;0.015985636;-0.0012219467;-0.5197052;0.076438315;-1.6568123;-0.95743215;1.7941111;0.02135215;1.9789244;0.17662315;-2.2215164;-0.38769445;0.15420689;-0.24056742;-7.7034683;-0.007342002;-0.6526119;1.2301093;1.4835926;0.95113814;-2.1876867;-7.485556;3.887068;-1.3844767;-1.6613945;-0.4310259;0.032383583;1.1307925;3.0260088;2.460276;2.0225742;-0.008670949;2.4834592;0.0017306074;0.009729274;-0.06821761;-0.0061989627;-0.0077584037;0.18378465;0.05426939;-7.13712;2.8245454;0.82482773;1.8964134;0.49964023;1.4339838;-3.464195;-0.045511592;3.0798805;0.015122632;0.34757665;0.03918168;-3.3908644;-0.06647389;0.24704584;-1.6436734;-2.1332903;-1.4335884;0.27567527;1.2410225;2.4959617;2.8594754;1.6571683;3.717769;2.8502102;0.0009887269;-0.38224694;0.01235713;1.380585;-0.0063530165;-1.121469;0.09831239;-2.140874;0.044555746;0.43150893;2.5886846;-6.74389;-0.035671633;2.413522;-8.0151205;0.08673545;-3.7067623;1.1542274;0.02621337;-1.4548181;0.012989898;-15.849383;0.026829947;-2.4857259;1.4168906;-4.7683635;-2.0259244;0.8016375;-0.31115204;1.2950355;1.7039516;-0.01047074;-0.03194256;4.2024703;-1.6000999;2.2109551;-4.689421;-3.8482354;-0.72888976;-0.69502443;-0.46446452;0.0307851;-0.11850623;-0.051970582;-2.5149605;-0.19228168;0.1130612;0.14826521;1.0108144;0.27142408;-0.3556753;-2.9490573;-3.9572337;0.693922;1.1767713;-0.17523922;-2.1875992;0.1324296;0.13910013;0.41437185;0.0033646375;-1.1971307;-0.45478508;0.032724448;0.011142923;-0.04158477;0.96444076;0.029010594;2.0670047;-5.4092813;1.5784463;0.054281104;0.039754435;0.0016312859;-2.0451858;2.1179655;-0.6828725;0.23945144;-0.0060744984;-2.1264107;1.5646224;0.12492041;-0.72333574;1.2009962;0.22180201;0.03532713;-2.3894916;-5.124739;0.0658552;-2.603436;1.2560515;0.014705821;0.8658507;-0.033093434;1.1243092;0.32952946;0.008201956;-0.03916786;-1.8075382;-1.2004529;-0.00019554204;2.6411626;-0.03730844;1.7326229;0.012876664;0.240266;1.8188566;-0.3871844;1.1723349;0.06634057;0.078578345;-2.4211452;1.3404257;-6.3802133;-0.44912753;2.1781778;-3.430517;0.013963312;-0.09341237;0.05698802;-0.049110387;1.6407737;-0.5191611;-0.03339144;-1.9685863;0.033016033;0.05334812;-6.4972854;2.2463024;0.1600471;0.99946445;0.5949039;-0.016728234;-13.851649;-0.30739632;0.03445571;-1.6763602;0.50988996;0.4738438;-2.212287;0.04268354;0.9659108;0.31231007;-5.353011;-0.93641984;1.851504;-1.4936726;0.02710679;-1.8550314;0.04113869;-0.11738733;1.6405084;-4.2346888;-0.9940324;0.0590821;-3.684482;-1.1625488;0.03546405;-4.0015736;2.2340379;-1.8817497;-0.015080987;-0.007931886;2.084906
-0.5997388;-3.617613;0.72148013;1.5615544;-0.013467052;-0.63510394;1.8392887;0.60514647;0.064521536;-1.5699977;0.010355291;-0.9603244;0.79593533;-5.7581444;1.9049184;-0.15511268;3.5879574;-0.7176331;-4.6544724;1.2054983;-0.8674941;-0.019861296;-5.17971;1.1393819;-0.73903304;0.008860084;-0.0012128134;0.97834975;0.21396461;1.7098204;-0.6961998;-0.002731146;1.3560395;0.7449574;0.2628894;2.9692934;-4.3759823;2.0547707;-0.16167742;0.24983472;-0.0002487793;-0.019193016;-1.9043216;-3.086892;0.039847396;0.6520623;-0.008501954;2.700208;-1.946783;-0.017134586;-0.0745061;-1.4717414;-6.9966207;0.025643522;-0.08725911;3.718475;-0.019866042;0.8556267;0.05579609;-2.759684;0.010561271;0.22054893;-0.028780833;-8.052568;1.7121327;-2.4068923;0.023782577;2.8816113;-0.18427585;-0.0043299184;0.7082199;0.60718143;-0.07244942;-2.0856464;3.8808818;-0.11035771;0.77749956;0.58601564;2.9104369;0.006024692;-0.021367967;-3.4718587;-2.2505522;-3.6264474;-0.045133863;0.23915815;0.449157;0.029830122;-0.031668283;0.03501968;-0.032826025;1.0098956;-1.077376;-4.4627395;0.77371544;-3.6071265;-1.7643644;-2.3452246;-4.698743;0.6339351;0.006874733;1.0200998;-0.26249608;0.007645075;0.7061468;3.1960027;0.027382784;-2.0196145;-9.519187;-0.013605606;-2.096037;-3.6261146;0.5854405;-1.0474799;1.1349715;1.532226;-1.1384087;2.2719738;-0.011961684;1.9522302;-3.3337326;-0.030436551;2.5502584;-0.025450934;0.07010996;0.009116096;1.1376144;0.48133487;0.041779954;0.94407684;-2.7038574;-6.9347463;-1.2593281;-0.05856149;-0.0087834615;-3.5498133;4.9982;-1.4318556;0.025270443;-0.01473588;-0.97650594;-2.90916;1.0462277;-2.1013637;-0.016859112;0.24729405;-1.1417285;-0.021174503;0.87592167;-4.0617003;-0.09416839;-0.11863307;0.1280091;-0.083494395;-0.2214375;0.0004261896;0.05743013;-2.9447057;0.6266327;4.5447044;-0.99444634;-0.014120854;-0.6417588;0.02449219;0.016328946;2.5047798;-0.089519866;-0.011425251;-0.60246986;2.4789083;-2.3418436;-0.12763625;0.0023751557;0.3689445;0.071520075;1.0247483;0.0004090269;-0.0007408281;1.0871046;0.006610114;-0.03280097;1.8347899;-0.4439849;0.7288788;0.84161407;0.7861667;-0.45490918;0.87464017;-3.486806;-0.030158766;-0.7449801;0.016914837;-3.2859275;0.0037315367;-0.064204544;3.89055;2.0224018;0.5567909;-0.28599608;0.032239143;0.67682934;-1.6583481;0.71544653;0.077954665;1.1927996;-0.0027371498;-1.030772;-0.019788329;-2.8789215;-0.051809024;-0.26154134;-2.3991807;-0.08114235;-0.05421573;-1.946708;-0.0093837045;1.246431;2.5594645;-4.684421;-1.1272546;3.1395493;-0.09339296;-0.002953593;0.003907224;-1.6007271;-0.02825871;-0.029567944;-2.7306054;-0.016057968;-6.2645555;-3.2332282;0.024379503;0.96313584;-1.5090153;1.7128896;-3.3100364;0.9562521;0.024383863;-0.83450943;-0.11447203;2.580943;-0.14565328;0.0813163;0.8260424;2.8169405;-12.656637;-0.009484931;1.2614516;-3.7966568;0.70258117;-0.033897165;1.7153751;0.6051142;0.2994471;-5.9680743;0.039083786;-1.3159529;-0.03251613;1.6838365;0.07528287;0.012843256;0.0077695306;2.7301497;-0.88607925;-0.2806355;2.2681694;-4.2922134;1.2880186;2.3407423;-0.7809761;0.39659083;-1.3997478;-0.013447134;1.2755051;1.3641384;-0.07289827;-0.0523272;-1.0340952;-3.3593986;-0.5593143;1.1148826;-0.426471;-0.25509918;-1.1254958;-0.20665124;1.8135965;-0.6951928;1.1706427;1.7822776;-0.5715947;-0.05211782;0.46344444;-1.1465447;-4.2504587;0.542045;0.95872706;2.4723074;0.013764142;1.8288454;-0.026871474;-3.3374543;0.33142573;-0.005873579;3.5748928;-0.048314005;-8.057832;-0.0038485285;0.1991299;0.041247945;2.9266856;0.057751928;0.7125269;-7.058677;-0.21083608;0.45533264;-2.7203484;-5.0816936;0.038006358;-1.360952;0.43166167;-8.554904;1.2094119;1.3337532;-0.0207295;-0.6074773;-1.1972708;0.16738018;0.015661355;0.006997418;0.007867872;-0.014018138;-0.79529536;0.77369684;0.36375973;-1.3240898;-0.099066965;1.2176737;-0.031767163;-0.54905367;-0.14666343;2.3515813;-0.032037314;-1.7670202;-0.8666857;-3.8503623;5.394878;-0.011595954;0.01667452;-0.0047809477;-1.119984;-0.06512455;-0.3021821;1.2340027;1.3118283;-0.041710455;0.41462964;0.6644603;-4.0809603;-3.0994627;0.33017758;0.75643265;-4.542052;-0.044934813;-1.5147898;3.2784288;3.1203763;0.4931891;-5.239975;-6.218425;-0.16455203;1.1781163;-6.8898616;0.76083326;0.0040475;-1.0072373;2.5355167;1.7379296;2.0670614;-0.061954096;0.874165;-0.0048708552;-0.009936818;-0.079942524;-0.8388734;0.021955775;-0.73530316;-0.039091498;-8.212006;1.0294865;-0.42748964;0.7203194;0.22676192;2.5008674;-2.7639604;-0.010259637;2.2780902;0.00905885;3.9182813;0.0017875549;-1.0163864;0.030513884;-1.3615729;-0.8066574;-0.5645403;0.8224692;-0.10982325;0.15117659;-0.053854544;1.4567153;1.3954829;1.0848309;1.0193245;0.014501967;-1.5798657;0.017488532;-2.1026564;-0.0033453272;2.8626459;-0.033246342;-1.680428;-0.02618819;1.2089851;2.608728;-3.938537;0.0033273024;2.6581788;-5.135074;0.9086682;-2.5052989;2.675586;0.0065012053;-5.5041995;-0.0012350159;-15.792869;-0.05063689;-2.4640324;1.7626348;-3.0162249;-3.0177782;-0.06889061;-2.021365;0.30103463;0.9288586;-0.013068674;-6.235519;0.20400336;-0.7195285;0.6683584;-4.2404165;-3.9560418;1.0970019;-0.25899044;1.8667386;0.04268918;-1.353684;0.021836858;-4.6493196;-3.294902;0.4076536;0.6904476;0.8921457;-0.12088729;-1.1093254;1.9063852;-4.964037;0.80452955;0.10962547;-1.9949859;2.183166;1.4999156;0.06489571;2.7599518;-0.052609432;-2.0385911;-2.5272424;0.03543731;0.0024568841;-0.040948685;3.2899656;0.0313899;2.2602122;0.7214693;-0.12515202;2.804644;0.042932913;-0.0021192953;0.44929382;-1.2100561;1.0521394;-0.83056176;0.021963432;-2.0872486;0.34802103;0.1942473;-2.5503101;0.302166;-0.25687066;-0.0047661276;-1.5345625;-1.702133;0.01602745;-1.6061026;3.3290966;0.021184891;-1.7508324;0.00056024094;-1.1293422;0.015729629;-0.010935294;0.053368237;-0.7722935;-4.3069572;0.0034332704;4.7095103;0.01876022;0.9144255;-0.034428928;1.4970617;1.1589599;1.2372997;-0.8398447;1.0999126;0.033229068;0.34884048;2.1707964;-4.417634;0.39991072;1.9734685;-1.8088864;-0.010146845;-1.337632;0.025719674;-0.083729506;-2.4571476;-0.16252999;-0.0026790036;1.85248;0.010465278;-0.013107939;-7.3004875;1.1072242;-0.07625639;0.45162103;-0.20647335;-0.06568826;-11.980248;2.286915;0.019497894;-1.6120923;2.751907;-0.31013888;-0.9970914;-0.051647447;1.4925926;-0.8007672;-0.57749695;0.7092362;2.8179;0.013049598;-0.011042998;-0.90001994;0.8985928;-1.0178591;-0.5781722;-0.19751593;-2.1193762;0.019690052;-1.2220834;-2.7104056;-0.045848824;-0.824714;3.4552417;-3.2882001;-0.010457971;-0.053059515;2.009674
0.70303655;-4.5325108;2.1301737;3.905099;0.20807274;-0.4433793;0.7591312;1.9563167;-0.04887348;0.6699802;-0.026831577;1.7540287;-0.17330624;-1.0557373;2.6992083;-0.25177798;3.2691414;-2.0742762;-2.326118;1.5933758;-2.910151;0.04479985;-5.4039416;2.8909585;-0.62357247;-0.0068512587;-0.010654012;1.4036084;-0.2586398;0.75539035;4.817168;-0.0022922626;0.19327557;2.9677827;-2.3713417;3.7644753;-7.151468;3.0390527;-0.8089169;0.8088078;0.049927335;0.029979022;3.9870527;-0.28150624;-0.016545704;0.7487661;0.038164556;2.8868656;0.46362746;0.01838016;-0.024101527;-0.1348759;-9.08403;0.004781828;-0.042212766;0.7081997;0.00539374;-0.6125002;-0.18719862;-3.402392;-0.008225898;0.9196029;-0.025204545;-7.8155346;-0.5759148;-4.7398267;-0.23838465;2.1722157;-0.5898888;-0.0021387374;0.9267055;-0.11221232;-0.07588215;1.3508674;2.6693714;-0.35361472;-0.20557012;-0.2539608;3.218116;0.014020888;0.014340735;-5.059438;-0.23903622;-1.4247447;0.0025158203;-1.0097724;0.98140395;0.07106312;0.0065347385;-0.044409636;0.070815116;-2.8849835;0.46272072;-2.6295946;0.4072135;-2.3987107;-4.683192;1.5265571;-1.2857443;0.7108189;0.047878735;1.559797;1.4127004;0.06300185;0.34238756;6.534077;-0.0024790224;-0.42158198;-10.126689;0.027456453;0.7744162;-3.6961913;2.2581341;-1.211008;-0.90076137;2.134658;-0.7056684;3.25738;0.0014169993;-1.9362411;-2.6729574;0.08742578;1.0438573;0.047172986;0.00032078888;0.04338892;0.32489404;-4.207914;-0.02112492;-0.03923424;-2.126023;-3.3072953;1.1023926;0.51149684;0.0074310564;-2.8571446;-0.03289255;2.9455442;-0.09226587;-0.0098256245;4.1300735;0.6726799;-2.1201763;-1.1380973;0.017259846;-2.097123;-1.8989736;0.15861198;0.7477757;-2.86794;0.016376948;-3.0882094;0.8102186;1.8774936;-0.006443449;1.015888;0.010085878;0.9292438;-0.22582671;1.3039892;-0.91320425;0.016012566;1.3777809;-0.01392892;0.01040249;0.4501992;-2.7074745;0.008940895;0.6346657;-1.4051995;-2.4818058;-0.049311157;-0.008234035;0.25018376;1.4061161;0.5877666;0.023303071;-0.052732278;0.12827137;0.0034811879;0.015491945;1.1484897;-2.2598398;2.3836577;1.032058;-3.0562925;-2.1649966;-0.48178464;-3.144293;0.0044060713;1.7175918;0.0005819904;-3.7470875;0.017246012;0.010076187;2.8368022;-0.37473515;-2.070604;0.29659587;-0.0026729365;4.759526;-4.782768;0.65250677;0.0023395675;0.17104279;-0.008438619;-2.058457;0.026489753;-7.260624;0.19492982;0.22144856;-2.357082;0.3160197;-0.018857788;-1.7398611;-0.025168326;-2.0687494;2.5410454;-2.6143677;-0.9622826;-0.7451901;-4.4975786;-4.215337;0.03192061;2.0109384;-0.021647943;0.010395032;-1.4343275;0.0056406395;-6.2975993;-2.6237404;-0.027171355;-4.4265466;-0.39858085;1.6205479;-4.3363137;-0.7381346;-0.036873497;-2.144854;-1.0287971;2.5689223;0.023952195;0.0476901;4.101973;-0.13634838;-12.330492;-0.021050604;1.4510305;-2.503083;1.0796314;0.022809003;5.3686733;0.8524084;1.2094797;-4.348314;0.039588038;1.229633;0.018907938;1.5278968;-1.8271492;0.028942436;0.056414947;0.3529061;-0.37709627;0.23671207;0.7345172;-1.8143905;2.1665678;2.4746814;-0.37858582;1.1492109;-1.217942;-0.03276796;-0.44226876;0.25489253;0.25249937;0.019793618;-2.4418917;-6.7737765;0.18634705;-0.08961344;0.78360605;-2.0510921;-1.3305521;3.1028752;-0.14056563;2.3228133;1.8834584;-1.8494374;0.44491872;-0.030464297;-2.1797435;0.3356399;-3.0094213;-0.7227298;-0.5622157;2.2410119;-0.24649651;2.6222878;-0.012444721;-0.2669152;-0.06901907;-0.0108099;3.4224486;0.0013992415;-8.647836;-0.03366783;0.05431933;0.0787584;-1.842213;-0.02837011;0.8195984;0.7031776;0.55368173;0.52068174;-1.0880239;-2.2787688;-0.021611702;-1.1523792;-1.0770483;-3.68723;0.7889569;-2.6450026;0.034922905;-0.39451477;-0.79431444;0.0144701945;0.025715785;-0.041545197;-0.46054626;-0.031026892;0.68154854;-2.0605316;3.4539397;1.243844;0.039101847;0.68188107;0.014102271;-1.8397334;-0.008991827;0.15368323;0.0021769283;-3.8409104;2.7168725;-2.3267367;2.0341668;-0.020692864;-0.020901473;0.0033522414;-0.359025;-0.0073855487;-0.48952195;0.8642595;-0.5056576;0.015151332;-1.1552175;0.44810525;-1.9790272;-3.7182262;0.27330527;-0.07339243;-5.005776;-0.028286856;2.1729531;1.1891148;2.5438972;3.3835452;-4.1837506;-4.0990195;-1.6163625;2.3466341;-6.8030596;-0.15615074;0.010557038;0.19486947;1.4989727;1.8385125;0.841166;-0.013999405;3.18481;0.0021783572;0.056730155;-0.050105877;-1.4045266;0.026601994;3.1429455;-0.0075518023;-10.316653;0.68913937;-0.85062623;2.5328982;0.20230228;2.1005783;-2.3089738;0.014130904;4.703673;-0.001489582;1.9291762;-0.074236415;-2.2750518;-0.039794784;-1.3325946;0.20998105;1.7965629;1.8023813;0.6517471;-0.79139733;-0.010408255;0.52211535;3.306222;3.1520927;0.30708972;0.013463826;0.16476727;-0.017660176;1.1195781;-0.036270007;3.4520886;-0.020743888;-4.1829205;0.004088509;-0.805874;2.156721;2.0973334;-0.03106023;2.5332332;-2.827374;-0.09531971;-1.4462862;1.5656925;0.0030183275;-3.3987136;0.24813381;-15.082602;0.020218499;-0.9175028;1.400625;-3.145457;-3.4710128;-0.0901509;-3.8864756;2.687621;0.22312708;-0.023161462;-4.979125;2.7179596;0.29352432;1.7480707;-4.01573;-1.128748;3.4948206;-0.120562285;1.9168748;0.06126215;-0.80164826;0.0008995684;-2.1958747;0.38592234;0.82531995;3.6647034;1.8283385;-0.10993346;0.3393859;3.2332873;-0.63176227;-1.7939503;-2.1342568;3.2762144;2.7167742;-2.169285;-0.068121694;1.696479;0.07710777;0.84087867;0.52125216;0.02161;-0.027471598;0.6055412;3.3271515;-0.023710208;-3.262322;-0.36434683;1.3520112;0.9857214;-0.006183381;0.072382994;2.6767206;0.48160127;0.19245283;3.1557727;-0.00010427293;2.8900778;0.29946744;-0.10299985;0.38501936;-1.3779904;2.3944712;0.09735184;-6.7158427;0.4678851;-0.0010460031;2.4917455;-1.2958468;0.014407821;0.75791836;-0.0434348;-0.63285315;0.11580822;0.033760652;-0.022319969;-0.9539724;-4.9848623;-0.017171515;2.502228;0.013362042;1.2571741;0.03572631;2.500792;1.3541682;2.5265403;-0.22850746;-0.10729337;-0.023947952;-0.7980954;2.797826;-2.5697727;-0.25702977;2.133636;-2.524487;0.05580064;-0.53518397;0.005130456;0.040486902;-0.89019203;-0.4140335;0.045651764;1.6264696;0.020427546;-0.014318802;-7.150082;-4.821097;-0.030322757;0.26061416;-0.023318619;-0.14821632;-14.440134;3.2661602;0.032756932;-0.690802;1.6441563;-0.07631141;-1.443886;0.087536715;-0.33920684;1.0389994;0.72517157;-0.29944727;1.6273005;-2.8645847;0.005043843;0.1908871;-0.57736933;1.6765295;0.22741123;1.0080484;-2.4012196;-0.00153845;-0.45715448;-4.9947824;0.030171271;-0.65333855;0.58534527;-2.3616645;-0.008440298;0.06813974;2.5497878
-0.29714984;-2.828276;-0.9431788;2.543413;-0.10262874;-2.9522555;3.1968846;4.0084386;0.06736055;-0.7166837;0.004230302;1.5669947;-1.321765;-6.0451555;-2.9788032;0.085206516;2.3948836;0.38252082;-6.9548497;0.8829251;-1.0386398;-0.040738165;-0.97914404;3.43035;1.9054008;0.06993837;0.02933827;1.6145368;0.3139178;2.7792356;0.8022733;-0.015788803;1.0419837;-0.43760723;-0.11586067;3.2911463;-1.86965;2.4556687;-0.43695685;-0.10287309;-0.016484883;-0.01786899;-0.5239942;-0.91035146;-0.008405162;3.2342782;-0.027950551;-0.36125827;-2.4145455;0.007898044;0.02849036;3.4359648;-6.6749587;-0.020530868;0.20323627;1.4040155;0.0032109905;-3.3854728;-0.037970476;-1.633925;0.08727877;-1.0077814;0.018730136;-7.55723;3.016405;-4.5360756;0.18878764;-0.49034828;-1.0953504;0.07040155;1.0542368;-0.062231705;-2.33282e-05;0.62123245;3.7677526;1.5102706;-0.0973438;0.13117726;2.7990696;-0.01874907;-0.007477471;-0.8662718;-0.14633037;-3.2089767;-0.034286194;-0.21037392;0.7959634;0.0073529;-0.00348954;0.04402459;-0.037239913;-0.010427235;0.7893344;1.5714566;2.7477803;-3.9632618;-5.7937117;0.8412847;-2.8097298;0.27316192;0.014620037;-0.31645623;2.0040538;-0.017214393;0.3760053;2.9147906;-0.008533505;0.19452822;-10.262848;-0.0001796487;-0.30020082;-3.0252254;-0.1723369;1.7739094;1.6614327;2.8494685;-0.52369297;1.338813;0.06316528;-0.78632516;-2.7114673;-0.007933162;0.68301386;0.015387842;0.018274613;-0.006531327;-0.9289047;0.39370897;-0.03348754;2.104817;-0.8545565;-4.314844;1.5457923;-3.8012094;0.011758826;1.2834378;-2.0001018;2.9327905;0.39929995;0.056743823;-0.4427671;-1.5038605;-1.7678035;1.7207114;-0.051020555;-3.5723238;-1.222215;-0.065395236;-1.8785743;-2.1396391;0.014253991;-1.7592949;0.1998513;1.2524537;0.046108853;-0.0782395;0.012569889;0.22055763;0.16442387;3.7663076;1.0777684;0.089009136;0.33041206;0.007868874;-0.041271556;1.7139695;-2.228716;0.009952027;-1.6419085;-0.034425966;-0.4076146;0.0008462641;-0.009399606;-0.22748826;0.7713501;2.02764;-0.057526384;0.042990748;-0.6571101;-0.038483333;0.038071666;-4.060247;-7.950445;-0.9441244;1.7758694;-2.645679;-4.1702323;-0.6580771;-4.276737;-0.010034566;2.3387375;0.04171102;-4.6334624;-0.014282479;0.037538826;2.7696798;-1.1361735;1.1853263;-1.7528143;0.00057187455;4.8296604;-4.39999;1.8115704;0.034335386;-0.8869901;0.015011399;-1.4822351;-0.065164775;-1.6295143;1.1812586;-0.3492587;-2.8775995;-0.019112812;0.042073287;-0.27000222;-0.060789857;-2.5808296;1.8649087;-6.6693053;-2.6300025;-3.3041987;-4.560774;-1.22174;0.037936464;-3.1871676;-0.00082643004;-0.031571154;0.6776401;0.008411419;-6.721098;-2.6931806;0.0072622495;-4.0879436;2.674312;2.2954607;-4.17518;-0.6078427;0.040846404;-1.2028449;-3.8227148;2.5677173;-0.08973403;-0.014972846;1.7355139;-0.6059968;-12.301852;-0.10361891;-0.32284096;-4.4808397;1.6374468;0.055280052;2.7053869;4.230822;-0.98728114;1.3852526;-0.07906202;1.5161362;0.0008898344;1.7281396;-3.181857;-0.006696324;-0.029451082;4.229664;-1.0193634;1.9956605;-0.6860167;-1.3224481;2.7814622;3.1242487;-1.3181623;-0.0908644;-2.8369858;0.0794533;2.5489955;0.62171555;-0.10015857;0.040550817;-2.9169893;-4.541775;-0.7778785;0.35222396;0.40534735;-0.7245832;1.0192277;0.834504;0.66163903;0.70803577;2.0448728;2.2724378;-1.0494514;-0.035233047;-0.50728595;2.0017476;-3.6643279;0.37994432;2.9174142;2.7690275;-0.01973157;-0.1851682;0.023970116;-0.3982927;0.058619592;0.008781514;2.622468;0.0070562423;-9.0512;0.034030132;-0.17341149;0.06283458;2.3098013;0.053312074;0.9318432;-0.027604755;0.8588648;0.9845957;1.1668807;1.0056864;-0.06497863;-1.6879692;-1.2303345;-2.8668783;1.7522875;-1.4164475;0.0270359;-0.06133573;0.096633516;0.03131613;-0.009988623;0.037210822;0.69868517;0.0006974953;1.8025976;-0.66946507;-0.9234485;1.5294697;-0.006374907;-0.28133503;0.020491563;-2.7487366;-0.00048510585;-0.16395561;0.013706052;-5.5279465;-0.4082218;-2.697392;1.5041958;0.014076264;0.034964938;0.015427316;-0.064215206;0.012811349;-0.44673115;1.4119658;1.2414222;0.061521776;-1.6866664;0.90103745;-2.9973068;-4.1776195;0.16916525;-0.21469069;-2.1588566;0.020801874;1.7227921;-0.28520143;2.2105103;-0.50926006;-0.80230945;0.25751764;0.8503751;1.7408664;-6.4347124;-0.2294547;-0.0022345057;0.7700839;-0.2914784;1.6253299;1.2691573;-0.013126402;3.8800786;-0.010476059;-0.01949092;-0.02617286;3.6386652;-0.04290239;-0.09115876;0.009505806;-8.011306;3.6957343;0.34714258;0.7366343;2.2503505;3.0066068;-2.9993968;-0.037370726;1.4809124;0.03184095;1.7174412;0.0053254482;-2.2244077;-0.0078954585;-3.8764193;-2.0142415;0.518522;-4.8585234;0.3574159;-0.065527976;-1.2975348;-2.7618845;1.2075564;5.6787167;-1.8100204;-0.039115384;-2.4768271;0.028506739;0.7835278;-0.03140897;1.6172328;0.045356415;2.1316338;0.017323405;-0.7596485;2.6828163;2.996166;0.04471082;2.6753385;-1.4983449;-0.025966313;-3.6697407;-0.8020743;0.04721644;-5.1408935;-0.05144843;-15.6473675;-0.0056946925;-0.94447243;0.31705514;-0.9097471;-4.8094316;-0.08264679;-0.44366333;0.67071885;2.2241747;0.05099573;-1.109408;-0.15181746;0.6336836;0.05917907;-4.3750787;0.10483129;1.9916581;-1.7898756;-0.73704606;-0.018747443;-1.5315088;0.0018351699;-3.1958463;-0.19648543;1.4595126;1.833697;0.1024909;0.05179568;1.4884053;0.24996592;-0.10722158;-1.7638499;-1.7908196;-1.6619221;2.7358425;-1.9914327;0.37342474;4.365732;0.031949352;-1.2736872;-0.070433795;0.020446178;0.04639084;0.120681144;2.1374857;0.04746688;0.31111944;0.004903703;1.7192271;-2.2409897;0.0071414243;-0.028355919;-0.41446477;0.47207004;-0.18538292;1.5112613;-0.027589777;-0.5872908;-4.742592;-0.07569449;-0.11648278;-3.7066767;-0.24296351;-0.046118658;-4.7274084;-1.3149996;0.021065323;2.7123778;3.0847797;-0.018276846;-1.6227489;0.023723727;1.5116569;0.24744202;-0.030096395;0.02327164;0.062866986;-3.4071538;0.04035454;1.8022394;2.181051e-05;1.5757208;0.029297313;4.3522696;1.194987;2.0802522;-1.3108034;3.0017223;0.033598036;-2.068262;3.2731717;-3.45625;0.68264365;2.3165548;-2.0007408;-0.027400259;0.2673674;0.0017637804;-0.008726917;-0.15471645;0.16330068;-0.058268618;1.0692579;0.025729371;-0.019375851;-4.5812006;-3.8351986;0.033013254;-3.3708086;-0.059839394;0.9441407;-13.220605;4.396798;0.0149818305;-1.225258;2.4291303;-0.12616289;-0.3413471;0.028869722;-3.7226462;0.5961962;-2.5771875;2.123438;0.36084273;-0.007290014;-0.02270553;-0.36736912;1.6166313;0.63573253;0.32069674;1.3865408;-1.9329695;-0.05263525;-0.99509555;-3.3739023;0.003251136;-2.1845577;0.83704436;-1.4013162;0.0059944065;0.02628957;2.1213374
-0.92867273;-0.7577615;0.16120444;0.541578;-0.06171591;0.029712806;3.0138144;0.91732454;-0.07820425;-1.842776;0.023721397;5.7004523;0.28323537;-1.7081925;-0.5653211;-1.5512456;2.6142287;0.7381233;-0.5112194;2.6784422;-5.472044;-0.03266309;-1.1475601;-3.8181672;0.019869734;-0.038239185;-0.05615886;0.42405137;-0.020164018;-0.57564217;0.7749908;-0.013771109;-0.89996845;-0.31100768;-0.9833567;1.851041;-1.0470692;0.155174;1.1491762;-1.0745028;-0.0048680883;-0.010697392;-0.5868438;-1.5806415;-0.018208176;1.3091037;0.003529282;0.07549314;-1.3081567;-0.023944754;-0.00014364258;2.7050016;0.9042585;0.0031999077;-0.024536088;3.6541011;-0.028713448;-3.2854636;-0.6696434;-0.30253267;-0.010230487;-1.6058942;0.0066081043;-5.6945295;-0.25848565;-2.014698;-0.39943546;-2.3655112;0.13044132;-0.04321773;1.3952975;0.041026;-0.078325726;2.375417;4.1750016;1.2312922;-0.053109087;-0.8040286;3.0361254;-0.026701333;0.022747144;0.635112;-2.2135518;-1.2913979;-0.0052763275;-0.7524975;0.6438356;0.005608911;0.003403663;-0.0121837;-0.118615985;1.5503795;1.912985;-0.62942857;-1.124389;-3.2234263;-5.3492727;1.1214143;-4.263035;-2.2480624;0.013784551;1.3051376;3.284301;-0.020980729;1.099461;-2.1640172;-0.010581372;0.96699905;-11.676605;-0.029539635;-0.9389513;-1.0246316;2.1540892;-2.6510954;2.7104588;4.576309;-0.19445786;-1.0984938;0.0009913219;-3.9434521;-2.374133;0.017711375;-2.161139;0.010451972;-0.036434233;-0.0031533488;-0.8056026;-1.0032436;-0.0035193253;2.2917085;-3.0145266;-1.7882518;1.8369832;-3.4070892;-0.042869426;-0.06479183;-1.5904716;0.07244783;-0.057268366;0.05481964;0.04030363;2.516729;-0.17582895;-0.7170378;-0.050439935;-8.486909;-5.189115;0.031675056;0.120361075;-3.8884056;-0.050919797;-3.4460442;-0.5809233;0.05194256;0.012501637;-0.11771975;-0.0023111512;0.42282155;0.06603827;-0.7989393;1.463341;-0.07399957;1.1991038;0.024850093;-0.040483262;0.70638794;0.18674771;0.017642211;2.6483943;0.52244925;-2.5881345;-0.022874612;-0.016662046;0.8957789;-0.2923957;2.674436;0.064740844;0.0057338034;-0.5648383;0.045052152;-0.010117761;-1.939789;-5.326697;3.4687707;0.09702593;-1.559807;-6.8196983;0.06766264;-1.7753974;0.04678103;3.2374504;-0.0075173625;-4.148588;0.027408272;0.07649006;2.7421908;0.98489964;0.9567993;-2.330112;0.017271476;-0.6176537;-1.4141196;-2.170421;-0.01836133;1.897675;-0.039232105;0.10866164;-0.15700583;2.2869704;0.60989875;0.7882476;-5.7487054;0.8284265;-0.0925692;-2.0644064;0.025322359;2.7359707;1.3972156;-5.758255;-1.6955516;1.4657542;-0.38519606;1.5435848;-0.016187051;-0.25504267;0.002733657;0.0058324123;-1.2572937;-0.029319465;-5.011226;-2.3549979;0.020052256;-0.7209802;-1.3336725;-0.039277747;-4.8289037;-0.45808375;0.017810903;-4.0176497;-0.20644134;0.55306095;-0.07899619;0.027483154;0.4131958;-1.4225445;-11.207131;0.08560861;-1.4226826;-4.0676436;-1.6414613;-0.0011824105;0.72342795;1.5765084;-0.10137825;-1.4021577;0.3451128;3.3484278;-0.0052108816;1.5134076;-2.6343305;0.006918203;-0.004847748;-3.4850242;-0.074198134;2.1310937;0.4057799;0.7915194;3.0334005;2.058805;-2.3242078;-0.8252527;-0.59881985;-0.04183106;-0.6151499;-0.45167476;-0.016427506;-0.019171502;-3.721999;-3.678523;-1.0118327;-2.677261;2.2890134;-2.2770915;0.81095207;1.4430617;0.22843593;1.0617024;1.2400012;-0.10069646;0.17166556;1.0332819;-1.6095994;-0.2522373;-3.0952032;1.6267617;-1.6685827;2.2341619;-0.040041126;-0.855479;0.0069991434;1.0291063;0.028699283;0.019164795;2.454141;-0.016401067;-8.211808;0.018665137;0.467143;0.01715589;-1.5120896;-0.02468572;-0.6906773;-3.4008136;2.7584429;1.1058865;0.6494225;-3.034504;-0.007362067;0.59679306;0.25136253;-1.5283232;-0.45670804;-4.985245;-0.02715482;1.159066;0.015673235;-0.013532333;-0.008988779;-0.04040028;-0.06263201;-0.03257491;1.5513926;0.12440915;-1.1997131;2.2254226;-0.07626363;0.64746195;-0.018711794;-0.52255774;-0.066745885;0.0063495818;0.030215606;-1.8647298;1.3726225;-0.88243955;-0.73037475;-0.003834329;-0.031478364;0.0063406727;2.0080142;-0.049224634;-2.8349845;-0.2729614;2.408563;-0.02043146;2.4431863;0.17540821;-1.2891458;-3.421616;-0.18001813;-0.0779697;0.57045203;-0.006335867;4.4078526;-1.2549496;2.3778305;-0.3845001;-1.5155908;-0.22634192;-1.993697;1.9336107;-7.6251597;-1.3661897;-0.04992054;2.0001616;0.7654347;-1.1267579;1.5667609;0.006713175;1.256156;0.012252604;-0.016394863;-0.058339648;4.404005;0.08279995;4.3057203;0.08215188;-6.663241;4.3921957;2.2417893;1.6475497;0.576965;2.1760197;-2.4163177;-0.042708807;0.7452408;0.014288761;1.9968767;0.01853417;-5.17567;-0.051716413;0.2006327;1.240074;2.1801958;-5.0609436;-1.2012483;-1.1184455;0.79423183;-2.1954591;-1.4985642;-2.3953805;1.3611376;0.004814346;-3.6359031;0.027985066;2.9195342;-0.0229934;-0.43625125;-0.07658172;0.8452986;-0.00686106;-1.0601369;2.066229;0.7181284;-0.019552615;2.2956142;0.22334433;-0.0010997554;0.6773842;2.4206202;-0.0094663305;-2.0212991;-0.0010102253;-16.037231;-0.0062267845;0.81785524;1.1020367;-0.87859946;-2.0133784;-0.013357852;1.8049722;-1.0461642;-1.478216;-0.029489487;1.4239843;0.7913286;-0.45363376;1.3609612;0.17445514;0.666687;0.08969181;-1.8234951;1.4175874;0.042814147;0.39293805;-0.012928306;-1.6071674;-1.0656011;0.14562666;2.8965268;1.6945617;-0.112443835;-3.9053946;5.6533194;2.7302675;0.05737982;0.008469874;-0.42542082;1.2006564;0.7543822;0.077974156;2.3071144;-0.01830615;-0.714331;0.45497644;0.034094453;-0.011283474;-0.14014329;0.10542304;-0.007486603;-4.2357707;-2.857842;2.2171285;-2.9693336;0.05066035;0.005061435;0.51777035;1.3442513;-10.073269;0.14359678;-0.039302472;-0.15750352;-4.6882463;0.40078625;0.7283858;-2.7002606;-0.04985965;-0.009561561;-1.8930837;-2.8897185;0.010144274;-4.047225;2.4460087;-0.03185582;-0.5751827;-0.021498619;-0.3969047;-0.22178055;-0.0021496376;-0.037563954;1.0072644;-2.5817435;-0.004442017;-0.98999506;-0.0009044004;-0.50952536;0.012654981;1.4585016;1.0799911;1.9624643;-0.7682345;-1.8541162;-0.022439873;1.9629579;0.33394518;-1.5305028;0.5003897;1.200538;-1.7342137;-0.0075858533;-0.3206014;0.020454543;-0.005383238;2.743403;-0.38593444;0.086265214;1.0255225;-0.04484321;0.032821395;-2.8913329;-1.1641582;0.008775943;-2.033466;-0.05206659;0.1482883;-6.406024;3.6518834;-0.0051886067;-0.16172703;1.2303253;-0.06616516;-3.0847816;-0.041267082;-4.3397713;0.5741358;-1.6945946;2.1089323;-1.1042234;5.417558;-0.013274664;0.91161233;0.18858762;0.21789427;-1.2405262;-0.055401444;-3.185716;0.015576573;-2.1212618;-6.1059527;0.056432266;0.6941484;3.886762;-3.5045357;-0.026771177;0.035639517;-2.4140399
-0.52600455;1.9948518;-3.8691618;3.0826821;-0.009864369;-1.2080345;2.8176572;1.2236859;0.020376166;-5.50936;-0.027901815;4.469365;0.55393976;-1.3194087;-1.1998447;0.7459815;3.1094108;0.19079302;-2.4282115;1.5937952;-1.5670637;-0.036705703;-2.1248665;-4.160636;0.9079964;0.050136164;-0.012650377;1.1556313;2.300765;-1.716156;3.014672;-0.017632991;-1.3633054;2.2090337;0.07792974;1.5483997;-0.08456459;0.665641;-1.1134434;-0.049615506;0.04232909;0.007572357;1.1423234;0.383078;0.02682221;1.5279062;0.028932152;-2.5116792;-0.3102264;-0.04341342;-0.010099484;1.462743;3.4753623;-0.051497;0.005680336;2.1024756;0.035603758;-1.7583737;0.66019833;-0.6437894;-0.02851549;-4.802473;-0.005975486;-6.2324305;1.0235536;-2.4923337;-0.15994011;-1.7334651;0.007697903;0.014984613;0.31675795;0.01938998;-0.003377828;0.21602453;-0.7657368;-0.7177788;0.0013717194;-0.63630086;2.7202466;-0.003278405;-0.01226164;-3.9755654;-0.28188187;0.79861784;-0.031011928;-2.8124838;-1.6593809;-0.017988423;-0.010287913;-0.02371417;0.040089108;-1.3067695;-0.33998403;0.531551;-0.7321576;-3.4666307;-7.7488914;0.2238256;-2.628114;1.7306966;0.018720716;1.1321621;1.5833756;0.025946118;-2.0652652;-1.9261767;-0.05600441;1.0141631;-11.5314865;-0.017150123;0.33312666;-2.3798294;5.361439;-5.1475806;0.9952286;3.3660924;-1.9415296;-0.87275666;0.013454509;0.124277644;-1.9782008;0.020264324;-0.4962659;-0.0025792364;0.009560906;0.0073504765;-2.515837;2.1760006;0.010136562;-2.087638;-4.6738105;-2.501405;2.5889919;-2.2332358;-0.00652657;0.19162819;1.3740642;-1.4217443;-0.010274173;0.025535129;3.0518408;-2.4391484;0.55615693;-0.8667557;-0.009358408;-2.0844402;-2.1534045;0.038437948;0.41675442;-0.2838704;0.023101063;-7.584418;0.35098115;-1.1709273;0.006830966;-0.035150934;0.012531858;-0.76316094;-0.4244252;0.83785516;-1.6765763;-0.029641021;1.6440184;0.039920118;-0.042011585;-3.4929638;-2.9850533;0.0058348025;0.19665399;1.4547864;-0.09647569;-0.0745868;-0.028659916;-0.119183905;0.8025837;-0.99208766;-0.046061214;0.021513157;-4.161154;-0.05179015;-0.024544012;1.6304834;-3.0298562;-0.50858724;-1.3132594;0.5284305;-5.603135;0.6155566;-4.2731147;-0.056606133;0.41009498;0.014686227;-6.847854;0.012118693;0.077311866;1.3207277;0.5930628;3.411278;-0.23374376;-0.023325134;-2.944574;-3.208787;0.7241331;0.026792593;-0.21993278;0.011041184;2.09222;1.1204633;1.3758966;-1.3119159;0.9638895;0.6932637;-0.19228037;-0.06751238;-1.1803432;-0.0612386;0.59628385;-1.3046343;-4.1464005;-2.8300066;-2.9683845;1.0548012;-3.8995595;-0.008070313;-0.27080366;0.033239808;-0.045994554;-2.367128;0.013443038;-2.8656778;-1.889637;0.018480904;-0.23021331;-3.912008;2.4573393;-3.8490155;-0.4126546;0.01620359;-4.438637;0.46888068;2.2032578;-0.02481154;-0.04299463;-0.78679204;-0.17853422;-10.814115;-0.009804751;-0.6812986;-4.3392076;-1.1065449;0.017828507;-7.7928762;2.1359792;0.87043595;-0.44068885;-0.57180494;4.395889;0.0152945835;0.96988165;-0.0563691;-0.05269572;-0.03441919;-0.1760552;-0.12654659;0.051249094;0.061372932;2.9399884;3.5715742;-0.575525;-3.9691408;2.7242804;-3.2855432;0.063488126;-0.9688677;0.40269384;0.0014748228;0.0016778773;-1.4532048;-5.678792;-1.472043;-0.64854974;0.5721583;-1.9416236;1.2525009;1.4364526;-3.2719526;0.91635084;0.7309145;3.8562105;-0.6439196;-0.057578616;-2.2957768;0.092993975;-4.561648;-1.7897602;0.8293881;2.0160398;0.13840476;1.0022656;-0.018845124;-0.8854524;-0.015042169;-0.03511248;0.8763929;-0.027028618;-8.357806;-0.003717021;-0.15054628;0.033305075;-0.7430763;0.01700538;-2.4511502;-1.8146458;0.09295064;0.87752813;-0.9468306;-2.2166774;-0.04479476;0.4077146;0.6914421;-1.9777075;-0.5936137;-1.6674919;0.025752833;1.2340342;1.4918852;0.09193286;0.019689284;0.009728554;2.1570714;-0.01388784;2.7178874;-7.199687;-0.9948622;3.0434382;-0.036721338;0.12112421;-0.012744422;-1.297883;0.006412936;2.8643913;-0.014695436;1.1610054;0.20381536;-1.3433763;0.5482668;-0.037226927;0.0037632298;-0.017745644;-1.5858067;-0.03480581;-0.34507567;3.558354;0.72238755;-0.03744683;-0.2720108;-0.2605509;-3.6437166;-3.20252;1.6088457;-0.16290466;-0.24476625;-0.017344471;1.4205846;1.4048096;0.7177743;1.602957;2.4303713;1.1680167;-2.7876332;-0.34513175;-8.062996;0.8403194;0.00935862;1.8259845;1.3271908;-2.7380435;3.4419365;-0.0021612914;0.51192075;-0.045393642;-0.02639952;0.016410688;1.8183527;-0.059392616;5.4403872;0.018390806;-5.594602;0.3266429;3.6548884;-1.071777;-1.028624;3.726948;-2.28957;-0.10740677;-1.8967767;-0.0048718466;-0.50935435;-0.009520862;-0.62808496;-0.13277653;0.9858973;0.94102424;0.86031103;-2.605812;-1.0394235;0.85429746;1.1764292;-0.75836456;-0.6728384;3.210368;-0.0056397067;-0.027645873;-2.883509;0.049337856;0.80514574;0.040164966;0.29018348;0.043865446;0.28114724;0.03723044;1.5493195;1.879938;-0.76116556;0.013574421;2.29278;-1.5545877;-0.2015533;-1.9531008;0.26188064;-0.00084622914;-1.2507963;-0.040033393;-15.440889;-0.011507447;-0.29924142;0.7543866;0.5558718;-2.1575391;0.005813552;0.9416608;1.8772359;1.7565621;0.023694439;-2.3294847;0.013462435;-0.8196602;3.465802;0.3941438;1.6403521;3.6303778;-1.334999;2.4535928;0.0042564254;3.900236;0.0107347965;-4.938019;-1.7246771;2.1605194;1.6857662;0.22776714;-0.16504148;2.309271;5.0664587;-2.559162;1.3214774;3.0914268;-0.2710124;-0.17390732;-0.39942783;0.40574113;1.4159544;-0.010906107;0.30957088;-1.4763435;0.046055898;0.047945056;-0.019863041;0.150422;0.036963683;-0.9235272;-4.486888;1.152381;-0.36620903;-0.024105728;-0.005942653;0.35795924;-1.5757033;-9.113614;-0.18446435;-0.011925401;3.2743514;-5.301921;-0.2849062;-0.06381273;-1.220889;1.6217089;0.05803025;-2.8213842;-1.4690219;-0.017207809;-0.65241086;-0.4857201;0.01622932;-0.9011922;-0.00647673;1.816485;0.24852245;-0.036548145;-0.011778286;-0.095185585;0.3100072;-0.018874219;2.9277434;0.01860433;0.91356313;-0.00041518285;0.26347733;1.0386573;-1.7732979;-1.2365059;-2.2655597;-0.013932307;-1.7560148;-1.2456294;-3.4188995;-1.8352088;-0.2845096;-1.6184223;-0.021970706;0.12568916;-0.06254279;-0.0012172421;-0.883744;-1.2841271;-0.028309776;1.2247585;-0.021973336;-0.024658162;-2.991696;-1.0527093;-0.04371401;1.2956914;0.016385576;-0.17256427;-3.2707863;3.0373924;0.014185123;1.6582134;2.0087333;-0.9394438;-5.3590755;-0.04163684;-6.2436867;-0.16398573;1.5525811;0.8118992;-1.6592417;4.691388;-0.015254248;-0.23921993;-0.18961863;1.7846972;-0.1920495;1.4691949;-3.6328912;-0.0105973715;-3.563531;-0.41319272;0.004476568;0.80323523;-0.46973813;-5.205591;0.028946461;-0.02844342;1.3559742
1.2026488;0.42287537;2.3058054;3.2008975;0.046634387;0.22844145;2.1104808;-0.14405796;-6.464777e-05;-6.8720303;0.025185326;5.5610776;-1.3952426;-1.5861226;2.3797174;1.2639595;1.065807;-1.5947738;-1.4314885;2.533295;-4.8251276;-0.025152383;-3.2802002;2.1163986;-1.9463931;0.008562588;-0.05076148;2.867412;0.98433524;-0.45956373;4.9999504;0.03709728;0.061220612;2.249293;-3.2787488;2.6088533;-1.5450224;0.49495345;0.44447023;1.000263;0.02155425;0.001389001;3.7978413;1.2777575;-0.021448186;1.4722344;0.016650287;0.5544294;3.424966;0.0125367;0.058627464;1.9772696;0.24887262;0.009000542;-0.0070899837;1.6434367;0.020466829;-2.5608714;-1.2416259;-0.32619074;-0.07989112;-2.433699;0.0022791452;-9.935347;-2.8368301;-4.1603622;0.09620129;-2.2214043;-0.03379758;0.019561095;-1.238317;-0.0241307;-0.027887344;-0.9080904;0.07250704;0.67825377;0.0084305825;-1.4074425;1.3470817;-0.025996407;0.006646139;-1.4980232;-3.0190918;1.2169894;-0.016482364;-2.498107;-1.9888803;0.03263613;0.013081556;0.017776176;-0.029817225;-3.0441298;-2.0302246;-1.0358441;0.057219416;-1.5566539;-2.909649;-2.1478908;-1.9920079;3.3891237;-0.007829845;1.9813191;3.0337186;0.013171986;-0.057536867;-1.8024766;0.001226606;-0.54014605;-12.284049;0.023379538;-0.09165191;-3.0081344;1.1589005;-6.4626107;-2.3115747;-0.95320046;-1.2907878;1.1956406;0.058951873;3.4526422;-2.1978621;-0.006508936;0.7231581;-0.037221238;0.028765405;0.027815543;-0.999435;1.3257302;-0.0005128231;-3.0874834;-0.90055484;-6.6400843;0.06257194;-1.5146286;0.019614583;0.7445119;-0.38769826;1.3263919;-0.0074625844;0.022180721;0.48241043;-0.7171626;-4.0055223;0.9398453;0.025638282;0.8233863;0.6600772;0.06508329;4.662941;-0.89413863;0.0018599442;-4.567602;0.19646971;-2.0667493;0.020132154;-0.0058571505;0.061974514;-1.3834906;0.56958604;2.8210819;-0.24349447;0.018051248;2.6624498;-0.020135736;0.05684436;-2.028772;-2.1453006;-0.028838644;-1.6353828;1.9260503;1.5511186;-0.0128927855;-0.0046728197;-0.029697692;1.7903967;-0.20956261;0.08735266;0.03964964;-4.196844;0.019032585;0.04140661;2.2610338;-1.5133226;-2.2202199;-3.119758;-2.5944724;-2.1617012;1.2540243;-0.3175814;0.011518455;4.5549316;-0.013316929;-6.835283;0.05186752;-0.043640193;-2.5664093;2.963647;1.4072702;1.5283065;0.008439975;-2.3511987;0.9152726;-2.6930592;0.0144066615;-1.5298711;0.0032799896;-0.13634147;-0.29203367;2.8105564;0.02939194;-0.60295016;-1.6567197;-0.0002235288;0.45156333;-2.0999494;0.8323396;-2.0615232;0.52600324;-0.6485554;-2.6615393;2.851625;1.566673;-3.887035;0.015481702;-1.2547948;-0.013379304;0.03275497;-0.18511802;-0.015617284;-0.4161471;-2.2318847;0.052928604;1.8678608;-0.95071256;-2.1233957;-5.1008716;-1.9820623;-0.031558786;-3.9530349;0.78873914;3.1913323;0.14966254;-0.001927355;-0.11729439;-0.45527;-10.062803;0.057668515;-0.29065064;-0.8560127;-0.7867407;-0.017570361;-2.4182484;0.4253302;-0.65447634;-0.47054023;0.45751217;0.30898926;0.06994208;-0.9397166;0.79733366;-0.025616;-0.012749758;0.34885237;-2.0382216;1.3174045;1.260107;-0.18861318;4.540992;-0.8122605;-3.5674484;2.5812774;-2.8859603;-0.0014060822;-0.890767;3.2169206;0.002822954;-7.854793e-05;2.3351846;-1.2681394;0.5866074;2.0387428;1.2481244;-0.76991576;-0.46306828;1.7253001;-5.232924;-0.33822635;-3.2499766;1.946504;1.5622389;-0.12570024;-2.3585298;0.6240319;-0.45250413;-1.5162181;0.5608582;2.35322;-0.29378054;-0.48067725;0.026313704;2.2788012;-0.010736815;-0.0018804068;2.2150636;0.03641966;-6.202465;0.073550135;0.27007517;0.0086189285;1.9604747;0.01529351;-1.5799186;1.4737165;0.16983615;-1.3034236;0.56454045;-4.172881;-0.014173481;-2.860795;0.8316107;-0.28876486;0.041962747;-4.560864;0.009296128;1.1232262;2.1906757;0.762639;-0.06318271;0.019128013;-0.83885187;0.060654435;1.9462655;-6.6441255;1.1050556;1.4784131;0.08436647;-1.9360322;-0.00035263263;-0.5049656;0.048761018;1.4737927;-0.03236464;-0.4390144;0.4082107;-2.6793866;2.7893965;0.021457808;-0.029092193;-0.005654464;0.52832663;0.05783427;0.53379613;2.0399106;0.87358695;-0.07908125;2.9786556;-0.45636156;-4.359636;-2.9119961;-0.07173184;0.18783514;-2.2811356;0.061711397;0.48027134;1.0038315;-0.10491932;0.06852282;0.5673701;-0.4889289;-1.4650167;-1.2107333;-6.7997117;-0.30588275;0.044909507;4.137752;3.3494751;1.2694576;2.792149;-0.016284976;-5.1495852;-0.023742143;0.0015147134;-0.034551978;-0.22633895;-0.007801874;2.061044;-0.010432202;-1.1312815;-3.0554159;-2.5634139;-3.630432;-0.7312354;1.7962688;-2.4264824;0.4523235;3.1399453;2.1987218e-05;2.968539;0.00780002;-0.86571276;0.3488381;-5.06215;-1.3906195;-1.7725868;-2.3326938;0.7745366;-3.2243211;0.2538152;0.8249624;0.5543298;1.8140925;1.972121;0.028345203;0.078131065;0.017679177;-0.4000627;-0.027656874;1.0979207;0.02583207;-2.3467932;0.008617743;1.9953557;2.339116;-0.83836657;0.0726144;2.2260582;0.0125697255;0.16827473;-0.66282123;4.9280667;0.07420255;-4.7398577;-0.026010493;-15.467534;-0.035146926;1.5767659;1.4068779;1.9127342;-2.3255038;-0.040828414;-4.762979;0.777559;-1.3081694;-0.05877857;-3.1226351;2.8269508;-2.6617384;0.40964857;2.5136008;-1.0280101;-1.4399881;-1.707543;0.48075843;-0.030285811;1.7739152;0.062360667;-4.120658;-4.3195763;2.4791985;-0.57940555;3.048861;-0.17076299;-0.65693045;5.5198393;-4.410252;2.3422124;-2.7617435;-0.4692867;0.92090434;2.161941;0.5208487;0.24576716;-0.015007929;-1.0800364;-2.467037;0.035152163;0.055747535;0.016419366;1.2916694;-0.014240142;1.9835037;-1.8547125;0.34552506;0.68883866;0.044266343;0.008279078;-0.37024447;3.6015055;-7.433063;-0.8668932;0.058836512;2.7026184;-7.324642;-0.07235973;2.5764625;1.5787969;0.70817965;0.0024348628;-1.9779409;4.823567;-0.018588075;-2.2426405;-1.5468258;0.007863301;-0.25824004;-0.03386815;-1.9581403;0.23171891;-0.014082437;0.02172755;-3.0107996;1.5799602;0.014128903;2.1551888;-0.0034434854;2.2202463;-0.012483831;-0.43167105;-0.66410834;1.6365496;-1.8873572;1.2000911;-0.040251244;-2.4946578;-2.0076356;-1.5951364;0.6321764;0.4407146;-2.6074471;0.061919827;1.1745869;0.10840026;0.008301778;-0.5959313;-1.4990561;-0.020629479;2.2158325;0.01556842;0.058691252;-4.4871287;-1.0182519;0.074349776;0.6354105;0.037414353;-0.021852022;2.540397;0.46815526;-0.026476221;2.925067;-4.4448476;0.33144304;-4.2630715;-0.0014710444;0.9203861;-0.1424279;-5.493295;-0.8984765;0.03561471;1.8959799;0.04575098;3.2229233;-0.829334;-0.6878718;-3.3288255;-1.8226473;-1.6907595;0.033465978;-3.5010376;4.2104716;-0.015314588;-0.5572019;2.012771;-0.9647784;0.0069146287;0.055404015;-1.2173193
1.879515;-0.7703545;-0.99061507;2.2140548;0.04187129;-0.5161179;2.0837266;0.9722499;-0.018906727;-6.489919;0.0018515902;4.253772;2.939426;3.0163765;3.6824105;-0.9351523;-0.8581539;-2.6611502;2.6558042;3.5265856;-3.0669155;0.16487473;-0.9085309;-0.270416;0.31183085;0.037203643;0.025615413;2.914909;-0.52165544;-1.5034294;-0.12743634;-0.040227238;3.724067;1.411346;-0.4576441;-1.7594945;0.031179154;2.1008172;4.523468;0.62965095;0.023142403;-0.020428577;-0.032418143;1.2797768;0.041820876;0.95006794;-0.04585593;4.4610376;3.690101;-0.044276584;-0.0010114851;0.4353858;2.2547865;0.002817915;0.0036987998;1.758951;-0.005023042;1.7628499;0.24359153;-0.8909827;-0.020925164;0.32201585;0.01249955;-9.753036;-0.13957253;0.69409466;0.044227708;-2.6138687;-0.6063345;0.025201704;-1.1909105;0.017996522;0.026359187;-2.0813062;-1.2001461;0.3346332;-0.0403934;1.0421963;-1.0615692;-0.005012452;-0.007924489;-3.4382143;3.7405071;0.81135744;0.05750828;2.97821;-3.319422;-0.027550688;0.00063531275;0.018227382;-0.004018585;-5.3207836;-0.7695399;-3.0097456;-2.2165625;-2.6867373;-0.027042354;-2.1406698;-4.3656793;0.07719838;0.027146552;0.47963083;2.1650934;0.016964726;-2.8848689;2.4955857;-0.019090688;-3.0656095;-12.489653;-0.014806413;-0.605669;-0.704113;-1.8490412;-6.096016;-5.5491233;0.10949238;0.07456248;1.1224679;-0.0375393;2.1777494;-1.9619294;0.04976745;-0.13723387;0.02396591;-0.026099252;-0.013477919;-1.2885218;-3.429468;0.057951294;-2.641796;1.7366316;-3.165005;0.42456457;0.58074635;0.04262131;0.35713693;1.6483637;-0.113532;-0.003319376;0.05675178;-0.31074437;-0.48533627;-4.756097;1.5317467;0.03923881;0.7897371;-1.9997969;0.022528907;-0.8971603;-0.44128478;0.036438126;-3.8161523;0.6456146;-1.806111;-0.0137909725;-0.040864214;-0.004429849;-1.8883425;0.12255262;2.114054;0.49856704;0.0044082203;0.8914204;0.0695385;0.05615636;-5.5021553;-2.3659804;0.062289678;1.389116;1.0989077;2.4194288;0.008357578;0.027662084;-1.3569478;2.2819128;-1.9156537;-0.09164517;0.05789651;-1.1596491;0.0408272;-0.031045977;1.3383857;-0.7596431;-3.1173227;-1.6143525;0.06942176;-0.059679754;-0.6451217;3.779643;-0.012349295;1.6733534;-0.014978911;-6.226336;0.029751329;0.04840585;-1.3982011;-0.5987333;-1.0943747;3.2876034;-0.0049060653;0.06480608;1.858775;-4.4179916;0.10248333;-4.0268006;0.0068463315;1.3559402;-0.0149466945;-0.50100917;-0.4377505;-0.3683945;-0.39671987;-0.046647366;-0.00033363004;-0.40817967;-0.23740259;3.4767845;1.0187048;-0.73419607;-3.0994983;1.7655455;-0.3338145;-3.691583;0.008550293;-1.0450265;0.011932713;-0.00025251045;0.36944288;-0.01719448;2.4583974;-1.9306763;0.016799921;2.572342;2.4554646;-2.6306763;-6.2357364;-4.2579966;0.02101688;-1.7569113;1.307516;2.4042702;0.06284497;0.017591128;0.8340324;-0.040785372;-9.757677;-0.012343079;0.0055116457;-3.9841728;-0.4885434;0.006392344;-0.19578585;0.7194718;-3.3924956;-1.2866714;-0.07046308;-3.626835;0.008096584;1.2426652;1.1064905;0.013457685;-0.040579278;1.08353;0.60465217;-0.024135971;-0.27264926;-3.247326;3.3343089;-2.3226743;-5.160006;-0.9285329;2.9366174;0.019903675;1.3539479;-0.50405556;0.011592172;-0.025278505;-1.3860135;-3.4583492;-1.465458;1.5519634;-1.8816725;2.475797;1.1363226;2.679689;-5.0159783;-1.1129453;-1.5488111;-0.7364555;-1.9312044;-0.007852421;-2.7158644;2.1040595;-0.91080374;-0.14330953;1.2796758;2.132089;0.1070903;-0.8347265;0.0012613325;2.3428764;0.038330447;0.013472558;0.5029729;0.028574733;-4.220239;-0.014434939;0.124646276;0.07664527;2.897216;-0.0024086768;1.7846437;-0.70084226;-0.78525966;1.7225784;2.965546;-2.6769252;0.0042569838;-1.1010724;-0.024885513;1.0089258;0.06787024;-4.539994;0.05475766;-0.11009252;3.3069484;-0.0681504;0.04845096;0.0022568058;0.09528919;0.011151954;1.0911912;-11.026109;-3.420485;2.2046607;0.022135818;-0.8024878;0.018334322;2.0070002;-0.14220504;0.21898519;-0.008575312;1.7679719;2.7226515;-4.9557385;4.020528;0.0039091874;-0.025448963;-0.020157997;-5.8300457;-0.048289917;2.6289427;1.3460859;3.8609812;0.9856506;1.6934072;1.0243813;2.753136;-2.9451382;-0.5616861;0.10979745;-1.128832;-0.0040310826;2.0124242;0.3712853;-0.8862613;0.09642641;-0.30658704;-0.7195168;-1.1557329;1.5617896;-6.5148325;2.6211154;-0.0062170657;1.4048822;3.855266;4.3682275;2.4680676;0.0050042095;-1.5029781;-0.0442517;0.0023997477;0.052069955;-2.1317134;-0.053561784;1.8327235;0.12404263;-1.9584353;-3.0590696;1.4558233;0.65441185;1.793121;-0.006473094;-1.9187263;-0.15606438;3.5153728;0.023484053;0.78977895;-0.023708737;-1.69939;-0.15937267;-1.5985199;3.9243813;-0.63545066;-2.7098193;-0.8026017;-1.3374494;1.0397539;-1.5165157;1.516047;3.117405;-0.75652623;-0.024800021;-3.6826153;0.008190852;-1.7288243;-0.004616622;1.2591438;-0.058108192;-3.6609273;-0.0054695816;0.86842626;2.2637637;-3.9902682;-0.008216461;2.308361;-0.30069998;0.011903358;-1.8462075;2.0176942;0.022720028;-4.8642874;0.00054459367;-14.816039;-0.0062984223;-3.127453;2.9012437;1.2742232;-3.5828938;0.028657073;0.035038304;1.5226557;4.020029;-0.013165966;2.0694325;0.69786954;1.365312;1.66465;1.4188772;-0.020359246;-2.522775;-1.2441367;0.17502372;0.0038086355;-2.2198727;-0.018031465;-7.3142247;-0.8926935;3.334675;1.0919541;0.28911626;-0.09664588;3.7911677;2.8040483;-2.978956;2.444165;3.5101988;-1.3394563;-1.0811572;2.4612777;0.61934376;-2.3937185;0.010166108;-6.1023655;0.24271615;0.012517758;-0.012557753;-0.08944719;1.3854761;-0.0025216115;1.8599603;-1.9170195;0.72756743;-2.9981086;-0.014790108;0.061509762;0.5482416;0.24092615;-11.542493;-0.30196834;0.0052989777;1.260698;-9.149822;-0.08464961;-0.7352777;3.1304483;-1.1365238;0.004751822;-3.7769034;3.1453319;0.038783204;-0.74456644;0.34636468;-0.013475887;-2.0519385;-0.011324394;0.72074574;-0.21445237;0.0038173567;-0.025677666;-1.2878423;-1.1626447;0.0050388626;-0.45625407;-0.019126007;2.0690985;0.009159733;1.0936877;1.7019252;1.149084;-0.049572334;1.1138796;0.104279764;-2.0921643;-3.442445;0.055690374;0.6764529;2.191856;-1.8959538;-0.004404895;-2.5088053;-0.042656217;-0.019642185;1.6651818;0.32631782;-0.03845355;-1.6791816;-0.0027841863;0.053731315;-3.0994012;1.1177007;-0.024382466;-0.19725782;-0.047887795;-0.032147583;0.50082505;-2.4357555;0.0011677032;2.7987025;-3.7151208;-0.35551205;-5.4285684;-0.023696087;0.7690961;-2.2047784;-4.425068;2.2318337;-0.20210794;1.8737539;-0.05875716;0.9367757;-2.9515417;0.22525418;0.41416734;-0.47466445;-1.763548;0.08291003;-4.3833065;-1.4105917;-0.0036381711;-0.18485099;0.7177785;0.8161719;0.025108712;0.009248331;-1.3001274
0.7828236;-1.4845669;-0.29743233;0.93800145;-0.032496028;2.7076914;0.35262984;-0.34581202;-0.031785183;-1.9721129;0.0008333373;2.8999639;1.0202937;-2.559134;4.1263266;-0.26998246;-0.05913801;-1.0215;2.9111295;0.786032;-2.5923927;-0.057726387;0.9535267;-0.39143428;1.0406752;-0.032343812;-0.029527318;3.166311;-0.98228556;1.6993493;-4.974948;0.014370058;1.6197038;1.3107815;-2.3412192;0.06301137;-2.896388;-0.7098583;1.1419326;0.62847877;-0.0029687874;-0.0022267639;-2.8921912;0.18467082;0.069121495;1.2720301;-0.016190708;2.2887685;0.40315586;-0.01585153;-0.034652494;0.81433403;0.9633477;-0.02408838;0.0766033;2.2946835;0.04381763;2.6952126;-0.6146164;-1.8873925;0.03366456;0.019967468;-0.0028270027;-8.478873;-0.47360584;-1.6856556;0.7474307;0.34705964;0.8621924;0.005700706;-1.7571685;0.024858413;-0.021721344;-1.6443905;-0.97722936;4.4191875;0.03749709;4.1067185;-1.1615835;0.014890725;-0.0062566707;-3.7257545;1.1159391;-0.5996135;-0.048647024;-6.2550597;-0.69536;0.047455072;0.009739078;-4.4811553e-05;-0.054134674;-2.87997;0.011514337;-3.5538344;-6.5540295;-1.0817829;0.29247424;0.3308427;-3.6214511;-2.6315644;-0.029872539;-0.19401793;0.59231067;0.009053917;-0.7395883;-3.7086854;0.027852273;-0.96601963;-11.781637;0.007007676;1.0914266;-2.049086;-1.8881923;-5.702121;-4.0193377;0.48314357;-2.076676;0.57126796;-0.045658138;-0.6530127;-2.4328632;0.018916842;-0.13396019;0.0075100656;0.0018035402;0.008894123;-3.5156307;-0.11996938;-0.023782287;-2.7609346;1.5732862;-4.980619;1.9778967;0.27550432;0.046373952;-3.6668894;2.0892098;-1.5759261;-0.027587274;-0.012879379;-2.4681823;1.5931242;-2.3062658;-1.3001624;-0.021179756;1.0871737;-0.86986285;0.09790381;-0.5675652;-0.28675056;0.0038237087;-5.3461566;-2.1766937;-3.6151137;0.038641825;-0.0056729987;-0.021659553;-0.082248464;3.1831505;1.2145452;-0.18355332;0.014614925;1.4014882;-0.007984196;-0.008934747;-2.4520597;-1.1237501;-0.012891839;-1.5855682;-0.3155193;2.6533675;-0.017807174;-0.0043594283;-2.945942;3.2643745;-1.1920425;0.08596205;-0.02685678;-2.3617637;-0.008135262;0.011716545;0.3694959;-1.4331051;-3.0238197;-0.37170467;0.5878165;-0.25568256;0.03023799;1.9121652;0.008881447;-0.3069912;-0.044742286;-2.8273609;0.027488528;0.030023621;-1.8991317;0.4190625;-1.1041644;1.2854223;-0.02650098;-1.7258587;2.7260032;-5.6483307;0.002259073;0.5416147;-0.045968562;3.9053679;-0.03811917;-0.049817927;0.19851004;-4.5644608;-0.32226473;-0.035676003;-0.13431045;1.5297645;-0.06564173;2.4006844;-0.38076022;0.39350587;-2.7427588;3.80596;3.3507614;-5.86233;-0.019212069;-0.03214785;0.037595335;-0.04272321;-0.14578128;0.016013287;-0.9032449;-2.441742;0.09525976;-1.0554887;4.671733;-1.7891307;-3.6288848;-3.7289717;0.018633116;-0.55255216;2.1152189;3.3654418;-0.056295864;-0.039536446;4.428304;1.4178406;-8.421422;0.057210557;0.12359187;-3.6090426;0.84435356;0.0087827975;0.8024378;2.3737452;-0.63424057;0.009381762;0.03300053;-1.4857146;0.075231306;1.7144239;-0.27011603;-0.051966757;-0.025531514;1.3371102;-0.44818944;2.346332;-2.1944842;0.8998861;3.759801;2.6405582;-3.7808042;-0.8796101;-0.5458132;0.029537693;2.508822;1.3344629;-0.013927526;0.0030552119;1.2817076;0.28428715;0.82406586;-1.7566253;0.20254779;3.229622;1.4763076;3.8378797;-2.3848433;-4.0425806;-0.8086924;2.2432652;-3.3964748;-0.021243945;-3.2894883;0.009202458;-0.7045353;1.3584356;3.4059935;2.4401174;0.49186134;3.864892;0.013710453;1.8264792;-0.02375018;-0.011510812;-0.33963332;-0.008947749;0.27455467;-0.024306793;0.217607;0.028645905;2.068074;-0.008849009;0.7761579;2.5265596;0.58643436;0.13390961;3.698853;-2.7909136;-0.05027513;0.013211128;2.7576451;1.599978;0.8708586;1.6391733;-0.011319296;-0.5871428;0.5567217;0.76413465;-0.026977396;-0.011909386;-2.0058796;0.018732656;1.3429164;-9.714795;-2.1387699;3.0653458;-0.036954295;1.9077406;0.02130163;0.58000666;0.24244675;2.1709886;-0.00016607948;-0.59710217;3.9429262;0.45264003;3.0185976;-0.03743489;0.0061413054;0.043072138;0.4868876;-0.005437674;2.8016376;1.1494981;-0.6327589;-0.15951751;-0.25513002;1.073073;-3.4797204;-5.4937754;-0.29724813;0.10835447;-0.60081863;0.004730081;0.41766024;2.0167212;-0.51706064;-1.5109754;1.8658891;1.576287;-1.217093;-1.4673302;-6.1879163;1.4674232;0.013850465;1.1210521;0.4466543;5.2719355;2.4815938;-0.0051922672;-2.8151798;-0.01059746;-0.06662984;-0.046686646;-3.3776906;-0.027611108;3.030473;-0.0021438526;0.12741272;-1.3276227;0.80051017;1.6204854;2.6226976;1.6130496;-2.0509706;-0.0170677;-2.8572912;-0.04635439;-3.23515;0.030439537;-0.76180285;-0.032054804;-2.6826253;0.61299145;-0.6060776;-0.93583757;0.825475;-0.09849659;-0.611535;-1.8726209;1.9960797;2.5913491;-0.36426747;0.057915643;-1.5396038;0.010746321;0.8695931;-0.030938232;-0.50707155;0.10116;-2.2106965;-0.0011242105;-0.26618037;2.4401915;-0.8870729;-0.022910796;2.2575526;2.5958302;-0.060974922;-4.0356226;0.11397563;0.014840682;-4.500613;-0.019357799;-14.205434;0.005282951;-1.1229252;2.7558415;-1.366614;-2.2076073;0.031699836;-0.5126404;-1.3502682;-2.2454603;0.0034443045;-0.24151434;-0.03848089;-1.2246269;1.1738032;-0.99296236;-0.3551058;-3.1399493;-3.4513032;0.8254303;0.027045306;-2.4707978;0.042146843;-2.6646461;1.1927531;4.497042;0.33135048;-3.7003782;0.2847286;4.085162;3.9749956;-0.3502479;2.3087096;-5.245859;-0.85727054;0.99175245;1.4554405;0.01666327;-0.42152706;0.010150744;-2.450899;1.3595766;-0.0062807635;-0.0032903499;0.0066629387;4.2473955;0.036670595;-0.38103244;-3.8318703;-1.4528736;-3.9497008;-0.037686072;-0.0021115798;-0.080411956;-0.3526924;-8.0676775;0.75162995;-0.033227928;-2.2305746;-6.085654;0.113100156;-1.6314257;2.283796;-1.1575508;-0.009199155;0.30966046;0.5538869;0.054998215;-2.629931;0.7174587;0.046532497;-0.13236794;-0.0049347226;-0.8468046;0.55480343;0.0011459964;-0.003579878;0.64972895;-2.9675925;0.01565288;1.4108499;0.001087459;2.748036;-0.064620554;1.3663723;0.6776644;-0.61226726;0.5386858;-1.4226588;-0.003605821;-2.4380476;-1.6472684;0.50931334;0.44937012;1.9454535;-4.7106028;0.007153652;-3.3151877;0.010612937;-0.0029562295;3.6715593;0.22275248;-0.025145303;-1.6983495;-0.06865865;-0.023134599;-1.151208;4.741664;0.030399663;-2.1008012;0.007990615;-0.014060144;-0.19477627;-4.071669;-0.0043377266;3.5496824;3.1422944;1.1657928;-1.9227297;0.02975173;-1.9438046;-1.5243293;-3.9151368;0.42796654;-0.09364241;2.5435634;-0.013285039;2.1606054;1.0439174;-0.779447;-0.13951123;-0.37273505;1.2607764;-0.024983935;-1.6741498;-2.3128755;0.015942516;-0.45229587;4.812366;1.4481212;-0.07196865;0.0017525792;-1.6717985
-0.42811263;0.904262;0.24793978;2.2777848;0.0015764335;-0.25500506;2.1903045;1.5865716;-0.037715275;-0.6602364;0.0117565915;2.423768;-1.6585368;-2.1632388;1.3647901;1.2074467;-0.5127451;0.061429422;2.865399;0.28131613;-3.7623801;-0.10041953;1.4178344;-0.5584093;-0.14852756;0.02552583;-0.057026856;1.8662374;-0.6546135;1.9128665;-1.691165;0.0024690283;2.006458;0.10503411;-0.957633;-2.0876722;-3.2445858;1.9975772;0.91278535;1.7763208;0.020271158;0.024453316;-4.2701826;0.7613812;0.00027099476;1.2905874;0.039030463;-1.9368373;0.99922794;0.011988791;-0.013322257;-0.56544304;2.1536932;0.015951723;-0.019017315;3.1286232;0.003990579;-0.55275065;0.19600627;-2.2264407;-0.06042192;-1.6212156;-0.044657756;-7.1206956;-0.122966826;-1.6421183;0.5769585;1.2135983;1.5882663;-0.061901323;2.8177907;-0.016757114;-0.019534457;-2.35212;-0.6449882;1.963712;0.03230894;1.5127715;-2.7820413;0.009925117;-0.03580504;-2.3448644;1.349067;0.7748453;-0.019095568;0.29330197;0.8962426;0.006240535;-0.03176688;0.0043927524;0.027419608;-0.61369133;1.693674;1.7661278;-0.6312292;1.8777417;-2.0390232;1.0628042;-7.5563555;3.1406453;0.0070342617;1.4877157;0.54100364;0.006253642;0.0568784;-2.7926095;-0.008124705;1.6274335;-10.816386;-0.019761525;1.5701715;-2.1219337;-1.2168404;-3.8271804;-1.9990205;0.540019;-2.8946064;1.199555;-0.009559736;-2.2266245;-2.6680813;-0.0045368434;0.18994606;-0.025264684;-0.023701813;0.025907427;3.1826446;-1.78103;0.00067667733;0.72782356;-0.50165683;-4.1815324;-0.6715988;-1.8154951;-0.012344185;-2.547485;4.246171;-3.736597;0.054180663;-0.02588427;-4.3766823;-0.38395452;-0.04311898;0.38553786;-0.030625654;2.5120056;-0.53278345;-0.06378937;-2.0029607;0.88461035;-0.010262524;-4.0504093;-11.910018;-1.4367638;-0.045553256;0.0507498;0.028617514;0.36602795;2.793702;0.5596078;1.2532425;0.0058684545;0.95229614;-0.00091230153;-0.04122396;-2.8872445;-1.0137919;0.028089337;1.5156236;-2.0885046;2.181556;0.034359183;0.0055077686;0.1089249;2.4991639;-0.2719317;-0.03899497;-0.020963142;1.415081;-0.056312207;0.023588017;-1.9547127;-3.9142876;-1.6513301;0.35998794;0.42516935;0.034516163;0.4606504;0.21006697;-0.047149554;-0.77564234;0.022213655;-3.0438523;0.06697027;-0.0061844983;-0.91666514;2.6167593;2.602036;0.76314825;0.011191563;2.1076553;1.1881442;-0.09927028;-0.027416406;-1.3371985;-0.00027850782;-0.83986545;-0.007256109;-1.3163751;-0.3460651;-6.409045;0.28254002;0.07107216;0.06542339;-2.268672;-0.026840081;0.24938644;1.1071596;0.5901635;-1.6155151;0.73690456;2.4273849;-3.1917272;-0.08842805;2.139481;-0.029026924;-0.024329964;0.30852303;-0.020884559;-1.6904025;-2.6878793;0.14145064;0.3169769;2.1167772;0.0331853;-2.6558216;-1.734581;-0.019825082;0.77967924;0.7327519;1.1523472;-0.09011535;0.03758164;1.0033487;-0.15868011;-0.99024534;0.015791547;0.90215486;-5.386368;1.2811718;-0.0388099;-2.7239757;2.0491507;-2.0548635;0.29320842;0.11467352;-1.6721146;-0.009017179;1.8796291;3.259744;0.015473355;-0.003211121;-0.45296386;-1.415825;-0.9230114;-0.9269547;1.7252756;4.027889;2.4924314;1.2830095;0.42167953;0.19337633;-0.029863413;2.423535;0.07667099;-0.058059935;0.016459297;2.189066;1.3485152;-1.4617629;-1.5461928;-0.6675278;-0.17397517;2.276893;2.436794;-0.8735958;-0.33561116;0.036696114;0.5003658;-0.24527156;0.022860909;-0.87732285;-1.8391315;-1.289485;-1.4584421;2.7546225;2.519625;-0.27937937;1.9472975;-0.01777183;1.5467056;0.022132851;-0.020671168;-2.2007473;0.015703673;1.893385;0.028907439;-0.060133573;-0.009918335;3.625363;0.067666546;0.043845043;-3.9326966;0.47648302;-3.1490254;1.2438775;-3.175971;0.050661765;-1.3791399;2.3102257;1.2396438;0.8249284;-0.7300767;-0.07938545;-0.8451514;-2.2661166;0.0052659027;-0.023271462;0.014144262;-2.0651145;0.027403342;1.4352437;-9.917163;-1.019295;2.1623363;0.05853701;1.2572452;-0.017521637;2.8749917;-0.03700915;1.5811869;-0.036747042;-3.932973;4.168843;0.29292604;1.0699939;-0.023931213;0.01983671;-0.0125591885;0.06417916;-0.018687613;3.2801208;2.773359;-1.873757;-0.09801836;-1.0770823;0.4533857;-1.3588239;-2.5831754;-0.029319018;-0.28830647;-0.97430074;-0.025741534;0.18614398;1.9226172;0.5408284;0.016106358;1.8948542;-0.39042413;-1.1349473;-1.7313467;-5.3494105;1.760639;0.00246398;-0.18639247;1.130578;2.331902;4.096913;-0.043265007;-2.2145944;0.007580392;-0.008871221;0.040618364;-2.5730855;0.010525893;0.0501709;-0.0070456937;2.50322;-3.0243444;0.8040894;1.9846765;0.008792896;-1.5632777;-2.2864645;0.01390594;-3.1017785;-0.035201762;-1.9802951;0.023775576;1.3934543;0.027599113;-1.1792824;-0.5912256;-0.32732615;0.60694194;0.77824223;0.20262821;1.6989877;-0.20458142;1.4841257;-1.5836878;-0.33917135;0.009078601;-2.2888756;-0.036621623;0.24915937;-0.10793432;-0.566129;-0.010570729;-4.101759;-0.028326305;-0.08750555;2.4230933;-2.4840426;0.009388446;2.4735718;1.0189214;-0.035311427;-2.3710365;0.5127553;-0.011788596;-0.94616103;-0.04189131;-13.574103;-0.010245887;-1.8152729;0.6745061;-2.074296;-0.19911176;-0.017388597;-0.56090003;-2.1237555;0.58157015;-0.021612301;-3.87553;-0.2513698;-0.8038085;1.3339831;0.18195936;0.7531599;1.1488019;-1.9353318;1.8639042;0.015374807;-2.0814035;-0.02397814;2.2872322;0.62690467;3.9867947;1.4195706;2.0686617;0.019856859;4.298569;2.3732932;-3.6990778;1.753102;-3.6530654;-3.9164166;0.5360768;0.16535369;-0.1512348;-0.051785056;0.017917013;-5.039325;1.1459854;0.013658637;0.0056164004;0.006180016;1.3592056;-0.015175024;-1.4453244;-3.2872355;-4.8745346;-2.5049934;-0.00020439566;-0.03642902;1.6628946;-0.7030356;-6.0808125;-1.0672135;0.061286025;-1.44585;-4.388702;-0.059041034;0.84638065;0.08158054;-1.9935759;0.0030857816;-0.71596056;2.2217689;0.01208764;-1.0399779;0.28415108;-0.03968405;0.87574977;-0.0102659445;-1.7813447;0.07691671;-0.014533212;-0.03414137;1.9662304;-1.754036;0.011522627;-0.8031007;0.011727217;1.845803;-0.0011476687;-0.5425085;3.0659015;-2.0221367;-1.4594334;-0.1384663;-0.013277687;1.6162437;1.2526767;-0.78256714;-0.7039473;2.240988;-5.096324;0.012624109;-3.6647003;0.015608237;-0.0021071848;-1.7045026;-2.30967;0.052667994;-2.1213093;-0.019096123;0.02907962;2.4713893;2.4628558;-0.0070723174;0.2744759;-0.01762658;-0.08423888;-0.5139577;0.7898582;-0.088884994;5.1075096;-0.66526145;-0.54630315;-1.4996113;-0.015957018;-1.0153599;0.63571304;-1.7063837;2.179121;0.76599056;3.0020833;-0.045326173;2.2342641;2.9513054;1.0600361;-1.7933414;1.0169733;3.3944478;0.032773297;1.713322;0.723341;-0.04752146;-0.65042317;3.9539876;0.7342169;-0.033801533;0.016684739;2.7833776
0.2582419;-0.71116406;-1.8834414;5.250215;-0.004978956;-0.45447242;2.655062;2.7267566;0.012930593;-3.4053638;0.014551672;2.3145084;-0.8048609;-0.21307807;-0.101308465;2.0762458;-1.7348754;1.9055221;1.4978154;-0.11712394;-4.2047496;-0.023002576;2.8213243;0.17280532;-2.369951;-0.033209737;-0.146192;2.3929868;-0.9243218;4.0344005;3.536454;0.057207353;0.5284152;-3.6016338;-0.62681866;-4.6731353;-2.8307362;-3.4660394;-1.0155842;-0.6599028;0.014567855;-0.023592498;-4.4897723;-1.3390399;-0.010435117;2.0827925;-0.005166587;-0.4104558;0.94308496;-0.0018990354;0.029607886;2.5534744;2.2229989;-0.01889198;-0.019089283;1.2540096;0.019600036;0.35117087;-0.38293627;-0.8193378;0.0121172685;0.36209348;-0.0046645184;-7.6551995;-0.10047622;0.98784554;-0.48551494;-0.020715691;2.2823312;0.00719826;3.2884455;0.030715564;0.016224016;-1.4105774;0.02241843;1.2744635;-0.044614542;-0.45489082;-2.966386;-0.036420953;0.050817344;1.340924;2.373553;-1.265428;0.0009589651;-1.7193166;2.392274;0.030837942;-0.011162925;0.00523322;0.030589173;-0.5447202;-0.39288697;-1.6316531;3.542917;4.64131;-1.0392786;1.13519;-4.9770555;1.7117082;0.021488942;2.3600986;-1.4302127;-0.045499165;0.23504625;-0.9655731;0.05142757;1.5347068;-10.787402;0.028555458;2.0473707;-2.4246056;-3.3232138;-2.9728734;5.3869386;2.3011374;-1.2094376;4.0133967;0.008433545;-3.604849;-3.5704513;0.08648162;2.2815228;0.0054023447;-0.0031945487;-0.0021264078;3.4908178;-1.1862825;-0.013499768;0.41470692;0.10529973;-1.9151781;1.5759583;0.07439455;0.007081033;0.4963968;3.8557084;-1.8200972;-0.028925855;0.054414716;-3.6786551;-0.69003433;-1.4825574;2.713185;-0.026640283;-1.4895117;-4.509815;0.028737674;-0.23597175;0.8539534;5.224966e-06;-2.7480738;-14.396133;0.14048213;0.0077774907;-0.005659157;0.07942337;2.6714396;2.8316884;-1.1458132;-0.47472525;-0.023684187;-0.40083188;0.00933425;0.016045637;-0.7751291;2.0059109;-0.059676435;3.2179115;-4.87168;2.5073109;0.01829738;0.013229132;1.456034;2.0433116;1.0824723;0.0068544433;0.022767833;-1.7838438;0.094565734;-0.03532016;1.0363177;-3.7760518;-0.00084663584;3.7321022;-0.7543254;-2.1826327;1.0653065;-0.9290953;0.06383279;1.6406895;-0.015888099;-3.035522;0.019320954;0.022930365;-2.5637674;0.29674575;-3.577179;-0.59192705;-0.02040623;-0.19811918;0.17020045;-0.50279397;-0.013679308;-0.45003733;0.007320333;-1.6051573;0.027647527;-2.1546683;-1.3951442;-13.502701;0.5836125;-0.025947383;0.020262605;-1.5048953;0.04585901;-0.7392363;3.9393554;3.8749561;-3.9469864;2.0892162;1.3988136;-1.3417584;-0.003930567;-0.1658696;-0.023668272;-0.03270931;0.94788975;-0.051215973;0.8971078;-3.559357;-0.0019510863;1.6267953;-1.1864339;0.0072213532;-3.1379507;-0.35167563;-0.027732987;1.8192762;-0.60787594;1.7235126;0.05148497;0.0073511945;-2.4207418;-0.29907894;-0.16473985;0.04677701;-0.5441285;-1.4926919;-0.22980088;0.028437894;-1.5540739;2.4261377;-4.7285285;-1.372596;0.08743223;1.2691417;-0.052039057;2.3251207;1.4361634;1.911632e-05;0.048847895;-1.4881507;-2.9108553;-0.6383188;-1.4065703;0.74835795;4.157837;2.660735;-0.003273262;1.2670342;-3.8409834;-0.019741157;-1.0304935;-1.5533308;-0.018464714;0.0069138;0.65952975;-0.46300387;-1.9898231;-2.5390034;-0.01331306;-2.1619582;1.2855366;1.2475396;-1.0686285;-0.5638978;0.84950763;0.86191475;0.8029337;-0.06626458;0.5791787;-2.83338;-2.323867;0.14089489;1.6722255;3.0427063;0.806668;1.238294;-0.013541309;-0.79796124;-0.06071265;0.017789746;-0.15639204;0.045393612;0.9109903;0.025404982;0.15946642;0.04154815;2.6622171;-0.014991661;-4.0013356;-4.6212;-3.2028935;-3.794833;1.4394059;-1.1154819;0.0010862778;-1.289481;2.2877316;-1.551884;2.8702826;-0.89743716;0.024330493;0.42510822;-1.0166113;-0.008082807;-0.21413027;0.023348084;-1.0746876;-0.01760799;-1.2557261;-8.3827715;1.5003401;1.7644335;-0.050314143;0.7929061;0.025856065;2.0345435;-0.07236551;0.51717;0.022074547;-2.3643138;0.736316;1.8198568;0.17344944;0.035147794;0.0268237;0.035937026;-7.9809318;-0.016408343;1.1261647;1.6366074;-1.0725965;0.00028587072;1.6380024;0.20408867;2.0930233;0.5144057;0.45632735;-0.027110271;1.7630328;0.034174345;2.2800872;3.4274173;0.9460097;0.72766197;-3.698012;2.3983877;0.94652057;-0.18910873;-2.864657;2.2345214;0.03643481;1.0501971;2.3134413;2.9970415;4.0535293;0.00090461917;-0.48913714;0.042585187;-0.0023802319;-0.041055437;-3.2838585;-0.0065539437;0.28543252;0.003817479;-1.2658952;1.88436;-0.72735256;-0.030216396;-3.29083;-0.1693303;-3.2805872;0.004152825;-4.74778;0.03184759;-0.94147325;-0.015301267;-1.8018512;0.038080227;-1.2394416;3.3575547;-0.55617636;-0.29839447;-0.35908666;1.0550466;2.965505;0.558493;1.4590019;0.30682343;0.9532073;-0.027492534;-1.8418645;-3.5469824e-05;-0.946284;0.95295435;-1.038792;0.009248213;0.4646353;0.0077305282;0.16323106;2.8497963;-4.797632;-0.14789629;2.9595282;0.18587424;0.092417955;4.081182;-3.901434;0.0061013093;0.1729225;-0.010554049;-13.763114;0.054217048;-3.7325418;0.7372189;-1.58334;-1.9180082;0.0012000994;-1.0010349;-1.1378417;2.7032015;-0.020391284;-6.7815776;0.9943727;-0.9129144;0.7352549;-1.2287953;-1.70955;2.9357538;1.3194077;3.3512824;0.01781772;-1.987133;-0.011194014;0.7673744;-0.72938967;2.8064544;1.0344828;-3.966599;0.066278994;3.5018241;2.7835085;-2.698249;2.14118;-3.4708307;-8.371215;0.9713516;0.5942543;0.32238922;-0.5682229;-0.016210666;-4.571285;-1.9283578;0.014411328;-0.00031428545;0.0057743015;-0.094665796;0.042343445;3.066823;-3.0889797;-2.8850574;-0.3953038;0.013545553;0.007522127;0.52926075;-0.8663466;-4.020236;-3.7540195;-0.028186593;-0.5206437;-2.8219273;0.006559984;0.6316158;3.3516;-0.28290868;0.0034667682;-1.4570594;3.270774;-0.03072307;-2.2993062;0.27276;0.03972098;1.8262663;-0.018131157;-2.4916925;-6.53474;0.110912494;-0.007723495;1.0029367;-0.5379644;-0.008675719;-0.9667374;-0.017075002;2.2605796;-0.022707084;0.9939955;4.652005;-0.986043;3.3216789;0.45446253;0.0014874758;3.3404098;1.3461654;-0.23108459;0.15499519;3.264537;-4.139499;0.008646563;-0.7563188;-0.009041092;-0.011508622;-1.3701006;0.41542298;0.04547416;0.8758357;0.029337317;0.02439067;2.0995412;7.0383983;0.030154644;0.027506964;-0.05409351;0.004065347;-0.24792226;-5.339585;0.04191197;-3.3365512;-0.023254566;-0.32469532;2.2287743;0.015774129;-1.2242982;-0.94580454;-0.3798713;2.2637324;1.3195223;2.1740825;0.02988951;2.1794941;-0.95670056;-1.3256357;1.0534489;-2.326469;1.625169;0.06706287;3.5738719;-3.4457517;0.03618823;-5.5438747;-0.32202238;0.90777683;-0.09834678;0.03846284;-3.3734713
-0.96481943;0.6849038;1.1734427;3.9235537;0.037227444;-0.14176512;1.1870241;2.2427683;0.017608024;-2.858481;-0.0497211;-0.03342924;-2.852941;1.721235;-0.42969686;-1.0236323;-1.1008981;3.5696547;1.9273162;2.4423246;-4.390087;-0.05662103;3.2206802;0.81773734;-1.039869;-0.012201708;0.90696704;4.3645115;1.229897;4.3360224;2.0995576;-0.02522533;-0.64398056;-2.6006126;1.7902082;-4.48835;-6.755099;1.0287622;1.2947369;0.7628517;0.016423805;0.04862744;-3.2219613;-0.018093012;-0.043964207;2.1050515;-0.0028000372;1.2148701;-1.0244868;0.024525335;-0.014604906;2.657003;4.144636;-0.024452506;-0.05993763;-0.32014918;-0.06552978;0.31055203;1.3236085;2.8276625;-0.04365713;-0.45179668;-0.036453743;-5.548254;-4.694619;-2.7358646;0.15229763;0.5243271;2.0796833;-0.004925848;0.16309252;-0.04549586;-0.010897399;-2.1099224;-0.15824729;2.8806365;-0.017330749;-1.925985;-2.1631296;0.019757608;-0.022877764;3.1071763;0.17856915;0.21109746;-0.017225435;3.888866;2.5361528;-0.03330638;0.0107533615;0.016515987;-0.035816774;-3.1003675;-0.06827992;-1.3683095;0.44778654;0.21689399;-2.67956;-0.25934938;-4.1625395;-0.34699315;-0.018758234;0.86708814;4.171545;-0.023086732;-0.17278096;-0.2246508;-0.018888611;0.4542717;-9.577574;-0.08582756;0.40475467;-3.4655771;-2.402884;-2.3325686;2.7640715;2.7278798;1.0568237;3.8223484;-0.062175684;-4.3895497;-4.4895453;-0.052194603;0.021232575;-0.011388446;-0.022703525;0.009140894;1.6358752;-2.720763;0.010569179;-4.028019;-3.2139113;-2.6039712;2.8330996;0.41740045;-0.00985748;0.64919716;0.06811437;0.35574752;-0.015506772;-0.015990961;1.573616;0.20266569;-1.916036;3.0959783;-0.03464827;-3.7445114;-0.03323565;0.013322621;-0.5799696;2.2236638;0.006268468;0.33275256;-14.85599;-0.85797244;-0.03741544;-0.0011193436;-0.036287725;-0.5657265;1.6317487;1.7557054;0.29217964;-0.0268697;1.7503445;0.035449076;-0.028517088;1.3765398;-0.17213692;0.020227768;0.16528714;-0.69188285;0.34461904;0.007897224;-0.031915836;1.0796586;2.420978;0.7420366;0.054251015;-0.030688815;3.206819;-0.028696401;0.007930854;4.1066513;-1.4932642;-0.06757108;1.7618206;3.7217228;-1.0878459;1.5805364;-1.7551357;-0.081563964;1.7921035;-0.018796908;-4.9192343;-0.010495086;0.05096292;0.1147259;-0.6672344;4.1887307;1.5717235;0.04213131;-0.70451474;-0.04412587;-0.41345197;-0.04059447;-3.154397;0.006866566;-0.17448157;0.02205128;1.0067763;-0.45272973;-17.871426;0.37021115;-0.04266158;-0.063786425;-0.27837476;-0.052589837;-0.9629908;2.36204;3.1198413;-4.580527;-0.09150226;2.2250123;-0.03540354;-0.05473474;-3.0356965;0.051330008;-0.05435562;0.25090238;-0.012862386;1.3618528;-4.519274;0.008725117;1.8941402;-2.3133376;1.3755138;-1.6614026;2.481206;0.04603945;-1.0327129;-0.5988029;3.2874446;-0.13760614;0.010879424;-1.1031246;-0.9241029;0.6458384;-0.0011562097;-1.3514119;-6.1008177;0.7710792;-0.0010517098;-0.5435862;0.4954523;-4.0944295;-1.26094;0.06238809;0.95003027;0.025028085;2.2432277;-0.74191207;0.010573652;0.011945287;1.2878587;-2.6758173;0.8969562;0.8528127;-0.3132602;4.805706;0.9409909;-3.040276;0.260387;-1.6283525;0.18064007;-1.0888481;0.8102046;-0.0014561075;-0.03923892;-1.428077;-2.189167;-3.2440817;0.59867513;-5.9643817;-5.65123;0.45952892;2.6062279;-1.351612;-2.1052063;1.7526537;-1.3072468;2.5535877;-0.020815745;0.24691172;-1.37225;-4.273548;-0.73227805;4.0109196;3.621068;-0.46912518;1.1608547;-0.062753476;0.94747186;-0.020849464;-0.030382194;1.0150148;-0.033350833;0.12962015;-0.07035013;-0.37344906;-0.037363097;1.8184384;0.00038450133;-1.8389295;-3.5152695;-1.5974642;-1.4264402;0.7499245;-0.20984332;-0.040134434;0.79648197;4.378339;-1.6058726;2.075391;-0.05214671;-0.012511533;0.3331626;-0.8707913;-0.28851557;0.94974494;-0.008273932;-0.41257122;-0.02602432;-2.9008596;-6.5558987;1.2781625;3.129705;-0.0019117143;2.678765;-0.015534845;0.06826777;-0.02728814;1.1838046;-0.016319871;1.9602374;0.4863271;0.20575926;1.860339;-0.029006148;-0.04994399;-0.03640178;-5.2435865;0.007957666;0.88776726;0.43069312;1.04176;-0.047915775;0.9462273;-1.3472118;1.3596735;-0.65371794;0.63149667;-0.06088116;-2.0823412;0.054826055;2.4368303;3.6826644;1.9211258;0.2947242;-0.7056887;0.5394127;0.27752674;3.5746436;-1.6693659;1.569463;0.057645634;4.4493628;2.9537542;4.614687;3.685762;-0.0044272547;-0.09442739;0.0017494806;0.020369733;-0.009750919;0.3414721;-0.013945991;-0.3550298;-0.047088996;-0.5890168;2.369508;-0.9609112;1.0292683;-2.2664328;-0.64579946;-4.034329;-0.044845443;-3.895002;0.0137082245;-3.069371;-0.012385445;-2.8851972;0.008776494;-4.1997676;4.427037;-0.70144856;-3.025161;3.4702277;3.948491;2.8833582;0.87381977;3.384373;0.94377774;0.30940697;0.0008085156;-2.5237174;0.0008914997;-3.5455925;-0.21795397;2.5595505;-0.04463859;-1.2016939;-0.02167155;2.7144318;3.70298;-3.6292427;-0.06268014;3.7111986;-0.65626305;-0.07215463;4.5347943;-4.1056004;-0.0004631694;2.192826;-0.033680446;-13.118161;-0.012678891;-3.9734516;-0.42568618;-1.5208794;-2.4438984;-0.055709787;-2.1118524;-0.30959862;2.4889834;0.005308802;2.9454796;-0.42115477;-5.0861225;1.0325012;0.34429997;-1.1300524;2.6935792;-3.7195303;2.5452342;0.032300457;0.070083655;-0.0696446;1.5445079;-0.56573623;4.0259795;0.5241832;-2.970071;0.09747314;4.946711;0.9986891;-2.040391;0.4857619;-2.3263502;-6.0259256;-0.32681823;-0.3268999;-0.36037907;-4.6325006;0.025224146;1.75888;-1.3522904;-0.00089481805;0.007469142;0.03051635;2.0357938;0.016363367;3.8104641;0.43458608;-4.9629;-0.11705512;-0.014543828;0.017626677;0.29016232;0.44356465;3.9668508;-7.8183975;-0.0094985785;-0.38753125;0.9515412;0.31011432;-0.4202143;4.3816357;1.146767;0.025569126;-2.2304947;-1.4947174;-0.014894722;-0.54671896;-1.5212486;-0.029850056;1.227219;-0.028635172;-1.3302481;-10.559658;-0.041274726;-0.024048226;2.387924;4.6781282;-0.046827707;-3.646078;-0.027248709;3.8958051;-0.025886927;2.5703504;4.173335;-0.6615379;2.0159104;-0.09327811;-0.028902432;2.3169081;-0.54662585;-2.2599406;-2.2070653;2.7655988;-4.799692;0.023968423;2.2836633;-0.013991826;0.036899082;1.2532446;-0.9172669;0.0052581877;3.912652;-0.011936544;-0.038067114;0.8069449;4.1413765;-0.057845265;-0.7839397;0.010778872;0.004468079;-0.7393954;-5.4274225;0.011268652;-3.358184;1.8585236;0.13298385;0.8178393;-0.0216855;-1.9834908;0.29962093;-0.037705995;2.1034594;3.3813274;0.5756406;0.0020427254;1.4191369;-1.4219866;-0.034079127;0.10006301;0.45754176;-1.6493534;-0.07153721;1.7260243;-3.139887;-0.011351973;-1.4968883;1.7382996;2.058718;-0.11272795;0.026606398;-2.1677337
-3.8193252;0.34903333;-4.215067;0.81452286;-0.004017442;1.4092958;-2.6621947;0.4455646;0.0032204222;-3.0254016;0.0475346;-1.0232661;-1.5687108;-0.465787;-0.3302847;-2.1695225;0.38861495;2.277059;-0.5882218;2.0657573;-7.2012534;-0.0846698;1.9269208;-1.8040718;2.7248027;0.12145281;-0.057773873;3.345479;1.1104051;4.258499;-2.2883384;0.010717931;-0.5601557;-1.2046261;-2.8049536;-3.3660524;-2.9325902;1.5486822;-1.2361082;0.2593545;-0.008596192;0.51851;0.69551706;-1.5516909;0.031412326;3.2806313;0.002474256;-0.33647457;-3.7903833;0.034129433;0.050924554;3.4198766;1.7858471;-0.0076195803;0.11093928;-1.0120503;-0.010418987;0.61565894;1.0677263;2.7087417;-0.00805075;1.3318349;-0.016688015;-4.4143834;-0.729013;1.7106235;0.08074312;-1.2024982;1.5514171;0.021010624;-1.6922984;0.061927445;0.011349621;0.044620134;-1.3587745;1.5397034;0.005086885;-0.8188957;-0.4089076;0.015536005;0.033384882;1.6679655;0.5224783;1.4289103;0.006006273;-0.43010733;3.0818863;0.023056498;0.054452296;-0.012183691;0.06794826;1.9360043;0.5692514;1.1079773;-0.19342004;1.0001918;-0.16451712;-0.20475312;-3.4576352;-3.4772902;0.037600964;1.3168411;2.5289416;0.009163616;-0.0041736322;2.129954;0.024600182;-0.5484425;-8.878347;0.21185617;-0.7192287;-2.9251232;-2.3877745;-2.2795055;0.16335808;1.035263;-3.4197674;4.4110994;-0.021997068;-1.8994154;-4.523416;0.053839777;1.5283967;-0.03408104;-0.0031171043;-0.01038321;1.1148654;-0.6281539;0.014366058;-3.1009698;-3.6444821;1.914164;3.6054518;-0.49180764;-0.019107023;0.7048234;-0.46741688;-0.06909508;0.048126966;0.022197204;-1.7005008;1.037584;0.5336082;0.92676514;0.114399925;-1.533094;-3.2748;-0.029608956;0.29419842;-0.9423695;0.036787566;0.28907233;-16.90856;-2.6229067;-0.020238437;0.010515298;0.008470772;1.5607171;1.1904459;0.68284684;1.2619368;0.13493575;2.456514;0.0349337;0.44935152;-0.6212441;0.8215573;0.010372135;0.33294544;1.8552532;0.061938576;-0.0040064007;0.010924493;3.745201;2.1292665;-0.899653;0.0031041992;0.005070122;0.11465537;0.030200247;0.1861479;0.9927586;0.47832108;3.5217178;0.9789023;0.28218606;-0.7110516;0.930613;1.1874803;0.017147463;0.25766322;0.045443967;-0.718671;0.004662346;-0.007752727;-0.5832837;-1.5769969;2.2686617;1.2462044;0.007508345;3.8274426;-0.75337017;0.7430318;0.04107896;2.9213986;-0.011146889;1.6190001;0.03135754;0.9098889;-2.062715;-19.278803;1.9497184;0.049935788;0.017562186;-1.5932405;0.059292324;0.73987395;2.2949271;1.999237;-2.0648365;1.3780873;0.9659892;0.7423752;-0.03053352;-2.3917987;0.01168011;-0.024259388;-1.6501756;-0.0047796015;2.0068057;-4.5217075;0.12891582;2.9879444;-1.7462115;-3.7964058;-0.7063419;-0.026761696;0.016310757;1.0263817;0.1452858;3.1183028;0.78348476;0.018091012;-1.8723028;-1.2176868;0.12793617;0.015861394;-0.24069816;-5.6257257;1.7005605;-0.021404753;-0.092311874;-0.12711082;-2.6680684;0.7380768;0.4295073;2.6162436;0.020461645;1.7259066;-0.72355497;0.07203387;0.009838024;3.870992;-1.2315906;2.617228;0.31950483;-1.2149506;3.6314306;-0.811171;2.9426446;-0.5000986;1.0954207;-0.0356396;-1.1464168;0.691347;0.017562909;0.06567288;-1.1042823;2.2972753;0.2910545;-0.41674572;-3.1922035;-2.252033;-0.28352144;1.8869504;-0.7366089;0.9421861;1.2001557;1.1523434;-1.7443315;0.031545673;-0.41275346;-4.6690674;-3.3948877;1.5057707;4.7107983;3.5867712;0.23348159;-0.5302751;0.80790806;0.67020047;0.11077593;0.035575856;0.67380184;0.045407556;0.11705149;-0.0105274785;0.1691903;0.013750908;2.0620606;-0.015342163;0.8601812;-1.4118952;-0.38793585;3.608239;1.7103648;-0.88308614;0.017991874;-0.7796285;0.2713513;0.019440252;2.5311093;4.2759314;0.029608006;-0.34121042;-0.38531882;-0.38469896;-0.068207934;-0.009666853;-2.996019;0.00014185648;-4.1208425;-7.106165;-0.23375687;3.0137322;0.045181364;-1.3154284;0.03136845;-1.0200229;0.02339664;1.1461056;0.054411225;0.43321073;3.3577242;-2.3159053;3.079782;0.055431344;-0.00031517888;0.010027555;-5.1549826;-9.824988e-05;0.8805422;1.4366815;-1.8602363;0.086446255;-2.903646;-0.31512237;-0.61745304;-2.1818066;0.3738784;0.46231917;-0.69932795;0.009176568;3.3892477;3.9652221;-0.16771576;3.0012267;-4.166881;-0.1761131;2.2754807;2.4637785;-3.4932783;2.1125352;0.020998484;2.4116783;2.3363311;2.330857;3.3191829;-0.024614647;0.0151849305;-0.0023887625;-0.0044161854;0.04727687;-2.69838;0.03549825;-0.2645703;0.021988811;0.006953985;-1.7696155;-0.26568744;0.110535674;0.16604176;0.89049435;-3.9282215;0.03672198;0.39547858;0.025330316;-4.662015;0.048354253;-1.0454029;0.02806723;-2.0380754;3.5467896;1.7124459;0.70072967;4.5415106;4.08424;1.4936578;-1.8408408;4.158503;-2.2747097;1.2462735;-0.03554349;-3.0732388;0.015069292;1.422491;-0.077164665;0.4106127;0.0677925;-0.77761096;0.032926694;1.7416477;3.5765293;0.56093633;1.038121;3.4925363;1.592578;0.085893475;-0.7512917;-0.7870913;0.07362433;1.1220323;0.03739358;-10.189375;0.0299736;-2.4204688;1.0998595;-2.4642172;-5.0929055;0.038491424;-0.2596384;0.24490128;-0.856348;0.023557918;-1.749639;-2.2432756;-4.2162895;0.96201473;2.0537112;2.460709;1.7464386;-3.037954;3.5299635;0.048293635;0.3784607;0.7634091;-0.1417643;1.0479518;0.83659166;1.9804008;-1.2327399;-0.0101908175;3.1861556;2.9917603;-1.9902567;-0.90864277;4.1607847;0.21095939;0.42942575;-0.33980572;0.2707923;-2.5968633;0.035742674;1.4644372;0.1779871;0.013477178;0.08416876;-0.028578699;-0.4499942;-0.006889272;4.1874723;-0.1489981;-3.8021684;1.139686;0.018343067;0.0021465363;-2.0282524;1.7645645;-0.5422581;-4.5711694;0.0088783335;1.8794446;-0.2551216;0.30966496;0.59604675;2.288724;1.2747186;0.08670058;-3.7726185;-0.9975425;0.019738078;1.0902386;-0.4975612;0.07391995;1.5675908;0.041331124;2.0990145;-13.507293;-0.038739115;0.065123506;1.760287;-0.18814279;0.03814591;-4.4212255;0.5075043;2.506579;0.06252388;-1.9755676;3.0777128;-3.0433006;1.7100238;1.2223574;0.06008809;0.34187567;-1.281119;1.2544967;-1.3298914;2.9747007;-5.8179984;0.03629576;2.5584838;0.030603433;0.053927157;0.8930357;-3.8213701;0.032732815;2.9061582;0.035802465;0.006424804;-1.1932188;5.3020163;0.02870813;-2.6308753;0.016578492;0.009325486;1.9862622;-4.704637;0.0032703872;-4.2063823;-1.6019632;-0.40581238;-0.36527634;0.06172491;-1.9433933;1.3550335;0.14901619;2.7161412;-0.3554309;1.5936303;0.012800039;5.041135;-1.8548373;0.4798844;0.14396058;-1.5515488;-2.3653498;0.042520046;1.1797078;0.8112205;0.024068685;-1.1413989;-3.1809762;-2.4966984;0.89352536;0.013588692;-0.4121838
-5.1671762;0.4520843;-5.6529536;0.40852728;0.03979699;4.6535974;0.4248035;-0.20247312;0.0053375103;-0.55036676;0.015218892;1.7103771;3.865271;0.19245468;1.0429178;0.19285376;1.4525416;-1.0352434;-1.8303763;0.9261749;-4.57529;0.15623854;1.7207662;-2.374286;1.8912909;-0.036203444;-0.074129835;4.825286;0.5409851;2.850328;0.7778068;0.0019187655;-0.5229757;0.9494126;-2.857202;-3.5419557;-2.6596467;3.7304475;-2.660114;-0.42695048;-0.0091964705;-0.020960722;-2.8300054;-0.5574453;0.008601739;0.49677828;-0.03100921;-1.7300181;-5.946194;0.019525683;-0.006810184;2.0602622;2.6505942;-0.009014862;0.19482933;-2.0643382;-0.020184081;-1.3754241;-0.69128263;0.25639555;0.01776463;1.8070138;0.058389366;-4.289781;0.24794477;2.1686218;-0.24047334;-1.8783962;-0.037559375;-0.0028028367;-2.2677376;-0.026585378;0.026965128;1.0481346;0.72822046;1.2315758;-0.022791767;2.911816;0.84441733;-0.006371377;-0.0053298436;1.641275;0.6825191;-1.9373728;-0.015764836;-1.9050024;3.2851152;-0.017182818;-0.010134548;0.0046866024;0.030783243;-1.1472601;1.7335072;2.6200411;-4.279892;0.04593874;0.9225035;2.4206896;-0.20873651;-1.6113925;0.023827681;2.7653062;3.9106421;-0.013949773;3.1083167;0.020288121;-0.03253037;-3.9869297;-8.743539;-0.120785266;0.2692201;-3.309765;2.6358142;-1.8913652;-1.2227185;-0.21734315;-3.419645;3.2140024;-0.014406371;-2.8679469;-4.6509714;0.011856794;-0.7251882;-0.017974354;-0.0304395;0.044662982;2.257614;2.4421062;-0.0339421;-1.2503375;-3.3057537;0.57981133;0.18341845;-2.849251;0.059736643;1.9051656;1.0546073;0.61006135;-0.014676293;-0.034879487;3.494588;1.0268303;2.2074215;0.51817816;-0.055217527;-4.837756;-5.9057384;0.0629929;0.5265136;-0.12317462;0.020017583;1.23391;-19.549109;-6.0644126;0.008750169;-0.055864558;-0.015221254;1.344906;-0.48133698;-0.47858834;0.91363394;-0.08960826;4.746474;-0.0639754;-0.054543674;1.0787094;1.4479762;0.009502635;0.03165613;0.034682576;-1.5504878;0.03352848;-0.027291017;0.62890106;2.3431273;2.3054197;0.00087290414;-0.08125095;1.985659;0.03312173;0.04244556;-0.8066917;1.5180457;1.1649637;-1.1495811;0.4395792;-0.6257459;-0.6635776;3.1483963;0.01627172;-0.32409394;-0.038017936;1.0679172;0.051766854;-0.0001490294;2.3155067;-0.21604185;-0.2892999;-2.093077;-0.03717118;1.0546331;-2.5737855;1.9837422;-0.017612195;-0.07899861;0.020012321;-4.607618;-0.050509967;0.6908022;2.538643;-20.944052;-0.5084157;-0.07339722;0.044546247;-4.617781;-0.033485875;1.0682522;3.5508547;0.16095436;1.4978099;4.6522436;1.4715459;0.95835775;-0.16759099;-0.67206377;0.018736152;0.067103505;0.75226;0.02101766;2.4031823;-4.7443876;0.04359371;1.2719336;2.110947;1.0175834;-5.14945;1.8099732;0.0028386102;0.937096;2.2347157;4.0929594;-0.31504822;-0.022198152;-0.40610278;-3.9001038;0.48791113;0.019781496;-0.2291783;-3.435113;1.8099244;-0.008877222;0.6685298;-0.18480815;-0.017472833;-1.0509331;-0.3062769;2.5961657;-0.007098622;0.7787968;0.12123431;0.052503347;-0.0042943647;-0.15607351;-1.360388;2.213744;1.855653;-0.548654;4.179417;-0.10088426;-0.70737505;1.1530888;-1.1644071;-0.01553383;-1.1064883;0.8795083;-0.028744036;-0.025726913;-4.010823;0.45036492;-1.0064577;1.3013402;1.8413365;0.716471;-1.322583;2.5348969;-0.038674116;0.2929028;0.40313384;-0.080613196;-3.9422376;-0.026567703;1.1137586;-3.3045714;-6.296603;-1.3026041;5.2188735;3.797413;-0.08533978;-0.41395554;-0.15451841;3.7366052;-0.072142765;-0.0038404;1.1284806;0.0049372776;0.5984325;0.040808655;0.6337935;-0.027976042;3.6474614;0.3021369;-0.7680538;-0.16633105;-1.5799314;1.9706606;1.1938059;-3.0052836;0.082574055;-1.3067467;1.6313533;1.9287773;1.7117792;1.1657163;-0.0363984;-0.4459096;0.7641679;0.4025058;-0.18412507;-0.038321383;-4.2473664;-0.011493237;-0.6432208;-5.9695215;-0.60733867;-3.2019942;-0.02445471;-3.7379332;0.00028546934;1.3458623;0.046054054;1.5978494;0.028030928;-0.11803029;-0.29752326;0.45342344;4.877882;-0.0102263335;0.02119584;0.011255531;-6.974496;-0.041804027;0.1828217;3.702833;-2.9514208;-0.07956402;-4.067665;0.63551474;-2.3316822;3.3060355;-0.30799773;0.4157756;0.68671346;0.025420908;3.4048963;6.344847;2.4347157;2.6151285;-4.770984;0.6303313;-1.0661006;1.8221344;-5.279991;1.1988834;0.033549666;0.84122527;1.375073;0.17415853;3.9941134;0.02081888;0.8232066;0.0061963014;0.0038250114;-0.011453626;-3.1690536;-0.046605907;0.2159476;0.07649191;2.3530378;-2.4397497;0.60082805;-0.39706993;0.614355;0.3162704;-4.3196316;-0.03346606;0.59564143;0.0019170742;-4.1417418;-0.010361766;-0.5206614;-0.0023479392;-2.9383516;0.61642116;2.5012655;-0.28081715;5.3529296;1.535851;1.5461605;0.5114555;0.72143054;-1.4629625;0.9148684;0.059883673;-3.6255212;0.0022688224;-0.32495767;0.0068869037;1.7069758;0.009786421;-3.1193345;0.010804184;0.282997;3.6106632;-0.99980575;-0.12249642;3.717079;0.34640455;-0.05613162;0.19557616;2.4515486;-0.019744894;2.2593954;0.012981525;-7.8290973;0.00531786;-2.660992;-1.590795;0.9880486;-1.2366505;0.0054130466;-0.07565492;-1.0487603;-2.4223418;-0.029688725;-2.2380369;-2.5820973;-4.6477656;1.6297612;4.0860753;2.1471734;1.6249189;0.92169136;0.2702877;-0.014356444;2.2898865;-0.061674204;-0.88719344;-2.8721566;-1.3832719;1.8308481;-2.4713733;-0.193392;1.5263474;4.728087;-4.6722183;0.8408282;0.82112885;-0.22058174;0.6325986;-2.046675;0.018624144;-4.57641;0.0033992154;-0.22082974;-0.61501855;0.020404298;-0.04769776;0.016203137;3.5557966;0.042638693;1.4734576;1.1822752;2.0985334;0.3175289;-0.007959086;0.015361564;-2.6627476;1.6172255;0.30804938;-1.2202499;0.03446387;-1.2440503;1.2722275;0.13397945;1.4038404;3.241974;-0.9957451;-0.028904704;-3.1927311;-2.1556056;0.009692262;4.109015;-0.2768732;-0.031458776;2.5749557;0.017535957;2.5927384;-14.312606;0.8209014;-0.03508047;3.07009;-0.0529673;0.0039495192;-1.6423991;-0.10745038;3.182593;-0.030157208;-1.8942547;0.78393376;-3.4307516;-0.66933584;1.3064862;-0.031473488;-2.2131588;-3.7832165;-1.3873616;-0.7017267;1.6241794;-4.694938;0.0140542565;-2.4736264;0.009406017;0.05002121;3.1277092;-3.879501;-0.02608577;1.8201118;-0.023939598;0.001957054;0.1321448;1.8611544;-0.07590065;-6.4230146;-0.021061778;-0.038309958;-0.012919188;-2.5938067;0.011210151;-1.8810848;-1.3991699;0.23967315;0.16174592;-0.041469697;-2.3373444;-0.99423856;6.136306;2.0310438;-1.1528957;0.19699824;-0.059309784;2.1662278;-1.3771898;-1.0477595;-0.7907115;-1.9774865;0.90588456;-0.0010869652;1.2208104;4.397704;0.009873507;-2.3618138;0.12568639;-0.9917593;-0.21157742;-0.011730288;2.9425795
-2.8961747;0.18877313;-2.139381;-1.0289873;-0.009848512;6.7186694;-2.0915768;2.4128;-0.014326619;1.480536;-0.002062623;1.9336538;3.3920085;-1.1464033;-2.0402007;-0.8376031;1.8502831;-2.2330668;-1.3678344;1.4966474;-5.742549;0.7291013;1.3393182;-0.22977854;-0.5068791;0.0026425482;-0.0021272213;3.8720567;0.32576782;3.1622808;2.2580178;0.04941389;-2.4563634;2.227038;0.9661879;0.6530498;-3.0190108;-1.9994864;-0.82298344;0.50560147;0.0068962215;0.017209152;-4.163723;-0.65655446;0.033892646;0.219539;0.03159516;-1.7620101;-9.477749;0.009752514;0.021189231;-0.8569633;-0.7522774;0.05780581;-0.0014725267;-1.981025;-0.037723135;1.610968;-0.36418602;0.6375785;-0.0080681415;-0.47756425;0.013562742;-6.4372396;0.06425602;1.0726781;0.17380972;-0.31259522;2.6250277;0.008854628;-0.24520558;0.018847454;0.056919135;-1.1524814;3.5922883;3.9529746;0.012878111;1.6678712;1.174781;0.005176915;-0.057775043;0.5456675;1.1997238;-0.315439;0.036096103;-0.43670157;2.505452;0.024125393;0.028017988;0.0072756847;-0.013499926;0.54263353;1.7844276;-0.8175338;-6.095623;0.6730937;-1.1079226;-0.32595727;-1.4387125;-0.78220165;-0.00566321;2.3206785;1.3931705;-0.0076796915;3.654362;-1.0633137;0.027344178;-2.7568326;-9.781001;-0.00015621804;3.071291;-2.4696486;3.330935;1.1884215;1.3433799;2.308985;-3.3583913;3.4632607;0.04849572;-2.991077;-5.151856;-0.04643893;-1.5848973;0.017002435;-0.02168599;-0.011892832;1.7636644;1.2972877;0.031725813;-0.5544007;-2.8643858;-1.7804548;-1.9708751;-1.5370665;0.0007210137;1.0223895;3.3786843;0.27914703;0.01600607;0.008672422;1.8450117;1.0077482;0.8335774;-1.0783443;0.008758212;-4.9073486;-4.689514;-0.01155143;0.5851773;-0.91257626;0.019625595;0.3018781;-20.057753;-5.484405;0.034870196;0.01024446;0.0349754;1.7988429;1.2937164;-0.74966955;2.2549374;0.070034645;2.7240398;0.061378185;0.011572883;0.17432404;-0.4208464;0.014234117;-2.9505053;1.263255;-0.6960069;-0.043550458;0.0042939093;-0.6790134;-0.50293916;-0.97448015;0.12314316;0.032417357;2.245158;-0.008931902;-0.019335529;-2.292327;0.51209116;-2.5621707;-2.7757535;-1.3106065;0.62600124;0.86988217;1.343487;0.042531535;2.162048;0.012050642;2.938556;-0.07384491;-0.015523803;3.3198988;1.8359264;-4.01012;-0.090407915;-0.00863574;-0.91124636;-1.9971377;0.6284937;0.00022616996;1.2537761;-0.012201327;-4.3367524;-0.084602766;-0.7149916;0.072210014;-20.575636;-0.5865238;-0.03075119;-0.030797074;-0.68161696;0.0020720535;-0.08487158;1.1001662;-1.1463252;1.721172;7.235065;-2.0615046;-0.45153832;1.0842716;-2.001864;-0.015542648;-0.0015001786;2.8770707;0.021786151;-0.5215434;-5.1973376;0.056448765;0.31646428;2.7010944;1.8351079;0.87872314;4.043727;-0.017638434;-2.930037;0.11224875;3.2390954;-0.08611458;0.01753001;1.0050482;-5.430856;-0.25801837;-0.0037364124;0.3764024;-6.828583;2.230065;-0.012522976;-0.4001895;1.6426054;-1.3984953;-0.44798782;0.17448315;0.56431675;-0.004043379;0.028067842;1.7986555;-0.10415161;-0.039636124;-2.0079951;-4.2712674;-1.1739651;3.5348878;-3.4896712;3.4574108;-0.93421894;0.7890918;0.4103738;-1.0998278;0.029245256;0.061820712;0.92355955;0.027038516;0.0029873797;-4.407286;3.9620275;-1.1525621;0.49488226;2.5444012;0.82597727;-2.28511;2.7556076;2.9083664;-1.1955343;-0.19396494;2.6124244;-0.7344682;-0.05525132;-0.8555397;0.71536005;-8.10248;2.00087;5.1348996;3.961033;-0.1394032;1.4005519;-0.066505626;1.3662747;0.0032238478;0.012184037;2.3733087;0.0021209768;0.13103026;0.016058573;-0.10460178;-0.0106353825;5.101315;-0.10753556;-0.3034313;2.8912816;0.66221386;-0.5773632;-0.28282273;-3.2144425;0.0042819893;-0.5014996;1.9348178;3.5749483;1.6069745;1.2329946;0.031372115;-0.55101526;0.25497764;1.35879;-0.07565422;-0.03530485;-4.658382;0.01759771;-4.7589536;-6.1684937;1.0137198;0.24164495;0.010417813;0.5278584;-0.004199116;1.4946198;0.0075061875;-0.12758857;0.0020661454;0.60589296;-2.9373462;1.8289218;4.580228;0.0071263886;-0.01496607;0.021054849;-8.284113;-0.070718855;1.4368924;1.0707618;-2.1126404;0.021489795;0.0025813796;0.57485956;-0.029939065;-0.50697577;0.111851245;-0.30062184;-0.07587218;-0.008071116;4.350687;2.3326218;1.5785562;-0.24099262;-6.483339;0.0005118591;2.1197934;1.1982937;-1.542998;4.4247017;0.0007757985;-0.17997311;1.4975582;3.2653134;4.629323;0.03500116;0.6964277;0.02921081;-0.031407263;0.017274788;-2.3281033;0.021063961;1.4892212;-0.019238012;0.47034618;-5.1557865;-1.8443108;-0.019502629;1.9510123;2.9255137;-4.332995;0.011571837;-3.4959967;-0.03824281;-2.1628435;0.018860226;0.093026385;0.07532155;0.011661494;-0.21783185;2.5301251;-2.6566198;4.3241425;0.16153282;0.54497033;0.9029703;0.569857;0.02166352;-0.58608186;-0.001759706;-2.069943;0.038727984;-0.13733535;-0.0132051185;1.6075203;-0.015926547;-0.3181809;0.05854513;-2.3963463;3.8270335;2.1115053;-0.14597817;3.9758937;-0.37771493;0.0024540585;4.1449647;6.017356;-0.01572031;0.5757529;0.033739865;-7.603338;-0.00035651893;-5.8263;-2.8512573;-1.6190771;1.207374;-0.012643127;1.6685451;-2.0710142;1.9011192;0.046222012;-0.6680617;1.2426704;-5.9449964;2.5589852;2.454731;2.780193;-0.24235918;-4.871483;-0.71867454;0.021383828;-1.8879626;-0.041784555;-2.916587;-1.7493656;-1.8564829;1.2594169;-3.8100746;-0.07569608;1.3615665;2.1562436;-3.8522286;0.013714658;-1.2780817;-3.7590592;-0.31599918;1.1272898;-0.026102558;-0.5108218;-0.018041408;0.6114512;-0.65034723;0.061980307;-0.009062053;0.010576634;6.0770683;0.01569106;-0.40475598;-0.94644487;0.64996994;-0.07670208;0.005071903;-0.01831688;1.8833271;-0.17027836;0.40832356;-2.0360162;0.0106672635;-0.6982398;-0.7427786;-0.097584374;-1.6094677;2.8415754;-1.8943911;0.03280082;-0.8121266;-2.181661;-0.03785286;2.1537654;-0.84080285;-0.02752369;-2.5401607;-0.01276709;-1.1020017;-17.371714;-0.09653977;-0.0036708494;3.2942774;-0.77008414;0.034378808;-1.5564421;-0.03819563;2.8134065;0.03936227;1.3814758;-1.3981676;-3.41382;-0.20692034;0.25748292;0.0004350904;1.1791197;-5.0807734;-5.016917;0.83851296;1.4205046;-5.466307;-0.0050752936;-2.6512997;0.026244296;0.03778152;1.2277071;-5.1426473;0.02112181;0.6093867;0.0019186198;0.0032936449;0.8852619;0.47271383;-0.09246338;-4.722481;0.018060388;-0.0009309488;-2.7505558;-0.9815229;-0.01172665;1.133907;-1.6437769;0.3800915;-1.4080003;0.042662445;-3.0890586;-2.03718;1.1208107;0.15700345;-3.7737317;1.2027147;-0.124338575;-2.4495358;5.923439;2.1008623;1.1670729;-4.8750596;-1.4798932;-0.017470678;2.1187057;4.6825104;-0.020702284;1.9229889;-1.0047365;0.9756278;-0.09547659;0.013604546;-2.2456582
-3.2596507;-3.218199;-1.761117;1.810763;0.004621087;2.749483;0.20454787;-0.45672575;-0.035432104;-2.209463;-0.00019301483;3.4291224;3.3368814;-3.2618234;0.009621106;0.46021217;1.6396604;1.1577293;-0.43570012;0.9390522;-4.5513916;-0.29595673;-0.37353286;-2.979705;-0.72963864;-0.011149743;0.047691397;3.4967194;0.9299037;0.8491939;-1.1595417;0.01599762;-0.70121324;-0.11475566;2.0223038;-3.1759024;0.771798;-3.3040438;-0.4125163;1.8247575;0.01921324;0.026905507;-1.2677503;-4.6011167;-0.005645235;-1.4179571;0.011174963;-3.9162772;-7.8845787;-0.008431442;0.018711032;4.5701137;-1.1427007;0.0052008415;-0.025066642;-5.1636286;0.03939794;0.9967132;-0.47195202;0.043206308;0.017262911;-1.2365407;0.015326491;-3.766599;2.5312073;-2.8445835;-0.5094134;0.34456933;0.17025466;0.013554551;0.8572596;-0.0021457737;-0.010936274;1.0375557;2.2483766;0.0071939686;-0.031634383;1.070396;-0.99122155;0.007814863;0.49229854;1.9053154;-1.683922;-2.8810122;0.01687095;2.3518772;0.9380228;0.013677115;0.010671293;-0.009130156;0.026666827;2.3039525;-0.10595834;-1.1089443;-4.9573035;0.15839753;-1.0470254;-2.6377177;-0.34775117;0.185191;0.016288042;0.120688476;-1.0502986;-0.077713475;0.2854149;0.699227;-0.011195894;-2.0043948;-9.388065;0.22593085;1.4939582;-1.8376397;3.1209345;2.954972;-1.4503802;-1.3620652;-2.9891531;2.317506;-0.012298062;-0.0947799;-4.3141866;0.024178835;-0.73366314;0.031730182;-0.00063581305;-0.0073817647;1.4292175;-0.40620905;-0.0054316865;-2.6665144;-4.009128;1.9065677;0.6069548;1.2838987;0.025550582;1.8313643;2.3094172;1.7816781;-0.01798028;-0.01696841;0.056355108;-1.4233533;-0.8637349;0.4699482;-0.012010663;-2.0006957;-3.538894;0.01111258;1.8689164;-3.796187;-0.011612481;-1.9626292;-18.22189;-0.000548663;-0.007265331;0.06320876;0.047648992;0.5274654;-0.7385293;0.43087658;2.8161209;0.030341804;1.0572469;-0.053347107;-0.03588892;1.3500738;-2.7153647;0.032186158;-0.02199778;2.0718656;-0.53177416;0.005680117;0.06946986;1.0144306;3.6112423;-0.6300446;0.031601757;0.0456603;-0.67943597;0.08599818;-0.023022128;-0.6137646;-4.362857;1.2435652;-0.7166773;1.5060403;2.1269624;1.8284631;-0.2648138;-0.06822363;-0.5723686;0.014468559;-0.69727206;0.08838057;0.034842316;1.6862227;0.9346744;-1.5601647;-3.8432646;0.022075055;0.26238355;-0.3104921;1.207828;-0.021430485;1.1964248;-0.0556261;-6.5965137;0.026649185;-3.1090271;-4.1268306;-19.493698;2.1315415;0.026562529;0.019404976;-0.9394438;0.02515535;-0.8122304;0.3512769;0.7782885;0.79050297;4.497682;-2.315181;-1.3615407;-0.27771002;-4.8951488;-0.043963093;0.074683145;2.9678898;0.00933926;-5.712385;-4.2345114;0.0072526936;1.5514568;-0.8038921;1.1784263;0.1235024;0.17695874;0.005591188;-7.219506;-2.7322862;0.9116139;-0.038542815;-0.028346986;3.3707275;2.101969;0.4939604;-0.0028958826;1.0783083;-6.7143016;2.8979037;0.015507492;-3.3050117;-1.0747223;-2.9538336;0.5310957;0.22391148;3.7684662;-0.018683588;0.22770397;2.7285867;0.6741412;0.0040247613;-0.37895226;-2.0383675;-0.5230121;2.1147316;-1.0401834;2.8421416;1.1085848;0.4977964;0.40281147;-0.73271143;-0.040316015;0.2976812;3.10759;-0.009628176;0.06215945;-5.0974092;1.9033165;-0.11470261;-0.47501597;1.2605633;-2.398567;-4.901836;2.1600215;1.5241019;1.8834965;-1.4998653;1.2901855;3.5413406;0.015825365;-2.5174098;1.672841;-6.0504365;1.4810143;4.048976;3.2653587;-0.2325169;1.4569439;0.035771217;0.110153295;0.10079749;0.04319737;2.5687037;0.06754436;0.3353177;0.028108247;-0.12639867;0.057155162;5.3686404;-0.034844037;-1.1062874;2.8285255;-0.5676846;0.59651935;0.46389797;-0.72842747;0.020300338;0.35135078;-0.5106298;2.7078547;2.1002853;2.4796004;0.0008082749;-0.15849851;4.3234763;0.20819333;-0.030696679;0.050884612;-3.370649;-0.05703167;-4.3094163;-7.296052;1.869185;-0.36916685;-0.00019571032;-1.440067;0.02481976;2.270994;0.011588384;1.6423118;0.02162295;-0.06485275;-0.72595346;0.50067025;3.9353273;0.04723745;0.010101562;-0.026784765;-4.9537497;0.7150671;1.591876;-0.49502915;-1.0828657;0.013465892;0.446703;1.2679722;-0.028659653;-0.30578655;0.2727643;-0.044864953;4.1844153;-0.0058832457;2.252582;4.088871;2.6392753;-1.4898614;-0.52378917;0.021178905;2.1438239;-1.5833861;-2.8874028;-1.251825;0.04465336;-1.0000049;0.6734344;2.8269043;3.36277;-0.019840527;-0.35608593;-0.009309833;-0.012255199;-0.034742855;-0.73405993;0.08123693;1.1601466;-0.0013395591;0.22732067;-4.79549;-0.07011459;-0.26374403;0.5094878;2.3172688;-3.318895;0.03157684;-2.3925908;0.025918674;1.0788765;0.0033569848;0.7341449;0.03958655;0.41058126;0.737642;0.041034624;-4.003752;4.7334085;0.011402522;0.26472136;2.6273324;-0.1344133;-1.1035953;1.5775175;0.022189368;-1.9359311;-0.028896743;-2.3872015;-0.014462769;-2.0703323;-0.017519249;-5.131568;0.025584418;-2.1077714;3.3506107;2.6346745;0.0019688625;3.2971733;-2.0585606;-0.008872449;3.6360471;0.65474063;0.012678725;-0.2329172;0.009342083;-0.73882717;0.06561125;-0.87254345;0.04315898;-1.1776613;0.20024876;0.039033145;-1.4507273;-1.2544178;0.7843501;0.02994935;-3.93051;-3.6188228;-5.763056;0.025426602;2.6096358;4.1209445;0.80708444;-7.2311015;-1.9142245;0.051069554;1.7762815;-0.007309321;-1.0790256;-0.13823001;-0.750885;1.1001922;-4.6969285;0.28711492;0.8790517;0.5071955;-5.162192;0.4748124;0.33240232;-1.5675365;0.75770855;-1.1831497;0.6870579;4.0209084;0.022986056;2.052802;0.8224079;-0.03877826;-0.0043439874;0.04614755;3.6361008;-0.015530663;-2.8249664;-1.2104272;-0.369928;-1.2792428;-0.012403403;0.03852425;1.8768406;-0.1540401;-1.7796549;-2.005322;-0.006218978;0.15548705;-0.70605;0.2975617;-2.0120797;2.4311965;-1.5791256;-0.035376053;-2.714957;-1.0489182;0.044305;1.1540613;-2.055341;0.018392056;0.29113925;0.03809619;0.07107826;-17.994074;-0.02636004;0.037519112;1.5381258;-0.91006476;-0.014466825;-0.93698585;-0.10127796;2.666671;0.0442839;4.058974;-1.9721373;-5.539864;0.027661517;1.3493552;0.08064406;-3.365866;1.2710189;-1.5493087;0.14758709;1.3386667;-0.27696633;-0.007673401;-0.18750587;0.034935445;0.03143054;-0.43198144;-5.263352;0.01680257;-1.0359982;0.014536505;-0.02864102;-0.7175532;-1.5428723;0.3752167;-0.60122895;-0.023240115;0.0011097746;-0.6149254;2.3250155;0.028407484;-0.7561903;-0.24140678;-0.11819378;-1.5248977;0.023127882;-4.910642;-1.4303886;1.9506555;-0.69893533;-4.084654;-2.543111;0.8211468;-3.0256073;-0.7254818;1.2850103;-2.3921432;-4.143175;1.1209931;0.09715003;2.7463367;1.6491668;-0.0074137533;-0.8209124;-0.068299174;0.04418483;0.01495872;0.0010421004;1.1698115
-4.9259744;2.779777;-2.4014225;0.20593286;0.014770486;2.6369922;0.76805776;-0.8178413;0.0044712103;-2.0716102;-0.02287934;2.2938354;1.9390267;-0.13628691;-0.64623475;0.79147273;-2.5416207;-1.0452777;-1.9607629;2.386231;-4.379269;-0.055450022;-0.529351;0.08045411;0.05600351;-0.02901309;-0.014324347;3.6310182;0.45576093;3.1414707;-3.348502;-0.0031622162;1.2929231;-2.6655598;0.74460953;-1.6142033;-2.4692192;0.49674302;-2.2267575;0.13021874;0.034394953;0.01755742;1.7539911;0.845268;0.022786379;-0.03538077;0.009114525;1.051573;-4.7959723;-0.011989051;0.013157937;1.3229396;0.48080838;0.012592006;-0.002138796;-1.8208995;-0.03606197;-2.3942595;-0.22546662;0.91376734;-0.020381348;0.9920879;-0.043768328;-3.4940374;3.3769724;0.2040249;0.1739976;0.9508157;-4.4552445;-0.046386197;0.98017013;-0.020081256;0.039080366;0.53801453;2.4159544;0.85875744;0.02807276;0.9635693;-0.9758775;-0.007633601;-0.08690062;3.9258573;-1.498217;-3.1671047;0.042111084;0.26757783;-0.7935454;-0.018658489;-0.018260585;0.034354944;0.02805326;0.1258729;-1.1223214;0.055993572;-6.867075;3.579508;0.5811976;0.558557;2.0895042;-3.635125;-0.04364285;-2.4533637;-0.46768847;0.007963454;-1.147833;3.3536572;0.03466133;-1.2238581;-11.286675;0.011515782;-0.17712471;-3.4156702;5.1859074;-2.6245615;1.3020517;-1.2751918;-2.7755728;1.6891291;-0.027517866;-0.14055201;-4.338296;-0.009300652;0.8898126;-0.029703556;0.035187814;0.004802326;0.4633737;-0.0056200055;-0.0379993;-4.161133;-1.2032839;1.225726;1.4920449;0.91338986;0.024689108;0.4238613;1.1355364;3.3534548;0.019797524;-0.020518662;-2.9064322;0.814504;1.0031507;4.8508377;0.029471146;-3.1199667;-2.8067448;-0.005421521;0.2246782;-2.4967813;0.04761907;-2.574465;-19.150545;-0.2222471;-0.031949174;-0.026364569;-0.02324465;1.6832836;-6.691567;0.1559498;3.7527363;0.04257692;1.979377;-0.008602526;0.024204025;2.3782408;-2.2332766;0.06342272;-0.39547637;4.731074;2.2223601;0.061313286;-0.054321636;5.0881495;-0.3211974;0.37175488;0.012409464;-0.00077823276;1.2068213;-0.024389239;0.03005385;-0.88657;-2.364655;-0.79586107;0.081317596;-0.30234492;-2.7603707;-0.078307085;-1.5867103;0.475204;0.5199553;-0.0077952514;1.8256792;0.0027574429;-0.01057807;1.4536076;1.8420427;-0.5063016;-1.5385435;0.003960884;-2.341478;1.7244331;1.0953835;-0.04446047;-5.4980907;0.018794345;-6.388982;-0.026850294;-1.240352;-2.1252754;-20.99796;-0.05732498;-0.04338552;0.10478384;-2.079104;-0.00034214277;1.5901921;2.0875316;-0.40753156;0.35175577;0.94789976;1.7574766;0.041638352;-0.06866809;-5.317758;-0.05445733;-0.010123181;-2.8469405;0.024939835;-8.190464;-4.298607;0.05355162;0.15921962;3.273528;-4.618782;-2.367368;-1.1844146;0.042523645;-6.072878;1.8242264;3.4304645;-0.019272776;0.03661585;-0.7479444;0.27332285;-0.10406193;-0.014184476;2.5571826;-4.9397483;3.7918732;-0.04409766;-1.5071647;1.480649;-0.20337284;0.46880424;-0.032213543;0.67461395;0.003788006;-0.41733024;1.9371076;-0.06906861;-0.002758288;2.1234114;1.7822658;1.304528;1.3855963;3.6762218;2.8988693;0.85640526;-1.5400007;2.4076912;0.12878671;0.062648036;1.3710155;2.2212458;-0.043469522;-0.026920298;-9.21826;0.09139233;-2.5857804;-1.5971636;2.6673853;-0.912176;-0.97001827;0.5681112;-0.8666831;0.35124695;0.7894206;1.1698313;3.7510388;-0.026287977;-4.320574;-3.8336813;-8.315096;-1.1547772;1.6173266;3.6080213;-0.096839026;1.0556482;0.004548501;-0.6996188;0.056676272;0.016036388;1.9260709;0.020394525;-0.254497;-0.006149372;-0.17677888;0.013313793;2.2643528;0.040670738;-0.59260345;4.42886;1.1529886;1.9925826;2.3616147;-0.83941513;-0.0051635867;4.804831;1.6502438;0.14233387;0.9019423;0.39158908;-0.0066832905;-0.04245175;2.0601153;-0.5002907;0.04856925;-0.02197421;-0.77464783;0.03550211;0.3242404;-6.7160463;1.7081754;1.7335535;-0.016301403;0.9380343;0.020925822;-0.11765546;0.002306941;2.8842878;-0.01495402;-3.0459638;1.0187274;1.6682233;3.3698626;-0.04509824;0.041835703;0.01906611;-11.270141;-0.20862453;1.0927501;-1.0024534;1.9184078;0.020494465;1.6073141;0.21544088;0.72274613;-2.3600235;-0.19066396;-0.1380683;-0.48372433;0.039076477;-0.45266262;3.2193382;4.4495444;1.0807836;1.4933183;-2.6430326;-2.9865272;-0.6506883;-1.1832027;1.0109643;0.042761747;0.8385796;4.6068316;0.84700805;5.233255;0.00013970016;-2.0768232;-0.049367677;0.02135943;-0.026626727;-0.811907;0.089438155;1.7166299;0.022431502;1.5349934;-1.3429923;0.9966842;0.29179612;0.0692075;0.051559575;-4.019585;-0.095430486;0.5472192;-0.050230462;1.0101852;0.07722981;1.1216407;-0.043989576;2.4965286;-0.049101308;-2.8230486;-5.978845;3.3706367;2.8959546;2.1264973;1.2796017;-2.68616;6.085485;2.38153;0.043577556;0.99359876;0.05682144;-0.85830057;-0.01004678;-2.161075;-0.022145772;1.0340108;-0.016326433;-1.5626017;3.7019467;6.3941174;0.004311762;3.7407053;-2.566181;0.004048308;-2.0293596;-1.4517853;-0.032530703;2.4663608;0.024881108;0.37990344;-0.02863871;-1.1521734;1.3808867;0.7254914;-3.135367;0.000107919084;-2.2281897;3.2016733;-0.093432695;-0.0001920939;-0.51472193;0.33760762;-4.818756;2.406551;-1.0264341;0.05149027;0.5011605;-2.9079697;0.10248231;0.029289046;3.0316727;-0.032850407;-2.9580197;1.4614824;-0.37848213;-2.2293289;0.58222234;0.11678698;1.146857;0.3719271;-3.7309558;0.57819456;0.4731417;-2.8672595;-1.0542089;-2.597531;0.08317829;3.3919678;0.006557638;3.127636;0.42601126;0.06934702;0.06444677;-0.025073262;4.1739683;0.016354993;-3.3547714;0.03784395;2.3387136;1.3416818;-0.008378565;-0.027894378;-1.1017715;-1.3492675;-3.0705013;-0.47355038;0.025480146;1.5702521;1.9015111;0.08308258;-1.6717252;3.533561;-0.7119199;-0.013967746;-3.5004709;-0.5336119;-0.018590234;1.0809337;-0.9996737;-0.04894688;1.6582935;0.037162825;1.5435064;-18.226511;-0.07200803;-0.036042113;0.041618984;-2.4839547;0.03184968;-1.9742783;0.2599099;3.708715;0.010088859;-3.6134887;-2.5056956;-0.45480597;-0.6353175;2.2137692;-0.017571997;-2.6754181;-0.12012603;-5.4256063;0.27347654;2.1551316;-2.1554103;-0.0008409482;-0.7361267;0.0012541186;0.0017809516;-0.939124;-0.88532346;0.02199778;-0.25403225;-0.027589543;0.023955204;-0.35380402;1.0352588;0.0035343259;-0.89426965;-0.012844037;0.017674403;-1.953283;2.5777512;-0.031064877;4.699264;0.14915141;-0.027691007;-2.2664964;0.007213886;-3.1867533;-0.09864908;1.761688;3.0747213;1.2665385;0.16038409;-0.16865788;-0.15026262;-0.6210288;2.8095706;-0.43335554;-4.2503195;5.6355476;-0.072583064;2.2051353;3.004205;0.0012497879;2.5657516;2.2223346;1.0055053;0.028827678;0.051333662;0.68882656
-4.256802;1.0819054;-1.8153363;2.2467334;-0.01804437;6.0351806;2.9889612;2.1234221;-0.025840303;1.1733696;-0.006820703;1.9633343;-0.7063403;0.26736984;-1.2801396;1.4558562;-1.6474017;-1.9321704;0.39038748;2.3993952;-1.3396126;-0.01889163;2.2867577;-0.4335339;0.37176523;0.018879134;-0.017059611;2.9473276;-0.081838086;1.2770722;-0.77718073;-0.027186994;2.0602205;-3.0293527;-0.85645163;-0.78377676;0.5127164;-1.6465219;0.64824605;0.52722776;-0.04982962;-0.0033388294;1.3032278;0.22026893;0.0011307413;0.20412995;0.014642169;2.9937546;-3.4872458;0.014652477;0.021205073;0.25860885;0.71474594;0.010752244;0.0065608975;-3.7803166;0.028122978;0.15549384;-1.8203095;0.6809411;-0.03897363;-2.6182702;-0.044031247;-4.3652825;3.8007114;1.9631174;-0.007498922;-0.6957444;-0.18649805;-0.030494682;0.35279462;-0.043771576;-0.024527129;1.5751842;-3.1013424;1.0724355;-0.0012101947;0.5256793;0.71494484;-0.029988224;-0.094586246;1.7234613;1.3622295;-4.801219;0.03696961;-1.8749306;0.17902623;-0.041424397;0.01771903;0.0037842644;0.047795255;-4.7784314;-1.32497;-1.3649815;-1.8597206;-0.019986903;0.79158217;2.1210322;0.23973024;-2.2673175;-0.030542605;-0.7346345;2.7800992;0.9195036;-3.1931674;0.3443457;0.04293885;0.72430706;-11.292397;0.0020924415;-1.8788815;-4.6747513;2.6319306;-2.2952302;-0.009731727;0.14771794;-2.9841435;0.61445165;0.073554136;1.1843655;-3.3877788;-0.042678636;0.86467636;-0.042116206;-0.08786917;-0.032332238;0.45135343;-2.1835976;-0.028479975;-3.0587542;2.2889006;2.2750747;2.3116527;1.4639797;-0.014871528;0.8918227;0.94662076;0.23462263;-0.043399207;-0.035987742;-2.0543227;2.7357655;0.5139386;3.3207638;0.008771594;-2.11591;-3.1879513;0.01642827;-0.6129829;-1.1726543;-0.020432623;-3.1873329;-19.540829;0.38842106;0.022438655;-0.012123053;-0.011261236;-1.7723708;-6.0626683;2.2389503;1.7463368;-0.09798049;3.1332598;0.0062122988;-0.048518736;0.5362345;0.91340935;0.039786346;-0.22451437;2.953963;1.3418899;-0.04500365;-0.03206604;1.9650738;-1.4859018;-1.0090699;-0.0071372376;-0.05387074;0.49908593;0.02051217;-0.020699613;-1.7949705;-4.1946235;-2.3986104;0.6808559;2.1623378;-2.766378;-0.15794195;1.1460365;-0.07038039;0.8057235;0.014961609;-1.4053352;-0.03856775;-0.020194711;1.9094033;0.82399714;-0.73169893;1.8191873;0.003509662;-0.6096262;1.7348498;0.96620524;0.0185713;-2.0782046;-0.0038476966;-7.00288;-0.02176196;-1.5230485;2.708741;-19.504553;-1.4344028;-0.014352327;-0.044932768;-0.83313334;0.018529778;-2.3858528;1.2543246;-0.35680357;0.3614349;2.572756;2.0993178;0.09529942;-0.046230506;-3.1496382;-0.026401827;-0.011414216;-4.0714397;-0.044143457;-4.068944;-3.4367476;-0.032965504;1.2102058;1.4766463;-6.368206;1.1610819;0.96014595;-0.018858999;-1.9366591;3.171784;0.9296156;0.046717048;-0.047877524;-0.4863038;-1.6708441;-0.09657209;-0.10371364;-0.7776066;-1.6900169;0.16334012;-0.03217339;0.5970731;4.031828;1.9073988;-0.106900014;0.20409931;0.47237313;-0.0038163813;-0.26904324;2.9598315;-0.05236136;0.009696434;2.8133843;1.4076829;-0.7479131;2.584301;-2.1987774;2.0439107;-0.0008984087;-0.9468094;1.2830368;-0.02939456;-0.048753608;2.965482;1.7257589;0.02783132;-0.0544383;-6.6532507;1.8899821;1.599882;-2.48439;3.8543055;-1.1421193;-1.7698339;0.01122344;-1.2228154;1.9628189;0.6034194;-2.2606297;2.470257;0.012624098;-3.8635259;-3.7289734;-7.182678;-1.2190374;3.0799592;2.969392;0.43025345;1.0902882;-0.01824691;-4.0440245;0.0061909426;-0.013721338;0.97738415;0.010373614;0.08438925;-0.04927168;0.00092287915;-0.013294825;-1.1999772;-0.0581248;-3.5467308;1.1188155;5.41202;-1.2572067;2.6866672;-2.1147802;-0.018414466;2.9798076;0.37052473;1.4191921;4.2724476;-3.2553327;-0.05525058;-0.2157523;-3.3290765;-0.10455923;-0.030268302;-0.032095607;-2.171453;-0.0050451765;-0.19790919;-7.788219;3.104654;-2.1070845;0.0064220494;-1.7992349;0.019476984;-3.4154341;0.015067006;0.11188629;0.021056386;-4.193154;0.16047485;2.6313665;4.33832;0.007424956;0.014079127;-0.030205682;-9.515266;0.009962091;2.042266;-2.975048;-1.2939208;-0.015064957;-0.48171586;-0.2824056;-1.8655806;0.46165606;0.08085521;0.006502126;2.4547791;-0.09342492;0.8115226;-0.14354046;5.8806043;2.798391;2.9915557;-0.27335277;-3.2321215;-0.61763096;0.13022693;4.6982064;-0.010107487;0.38978288;4.7369943;2.438288;3.2920172;-0.025062293;-1.4854227;-0.038104344;-0.026569875;0.017699942;-2.4424431;0.016372295;1.8388923;-0.054606672;0.1793299;0.8629701;-0.9913599;0.636098;-0.72742933;-0.5147957;-3.619067;0.0025614249;-0.81536794;-0.023974262;-0.18079227;-0.05058689;1.72427;0.0809637;3.0890222;0.64465773;-2.971457;-5.3838487;4.755888;1.9912668;0.502804;1.5715686;0.6251299;5.080265;-0.6353759;-0.013083021;0.34432793;-0.00478351;-0.77458394;0.0039652614;-0.8930063;-0.013376034;1.0250479;-0.0272795;-1.673157;2.8691964;4.915424;-0.0023053207;3.1298852;-0.20354591;-0.013996349;-3.0683432;2.5671697;-0.014752296;-3.0281472;0.032768253;-0.0688335;-0.07718539;-1.8116032;1.3562738;-1.138334;-1.3170726;0.044688348;2.1607144;1.696875;2.760725;-0.011196452;-0.31999728;1.3440894;-3.3155854;1.8978101;0.52127355;-2.3795383;2.8317897;-0.7370895;-2.838794;-0.035831265;-1.2156725;-0.021542009;-3.5564535;1.542043;-2.7917583;-1.4759438;-0.448223;0.18409415;-1.1946365;-5.2231297;-2.6774433;0.46202862;-2.9847982;-4.8270416;-0.22089273;-0.41751713;-0.17289443;3.7664695;0.01743469;3.7943723;1.5745327;0.015044892;0.060398433;-0.024457011;1.1924014;-0.011682711;-0.6737712;-2.1857786;-1.191627;-0.844916;-0.04164828;-0.00025523594;0.3684228;-1.1941059;-4.176281;3.0539236;-0.0386993;0.9121026;-1.2962726;-0.02977451;-1.0722202;2.0079458;3.0489662;0.03014656;-1.1041871;-0.35109887;0.008542808;-1.6528976;0.31952706;-0.039708175;1.8595775;-0.066880696;-0.4494296;-18.894463;-0.117131844;0.027760642;-0.44749823;-4.7018867;0.026164811;-1.0091231;-0.05831928;2.9496279;0.035635237;0.22533526;0.7300934;-4.108214;-1.2262558;0.7321208;0.034561574;-2.9155836;0.5850768;-0.26497272;1.4084918;2.7826881;-0.4097059;-0.04303162;-0.60772973;-0.017938796;0.024121618;0.06505966;-0.34529984;-0.034184374;0.77748996;-0.0024789541;0.0051616845;3.349263;-0.5690329;0.00374031;-1.1163144;-0.04805797;-0.07903632;-1.1741607;-0.112676844;-0.040650252;2.0341258;-1.5674194;-0.41388667;-2.5096695;0.027099222;-2.9984677;-2.0398147;-3.0860786;-0.28648365;1.9580045;-1.7110991;-0.03856651;-1.9105799;-1.6308689;3.276014;-0.060335618;-2.6490993;1.2222601;0.07557195;1.9359479;0.48383683;0.03405417;-1.1338333;-0.70949394;1.3805684;0.030531706;-0.030203069;1.9112079
1.6017448;-0.7281985;-1.2510053;2.2492592;0.005158599;6.121574;1.2957988;-0.36497176;0.05094928;2.138618;0.026992563;0.9588064;-0.18708324;2.5329285;-2.9857485;2.1721292;0.48338526;-2.8108678;1.9304886;0.7770716;-3.0248177;-0.07291666;-1.1139852;-1.2929729;0.41054755;-0.025088012;0.03418405;0.86605173;0.40923128;1.6417656;1.9803001;0.007781953;3.6152909;2.4411187;-1.6434559;-1.9944026;1.7841563;-4.7946587;0.18325104;1.655589;0.031199412;0.0657462;3.0581243;0.276732;0.016128575;0.27695888;0.0011943276;-3.4306428;-3.4099262;0.018604595;-0.010665638;-1.6572826;-3.4875133;-0.006988444;0.0035233037;-3.1100144;0.009165835;-1.5366019;0.8560641;0.81997114;-0.048705764;-4.771974;0.0058157113;-0.14803393;2.1940477;0.009076849;0.30984947;3.0856502;-0.6802992;0.028070964;-0.6692947;0.016179917;0.032930072;-0.68048537;-1.7125856;1.4608003;0.00612196;-0.6801108;2.611634;0.025343124;0.030299738;-0.4095038;1.5393176;-5.2823744;-0.05631118;0.44948587;1.7739271;0.028283931;0.04162126;0.0054062414;0.02663754;-8.36125;-1.7676988;1.1955675;-0.8292115;1.8163085;-0.23146224;0.78553367;1.7594568;0.7629895;0.04037661;2.3946471;3.1974182;-0.2199461;1.7979369;1.1624987;0.016451074;-2.7866015;-10.567317;0.006041754;-3.382964;-2.8278842;2.2682545;-2.46375;2.611016;-0.88793314;-3.0009425;0.27176517;-0.02765494;3.1153674;-3.2891223;-0.010065283;1.8125793;-0.008073105;0.06675257;0.022977944;0.7934584;0.8825481;-0.052390996;-2.130807;-3.220842;-1.3109497;0.3789073;-2.0040514;0.031615857;-0.860648;0.66891664;-3.5508778;-0.024979547;0.017732732;-2.7661648;1.1698316;-0.4985418;4.9214473;0.008713156;-0.925228;-3.221833;-0.014177616;0.3555383;-1.2756065;0.028294312;-4.2035885;-19.210352;-1.7818581;-0.006076315;0.053358287;0.0001881176;-0.5743402;-1.3993758;1.4398344;2.6153398;0.013162015;0.9065166;0.058580227;0.047188956;-0.86155397;-2.0113685;0.090068705;1.0386567;-1.20328;1.7266135;0.24502055;0.09100691;4.0378027;0.39016598;-0.013473108;0.009613508;-0.0060504535;2.5193353;0.053666323;0.016974341;0.8644593;-6.367798;-0.52284217;-0.88702375;-2.4685996;0.1508946;0.10346749;1.6525239;-0.05861089;1.6305757;0.02080512;0.6482343;0.022930441;-0.0054240525;2.375106;-1.9041815;1.4784888;0.52151;-0.025961662;2.646217;-0.48736876;-0.8676946;0.020879246;-2.9840336;-0.005231038;-5.190846;-0.044743493;0.7455396;2.2033868;-18.124826;0.3615346;0.008734043;0.05662069;1.1556737;-0.0013944571;1.3980463;0.32874393;2.534468;1.0164068;1.2354472;0.442473;0.90166134;-0.009133991;-6.7929835;0.023368549;0.0020717783;-1.7838434;-0.012442279;-7.9281735;-3.4559822;0.07979386;0.415952;-0.8709464;-5.4567175;1.1723499;1.7938874;0.008910981;-1.6631188;1.5100722;1.1603059;0.12431142;-0.011732271;1.2372912;1.8931501;0.28754756;0.04999636;-1.6327283;-2.397538;1.3831983;-0.0023818319;-1.339081;1.1353291;-0.9901982;-2.5668483;-0.09236198;2.6045098;0.009300212;1.8993466;1.233039;0.007204359;0.012741881;1.2773522;-3.5586598;0.6433155;3.3473656;-1.6791463;1.7160891;2.0987077;-1.2051307;-0.96917963;1.6564306;-0.04391472;0.7087058;3.017658;-0.01186446;-0.013608499;-3.0681105;0.20368153;4.593374;-3.3780823;-1.1533011;-3.789947;-3.1488557;0.13628557;-2.6321063;0.7978403;2.2428823;-2.777147;3.718746;-0.032714922;-3.394641;-2.2653468;-6.471716;-5.2823853;2.9764726;2.715045;0.4878762;2.2690876;0.014440879;-1.4832342;0.006560853;0.022279514;-0.59920967;0.059583064;-0.027686322;0.045470454;0.8168499;0.033957385;1.4110606;-0.0272853;-2.6248026;1.2252837;-0.4992541;2.7863083;1.492944;0.018026764;-0.009957232;2.2382827;-1.4780344;-0.9196403;3.6874669;-1.5121876;-0.015297857;0.075072736;-1.3311037;0.42146888;0.039808482;-0.050222937;-1.9839094;0.020848058;0.52109826;-5.060128;1.1435475;-3.061495;0.0030102215;-0.15495664;-0.03216725;1.0024223;-0.027408205;0.68575555;-0.0022751424;-0.097764544;-0.15939489;0.8157022;3.7484846;0.0060711727;0.014664765;-0.020734556;-10.08008;-0.017871859;2.3175607;-2.1417894;-0.98545295;0.039027262;0.040826894;0.33054972;-2.3839164;-0.064135365;0.41883275;-0.07155623;-1.2587168;0.038851853;1.0327543;0.640524;5.282705;-2.7779448;2.5230985;-0.4604477;-0.6135924;-2.56516;-3.1420786;1.1694512;0.0015365138;-0.2855288;3.2388983;3.7622144;2.4357889;0.18163548;0.06793837;-0.005287128;-0.023396507;-0.04773509;-0.2815774;0.03144048;-0.61616135;0.031208407;1.1042188;-0.28397444;0.7427471;-0.37100542;-1.5131342;-5.97891;-1.9406316;-0.05990272;0.627896;-0.0059509682;1.9134806;0.019970383;1.5912964;-0.010748665;2.9854019;1.2575021;-0.44724846;-5.2896276;4.844016;2.6860063;0.6462739;1.0581759;1.1266291;1.6959641;-0.7216146;0.03117099;-2.2227159;-0.024617601;-3.0422482;-0.0074679335;-3.1451893;-0.00770416;1.6329373;-0.0037524512;-0.6221372;2.7113218;3.7654796;0.041630298;2.6864967;0.21357733;-0.014623676;-5.3810215;3.0745916;0.032172374;-1.4123278;-0.0064994604;0.026874116;0.022565851;2.5657113;-0.74970174;0.9419791;-1.8102933;-0.058779262;0.03455037;4.820536;0.978982;0.012724446;0.7108172;2.5333796;-0.44373325;1.3701811;0.24433985;1.1788553;1.9873087;-4.7943296;-0.667129;0.10255629;-1.0524725;0.0068270667;-3.6152182;0.42048475;-0.11837935;-2.5361695;-1.9192721;-0.10591746;-1.4935484;-4.24923;-0.1566006;1.2625409;1.1692795;-4.3652067;-0.2883854;-0.6432667;0.09843025;-1.3741744;0.0035413972;0.7613123;-2.2584584;-0.017570687;0.014488124;0.04099875;1.1237293;-0.0091813225;-5.7122097;2.1304238;2.1716375;0.38346708;-0.06019105;0.017887065;0.4558988;-1.4151253;0.12188712;3.2053533;0.07475022;2.4076672;3.8964674;-0.04012257;2.4737246;2.8327308;0.18044491;0.0046230666;-1.4363033;-1.8671325;0.019675927;1.0195931;1.3899188;0.005526381;2.6791534;0.028124847;-1.1916773;-17.945688;0.013625897;-0.029181303;1.0958297;-0.5294738;-0.0073628915;0.42713714;-0.031438615;1.2241285;0.023961041;0.4411;1.7886416;-4.253783;-2.8948517;0.90509915;0.019187199;-2.151332;0.5156931;-0.04691343;1.3495783;2.651409;-0.57421833;0.06715573;-2.104769;0.03141159;0.0030614862;-1.9759085;-2.7849817;0.09462038;-0.21472503;0.017136576;0.001147404;2.1841;0.29862058;-0.061462313;-3.009498;-0.026787253;0.069498666;-0.5234936;-2.4211655;0.008372024;2.4754236;0.2023215;0.04039385;0.8602666;-0.0018149359;-4.634598;0.5392385;-0.60804445;-1.5364251;0.34406808;-3.666496;-0.037722547;0.5874372;0.12991796;2.601489;2.1598227;-1.2221106;2.1262276;-0.02462984;1.1192151;3.5979176;0.025731027;-0.4707851;1.4228026;-0.0060959305;-0.017743876;0.022906855;-0.19606526
-0.4782164;-4.3038955;-1.203821;1.1726416;0.007340114;5.3609047;4.6540565;0.5197058;0.028946385;-1.9719576;-0.0431993;-1.7049762;-1.082386;1.4114496;-4.172422;0.58999175;0.26370335;-2.99898;-1.6166639;0.80854636;0.5266838;0.038136173;-2.8645213;-1.3396174;0.5059498;-0.039385196;-0.009125681;3.319778;0.6834109;0.7938726;2.053594;-0.0064827576;1.5018042;1.670717;-0.8895484;1.1599855;-4.6279387;-4.7403502;-0.9295532;1.5841991;-0.011204904;0.012432892;2.156382;1.8082627;0.031423807;0.4524672;0.0062033804;-3.0451508;-2.1324842;0.017970879;0.0036963813;1.0929322;-0.8344917;-0.017297128;-0.022216696;-5.355022;-0.0055077607;-0.31580752;0.95773196;0.76584566;0.0012444551;-3.5492737;-0.027444964;-3.6022472;1.1721822;-5.1803856;0.14022736;2.3861668;1.6645199;-0.0061076297;2.3559797;0.020894052;-0.01799717;0.25374907;-2.4890742;-1.2020836;0.012943795;-0.64452446;0.46514255;-0.0068342225;0.017991612;0.6148113;-3.3104863;-0.61289525;0.021889556;0.5594563;0.6255994;-0.039030135;-0.042324282;-0.0049751746;0.0030007723;-7.890244;-2.3162277;-0.9661305;-2.46605;-2.858952;0.90705484;-0.28993392;0.3683785;2.39519;-0.0050371555;1.4655929;3.1065023;0.014836689;1.5690618;2.7358613;0.08510271;-2.5409024;-9.780411;-0.0017958115;-3.1679816;-2.8681471;0.74238825;-1.8265958;0.25949866;1.9451473;-2.723034;1.4328803;0.048436437;-0.6796637;-2.9136515;-0.047422048;-0.0583145;-0.01896665;0.044945937;0.00048883987;0.8592888;0.07202629;0.0046839756;-1.7484556;-2.840141;-0.1195559;-2.1162946;-2.3157725;-0.009724703;-0.29968327;0.14324626;-2.3817434;-0.051966872;-0.009137407;2.3407445;-0.012874196;-1.018129;-0.5783257;0.007061048;2.1686597;0.02256103;-0.03682405;2.918111;-3.0147002;-0.002987742;-4.084087;-20.433655;2.56063;-0.018333247;-0.011379123;0.025155874;-1.5887581;2.4821603;2.321239;0.51061845;0.014758312;1.3857905;-0.017290521;6.6508284e-05;2.4085145;-5.336137;0.023383403;-4.0909524;-0.10307201;0.2723575;-0.09675289;-0.007902363;3.0286052;3.1148317;1.8644952;-0.029568346;-0.023260731;0.1159389;-0.042226676;-0.008826894;0.26287404;-0.076955795;4.247385;-0.04779474;-1.1218797;-0.07821026;2.3414407;-0.93253666;-0.058544584;0.39773205;0.009968998;2.8114293;-0.032303765;-0.0631708;-0.49379694;-2.7909517;3.8220863;-0.58482826;-0.0074149948;0.75656235;-4.566717;0.208741;0.007687622;-2.84382;0.010388377;-7.69436;0.0176728;-0.065273985;-1.1790686;-17.035828;-0.6072806;-0.036723178;0.019637318;0.02021774;-0.011180839;1.1773793;1.1207861;-0.06751554;-0.56493396;-1.3865253;2.4434626;-2.0176694;0.014682798;-6.8707128;0.0044881618;0.022417461;-1.2258246;0.019625397;-6.0680656;-2.9964468;-0.0076494412;-0.21269207;0.7354667;-4.7052946;-0.38599932;3.888712;0.012345987;-0.42536438;-3.7117863;-3.8574073;-0.046290092;0.028315403;-0.44460893;1.2961861;-0.13558987;-0.016898489;0.1620658;-2.06558;0.9786926;0.0078112823;-3.2633553;1.4075704;4.4012337;1.3090682;0.4424932;3.849274;0.015812881;1.2212154;2.0746217;0.051348634;-0.059695516;0.752594;-3.4657698;0.6863223;4.4028187;0.017749982;2.6415048;1.2721542;-2.4373565;3.070715;0.33455783;-0.033933602;0.01875202;1.9741157;-0.011880237;-0.021128155;-3.0069044;-2.788032;4.0677853;-0.99817824;-1.0693945;-4.055505;-2.086267;0.9137743;-4.5142803;1.5215193;-0.5731859;-1.6283026;1.6102251;-0.020197926;-1.8569375;1.6268481;-3.0694454;0.5685264;2.088153;2.7196698;0.109188534;2.0636532;-0.0112037575;-2.1766887;-0.0431523;-0.011211453;1.3883142;0.030624423;-0.1357736;-0.032688957;-0.25115114;0.07013644;1.4910704;0.010158945;-1.5399455;1.3688881;2.5571997;-0.29818946;1.1304917;-3.3186624;-0.069555126;1.4013588;-0.13726012;-0.7406292;2.1799147;-1.4471648;0.031896755;1.0537956;-2.839925;0.13295591;-0.022437444;-0.058688596;-1.2339323;-0.027602643;-1.8647937;0.069668084;-1.7103856;-1.4617066;0.0021413777;1.2933493;0.032667153;0.21694548;-0.01594747;2.2437205;0.010917056;1.433625;0.928678;3.5283062;3.808015;-0.006843714;-0.03351316;-0.02001898;-9.870544;-0.036654677;2.1547112;3.789786;3.5026584;-0.009984129;-0.64666945;-0.23506647;-2.4315841;0.2624965;0.7119709;-0.020429363;-1.1768751;-0.048563678;-0.40531313;-0.19776806;6.271761;-4.2437778;3.1358721;1.9237608;-0.7939244;0.101438046;1.8073304;2.7201037;0.03110786;0.18413565;2.3275676;3.9990764;2.283963;-0.054561574;2.173526;0.37111476;-0.052190837;0.029184252;-1.2524226;0.051072504;0.88708204;-0.0021926824;1.0354958;-0.31579658;1.3723098;-1.7702315;0.28256276;-0.6916038;-1.6117082;0.7963496;1.9559351;-0.0014374882;2.1709468;-0.026658153;3.6235046;-0.013543276;1.6776141;-1.3208946;2.589694;-2.6946359;4.4557977;3.2206194;0.35193577;-3.127199;1.456458;-0.6931134;-4.4362288;-0.022977302;-2.4240153;-0.048023835;2.1149948;-0.03400119;0.32440135;0.040498078;-0.81341034;-0.016808845;0.2812846;2.54357;2.1612964;-0.0006272318;2.5102537;1.1816697;0.1368702;-3.2553637;3.0826983;0.0057308436;0.7563376;0.013312642;-0.21520978;-0.009018893;1.3318411;1.0276805;2.6158688;0.38877445;0.030451437;-0.6288262;1.6995299;-1.568319;-0.028691698;0.43017963;0.062501065;-1.9253036;1.5826132;4.2776623;-3.0298343;-0.53088754;-2.7330327;0.025903637;-0.0456809;-0.5045451;0.021456705;-2.6539848;1.5662947;3.139236;-3.4943788;2.1168506;-2.4805444e-05;-0.069424406;-4.618309;-1.3218518;1.4584959;0.19865553;-4.8148894;-3.5479722;-2.8645542;-0.071500964;-4.3869834;-0.0020514065;0.9873929;1.8977429;-0.01155952;0.15349299;0.04250164;0.00026543523;0.022387674;-7.3055654;2.7737393;3.2478232;-0.00031241175;0.07929944;0.007011287;0.7553689;0.49601373;-0.16657421;1.203145;-0.04101378;0.5190194;1.3070955;0.056055035;1.9542292;2.7213035;-0.36963823;0.011975605;-0.29358384;-0.6962057;0.016887534;1.1762897;-2.2308047;-0.060637243;2.517619;-0.04625875;0.8476592;-18.088272;-0.028842498;-0.003325874;2.8102722;-0.24749312;0.013177445;-0.5072011;0.022879153;3.3311563;5.743836e-05;2.4297118;1.5719782;-1.2474815;0.5907123;0.45593286;-0.006465326;0.69302875;-2.1217108;-4.614464;-0.17425855;2.725853;-0.92534816;0.009853325;1.1678114;-0.0016657269;0.023045124;-3.0645595;0.0644872;0.023166979;3.346004;-0.049261097;0.011017967;1.0122316;-1.4461917;0.02692048;-0.7869995;-0.030035153;0.013400232;0.28558373;0.614551;-0.036658388;-0.7941506;1.5905585;-0.33248088;-0.45918727;-0.010229271;-2.1830566;-1.1551551;1.8821325;-0.8071084;2.7035272;-5.2769837;0.022941869;0.4153883;2.2491112;0.95787024;2.9632826;-0.073142365;-1.3819568;-0.013423825;2.4875357;1.9560239;-0.025915856;-0.7081565;0.35235327;1.2370722;0.0015024464;-0.0042405524;-0.54121214
-0.2838543;3.5555372;-3.0012176;0.21439381;-0.035789743;1.488945;5.3635354;-0.119264245;-0.07373587;-0.97240865;-0.009797342;-0.3580497;-0.61059165;1.1427507;0.36285743;0.19458215;0.31031248;1.2027837;-0.42634887;1.3317186;-0.7114803;-0.082191534;1.1774588;0.2875727;0.061724328;-0.0072281053;0.006824095;3.3843346;0.16914251;1.2254;1.455683;0.040758703;0.08769164;-1.1969643;2.1990833;2.436956;-4.568629;-2.1911168;-1.3042285;1.5290954;0.007410631;-0.00789135;3.9032066;1.4202051;-0.0024434426;-0.13382432;-0.03265025;-4.988103;1.8325412;0.015289072;-0.02646242;1.3000336;-3.9510462;0.038496412;0.04860808;-6.112071;0.0068633426;1.0764066;1.3460234;0.083268635;-0.027507788;-1.0918227;-0.023653226;0.51750565;1.0171102;-6.160717;0.087641306;1.3388647;-0.9348242;-0.035239875;1.9090801;0.020320691;-0.02284774;-3.7816448;-1.1349527;1.1021228;0.042077858;2.31567;0.48701948;0.0146496175;0.007307672;0.15739496;-1.6090078;-1.3403866;-0.050417602;0.88855535;1.0334074;0.024231797;0.021557104;-0.004068521;-0.03398661;-8.772497;-2.4804525;1.5975093;0.14542383;-2.830675;-0.7936695;-2.9469006;4.6993384;1.3807367;0.024732446;2.8863556;3.8881307;-0.046884272;0.6192204;2.0381517;0.024947938;3.2987187;-8.616586;-0.04614063;-1.0195069;-2.7845755;-2.7012308;-0.34058914;1.4795567;0.80114603;-3.5234215;0.8584513;0.0044386596;-6.40116;-1.0349191;0.047552392;0.88669115;-0.027373606;-0.05420499;-0.013182591;0.18966822;-3.3630307;-0.0482601;-0.74798304;-3.1336133;0.093674116;-1.0974202;-3.601828;-0.07415615;-1.4023364;0.6237337;-6.109093;-0.03656832;-0.01030245;0.5691129;1.0438194;1.8677835;-1.5836229;0.027908241;-1.4710497;1.9534193;-0.049105007;1.4308014;0.2711698;-0.051335204;-2.4877436;-17.550453;-0.062787026;-0.023704972;0.039690927;0.0181513;-4.3584275;4.100881;2.281009;1.707347;0.013073119;0.14457035;0.031865485;-0.021703867;1.2787756;-2.3045106;0.020132912;0.5402488;1.4552222;1.4918932;-0.09537711;-0.008860942;1.0840623;4.0885143;0.026441067;0.042064194;0.02013426;-0.25156415;-0.044610497;-0.009069906;0.0487674;-0.93428016;4.51582;-2.96975;-1.8487782;-3.0881867;1.1447718;2.5773172;-0.055659294;-0.2013473;0.009809866;1.0301877;-0.020425346;0.011914165;0.93007773;1.3511703;2.1177223;-0.47928908;0.020938797;-1.1078465;-4.2125134;3.6435475;0.012419379;-2.3450553;0.0565748;-7.518916;-0.024958583;-1.2417268;-7.8639007;-16.206045;-0.8730131;0.052922886;-0.055146478;-0.9735397;0.009181452;-8.316242;-0.3916928;-3.5710654;2.0552564;-0.58591497;0.93426156;-2.1753485;-0.055560935;-6.6182675;-0.03167186;0.03017338;0.019410858;0.046634044;-0.63008726;-1.0604632;-0.0063491035;1.0298682;3.8634746;-0.6534239;0.056029424;2.8395364;0.03464846;-0.41174325;0.67024934;-0.8396686;0.0012085515;-0.041376803;-0.077361524;1.0008303;-0.26333767;-0.026477028;-0.19578889;-1.9643499;2.9858847;0.024064459;-2.8552816;1.6076359;1.7492094;1.9893601;-0.050595596;0.7925956;0.03195779;1.5077507;-0.43182287;-0.016523095;0.02995745;2.2265134;1.9951829;0.9235514;2.0054066;1.7402611;1.6868305;-0.46904415;-1.3750966;0.76576227;3.3267648;0.00931101;-3.2901397;1.0139775;0.06513452;-0.026520554;0.38360223;-2.136641;1.3831551;-2.6373188;-0.58001083;-2.6068907;-0.22974613;0.4541264;0.1368674;-0.4559895;2.055716;-2.2575676;2.8327699;0.03668444;0.9656798;1.3875606;2.057308;2.4248488;0.5827067;3.1155322;-0.46809453;0.09266985;-0.0070425277;-1.937338;0.0255907;0.03818521;1.9987389;0.016036524;0.53864187;-0.001019258;-0.2425538;0.026854077;3.9228601;0.019139847;-3.8861713;2.2653127;-1.0056819;0.4705406;-1.4880042;-2.2124078;0.024177292;3.6013925;-0.9784491;2.0401678;2.442182;1.2322006;-0.022262245;-0.48149383;-3.4309118;-0.18545698;0.010060947;0.027114673;-0.93777966;-0.020413764;-0.762098;-3.1680202;-3.4291246;1.7301089;-0.11944024;0.21999691;0.03092379;-2.8790524;-0.034305792;2.4511938;-0.015363875;-1.0935782;2.0675623;2.7876158;3.31569;0.0058037066;0.012432629;0.06819057;-8.202551;-0.0012185076;1.2023054;1.1095518;-1.1753284;0.011276929;0.40819788;0.06450025;-1.1613241;2.6343834;0.2950117;0.13417234;-2.5146334;0.03085486;-1.4059869;-0.9857225;7.6327043;-1.2221031;-0.7592896;0.392334;1.4671322;-1.0041049;1.4162571;2.803239;0.060050994;1.5097569;3.3241796;1.9313854;2.9062057;0.03297994;0.839248;-0.04849589;0.020744931;-0.06390441;-2.0387168;0.025247581;1.9964163;0.018910399;0.5186218;-2.9242413;1.4164587;-0.7858394;-0.6490085;-1.9986125;-1.8364373;-0.0006688841;1.2901266;0.016117297;0.9246482;0.008421399;2.4890828;0.025852827;-0.3695756;1.0004063;0.9884631;2.2475426;4.5167685;1.6249565;2.2585154;-2.3104625;1.1157928;-1.2819942;-3.2835076;0.031542834;-3.9113421;0.017892018;-6.5088305;0.021491032;-0.9233843;-0.008960089;-3.1546218;-0.037572663;1.3019687;2.8853405;2.162759;-0.016148336;2.5128922;-0.031108689;-0.19315332;-0.77910143;-0.70851606;0.027824461;-2.0217078;-0.0012769878;0.7697458;-0.0056941453;-5.515962;2.5706365;-1.2678111;-0.06505453;-0.020790866;-1.9106224;1.1409513;-0.18434656;0.026963247;0.6493772;1.2935945;-2.168247;-1.8537607;2.5492578;0.19735748;-1.2084872;0.57096684;-2.993847;0.017338885;-0.7892979;-0.024511633;-1.1656628;1.2829263;-1.0467476;-0.33106628;2.6637008;0.14959525;-0.87728995;-5.960026;-3.5482578;2.3160076;-1.5192214;-5.1795692;-1.8495309;-1.9502115;-0.10591317;-1.8347008;0.008659803;-2.2549171;-6.658773;-0.009659429;-0.02922113;0.0032702559;-0.9665626;-0.04962582;-2.8219895;1.0255518;0.07332716;-0.31248915;0.0074316063;-0.0059421486;0.047207955;-0.04042028;-1.5407684;-4.4757843;0.05277806;1.3209133;2.1035964;0.0013368449;0.19809633;3.1762848;-0.22196983;0.008780352;-0.8420517;1.4775215;0.03771199;-1.7305979;-2.0189395;0.27602443;-0.5758905;-0.0036368794;0.7431922;-16.897778;-0.09450777;0.008251696;1.0052247;0.5777817;0.0498252;-1.7406809;-0.024321662;2.3933182;0.004687768;-3.5476117;0.06570556;-1.5001847;0.8962031;-1.3075795;0.008956394;-0.64407796;-2.0708678;0.43737608;0.14925896;2.174708;0.5291513;0.0026625202;-0.9179085;0.05169103;-0.030744344;-2.621035;0.6681561;-0.026254063;0.43407318;-0.008372807;-0.04115772;0.31513605;-1.6104064;-0.09785838;2.9869983;0.010861865;-0.007045958;0.5859512;-1.1633418;-0.040979628;-1.0364562;-0.9948005;-0.020384429;-1.5546608;0.03400539;-1.7808688;1.9200908;2.118744;-0.5520507;0.9164571;-7.6067147;-0.023154156;3.543452;-0.99041003;0.51472056;1.6274419;-0.13823585;-1.3614675;-0.019943507;-1.1830977;1.2132524;-0.0039100754;-1.8220217;-1.0971814;-3.5001712;0.004872244;0.053078115;0.17271194
1.6420997;1.6837634;-0.0838526;2.3636687;-0.008623303;3.0079594;2.5954049;2.147605;0.058616363;-1.8893269;0.07497599;1.0803878;-3.2428546;0.2912498;-0.6212722;-0.9883294;-0.59603477;0.0397622;0.9648296;2.2094388;-2.1061976;-0.06709947;2.0562236;-0.0867824;0.29389724;0.00040513134;-0.028616542;1.6707265;0.024197562;1.4355032;3.3218648;-0.005634984;-0.7834749;-0.5197247;2.3431215;1.6866233;-2.685738;0.64518785;-0.8960756;0.67106545;-0.06894045;0.033901684;1.7667845;-1.1665754;-0.004861641;0.57423073;-0.04544782;-3.6074538;0.6486461;0.1329985;-0.025232358;0.08366878;-0.4080273;0.0025135945;-0.046343245;-3.4455872;0.043655846;1.4511098;0.3109286;-1.4680022;-0.035113044;-0.22488853;-0.03641152;0.7078387;0.037595846;-4.8569064;0.55224335;1.7094649;3.0173495;0.01966385;0.06403504;0.0084839575;0.022008056;-2.0080194;-0.36382613;2.4836261;-0.030953335;0.15131712;-1.2144946;0.010971746;-0.017273974;0.4340408;-0.92069167;-0.90333223;-0.021458823;0.5850916;0.7687362;-0.018699303;0.0035845276;0.040273968;-0.090378135;-9.957498;-0.36794585;2.7301757;1.3433919;-4.469828;-2.0804245;1.2593101;-4.0052314;-0.471979;0.010068302;-0.20702453;2.0111108;-0.046160333;-1.5674561;1.8124915;0.0052762;2.619771;-8.323909;0.04413776;0.90440315;-3.7409797;-0.0790451;-3.3132308;0.37378296;-0.29218048;-2.339684;1.5045192;-0.025138406;-4.7993345;-1.9894193;0.006241704;3.71506;-0.03641605;0.015885655;-0.018819882;-0.12363949;-1.6566262;0.060831074;-3.9673617;-2.234605;2.0532293;-1.393449;4.6850357;0.017580578;-1.0355793;0.9347652;-2.4704602;0.014216077;-0.0116233695;-0.85168827;1.2588582;1.5496815;0.73165464;0.03264008;0.45027778;2.3247566;-0.006915846;1.0186576;-1.333949;0.044206794;-4.1900516;-16.846714;-1.9631258;-0.038238566;-0.020140551;-0.007025112;0.7271682;0.28827447;1.7592956;0.5901584;-0.023461603;0.118511766;-0.027835716;0.0030363812;-3.9824224;-1.933652;0.017550413;2.0918152;-4.7954855;2.5355663;0.036694407;-0.027408883;2.979072;0.7954417;0.30448386;0.03643352;-0.018057687;2.2543225;-0.041246403;-0.027159572;3.5089061;0.94287014;1.7638996;-0.056937445;1.168828;-6.4522104;3.719471;2.490645;-0.0013913428;2.2557888;0.0051738564;1.3868142;0.00010160415;-0.031930093;-1.3946599;2.423439;0.17333591;-2.8043146;-0.09898594;0.95842975;-2.6343384;4.717156;0.00037538182;-1.1131529;0.057447173;-8.735375;-0.01568729;1.9469966;-3.1651158;-11.008908;-1.6102308;-0.022850635;-0.012469827;-1.8949506;0.003997587;-0.38265306;2.258053;-2.303549;-3.1035523;-1.739976;1.0817916;-1.444398;-0.008507261;-2.633606;0.0050514606;-0.022443267;-0.39513534;-0.13471794;-0.1935944;-1.9772506;-0.025712112;-3.337275;3.0170317;-4.0674963;-2.1770103;0.49984646;0.053712986;0.047448464;1.0604873;1.2073383;-0.05459398;-0.003181134;-0.95252043;-2.8687456;-0.04652181;0.038105454;0.8934746;-2.3652313;2.6650646;-0.051817965;-4.089181;2.1211617;0.56506705;1.0539997;0.38615435;-1.5799475;0.020525387;-0.37713853;3.7034762;0.05241349;-0.14307487;2.1681511;1.8616797;1.8312317;-0.1608271;3.5564334;2.1583598;-1.3004888;1.1916839;0.2493552;1.5849442;0.0723994;-0.449957;4.2167287;-0.022936158;-0.108667515;0.14815816;-1.0875866;0.49784255;-0.74894494;-1.6711091;-3.853581;-2.831324;-1.0324934;-1.3752897;1.1179457;0.69222057;-0.0024544531;1.540744;-0.013241919;-4.639536;0.858298;-0.43498844;-0.5372178;1.6399131;2.9492807;-0.0021824643;1.1562974;-0.010673424;-0.92157865;0.010758588;0.0026527196;2.0062363;-0.0031828694;0.034426507;-0.016057765;-0.014035959;-0.015384771;2.6186337;-0.035106026;-3.2494202;1.6225458;-1.5626887;-0.38040596;-0.8309038;-0.3232221;-0.05594688;2.6869533;-1.1655539;-3.205845;3.4205132;1.564722;-0.03538881;-0.31537315;-0.10628292;-0.08716305;-0.066409335;-0.12351155;-0.6410943;0.010005237;0.52335274;-2.326055;-0.4668391;1.3801248;0.27276534;-1.1380554;0.025614474;-3.103475;0.032449692;0.30943835;0.021578051;-1.734534;2.520741;-2.3253572;1.6509947;-0.025899753;0.012645991;0.034142192;-8.741397;0.008550303;1.7087133;1.7645216;2.5587826;-0.008960862;-1.4714575;0.3016041;-0.18139118;5.0050206;0.3938195;-0.21909164;-0.46111384;-0.02211144;-0.41847017;0.8404261;6.9238415;-3.270769;-3.7275846;0.33659345;0.3172301;-0.3904869;-1.5281571;2.8229911;0.012183732;3.040738;3.1603072;0.41710043;3.8630428;-0.0059592514;-0.119398;-0.041752487;-0.1509496;0.025651006;-3.8209186;-0.006519807;1.4556464;-0.06404304;0.13923799;-0.17481947;-1.0552659;-0.95392746;1.1681492;3.2353864;-1.0924331;-0.15605174;0.5158522;-0.07811914;-1.0242182;-0.021537408;0.38090903;0.0025824127;-3.7981496;1.857169;-0.43046868;4.3217463;3.7648962;2.675553;-0.19285864;-4.0846505;-1.421034;-1.7160311;-5.4649515;-0.020823833;1.6014032;-0.055669025;-3.1616464;-0.012806975;-1.272651;-0.01775723;-5.5832458;0.0460356;0.764662;2.6524074;2.216473;0.012043469;2.466816;-3.019427;0.613076;1.5156671;0.16388734;0.012152246;-0.75233;-0.0055134706;0.19016847;0.010981356;-5.810603;1.3618621;-1.7792805;-1.8885928;0.033749044;-2.0671268;1.4655974;-0.5459479;0.03595286;1.2325712;-6.767454;-1.9062649;0.44619986;2.235423;1.591272;-0.37310115;1.2395198;-1.3374821;-0.0039087874;-0.039496835;-0.010860726;-1.4454855;1.4237337;2.3819525;0.69923276;-0.5096604;-0.16667943;-2.4381146;-4.0710473;1.0245328;-3.1443114;-3.1068962;-7.282543;-3.309148;-4.0244365;-0.052486036;0.69456905;-0.041135166;-1.9052398;1.1858064;0.0087495735;-0.05908176;0.010316679;0.5939227;0.04591704;0.7494951;-1.1897606;1.5442305;1.2695701;-0.10129617;-0.014643901;2.436868;-3.0652316;-3.6608584;-0.27406472;0.02496372;0.6366107;1.166427;-0.16539347;0.96038043;3.410057;-1.2335058;-0.03601864;-2.0014997;1.3672972;0.011212322;1.2131263;-3.2450655;0.6723165;3.1337085;0.0071719354;0.12297397;-17.832838;-0.17591986;-0.07901705;2.8709595;0.636307;-0.06926146;0.19195056;0.0032716359;1.9142852;-0.015873017;0.2649526;-2.0617054;-3.9588444;0.832867;0.3384099;0.020755928;-0.15982081;-0.16956331;0.17621505;0.13661109;0.8996047;-0.9516397;0.006467141;-3.3709514;-0.0136898905;0.018684614;-2.580784;-1.2247705;-0.025520328;2.3437228;-0.14035632;-0.03782624;-1.8945059;-1.6416157;0.32937783;1.5081453;-0.013696887;0.021498807;2.6580763;3.2177591;-0.06644726;1.0813576;-1.0324544;-0.7417059;-0.86582863;-0.036114525;-0.057107344;0.83065957;1.0845299;0.28296632;-0.2540723;-5.4308267;0.04822324;0.6700227;-1.4320524;-1.9310197;0.13419053;0.21684143;0.34653646;-0.0034775522;-0.1503712;2.363096;-0.012843431;-0.9622905;1.3156824;-4.3504233;-0.008262224;0.052261997;1.4349276
0.49040547;-0.25999343;1.7131947;2.8254921;0.0034957854;2.0749552;0.1313427;2.2104158;-0.040983386;-1.5637265;-0.004264088;1.4385741;-0.36186397;2.185216;0.35144526;0.20391636;-2.968736;-3.1909218;1.093099;1.1966152;-7.9937487;0.16643848;1.3929313;-0.9660066;0.51141244;0.22040398;0.029725604;2.1569188;0.2193216;0.9196234;2.3073394;-0.019609395;0.1631883;0.28504658;-2.0909948;1.2018493;-1.5234396;-0.08477786;-0.048618317;1.3576727;0.42454758;-0.023304822;2.2098625;2.4500077;0.029182406;0.953459;0.056478366;-1.3384788;1.3676018;0.0058276528;0.049102888;1.6714338;-1.0845652;0.014608481;0.006468755;-1.6394305;0.056660194;0.017590102;0.013495721;-0.75088525;-0.016425287;-0.6089147;0.06408818;0.511857;-0.020293271;-1.7406267;-0.021254651;-1.046074;-0.33545715;0.5951013;1.3705631;-0.032295316;0.04307249;-0.039948534;-0.3232613;0.43507242;0.016228821;-2.4538174;-1.1324322;-0.022917086;0.023158345;1.4969488;-2.1016579;1.561757;0.021050109;2.839843;-1.8036321;0.2572709;0.071585916;0.009327379;0.17463844;-11.874867;-0.910921;2.5553234;0.9539884;1.4267827;0.99216443;2.2208898;-1.3679267;0.49360457;0.10052062;-0.28507447;5.203411;0.035525493;0.59063065;1.8207042;0.3013115;1.136566;-8.283687;-0.00800293;0.47468787;-3.2639034;0.61767983;-1.579894;0.5189136;-0.78480196;-2.4198792;0.7634898;0.06935821;-5.26231;-1.7050453;0.42675424;0.38487247;-0.10920168;0.0029258118;0.045762125;0.31686664;-0.8277199;0.17751072;-3.857703;-2.9240663;1.2579172;-1.8445275;-0.035747837;0.02462691;0.84772503;0.49136522;-2.9722333;0.029812945;0.012795784;1.2486302;1.2344459;-1.2410811;1.2440755;0.022504218;-1.2050653;-0.063932694;0.0023054315;0.7277315;-0.28762302;-0.009103554;-2.3378499;-13.918144;-3.8116539;-0.00544759;0.0073263505;0.014734862;0.7802564;0.043121316;1.9937779;0.99173224;0.20193799;-0.7597757;0.004181521;0.076581724;-5.20061;1.0036203;0.033453424;1.4027114;-4.7072845;2.1748874;-0.11100361;0.58906114;1.4990946;0.4761383;-3.8564587;0.033860095;0.048507575;-0.97589064;0.13218822;0.038849086;2.142358;2.6918395;1.6465174;1.3219377;-1.5725183;-7.5648227;2.0114627;0.16671394;0.024738533;2.194744;0.038918495;-0.2927121;0.08597205;0.10370459;-0.63650656;0.43497097;-1.5086673;-0.4683772;0.75007164;1.5180573;-0.28689277;3.7880344;-0.018160747;-0.37594134;0.00353204;-8.3371725;-0.011720956;-0.42240724;-4.2579284;0.59040844;-7.3474183;0.0023591514;-0.02840414;-3.1339033;-0.006379943;-1.7108597;2.0307283;-1.6733294;-3.7267952;-2.73805;-1.9952173;-3.0179205;0.03403434;-3.2441807;-0.14656195;0.08362685;-3.6827111;0.6070723;0.12170564;-1.6009426;0.056964144;-1.0769826;0.43914428;-1.5898129;-3.4251103;1.1486044;-0.010024114;2.53148;0.124555826;1.2158111;-0.005753255;-0.013154078;-2.2664597;1.3147644;-0.0772517;-0.007003334;0.33279613;-0.806667;1.1379613;0.67050016;-1.2841198;-0.31823292;3.142655;0.5193922;-0.07057494;1.0871837;-0.0038950148;-0.3254049;-0.013391197;-0.0034468533;0.6713178;0.5088368;-2.9918163;0.84588027;2.896449;0.9116146;2.2333853;0.16560987;1.0328939;1.1087366;0.59946907;0.057419162;0.8406978;2.6683552;-0.024089862;0.6146681;-0.21724923;-3.5275555;0.26463667;0.6124083;0.49495175;1.4231113;1.3297514;-0.9238343;-0.08687761;0.7541119;1.375383;-3.7000704;2.9655752;0.052318677;1.7639213;0.28775176;-0.57137394;1.6742085;2.3512044;2.5604749;-0.12191905;3.3931413;-0.024643669;1.0279161;-0.013995436;0.01468092;-0.41972312;0.03760018;-0.13255903;0.072515495;0.040424615;0.058981396;2.733663;0.61561614;-3.2248385;0.84396166;-0.3522614;-0.078857996;0.31679744;-0.44810694;-0.014422547;1.1233943;-0.575474;-4.1775236;3.0720642;1.3325528;0.0905827;-0.1073787;-0.8664502;-0.089633025;-0.0003153687;0.83483225;0.9834009;-0.013084806;-3.7443116;-2.9187267;-1.937494;-0.12164844;-0.1394757;0.59915334;-0.021797517;-4.474613;-0.026832584;0.116417624;0.055341773;-1.7291926;1.3422967;-1.5383278;0.5597455;0.711203;-0.007767578;0.01374445;-5.840193;-0.011300484;0.47360814;0.1551028;2.5544927;0.008603279;0.32421705;0.13514625;1.2119044;0.9892938;-0.09894863;0.6082828;-1.6527741;0.32401702;0.19710863;2.7559054;5.54275;1.2113788;-3.1068358;-0.010643382;3.0955245;0.93928;0.3628497;-0.9362621;0.055948507;1.6203634;2.8878543;-3.8445456;2.6268163;0.07117562;-1.8715079;0.13826822;0.90976423;0.017769704;-2.0387387;-0.009945808;0.80106187;0.22084934;1.5273982;3.25131;1.4908187;-2.9952483;0.025664963;1.5512688;0.6300871;0.0027664576;1.8564543;0.67592597;1.1613599;-0.004171979;1.0731605;-0.04521597;-0.34455314;1.3313367;-0.3561494;2.382254;1.4892411;-0.13893989;0.06981809;-2.8478978;0.7586772;0.8201584;-4.6946745;0.016593458;-0.16935088;0.040098794;-0.79981756;0.040959243;-2.7615738;0.44703105;-5.1529927;0.014672264;0.5156475;2.5427256;1.4349898;-0.040348098;2.3156285;-2.9128885;-0.17227301;-0.9419781;1.0683376;2.263199e-05;1.1564815;-0.003556209;0.09289976;0.019780856;-3.2680032;0.27763873;-1.7048779;0.3902555;-0.008239003;-4.3281264;0.49689776;0.8076507;0.0018283034;2.6213005;-4.98641;-2.4226549;-1.4591894;0.38212046;2.0856535;0.40284115;-0.027365876;1.1883304;0.044764664;1.157945;0.002015034;-1.5169872;1.6260328;-3.248764;1.0251274;3.0628912;-0.0062647043;0.22820267;-0.6434666;2.5783587;-0.8139056;-1.8937585;-3.553297;2.9995139;-1.8214219;-0.018511504;-0.73797107;-0.014153008;0.7894707;-1.2062639;0.015266738;0.023185968;0.034328245;0.15986118;0.055127695;0.43200433;-0.16540055;0.75332606;1.2901164;-0.013926926;0.034942016;0.46468762;-4.114201;-1.1760404;-0.18790105;0.04407969;1.7710787;-0.40240225;-0.10587107;0.8135208;1.2345881;-2.8580081;0.3423403;-1.4120649;0.8499149;0.017485958;0.65945226;-2.930978;-0.117524005;-0.35694534;-0.009859412;-0.14736031;-16.828619;0.4004311;0.34426123;-7.1124115;-0.07180819;0.06428491;-3.3874183;0.007865152;2.9527686;-0.0070168665;1.2285094;-4.5989785;0.16729432;0.15422313;1.1487336;0.02069746;1.3294839;0.4529816;1.6043403;-0.19559167;0.8945631;0.36726293;0.059512287;0.37740567;-0.012140466;-0.031063192;0.12986903;1.7100642;0.045217052;1.6300256;0.53393775;0.022072915;-1.153968;2.3876417;-0.17757256;-0.048275307;0.02252052;-0.0012738841;-0.12591735;-0.07069475;0.7163374;-0.5819439;1.7953314;0.15500757;-2.993211;0.010378245;-0.15871374;-0.9944088;0.16458899;0.39297715;-1.3685122;-4.006172;-0.016651116;-4.021669;-1.6296233;0.5604989;-0.22855891;1.2510848;3.1594694;0.014872451;0.9606362;-1.1501948;0.054012842;-1.5013275;-1.9871554;-5.151476;-0.028620565;-0.02052656;0.69913894
0.050857607;2.0146406;2.435766;1.4832351;0.01769849;-0.8277351;4.086277;1.2553546;0.04949126;-2.4414191;-0.0068854014;3.6919231;-0.15860887;0.3144206;2.127248;0.2063775;1.9174255;-2.2940998;3.0362742;2.8635828;-6.2565107;-0.136762;-0.5258274;1.167932;0.8695681;-0.101897955;-0.015065097;0.012532909;0.784566;1.3157625;1.6482077;0.037982423;-2.9825594;-0.5100091;-3.7097812;1.8105608;-1.5955627;5.819774;0.0017894532;1.8078468;-0.077733666;-0.012557422;1.4731208;0.80852723;0.010727433;0.20692839;0.0369562;1.9438069;-1.3120519;-0.08301176;-0.022630705;2.1748576;0.48903856;0.05457105;0.015447788;-4.279734;-0.038967546;-0.8655821;0.18815327;-2.1972392;-0.08301625;-0.18965001;-0.024017;0.25309545;1.0008928;-2.2002559;-0.009558659;-2.2773762;-1.0614582;-0.20372707;-3.2847311;-0.0048988624;-0.0026665747;0.12048582;1.5117437;0.16446558;0.046188436;-1.9270233;-2.5031192;0.0035462521;0.013485021;0.5963145;0.96106285;2.3102424;-0.102957405;2.2342658;-1.9650501;-0.0294937;-0.005329756;-0.03893031;-0.05902011;-12.044586;1.552152;-0.67128694;3.197045;-1.9449737;-1.6909449;-0.054881353;-4.689776;5.0335526;-0.062330913;-3.5547862;4.229485;-0.07009275;0.5019949;2.6727152;-0.015155018;0.47109193;-10.447889;0.01786614;3.3763874;-1.1423323;-0.75355864;-3.6626904;-0.010350953;0.41267994;-3.0107071;0.640578;-0.012274711;-4.7644863;-1.7960724;-0.08217737;1.7509398;0.05164039;0.018931774;-0.0010625053;0.8090728;-1.1133989;-0.07884068;-2.9278553;1.4089621;0.927536;1.3095564;-2.9811268;0.012316479;-1.0574169;-0.63837355;1.2520326;-0.010252579;0.00071464456;-0.85269135;-0.75046337;0.5890255;3.5022907;0.033834375;-0.782814;1.2798065;0.022596844;-1.7766733;1.6021779;-0.01655351;-0.1919626;-11.618872;-3.7208989;-0.00125491;0.03347681;-0.010191054;0.5058023;0.46489063;0.3035968;1.8114753;-0.0049390798;0.14706066;0.038703233;-0.046829224;-2.3876867;2.234473;-0.046050828;-0.29575792;-5.2940216;2.7645042;0.16162948;-0.053364243;-0.52041227;-2.2799914;-1.0944568;-0.005542972;-0.039485548;-4.5263767;-0.10141928;-0.0016438763;2.170258;0.33311766;2.4588504;0.34805286;-3.2142005;-9.2274;2.8776944;1.2083488;-0.042377993;2.7437441;0.053122237;1.9214069;-0.060390018;-0.049523477;-4.0037622;0.08376031;2.1511145;-2.3956392;-0.21727028;0.9542873;-0.019039098;0.6600517;0.02781378;-2.070506;-0.060534798;-8.36454;0.03245128;0.89737004;-7.7842765;1.0334926;-1.6107169;0.016347984;0.004156102;-3.3357677;0.024694655;-1.451133;4.638271;-0.90334713;-1.5769073;0.34565106;-6.00826;-2.9142098;0.0111741945;2.568964;0.8562896;-0.025103537;-4.2217464;-0.09533983;-1.7505292;-1.9188852;-0.0036764694;-4.4170017;-0.63947606;-2.5286767;-0.69380575;0.0031613202;0.023984512;2.254315;-0.14150174;1.0626622;-0.049177315;-0.01828158;-1.0759503;-1.1850907;-0.20045006;0.0018243577;-0.56310785;-2.091594;-3.3127034;-0.18736994;-2.771074;0.8563808;2.2610364;-0.29796252;0.06906391;-0.3486249;-0.011995362;1.4277208;-0.86250776;0.041274108;-0.07692802;0.33023277;-3.299021;0.695032;-0.24421896;-0.24547015;1.3997271;1.1773077;2.9970856;1.8362209;0.54351157;-0.00779297;-5.7967367;0.39932096;-0.032062016;-0.18367942;-2.5988464;-0.54608893;2.0113719;0.031462736;0.8471389;-0.94066846;-0.97265804;-1.2044531;0.22907932;0.4796052;3.0058396;-0.60893637;1.6842139;-0.030334635;0.0552324;2.1923923;-0.7532921;-1.3581443;-0.25711793;2.2132635;-0.31353846;1.8840586;-0.00054728397;1.6896552;-0.013489853;-0.039855856;0.08251872;-0.075396396;-0.113440216;-0.040766854;-0.052509204;0.009263978;4.2213206;-0.14610463;-5.2032166;1.4984734;0.8378358;-1.2973462;-1.1250724;-1.9333243;-0.077154644;1.2467059;1.0519531;-2.8848405;3.753494;-3.3686092;-0.015056833;-0.43261716;-0.5852751;-0.049954113;-0.00548328;-0.21661738;1.8563983;0.023040375;-1.8316307;-0.09086749;1.5096226;0.56196463;0.052418046;3.8217938;0.052734338;-3.430269;0.015661355;-1.4799709;-0.01796986;0.56978315;0.33975238;0.28875;1.2955091;-0.11842625;0.016398134;0.046669632;-1.0898417;-0.040191006;0.84837383;-0.39555445;4.1795845;-0.006114673;0.18983866;0.3060271;-0.59703404;4.215557;-0.30970597;-0.18817356;0.14006136;-0.08738429;2.610783;1.540082;6.261307;0.89408565;-0.5424886;-0.15869056;-1.1671528;3.0466552;-0.11729853;-0.09601008;0.021333933;3.229421;4.8940873;-0.20309241;0.95440423;-0.07235341;1.4165671;-0.1055014;-0.32671633;-0.0036955075;-1.6946189;0.04759211;-0.9647802;-0.03521878;-0.90691006;-0.21864542;-0.7127939;-0.30566657;-0.9015758;1.7967511;1.0987626;0.0146861905;-0.6242352;-0.19703928;2.6994789;0.03451394;-1.7375668;0.0809589;2.7394028;-2.4744484;0.5135194;0.55688775;0.84718996;1.0203582;3.3909194;-4.5141516;0.9023795;2.1782746;-5.4948473;-0.013387412;-1.0775042;0.014574536;-2.4783537;-0.0036751735;4.817089;-0.058031682;-8.055384;0.0089029;1.3110977;2.2829041;-0.33048207;-0.040733777;2.1612177;0.13837281;0.05178912;-3.1598952;-0.5787582;-0.014292854;0.55338424;-0.08898557;-0.21557488;0.010907356;-6.91577;2.8218281;-0.5421517;0.63518196;-0.052424993;-4.573416;2.4196122;-0.4856429;-0.13322018;1.9110909;-7.45028;-1.2980772;2.0997872;0.50467235;4.4661474;1.3958958;0.5921423;1.7365515;-0.011858759;1.5085533;-0.006416984;-1.4920927;2.7225926;-1.3308549;1.2637595;2.1371338;0.04356415;-2.4309428;-2.1459227;2.1208694;1.7119623;-1.402028;-4.722159;2.0854979;0.5090033;0.014419099;-0.32348758;-0.016533084;-0.7605639;-0.6639772;-0.0038440612;0.0328933;-0.019727299;-0.32714286;0.018735657;-0.42403397;1.2660381;-0.04881435;-0.49752522;0.39073688;-0.010343149;2.3530354;-0.18424888;-0.9403531;1.3523911;-0.0029466706;1.4164447;-0.25832477;-0.09040645;3.6904025;1.8926014;-2.875932;-0.054162875;-0.18435556;2.2927542;-0.028178617;-2.9214468;-4.7778625;-0.03785671;0.08378847;0.011643477;-0.083571054;-17.811314;-0.11226041;-0.062413722;-0.82719344;0.7993431;0.009044577;-1.7974023;0.0055402513;-0.020014722;0.034861274;0.90546566;-2.0268495;-0.14600855;0.30570507;1.8971963;-0.07306566;0.56295526;0.7186625;1.7248963;-0.17419489;1.7223872;1.1103449;-0.028615866;2.0290759;0.32357103;-0.030464862;4.353287;1.5360693;0.016837489;-1.9439446;-0.15631112;-0.010482099;-0.7337579;-2.3450832;0.24870554;-1.6143843;0.0033949357;0.007940422;0.30317426;-1.7830608;-0.15098315;-1.7658042;-1.6484238;-0.41057757;-4.631422;0.073009335;-3.0726347;1.5970211;0.20290314;2.9954576;-2.3493996;-3.1256042;-0.030375056;-2.734138;-0.97089124;0.9582626;0.9688464;0.12783448;0.67672414;-0.06746612;-2.9711607;-0.27324715;0.012424303;-1.0143574;3.343542;-1.7347411;-0.042959597;0.005462728;-0.42690003
0.27975476;0.68749386;1.119123;0.5994072;0.012998048;-0.09930256;0.32550853;0.15707757;0.02676674;-4.812771;0.010883474;-0.27482024;-2.2076836;0.5231624;1.4054577;0.36742958;0.30636021;-0.9864505;3.7183883;1.4814345;-3.248632;0.018264089;-0.60657346;-1.1588961;-0.06127055;-0.023449576;-0.012970188;-0.50558525;0.73207176;-0.62601054;1.1625849;0.011498988;0.17240664;-0.4300879;-4.345596;1.8791509;-1.0057935;5.268628;-0.2639661;1.244153;-0.039683267;0.0012406957;-1.8256521;3.8133397;0.024698567;0.8279433;0.0005873048;-3.1416676;1.7731673;0.0316235;0.03758986;1.9880699;-2.7107584;0.029580297;-0.054425456;3.0086842;-0.02195809;0.22605914;0.34855792;-0.6375828;0.7742606;2.2050211;-0.024944892;3.263584;0.6244669;1.1054113;0.19448267;-1.085303;-1.7289165;-0.0036494578;-3.791815;-0.032470517;0.058166396;-4.440889;2.9973438;-1.7837343;0.005466849;-0.25783572;-1.3999312;0.00053998973;0.008339487;0.85311365;-2.394397;1.3903595;0.22963619;-0.46901792;-0.23361564;-0.025005776;0.07174905;0.003480016;0.040962398;-2.315976;-0.14885804;0.63973856;2.1615877;-3.844239;0.55731887;-0.117600545;-3.5380373;-4.949861;-0.022073852;3.2605047;0.36585563;0.0063212784;2.680974;-1.0830036;-0.018931312;0.4253289;-9.709661;0.044701748;-0.57920825;2.5424874;-0.5939416;-2.5411391;-3.782712;1.24542;-2.2983835;1.0427908;-0.0215868;-1.0413724;-1.0278611;-0.049711276;-1.1509581;0.5369988;-0.019551232;-0.011441656;0.3819516;0.76380837;0.01594051;4.1968894;-0.25152415;1.0895835;-4.7960777;-4.100326;-0.052137807;-1.2265271;-0.017261157;-1.0273441;0.0037711489;0.3669184;-1.7424076;2.0669014;2.569627;-2.7479572;-0.02229186;-1.9602064;0.6827232;-0.045000784;0.5434721;-3.8116899;0.006035329;-1.8080292;-0.20042197;-3.2995522;-0.03327526;-0.029149063;0.13890967;1.7000914;1.3431518;2.9242857;1.2393074;-0.061317883;0.6980799;-0.011502355;0.025036346;-2.2497144;3.6298232;0.11119026;1.0153271;0.49327826;-0.42705774;-0.056950364;-0.06868896;0.24570973;-1.6495868;1.2293857;-0.009747849;0.00032390378;-1.6104364;0.013665539;0.034063358;0.32530546;-4.256399;2.087699;0.23697597;-0.27635095;-9.045563;0.45025897;1.034877;0.025797687;1.7319158;-0.115323715;3.1902285;0.028353624;-0.0067738313;-1.1531311;-0.9651488;0.27914715;-2.0268528;-0.015326209;-1.3864754;0.8138377;2.1788292;-0.027502941;-2.288656;0.04324588;-7.9980845;0.006121297;1.8346946;-7.339353;0.036657386;-1.9351661;-0.004127498;0.008714361;-3.0728056;-0.035189074;-1.7117327;3.6847153;2.5231214;-0.4885058;-0.31685972;0.52762717;-1.6833689;0.009663897;-3.3516545;-0.26547948;0.024489788;-1.348155;-0.04260942;0.9236817;-1.0842061;-0.027952408;-7.514116;-5.6114864;-1.2562485;-0.089199126;-0.99474394;0.009348288;3.6751297;0.36117452;1.844314;0.19469997;0.0036782685;-1.0576739;1.8780859;-0.013466131;0.019573154;0.6892234;-0.80158454;-0.61315113;-0.052475426;0.48365623;-1.2610672;3.9308932;-3.02745;-0.086255066;-1.7581998;0.017785773;2.6837962;-0.051846456;-0.023656383;-0.06993505;0.77093166;-2.0272622;2.0659013;-2.9518526;1.7827579;0.95712674;1.9359046;-2.6141152;1.1921655;0.024091158;-0.023737982;-3.690577;0.7207961;0.48419106;-0.007108291;-1.750414;-2.5579097;1.8092393;0.47468382;-2.1713347;2.0282552;-2.161157;-0.8722285;-4.551777;-0.91659987;1.9590504;-2.1178823;3.0479984;-0.0012008405;0.31216094;1.9572688;-2.0596793;-0.42648798;1.188735;1.708372;0.48047838;1.7200224;0.046504233;1.5400076;-0.005288025;-0.008728252;0.038855415;0.0020709801;0.14087947;0.010778171;-0.0066161808;-0.0288084;5.718598;-0.077349804;-2.5662491;-4.0003405;-0.5405877;1.7488668;-1.417387;-1.6874428;0.28592312;-2.1186595;-0.79808336;-0.05829097;2.359663;-2.5425594;0.040752444;0.09807896;-0.4951086;-0.028436754;-0.050301675;-0.018161576;1.053683;-0.025784323;-3.9104042;-1.0582697;-1.524177;-0.7255049;0.06430161;2.0438995;-0.07215648;-7.370399;-0.019337406;1.344185;-0.032381196;-0.9937595;0.9171569;-0.3569802;1.6324219;-0.039216094;-0.009639009;0.008256198;0.41727653;0.015046935;2.9903743;-1.4253587;1.2938733;0.053445037;1.2132772;-0.03961204;-0.77182776;0.36897624;-0.35097227;-0.118696935;-1.0677178;-0.0063629723;-0.14826395;3.3685353;5.186657;-0.7391527;1.524388;0.41345635;-6.1771584;0.56734264;0.4330287;-2.6344922;0.016673055;2.7646658;2.9955804;-2.9940772;1.0457225;-0.007890233;-0.36532947;0.014983144;0.0067358636;0.0385669;-2.2697244;0.024522526;-2.0578609;-0.0079212915;-0.6177027;1.3019087;2.3701138;-2.4573793;-0.7139829;1.3680214;0.23413752;-0.05623431;-2.54437;-0.045802195;1.829824;0.019185351;-2.8017828;0.035587255;0.020730644;2.2149243;0.20282838;1.0950905;1.813398;0.3951587;0.5928182;-3.722171;1.9693669;0.289802;-6.122118;-0.0052382913;-1.4086859;-0.032933883;-3.114732;-0.013703718;1.3970742;-0.03939813;-7.3853297;-0.043230698;0.9891933;1.716527;0.22386675;0.009772542;1.7091159;-0.50127006;-0.026878288;-2.881238;-2.7475803;0.008851615;-0.29948288;0.22958189;0.21016611;0.20572911;-2.1420844;0.85229605;0.91115373;1.3698109;0.04392077;-2.6662316;1.5990458;1.570863;0.6274437;0.67140347;-0.29025784;-0.5879474;0.41567752;2.3190353;3.3193705;0.3804311;-1.8300971;0.74255335;-0.04346196;0.7439968;0.012398122;-1.6536306;3.0334117;-1.8874431;0.9129897;2.4649615;-0.09095097;1.2191354;-2.9661624;3.1555276;-0.63549554;-1.4631861;-2.5308187;-0.46569467;0.6204095;-0.010383632;-2.4251368;0.0575704;1.4625912;-1.6428044;-0.014064541;-0.06431346;-0.02228998;0.52210563;0.055731725;-4.0735474;-0.82155967;-0.6232907;-0.5394829;-0.061817557;-0.040459994;-1.0110576;-3.9794953;-1.7210538;-0.47505897;0.0036839747;0.58548677;0.10135936;-0.0800215;3.3253005;2.739996;2.2988276;-0.0078142;-0.86803883;0.6090402;0.025857378;0.22792038;-4.551893;-0.059057806;1.1453576;-0.008539691;1.8151335;-17.714195;0.008704797;-0.04013795;-1.4008915;-1.7158777;-0.005332602;0.30464175;0.09923834;-0.054719876;-0.00239071;1.4444641;1.8609935;-0.15851766;1.7265968;4.268766;0.06987161;-0.28649113;0.27291957;-1.0898544;-1.2462624;1.5085313;-0.8246583;0.018621136;0.48830214;-0.03319186;0.032403946;4.0277143;-0.11833685;0.008336796;-1.801082;0.010100586;-0.037902255;-0.4414362;-1.4853632;-0.03603971;-0.29061422;-0.031159544;0.0077852267;0.6466435;-2.0874977;-0.060172055;-0.71474487;-1.8831152;0.74115825;-1.580749;0.03644145;-1.2936498;2.8266792;-0.24940297;-1.2523605;-0.5440303;-0.23954527;0.010465187;0.2754523;-1.8936377;0.55237854;-0.47777495;-0.55579764;-2.469377;0.0075906077;-0.72216994;0.70484835;-0.042531077;-1.5423752;-0.13826594;-2.948786;0.022358391;0.0068484074;-1.3257043
2.0626395;1.9671438;2.3139884;0.7847976;-0.0038674653;-1.0233635;-1.1279736;-0.044097602;0.04728185;-6.3727894;0.020718414;-0.42848563;-2.1031866;1.9442098;3.1637766;0.48118058;2.2428958;-3.2377417;2.87736;2.326513;-1.3542892;0.011803679;-1.807868;0.18184261;-0.067259744;0.00613246;0.066585265;-0.9489054;1.1916538;0.4372681;3.7179146;-0.002238655;-0.042931367;-3.5106626;-1.0799466;1.7285422;1.700977;4.1208267;-3.0929377;1.350831;0.057199292;-0.007165758;-2.2368233;3.1873004;0.021097979;1.8641657;0.055270717;-2.5387073;-1.0327685;0.016453685;0.022289239;2.1398396;-6.3189163;0.025373407;0.024908897;3.015763;-0.010753409;-0.78762275;-0.0131329615;0.7619286;-0.20977761;0.83888096;0.054730956;2.8603675;1.3527979;-4.25014;0.19409025;-1.407995;1.3217221;-0.008659833;-1.3781766;0.03298626;0.0051263883;-3.875686;3.3451817;-1.9821607;0.044312485;-0.13375673;2.0209692;-0.0013398905;-0.025961744;-0.7548177;1.4712166;0.5776259;-0.082160346;-0.14232978;-1.3894163;-0.028696647;0.024610508;0.017165847;0.059976958;1.9799505;4.0474954;0.19054897;-0.42466187;-1.5826691;1.8306069;0.7375688;-5.423976;-4.0648518;0.022128504;1.3266313;2.472665;-0.0040012146;-4.011784;-0.3414896;-0.019781115;0.95418257;-5.318653;-0.010231523;0.20825957;3.6686394;-1.148835;0.29773343;-0.40324917;-0.7521732;-3.3856752;-0.11646254;-0.02249116;2.2375865;-0.4161902;0.039086696;-2.607255;-0.22888118;0.0063177943;0.0462572;-0.36526597;-0.09139955;-0.005997557;1.8806682;-0.31824142;1.0956628;-2.1977005;-1.9359412;0.032427274;1.333729;0.21327348;-0.09237137;0.011027008;-0.036939796;-3.1099513;-0.79033995;2.1006038;-3.965138;0.026542742;-1.1995243;1.548972;-0.0030746774;1.9259752;-3.5306375;-0.00980778;-0.91019446;0.64789486;-2.7670643;0.027125742;0.011970218;0.031917922;-1.4886386;-0.46125767;2.6450694;1.3992593;-0.044040605;-0.43410298;0.024387138;0.046841037;-1.1187265;-1.5294936;-0.05051277;-0.27891248;0.95835555;-0.017870685;-0.05654904;0.03215474;0.35181215;0.2508919;3.3901963;0.01421505;-0.04871921;-2.379944;0.005351661;-0.07083372;0.3056665;-1.951707;1.3966255;2.4400628;0.41401562;-6.245999;3.9600987;-0.01819533;-0.023151562;-4.7244143;0.03729047;-0.12718621;0.011703035;-0.00029363838;1.4170498;-0.028812254;-0.5075653;-0.8429483;-0.0027257586;-1.3764389;4.5767484;1.531951;-0.02233489;-3.5025306;0.02576396;-4.640068;0.046194665;1.5017725;-4.374372;0.32351297;-0.68033665;-0.004994861;0.03404595;0.090755664;0.030799462;-0.18746527;2.024276;-2.33419;-1.283612;-2.5958657;0.8076317;-2.7423196;-0.05999927;-1.8289835;-0.03700465;-0.013849139;2.3024585;-0.022160623;-1.8077258;-0.52631456;0.04895971;-4.094862;-1.1523129;2.039546;-0.41209236;0.84125954;0.01760116;2.1672401;0.3817383;-0.9494232;0.12612522;-0.0058297906;0.9264502;-1.2832602;-0.039721355;-0.0059111384;-0.32396582;1.4032197;-1.8063111;0.038349934;-0.7273508;-1.3189061;1.5904719;-0.09181132;-0.19340926;-1.2543628;0.016300274;-0.040898208;3.1573095;-0.020855114;-0.027721524;0.5529537;-1.6931576;1.1587211;-3.3445985;-1.9554054;-1.1537796;0.27653846;-1.4249878;0.34488887;2.0419044;0.018156134;-7.642088;-0.29932106;-0.049276657;-0.01180608;-3.405506;1.2330737;2.1114829;0.888311;1.1149668;1.7487317;-2.1268318;-1.1073378;-5.6022477;0.8648867;-2.3097935;-1.2415593;2.9578316;-0.01149105;-1.0287343;2.5570486;-2.082943;0.7417477;0.4024232;1.4370277;-0.09557335;-2.530595;0.0012380908;2.6231813;-0.04474476;0.03221753;1.1838219;-0.008138094;-0.009079472;-0.025273059;-0.018603537;0.06942584;5.5606112;0.009120751;-0.05012007;-7.481277;2.6334767;-2.6740496;0.6473721;-1.3413612;0.020567145;-4.0807;-0.12260559;-1.6642318;-0.7014458;-4.623283;-0.024666997;0.3002702;1.2092811;0.0064380034;0.025692409;-0.003138601;1.3003126;0.030941078;-4.2943926;-1.5880667;-2.4230864;-0.5964456;0.007657178;2.9883773;0.048296817;-7.157323;0.04203864;1.3208573;-0.0012630657;-2.0797544;2.7473228;-0.53346795;-0.16114424;0.026162304;-0.011417743;0.04293159;0.8161704;0.008008578;2.7602177;0.9920894;2.5280223;-0.0087334635;0.90225536;0.5690463;0.51532817;1.3672149;-0.026786122;0.0009699955;-1.3965343;-0.031418003;-1.783988;2.2782707;3.328075;-3.4279757;1.0537821;-0.08622144;-3.6093612;2.1119366;-2.3631594;0.39600345;0.006095369;2.843031;2.3053176;-1.0503658;1.421768;-0.011866645;1.5649405;-0.07260926;-0.026068628;0.02239751;0.5699661;0.027160117;-2.749423;-0.03582485;-2.7078605;2.3408425;-0.76775753;-0.7889455;1.6941692;1.5090046;0.03474433;0.056642175;0.81692207;-0.01598488;0.28390697;0.016861698;1.0511032;-0.024441136;-0.076101705;1.0866317;-6.169869;-1.7141234;1.5292431;0.76388675;0.7708343;-3.146725;2.270544;2.5859587;-6.786302;0.028937798;-1.8232336;-0.058373146;0.2656569;-0.004700537;1.8110784;0.06696879;-8.590768;0.028015263;1.4539657;1.373479;-3.2836015;0.03211156;1.09012;-4.0343914;-0.04715341;-2.5166132;-2.0777192;0.016189458;2.3928413;-0.047535714;0.017261721;-0.0012437794;-2.8195071;0.97698385;0.5318022;1.369185;-0.0022317562;1.1890239;1.2824104;1.2316113;-0.20982254;1.3867629;-2.4213617;-0.42364806;3.631448;-0.9837482;1.990732;0.5884574;-0.6816883;0.19033715;0.01695895;2.2010884;0.009369395;-1.8223168;3.1687024;2.7980847;3.5676262;-2.7229571;0.1183826;1.2620581;0.49947664;3.4416585;-0.8939812;-0.08123113;-1.511824;-0.5806382;0.6575226;0.35471037;-0.18577743;0.015273651;2.9001584;-2.2597804;-0.010731672;-0.042786743;0.00014056903;-1.8636491;0.0534946;-0.42408365;-1.4111621;0.5692506;-1.1749969;-0.040428333;-0.0035337154;-2.9107733;-2.6661325;-4.124012;2.4455478;0.021810178;1.167919;0.6891792;-0.10842365;-2.546943;3.140876;-3.9829042;0.021234611;-0.1892365;3.4204516;0.01677232;0.9808093;-4.9089746;0.02336614;0.6534278;0.01638829;1.5808134;-14.993985;0.007554497;-0.012540665;-0.59398293;1.6754422;-0.0037917334;-1.3825941;0.03404477;-1.089457;-0.00055936776;-3.349383;2.7000518;-2.523311;1.9553823;2.3905122;-0.02706183;1.1435657;1.2894961;-1.1201069;-1.2434232;1.1847436;1.1881846;0.06293847;0.34021223;-0.018877696;0.0068244343;2.5781765;-0.3297176;0.019988561;-3.0850792;0.02109842;0.27989754;0.22358994;-1.3685889;-0.09221729;2.1230886;0.016941492;0.006996354;0.23903148;-1.8915433;-0.04797449;-2.6768348;-1.7944863;0.62918115;-6.7370453;0.032680325;-0.70124775;3.2798388;-0.7882234;-0.38128522;-0.16235621;4.2131453;-0.016285902;0.4884037;-2.0708642;0.4822978;1.4952292;-1.4042542;-5.9470906;-0.034421563;-2.8611348;-2.9242072;0.0009691097;-0.33039662;0.042992633;-0.59898806;0.052454203;0.028907703;-2.612634
Bias from input to hidden layer.
0.13800795;0.17485805;-0.09559971;-0.30555233;-0.002754709;0.5280116;0.5812074;-0.20352927;-0.0072750715;0.008453574;-0.0030213883;-0.51604664;0.015580584;0.14259148;0.27944902;0.03988666;0.19280742;-0.51173216;-0.51961046;-0.41464517;-0.08822079;-0.008911736;-0.08595093;-0.26202744;0.009793796;-0.00591205;-0.0049710046;0.09023398;0.06302094;-0.28616738;-0.39584315;-0.004429003;0.35024446;-0.1990966;0.07697718;0.5486853;-0.41015884;-0.0314855;-0.32632086;-0.4012652;-0.008299861;-0.0036737525;-0.06071097;-0.03402465;-0.004768417;-0.22026809;-0.003910211;0.012464387;-0.0006804838;-0.00534575;-0.008317861;-0.28445527;-0.3122323;-0.0037044722;-0.0032968642;-0.18012619;-0.008275381;-0.09507447;-0.22151633;-0.040324375;-0.00045128248;-0.06284551;-0.0065011554;0.17320718;-0.27509418;-0.29065493;0.06435013;0.07228274;-0.8207564;-0.0045599584;0.03713813;-0.005873558;-0.003335295;-0.3347836;0.08726337;-0.23103102;-0.007208581;-0.35635227;0.10024375;-0.007806252;-0.00038561798;0.48298278;-0.46710503;0.009372007;-0.0037503703;0.027446175;-0.29719707;-0.0030718904;-0.0057176375;-0.00830756;-0.0067046178;0.3135536;-0.04588411;-0.15605664;-0.19139512;0.3618159;0.1635045;0.04280546;0.101391174;-0.0116493525;-0.007994964;0.043613672;-0.39414376;-0.007438379;0.0011492737;0.14969534;-0.0070153642;-0.043589734;-0.062262297;-0.0011669117;-0.35443965;-0.12941915;-0.3734556;0.11705409;0.051511038;-0.43632776;-0.11699973;-0.09240704;-0.0021759754;0.032333948;0.10731975;-0.0063179564;0.09478914;-0.005036558;-0.0054949652;-0.0074066683;0.45988292;-0.37158397;-0.005550972;-0.107974954;0.30156446;0.1984602;-0.23647578;-0.30198923;-0.0025879634;0.27336547;0.1983298;-0.37008607;-0.0070103505;-0.0048080483;0.038568404;-0.5157578;-0.21515965;-0.16445954;-0.006252016;0.35177064;-0.12508148;-0.0046546706;0.44064972;0.05320571;-0.0066928095;-0.11537985;0.07698955;-0.4455851;-0.008888894;-0.009284757;-0.0073600835;-0.04091696;-0.4986579;-0.30171356;-0.33201554;-0.0035102423;-0.13226289;-0.0035176335;-0.0069236574;0.22881474;0.04054973;-0.001424576;-0.24875316;0.18216233;-0.077051386;-0.010030443;-0.007373918;-0.40365744;-0.32000357;0.03865837;-0.008087538;-0.005122785;-0.1230638;-0.0030021966;-0.0059281164;0.18690605;-0.14755826;-0.50680417;-0.23209229;-0.41358903;0.2097432;-0.14232895;-0.1973939;-0.004016815;-0.12436043;-0.003997726;0.033702828;-0.0062393206;-0.007425333;0.17420252;-0.2446404;-0.26335523;0.21067974;-0.0068396283;0.5342886;0.31758496;0.3333594;-0.0051540956;-0.20196578;-0.0068394323;0.43035898;-0.014626522;0.22617981;0.22772412;0.06622351;-0.14959133;-0.0074518686;-0.006065618;-0.46892852;-0.0065344376;-0.1320414;-0.06967216;0.07663185;0.28251988;-0.0673503;0.02949795;-0.09370167;-0.00404383;0.29198772;-0.004772938;-0.006622462;0.18587868;-0.003234199;-0.052684557;0.07986404;-0.00438924;0.25400504;-0.41887835;0.07208985;-0.6019803;0.21380323;-0.0009987953;-0.2773554;-0.2430507;-0.33508977;-0.0075184903;-0.007290878;-0.0064687147;0.16038859;0.08432367;-0.0041148616;0.03862814;-0.026542349;-0.35164204;-0.007885036;0.20383026;-0.7068314;0.15344852;-0.27511787;0.09412731;0.098192476;-0.005361339;-0.32946303;0.4258669;-0.0017952058;-0.006876471;-0.5079457;-0.09342119;-0.36598083;0.2636149;0.19791667;0.11753157;-0.13174847;0.25822148;-0.117154725;0.053230904;-0.0042584804;0.37854183;0.095601;-0.0011925586;-0.002177236;-0.30257195;0.27553484;0.05558038;0.3089686;0.081724875;-0.09364236;0.095246926;0.13494465;0.14237335;0.21074449;-0.32060486;0.14520489;-0.16545601;-0.006888518;-0.37674576;0.06611277;0.021339444;0.01819452;-0.17872557;0.15147844;-0.011790632;0.37907016;-0.0029004838;-0.41619337;-0.0039872807;3.379337e-06;-0.55204844;-0.006935292;0.10549861;-0.00751359;0.07452459;-0.006571103;-0.3061091;-0.005865081;-0.40283287;-0.0063397344;-0.23425747;-0.19518705;-0.469893;0.19466424;-0.007746069;0.40545887;-0.06407597;0.35581943;-0.5535163;-0.28374752;-0.006473059;0.018194787;-0.11858985;0.062358037;-0.0076923086;-0.0067102574;-0.18896744;-0.0022978068;0.29797572;0.14894912;-0.044852186;0.17518134;-0.0023430076;-0.069360055;-0.005082492;0.18481137;-0.0067603635;-0.6232625;-0.005598858;-0.026674226;-0.40474305;0.04882684;-0.3630235;-0.007985877;-0.0054601016;-0.006438615;0.59892243;-0.0066469274;-0.13502021;-0.30658966;0.08859072;-0.009604285;0.05082771;0.101416074;-0.12596741;0.11195171;-0.00453859;-0.014215381;0.33785203;-0.007319662;0.10525203;-0.5004742;-0.520627;-0.074910164;-0.024144603;0.111144446;0.1592888;0.16337457;0.015214303;0.21308646;-0.0047644163;-0.21912456;-0.11853352;-0.184532;0.13616408;-0.0049019316;0.62946826;-0.004182978;-0.004726919;-0.009515999;-0.22333044;-0.0055054906;-0.28948617;-0.004602272;-0.007850981;0.05618918;-0.049867652;-0.16442864;-0.15718012;-0.18466082;0.37593994;-0.004550767;-0.122287236;-0.0069534928;0.26543623;-0.0025167495;0.40531313;-0.012492164;0.1510601;-0.022885887;-0.23134622;0.44307324;0.18291074;-0.3063456;-0.35316774;-0.24905609;-0.38658822;0.14531219;-0.0018412787;-0.0025021199;0.13707584;-0.004913429;0.085927166;-0.009760406;0.3646448;-0.0074045453;-0.20737644;-0.0059260605;0.19541462;0.20760107;0.13355951;-0.005650955;0.23285657;-0.7330518;-0.0077139502;0.23997481;0.4696249;-0.0058797286;-0.17883442;-0.0044553448;0.11810331;-0.0068276804;-0.5548318;-0.16702731;0.2802264;-0.18331735;-0.00745394;-0.24013229;-0.024691066;0.11440313;-0.006652602;-0.094032444;-0.5642281;-0.09903113;-0.7178316;-0.25265038;-0.1170338;0.30584124;0.05511569;0.30199823;-0.0048003895;-0.23056503;-0.006659798;-0.18421362;0.23613739;-0.22445045;-0.18019451;-0.14087124;0.06163164;0.16588856;0.11639613;0.15981802;-0.21707404;0.23767756;-0.20109472;-0.2258651;-0.053102396;-0.010077277;-0.20409936;-0.0049276394;-0.0951601;-0.14431857;-0.005476263;-0.0024347927;-0.0060976814;0.13989359;-0.00594151;-0.03422619;-0.33113873;-0.025203586;-0.3647343;-0.006410352;-0.0064085377;-0.5479688;-0.0061273808;-0.0687701;-0.19559738;-0.0001657183;-0.5219317;0.110385165;0.01617211;0.05593451;0.05874432;0.62507254;-0.0034495438;-0.11976828;-0.47545114;-0.009610743;0.021182405;-0.019331595;-0.0047098417;0.20073321;-0.0022896058;-0.42301458;0.07184031;-0.007442974;-0.00665579;-0.84990674;0.10336461;-0.006735309;-0.011215153;-0.0011846599;0.044396203;-0.005573538;-0.67325705;-0.38789698;0.019046383;0.3517177;0.06090983;-0.006860303;0.13018022;0.12805215;0.08773073;-0.120421484;-0.41112065;-0.116818234;-0.0077721546;0.07908094;-0.0058638337;-0.007438417;-0.0566772;0.0845593;-0.004746848;0.13116962;-0.007485356;-0.0021826753;-0.12484874;-0.12682424;-0.0059336266;-0.05881508;-0.0055162474;-0.0054806187;-0.21943045;0.47099912;-0.008396007;0.21939646;0.38295174;-0.010212288;-0.37453592;-0.004552619;-0.09657889;-0.2919558;0.009721562;0.40778857;0.3673449;0.06163525;-0.0066078594;-0.35573247;0.09592396;0.84142107;0.036262117;0.39598608;0.22229825;-0.0046307673;-0.19860414;0.10961459;-0.0075401263;-0.2459796;0.07578613;-0.17687221;-0.0041522128;-0.0053048856;0.32199472
Weights from hidden to output layer.
1.4550233;-1.5377032
1.0070266;-0.92574173
-2.103467;2.0736704
1.4446592;-1.4207637
-0.07202319;-0.07214007
1.2261424;-1.2225342
-1.5036718;1.3956454
0.810779;-0.98943347
-0.008990613;-0.009106108
1.3070192;-1.3864521
-0.009805446;-0.009839552
0.81310105;-0.91451514
-2.6125753;2.623148
1.4874884;-1.3961266
1.5196961;-1.5923122
3.3166962;-3.2289896
1.9790277;-1.912847
-1.5260868;1.4285367
1.8048058;-1.9059105
0.52039444;-0.6335242
-1.1204628;0.99621326
-0.037367083;-0.03762827
-2.0179243;2.0366104
0.7584704;-0.6390367
2.5879385;-2.7195482
-0.051852275;-0.051739424
-0.031806212;-0.03154789
0.5446182;-0.4771812
1.9927766;-1.9935092
1.0661066;-1.19963
1.5640717;-1.6109998
-0.04188632;-0.04199749
1.6443609;-1.5044948
1.0761938;-0.926207
1.4467767;-1.3973225
1.3877021;-1.4720141
-1.9315009;1.7546849
-2.695972;2.8158214
0.98408926;-1.0343423
1.191417;-1.0295252
0.024111481;0.02414248
0.052027002;0.051843073
-2.372855;2.3241298
-2.625603;2.7278807
-0.0066501163;-0.0068865134
1.3823047;-1.5554084
-0.072269656;-0.07221126
1.774904;-1.823465
1.1941224;-1.2941504
-0.041001387;-0.041064654
-0.046017747;-0.046180535
1.5234263;-1.5308844
0.9244191;-0.9660196
0.020372618;0.020321317
0.010990245;0.011098236
-0.74840933;0.7277747
-0.015431143;-0.015301256
-0.4734599;0.45501316
1.722027;-1.7357821
-1.2973982;1.3512866
0.016329205;0.016468484
-1.1810108;1.128083
0.056293994;0.056399327
1.7983464;-1.9508009
1.6424832;-1.7235125
-2.1504164;2.093583
8.359224;-8.234861
-1.40452;1.3430473
1.7637949;-1.8241867
-0.021515299;-0.021512467
-1.0252973;0.8935102
-0.019027341;-0.017040009
-0.06545566;-0.06560472
1.0469705;-1.0670006
-2.346768;2.2927032
1.4176717;-1.3939866
0.039966922;0.04175234
-0.27032134;0.31309202
0.74795085;-0.83663666
0.029443251;0.029837433
-0.010136234;-0.010333948
1.3512;-1.2420032
-2.609992;2.6610258
-0.829036;0.93410015
-0.0018550392;-0.0018843063
0.8169065;-0.8243573
2.0755627;-2.0882165
-0.01179384;-0.011872021
0.047321156;0.04745979
0.0018988394;0.0014101907
0.013211434;0.013208079
1.0918939;-1.1012824
1.4725603;-1.4470391
1.0731517;-0.9847742
1.5519223;-1.5853944
1.4964839;-1.5506343
0.8487749;-0.9210877
1.7599875;-1.8611026
-1.7947209;1.6403599
1.5361618;-1.6118164
-0.0052046864;-0.004977809
0.9897607;-1.0341053
-2.5470502;2.5366535
0.022041019;0.021859007
1.1359671;-1.1148597
-1.372105;1.4648232
0.005341821;0.0052147396
2.1633341;-2.1549215
4.5351973;-4.470923
-0.054330256;-0.05438353
1.811826;-1.8209567
-1.1799232;1.1347525
1.2510221;-1.3316247
-1.3040096;1.373986
0.93518895;-0.8527108
1.6511205;-1.691413
-0.8558699;0.8269242
1.3695022;-1.2635429
-0.01072189;-0.010578593
1.9774082;-1.8445181
-0.5438837;0.55910677
-0.006889168;-0.0067952727
1.0410242;-1.0842484
0.056374192;0.05650246
0.033528663;0.033796683
0.008403235;0.0082260175
1.4217607;-1.3429598
-1.7819626;1.884106
0.010673006;0.010695278
-2.855406;2.9121733
-1.5650945;1.5241253
0.780683;-0.7959996
1.6935837;-1.8284401
-2.5158107;2.5814042
0.035901926;0.036026895
-2.1384404;2.2839813
1.1881179;-1.2303805
1.7907671;-1.8018764
-0.053628217;-0.053701498
0.017031433;0.01729522
0.8700943;-0.95529246
1.6472791;-1.6794766
-0.60550576;0.49418473
-2.6919312;2.558663
-0.04758424;-0.047183026
-0.74585813;0.68390226
0.8812276;-1.0265157
-0.016794235;-0.01694227
1.3953286;-1.3277528
1.0972496;-1.0148202
-0.02468663;-0.024896305
-1.2469479;1.3335125
7.723127;-7.7823315
-2.0795522;1.973888
0.055419344;0.054820683
-0.0071868543;-0.0072792913
0.03156114;0.031639434
-2.1037056;2.172136
0.79526854;-0.62813485
1.4271436;-1.3506166
1.4913611;-1.3973567
0.05449718;0.054685723
1.7101411;-1.8719327
-0.008080113;-0.007965268
-0.0088357935;-0.008792695
1.3867244;-1.2952017
-1.0304496;1.0760326
-0.03872543;-0.038772218
1.4183599;-1.2667042
0.5044892;-0.47015134
0.7246746;-0.8669726
-0.04700806;-0.046913866
-0.065320365;-0.06495598
1.131539;-1.2337999
1.3885388;-1.4994204
1.7717687;-1.8319833
0.01897925;0.019096298
0.0089370245;0.0090013025
1.1310425;-1.0416965
0.047315586;0.047487658
0.01844633;0.01825374
1.4801639;-1.5928726
-1.0362402;1.0825969
1.6487399;-1.5416884
1.6763828;-1.6479795
-1.4713607;1.5148382
1.7759564;-1.8468903
1.198668;-1.3727949
1.4313704;-1.4154248
-0.05436591;-0.054062773
0.7506543;-0.7857199
0.03335025;0.03326697
0.996739;-0.9824237
-0.03190975;-0.032051086
0.060845636;0.06089662
0.9685735;-0.9087637
1.1948968;-1.0887438
-2.282202;2.1461768
-2.1868799;2.1310701
0.010500606;0.010623192
-1.6750896;1.8222042
-1.895865;1.9649804
-2.9264033;2.757497
-0.049306463;-0.049077187
0.61009663;-0.5017121
0.0005248598;0.00039428307
1.5990671;-1.572911
0.004003601;0.0041454067
1.3113419;-1.2518244
1.5776967;-1.5111681
7.0373936;-7.036286
1.3927207;-1.5464233
-0.071000025;-0.07137549
-0.060029406;-0.059921768
-1.0206633;0.89915454
-0.017658157;-0.017270312
1.0668582;-1.0445926
0.9399079;-0.8902415
1.4092131;-1.5482932
-2.4448955;2.343569
-2.8005502;2.704488
1.5644046;-1.5816872
-0.88166165;0.8250453
-0.07833479;-0.07864966
-1.3564341;1.2903397
0.008486975;0.008960172
-0.004479205;-0.004302521
1.5720246;-1.7576679
0.039370846;0.03941567
1.4307735;-1.4574865
-0.56060386;0.5686236
-0.007267729;-0.007067911
1.8688444;-1.829
1.0132521;-1.1149529
-1.5085492;1.5834879
1.3526958;-1.4811506
1.1755512;-1.2897913
0.004440439;0.004771768
-1.4727976;1.4094628
1.983134;-2.050014
0.96866745;-1.0647482
0.007160748;0.0069836285
-0.027293378;-0.027210051
1.2046481;-1.0973753
1.7359071;-1.9114077
8.2033415;-8.361373
-0.0077869333;-0.0077863988
-0.027044043;-0.020561641
-1.955185;1.9527436
0.8750898;-0.9134408
-0.005500594;-0.005208283
-1.6648502;1.634292
1.5772471;-1.5131025
1.25007;-1.3735504
1.2498314;-1.2002671
8.601511;-8.527591
1.6919053;-1.6768883
-0.033289775;-0.03297256
1.2130833;-1.1622231
-3.1420953;3.1790674
0.024668004;0.02443158
0.019789968;0.019818272
1.2624481;-1.3131483
1.3870898;-1.2895024
1.348343;-1.3624526
-1.7486022;1.6338806
-1.1267356;1.1885715
0.29076466;-0.14372665
1.0594494;-1.09304
-2.5650866;2.598216
1.8520085;-1.8577428
0.053743184;-0.21223705
-0.030466711;-0.030427005
1.5162072;-1.6433576
1.515605;-1.5602815
-0.017608825;-0.017524311
-0.020448877;-0.020462736
-2.393504;2.337267
1.5663947;-1.6022208
-1.2689289;1.214014
1.0327363;-1.1144267
1.6680171;-1.7330397
-1.1232649;1.0455593
2.0292833;-2.1294706
1.180681;-1.1693377
1.5220755;-1.4641792
1.7277908;-1.6207759
2.6196256;-2.5238566
1.5126061;-1.6355529
1.2098871;-1.2991508
0.0007502043;0.0006334427
1.4384929;-1.3405641
-2.0491412;2.0444007
-1.1193041;1.1071258
0.9453007;-0.9480144
0.8535596;-0.8306333
0.2434753;-0.14541349
0.05995985;0.060288873
-2.7830124;2.784553
-0.0138299;-0.013939371
-2.1854634;2.2020552
0.023431865;0.024172466
-0.010609401;-0.010588662
0.9076201;-0.8332129
0.0612416;0.060907926
5.134534;-4.982649
0.007939253;0.00815654
8.284302;-8.181678
-0.01881213;-0.018947724
0.88175076;-0.9833313
0.005463987;0.0054880204
1.4444622;-1.5450886
-0.86486495;0.7833773
1.6142507;-1.7380155
1.2647849;-1.2488384
0.82602245;-0.84290904
-0.6270232;0.64153683
0.021026965;0.021077475
-2.1339338;2.0530267
1.9109108;-1.9391172
-1.2756481;1.2806544
1.1646388;-1.1153541
-1.9830549;2.1129057
0.037020784;0.036960125
0.06046923;0.060592774
1.4101856;-1.4200606
6.204217;-6.1911354
-0.049469788;-0.049337704
-0.0046217046;-0.004418129
-1.0568011;1.040558
-0.018468583;-0.01854581
-2.4918885;2.5840101
1.9814428;-2.0104475
0.6375752;-0.5449646
-2.619056;2.594209
0.015949652;0.015900888
1.441804;-1.5269724
0.0024160012;0.0023097158
1.9006164;-1.8953024
0.07764228;0.077043116
1.7493331;-1.8352981
0.0033798292;0.0033494658
-1.9052166;1.8895457
1.9558678;-2.0578873
-2.6163332;2.7135131
1.5134553;-1.48478
0.057614017;0.058296442
0.0019337595;0.0020431513
0.015166463;0.015192562
1.8529336;-1.7939799
0.0058014006;0.005388281
0.88127184;-0.783093
-1.4774611;1.5472691
-1.4627348;1.5308444
0.02633269;0.026229253
1.6173862;-1.7155687
1.5879058;-1.508814
0.38036886;-0.5179011
-1.7187545;1.7955496
2.0263917;-2.0997956
-0.02110419;-0.019648096
1.4252071;-1.3217337
-0.017368767;-0.017514117
1.7175424;-1.6435679
1.1299608;-1.0305568
2.1661801;-2.195702
1.2574136;-1.3987526
-2.0179207;1.9591173
3.4068043;-3.265321
1.2589202;-1.3098403
0.86853516;-0.8079235
0.90783197;-0.9285882
1.480803;-1.4766859
-0.017272994;-0.01724185
0.86610544;-0.772829
0.7179851;-0.63937503
1.6962942;-1.7435428
0.7736929;-0.7558846
-0.0067098234;-0.006766882
-2.9198995;2.806294
0.056425;0.05646617
0.008871151;0.009109597
0.027583744;0.02765362
-1.7602494;1.7721822
-0.006591397;-0.0067755715
1.8912672;-1.7297587
0.048702404;0.048539676
0.91397583;-0.9649462
-2.2553365;2.3964646
0.7712724;-0.8632418
1.3540982;-1.4504993
1.4272009;-1.3994554
1.2772721;-1.3879076
-1.3397293;1.3486395
-0.05369297;-0.053705737
-2.5737145;2.5600066
-0.024077605;-0.023960415
1.4023992;-1.3413013
-0.003583387;-0.003568798
1.314596;-1.445153
0.0071091508;0.006928412
-2.4361634;2.2977753
1.0072383;-1.1124998
1.5352432;-1.6685089
-2.7309465;2.6690407
0.6533585;-0.6554254
0.78357697;-0.7555395
1.1800798;-1.1364427
1.5568696;-1.5047102
1.3195558;-1.2205846
-1.4753696;1.3728275
-1.8361937;1.8343223
-0.014358703;-0.0140926335
-1.3263958;1.3898755
-0.011073073;-0.0111389
1.1389799;-1.0978351
-0.005034827;-0.004873617
1.298431;-1.2495403
-0.00607471;-0.005938434
1.3546515;-1.2756008
0.011850994;0.012140287
1.1469932;-1.0916898
0.37927765;-0.450375
-0.8074471;0.79039127
-0.032101285;-0.032366157
0.4805844;-0.3461445
-3.4159164;3.5232763
0.06952004;0.071154684
-1.8815147;1.9172052
1.3967372;-1.4177916
0.045692846;0.045332715
1.1500415;-1.1068405
0.052463748;0.052187532
11.0088005;-11.003202
-0.039125938;-0.039348993
-1.4256543;1.2891577
1.186532;-1.1267552
-2.0521543;2.1776042
-2.6794364;2.7407782
0.047962718;0.04758889
1.709575;-1.6945354
-2.7022107;2.7203968
-1.4122906;1.4598453
-0.019210005;-0.01908157
1.5867751;-1.6892285
1.040991;-1.0649204
-0.85413045;0.7872679
2.4190712;-2.4904656
-1.488589;1.5523243
1.3437109;-1.3229855
1.2170714;-1.237237
1.4971442;-1.4328114
1.4680469;-1.4020227
0.0008265645;0.0015743113
1.5896707;-1.5969683
0.012561298;0.012504845
-0.9064985;0.8954622
-1.4061474;1.5276346
-3.018333;3.0048914
1.0692149;-1.0426695
1.1137528;-0.99650586
9.0495825;-8.986115
-1.5633748;1.5058265
-1.7131587;1.7407943
1.3411274;-1.3038257
1.1537429;-1.1542784
-1.986455;1.9515793
-1.3602765;1.303707
0.93835026;-0.9438518
1.0425606;-1.0513958
2.6148498;-2.7110264
1.5278915;-1.4917907
-0.031103829;-0.03102414
-3.070284;3.2289975
1.9281063;-1.8281422
0.024163386;0.02408336
-0.015982946;-0.015981354
0.009953397;0.009864965
-2.092033;2.0157952
0.019445524;0.019123537
-1.8816863;2.0543973
1.7792689;-1.8449738
1.8594406;-1.7161623
-2.6043231;2.5270689
0.0001941512;0.00054345
-0.06801462;-0.068164416
2.4533355;-2.5712163
1.1092278;-1.0662127
1.494851;-1.4003974
-1.2846445;1.4249855
-0.023924427;-0.023881432
1.2893966;-1.2816933
1.7920222;-1.9071151
5.672124;-5.6345057
-2.3555412;2.4585862
1.0029794;-1.0977825
1.6594619;-1.5248417
-0.068249315;-0.06832977
-1.139659;1.0631865
-1.6958351;1.6279492
0.053928822;0.054251526
1.4707665;-1.3947148
0.9841255;-1.0668231
-0.0556264;-0.055465654
-1.0224015;1.0740675
-0.071052924;-0.07066555
2.048755;-1.9877224
9.447642;-9.431575
-0.042468175;-0.042612232
-0.041499875;-0.041456506
-2.5010257;2.4914603
-1.2896692;1.2684001
0.024725223;0.024464875
-1.2481196;1.1362004
-0.016660277;-0.016764194
0.32784155;-0.27367026
-0.015997866;-0.016032154
1.4317331;-1.5667369
1.4258026;-1.4837843
1.1586877;-1.1885681
2.2415211;-2.2416265
1.4916346;-1.4124451
0.07064934;0.07070321
0.95146304;-0.9654406
-1.3627907;1.3153069
-1.3447787;1.2855501
1.9554393;-1.8939679
1.5083065;-1.5283365
-1.1805751;1.1264687
-0.011594259;-0.01171233
1.2185091;-1.3385998
-0.01589392;-0.015676258
-0.01381309;-0.0139717925
-3.1639776;3.2891543
1.2898735;-1.2016495
0.047236267;0.04710156
0.87128246;-1.0462657
0.0971818;0.0970234
-0.039760437;-0.03976472
1.3796985;-1.3159182
-3.1573458;3.1345627
0.035563935;0.03549698
1.1812255;-1.1482812
0.030200962;0.029624943
0.007218105;0.0068465015
1.9607059;-1.8214477
-2.1295934;2.1278865
0.025868362;0.026187874
1.2047485;-1.1656591
-2.2364824;2.270518
0.047039565;0.04835893
0.76415455;-0.8036738
0.05215363;0.0520833
-1.1083825;1.1013175
-3.144669;3.1119232
1.1429152;-1.3426788
2.106024;-2.0831463
-1.5272545;1.6054289
-1.0483955;1.1055955
-0.034028277;-0.034376726
-2.6556919;2.7577813
-1.1746887;1.0954974
1.7557939;-1.754944
1.0205103;-1.0699406
-1.049217;1.2409118
0.9895302;-0.9911259
0.0036712936;0.0036515621
-3.2010975;3.1894908
2.4898274;-2.3745213
-0.0021312698;-0.0021526464
-1.2177982;1.2318885
-2.2239661;2.1041946
-1.2191325;1.2543477
0.079498425;0.07937254
0.06419624;0.064117536
1.3473055;-1.3731753
Bias from hidden to output layer.
0.1599315;-0.15991491
