Weights from input to hidden layer.
-0.060927168;-0.15390965;0.015211025;0.02593249;-0.13493095;-0.13303183;0.034844592;0.054485172;0.03012472;-0.055590805;-0.13805969;0.06149504;-0.022882361;-0.09044599;0.023042269;0.10738204;-0.037741322;0.06155485;-0.09664595;-0.10733867;-0.04332837;-0.07403371;-0.079292305;0.10308393;-0.080106966;-0.06626311;-0.022296114;-0.086738154;0.09676427;-0.0291356;-0.14901324;-0.036321517;-0.06983488;-0.019763391;0.070845954;-0.04566335;-0.18407568;-0.09131527;-0.11736601;-0.09426344;-0.0660045;-0.093800835;0.15585063;-0.14296418;-0.019717975;0.022169676;0.124194525;-0.03546394;0.06745263;-0.045604795;0.01946038;0.05519877;0.033319917;-0.09573133;0.008820079;0.029483642;0.018316347;0.013393093;-0.041216165;-0.09216313;-0.015195035;-0.0322939;-0.046374034;-0.11430214;-0.1047523;-0.018505462;0.09594414;0.04494396;0.0112165725;0.058962632;-0.0980191;-0.13131297;-0.029202677;-0.08825597;-0.01622329;0.046983216;-0.0679932;0.014425678;0.061912768;-0.009814066;0.025526885;-0.026399128;-0.09819664;0.014145065;-0.037333;0.032913186;-0.036509726;0.16316631;-0.108062126;-0.0014562233;-0.03821231;-0.089196265;-0.14859684;-0.19358404;-0.040080026;0.003897381;-0.046901852;-0.03219823;-0.05978848;-0.087015264;-0.014522557;-0.05344853;-0.018966492;-0.024541436;0.015974326;-0.042269498;-0.024925355;-0.020401848;-0.10726335;-0.0625379;-0.07160855;-0.079928726;0.03170111;-0.104699716;-0.074194945;-0.04482485;-0.034153335;0.016993497;0.13812536;-0.03327522;-0.026074994;-0.15594864;-0.01541697;-0.06032597;-0.028320387;0.029497879;-0.06198853;0.026835583;0.007865295;-0.053203464;-0.123738214;0.0741681;0.034349572;-0.016176539;-0.05889334;-0.037440598;0.029246489;0.02108321;0.0073237815;-0.11431795;-0.019774731;-0.13503999;-0.079645455;-0.0438093;-0.07187355;-0.04172364;0.029238049;-0.09509787;-0.0058970777;-0.051773373;-0.036818583;-0.026525922;-0.027984552;-0.21079099;-0.050497342;-0.015234855;-0.10668436;-0.1526247;-0.14723197;-0.025932066;-0.06588822;0.19447781;0.0584822;0.004768503;0.12448446;-0.01651364;-0.14164257;-0.0751784;-0.06086597;0.013327127;0.08090719;-0.07432039;0.011697916;-0.00261727;-0.018070284;-0.07204272;-0.16178676;-0.12503263;-0.13615318;-0.12037503;-0.06288794;0.040133152;-0.043301336;-0.11111364;0.02694792;-0.059612952;-0.10799232;-0.0028499456;0.036407985;-0.066323094;-0.054255154;-0.107803665;0.16572581;-0.004004576;0.06394036;-0.06827699;-0.0058996477;0.006780514;-0.154235;0.07784878;0.02417013;-0.049920686;-0.0969357;-0.044118367;0.14776643;-0.085104786;-0.035366;0.068661794;0.0080372915;-0.09142846;0.029997414;-0.017232575;-0.00018519379;-0.1033284;-0.08518485;0.22110754;0.0950598;-0.0017528771;0.11427866;-0.08671524;0.033052266;0.117204435;0.01768027;0.003531654;0.01965648;-0.06280286;-0.05775928;-0.2297347;0.032056794;-0.06619157;0.020529915;-0.07729198;-0.018060885;-0.08831067;-0.119965814;-0.099765055;-0.05449099;-0.077115275;-0.097866915;-0.17173557;0.17053446;-0.035657752;-0.07062942;-0.08904652;0.102420665;-0.088951655;-0.117319204;-0.0030892987;-0.00026317342;0.14763005;0.09061654;-0.004691046;-0.003489382;-0.037174776;-0.0039047187;-0.12598176;-0.08465619;0.023480484;-0.007669865;0.09515259;-0.011210169;-0.14896691;-0.08136178;0.030636752;-0.006777426;-0.14167306;-0.07399426;-0.06960015;0.092405975;0.055948995;-0.102365695;0.016926384;-0.13258316;0.006900341;0.1541027;0.033922922;0.023218472;-0.08292059;-0.030784057;-0.022277948;0.04548059;0.03347126;-0.05849678;-0.128918;-0.0030917018;-0.0075715315;0.099627525;-0.13839442;-0.014582208;0.03840515;0.07206226;0.025387883;-0.11106498;-0.027333446;-0.15062964;-0.097419515;-0.0033928356;0.021189857;-0.037358094;-0.0938865;-0.102940805;-0.09882094;-0.06270532;-0.12034868;0.055528365;-0.07779814;-0.18882208;-0.012577715;0.009730085;-0.03370519;-0.23452075;-0.06482784;-0.14980535;-0.0669852;-0.072888285;0.008710668;0.006847751;-0.15334955;-0.10829058;-0.0041004727;-0.03899273;0.084124155;-0.006643079;-0.087993644;-0.018606076;-0.0988043;0.1453674;-0.101012014;-0.08073321;-0.06659044;0.059610046;-0.07912907;-0.0007582599;-0.12894161;-0.10793847;0.027331462;0.016596805;-0.080056526;0.040668055;0.024070885;-0.14078546;0.018022524;-0.036605936;0.02343082;-0.102965415;0.0060034436;-0.02657776;0.02645563;-0.033605333;-0.042635873;0.045473237;-0.055317607;-0.046252042;-0.12883043;0.020258915;-0.10105937;-0.040492956;-0.08970676;0.01643516;-0.09550133;0.15049669;-0.11008697;0.080538034;-0.0005876681;-0.09132467;0.025184644;-0.11133006;-0.032792736;0.01306844;0.0039927615;0.029071698;-0.07344226;-0.032453496;0.06111605;-0.040131804;-0.030878805;0.043100104;-0.06940883;0.021728504;0.0016251405;-0.04028717;0.009185831;-0.08570206;0.00858159;-0.01702348;-0.0004193403;0.029562932;-0.08688261;0.05291069;-0.058387037;-0.024702901;0.018490607;-0.12496565;-0.012413318;-0.013601447;0.06083583;-0.11746818;0.049957905;-0.06021806;0.010091418;-0.06574969;-0.13416599;0.016589731;-0.08257844;-0.031693544;0.03712828;-0.05458721;0.028202146;0.015601398;-0.1046061;-0.08880915;-0.015423722;-0.09369823;-0.13988893;0.0462198;-0.05010756;0.0117927;-0.07696887;-0.06509066;-0.045775313;-0.09973795;-0.10005532;0.18255262;-0.10751338;0.0869613;0.00062490604;-0.028407793;-0.10017851;-0.08112384;0.0023498565;-0.058500335;-0.060557865;-0.109084375;-0.044651914;-0.008200681;-0.07865499;-0.09004204;-0.022517443;0.026892735;-0.09767757;0.04814729;-0.09318403;-0.04405574;-0.187765;0.063121155;-0.08156327;-0.08863656;0.117162906;0.024500798;-0.17725427;-0.26398605;-0.089596204;-0.059468184;-0.029358447;-0.019805197;0.00095561077;-0.097094126;-0.089513175;-0.056429468;-0.034315467;-0.024046663;-0.108988605;0.0016512795;0.05063479;-0.110421605;0.18293923;0.054554813;-0.07365034;-0.09530357;-0.01483722;-0.06256203;-0.037623655;-0.0682728;-0.12539029;-0.06431773;0.040050425;-0.080157444;-0.18683246;-0.10270654;-0.036008973;0.10217131;-0.084590785;-0.0028514662;0.004123238;-0.011438378;0.02656568;0.09890184;-0.088877745;-0.12054203;-0.15046582;-0.07596018;-0.049950074;0.035442743;-0.024606416;-0.12522422;-0.11446629;0.025836423;-0.084793404;-0.039465714;-0.10500686;0.09264449;-0.056449655;0.052836474;-0.11242791;-0.05417751;0.109166905;-0.079899564;-0.20127255;-0.017476698;-0.07206128;0.055024333;-0.04087932;0.025714789;-0.1306636;0.07893416;-0.0047077797;-0.031936757;-0.12451248;-0.09010199;-0.00533567;-0.08695756;-0.0054798145;-0.015923148;-0.05232097;-0.035847392;-0.024395991;-0.017955111;-0.13160399;-0.009233042;0.01171384;0.0112143345;-0.07976634;-0.113023765;-0.04170721;-0.08979839;-0.00011994074;-0.029699484;-0.04346201;-0.0037637886;0.17686415;0.009784991;0.10810103;-0.04897487;-0.03158076;-0.039400548;-0.023618702;0.19194318;0.05987643;-0.06539362;-0.112656504;-0.0015119656;-0.07105604;0.05934058;-0.015189346;-0.047603056;0.092754595;-0.092097126;0.02590096;-0.029565958;0.014242838;0.042595536;-0.009364275;0.085832946;-0.035009198;-0.10290308;-0.017084837;-0.10957878;-0.18941331;0.04914564;-0.12169431;-0.08930538;-0.089632265;0.009116203;-0.042313;-0.015025155;0.17946346
-0.0074774763;-0.053762462;0.00421208;0.06981392;-0.14213023;-0.053135984;-0.048745338;0.06683745;0.047351103;-0.02553801;-0.081672385;0.00199129;-0.07768707;-0.09158859;-0.051647153;0.15622167;-0.046609655;0.06424481;-0.06658321;0.012706296;0.007970342;0.009582155;-0.0030176411;0.15162034;-0.057780206;-0.09070338;0.0121120745;-0.0014816712;0.037729;-0.014152734;-0.15516454;-0.08411992;0.004816053;-0.106702;0.032865353;0.0083472775;-0.19519548;-0.11907671;-0.0568181;-0.06758024;-0.076151155;-0.050748095;0.098359555;-0.14286943;-0.08778208;0.0056068664;0.0837116;0.041535627;0.102756135;0.09215651;0.019109419;-0.02658961;-0.016399363;0.028368762;-0.06452947;0.03407419;0.00026710183;0.032262478;-0.044382896;0.017997453;-0.05280839;-0.007096918;-0.12004394;-0.199424;-0.0047393264;0.020810409;0.06166885;0.09631509;-0.0964778;-0.073952526;-0.09948753;-0.047897484;-0.009376161;-0.057103038;0.14819157;0.05702594;-0.08117831;-0.07363435;-0.016537499;0.0839391;0.02217313;-0.013992222;-0.029683562;-0.10248828;-0.034392335;-0.077745296;-0.035433814;0.093839966;-0.04204794;0.010418698;-0.097183675;-0.10467836;-0.13050625;-0.0879497;0.02749216;-0.085147746;0.021168636;0.038033973;-0.014597718;-0.06839384;-0.11026193;-0.052807182;-0.05007625;-0.032471802;-0.09551469;-0.000178779;-0.027083639;-0.06321547;-0.11020695;-0.12651561;0.021456929;-0.121883884;0.032476828;-0.09917099;-0.11586743;-0.03500279;-0.027740866;-0.112924576;0.046339545;0.008774133;-0.0027870766;-0.045688532;0.07674673;-0.056109842;-0.08656642;-0.09595308;-0.13085409;0.0022233215;-0.0024986258;-0.010097768;-0.20494665;0.11720467;-0.055883;-0.05259691;0.0444144;-0.013467337;0.011715467;0.040459838;-0.07796943;-0.011784017;-0.049311604;0.011638142;-0.028012399;0.018177545;-0.045427885;0.0036904477;0.04871297;-0.12059401;-0.10018085;0.028874911;-0.12844786;0.011249091;0.029304625;-0.1858006;-0.06890957;-0.09123595;-0.14558455;-0.08421458;-0.011759023;-0.116649665;-0.09241324;0.028949818;-0.04011752;-0.046696194;0.115996405;-0.02365335;0.0052044964;0.060472272;-0.0116975745;0.041644882;0.062783845;-0.120030925;-0.028209671;-0.07212635;-0.040395845;-0.10568721;-0.06583677;-0.018766131;-0.06185708;-0.07941779;-0.13163176;0.041216735;-0.086302355;-0.06899648;0.14004506;-0.11778874;-0.052385893;-0.06664721;-0.050707504;-0.124697536;0.022014953;-0.13158676;0.1393667;-0.10966611;-0.09574122;0.013499168;-0.06873014;-0.017129589;-0.03685575;0.054399766;-0.118341975;-0.057160784;-0.038769763;0.037778366;0.06504718;-0.012428166;-0.013263166;0.11289116;0.017281609;-0.042846907;0.033748813;-0.060259122;0.022542063;-0.072774515;0.0022477747;0.11476267;0.15673928;0.013903926;0.049035445;-0.076463915;-0.08257795;0.007856111;0.06943844;-0.0119407885;-0.06433996;-0.09430406;-0.12437805;-0.17338008;-0.07684029;-0.11442109;0.011252515;-0.016972741;-0.06078563;0.08828178;-0.09519869;-0.10422147;-0.08079398;-0.030464541;-0.1345765;-0.025648408;0.100882545;-0.099519186;-0.11440538;-0.034826785;-0.011230011;-0.06329006;-0.08058273;0.0058866087;0.018427042;0.105372585;0.0305087;0.03689928;-0.04455218;-0.092721604;-0.059330765;-0.12188311;-0.121256135;0.022369333;-0.034644086;0.08815486;-0.027637223;-0.21356109;-0.095822014;0.03964682;0.15015544;-0.022852216;-0.04010032;-0.08814291;0.025468176;-0.06560634;0.018849129;-0.08153331;0.023894243;0.033791143;0.05185027;0.011975077;0.06890521;-0.006627755;0.02114422;0.0587054;0.049221843;-0.0925071;-0.032815523;-0.050935898;-0.09412711;0.04317468;0.07650122;-0.1335026;0.053643033;0.055788226;0.08004005;0.1232392;-0.12552063;0.036628697;-0.1424097;-0.09184725;-0.06364917;-0.09863875;0.011810045;0.001249181;-0.081701666;-0.031177226;-0.10274598;0.021768037;0.07651082;0.01841518;-0.086950734;-0.10962763;-0.0489936;0.055035714;-0.07847278;-0.13641247;-0.08658977;0.03761048;-0.059474256;-0.014827631;-0.09853695;-0.055257324;-0.076515086;0.026176758;-0.028533498;0.062038206;-0.063927755;-0.14711498;0.008767662;0.020431833;0.06416105;-0.12950313;-0.024898985;-0.09851978;-0.039973505;-0.11306863;0.06709964;-0.00038841384;-0.029989224;0.031518266;-0.055944834;-0.10241037;0.041416448;-0.012727596;-0.07765465;-0.029602716;0.012796925;0.072571576;-0.020087617;0.0134049505;0.072229035;0.050713174;0.04239405;-0.03552084;-0.00429945;0.050996896;-0.1648044;-0.016605562;-0.09887175;-0.05073553;-0.041998725;-0.05877916;-0.10752371;-0.1066655;0.14866057;-0.11070323;0.12741782;-0.09598267;-0.12609206;0.01877952;-0.020720672;-0.08666802;0.030930476;-0.089022316;0.039450224;-0.1316507;0.0591665;0.019813322;0.018610673;-0.10980895;-0.057376347;-0.01352156;0.021158358;0.038658388;-0.11208525;-0.0914206;-0.031614546;-0.115074456;-0.10377857;-0.08651115;0.06919165;-0.064829454;-0.018050367;-0.06363376;0.031875044;-0.05798196;-0.07701376;0.0036664403;0.064755045;-0.078960314;-0.027178034;-0.07377352;0.07696726;-0.037823826;-0.05041512;-0.19638391;0.09249387;-0.08874551;-0.07260808;-0.094433814;-0.11459827;0.0052085007;0.037257303;-0.0051960736;-0.13592365;-0.1357444;-0.018514054;-0.043963846;-0.014535311;-0.1575874;0.05295803;-0.05932418;-0.055443294;-0.012556828;-0.078376986;-0.067497335;0.06506161;-0.08770347;0.07900655;0.08735165;0.014727465;0.012249436;-0.017883087;-0.029926095;-0.069477685;0.0098503465;-0.1171401;-0.16333;0.03903212;-0.06440835;-0.057706866;0.0375716;-0.00059416145;-0.018736593;-0.06569067;-0.08265855;-0.061669637;-0.13679141;0.0144178895;0.024664884;-0.044372287;0.103792146;-0.10436036;-0.16000491;-0.30780408;0.012231775;-0.18690388;-0.063939415;-0.09532391;-0.06723982;-0.07158023;-0.09128626;-0.039721083;-0.050563537;-0.02657912;-0.06208245;-0.07092621;0.009769277;-0.021583261;0.15714988;-0.052456714;-0.027139569;-0.017952148;-0.0956357;-0.060906515;-0.09890248;0.0034455527;-0.018265374;-0.09429659;0.06246269;0.015811587;-0.12704325;-0.07661495;-0.0468131;0.13851857;-0.06828854;-0.0040502925;0.08414617;-0.038121317;-0.048899174;0.108542226;0.021067595;-0.1519207;-0.1246343;-0.0049346527;-0.10413917;0.032142635;-0.012561983;-0.13905466;-0.043402042;-0.08052054;-0.065535925;0.0016512591;-0.08614703;0.06700856;-0.025263125;0.022933418;-0.1001969;-0.11224198;-0.034807034;-0.062677816;-0.21041958;-0.10312707;-0.0450789;0.07849564;-0.0046641533;0.0030014112;-0.16545607;-0.017783368;-0.10494983;-0.051928315;-0.099348426;0.036990732;0.072253205;-0.08034116;-0.046916325;-0.09115829;-0.018299418;0.037671845;-0.0681495;0.035443317;-0.049673636;-0.09577371;0.017633436;0.036960684;0.025197443;-0.08058984;-0.007518846;-0.1181974;0.014503506;0.0029510574;-0.12147599;0.04950276;0.14397322;0.044253945;0.073924616;-0.14482965;-0.06627845;0.104286335;-0.11806968;0.11986564;0.09388178;-0.18307868;-0.10675143;-0.07723645;-0.012947907;-0.022037119;0.04785729;-0.06047894;0.11660778;-0.1333059;-0.022062553;0.025673475;-0.04938822;-0.08104961;0.05158846;-0.070352115;0.008666002;-0.087146945;-0.042618237;-0.07427556;-0.14129251;0.043894492;-0.04802173;-0.10182907;-0.016425068;-0.010499665;-0.08328199;-0.044091847;0.111665316
0.0011814164;-0.12197627;-0.10451312;0.050242845;-0.08883909;-0.00038679698;0.002555951;0.0069511253;0.07829927;-0.020886473;-0.021421444;0.05005098;-0.021030422;-0.09553014;0.019307705;0.06430051;-0.14373249;-0.038937695;0.039975166;-0.021019751;-0.108295575;-0.018772986;0.048447397;0.08935963;-0.04854032;-0.035604086;0.03597228;-0.16126662;0.08904084;-0.086281106;-0.061340176;-0.0012156353;-0.087087736;-0.0028114098;0.05103385;-0.033615116;-0.11961955;-0.013803681;-0.026121791;0.011397013;-0.14978029;-0.10917204;0.19642541;-0.09938179;0.01744932;0.055820376;0.109150276;-0.07316347;0.08917407;-0.00692197;0.050973345;0.055135418;0.062584154;-0.09568026;0.049911015;-0.10850111;-0.07141047;-0.07220072;0.0840116;0.037253667;-0.05926963;-0.021749444;0.016265126;-0.098654054;0.0071659237;-0.11394258;0.027906045;0.07857383;0.012569649;0.02935225;-0.08941719;-0.03513731;-0.10941829;-0.07913806;0.10993559;0.023484308;-0.0666136;-0.009222827;0.009936107;-0.03700549;0.0054507195;-0.06754809;-0.054530967;-0.08520665;-0.10275074;-0.062899776;-0.028870866;0.11648658;-0.034116056;-0.011976555;-0.02919001;-0.20604251;-0.11015082;-0.06868068;-0.09062913;0.0042750956;-0.024178542;-0.066189595;-0.07881932;-0.1260571;-0.12553768;-0.057760444;-0.0063162055;-0.05552517;-0.09688935;-0.10650002;-0.0002369475;-0.1220144;-0.06608543;-0.15286624;-0.09590484;-0.028436182;-0.11530649;-0.037630793;-0.02871761;-0.048682906;0.014039174;-0.11280168;0.10852342;-0.05374042;-0.034089636;-0.10430471;-0.083377525;-0.086875185;0.028215572;0.0030732432;-0.110485524;0.0498474;-0.021727648;0.00094542594;-0.10878424;-0.016080203;0.027449738;-0.037576832;-0.01945957;0.052051302;0.0026170006;0.011179805;-0.06783722;0.002400187;-0.12889804;-0.101269335;-0.02796773;-0.08148484;-0.14002773;0.00069656456;0.14604056;-0.016500367;-0.13890684;-0.021947898;-0.0019173174;0.011491239;0.025552422;-0.20420687;-0.008864223;-0.08313918;-0.1147063;-0.09752341;-0.13424113;-0.13049722;-0.09590815;0.13867076;0.062319677;-0.008552065;0.17492071;-0.0028097387;-0.03291221;-0.060486358;-0.06753655;-0.0652512;0.0026766264;-0.006288266;0.040809162;0.046536304;0.025228081;-0.04191779;-0.0030108965;-0.11809915;-0.15136853;-0.09357162;-0.0026580342;0.06325689;-0.028973173;0.020358153;0.16255765;-0.04330653;-0.0914874;-0.02356945;-0.02718366;-0.1076855;-0.035156216;-0.07838575;-0.0043619378;-0.039746854;0.051543985;-0.09311388;-0.026212687;-0.05226743;-0.06390841;0.07572012;0.011337933;0.046566647;-0.060099874;-0.055167146;0.019417543;-0.019388994;0.0013908421;0.1432002;0.027505144;-0.13773568;0.014918088;-0.10221905;0.06855565;-0.047222674;-0.03894118;0.108145185;0.05743602;-0.004630925;0.07247497;-0.10606097;0.018082649;0.0875912;0.04463231;-0.013168287;0.029434558;-0.101617664;-0.06593884;-0.12993796;-0.034346007;-0.096017525;-0.042837124;-0.09695696;-0.016325623;-0.037028193;-0.013272297;-0.09597858;0.0028430515;-0.031859092;-0.08860156;-0.16011018;0.06788196;-0.08268829;-0.08624885;-0.065746844;-0.028722843;-0.16356517;-0.07582613;-0.099092424;-0.08958757;0.026570743;0.06573482;0.049514115;-0.103457786;-0.10551264;0.028548555;-0.066505685;-0.018047825;0.04063685;-0.00841487;0.1483411;-0.034342952;-0.0991701;-0.11644246;0.0009833375;0.10087583;-0.14969128;-0.10407965;-0.082631804;-0.00016638763;0.03630678;-0.07891401;0.011243663;-0.01266569;0.09614239;0.065648444;-0.014378194;0.10896356;-0.10575313;-0.06467516;0.0741167;0.07185686;-0.029484682;0.056878157;0.029083384;-0.084747165;0.010394902;-0.020376155;-0.10867528;-0.045498457;0.0031055135;-0.05909359;0.10201316;-0.036397092;0.011032867;-0.14226885;-0.105566934;-0.11713012;0.032580804;-0.12614337;-0.001637776;0.02393432;-0.08342108;-0.2010393;-0.019325113;0.006141273;-0.03147065;-0.12997909;0.04399778;-0.10482107;0.072495714;-0.06406678;-0.05753007;-0.12565255;-0.047544565;0.02574296;-0.045115504;0.014206601;-0.13281849;0.035713665;-0.037972625;-0.10134469;0.028126102;-0.02190637;-0.13523225;0.012712552;-0.07097624;0.18294092;-0.01221569;0.023264615;-0.0029100713;0.0074444613;-0.13486561;0.11103707;-0.13283695;-0.07119849;0.08500499;-0.037978116;-0.047093716;-0.051944908;-0.09045107;-0.1065188;-0.08748414;0.04539418;0.058511272;-0.09517411;-0.0002459;-0.04768558;-0.058984026;-0.024599269;-0.09563064;0.039501853;-0.061874695;-0.19604635;-0.063170925;-0.032580584;0.026320476;0.04360042;-0.014594063;0.0059269015;0.027301127;0.046152838;-0.09580772;0.10233133;0.028168643;-0.1657003;-0.020012323;-0.076797806;-0.11916642;0.012710926;-0.074700855;0.03382019;-0.060239367;0.051223017;0.14492838;0.037232615;-0.10660287;-0.09427398;-0.15010096;-0.068360694;0.008779673;-0.046138525;-0.07680572;0.01887083;-0.057626557;-0.059517138;0.058530908;-0.044564802;0.02058484;0.040793307;-0.058334045;-0.045859516;-0.064637415;-0.07196003;-0.09178304;0.038341004;-0.06952759;-0.039516173;0.035566755;-0.02208133;-0.06224423;-0.012797077;-0.11818213;0.16749807;-0.08093481;0.04363327;0.038879644;-0.02687855;0.043414;-0.11889196;-0.030018266;-0.09745971;-0.07184026;-0.025460131;-0.0733738;0.0066481945;-0.040897895;-0.042258136;-0.10473687;-0.08767712;0.038677886;-0.09956324;-0.04253247;0.14735882;-0.012121832;0.14032933;0.070424385;-0.09967527;0.025884379;0.027227225;-0.110387295;-0.0894831;0.019319396;-0.037834216;-0.0894508;0.059808526;-0.09098818;0.034594573;-0.050621677;0.03600178;0.004920726;-0.08092173;-0.13566479;-0.034915768;-0.20893794;-0.0020655186;0.026227627;-0.10200913;0.10157317;-0.09899146;-0.177533;-0.20487043;-0.028699579;-0.10847571;-0.1287666;-0.051584728;-0.12297642;-0.037257977;-0.091101095;-0.029122915;-0.12740898;-0.12038611;-0.120323926;-0.060593985;-0.08549049;-0.06779028;0.07149384;0.0187467;0.05688986;-0.11248416;-0.11482553;-0.06546446;-0.040413406;-0.05896354;-0.12547667;0.028036004;-0.009079277;-0.08701281;-0.13597481;-0.045769576;-0.01670151;0.069264136;-0.096208096;-0.025894709;0.06670545;-0.03662755;-0.037089057;0.08770977;0.025100783;-0.065357804;-0.055352144;-0.03762841;-0.14487776;0.03157417;0.02008923;-0.012069486;-0.07193656;-0.10327156;-0.04184899;-0.0015687994;-0.08672822;0.002988718;-0.016596602;0.053468853;-0.1484267;-0.1257782;0.09946872;-0.08429006;-0.26448444;-0.10585133;0.067625925;0.028593946;0.007844636;0.01933383;-0.19505881;-0.018105293;-0.06814108;0.0038382385;-0.113229945;0.04850303;0.10722769;-0.037909657;-0.051686622;-0.10549274;-0.095296636;-0.026768794;-0.076557964;-0.011822808;-0.08184576;-0.052289195;-0.038336918;-0.08790715;0.023715166;-0.028783109;-0.009861674;0.032133337;-0.058775272;0.05098575;-0.008668851;0.055207953;0.05628943;-0.07145559;0.021421645;-0.14759016;-0.11178765;0.081680775;-0.032432906;0.12616265;0.010003013;-0.13513952;-0.060720854;0.010907548;0.024248464;-0.10269564;-0.08250343;-0.020762848;0.016124098;0.003862966;0.0014577955;-0.0622383;-0.061551057;-0.11545472;-0.049389843;-0.016071694;-0.023642914;-0.10613166;-0.113167144;-0.09941998;-0.08089081;0.15316235;-0.08173044;-0.0037140208;-0.06928857;-0.020729259;-0.14384349;-0.1328835;0.055317797
-0.10714894;-0.046562415;0.031354904;-0.0016316501;-0.17229794;-0.11466602;-0.06664587;-0.032656938;0.046770476;0.02528529;-0.038686007;0.119973235;-0.031228071;0.02553863;0.030569857;-0.016908454;-0.032083515;0.08251672;-0.01133114;0.004614227;-0.09355255;-0.102319896;0.04648406;0.1523969;-0.028449262;-0.010850529;0.03412913;-0.10615238;0.08322296;-0.018811446;-0.109105706;-0.085651614;-0.03383458;-0.11036712;0.051501002;-0.04444104;-0.15593933;-0.086604476;-0.071930714;-0.06820298;-0.041505393;-0.09722027;0.1396499;-0.11070272;-0.07189928;-0.016924992;0.10955306;-0.018331092;0.06362321;0.061607704;-0.013325775;-0.06236525;0.09581939;-0.04910294;-0.04879404;-0.03182285;-0.004302225;-0.056046076;0.14050971;0.0012441212;-0.083637014;-0.099521354;-0.019797305;-0.1776605;-0.087081686;-0.022464;0.1157459;0.035791807;0.018258754;-0.08036981;-0.08312902;-0.11336085;-0.05416417;-0.105954215;0.12392454;-0.05620611;-0.14683683;0.056297597;0.021581342;0.10130771;0.029674347;0.05500813;-0.0043497663;-0.059971865;-0.1466505;-0.116221346;-0.08729582;0.1418001;-0.10764633;-0.009419907;-0.0348587;-0.07273862;-0.08047718;-0.14750038;-0.043360945;-0.060733788;-0.04461655;0.029784825;-0.035096727;-0.082616255;-0.13691579;-0.06868052;0.04164595;-0.15472142;-0.06901035;-0.060688205;0.026145576;-0.054087445;-0.13678005;-0.062938675;-0.048252154;-0.123552755;-0.06694042;0.0033359826;-0.06393016;0.06984908;-0.01632056;-0.209361;0.15329334;-0.114345565;-0.025418924;-0.1736286;-0.10547591;-0.09582848;-0.07142846;0.020919906;-0.10167959;-0.015389941;-0.12450126;-0.061885018;-0.046012238;0.07787032;-0.015286894;-0.1263871;-0.026072228;0.01332669;0.016332308;0.032273665;-0.030143267;-0.049935617;0.007494899;-0.14682318;-0.013381894;-0.022753576;-0.020053416;0.029358352;0.11599113;-0.11900366;-0.034274068;-0.118604705;-0.054110155;-0.08850741;-0.10761225;-0.09274292;0.01935363;0.00058981014;-0.035328887;-0.023682218;-0.13018402;-0.08786602;-0.06738692;0.13524379;-0.07192975;0.06391841;0.10185483;-0.046051554;-0.08869716;-0.05108218;-0.024746565;-0.07225034;0.09158059;-0.097242005;0.04666336;0.01715555;0.01268838;-0.1506729;-0.09454999;-0.12244284;-0.051642906;-0.0630372;-0.06509324;0.00797207;-0.038458467;-0.016470136;0.0759771;0.03310046;-0.12346516;-0.090241656;0.016839672;-0.08756868;-0.013979838;-0.12363622;0.030914435;-0.11301656;-0.03079453;-0.101871;-0.02633752;0.0028273643;-0.0048253355;0.09910781;-0.02206309;0.04803615;-0.04503289;-0.06518053;0.12416344;-0.03357293;-0.039353117;0.09773648;-0.021745203;-0.103700876;0.010155362;-0.089405015;-0.04339171;-0.048879404;0.00949528;0.09995028;0.13730213;-0.059256043;0.010525999;-0.11646754;0.025626522;0.13409156;0.08044787;-0.15174818;-0.078753695;-0.1244577;-0.13128366;-0.228651;0.004261112;-0.034827642;-0.03870539;-0.02415461;-0.14947924;-0.0026958208;0.009832583;-0.14992513;-0.0077859294;-0.06932829;-0.028335016;-0.14344235;0.09236972;-0.03793372;-0.02458813;-0.07039831;0.009447831;-0.08634866;-0.040284704;-0.047813293;-0.013128611;0.16814283;0.023502894;-0.11767373;-0.013720918;-0.038040258;-0.06175277;-0.12710147;0.005960116;0.0391353;0.05949964;0.13540155;-0.038314324;-0.049412575;0.008022436;-0.06319682;0.13899505;-0.070463054;-0.06783509;-0.10627844;0.16247354;-0.068835124;-0.043153167;-0.053750426;0.0014937242;0.096942276;0.010122784;0.043930624;-0.007899023;-0.09100047;0.011922122;0.036117513;0.01653094;-0.051790003;0.05964449;-0.014765784;-0.059652567;0.0059947027;-0.05116084;-0.06377256;-0.015564107;0.075100094;-0.004715937;0.09048363;-0.036082108;0.013748341;-0.07657284;-0.09764567;-0.112027146;-0.11943889;0.011979943;-0.09750618;-0.10374333;0.02106532;-0.19484621;-0.049263828;0.09025856;-0.098604806;-0.08953225;-0.044856403;-0.08733548;0.03252062;-0.18429624;-0.115891404;-0.13431403;0.03297266;-0.075208716;-0.054653533;-0.13896118;-0.1563562;-0.011521095;-0.05793836;0.049327366;-0.010559764;0.009231877;-0.19982308;-0.10896493;-0.061602425;0.17277199;-0.049944066;-0.13976416;0.00028195296;-0.014082371;-0.014204347;0.14139049;-0.04345215;-0.056986876;-0.027161652;-0.11063056;0.018835643;0.08791456;-0.07016363;-0.19273426;-0.04010334;0.017005702;0.009662608;0.0044681155;0.03677794;0.08806132;-0.028297463;-0.09721863;-0.053851012;-0.011637219;-0.107544065;-0.076505885;-0.12358418;-0.076180235;-0.012892959;-0.057417665;-0.12874822;-0.012629231;-0.092665106;0.12519567;-0.023815084;0.18446897;0.0259004;-0.09366987;-0.11395773;-0.11819296;-0.11367851;-0.0017897092;-0.054570563;0.02048629;-0.10457329;0.033696402;0.16050915;-0.09323649;0.037677437;0.021310825;-0.077235505;0.033908784;0.08725111;-0.0010754664;-0.03179154;0.054967728;-0.10891604;-0.13245878;0.057620812;0.04919209;-0.0319857;-0.05725303;-0.07188284;-0.06120077;-0.033025663;-0.096716054;-0.0356757;0.06037881;0.0638245;-0.11358597;-0.046442024;0.023975601;0.017733747;-0.00706114;-0.11319661;0.14329797;-0.1364807;-0.012438877;-0.07667758;-0.008040248;0.09288873;-0.11119725;-0.056328397;-0.07918637;0.010625109;-0.10208972;-0.05628512;-0.046665903;-0.06779975;0.014535342;-0.1095589;-0.10518124;0.0432342;-0.09411673;-0.026034022;0.2308837;-0.05573359;0.11383313;0.03641126;-0.11182673;-0.0073908507;-0.045356393;-0.040393;-0.06250209;-0.08863136;-0.0073741353;-0.06195984;-0.026277471;0.038351145;-0.0662247;-0.070873514;0.029081186;-0.059099507;-0.022891881;-0.12849858;-0.035356406;-0.12801284;0.035400763;-0.08514061;-0.19380425;-0.03270404;-0.04379904;-0.16392796;-0.26626247;-0.00026307083;-0.17690532;-0.15858217;-0.06204322;-0.098182455;-0.14924605;-0.10797895;-0.015199909;-0.0031353408;-0.11927454;-0.101183064;-0.03499072;-0.0029136185;0.013918591;0.12680674;0.05185561;-0.03687897;0.0020610762;0.003682435;-0.06278937;-0.009842973;-0.054597408;-0.11763308;-0.048114616;-0.06440255;-0.089059085;-0.12757927;-0.06795318;-0.06445732;0.0602279;-0.13726082;0.07739454;0.05512928;-0.024639767;-0.08153185;-0.03556488;-0.08265378;-0.053319577;-0.11542679;-0.021917775;-0.121775374;-0.050988145;0.0014167321;-0.073362;-0.11210197;0.04224018;-0.025473172;-0.022088703;0.03960384;0.011941596;0.0011255081;-0.042859927;-0.023297349;-0.079821214;0.06946503;0.011061174;-0.15897079;-0.09460262;-0.084535845;-0.025581194;-0.0125564225;0.018693253;-0.20897506;0.08883581;0.017023237;-0.049413666;-0.14305125;0.0294538;-0.008026748;-0.0468107;-0.07316964;-0.08030392;-0.026799802;0.019508637;-0.063088514;-0.07507429;-0.078136005;-0.017905995;-0.008256819;0.017985106;0.040783912;-0.15454432;-0.08051599;0.018248033;-0.049484015;-0.09842826;-0.08556258;0.115077496;0.107955985;0.033811733;0.16147768;-0.11410869;-0.061396644;0.085113965;-0.17591864;0.08220704;0.062532775;-0.16210696;-0.04653301;0.0005628325;0.0031102397;-0.060389843;0.00070782105;-0.045606922;0.096686445;0.011210531;0.11721438;0.0016282041;-0.06380539;0.026850294;-0.06707653;0.06968117;-0.036103528;-0.0014901072;-0.10092425;-0.08068897;-0.1972763;0.103364214;-0.1358355;-0.07701897;-0.023492107;-0.029354762;-0.017114908;-0.03478934;0.16573796
-0.15864278;-0.041538272;-0.11393678;-0.035999946;-0.037258852;0.023270883;0.026798604;0.08145488;0.035694644;-0.091896676;-0.14389859;0.11333724;0.0022464835;-0.09253734;0.0152339265;0.062753335;-0.013722548;0.009224344;0.020353496;0.024968648;-0.100922175;-0.027471751;0.06712348;0.16255634;-0.07919054;0.023170415;0.025941612;-0.101906024;0.11686767;-0.018904636;-0.107495815;0.017349405;-0.062127043;-0.052679628;-0.007467514;-0.07688527;-0.17037058;-0.07456106;-0.0944726;-0.056989502;-0.018449262;-0.03163184;0.14311808;-0.056535486;-0.0005797377;0.07660931;0.00050044205;-0.02932393;0.01363256;0.07567636;-0.06433995;-0.09085587;0.030947585;0.019382441;-0.10955334;-0.040486682;-0.09511526;-0.03922782;0.09429167;-0.03985346;0.038485304;-0.12212362;0.023168376;-0.11682301;-0.08774994;-0.11912417;0.04921229;-0.039514426;-0.08777588;-0.043100633;-0.13699983;-0.00039490222;-0.082106054;-0.011407531;0.09683717;0.07807047;-0.13140345;-0.038749762;0.023185724;0.057048377;-0.0337073;-0.05784594;-0.06935768;-0.046581715;-0.15397622;0.026004221;0.016348463;0.11676809;-0.015404334;-0.024615932;-0.023964627;-0.11303976;-0.15236014;-0.083746254;-0.087835275;0.0014160498;0.0025095877;0.050708994;-0.029890416;-0.10234482;-0.045622516;-0.06282744;-0.018539358;-0.026411297;-0.04206811;0.008490921;-0.050284147;-0.05059299;-0.1355893;-0.103396945;-0.0036202404;-0.050059445;0.030438688;-0.108790696;-0.1881647;0.054470755;0.0073412303;-0.2138577;0.17373818;-0.11712856;-0.047663763;-0.123362266;-0.042487063;-0.00890271;-0.11199;0.043768592;-0.07841103;-0.107116014;-0.118870504;-0.027800387;-0.16018876;0.11848741;-0.07051724;-0.07020474;-0.06254729;-0.013120549;-0.0825796;-0.08895039;-0.052467834;-0.09954277;-0.14794618;-0.07558268;-0.088019945;-0.09901118;-0.13232426;-0.010433739;0.014616747;-0.036322575;-0.077628255;-0.099602945;-0.07416368;-0.06180011;-0.023428768;-0.14576396;0.027784187;-0.03847804;-0.05712996;0.011267767;-0.026560895;-0.14441223;-0.034602053;0.14657359;0.049754813;-0.022348898;0.20709321;-0.00040019603;-0.08809043;-0.04467055;-0.028190395;0.039885797;-0.044297066;-0.0090013;-0.023545166;0.045865003;0.0082185045;-0.06260282;0.0060300147;-0.08886216;-0.19006506;-0.07456432;-0.101363525;-0.07729169;0.04247313;0.03570462;0.15986596;-0.096230045;-0.06434326;-0.08360085;-0.08016447;-0.043998774;0.049704444;-0.123639256;0.012376739;-0.022744644;-0.01358439;0.054503568;-0.0974427;0.04795248;-0.121921614;0.18508457;-0.10637601;-0.09794115;-0.003149023;-0.013512005;0.069173776;-0.05713882;-0.03950646;0.020465653;0.0117291035;-0.121416636;-0.013848586;-0.008735409;-0.019048471;-0.05242023;0.011717015;0.23893623;0.04442434;0.03536666;0.06096497;-0.030181935;-0.055313304;0.17849189;0.016991727;-0.027278747;-0.058187965;0.016725233;-0.078961425;-0.15205802;-0.054161973;-0.093586355;-0.007323807;0.030498713;-0.01674577;0.09447055;-0.02832928;-0.122155316;-0.09722213;0.028264865;-0.010288882;-0.16555342;-0.008936728;0.013824568;-0.005723074;-0.11845912;0.05280347;-0.11940239;-0.123887345;-0.041548613;-0.04941331;0.17110907;0.06983852;-0.107732445;0.006946474;-0.092518136;0.050988156;-0.16028887;-0.101509735;-0.008745475;0.0076425513;0.05977186;0.044149518;-0.12983015;-0.08572329;0.07732293;0.07134305;-0.04039045;-0.16626045;-0.030905401;0.03500755;-0.00749414;-0.035369053;0.012364725;-0.02979753;0.029568747;0.15149274;0.060787957;0.14854366;0.03682327;-0.05082122;0.07634002;-0.085833855;0.011980279;-0.085924506;-0.0116977915;-0.08759915;-0.015087045;0.061936032;-0.1631122;-0.078842655;0.03524346;-0.05057726;0.1214805;-0.11753699;-0.0802721;-0.12806515;-0.049122892;-0.09681894;-0.085001245;-0.04335562;-0.069246344;0.039219946;-0.045623466;-0.110790245;-0.09838825;0.057781983;-0.07558763;-0.16179053;-0.102583036;-0.032443263;0.105148934;-0.20420763;-0.12764476;-0.11624924;0.055451863;-0.028429504;0.022471191;-0.046929915;-0.07799283;-0.065411285;-0.065060824;-0.1014244;0.06827188;-0.10517331;-0.17906713;-0.02498247;-0.05170883;0.07475889;-0.049103234;-0.03766997;0.007970263;-0.07851341;0.0040597063;0.13398191;0.016062552;-0.025146749;0.02540626;-0.08110686;-0.02593054;-0.0947926;-0.0692715;-0.114155054;-0.027791005;0.03534681;-0.033823423;-0.09751499;-0.0056248372;0.037083305;-0.07184837;-0.02739457;-0.08335313;0.03658531;0.048560552;-0.060007367;-0.03617939;-0.08002598;0.03852992;-0.06749674;-0.00044427323;0.025945125;-0.06632486;0.18944849;-0.116024226;0.17720546;-0.080197774;-0.12176472;0.043803956;-0.042255875;-0.11366815;-0.01395303;-0.08376831;0.03678639;-0.00888841;-0.07651862;0.078162245;-0.062222436;-0.04210116;0.009915902;-0.0060371784;-0.0574105;0.031570923;-0.117044754;-0.06917266;-0.07568823;-0.046976563;-0.080164135;0.027293667;-1.2926088e-05;-0.012081258;-0.07290951;-0.032796256;-0.06242222;0.09310537;-0.0472813;-0.06908055;0.09896344;-0.05465862;-0.04173526;0.09236667;-0.05896023;0.0049990118;0.03008241;-0.18720268;0.13018881;-0.055408582;0.012832009;-0.013940138;-0.09313816;-0.047309674;-0.1529044;-0.011888051;-0.009431878;0.028548717;-0.10496188;-0.11137257;-0.0295549;-0.007924851;0.014676649;-0.007065026;-0.0815083;0.0074547287;-0.06243022;-0.049366567;0.12575315;-0.017805347;0.011219629;0.09527434;-0.06350728;0.008035267;-0.023922963;0.018060064;-0.09999638;-0.104967035;0.014229941;-0.16136838;-0.080461696;0.011045504;-0.091683015;-0.03487872;-0.05191739;-0.075374074;-0.0078022922;0.0001350718;-0.010907528;-0.10367183;0.062240753;0.010847589;-0.1311643;-0.013495398;-0.10663638;-0.16543148;-0.25477925;-0.07808861;-0.115915895;-0.064998835;-0.13630246;-0.14813654;-0.007849897;-0.08770083;0.021620672;-0.10616847;-0.13498151;-0.026458602;-0.11479063;0.011300662;-0.0866772;0.09955214;-0.07556061;0.052776385;0.025541866;0.020831082;0.00061843224;-0.10423579;0.057019286;-0.047045592;0.024453614;-0.061157852;-0.04477856;-0.07254481;-0.04966477;-0.12199437;0.1752598;0.012010271;-0.040781613;-0.008033353;-0.07902305;-0.010660381;0.010485266;-0.06261875;-0.112597175;-0.044092275;0.03253698;-0.18256481;-0.01861722;-0.01843335;-0.09432163;-0.016550368;0.018561525;0.029487202;-0.1093288;0.039006844;0.08120002;-0.03849856;0.0479463;-0.09313599;-0.12931076;0.07678306;-0.035212055;-0.27532685;-0.095860235;0.012020204;-0.08397177;-0.102564976;-0.00091544027;-0.15552281;-0.015652472;-0.043973714;0.06477597;-0.11526044;0.053554043;0.0743021;-0.1386639;-0.09367502;-0.16359966;-0.03368821;-0.08422456;-0.06464399;0.015296675;-0.1291207;-0.02055049;0.084599026;-0.11010687;-0.11597789;-0.09857146;-0.03496718;0.038375057;0.028836494;-0.08255296;-0.058218814;0.084163345;0.089016974;0.06990375;0.0440775;-0.034109384;-0.08206109;0.03333466;-0.016144237;0.08086804;0.06847761;-0.17335647;-0.10852961;0.025352353;0.009955726;-0.033684097;0.038504764;-0.09524292;0.12568271;0.031402178;0.1227586;-0.10087516;0.03893385;0.0005275237;-0.018300787;0.056624558;-0.10932379;0.011787585;-0.058945898;-0.10733616;-0.14196083;0.11005917;-0.045383964;0.022502486;-0.08542728;0.057762727;0.0021204837;-0.047703486;0.046635475
-0.115342736;-0.1445983;-0.080812216;0.028880099;-0.056126088;-0.070009194;0.055730958;0.042199142;0.09915827;-0.13274607;-0.078249484;0.14041573;-0.04868367;-0.02259499;0.03606035;0.0011270142;-0.14292383;0.04661497;-0.010175866;0.042090356;-0.09959746;-0.043756116;-0.058238912;0.14114377;-0.094667464;-0.04970496;0.022637604;-0.048648115;-0.043935873;-0.03633366;-0.10087657;-0.006164573;-0.048031274;-0.06426231;-0.03364307;-0.13009545;-0.16201441;-0.11027463;-0.11730558;-0.035720173;-0.057637706;-0.031373356;0.00039452108;-0.1160943;-0.0035152328;0.059314974;0.102918305;-0.07855205;0.11246087;0.06481648;0.059034027;-0.06580912;0.026610611;-0.017909467;0.07079986;-0.044580713;-0.086626545;-0.059587874;0.035090458;-0.104214385;0.03652605;-0.12660828;-0.039397247;-0.11257696;-0.10622703;-0.063854836;0.00686424;0.012804597;-0.0026351437;0.027349327;-0.13414793;-0.06095214;-0.060098466;0.015535516;0.018150635;0.07921748;-0.14951557;-0.029469177;-0.013241011;0.01248084;-0.005555007;0.006064251;-0.10818487;-0.07997868;0.002104231;-0.010367025;-0.08892544;0.049562316;-0.07147909;-0.064650126;0.024580076;-0.05844533;-0.1846521;-0.19149701;-0.0020462058;0.02649474;0.011582693;-0.015416667;-0.13126688;0.010095784;-0.00986469;-0.015371418;0.032685325;-0.14262179;-0.051291734;-0.11101264;-0.11107375;0.0048185345;-0.07348304;-0.0655583;-0.06431308;-0.17032519;0.020160284;-0.11138019;-0.09835767;-0.04967903;-0.06809518;-0.08678811;0.12735635;0.034227617;-0.11044192;-0.025561392;-0.0024313047;-0.09425687;-0.028910104;-0.05405613;-0.072426744;0.022198308;-0.1371269;-0.015851468;-0.18751945;0.1392507;0.048150998;-0.121605314;0.044412;-0.072535545;-0.028276606;-0.06782407;-0.073081836;-0.12866583;-0.1027675;-0.067969;0.0021222623;0.034946386;0.039730385;0.027580632;0.048443265;-0.020808075;-0.14236598;-0.10409331;-0.12056568;-0.0021069094;-0.06175451;-0.1776209;0.0049140644;-0.047346767;-0.040006645;-0.12201694;-0.046455536;-0.12900667;0.028149277;0.14592272;0.070558965;-0.03431106;0.08616607;0.031935316;0.014231662;0.007414636;-0.07855981;-0.043486413;-0.00043776497;-0.021672614;-0.056756042;-0.021410888;-0.012821217;-0.026558803;-0.0882085;-0.022860764;-0.112701036;-0.0038802503;-0.10018266;-0.06652562;0.017359173;0.034415834;0.19208664;-0.043005858;-0.055921227;-0.111800045;0.067874245;-0.13343884;0.014754111;0.013323683;0.14071093;-0.117445216;-0.010049943;-0.03349319;-0.028454604;-0.04272606;-0.043567955;0.16849902;-0.0088228015;-0.03317798;-0.1226918;-0.08514164;0.10066342;-0.07427032;-0.033522885;0.042791873;0.042722266;-0.12941308;-0.05460912;-0.14711751;-0.07867027;-0.018725889;-0.13123694;0.18114981;0.14183943;-0.06668868;-0.018317573;-0.0961914;-0.040143665;0.20358947;0.10823768;-0.14040019;0.028094552;-0.099082075;-0.09617335;-0.13020581;-0.04981235;-0.020022383;-0.03429305;-0.03602361;-0.10727506;0.0912712;0.030487731;-0.20219083;-0.09411702;-0.08620401;-0.020642336;-0.11185063;-0.019663539;0.01091923;-0.036879897;-8.671263e-05;0.07630517;-0.1639025;-0.14026392;-0.010250372;-0.07271001;0.005173249;0.047285423;-0.16049775;0.001761307;-0.020536449;0.04191288;-0.07835681;-0.07365143;-0.028339198;-0.025088524;0.18184319;0.02518858;-0.17853054;-0.0525482;0.030887889;0.031572748;-0.0903515;-0.15773475;0.034833226;0.030900398;-0.07131435;-0.04731314;0.053413507;-0.0568117;-0.04460055;-0.0063843853;-0.09127967;0.04288172;0.028623084;-0.12399579;0.07128861;-0.08428576;0.014567463;0.031240068;-0.02868908;-0.05481564;-0.06294516;-0.05396746;-0.016837817;0.06683634;0.07071887;-0.06428338;0.09033668;-0.12288293;-0.09366556;-0.14546168;-0.0015971276;-0.0468817;0.030892173;-0.013633603;-0.08158442;0.03237576;-0.035509974;-0.09813982;-0.08474593;-0.031733558;-0.040439438;-0.0554388;-0.04232151;-0.08729158;0.08347476;-0.08029323;-0.02549031;-0.16162503;0.03330544;0.0534044;0.024277763;0.024221808;-0.16637783;-0.0007992271;-0.045650207;0.0066844854;0.020195136;-0.009007354;-0.109658934;-0.10476094;0.013145842;0.14864223;-0.085996024;-0.110131845;-0.07386741;0.012405814;-0.0022574125;0.09631258;-0.0028680912;0.045657117;0.043702092;0.032539595;-0.051247507;0.015841134;-0.042327363;-0.06784489;-0.040458657;-0.03481687;0.077603646;-0.032758;-0.012512423;0.052073322;-0.058671936;0.011402851;0.058312684;-0.00791446;-0.041196737;-0.16479786;-0.09322738;0.00072500913;-0.0068201646;-0.04971543;-0.11388918;-0.07494514;0.022350144;0.11084213;-0.032468442;0.1735444;0.039391354;-0.088628955;0.05099118;-0.051556874;-0.11224899;-0.061399456;-0.12480955;-0.00058901636;-0.0016678083;0.00878315;0.10464305;-0.003468495;-0.087676816;0.050714705;-0.16863486;-0.0069144093;0.037894994;0.015321767;0.032922328;0.059580307;-0.115353666;-0.02787437;-0.046307232;-0.09930075;0.039276175;-0.026666693;0.018328257;-0.07599795;-0.05437705;-0.0045745852;-0.052476108;0.09939776;-0.05071857;0.028884724;-0.05358724;-0.042192373;0.013820674;0.032039348;-0.057614684;-0.009519338;-0.14805427;-0.10960709;0.026713215;-0.016427688;0.06562152;-0.020284217;-0.00067833846;-0.08514739;-0.007809872;-0.08598619;0.014523842;-0.009486487;-0.06596768;0.007960202;0.02648871;-0.06190241;0.04784077;-0.1073282;-0.017451545;0.06534044;-0.02757063;0.06946422;-0.02716589;-0.09178071;-0.0010777187;0.0006728821;-0.12278496;-0.065955475;0.03894722;-0.06142494;-0.1394853;-0.08584796;0.008106266;-0.065983154;-0.0044391365;0.004781496;-0.0856484;-0.012260359;-0.1155861;0.009676523;-0.19150424;-0.046501685;0.053914268;-0.11024341;0.11527768;0.030080933;-0.14250615;-0.33856642;0.06646213;-0.135628;-0.043112572;0.004492396;-0.15219991;-0.039654862;-0.11411664;-0.007829031;0.0007367658;-0.05256438;-0.03865134;-0.051771417;0.018225962;0.0032034945;0.2252324;-0.0042553945;0.043770492;-0.016894616;-0.08332134;-0.018073848;-0.031199621;0.041603085;-0.06881912;0.035970993;-0.051200967;0.010870847;0.005109148;0.0088229;0.05002794;0.10111941;0.020337915;0.013516695;0.055523086;-0.11075343;-0.07548369;-0.028659388;-0.06260151;-0.14254296;-0.0057283076;-0.031773675;-0.17927897;0.016213609;-0.010312201;0.014376625;-0.021900106;-0.05248958;0.053923707;-0.0442674;0.011070573;0.10807845;-0.025615098;-0.0389869;-0.09710184;-0.13907178;-0.08664851;-0.08786865;-0.2344683;-0.1499609;0.009479601;-0.007357159;-0.061715048;-0.051864117;-0.14809251;0.12389436;-0.084862486;0.08005679;-0.07923619;-0.06880682;0.10383069;-0.14273918;0.03516403;-0.0122742085;-0.07915474;0.054399654;-0.080577604;-0.036325227;-0.064705215;-0.0032074223;-0.051083647;-0.052210294;0.0029503864;-0.060648166;0.014971675;-0.10109566;-0.11261572;-0.093984306;0.033693105;0.11056277;0.04084327;0.02107383;0.09231229;0.004187139;-0.10528469;0.011336079;-0.01301712;0.17565528;-0.03578172;-0.17728898;0.045049578;-0.025648331;0.024783313;0.02889715;-0.03691413;0.029216535;0.04195521;-0.011714442;0.042909108;-0.026865633;0.03694216;0.008763781;-0.0031768626;-0.07763716;-0.073809296;0.04116588;0.0013067117;-0.04875284;-0.20028266;0.16455111;-0.09406329;-0.120271765;-0.10170497;0.042822983;-0.05185119;-0.008866303;3.0555755e-05
0.0069247438;-0.042582538;-0.08337972;0.0030925681;-0.11399182;-0.0089405;0.071830004;0.069368295;0.10467087;-0.013819449;-0.0844223;0.095994085;-0.07712485;-0.12328493;0.052760035;0.03294486;-0.06851277;-0.006104208;-0.077107266;-0.08004815;0.02826293;-0.11824275;-0.035557024;0.14600104;-0.08336229;-0.05748745;0.03254347;-0.1269479;0.0046515665;-0.00887177;-0.108581066;-0.09277298;0.04993169;-0.007149263;0.108532;-0.083465755;-0.07966226;-0.07859475;-0.009721331;-0.097024545;-0.09123619;0.06301787;-0.035164602;-0.0049735126;0.034161124;0.0408457;0.0722368;-0.046450958;0.10061677;0.06683509;0.01926792;-0.033358175;0.053480975;-0.007720419;0.05633666;0.03601423;0.017483482;-0.024165004;0.073413365;-0.028245788;-0.00460856;-0.0992331;-0.107654154;-0.16920646;-0.02568872;-0.09850224;0.05354441;-0.019371945;-0.06662957;-0.0848229;-0.13969477;-0.13835458;-0.1000114;-0.004798369;0.04214153;-0.004979958;-0.1269015;0.0765696;-0.011954136;0.09251556;-0.08139471;0.057509057;-0.06919615;0.03069593;-0.008254854;-0.046044014;-0.05756357;0.05172892;-0.12868467;-0.060028095;-0.0077525317;-0.051498424;-0.15236413;-0.1800145;0.009999448;-0.09860842;0.013110615;-0.07887515;-0.0033361001;-0.057248335;0.03357222;-0.092279196;0.034165055;-0.025126487;0.02886126;-0.037199024;-0.0751932;-0.08440462;-0.08105486;-0.11704119;-0.014135077;-0.14708252;-0.049542334;-0.040389292;-0.16803613;-0.0046161674;-0.015232458;-0.0925187;0.023697019;-0.0129352715;-0.054690503;-0.14409342;-0.037975702;0.0023377484;-0.07339922;0.0047895354;-0.056576293;-0.0892834;-0.13096638;0.0014182942;-0.19873774;0.07777903;0.103732854;-0.10061535;0.010710703;0.0040352196;0.051836226;-0.029138107;-0.004206945;0.026741842;-0.10437532;-0.14287876;0.01527672;-0.011685226;-0.013395847;-0.08104244;0.07921065;-0.13502958;-0.116368376;-0.009264716;-0.08495638;-0.02610766;-0.07282208;-0.09032724;-0.058137696;0.06670395;-0.024619965;0.0007788483;-0.13510881;-0.09117271;-0.1173511;0.069523565;-0.00072533824;-0.02161249;0.17073832;0.03253392;-0.12149997;0.054922268;-0.049693108;-0.09384479;-0.10277162;-0.052685536;-0.042395256;-4.4066473e-06;0.06918767;-0.004817991;-0.15705769;-0.10315477;-0.13631542;0.016858244;-0.1397879;-0.04629593;-0.042084884;0.030786226;0.16237783;0.038729113;-0.02772759;-0.060615882;-0.023414994;-0.15568686;0.033931118;-0.036824446;0.10113744;-0.11866925;0.07713489;0.012102113;0.014979403;0.0042560087;0.0041631716;0.08011721;-0.02891202;0.0037362284;-0.0029508525;-0.07332665;0.06420497;-0.0460218;0.07097636;0.08918508;-0.030411154;-0.058355425;-0.012148823;-0.14681108;0.0069318055;0.05501559;-0.026760446;0.18019196;-0.0037408853;0.038181968;-0.08285269;-0.0505249;0.049341258;0.23408401;0.06855204;-0.07377058;0.0328334;-0.13750234;-0.044542436;-0.1336281;0.058879763;-0.02107075;-0.065756306;-0.028653022;-0.089166835;0.10675488;-0.026119662;-0.15869297;-0.1244198;-0.02168643;0.011167217;-0.13056795;0.041937012;-0.12145244;-0.06555739;-0.062230714;0.08692814;-0.070732065;-0.10381958;0.02788919;-0.06694545;0.011284176;-0.014898056;-0.14511052;-0.10818579;-0.036508683;0.035970896;-0.08296811;-0.059019428;0.049566872;0.0454181;0.13618444;-0.10126204;-0.05616281;0.052777138;-0.0061150547;0.10651897;-0.16420399;-0.1183944;0.006276603;0.09580533;0.034639485;0.018371133;-0.10675592;-0.07131236;0.09390497;0.068163894;-0.022553803;0.13660009;-0.012502569;-0.06608395;-0.04028607;-0.030260308;0.040614564;-0.07288926;0.04472018;-0.04482018;-0.099449694;0.08043191;-0.112743974;-0.008995935;-0.064088516;0.047827516;0.09018355;-0.18965001;-0.10454944;-0.11741655;0.01205449;-0.15695906;-0.03738252;-0.093047485;-0.07114929;-0.05932991;0.0047269785;-0.06560678;-0.0773146;0.060505334;0.032179896;-0.07782225;-0.0209237;-0.06913753;0.13842353;-0.19542365;-0.14669624;-0.024492167;0.10138267;0.040189385;-0.09097356;-0.13191335;-0.03307527;-0.048393946;-0.031277396;-0.094568804;-0.02342678;-0.018976277;-0.085449085;-0.075216204;0.010453975;0.07855322;0.010728905;-0.1256887;-0.039863784;-0.058568176;-0.025521029;0.04285042;-0.07420269;0.0016933106;0.03601165;-0.044992566;-0.053203236;-0.03388433;0.02056302;-0.089215845;-0.06261986;0.050325178;0.06515969;-0.08347111;0.040874448;-0.067496896;-0.09925874;0.056329817;0.027672438;0.005697071;0.0299881;-0.121839575;0.022044536;-0.07540594;-0.09302437;0.04799614;-0.13330239;0.0056750076;-0.016920406;0.026744489;-0.09612557;0.18075593;-0.1259621;-0.17494549;0.032968663;-0.0054046563;-0.10287752;-0.027139287;-0.011368448;0.038617674;-0.12306043;0.05240948;0.11099111;0.027848663;-0.10583297;-0.06102348;-0.13157046;-0.10025179;-0.03117246;0.028272692;-0.03839069;-0.089643314;0.030411115;-0.119658105;-0.018950013;0.0050075473;-0.112101875;-0.02380555;-0.036426872;-0.07229708;-0.0006758098;-0.04743493;-0.00549659;0.087956704;0.08524957;-0.07388695;0.09529797;-0.028402036;-0.096930586;0.021741027;-0.14786406;0.11222369;-0.17581125;0.026670162;-0.052800946;-0.073714316;-0.032328773;-0.04695724;-0.050334554;-0.111263566;0.027920019;-0.02176475;-0.006713876;-0.09337892;-0.101408735;-0.082618326;-0.051774792;0.0055676205;0.0136631895;-0.037544828;0.04234053;0.14863023;0.016913962;0.022016;-0.034826055;-0.09794816;-0.013707672;-0.032107767;0.015011485;-0.045798887;-0.110901766;0.04880798;-0.053381573;-0.0036653718;-0.00042320014;-0.06503024;0.029998798;-0.0011599127;-0.16433844;0.03789106;-0.005286692;-0.013632421;-0.17421275;-0.0053791595;-0.00999151;-0.072079815;0.105657734;0.013214988;-0.16082431;-0.28873122;0.007921128;-0.21586327;-0.024313595;-0.009376781;0.012919733;-0.06683965;-0.15237968;0.04382357;0.031583037;-0.07116467;-0.048671197;0.03129556;0.012742244;-0.097802214;0.0639082;0.05704847;0.060619358;-0.00026853662;-0.07294592;-0.024911923;-0.04004626;-0.030606754;-0.030545875;0.018677015;-0.039127935;0.022627631;-0.07441031;-0.059987117;0.065609656;0.13474649;-0.12474852;0.03033618;0.051038824;-0.03894539;-0.045212813;0.028758932;-0.06928833;-0.064486474;-0.069209956;-0.037841357;-0.20149092;0.0069531878;0.011625856;-0.026620395;-0.1131807;0.0682442;-0.046315257;0.0033527655;0.015518393;0.08979005;-0.06756751;0.015499571;-0.15115538;-0.054384727;0.024394928;-0.11214359;-0.16988711;-0.0883139;-0.085139126;-0.038092192;0.024612393;0.05222995;-0.2576679;0.12798573;0.000995184;-0.042265337;-0.13178498;-0.009266465;-0.0019206062;-0.007621696;-0.10542303;-0.031680785;-0.038534462;-0.042543273;0.042354327;-0.0041693724;-0.027726464;-0.10871322;-0.004394847;0.043538436;0.004298464;-0.11338076;-0.047228716;-0.07237062;-0.06076414;-0.0063522616;0.03960739;-0.014639619;0.114832565;-0.02127235;0.15641177;-0.082893066;-0.026357213;0.10739072;-0.0052803084;0.01727648;0.11183549;-0.106785655;-0.0012806506;0.03568101;-0.08016664;-0.092163794;-0.03876672;-0.04791619;0.075035945;-0.034845132;0.062323865;0.028797751;-0.011797497;-0.054001413;0.004901585;-0.06572292;-0.018525133;-0.11945875;-0.11242525;-0.10687377;-0.14181374;0.021134403;-0.09208752;-0.11841708;-0.112111434;0.06467675;-0.12369044;0.01498761;0.1306307
-0.11939781;-0.056615155;-0.0034178728;0.07596127;-0.08140211;-0.08815616;0.07224212;0.06885128;0.09098487;-0.058075875;-0.06296731;0.16228534;-0.021673108;-0.12763065;-0.034015447;-0.044895064;-0.14547263;0.043441225;-0.065952405;-0.079493046;-0.10717684;-0.057070475;-0.013655456;0.080979936;0.054504953;-0.08524544;-0.038533453;-0.09097699;-0.06304981;-0.118234195;-0.13521154;-0.0927642;-0.0995736;0.0033700687;0.020340044;0.02818393;-0.079056896;-0.06008988;-0.09575811;-0.030827707;-0.11289869;0.0026991873;0.054106664;-0.020061594;-0.055533893;0.043440647;0.10314811;0.00057797803;0.08024285;0.060811326;-0.055461477;-0.014570557;0.025305633;-0.073338166;0.051581446;0.04196215;0.000766462;0.04558897;0.13598172;-0.10208177;-0.085297346;-0.03012463;-0.016161121;-0.14762382;0.036407854;-0.015964773;0.08847815;0.006544034;0.04711781;-0.049695775;-0.09193388;-0.09603936;-0.048273515;-0.04318342;0.105997056;0.02228166;-0.05646389;-0.017107965;0.08767017;0.07248087;0.0045631793;-0.033294972;-0.12558874;0.015752872;-0.08897809;-0.0242826;0.004434307;0.15288569;-0.13584025;-0.06858105;-0.06945652;-0.12795511;-0.08690724;-0.050533947;0.025428718;-0.040955063;-0.070876434;-0.07477842;-0.09065266;-0.030977944;0.01035366;-0.009904277;0.0059950533;-0.13381407;-0.058795933;-0.019615196;-0.11458798;-0.041830014;-0.02907418;-0.07878997;-0.0027851292;-0.10077094;-0.08460797;-0.07351535;-0.11803019;0.03581684;-0.015594007;-0.12867679;0.10694777;0.013927279;-0.04071284;-0.1581188;-0.030085688;0.03640916;-0.06150666;-0.02616892;-0.15595412;-0.026848491;-0.017440137;-0.020555638;-0.15042114;0.13040566;0.04260681;-0.09267607;-0.11856042;0.034486875;0.01842881;0.07660606;-0.045499794;0.027747368;-0.15887423;-0.005461832;0.08368619;-0.011988623;-0.037647843;-0.0827763;0.1503317;0.014185769;-0.10149429;-0.03378077;-0.005672592;0.025010934;-0.0076495465;-0.06535487;-0.10015217;0.0015554748;-0.10348867;-0.11637538;-0.12265307;-0.08238834;-0.023406118;0.13163732;-0.04869152;-0.023594854;0.101399936;0.020397956;-0.028753446;0.10445993;-0.04500446;-0.0003089522;-0.13506603;0.020571457;-0.036095325;-0.077272534;-0.074087575;-0.044328593;-0.121758424;-0.05086281;-0.08928373;-0.091846235;-0.06648717;-0.004895038;0.033638574;0.120061755;0.10900314;-0.06425695;-0.060123403;0.016322786;-0.09424179;-0.04364099;0.063834175;-0.0993392;0.17470387;-0.0067737177;0.018739272;0.013177922;0.013567483;-0.0017783185;-0.03027967;0.016661558;0.029163696;-0.019232914;-0.13309829;-0.098181;0.05343944;0.029239852;-0.013414533;0.08911048;-0.03343948;0.012763854;-0.036807626;0.013462476;-0.0481684;-0.056638263;-0.115344204;0.21399447;0.045189377;0.067237705;-0.1415904;-0.10605605;0.050247867;0.17500022;-0.029286344;-0.052146606;0.094619565;-0.037315764;-0.15556069;-0.15078504;0.069719695;0.0028415748;-0.07998202;0.068604335;-0.14444382;-0.015651088;0.019603472;-0.20070186;-0.027157683;-0.08872456;-0.08327125;-0.12029711;0.087876625;-0.110732645;-0.005914108;-0.0040489426;-0.014639293;-0.11468779;-0.044915404;-0.03382833;0.029459247;0.09149114;0.0008145015;-0.056116626;0.007590949;-0.009601944;-0.08456396;0.016760506;-0.009694419;-0.09354817;0.023437422;0.04777382;-0.005137752;-0.16518839;-0.090370454;0.040816683;-0.01681429;-0.17745174;-0.003107553;0.016746968;0.11326227;0.043693267;-0.1005168;0.0015975798;-0.025984611;0.015027697;-0.03335505;-0.022994312;0.06372147;-0.03238861;-0.09609157;-0.025567278;-0.04803771;-0.033852752;0.03429911;-0.047645826;-0.08250782;-0.0636452;0.037333984;-0.13257857;-0.0060265604;-0.0055620093;-0.031737637;0.07733764;-0.14265242;-0.045194723;-0.10633932;-0.1204552;-0.01225126;-0.07491814;0.0058582495;0.00874124;0.022499634;-0.04200414;-0.10052265;-0.05790351;0.024264952;-0.11558255;-0.073670164;0.0221109;-0.10067404;0.15903546;-0.16389495;-0.03835095;-0.13070777;0.03903863;-0.12531343;-0.040654693;-0.077453226;-0.015902786;-0.040612385;-0.0583196;-0.06040075;0.07023688;0.048561413;-0.16660286;0.03507635;-0.0118232;0.11747961;-0.086670645;-0.049063396;-0.1108128;-0.011439778;-0.016985787;0.12432992;-0.061250433;-0.04106628;0.08161479;0.06244866;0.061786167;-0.004372608;-0.033105515;-0.19549453;0.04019168;-0.0076898453;0.09776761;-0.097955674;-0.1099983;0.009992688;-0.033536825;-0.03155441;-0.07806128;-0.04540949;-0.10578616;-0.08137957;-0.022889165;-0.10987449;-0.05192421;-0.07655129;-0.13489833;0.01051074;-0.009884242;0.082513854;-0.012115725;0.16380909;-0.008962534;-0.15813802;0.04547221;-0.006413589;0.025537532;-0.03363824;-0.0012736286;-0.0856877;0.019107116;0.033140335;0.087530755;0.03484648;-0.049075928;-0.036795713;-0.08851835;0.03439687;0.07200321;-0.10803233;-0.04034722;-0.06177307;-0.06014356;-0.035286717;-0.034543578;-0.11181984;-0.057042815;-0.090114;-0.0054321485;-0.12507826;-0.038417306;0.003238398;-0.099217646;0.11750642;0.06728194;-0.033524238;0.08645194;-0.12754261;0.052870918;-0.0047447234;-0.17284563;-0.044020295;-0.19588087;0.005596475;-0.10613906;-0.042607952;-0.10451994;-0.16776642;0.060051434;-0.10522438;-0.01855082;0.0019885888;-0.075647525;-0.06818472;-0.00714633;0.025893522;0.031664573;-0.10736006;-0.0630891;-0.12687819;0.01015015;0.14662863;-0.046494633;0.12498952;-0.014846102;-0.10065202;-0.0065413183;-0.018495264;0.016337711;-0.031751607;-0.06219526;0.018786078;-0.14522733;0.006104307;-0.12530386;-0.10199352;0.05834421;-0.038665105;-0.18496609;0.031918995;-0.1371714;-0.0731741;-0.1564337;0.105609566;-0.006968194;-0.051662464;-0.01250589;-0.051068783;-0.060523193;-0.20936911;0.060010716;-0.17525427;-0.045800567;0.06491894;-0.0003857979;-0.19702098;-0.04793197;-0.00819956;-0.06212882;-0.10567898;-0.0355299;-0.08902178;0.008422889;-0.10131513;0.101655945;-0.04658352;-0.08698396;-0.03875379;0.014206979;-0.018364111;-0.011272755;0.042232834;-0.054815236;0.00227749;0.09023448;0.061414875;-0.119625516;-0.01038203;0.024845576;0.10486107;-0.13694967;0.077886544;0.107946604;-0.09908291;-0.08372151;0.026716791;-0.07742809;-0.12680283;-0.0010440121;0.017847655;-0.16375038;0.015896413;-0.06417688;-0.041034073;-0.11875996;-0.0635992;-0.014291458;-0.06991273;0.0121919;0.07485247;-0.051886372;-0.024583263;-0.053575307;-0.026969168;-0.048633326;-0.1346718;-0.23519854;-0.08107829;0.048118852;-0.016149938;-0.0934185;-0.058814097;-0.23592359;0.12836304;0.045456234;-0.057595946;-0.12621728;0.052269593;0.040280577;-0.10654641;-0.028881615;0.058332246;-0.056400135;-0.064028785;0.01135564;-0.03271632;-0.07846291;0.032358978;0.010165983;0.059637036;-2.8905662e-05;-0.0020983955;-0.10036692;-0.034992214;-0.041659534;0.05695262;0.041483644;-0.045121502;0.06377369;0.08002877;0.044838913;-0.07078709;-0.07907142;0.100777775;0.0078936275;0.08492081;0.04521777;-0.1236212;-0.0014375948;-0.05828843;-0.046768107;0.0650007;-0.048532464;0.0041150074;0.06070417;0.03275156;-0.0004961151;-0.030744722;-0.0141280675;0.03577047;-0.071437426;-0.043006282;0.011477566;0.021249078;-0.0006629924;0.029478861;-0.09223313;0.14024681;-0.059644245;0.0069059865;-0.02108076;0.054679543;-0.12186722;-0.049462877;0.06640331
-0.14213425;-0.03201079;-0.074250504;0.09197586;-0.079017505;0.016713139;-0.08623849;0.024284553;0.111336716;-0.06376897;-0.11669761;0.07747524;-0.13625106;0.017893564;0.056745283;0.08292347;-0.08426429;0.036113147;-0.0072609177;-0.036419574;-0.10120088;-0.039317664;-0.014283605;0.05575948;-0.1019421;-0.08128936;0.0095515335;-0.07246504;0.06102538;-0.1271291;-0.07439762;-0.008211292;-0.029144919;-0.10038338;-0.074960805;-0.07796568;-0.15213935;-0.120317236;-0.02998519;-0.055891175;-0.1107404;-0.12634328;0.057104897;-0.045922533;0.025185987;0.057247784;0.04521294;0.0033202213;0.17960276;0.08086172;0.108242534;0.052431345;0.084961995;-0.05656248;0.035316925;-0.07320767;-0.10090981;-0.1168672;0.09691988;-0.03687255;-0.017393554;0.012909252;-0.03619305;-0.06025842;0.017831448;-0.02968239;-0.0067650178;0.015882261;-0.05863667;-0.008102806;-0.12944053;-0.0842608;0.010021859;0.03114173;0.16380392;-0.061309565;-0.15379292;0.041506212;-0.017411567;-0.04775924;-0.09289884;0.032775458;-0.13968445;-0.11203081;-0.10626268;0.041283276;-0.11701968;0.059515595;-0.055530146;-0.016877815;0.028936379;-0.023086868;-0.17658402;-0.10821404;-0.02981604;-0.024340736;-0.08137745;0.015689798;-0.07167094;-0.09966753;-0.004299868;-0.0891345;-0.045210388;-0.0876492;-0.060876563;-0.07270689;-0.10801663;-0.10081749;-0.10702642;-0.1132144;-0.09616294;-0.08808928;-0.021640519;-0.031170849;-0.03680883;-0.017299253;0.00065214257;-0.10074842;0.023068516;0.033913437;-0.13717625;-0.10528422;0.06189738;-0.06073922;0.0066645215;-0.03451318;-0.15811087;-0.10976497;-0.047742117;-0.02811505;-0.12960583;0.05624284;0.06596507;-0.0484977;0.015962556;0.0008869351;0.050422132;0.046345808;-0.015531072;-0.12234246;-0.05250963;-0.121571034;-0.07190086;-0.037011705;-0.09106714;-0.009571799;0.09240713;-0.059257768;-0.009245896;0.0452087;-0.009787572;0.010354743;0.02173879;-0.16232713;-0.0848243;-0.07382415;0.0039333585;-0.113354;-0.13883755;-0.07006558;0.021445738;0.1513644;0.08354967;0.028594008;0.09570656;0.034539614;0.059222095;-0.07184926;-0.06942666;-0.00021568789;-0.10640819;-0.09512954;0.081348315;-0.02303336;-0.098349944;-0.07492942;-0.08508148;-0.09598003;0.0031674306;0.014852458;-0.111363195;-0.023089832;0.013869459;0.07745723;0.11047301;-0.043601353;-0.079531096;-0.019291155;-0.05291766;-0.04253602;-0.08470409;-0.10768758;0.0046314057;-0.100492686;-0.08026937;-0.009450693;0.02680145;-0.093026794;-0.036268122;0.065007314;-0.11154079;-0.10814646;0.0052738977;0.01248749;0.08961088;-0.053255018;-0.029962057;0.07502429;-0.031138273;-0.052918054;-0.040966906;-0.12119281;-0.05685352;-0.0061568962;-0.0106717935;0.12913421;0.15311372;0.07789805;0.0034688637;-0.0855867;-0.07806248;0.15709749;-0.040301967;-0.05396102;-0.030955618;-0.030725176;-0.13350555;-0.1677783;-0.0739876;0.012275374;-0.0632802;0.023311092;-0.033286124;0.028899008;-0.010144343;-0.18428312;-0.09750729;-0.010899933;-0.016437393;-0.104129724;0.09543001;-0.016852153;-0.111639075;0.033207998;-0.042227183;-0.025378685;-0.15870278;-0.032710806;-0.02221464;0.10548053;0.11202585;0.031231087;-0.02911812;0.027081786;-0.08523267;-0.020768913;0.001263863;0.041383144;0.01336418;0.10816767;-0.0014885616;-0.12714699;0.042527284;-0.018541018;0.1122246;-0.09008741;-0.01772152;-0.0012008782;0.02254146;-0.03799848;-0.015365818;-0.106568545;-0.072677165;-0.0047752657;-0.017529914;-0.13218224;0.035125952;-0.03958145;-0.039178364;0.061887816;-0.08405806;0.053982474;0.017904302;-0.11350355;-0.004594084;0.008756895;0.1293867;-0.092659965;-0.021229783;-0.013722218;0.023970114;0.046873983;-0.09229582;-0.0025933322;-0.12389042;-0.0035843882;-0.06964818;0.014734976;-0.11090103;-0.053562816;-0.002423643;-0.030955566;-0.19040295;-0.036128685;0.186021;0.0115472805;-0.08551527;-0.0135497665;0.0057315463;0.071072415;-0.12029623;-0.07581134;-0.041031633;-0.0441122;0.010286016;-0.09593154;-0.014278565;-0.03580748;-0.0012809573;-0.056064844;0.009098222;0.04231475;-0.049221363;-0.044389937;-0.009604868;0.051696546;0.025230508;-0.097538695;-0.03426709;-0.04849678;-0.0022488905;0.007597956;0.05398267;-0.07595723;-0.08115144;-0.042294677;-0.0028282942;0.008900623;0.063187756;0.028879803;-0.19306783;-0.04162635;0.0018021844;0.0034506281;-0.02442182;-0.120600626;0.02700346;-0.06919111;0.007730884;-0.0006048697;0.04914654;-0.08823935;-0.20791477;-0.03351899;-0.10486395;0.05398461;-0.060521446;-0.049382605;-0.09195534;-0.079403244;0.1226329;-0.085606076;0.09054767;-0.04935981;-0.20101441;-0.015724625;-0.010941739;0.047209118;0.01002339;-0.02984205;-0.11212431;-0.015764328;-0.030884484;-0.0063216044;-0.013557703;0.00040654175;-0.09846849;-0.07359577;-0.009217537;-0.0071653035;0.03667885;-0.09848002;-0.0010510217;-0.08939964;-0.06497586;0.061133757;0.03341391;0.01715689;-0.015739944;-0.10975045;0.007735681;0.011587205;-0.0017817813;0.022304969;0.01792648;0.06398447;0.005447697;-0.0635839;-0.008571761;0.028106958;-0.02572099;-0.1345777;0.116929196;-0.14544351;0.05790915;-0.020513933;0.03708833;0.051583476;-0.08697447;-0.07330188;0.027773673;0.026467405;0.021374231;0.008465809;0.021792559;-0.1045441;-0.04143261;0.03148898;-0.08960453;-0.044902608;-0.045503967;0.067667976;0.15341322;-0.0026127822;0.063244574;0.057672247;-0.046724245;-0.059448484;0.0049914583;-0.0041454495;-0.060593974;-0.027947588;0.013469475;-0.10378712;0.043458592;-0.11514224;-0.08045526;-0.06616233;-0.028699715;-0.17306872;0.024814082;-0.10022325;-0.096529685;-0.21770513;-0.060716294;-0.104239196;-0.11587755;-0.0063227145;-0.09104571;-0.08688014;-0.1934219;-0.045734294;-0.15415378;-0.1345483;-0.053478118;0.026040288;-0.08566491;0.036649927;-0.049694;0.031235062;0.008613652;-0.05311086;0.025199825;0.04339982;-0.115446724;0.047144786;-0.046820723;-0.063177414;0.043380596;-0.036662877;-0.042909276;-0.09806303;0.035159554;-0.09352547;-0.011983797;0.047569342;0.0043041455;-0.038686633;-0.013776425;0.028563445;0.0020940779;-0.08466744;-0.03875215;0.12280987;-0.077560484;-0.09906583;0.077951;-0.024705246;-0.14602493;-0.12110102;-0.022539437;-0.110824905;-0.078817785;-0.041159704;-0.10191635;-0.0997373;-0.083191715;0.008764422;0.021705477;-0.09223935;0.10385344;0.022468401;-0.04042451;-0.090367764;-0.10726458;-0.04976074;-0.03488607;-0.12153711;-0.1026093;0.011922861;0.10145735;-0.011420541;-0.04746721;-0.25621507;0.01547349;-0.09667284;-0.078434244;-0.076110475;0.033630855;0.0432521;0.013246233;-0.011008556;0.029150415;-0.084380716;-0.02003416;-0.08515429;0.053791672;-0.09113639;-0.001876104;-0.026156714;0.011859635;-0.058070105;-0.09816563;0.022648407;-0.087673515;-0.117282115;-0.08849522;0.030793466;-0.040219765;-0.0071365973;0.068839595;0.053303387;0.00408324;0.017452344;-0.030960139;-0.09113655;0.13793084;-0.056662798;-0.09879408;-0.08651349;-0.045075364;-0.08011412;-0.06279449;0.03830662;-0.028150469;0.09598818;-0.054799758;0.10168313;-0.09065072;-0.09462001;0.01837402;-0.00090894016;-0.08293093;-0.06645375;-0.06599317;-0.08028929;-0.009135062;-0.20632124;0.009628795;-0.025243716;-0.026768407;-0.032161705;-0.033113662;-0.07085675;-0.09226273;0.13304937
0.029134905;-0.15073805;-0.009074411;0.11343427;-0.10913514;-0.06912869;-0.0046084863;-0.003786347;0.033478905;-0.10911016;-0.12900971;0.1702371;0.00022853569;-0.09737435;0.02729697;0.016067114;-0.14470269;0.049977932;-0.061786518;-0.0068129827;-0.07681532;0.03974195;-0.04963111;0.026474494;0.04084699;-0.0063668406;-0.0051954463;-0.14754628;-0.0180811;-0.12524028;-0.071207955;-0.105863504;0.022483423;-0.037919834;0.013380089;-0.11073736;-0.1469991;-0.060527537;-0.050227962;0.042825043;0.035868965;-0.07846089;0.0355956;-0.008147588;0.036151312;-0.031554185;0.18321098;0.035055574;0.089564465;0.027731877;-0.004538833;-0.09572959;0.028400403;0.0054223314;0.02180245;-0.020712662;0.026053442;-0.031180581;0.05627796;-0.045403995;0.011248511;-0.08921695;-0.049726658;-0.19418398;-0.04316399;-0.020481575;0.077316076;-0.012853378;-0.048194755;-0.06394461;-0.062215578;-0.06294001;0.033986136;-0.09829965;0.18509828;-0.028390089;-0.047817566;-0.108600564;-0.058873612;0.084854364;0.031279273;-0.00041556038;-0.14846005;-0.0699473;-0.09295654;-0.018910423;-0.093399964;0.049514294;-0.046105824;-0.11306042;0.010218924;-0.12710077;-0.13320574;-0.070927374;-0.025077587;-0.029236414;-0.12511823;-0.0004956296;-0.085059226;0.020106578;0.012971403;-0.05395932;0.03163127;-0.06441122;-0.08611797;-0.07704888;0.01682956;-0.17660025;-0.009235558;-0.095884405;-0.0128102265;-0.1292818;0.0066500506;-0.07881765;-0.09924381;-0.045987923;-0.016291184;-0.17014132;0.061620384;0.0019760684;-0.14073339;-0.1027483;0.07108962;0.04465481;-0.023403905;-0.057745464;-0.06782713;0.04516747;-0.01562558;-0.089176945;-0.043319218;0.11245384;0.025280153;0.045050096;-0.04208549;-0.07203915;-0.051769134;-0.059907895;-0.026543628;0.007164182;-0.126395;-0.1021507;-0.006893236;-0.09429537;-0.057539884;-0.0626535;0.10976362;-0.11718471;-0.085005894;-0.028982399;0.042387977;0.0026908212;-0.10092772;-0.029241003;0.02769078;-0.002707425;-0.02911351;-0.04237601;-0.11551944;-0.10024929;-0.021401882;0.03629092;-0.043940827;-0.07920517;0.07444719;-0.08030534;0.06421975;0.10933639;-0.07639695;-0.044483446;-0.14235453;-0.0022470285;-0.017954092;-0.054348685;0.0001330877;-0.11530437;-0.12796792;-0.105687805;0.013787343;0.029424569;-0.22831722;0.08927935;0.03875598;0.017254667;0.056871828;-0.05221724;-0.009519095;-0.008190742;-0.06497873;-0.064519905;-0.025061542;-0.0736483;0.12478088;-0.13350175;0.02023446;-0.016680507;-0.0010193456;-0.055926256;-0.027456844;0.01341945;0.013536688;0.010019397;-0.09866974;-0.045185566;0.05058855;-0.0030227948;0.008720286;-0.03555828;-0.09596688;0.018574826;-0.07090686;-0.117756434;-0.016844422;-0.0154218245;-0.14040694;0.15038727;0.06204519;0.04790268;0.01495628;-0.008444838;-0.087618664;0.07546651;0.072043136;-0.1185647;0.0356184;-0.118435405;-0.045188032;-0.22544399;0.044882867;-0.08719333;0.040857296;-0.056403246;0.006051166;0.05688977;-0.0033078343;-0.17487669;0.02202886;0.0014263763;-0.100585036;-0.11323819;0.083797805;-0.061590314;-0.076387584;-0.11907031;-0.051992692;-0.11521971;-0.06115855;0.015191637;-0.013446472;0.08788521;0.10777851;-0.07707691;-0.011889292;-0.037308276;-0.06923231;-0.069769986;-0.11881142;0.00091309956;-0.01897625;-0.019361323;0.01539778;-0.10996378;0.03204758;0.075922295;-0.018370867;-0.102550104;-0.1377865;-0.049368396;0.08757497;-0.09789846;-0.05472139;-0.04399417;-0.059465345;0.03637625;0.07999938;-0.096918605;0.1182653;-0.050153174;0.01871179;-0.03126895;-0.057999026;0.031301502;-0.10245916;0.01259063;-0.11510069;0.051566295;0.13556843;-0.10654003;0.018056758;-0.08048793;0.049363904;0.04328388;-0.10917616;-0.03267687;-0.17052652;0.031140821;-0.15656248;0.0138775995;-0.036840778;-0.028663848;0.012913982;-0.10978302;-0.11293208;0.028463868;0.13003325;-0.0008575204;-0.102255024;-0.08050259;0.031915292;0.027372995;-0.10233764;-0.10503346;-0.08930028;0.044637248;-0.12169622;0.04407321;0.01615461;-0.06728576;0.045313194;-0.039447304;-0.05565592;-0.005201385;0.0444665;-0.15416801;-0.08808119;-0.05009528;0.011374014;-0.055070803;-0.017591355;0.037733294;0.052890457;0.0120784445;0.1758415;-0.11758603;0.044572547;0.048777323;-0.061771516;0.017730834;0.01661612;0.054597743;-0.20088023;-0.089993164;0.11780502;0.033794932;0.0030900955;-0.098072246;0.010817009;0.005318791;0.010333507;-0.071232766;-0.08338066;0.026409615;-0.15864204;-0.06399784;-0.08737296;-0.07890303;0.03752934;-0.04062146;-0.08693107;-0.032859493;0.14438045;0.06912986;0.17040327;-0.042971477;-0.10975281;-0.063584484;0.035572745;0.034660704;0.110295035;-0.014611632;-0.039582346;-0.0063533387;-0.048666637;0.047752272;-0.038207877;0.01974897;0.02394937;-0.19478607;-0.0076204096;-0.011989688;0.025313547;-0.06261827;-0.040161617;0.024777284;-0.108920105;-0.004083693;-0.08276639;0.021596156;-0.027563062;-0.038691405;-0.016878638;0.06270512;0.0033397544;-0.1004842;0.04275926;0.028793572;0.020318886;0.019570133;-0.12110138;0.008978387;0.025398653;-0.09801092;0.04031488;-0.13308989;0.07161494;-0.08267512;-0.08929893;-0.11212588;-0.01948365;-0.08328556;0.0334356;-0.057517186;-0.099159345;0.002718232;-0.015617991;-0.014208645;-0.061362963;-0.012250042;0.00523119;-0.016142052;-0.1359959;-0.0644388;0.12566692;-0.1059623;0.09582279;-0.054123774;-0.036247905;-0.03402358;-0.016776457;-0.036646836;-0.07035999;-0.0063138423;0.04458;-0.037848223;0.052390993;0.027369501;-0.058685377;-0.09469732;0.019546669;-0.18125437;0.036623374;-0.13750656;0.009873496;-0.2195337;0.0556575;-0.017814955;-0.096259065;-0.048764434;-0.05441034;-0.11220216;-0.22714306;-0.08246023;-0.18732193;-0.06651773;-0.04022029;0.051226415;-0.15961646;-0.1076727;0.0019622669;0.047929104;-0.023177315;-0.106734425;0.006751043;0.020847218;0.0023685738;-0.007405024;-0.04252566;0.04441634;0.04223501;-0.09245319;0.023621261;-0.049738742;0.022759143;0.054963544;0.015427076;-0.08390444;-0.008540715;-0.013082103;-0.111973286;0.07419455;0.02366004;-0.06756124;0.055844523;0.052953213;-0.034600254;-0.019580614;-0.05434235;-0.05401829;-0.08025302;-0.07807239;-0.080630235;-0.1595164;-0.07541817;-0.052981846;-0.07705842;-0.06777316;0.00341839;-0.040736567;-0.109300874;0.007936309;0.053814515;-0.005457273;-0.004400925;0.025761157;-0.08785891;-0.0025214688;0.019929213;-0.120494224;-0.15136416;-0.050747335;0.074662134;-0.056452535;0.018154077;-0.20244575;0.10122926;-0.001162266;0.07835894;-0.14307922;0.032787185;0.13138926;-0.11466452;-0.01024382;0.037140846;-0.051330443;-0.040303934;-0.041601624;-0.08539251;-0.050905485;-0.062235773;-0.020241713;0.02395909;0.0543799;-0.061995357;-0.017600376;-0.065258175;-0.02577911;-0.09339817;-0.10045094;0.061732594;-0.0010407205;0.1050259;0.048551086;-0.025698906;-0.029676314;-0.01721644;-0.038184464;0.049598634;0.05379774;-0.03727996;-0.047747016;0.02920768;-0.030963853;-0.014186296;-0.05779171;-0.049120825;0.117230065;0.036760047;0.0596576;-0.041302938;0.07472796;-0.05704695;-0.017437216;-0.06852464;0.030487176;-0.078069426;-0.013559594;-0.017524278;-0.17104706;0.078374244;-0.021208324;-0.016639149;-0.043403942;0.0776421;-0.13471091;-0.033995327;0.100674346
0.029958708;-0.10543853;-0.041141335;-0.009741647;-0.1638231;-0.06653508;-0.047776632;0.008425569;0.062444862;-0.07138398;-0.041167118;0.1689135;-0.09446752;0.03677484;-0.0906027;0.005706262;-0.13552113;-0.039463114;0.016335294;0.030995818;-0.08718239;0.030326035;-9.390943e-05;0.002270781;0.047051672;-0.012720649;0.04997012;-0.099352516;-0.04380734;0.008530659;-0.13562089;-0.023373656;-0.0720711;-0.123649925;0.085655235;-0.019070258;-0.021579938;-0.04992922;-0.10314629;0.056744073;0.021588799;0.010011934;-0.05062631;-0.040671453;0.07634929;-0.04621386;0.15086393;-0.0659938;0.17675015;-0.02137477;-0.05385663;-0.0068257833;0.07735686;-0.100978;0.004737494;0.025817683;-0.008250916;-0.030911326;-0.07116736;-0.036444064;-0.08416555;-0.031450458;0.03167631;-0.15623897;-0.029966526;-0.10429967;0.039245386;-0.0635266;0.05434084;-0.01723698;-0.08369037;-0.072845;-0.08639951;-0.017096808;0.17688197;0.020411812;-0.151137;-0.054060016;-0.0673225;0.073274456;-0.09705443;-0.028903734;-0.14779088;-0.09448852;-0.09305862;-0.03879752;-0.06716991;0.11660221;-0.025545303;-0.021478113;0.015930079;-0.025181947;-0.120743945;-0.1902828;-0.004236515;-0.11675014;-0.039043818;-0.024722455;-0.10317842;-0.10821447;-0.0096684275;0.049035918;-0.04971816;-0.08264166;-0.0575261;0.018029299;0.0014415202;-0.03613278;-0.09553989;-0.056238886;0.054042414;-0.13042165;-0.033792105;0.02001431;-0.073732585;0.027388517;-0.08407757;-0.10850345;0.09590341;-0.011825622;-0.12683776;0.013822551;-0.022713564;-0.014087584;-0.06735113;-0.09942234;-0.19311723;-0.06478077;0.020603858;-0.006577056;-0.09549421;0.07244856;0.030502845;-0.031489972;-0.017441507;0.032699253;0.0087112505;-0.056643542;-0.0336073;-0.004147169;-0.06295462;-0.1312217;-0.06665034;0.035483774;-0.013849373;0.023002947;0.17370465;-0.1108517;-0.07150679;0.007894451;-0.017193502;0.058906328;-0.030136516;-0.048691176;0.018468613;-0.09549799;-0.036895506;-0.053900667;0.000758772;-0.08203768;0.017459141;0.0109612495;0.01367417;0.0042178826;0.018127182;-0.10065966;0.028424218;0.050177477;0.019181821;-0.047463693;-0.12304081;0.014092966;0.07429938;0.042402674;0.032856856;0.01907109;-0.09570497;-0.084935226;0.015521348;-0.019653933;-0.1772983;0.0496305;0.0045517846;0.0954063;0.126757;-0.083376125;-0.105224185;0.038290795;-0.10637355;-0.13092569;-0.05048546;-0.07189612;0.021222426;0.0036112037;-0.06630219;-0.087421596;-0.0020154724;-0.03729647;-0.13489793;-0.026539471;-0.053758398;-0.09959998;-0.058172733;-0.09511616;0.052858196;-0.097160235;0.0050117844;-0.027931234;0.0016753318;-0.08386325;-0.015278312;-0.06541336;0.054489117;0.03322892;-0.012166075;0.15043932;0.12755565;0.0390076;-0.053295117;-0.00069787604;0.02632445;0.13924398;-0.014578097;-0.122427694;0.042312525;-0.034464218;-0.13799834;-0.15956289;-0.048757028;0.052182183;-0.012217877;0.045704395;-0.112789705;0.08125413;0.014570987;-0.14111423;-0.1147668;0.051100504;0.007127849;-0.10921026;0.09370293;0.026139893;0.03680359;-0.022404991;-0.041337933;-0.036842022;-0.034482233;0.050262067;-0.022740537;-0.0054164617;0.10627289;0.07446556;-0.04791631;0.031971253;0.038373355;0.021704078;-0.104952544;-0.100342564;-0.049505327;-0.023901625;-0.03600416;-0.17859152;0.0317522;0.0739744;0.0024550178;-0.05225595;-0.10189569;-0.040879376;0.039733727;-0.02888104;-0.03042027;0.05551179;-0.02329175;0.04575068;-0.020642871;-0.11249944;0.038428694;-0.09348936;-0.039582774;0.019229412;-0.037685923;0.008763159;0.03735423;0.033363704;-0.08233783;0.041937623;0.023672717;-0.1528206;0.0035216722;0.07837773;0.029315034;0.103198014;-0.031561043;-0.012502037;-0.07248463;-0.0065693464;-0.06634029;0.020646088;-0.10888932;-0.027785325;-0.071047045;-0.06936543;-0.112879984;0.044973277;0.06838233;-0.03489255;-0.12610233;-0.077201135;0.027127687;0.05204508;-0.12453137;-0.001424887;-0.090257876;0.085255764;-0.052527085;-0.009753619;-0.12784934;-0.0184106;-0.06470388;0.004968943;0.026499504;0.05740323;-0.062490664;-0.10443459;-0.023876442;-0.09014276;0.04771745;-0.06511858;0.023002274;-0.004632754;-0.087727845;-0.11900812;0.11096756;-0.12589678;-0.04370295;0.037499197;-0.019250264;-0.045128196;-0.042438436;0.023654113;-0.17987378;-0.04081303;0.045942016;-0.07448534;-0.045103207;-0.018010622;0.094108365;-0.06653527;-0.1077732;-0.042109538;-0.05728101;-0.09184285;-0.19795303;0.043075226;-0.03380897;-0.09632807;0.017838638;-0.11310839;-0.031742558;-0.028071977;0.019503746;-0.09072609;0.14414555;0.0212866;-0.1269479;0.036165345;0.0038724549;-0.050928075;0.065305285;-0.08842835;-0.034753498;-0.0704086;-0.09157481;-0.026106447;0.020999277;-0.042710528;-0.040409524;-0.20103908;-0.016741963;-0.016674789;-0.04667865;0.040980674;0.023589928;-0.059934653;-0.11151665;-0.09623341;-0.087522976;-0.10793356;-0.04002131;-0.035297517;-0.066877365;0.0062870802;-0.10374417;-0.00063568784;0.09604527;-0.06322336;0.04008399;-0.11524663;-0.10139877;-0.05613358;-0.07586563;-0.085209705;0.01613348;-0.08007519;0.10143705;-0.065420516;0.03752407;-0.045902498;-0.085564844;0.025957916;0.025885722;-0.11691799;-0.008936551;-0.10515819;-0.081738286;-0.03405205;0.05669363;-0.08195688;-0.1033453;-0.0682536;-0.091257736;-0.05851348;0.14571877;0.01671034;0.12693235;0.042489544;0.030803649;-0.06743198;0.024610594;-0.076065086;-0.034703057;-0.020277875;0.033528157;-0.08851659;-0.072868854;0.030045224;-0.03415116;-0.056264043;-0.04167931;-0.14541855;0.05174031;-0.0023586364;-0.0049697477;-0.20537981;0.008261434;-0.09224923;-0.04379539;0.0114959655;-0.058673885;-0.036167976;-0.25071153;0.0019013396;-0.0873297;-0.12610333;-0.053471617;-0.06590204;-0.10337963;-0.02481034;-0.03427339;0.012506766;-0.05905132;-0.039119124;0.024775492;0.007228644;-0.036596667;-0.031029418;-0.04724823;0.037148867;-0.08604436;-0.07569207;0.007937159;-0.056053873;-0.07444271;-0.0005232111;0.04945337;-0.08222462;0.04323536;-0.015919298;0.04212215;-0.058733374;0.09065567;0.017862502;-0.080383696;0.18543115;-0.079807505;-0.07015616;0.00035763747;0.023685247;-0.1216529;-0.056471687;-0.01402996;-0.09813459;0.0025075863;-0.0041987253;-0.0204253;-0.011071902;-0.07676222;0.034123868;-0.1216321;-0.062283;0.063605346;0.043507516;-0.054038372;-0.05664303;-0.04893297;0.0035882161;-0.114028595;-0.22245502;-0.15144975;-0.028249552;0.09076357;-0.06210867;0.07444751;-0.15845199;-0.053518422;-0.113285154;0.062367;-0.037237193;-0.0006233046;0.07539152;-0.06551847;-0.019978276;0.006044175;-0.010739717;0.054579977;-0.103563644;-0.043725174;-0.028340856;0.028073812;0.045808118;-0.04310313;-0.02897222;-0.025275677;-0.010834785;0.020371303;-0.0690636;0.029811092;-0.067352235;-0.053153835;0.062340256;0.027577294;0.055014014;-0.12546211;0.027252132;0.046373185;0.03167845;0.01781089;0.08795507;-0.0074385535;-0.0022872323;0.0255966;0.020486837;-0.097126335;-0.069923826;-0.07177092;0.14218667;-0.07104895;-0.07022006;-0.07247474;0.052880395;-0.030133527;0.028838018;-0.121766895;-0.049977582;0.022985838;-0.059933096;-0.102768674;-0.19850758;0.017516494;-0.05101313;0.01663807;-0.06552274;0.014483299;-0.045535225;-0.10475263;0.0025331972
-0.10932117;-0.15056339;0.04652047;0.024192369;-0.22332193;-0.053234998;-0.02489274;0.07989222;0.12059354;-0.10533429;-0.052758288;0.1476638;-0.050235696;-0.08400741;-0.07378317;0.04098023;-0.14226487;0.01983725;-0.09537678;-0.035484653;-0.021441748;0.053238705;-0.08755745;0.0723963;-0.023805462;-0.08096189;0.06566264;-0.13993692;0.07081099;-0.005130636;-0.1732847;0.0068834475;-0.032088578;-0.01703247;-0.05188961;-0.07762225;-0.06779618;0.036044605;-0.04990126;-0.03193858;0.020861905;-0.0098919;-0.009128709;-0.14124648;-0.06530047;-0.020973306;0.11433345;-0.025405416;0.12120499;0.03253344;0.065823354;-0.050323445;0.049956076;-0.0018405559;-0.08799899;0.033634227;-0.12692186;0.02920795;-0.030011082;-0.026103286;-0.053633526;-0.01884267;0.02272522;-0.17420428;-0.07245711;0.027375886;-0.07113837;-0.08374556;0.0454872;-0.053778507;-0.16363408;-0.021067077;-0.04099377;-0.034665287;0.15265937;-0.013519076;-0.17787994;-0.1278512;-0.085653305;-0.03341149;-0.034919273;-0.04841405;-0.110953666;0.011991798;-0.00972351;0.016059157;0.0248045;0.18962176;-0.15015271;-0.039130088;-0.051276337;-0.1428447;-0.03874149;-0.14248206;-0.0031190098;-0.008302799;-0.13226843;0.017727861;-0.07314165;-0.079659194;0.11932515;-0.024788253;-0.040604346;-0.050118916;-0.08289306;-0.011223161;0.017134778;-0.01946342;-0.10646635;-0.15549415;-0.015298988;-0.17083602;-0.07981599;-0.06115518;-0.044089507;-0.019602844;-0.07619987;-0.10770184;0.046241056;-0.03755716;-0.12740092;-0.10502563;0.09228184;-0.10597485;-0.01919071;-0.056851413;-0.055204134;0.07382521;-0.061778765;0.00937816;-0.18107446;0.18216632;0.061196975;0.04182181;-0.014527755;-0.0084432;0.049284652;0.02449946;-0.0071641533;0.016703168;-0.1187162;-0.118041836;0.043996133;0.03433876;-0.07040429;0.040722538;0.058276504;-0.048472077;-0.04045868;0.025387868;-0.094820656;0.053278405;-0.01165147;-0.03305836;-0.010376137;-0.054998837;0.03840549;-0.034155406;-0.0028011277;-0.05750213;-0.047019638;-0.018752681;-0.06889668;0.05349658;0.021141265;-0.07866262;0.10216913;0.045812603;0.018190805;-0.04227004;-0.06686393;-0.055753227;0.001006088;0.036620397;-0.06938633;0.017202394;-0.15302168;-0.07838718;0.0040916186;0.017928218;-0.07938064;-0.026163083;-0.09339628;-0.0045282682;0.04749563;-0.075193815;-0.065526076;-0.036495373;-0.03230681;-0.14602596;0.03319698;-0.03569062;0.14327134;-0.08023689;0.03814025;-0.029640635;-0.0021893561;0.036839828;-0.13371728;-0.013371755;0.021288577;-0.04868143;-0.13498701;-0.08601367;0.020117128;-0.01848608;-0.09256667;0.066448584;-0.08907221;-0.067645706;-0.027849281;-0.013126388;0.045050535;0.03617766;-0.059122894;0.16414893;0.113501675;0.031531543;-0.0025717616;-0.09167825;-0.04893356;0.00018905512;0.03328138;-0.022011137;-0.061084986;-0.0930117;9.174237e-05;-0.20410304;-0.06782705;-0.0687813;-0.044150572;-0.035699088;-0.094915144;-0.040642377;-0.023232438;-0.1026657;-0.09324617;-0.049460333;-0.047962364;-0.021916537;0.055163294;-0.08491866;-0.01559648;-0.00036317157;0.043948047;-0.11409551;-0.08315041;-0.108845;-0.06612178;0.13154404;0.0998363;-0.0034049784;-0.047853988;-0.07940937;-0.020825902;0.09493147;0.020917993;-0.09158691;0.006969313;0.092347674;-0.052543998;-0.15168634;-0.05214823;0.039851356;-0.01639904;-0.11209927;-0.020191658;0.0016177058;0.045698542;-0.040307153;0.012194211;-0.044421464;-0.01713698;-0.03995224;-0.0027385587;-0.14073005;0.07371487;-0.09895505;0.011369039;-0.047787353;-0.026717287;0.017160239;-0.04858677;-0.103191406;-0.0878751;0.0012061074;0.14395732;-0.012837155;-0.036354277;-0.018099679;0.046449468;-0.0380925;-0.07533562;-0.027077794;-0.13493098;-0.06294299;-0.07434053;-0.00882249;-0.028224263;-0.07537559;-0.064658806;-0.0030137093;-0.14466657;-0.032338835;0.19549395;-0.0958197;-0.13560611;-0.072571434;-0.07954654;0.13562259;-0.19483438;-0.02852111;-0.15260506;0.016928066;-0.13340878;0.036171094;-0.10743001;-0.009792301;-0.009839419;-0.0027730386;-0.012896602;0.032977752;-0.015651349;-0.010346747;-0.07935929;-0.045345053;0.111705706;0.0098695215;-0.06566423;-0.05918549;-0.028030358;-0.09908308;0.12059053;-0.111750215;-0.08815059;0.018913932;-0.0016520859;0.0503191;-0.012093569;0.02268194;-0.07300321;0.013784667;0.04029245;-0.015572653;-0.007222315;-0.11300669;-0.02817571;-0.06808508;0.05021081;-0.09145551;-0.10672032;-0.054013323;-0.15880182;-0.036209535;-0.013043781;-0.02230055;-0.016844502;-0.11399655;-0.0008100667;-0.10717359;0.13094936;-0.056529444;0.03805353;0.038735077;-0.17385396;-0.0386678;-0.050919533;-0.070980616;0.08471258;-0.092384696;-0.004115154;-0.102276646;-0.054362576;-0.09731666;-0.018725356;-0.10903246;0.04906667;-0.12640473;-0.058115516;-0.036362037;-0.014113658;-0.07642913;-0.05038123;-0.040226586;-0.05828626;0.03892361;-0.10790165;-0.11607648;-0.0116141625;0.03726493;-0.0007620107;-0.030548267;-0.008290669;0.02017351;0.105019905;0.08893422;0.03527825;0.01793184;-0.09389261;0.053635627;0.019890407;-0.19255476;0.04587851;-0.20377609;-0.034796968;-0.049454402;-0.010326814;-0.023811853;-0.18175752;-0.008640484;0.045986056;-0.0036994528;-0.08679262;0.010018674;-0.08801533;-0.022063456;0.05200223;0.033735942;-0.05129235;-0.1066242;-0.09262322;0.03259576;0.09129455;-0.055385914;0.07552933;0.0016255126;-0.090028025;-0.096749;-0.092279315;-0.012018078;0.06436106;-0.09399483;-0.039753374;-0.03124406;0.013825062;0.046341788;-0.035157286;0.022401577;-0.040694777;-0.031637486;-0.028277863;-0.1268906;0.00011275909;-0.0905857;0.07544535;0.05698433;0.008222098;-0.10080814;0.041110538;-0.039739106;-0.29020333;0.01670794;-0.20852298;-0.12905945;0.08944722;0.043239158;-0.07493907;-0.025714621;-0.016390221;0.008063473;0.028244404;-0.06475015;-0.08416131;0.05454318;-0.10655191;-0.052987065;-0.060856994;-0.007287901;-0.07046796;-0.07235118;0.052306022;0.023630552;-0.02514358;-0.0153013505;-0.035678424;0.055887125;0.035070892;-0.024911514;-0.018365968;0.06758718;-0.03880042;-0.07020252;-0.014028663;0.050306506;-0.104404666;0.009377743;-0.003520361;-0.0812317;-0.051617414;-0.0630758;-0.015055825;-0.1791324;-0.06884676;0.031257186;-0.07706714;0.016623363;0.050820008;0.008208795;0.040644746;0.032572247;-0.046951458;-0.018189102;-0.040590245;-0.03557688;-0.07397734;0.075276904;0.02321132;-0.17615223;-0.039568514;-0.091980875;0.08352365;-0.09715586;0.037064806;-0.12732744;0.022658158;-0.024169708;-0.011032337;-0.010908494;0.037865926;-0.011231658;0.0062118466;0.042278215;-0.06756455;0.061904155;-0.013211747;-0.0072655245;0.022195147;-0.040689263;-0.014688471;-0.0032127884;0.035078228;-0.027391925;-0.03664473;-0.030222654;0.04039577;-0.10190063;0.00094665453;-0.1069259;0.052320458;0.059253506;0.051398896;0.10939271;-0.037586585;-0.081723526;-0.078090966;0.003419046;0.040531073;0.07091309;-0.03491468;-0.09499966;-0.056473166;0.02351705;0.05297985;0.012408442;0.057641633;0.065280855;0.08467597;-0.08024294;-0.10865295;0.0043171183;0.03904876;-0.042555597;-0.10741178;-0.073229596;-0.11910096;-0.043262154;-0.0674292;-0.11310026;0.0649011;-0.054699466;-0.050320946;-0.06586058;0.06532468;-0.100521035;-0.08843696;0.041153226
-0.002832897;-0.081709325;-0.05954543;0.06679222;-0.103543274;-0.11338767;0.05870533;0.074262396;0.064230576;-0.061100643;-0.12541743;0.04333891;0.017895846;0.030750852;0.036668222;0.047624987;-0.14700095;-0.048066262;-0.0039051438;0.026091022;-0.011895068;-0.039871566;-0.05281496;0.09370111;-0.011238221;0.0139049;-0.041126028;-0.09131895;0.0066828653;-0.038419165;-0.061833393;-0.06329548;-0.07885002;-0.032987475;-0.08052704;-0.1192348;-0.13301197;-0.033502143;0.010082336;-0.048649143;0.040623978;0.021066451;-0.057216715;-0.082952544;-0.008076343;0.058706734;0.16141872;-0.033622712;0.14039277;-0.03155105;-0.05053351;-0.0513948;0.026574718;-0.088318676;-0.034619506;-0.053206556;-0.08082153;0.0013397329;0.084817335;-0.00789158;-0.007238758;-0.10084941;-0.09810322;-0.06072263;0.034636565;0.0036281669;-0.00023655538;-0.050478872;-0.06257923;0.054146677;-0.16415982;-0.12716973;-0.06466724;-0.026946034;0.12507232;0.0055596572;-0.13108398;-0.034578457;0.06390871;0.039565735;0.0161733;0.007616681;-0.17704134;-0.007474862;-0.01304971;0.015782509;0.0011929113;0.113774545;-0.04026357;-0.023606297;-0.0057162005;-0.04540062;-0.052597053;-0.12004779;0.02448686;-0.022323875;-0.07106556;-0.03213827;-0.039264284;-0.050565984;0.119812764;-0.018572878;0.040610325;-0.036420606;-0.026379567;-0.07045053;-0.024090245;-0.12285276;-0.049798172;-0.16123337;0.041754216;-0.112002715;-0.034503885;-0.026946124;-0.038576685;0.07725294;0.036223415;-0.07141662;-0.040220518;0.020427607;-0.037590414;-0.0049794805;-0.036975186;-0.094972864;-0.056491464;-0.015011897;-0.12837943;-0.06422299;-0.07789249;-0.1265406;-0.093467966;0.016897943;-0.020467985;-0.0092654135;0.024187583;0.029158654;0.012090543;0.010261599;-0.0629122;-0.11333838;-0.056153055;-0.008960021;0.06706403;-0.026759826;-0.11596717;-0.085508734;0.023703502;-0.026351823;-0.027304653;0.007681062;-0.08311949;-0.052068237;-0.12560481;-0.13125971;-0.05429557;0.009506079;-0.0025189903;-0.099868536;-0.0069482685;-0.08976275;-0.09179369;0.08214485;0.008745023;-0.06589179;0.020914402;0.023166886;0.0011781516;0.08638128;0.052974317;-0.11075416;-0.022845002;0.034241617;0.07861877;-0.026795857;-0.087806165;-0.09303914;-0.048686024;-0.0018689964;-0.030228563;-0.006506391;-0.14406803;0.11206667;-0.06252666;0.024235375;0.02178992;-0.008897814;0.023357363;-0.08510055;-0.078499734;-0.07866602;-0.11622122;-0.03751965;0.04295807;-0.09195037;-0.0418592;-0.021061119;-0.047758076;-0.026496217;-0.11996803;0.13123098;-0.01110652;-0.04505019;-0.13572848;-0.050801054;-0.05875912;-0.063226044;0.007150924;0.09792368;-0.07379194;-0.07315511;0.037277438;-0.06876491;0.028214179;0.026269777;0.024909876;0.18101524;0.08694924;-0.037497263;-0.016406622;0.017364854;-0.03211598;0.086037524;0.029386014;0.013513294;0.063650385;0.004804841;-0.06433181;-0.16116156;-0.10787441;0.046045695;-0.109176055;0.023078807;-0.115713224;-0.016070036;-0.0036654093;-0.14386636;-0.04735248;-0.013246251;-0.025753995;-0.13385509;0.116914235;-0.057581764;-0.020422919;-0.036624007;0.0049803;-0.09315808;-0.074956805;-0.035025343;0.021646824;0.073114805;0.13731866;-0.058940265;-0.014405327;-0.107642576;-0.07024636;0.0569914;-0.06575923;-0.09345997;-0.092101455;-0.0016213481;-0.007603312;-0.118523754;-0.0050998307;-0.005026215;-0.014447247;-0.025767386;-0.048137475;0.029111845;-0.053635333;-0.06452066;0.036746193;-0.07017124;-0.072053015;0.033128064;0.08142861;-0.033633966;0.11061732;-0.022103611;0.037005704;-0.008905718;-0.08412947;0.029631862;-0.068487234;0.01181785;-0.0897033;0.043677114;0.111538246;-0.09451227;-0.06340107;-0.020818088;-0.04313708;0.09586772;-0.15513548;-0.035632834;-0.0691341;-0.107686564;-0.007064782;0.042586677;-0.07836651;0.02090149;-0.0968229;0.013042132;-0.2058948;-0.043914888;0.09836777;-0.041629408;-0.08698369;-0.06741234;0.028095176;-0.047257397;-0.12442359;-0.10512711;-0.14940806;0.0056167287;-0.034518376;-0.04444832;-0.030039584;-0.015862664;-0.10254932;-0.0515595;0.04100569;0.016776958;-0.11293568;-0.13248001;-0.021816943;-0.055490244;0.059585176;-0.09995136;0.004564656;-0.08366305;-0.041074015;0.009195687;0.013735861;0.022960013;-0.04105878;0.005255574;-0.064160705;-0.029146982;0.05140729;0.029294103;-0.16112734;-0.08285644;0.124189295;0.01340467;-0.092766;-0.010473157;0.087368354;0.054468993;0.03499632;-0.043530118;0.03684126;-0.021960303;-0.16204381;-0.06695291;-0.12521964;-0.034044154;0.03285966;-0.0943354;-0.09143893;0.029664753;0.17604743;-0.025995923;0.08634724;0.031300228;-0.15002568;-0.07389409;-0.06481227;-0.084169246;-0.020726038;-0.11987432;-0.034675147;-0.08173719;-0.0221746;0.07100224;-0.034051053;-0.00080108107;0.033462133;-0.15315047;0.031680953;0.052577533;-0.012394286;-0.012215021;0.0038481974;-0.08980287;-0.03584437;-0.07619024;-0.14243077;0.027871251;0.055114556;0.031530257;-0.02251382;-0.012187426;-0.09070739;-0.041418537;0.016834026;-0.05599334;-0.10858811;-0.097788215;-0.028704181;0.007429503;0.008561465;-0.1808653;-0.037592206;-0.12079714;0.05333079;0.08666311;0.042271268;-0.041904964;-0.06653124;-0.041513544;0.010743178;-0.10701251;-0.10075042;0.0010152324;0.017115507;0.020244703;-0.067504875;0.013188024;0.03933808;-0.08873726;-0.11964536;-0.08674802;0.16325618;-0.03926211;0.092294194;0.023057621;0.012303571;-0.08564442;-0.09074238;-0.069975466;0.06412055;-0.048696164;0.017641013;-0.08687299;0.026296478;-0.049883258;-0.0632471;0.034229115;-0.08290029;-0.053067233;0.003602734;-0.044723727;-0.08602616;-0.2071831;0.016149247;-0.064445674;-0.0025183947;0.016075455;0.0500858;-0.17319235;-0.24849036;0.027723167;-0.17656651;-0.100594126;0.08470184;-0.0017577676;-0.057208978;-0.029633949;-0.07528747;-0.06046829;-0.04192626;0.033294454;-0.101580314;0.009265588;-0.0039599906;-0.018339003;-0.13857749;0.01360199;-0.053066477;-0.045173064;-0.013058877;-0.092022106;0.032968014;-0.00071243924;-0.08061869;-0.0052932715;0.041740473;-0.024280807;-0.0058100033;-0.011372817;0.08899241;-0.057123374;-0.06412825;0.16070312;-0.063801214;-0.011409281;-0.05199792;-0.015777133;-0.09522562;-0.10481888;0.0163472;-0.05142064;-0.0060974695;0.023093177;-0.066969074;0.033341777;-0.0129435435;0.021589236;0.049423642;-0.03344128;-0.013625562;-0.042504203;-0.033454794;-0.07264769;-0.09332973;-0.007499776;-0.12734091;-0.15282072;-0.09960645;-0.09451567;0.05803132;0.012849702;0.02963132;-0.171385;-0.03367505;-0.07226022;0.06776115;0.002635848;0.014093928;0.04906196;-0.039313614;-0.048419714;-0.061439537;0.030419447;0.025014669;0.0023279015;0.032153953;0.03058469;-0.0021775202;-0.002063752;0.041560706;0.031482477;0.023061784;-0.04573403;-0.026570851;-0.010449949;-0.028800791;0.023951521;-0.0012557679;0.008916558;0.049275696;-0.027600018;-0.025386337;0.054712765;0.014134182;-0.14899957;0.0136405025;-0.0072607864;0.06648047;0.019383933;0.03426849;-0.015160985;0.05722188;0.023807097;0.027424442;0.108471885;-0.07802102;0.0036126233;-0.08258585;-0.0712103;0.04556533;-0.03217423;-0.053185467;-0.06371379;0.0025949033;-0.044328645;-0.0025194772;-0.22784828;0.1742955;-0.054103456;0.031078178;-0.065134786;0.06869435;-0.0077561443;-0.06346728;0.06411165
0.0029366096;-0.13827842;-0.09333833;0.08039818;-0.22905588;-0.11151107;-0.012690549;0.077967204;0.11191909;-0.13801777;-0.038332637;0.16504146;-0.080151506;-0.04739339;-0.008059219;-0.028133336;-0.12686586;0.029001655;0.0017373195;-0.015210516;-0.07094889;-0.005106788;-0.067741;0.074530005;-0.04129774;0.047875408;0.034010317;0.005812593;0.073631994;-0.115003556;-0.16306199;0.030559009;0.00885879;-0.01372172;-0.06255457;-0.071204364;-0.15213943;-0.027741695;-0.10966571;-0.052361477;-0.027568027;0.017011056;-0.08949626;-0.00302124;0.009443237;-0.0299465;0.07660433;0.013927138;0.1848804;-0.032835077;-0.037103157;-0.08195367;-0.0020321761;-0.056863148;0.02725969;0.033346422;-0.13292341;-0.0647568;-0.032766342;-0.08248147;-0.0015309924;-0.062194835;-0.0705106;-0.09707602;0.009360843;-0.047352254;-0.04502981;-0.09352773;0.009065675;-0.017762803;-0.16371112;-0.14706217;0.04464877;-0.0062368335;0.16085078;0.0036658393;-0.16798015;-0.13127671;-0.004464789;0.042720996;-0.017908644;0.024266073;-0.1163607;-0.016808644;0.010064873;-0.0820285;-0.11306226;0.08885749;-0.053303123;-0.11376117;0.003008863;0.015690126;-0.062258646;-0.11991737;-0.04330246;-0.014591716;-0.09050246;-0.09850298;0.036386162;-0.030671017;0.11631776;-0.011688835;-0.03245835;-0.118672825;0.028914697;-0.10477577;-0.042878132;-0.08434633;-0.13667876;-0.051299587;0.057706416;-0.084440894;-0.0685414;0.024290772;-0.03737432;-0.054415382;-0.032411125;-0.11926817;0.08463755;0.016061744;-0.08196722;-0.11641938;-0.0016187693;-0.11625074;0.039914705;-0.01788673;-0.17405266;-0.09174404;-0.03538012;-0.05503439;-0.052194905;0.18094245;-0.015591098;-0.04397079;-0.069037974;-0.10086331;-0.03349678;-0.020381179;-0.08255858;-0.012578122;-0.0609103;-0.041626256;-0.07724216;0.015542171;-0.09020419;0.032400373;0.13274921;-0.041355044;-0.023248108;-0.11003521;0.0006211433;-0.021722479;-0.04804347;-0.15806946;0.036447294;-0.027060648;-0.08651428;-0.051069982;-0.022306928;-0.03377008;0.033558596;0.06511093;0.08434059;-0.028527904;0.15217309;0.0123892445;0.03156287;0.09212106;0.030588012;0.014747139;-0.14587696;-0.1104;-0.031709127;-0.103916585;-0.014601683;-0.13300073;-0.050156016;-0.006986828;0.0044309343;-0.0910897;-0.2047224;0.018445378;-0.11772689;0.027760677;0.08559558;-0.050993524;-0.06529969;-0.08304166;-0.05399428;-0.12050153;-0.04526946;-0.0582591;0.0056958906;0.015034421;-0.0023235339;-0.06874788;-0.06245851;-0.0092829075;-0.13794774;0.14214545;0.002494488;0.020136468;-0.005021587;-0.022631302;0.0017551557;-0.12469886;-0.0920175;0.076322526;0.03631217;-0.030768814;-0.050838925;-0.047223814;0.0055892733;-0.07206731;-0.014091748;0.050781336;0.18075113;-0.042927183;-0.018695815;0.014261311;-0.09554269;0.11310137;0.041734852;-0.09901088;-0.068406686;0.005255391;-0.03142237;-0.1258691;-0.031475365;-0.043598052;0.047903422;-0.034225214;0.023333974;-0.012148941;-0.117607355;-0.07154031;-0.037108216;0.052588087;-0.054485824;-0.09145918;0.019882308;0.04912709;-0.038196694;-0.11011046;0.04825633;-0.0249857;-0.110251494;0.029759679;-0.063024946;0.11558743;0.020509193;-0.018260615;0.0019512516;-0.054035652;-0.039123736;-0.071874395;0.00957216;-0.007725856;-0.09467833;0.08469286;-0.057066042;-0.057828095;-0.0038160204;-0.060425427;0.03572118;-0.1393061;-0.1894125;-0.1067993;-0.013685565;-0.005195284;-0.03503945;-0.028795904;-0.077681184;0.004602705;-0.039524693;-0.14303519;0.03576019;-0.03264761;-0.087440506;0.10421141;-0.123520084;-0.015193364;-0.049979556;-0.07859087;-0.0220871;0.06270312;0.14334473;-0.039408598;-0.04889316;0.003868354;0.008368442;0.027705532;-0.029801084;0.02719052;-0.050328232;-0.026077764;-0.10848089;0.0018467748;-0.08727465;-0.034296524;-0.0571128;-0.036907375;-0.086135;0.024171442;0.15942901;-0.10833242;-0.13198237;0.046036664;-0.099025644;-0.011138175;-0.037898436;-0.05528001;-0.13384745;0.024149595;-0.114255615;-0.06616502;0.024106368;-0.10719993;-0.011586398;-0.026423927;-0.042700555;0.088847905;-0.1064054;-0.04910928;-0.10026306;-0.07058594;0.08632296;-0.0056543867;-0.051671688;-0.09810866;0.048288975;-0.0122522265;0.06272313;-0.09744544;-0.085558236;-0.006452937;0.01306507;0.03257046;-0.09258839;-0.12602349;-0.16290468;-0.00039315285;0.01402709;-0.08733078;0.026305646;0.011412217;0.032884374;-0.06031447;-0.07561777;-0.038672972;-0.11530908;0.052116506;-0.15834235;-0.057295833;-0.065315835;-0.100767925;-0.01316027;-0.09047612;-0.116540074;0.013012468;0.106194414;0.030025898;0.04580657;-0.013546985;-0.14372697;0.019232877;-0.07118427;0.0014939009;0.112536676;-0.072113335;-0.059780046;-0.101955846;-0.10794;-0.0521638;-0.00358095;0.055765215;0.021937815;-0.05853792;0.015956536;-0.042202346;0.006380467;-0.073192775;0.026756201;-0.035845436;-0.089680515;0.037850827;-0.08953411;-0.09254771;0.03750445;-0.059210163;-0.06674824;0.04444418;-0.06280445;-0.08647213;0.018931458;0.06479325;-0.097364135;-0.0671018;-0.021107228;-0.0020203262;-0.06886507;-0.11710925;-0.019980378;-0.054604847;0.09543669;0.08215443;-0.07121038;-0.043263953;-0.15171175;0.010923745;0.018673003;0.026153577;-0.014691454;-0.024068546;0.05142271;-0.14378801;0.049764007;-0.09132323;-0.07133464;0.005754458;-0.15180995;-0.03018624;0.057679966;-0.08816857;-0.017773125;-0.07484791;-0.04747134;-0.043989394;0.06290033;-0.063025735;-0.08620484;0.046807185;-0.05861675;-0.02700336;-0.023101155;-0.023741005;-0.10175832;0.010769023;-0.064828664;-0.16389611;-0.040231504;-0.08053836;-0.109913304;-0.13929343;-0.069734;-0.047384027;-0.02662423;0.015784623;0.009845109;-0.1485943;-0.18641813;0.0026413058;-0.10363423;-0.07953943;-0.08397742;-0.054783788;-0.17260297;0.035491563;0.04586085;-0.014716837;0.016857484;-0.03218869;0.03175967;0.07190806;-0.052276295;-0.05676766;-0.15372355;-0.03126582;0.031543784;-0.12885395;-0.038285844;0.018396338;-0.025183927;0.040111296;-0.04723992;-0.017643394;0.009883799;-0.11416195;-0.05741721;0.027699955;-0.02498741;-0.04765487;-0.019572021;0.12184541;-0.11045058;-0.07150277;-0.06326129;-0.076554894;-0.024771042;-0.034308758;0.003951151;-0.104465075;-0.012999108;0.023250703;-0.052327096;-0.08789992;-0.09541424;-0.061706036;0.033481754;-0.10868913;-0.014702181;-0.014642311;-0.020805366;-0.0295834;0.031787593;0.023537422;-0.09506149;-0.20228247;-0.13969316;0.05146388;0.01795008;-0.10840396;-0.014992994;-0.24748236;-0.0064449916;-0.056356847;-0.019158054;-0.14497441;0.03282643;0.100431666;-0.019406466;-0.0014983311;-0.036094975;0.036220945;-0.0056711948;-0.052955832;-0.069282204;-0.0323402;-0.120716505;-0.056028757;-0.11367065;-0.05994935;0.027135925;0.02786561;-0.112837605;-0.013476842;0.036985613;-0.06750639;-0.03740545;0.091406;0.032546993;0.065583155;-0.069125;0.025950259;-0.06329071;0.02070392;0.023369748;0.060744498;0.017409714;-0.039033443;0.032567963;-0.06574877;-0.09444432;-0.069157295;0.057323713;0.03402869;0.04407563;0.030496025;-0.09423674;-0.01196774;-0.009957119;-0.0848848;-0.08250944;-0.022621013;0.019998752;-0.050820317;0.04174586;-0.164045;0.1461026;-0.076444216;-0.012273988;-0.031146126;0.13985744;-0.0937849;-0.055239245;0.1585222
-0.10368291;-0.18180634;-0.10084697;0.0237265;-0.19951695;-0.02178562;0.04772401;0.14419682;0.044074796;-0.05303942;-0.15459487;0.12792653;-0.067459494;-0.061301973;-0.07447969;0.06199176;-0.06400632;0.09053679;-0.049603146;-0.047451623;-0.052098844;0.0005651957;0.024571557;0.035194658;-0.06090932;-0.09070856;0.032423444;-0.01831136;0.10645742;-0.064187236;-0.14817922;-0.016199067;0.004989802;-0.1242589;-0.0009276948;-0.10046644;-0.03222521;0.010224266;-0.10846963;-0.04878494;-0.07443629;-0.0046958183;-0.071352474;-0.0036774;0.068806276;0.02506659;0.06381764;0.019360691;0.19603983;-0.062299665;0.03291436;0.060783144;-0.026864897;-0.034739144;-0.11227158;0.0038387417;-0.06529121;-0.06480961;-0.03760726;-0.07883634;-0.07246625;-0.10559355;-0.10092348;-0.10599626;-0.058253255;-0.091488205;-0.051691845;-0.020093605;0.016124345;-0.07176933;-0.066358134;-0.12935391;0.035178456;-0.0062867007;0.07603676;-0.06620619;-0.04116595;-0.117313646;0.0293424;0.059333492;0.024160927;-0.01649543;-0.1605741;-0.08138973;-0.029674677;0.020845404;-0.027231317;0.2176898;-0.005172693;-0.11763882;-0.023248503;-0.05058593;-0.11790244;-0.18022037;-0.0076082237;-0.12210818;-0.1407512;0.03645567;0.039997086;0.010525621;-0.008882334;-0.04183906;0.0074100187;-0.038842764;0.06163214;0.030727128;-0.07166003;-0.030033514;-0.031759;-0.09804159;-0.053131677;-0.1258687;-0.07268311;-0.11428114;-0.058096886;-0.014218472;-0.12375776;-0.17506826;0.042880148;-0.06758745;-0.012796707;-0.1205343;0.03012451;-0.101630434;-0.080530174;-0.013121833;-0.06598659;-0.0206795;-0.11985289;-0.00046768412;-0.054338112;0.109016344;-0.055637114;-0.03010389;-0.016168542;-0.003605994;-0.07381231;-0.04616389;-0.06880665;0.020244239;0.0034560887;-0.053024758;-0.010519968;-0.07058775;-0.015909754;0.015570923;0.08886398;0.02386753;-0.089726046;0.019526888;-0.05064073;-0.06571513;0.031556547;-0.121298626;0.043930992;-0.106997944;0.0021951671;-0.106707714;0.014693712;-0.057746936;0.012412585;-0.02248168;0.07947425;-0.009014688;0.14567494;0.0029289199;0.018600952;-0.0011150386;-0.037317377;-0.090547115;-0.05750973;-0.012775353;0.03588501;-0.113842025;-0.08638433;-0.11641808;0.02185503;0.031872485;-0.041448448;-0.053514306;-0.08731871;0.097833216;-0.02788392;-0.034348223;0.064522445;-0.088641524;0.030951733;-0.027195303;-0.024309753;-0.14394735;-0.008814626;-0.10184364;0.009435679;-0.11057964;0.037851032;-0.13815765;-0.033567037;0.014075381;-0.09218431;0.15069321;0.040988255;0.027161095;-0.081838205;-0.037949074;-0.039119173;-0.097755246;0.02950245;-0.027981017;-0.009727205;0.05926519;0.051714987;-0.099340424;0.048925195;-0.00018790983;-0.03719522;0.11378933;0.117082514;-0.035364017;0.07013166;-0.04086901;0.0013981211;0.11861694;-0.1118312;0.01564333;0.0008633126;-0.08117687;-0.12254313;-0.14845064;-0.04024909;-0.010578466;0.011378812;-0.05244613;-0.087919;0.07120389;-0.11165706;-0.08530698;-0.041697614;-0.06728338;-0.0077873617;-0.15799841;0.05346244;-0.09168783;0.02076758;-0.097375594;-0.047950346;-0.06690712;-0.16237268;0.0028012122;0.0005783995;0.117241755;0.09091667;-0.0922174;-0.04462839;0.0036936705;-0.07032484;-0.07191581;-0.0413163;-0.02601408;-0.053633124;0.018052813;-0.086956374;-0.18130523;-0.058675732;0.087435864;0.067540295;-0.11055077;-0.16686824;-0.027611325;-0.06667625;-0.038350742;-0.015297486;-0.036572438;-0.09793399;0.05274726;-0.0051933434;-0.1292071;0.09304997;-0.09108446;-0.030860411;0.04976194;-0.08433493;-0.1016451;-0.03857684;0.021984281;0.024662303;-0.043965567;0.018009849;-0.09782323;0.045161888;0.050046183;-0.04150473;-0.06301373;-0.00552214;-0.026829168;-0.07404304;-0.05332169;-0.013501799;-0.09616152;0.01831821;0.04314463;-0.09728657;0.0022073763;-0.16954814;0.023875613;0.12871489;-0.10372783;-0.038799394;0.04309693;0.041214265;0.03510108;-0.029599587;-0.08526626;-0.071570665;0.0720633;0.037065092;0.026495548;-0.058698576;-0.028433356;0.0056242174;-0.08872418;0.012942128;0.024467163;-0.030119348;-0.12769489;-0.012802927;-0.03339782;0.15401857;-0.08627281;-0.11966201;0.018911175;0.024033273;-0.11631874;0.12536594;0.020067016;0.0014102693;-0.01737416;-0.006863041;-0.088383675;-0.07825541;0.006357075;-0.1831638;-0.008292486;0.12400968;-0.005545925;-0.015086057;-0.10303151;0.08596491;-0.043014623;-0.08940961;0.05350588;0.029424833;-0.0022244272;-0.123068385;0.033718668;-0.036642663;0.060958788;0.01616847;-0.06548516;-0.04809044;-0.11038704;0.18192141;0.0009187231;0.07918601;0.035115387;-0.20736755;0.022572791;-0.116533026;-0.020979762;0.081274845;-0.1057549;0.0040127477;-0.06873264;-0.085553475;-0.013110197;-0.11438539;0.055807173;-0.10689486;-0.06362649;0.031514894;-0.017974844;-0.025329672;-0.05101994;-0.0639061;0.029927064;-0.09851367;-0.09394557;-0.1264748;-0.1018105;0.012170389;-0.04332566;-0.09457185;-0.038432896;0.03551302;-0.07549877;-0.008715559;-0.010011487;0.017710129;-0.022531202;-0.06553611;-0.046956155;-0.0672492;-0.08672629;0.023712507;-0.08151167;0.0029284833;0.018519443;0.0005648588;-0.034746837;-0.17404313;-0.024369605;-0.0077031376;-0.105196014;-0.042057842;0.0057604723;-0.08797365;-0.020747148;0.02332252;-0.06308855;-0.06679636;-0.008557982;-0.029689232;0.09335823;0.08371444;-0.080881685;0.02662713;0.014967417;0.041307315;0.040754896;-0.075294815;0.050431915;0.04031174;-0.0495474;-0.12194486;-0.13331065;0.0027049875;0.015460082;0.014415154;0.051153023;0.035617165;-0.05341699;-0.06723399;-0.082297556;-0.0040627834;-0.11531929;-0.0947761;-0.06607687;-0.07717055;-0.017393658;-0.054552913;-0.028950403;-0.19421245;0.03447842;-0.08656143;0.0038053447;0.06297218;-0.012813113;-0.12456;-0.031616412;-0.06999387;-0.023595186;-0.03226238;-0.08657714;-0.042090844;0.02723737;-0.10596478;0.020410644;-0.110809356;0.011341483;-0.004788259;-0.011671866;-0.0437483;-0.027578907;0.042677965;0.037321314;-0.0069113015;-0.04582917;-0.06860788;-0.07297115;-0.10414666;-0.08336693;0.016961657;0.04175511;-0.01521867;0.045631118;-0.08153195;0.019602083;0.07196321;-0.11956782;-0.059900425;-0.027645545;-0.025263296;-0.08668833;-0.031556975;-0.09216909;-0.14119104;0.041208744;0.027219912;-0.081166975;-0.040557843;0.03394842;-0.023539796;-0.034995344;-0.06402714;0.017399833;-0.00063317904;0.07803315;-0.084922366;-0.2547258;-0.0064347805;-0.08989962;0.10015461;-0.08975229;-0.028527128;-0.23851076;0.012181389;-0.10698255;-0.08768094;-0.08577844;-0.03653042;0.056063622;-0.117715955;-0.013252105;0.03208985;-0.033707667;0.0170538;0.029216515;-0.04914534;-0.12477752;-0.08221584;-0.081577726;-0.07035165;0.0444836;-0.06300191;-0.00837118;-0.007940873;-0.078368746;0.020368116;-0.06570254;-0.052762616;0.03424314;0.015724823;-0.020475619;-0.03865221;-0.015489384;-0.10811654;-0.1010853;0.02490177;-0.004856888;-0.04413441;-0.036380604;0.005645143;-0.035280656;-0.03061922;-0.10069035;0.034998316;0.032864936;-0.03186619;0.005424518;-0.06377853;-0.0679128;-0.08683196;-0.02543916;-0.15766463;-0.06264518;0.015052494;0.00020357216;-0.047803577;-0.14676848;0.13338457;-0.025919747;-0.03779924;-0.064240046;0.07704079;-0.059148032;-0.022769693;-0.0010768594
-0.11893391;-0.10983227;-0.050574865;-0.0083061345;-0.20899217;0.04831681;-0.06933103;0.087688856;0.018621175;-0.006809391;-0.09261734;0.12444779;-0.021768704;0.014930731;0.019235674;0.12136796;-0.082499765;-0.00860686;-0.005312967;0.010758962;0.040586278;-0.0849748;0.027223581;0.12354653;0.027481169;-0.0033461975;-0.05031402;-0.07272906;0.0639314;-0.015457402;-0.02697845;0.041487053;-0.08223157;0.025105804;-0.082017034;-0.08567728;-0.07541091;-0.07170692;-0.06642259;0.0036118631;0.032647613;0.010099932;0.050550055;0.010118931;0.007968687;-0.052495945;0.15607034;-0.01637562;0.13976517;-0.034145407;-0.018262494;-0.054190196;0.0010544923;-0.06582863;-0.09469114;0.03573668;-0.056100465;-0.09700659;0.0006231699;-0.058485206;0.033309333;-0.031835817;-0.061162755;-0.16599275;0.005810733;0.0038521013;0.010549983;-0.11725053;-0.108319096;-0.066885196;-0.03319878;0.00044244755;0.036597274;0.042940795;0.1327785;-0.11593478;-0.16877395;-0.077246845;-0.024818236;0.060436208;0.009333542;0.030858614;-0.06731128;0.0039565144;-0.07658085;0.015075674;-0.064516634;0.17201689;-0.08605149;-0.044839356;-0.008051173;-0.030782145;-0.1446708;-0.15995939;-0.03262673;-0.05141028;-0.13958612;-0.0777543;-0.015494328;0.040722586;0.13051474;-0.0797204;-0.0148335;-0.11641745;0.010036567;-0.0010169622;-0.048071288;-0.110524155;-0.10534577;0.0077332617;-0.076759644;-0.113612935;-0.1250222;-0.007396967;-0.07031797;-0.017357154;-0.010932389;-0.1836755;-0.038551673;-0.07713874;-0.11914435;-0.09700734;-0.02135824;-0.010330005;-0.08175816;-0.0032514895;-0.10145711;-0.09336186;-0.021506898;-0.029798614;-0.12344693;0.17366038;0.04049491;-0.079066716;-0.058151264;-0.06744547;0.007225718;-0.004924402;-0.07974003;0.04260441;-0.026283717;0.017166924;-0.09541455;-0.026645912;-0.13799348;-0.013829593;0.054226983;0.021689594;-0.08526826;-0.03650925;-0.107041955;0.0044855457;-0.10227174;-0.09874689;-0.020602355;0.033914223;-0.16630107;-0.041856304;-0.04837647;-0.053911507;0.021184033;0.12566778;0.02404145;-0.0009869379;0.073031366;-0.12544912;0.073793754;0.062493198;-0.09035194;-0.12935711;-0.0566378;-0.10688526;-0.011646261;-0.06550159;-0.08529678;0.013305164;-0.08590341;-0.06037693;-0.05865164;-0.03788539;-0.044737503;0.032130904;-0.07026295;0.006161886;0.04434808;0.04200147;-0.059285194;0.022476023;-0.02983102;-0.12879284;0.006158868;-0.055347845;-0.05752533;-0.11468355;-0.10709949;-0.036935054;-0.060848147;-0.033770036;-0.099256046;0.14318725;0.044694226;-0.06215722;-0.12866367;-0.028597211;-0.080613226;-0.12950255;-0.024356762;0.092858985;0.009266962;-0.0076117315;-0.11636812;-0.012816945;0.028664168;0.040696256;0.02998057;0.17423649;0.13862692;0.061903816;-0.030453837;-0.08551095;-0.046621516;0.11596861;-0.09280336;-0.033207014;-0.09604399;-0.07801491;-0.1194829;-0.0936448;-0.1334828;-0.013324669;-0.079643376;-0.09601998;-0.0874138;0.024953593;0.005192869;-0.10965535;0.05666468;-0.031192534;0.025227418;-0.17668234;0.10713152;0.04710596;-0.12029947;0.015042617;-0.07673795;-0.112114154;-0.08941906;-0.08608276;0.04147753;0.08826477;0.12720431;0.058481533;0.014283108;-0.07036221;-0.024344316;-0.022807801;0.019884694;-0.09637711;0.00861288;0.079141505;-0.11041891;-0.16689149;-0.08903446;-0.015046675;0.10611825;-0.051483557;-0.13991734;-0.105100684;-0.052950967;-0.08732647;-0.064675815;-0.06835447;0.054347474;0.02347726;0.10760508;-0.13203003;0.022673877;-0.008090483;0.044879626;0.08325555;-0.04986677;-0.059296828;0.035319358;0.042910166;-0.063179806;0.02397697;0.101130806;0.014014577;-0.039891727;-0.03521386;0.033436872;-0.0719972;-0.0019178239;-0.035022587;-0.080159046;0.021989016;-0.07042537;0.0322715;-0.06717938;-0.033496983;-0.018471526;-0.041495543;-0.14826901;-0.016706299;0.12776417;0.023557212;-0.103147365;-0.019205132;-0.035185795;0.049167268;-0.036926936;-0.109160185;-0.043160357;-0.06779033;0.08714072;-0.02174734;-0.046137996;-0.079185985;-0.047449473;-0.030498635;-0.09016458;0.006273751;0.034732137;0.0007421975;-0.03073702;-0.07804476;0.13056272;0.044622444;-0.058532916;-0.06863038;-0.020913389;0.029058734;0.008571932;-0.04451403;-0.027884686;-0.100018494;-0.011301462;0.0012063308;-0.15570994;-0.06639509;-0.14371358;0.016958568;0.07798821;-0.013379106;0.028771114;-0.06905288;0.07240333;0.043868423;-0.04750959;-0.1137275;-0.04135325;-0.006126314;-0.1871876;0.021300256;-0.08328596;0.04906969;-0.004630395;-0.06793245;-0.04496097;-0.0016477337;0.13015382;-0.04387174;0.010103869;-0.009610843;-0.15872708;-0.020921687;-0.111024044;-0.059578937;0.07704884;0.018105567;-0.031805668;-0.0037565532;-0.026881702;-0.05538907;-0.08338051;0.051379036;0.03271485;-0.14967945;0.04289947;-0.062251724;-0.007902186;-0.10843835;-0.045356046;-0.031050688;-0.04239688;0.017247194;0.054475226;-0.019632822;0.032037146;0.00568239;-0.03493378;-0.07981171;0.012860003;-0.057686586;-0.05803868;-0.050380796;-0.066681996;-0.015321977;-0.1365794;0.0003512;-0.052232087;-0.13187365;-0.0012468012;-0.107660465;0.10783445;0.037516322;-0.02708957;-0.10861846;-0.07199097;0.015513738;-0.12062956;-0.01027809;-0.12707596;0.007936502;-0.041918438;-0.006376846;-0.020933772;-0.09765024;0.018493457;-0.07654032;-0.13106492;-0.009458367;0.07855342;-0.038401693;0.122461125;0.014976721;0.00400773;-0.059755176;0.02718371;-0.06030465;-0.06865212;0.05799081;-0.040309988;-0.03651566;-0.073001936;0.016720444;0.036009625;-0.0415221;-0.022443436;-0.15947352;-0.025548173;-0.12918401;-0.120975815;-0.077637434;-0.060627583;0.058696263;-0.040702064;-0.12549846;0.029242434;-0.04857889;-0.18862922;-0.03566553;-0.074953005;0.024563769;-0.07059255;-0.08016329;-0.036200017;0.08573332;-0.05845918;-0.09703511;-0.09921396;-0.017800065;-0.060842738;0.046895027;0.030010661;-0.031779394;-0.077789225;-0.017508317;0.04961734;0.014578929;-0.1057997;-0.09192661;0.02583343;-0.0693836;-0.071003236;-0.034745056;-0.06554752;0.04422494;-0.016342634;-0.042183176;0.08866019;-0.048278507;-0.05777715;0.115048304;0.043085754;-0.012473555;-0.10816285;0.017475482;-0.08282404;-0.03903655;-0.07010196;-0.070032224;0.04848797;-0.06654983;-0.0026216072;0.014617265;0.050068513;-0.048278075;-0.07448533;-0.029988453;0.03850972;-0.06621657;0.054731324;-0.06782969;-0.10738608;0.03861999;-0.035157654;-0.18505009;-0.041351944;-0.055512898;0.09144169;0.058651652;-0.033304963;-0.17515425;-0.029472979;0.028910702;0.003957971;-0.118527815;-0.11864813;-0.031556983;-0.049194373;0.026771465;-0.013960915;-0.09211102;0.009349146;-0.09270153;-0.062459998;-0.07945227;-0.046615373;-0.06778133;-0.057396837;-0.025586735;-0.025186319;-0.11137698;-0.106416576;-0.09944073;-0.07682381;-0.008475189;-0.02519176;0.040644154;-0.12671176;-0.037394825;-0.12368372;-0.12123052;-0.12911233;-0.07223757;0.08468226;0.047223378;-0.08047605;0.00433863;-0.013936313;-0.04866431;0.0051664263;-0.09401743;-0.021174317;0.054402474;-0.0014964873;0.034389623;-0.10000343;-0.10696641;-0.06869506;-0.0489561;-0.19678211;-0.0356178;0.009117609;0.04115102;-0.103656895;-0.1504892;0.10807351;-0.12545863;0.018292801;-0.092800945;0.08807262;-0.118048154;-0.07668772;0.041762345
-0.108300306;-0.14086717;-0.09339721;0.1007339;-0.20717552;-0.08691015;-0.06493785;0.086654216;0.049015474;-0.0013099327;-0.04005467;0.022642087;-0.11424654;-0.035050806;-0.002101104;0.018050687;-0.06836573;0.0113893375;-0.090730734;-0.109008454;0.013243382;-0.09000432;-0.024900643;0.076201506;0.016890014;0.0073038926;-0.075745694;-0.040404167;0.003448775;-0.084247865;-0.0119593935;-0.0979278;-0.113198966;-0.07283705;-0.08090452;-0.055732273;-0.13653125;-0.008337773;-0.085655294;0.011486661;0.026955383;-0.0031005736;-0.0007713584;-0.06551759;-0.03527985;0.0034252852;0.09864523;0.039298035;0.23802401;-0.036872044;0.07564016;-0.100407384;0.072547;-0.027761526;0.029971844;0.043566734;-1.2191803e-05;0.009986954;-0.040984508;-0.026703484;-0.02343537;-0.04100695;-0.11999332;-0.04065492;-0.076402694;-0.022881368;0.05072225;0.00075366534;-0.098117314;-0.06779185;-0.03553831;-0.13948795;0.03428656;0.040528916;0.06758295;-0.072721444;-0.1686169;-0.09615323;-0.0735686;-0.072228976;-0.01088246;-0.01716405;-0.04197449;-0.102961004;-0.1390182;-0.05351598;0.03683132;0.1400358;-0.059769396;-0.03244827;-0.03355512;-0.08684259;-0.068487525;-0.023182873;-0.04844968;-0.021910455;-0.11589212;-0.046202287;0.06640931;-0.1118104;0.040159907;0.0069186264;0.056019966;-0.06256677;-0.0744985;0.017600754;0.008766279;0.0008128693;0.029736528;-0.14225926;-0.0935912;-0.054510407;-0.055661514;-0.10173597;-0.072702914;-0.05508364;-0.03336923;-0.17414886;0.08774811;-0.060227513;-0.04140768;-0.13272351;-0.00046553498;0.010086273;-0.007993179;-0.040639482;-0.18101688;-0.07897878;-0.024008742;-0.102704905;-0.15007083;0.056309212;-0.07245001;-0.021092467;-0.01646617;-0.07305386;-0.09488442;0.022246812;-0.12572469;-0.088022836;-0.1290786;-0.048054807;-0.083982304;-0.08161786;-0.0721448;-0.021502523;0.113965794;-0.0494868;-0.004459516;0.0032335292;-0.06392901;-0.02947107;0.007925665;-0.12503931;0.018918943;-0.02320109;-0.04425706;-0.05069847;-0.10451859;-0.09847633;-0.020491514;0.041007955;-0.0284703;0.0258213;0.057507195;-0.03250774;-0.0074439445;0.07133897;-0.06323206;-0.060783602;-0.05327629;-0.02975462;0.028752027;-0.09426391;-0.10401733;0.03462938;0.0028561782;0.025318867;-0.027982866;-0.015467283;-0.12712558;-0.032993592;-0.10341428;-0.0033799512;0.09827496;0.026121005;0.009552531;-0.11380192;-0.085533075;-0.11852097;-0.11651426;0.023178166;0.06712497;0.02298951;-0.03439305;-0.09227775;0.03577739;0.0069681015;-0.009577632;0.097282596;-0.0029838136;0.05001453;-0.10146156;0.038449004;-0.05107438;-0.14067484;0.028765455;-0.02033965;0.047541525;0.013916563;-0.09812277;-0.11293029;0.04972729;-0.03806349;0.03605265;0.08379114;0.16023417;0.01567111;-0.044326242;-0.089444;0.033093248;0.027088085;-0.014505896;-0.077405006;-0.083546504;-0.14683557;-0.039067987;-0.121538684;-0.049334887;0.008975009;-0.08072401;0.010261047;-0.11268437;-0.040392496;-0.095136166;-0.088338405;0.030474106;0.07878322;-0.01814254;-0.16579711;0.14622481;-0.03869563;-0.010367754;-0.05370744;-0.08465363;-0.05612533;-0.13997231;-0.04301484;0.010238938;0.11507103;0.100895934;-0.07798407;0.0053163436;-0.10544063;-0.102404505;0.05221568;-0.009506285;-0.03465828;-0.05153342;0.069716044;-0.09409692;-0.11148342;0.019392196;-0.018465389;0.0382553;-0.09496478;-0.172661;-0.06334682;0.0651357;-0.08164923;-0.120371565;-0.038689822;-0.078635566;-0.012720807;0.084724225;-0.11809753;0.03257356;0.040677004;0.048553187;-0.03189167;-0.009284742;0.029089285;0.006832259;-0.09719597;0.031662136;0.057196904;0.13595933;-0.12855092;-0.033388246;-0.020078482;-0.010118401;0.018519687;-0.005347518;0.011121364;-0.08198414;-0.0384297;-0.13726912;-0.08153436;-0.08460359;-0.0850673;0.03209448;-0.006321434;-0.076154806;0.004793661;0.13209824;-0.009878361;-0.057099026;0.015747229;-0.037997182;0.100235;-0.08801067;-0.12535895;-0.056701712;0.06500737;0.03725643;-0.06632497;-0.031143619;-0.09539019;0.024414236;0.020144848;0.032389343;0.08582313;-0.027872102;-0.115590245;-0.041654203;-3.8255843e-05;0.102790065;-0.10031454;-0.041457042;0.019160133;-0.0876915;0.03369801;-0.022803308;-0.045264248;0.033177394;-0.005689853;-0.027456198;0.0026063342;-0.1371785;-0.06602687;-0.108286574;-0.07257393;0.012378999;0.07922577;-0.09835123;-0.002500508;-0.022569118;-0.081340574;-0.011487306;0.02402348;0.029524082;-0.0092748515;-0.1299127;-0.045234844;-0.00090131984;-0.06696514;-0.054325134;-0.0034590636;-0.081688456;-0.0026430343;0.070634216;-0.062367044;0.02233531;-0.04024413;-0.18534595;0.016301507;-0.005367601;-0.01913556;0.0410074;0.027119964;-0.017263709;-0.026354304;-0.062754855;-0.020393673;0.01775655;-0.06481099;0.010742666;-0.114771806;-0.045572437;-0.009954389;-0.09195699;-0.0688895;-0.057905007;-0.024901912;-0.11318463;0.055909898;-0.03914288;-0.10202861;-0.04470166;0.011278117;-0.015462068;0.056046374;-0.047561105;-0.007961128;0.035992965;-0.0011999112;-0.051181484;-0.059235603;-0.1320139;-0.11018307;-0.09961369;-0.17145056;-0.048074752;-0.14675048;-0.015025301;-0.048002772;-0.030988768;-0.066413365;-0.12221929;-0.0047485055;-0.09387769;-0.08626758;-0.07534115;0.06075136;-0.07298123;-0.120479286;0.0024267323;0.009772486;-0.035683364;0.01453096;-0.04095007;-0.022925196;-0.040985133;-0.065526806;0.09567446;-0.010697345;-0.017284203;0.010249452;-0.026135374;0.0291999;0.033458736;-0.041537482;-0.0830257;-0.12387087;0.049749374;0.03655426;-0.036140468;-0.027285354;0.04313334;-0.10969294;-0.053953942;-0.13613185;-0.05023508;-0.17528053;-0.11483223;-0.043291;-0.09860149;-0.092491515;0.041921172;-0.15324454;-0.23637116;-0.105983146;-0.041002885;-0.0031257726;-0.056671713;0.021386534;-0.08668765;0.053286176;-0.0844378;-0.032182183;0.0016679938;0.052747477;0.0078697195;0.06145297;0.034678493;0.012334391;-0.008917519;-0.044925146;0.042884387;0.037765253;-0.08430952;-0.11311521;-0.0991358;0.034518402;0.028397635;-0.0061589237;-0.019827664;0.068639554;-0.08907752;0.0024077883;0.100810826;0.034592945;-0.09452626;-0.0213181;-0.09563845;0.060248014;0.023993857;-0.059069566;0.011034281;0.0077750073;-0.09781011;-0.034912363;0.017556617;-0.06351393;-0.1455699;-0.050517097;-0.0033530467;0.024068935;0.031245247;-0.10534778;0.025402358;-0.05555213;-0.038220383;-0.095832646;-0.04066493;0.020396346;-0.14251962;-0.11493185;-0.003985821;-0.073692955;0.13137157;-0.047658216;0.07905214;-0.21115614;-0.018116867;-0.09949079;-0.012410161;-0.11195015;-0.058897354;0.060240887;-0.08051116;0.048421275;0.02519963;-0.024732254;-0.009932125;0.0103239585;-0.08206644;-0.117792115;-0.058996446;0.037927732;-0.025980083;0.020931326;-0.0078887055;-0.049447946;-0.118685834;0.014423722;0.021315452;-0.09941073;0.04608073;0.05249044;-0.02918934;0.014041851;-0.104344316;-0.09019171;-0.032629617;0.017097125;-0.008281027;-0.04226307;-0.09100461;-0.086486734;-0.023147672;-0.004941478;-0.01858965;-0.012697195;0.014357604;0.10603169;-0.023273801;-0.047500566;-0.04780728;-0.027317801;-0.09263293;0.046229493;-0.081985496;-0.00062921556;-0.077131175;-0.010348315;-0.08864927;-0.15995938;0.06551851;-0.109437935;0.04912727;-0.024952011;0.113306746;0.041787732;-0.085460074;0.06775141
-0.009492966;-0.13644579;-0.087445684;-0.022099406;-0.19868152;-0.058201414;0.05702135;-0.0058685835;0.14305116;-0.024925875;-0.009658055;0.1296608;-0.08244631;0.030092947;-0.06288965;0.07490056;-0.144921;0.06996904;0.04377748;0.009894732;-0.08458907;-0.053737834;-0.065310985;0.10353721;-0.07884526;-0.0076098135;-0.0665164;0.0046728444;0.1117127;0.051861033;-0.031873923;0.02804137;-0.1269935;-0.11453157;0.020700471;-0.113095395;-0.040405657;-0.059201084;-0.117001854;-0.052884888;0.05607493;0.05691064;-0.046319067;-0.03367234;0.03860742;0.004090069;0.19455232;-0.0075816195;0.17120686;0.074301936;-0.044223115;-0.0006523301;0.013958897;-0.063881494;0.0010740756;0.06583423;-0.049728207;-0.031037249;-0.07253702;-0.082574315;-0.12594111;0.010052411;-0.09381789;-0.027255738;0.026855027;-0.036030658;-0.028657371;0.009030254;-0.045278464;-0.0087992465;-0.16276877;-0.06686093;-0.020422427;0.009868673;0.18081848;0.027857248;-0.19355586;-0.07347937;0.019552082;0.046389118;-0.056820896;-0.023016306;-0.10080366;-0.044121224;-0.16117603;-0.08359395;-0.112366;0.06767232;0.022623206;-0.08669798;-0.111518495;-0.07690219;-0.1176028;-0.18117419;0.031716306;0.010093145;-0.0023877823;0.020093078;-0.023036327;0.033536594;0.10592377;-0.08883764;0.057291567;-0.060638648;-0.026227923;-0.08839465;-0.08913606;-0.11156736;-0.07279253;-0.0671312;0.036097325;-0.10402461;0.021332728;-0.02058702;-0.09004136;-0.008120687;0.03156934;-0.13308546;-0.018460993;0.013246795;-0.08070841;-0.042584762;0.044908807;-0.050189342;-0.053259443;-0.0023433145;-0.105880246;-0.03444034;0.0051154327;-0.03564679;-0.13067152;0.08466486;0.029125812;-0.06872699;-0.10256981;0.0001865271;-0.079671;0.03867911;0.033720363;-0.074735366;0.00012464852;0.003008252;-0.07470902;0.0025990156;0.020919053;-0.07063703;0.06656889;0.0023110688;-0.042429075;-0.112026095;-0.08124758;-0.019926207;-0.109777115;-0.1669918;-0.053463425;-0.045354154;-0.10518261;-0.07994604;-0.04089666;-0.1110748;-0.09400157;0.09321204;0.002904241;0.10501331;0.0947162;-0.10935122;0.027653988;-0.046051145;0.048994433;-0.13000506;0.016881134;-0.050839394;0.09645399;0.025022509;0.008384014;-0.09655331;-9.8357865e-05;-0.066544116;-0.10221669;-0.07610742;-0.04423795;-0.027994327;-0.08575831;0.04469349;0.003914018;0.014633379;-0.018148717;-0.12530471;-0.06752747;-0.041181322;-0.08807151;-0.024022734;0.07699278;-0.06511582;-0.034899674;-0.02301011;-0.02240841;-0.007489593;-0.06599548;0.09748062;-0.084297836;-0.032462955;-0.08338666;-0.01171972;-0.0022089211;-0.033946265;-0.10573431;0.07542444;0.04155772;-0.081044696;-0.057874274;-0.047439497;-0.03612066;0.030926824;-0.052863766;0.13978973;0.15172176;0.10424164;0.09561029;0.021768337;-0.008245602;0.0547951;-0.037870526;-0.025870489;0.002600164;0.004581017;-0.10743223;-0.21462451;-0.09661566;-0.105078764;-0.0025434447;0.05642697;-0.056096666;-0.044514056;-0.059470173;-0.033501558;0.010210256;-0.057559982;-0.011709076;-0.05111321;0.110881776;-0.08515291;0.019607276;-0.06690887;-0.008056253;-0.08066395;-0.0025964465;-0.0119294645;-0.078031205;-0.010533397;0.12426806;0.048700597;-0.031797796;-0.04440828;-0.0354095;0.061895706;0.021802016;-0.015243756;-0.11883918;0.096253015;0.006553096;-0.06888999;-0.12424262;-0.011026613;0.09036964;-0.06462833;-0.03213883;-0.10153351;-0.011246001;-0.09521511;-0.032532115;-0.037480973;-0.09449738;0.042670712;0.011148495;-0.007142086;0.03808843;-0.08518423;0.003032691;-0.0028251465;-0.0074169035;-0.06299209;-0.09756;-0.039347135;0.002821168;0.0270527;0.04064057;-0.05869889;-0.043625362;-0.07392938;-0.025118753;-0.019845901;-0.15019245;0.013835517;-0.037705854;0.041291058;-0.084519684;-0.045368914;-0.089372225;-0.109356865;-0.06771319;-0.08569135;-0.16849676;-0.09466601;0.05851004;0.028988456;-0.011504559;-0.018796688;-0.06423565;0.028595144;-0.044053048;-0.06879209;-0.091475;-0.022048056;-0.01792606;-0.04879387;-0.1152119;-0.1005551;0.0032665513;-0.062067218;0.063055694;-0.0350669;-0.105399616;-0.15961047;-0.11007422;-0.06546462;0.15415904;-0.034731362;-0.115053505;0.030270519;0.023256173;-0.052238457;-0.0045097363;-0.046099897;-0.09526831;0.015766403;-0.09120519;-0.06914912;-0.119255856;-0.06707322;-0.123710714;-0.113206945;0.03396665;-0.00255817;0.035957996;-0.00853137;-0.013926502;-0.061737336;0.038937077;0.019788282;-0.11313163;0.045264844;-0.100443654;-0.004450783;0.0020991701;-0.09654956;-0.029937671;-0.09164548;-0.11828686;0.0034445296;0.17254919;-0.074952535;0.032614972;-0.06441774;-0.09925137;-0.027924547;-0.030058013;0.021328053;0.039074175;-0.062824145;0.06653742;-0.045850955;-0.13956691;-0.00075019995;-0.100998536;-0.05784987;-0.029917646;-0.124563985;0.04154692;-0.02830931;-0.026235558;-0.02848094;-0.050085638;-0.014658473;0.014142668;-0.077425614;-0.011873905;-0.117653914;-0.036326956;-0.013677233;-0.09523041;0.02469779;-0.047789812;-0.04755045;0.02509474;0.042572208;-0.05217437;-0.048140492;-0.10778223;-0.0956769;0.008200705;-0.113199934;-0.025768995;-0.13639854;-0.0020903237;-0.019246152;-0.0897935;-0.12100632;-0.103484824;0.00027815596;0.013760465;-0.10366928;-0.025816767;0.043562595;-0.004188417;-0.1043292;-0.016556963;0.007133307;-0.077476054;0.040426992;-0.07341668;0.009483199;0.06050445;-0.09904614;0.026547669;-0.019329844;-0.030896435;-0.024669867;0.019226568;-0.03495897;-0.100431226;-0.07564122;0.020485142;-0.03572584;0.009865248;0.05824507;0.05394039;-0.09888326;0.050959185;-0.14121243;-0.004886719;-0.09519316;-0.04417471;-0.04259844;-0.00019571635;0.04214687;-0.021719238;-0.088223174;0.0134145655;-0.024498977;-0.21302374;0.039959278;-0.17086594;-0.08111374;-0.069213465;-0.107366316;-0.113178484;-0.023549888;0.031854957;-0.022104314;-0.046872884;-0.07403425;0.005042404;0.07549793;-0.05112609;0.045340598;-0.057049576;0.056744788;0.09277358;-0.06512754;-0.04706693;-0.002204776;-0.06199141;-0.034375444;-0.086271666;0.008168247;0.005301818;0.0018915017;-0.017444335;0.008062628;0.022293754;-0.012431472;-0.12167373;0.09756131;-0.005628849;0.009713994;-0.035066754;-0.1250247;-0.09515258;0.002239912;-0.054985248;-0.027634244;4.3541622e-06;-0.07135915;-0.077667005;-0.057161815;-0.0855096;0.06732891;-0.023066085;-0.099772274;-0.043678347;-0.092224255;0.0049117003;-0.11272666;-0.07216989;-0.046058603;-0.04535087;-0.19790117;-0.076749966;0.012717093;0.04436388;-0.06650628;0.010213951;-0.1475522;0.066454686;0.02646584;-0.060049523;-0.12080268;-0.10067637;0.108493984;-0.04232022;0.03762698;-0.008518376;0.04662195;-0.11290099;-0.044628788;-0.07967808;-0.11917897;-0.011786802;0.038680565;-0.07250545;0.04944783;-0.0987804;-0.09190135;0.006440328;-0.07757082;0.01567561;-0.064593345;-0.017803343;0.13752973;-0.04811483;0.10584712;-0.045224242;0.044878524;-0.07388683;0.009733276;0.08171199;0.046635374;0.007926652;-0.023679039;-0.016041549;-0.103800304;-0.06755622;-0.022737704;-0.022217233;0.15149888;-0.07249585;-0.038891323;-0.077392586;0.012541156;-0.09946847;-0.015125888;-0.120219596;-0.11124113;0.011442353;-0.028360385;-0.030710204;-0.060878213;-0.01022684;-0.03394875;-0.043795403;-0.021596417;0.04498373;0.023216926;-0.08536713;0.0072517544
-0.10015629;-0.14027967;-0.039278876;0.059175085;-0.1912212;0.0035961196;0.032127026;0.026370691;0.09576246;-0.13151795;-0.010045547;0.0084914295;-0.117020614;-0.05601126;-0.0037220216;-0.009649095;-0.05687726;-0.009629279;-0.034947067;-0.038116768;-0.002888403;-0.0034140225;-0.015266871;0.013833911;0.0024066071;-0.09350245;-0.075454;-0.05916004;-0.030217454;-0.0616473;-0.14942995;-0.10911122;-0.1006528;0.0067843283;-0.058596246;-0.117219426;-0.08062457;-0.09374356;-0.09700128;0.042111438;-0.06023825;-0.08859973;-0.094093874;-0.12879366;-0.044300374;0.036536865;0.09552053;0.009944683;0.05970228;0.0945154;0.07881902;-0.072089784;0.09901521;0.02057547;0.0049375505;0.02076015;0.031057045;0.017291317;-0.0054347673;-0.054797772;-0.045025565;0.052090365;-0.042124692;-0.110786766;-0.10807709;-0.03733018;-0.09143412;-0.11015722;-0.08785742;-0.09663043;-0.027460352;-0.059062794;-0.09831779;-0.08189779;0.17488137;0.03401113;-0.037862673;-0.12723054;0.06645343;0.05122213;-0.031340595;-0.06527525;-0.20070244;-0.018974988;-0.101169415;-0.08977212;-0.076301396;0.20299391;-0.09894376;-0.0689336;0.024430478;-0.10453445;-0.19149254;-0.15222865;-0.0056162835;-0.033194702;-0.059932407;-0.06188454;0.031122051;0.030396422;0.13990627;-0.013965173;-0.011595039;-0.14181028;0.05494786;-0.02025537;0.006207679;-0.035182286;0.029048918;-0.018184396;0.00083933875;-0.14950529;-0.024609216;-0.014629658;-0.053234633;0.036787074;0.021424731;-0.13840427;0.09756291;-0.056474525;-0.06893219;-0.03551481;0.09041816;-0.0054795314;-0.08661713;-0.0187625;-0.03948644;-0.09401424;-0.027682956;-0.07676924;-0.16791944;0.20868622;0.01081869;-0.06746705;-0.027857639;0.0019890547;-0.053026896;0.03416531;-0.08381355;0.039004643;0.0031433124;-0.06531406;-0.00550012;0.010296777;-0.08017635;0.03890008;0.05120637;-0.00027483923;0.05066759;-0.012670056;0.026260752;-0.006190308;-0.033508983;-0.04442454;-0.105287604;0.01595606;-0.062754326;-0.005421;0.028393678;-0.0621885;-0.10003824;0.044030614;-0.03718772;0.061393406;0.070332624;-0.047102313;-0.039292004;-0.07006995;0.047888674;-0.014853885;-0.08919584;0.0037496588;0.063980624;0.0337369;0.04739988;-0.08960003;-0.043198;0.0046109664;-0.01778638;0.039895847;-0.08455778;0.11851735;-0.08026494;0.09359369;-0.058479417;-0.024733895;0.029451454;-0.040790584;-0.06800241;-0.09495752;-0.043319903;-0.014945118;-0.043220293;-0.04519313;-0.02259768;0.040329635;-0.08094966;0.020815974;-0.013835234;0.1480156;0.039650626;0.005496129;0.030782552;-0.073491834;0.03501085;-0.04449897;0.0027831013;0.060299356;-0.020321045;0.0050012437;0.046735857;-0.07023453;0.05447297;0.024148181;-0.041857254;0.18957748;0.18904676;0.08340994;0.010333836;-0.017737009;-0.053427182;-0.008406658;-0.019599412;-0.033662003;0.010344547;-0.07920624;-0.049920384;-0.16774204;-0.0010378445;-0.020428507;-0.12147431;-0.07299384;-0.09940433;0.03574748;0.0025558046;-0.03360262;-0.013575805;0.06601582;-0.09248024;-0.031805295;0.052023716;0.021555021;-0.09311453;-0.075060606;-0.06740438;-0.14260446;-0.05189719;-0.078133486;-0.026592636;0.096404076;0.15046069;0.030302942;0.011327755;0.04321843;0.014659487;-0.10076633;-0.046463545;0.022516709;0.0017516068;0.0032090414;-0.082331;-0.11621526;-0.05855478;0.06101828;0.11432484;-0.008539829;-0.18644702;-0.031889085;0.09045587;-0.119177215;-0.040203243;0.003067985;0.026154526;0.060883615;-0.018121898;-0.026799751;-0.03507302;-0.030418674;0.036607884;0.095953904;0.0565885;-0.066378884;0.05119501;0.016052373;0.04608482;-0.04761915;0.028975477;-0.13113853;-0.026629593;-0.043059222;0.02447642;0.022298478;-0.050533477;0.006263088;-0.03554289;-0.025380738;-0.045350857;-0.105856046;-0.0042982623;-0.0702912;-0.04185083;-0.011818616;-0.12110899;-0.09216682;0.05708866;0.011002917;-0.022303198;0.03424258;-0.10031331;0.07558315;-0.15347305;-0.12890814;-0.045285437;0.004451187;-0.040193774;0.046567712;-0.015318738;-0.11006918;-0.034938324;0.021413721;0.060213853;0.07327104;-0.056603257;-0.12390465;-0.040245865;0.010441812;0.09029201;-0.0243297;-0.033026207;-0.012734233;-0.017822653;-0.0031344448;0.083237655;0.020269867;-0.054632515;-0.041645028;-0.11660469;0.026852917;-0.08462159;-0.0033316368;-0.022285132;-0.066946246;-0.029859837;-0.043622572;-0.016314648;-0.060517807;0.00010524619;0.030703919;-0.029313035;0.014672323;-0.015308931;-0.0809734;-0.10029574;-0.013070618;0.009344715;-0.004292886;-0.001520541;0.0050634854;0.03832158;-0.0036512148;0.061333645;0.043802608;0.030979367;-0.04454352;-0.048546717;-0.10836678;-0.08484763;0.05171937;0.05291712;0.020429075;-0.051750164;-0.010747116;-0.020975126;0.000414489;-0.06910769;-0.03880919;-0.007595504;-0.1450569;-0.09596201;0.049550913;-0.011176926;-0.07824636;-0.10560604;-0.0045741857;-0.10192757;-0.016583942;-0.029636424;-0.05707981;-0.05730064;-0.118946604;-0.02044223;-0.008222821;-0.009484488;-0.09826583;0.084663495;-0.06224079;-0.0034512435;0.00435733;-0.09124282;0.016225226;-0.007128609;-0.023488807;0.047206797;-0.11909331;0.069851756;0.023185808;-0.04789069;-0.0806968;-0.072257355;-0.0042210077;0.011616384;-0.03455761;-0.04018644;-0.03729225;-0.097750895;-0.08587087;-0.033658076;-0.07292485;-0.09056123;-0.06997642;0.029838054;0.084554315;-0.026970476;-0.054800097;0.00871359;-0.046914443;-0.11792171;-0.09147789;0.014471437;0.06605236;-0.02458325;0.014693763;-0.11785709;-0.16477306;-0.067230076;0.048205487;0.030223107;-0.021109652;0.04309379;-0.022709029;-0.10248273;-0.115192026;-0.0922941;-0.13568725;-0.0625281;0.011200643;-0.0231286;-0.14264657;-0.047525514;-0.058790457;-0.1517607;-0.0891217;-0.037483856;-0.00034477568;0.035498563;-0.09644062;-0.05130886;0.018482953;-0.048824992;-0.11011483;-0.0020565782;-0.103217185;0.011039129;-0.012570225;-0.09515945;0.062181696;-0.0737723;-0.026331821;0.06824737;-0.08204071;-0.10233647;-0.12769188;-0.0866757;0.051762;-0.05355923;-0.07863702;-0.09521218;-0.07395339;-0.022865314;-0.043568294;0.05628313;0.020430086;-0.009718331;0.0889901;-0.082786;-0.017770007;0.007977476;-0.043496978;-0.08281968;-0.008636701;-0.062957786;-0.16530937;-0.022134446;0.009033865;-0.046807542;-0.071297765;0.01801248;-0.08007337;0.0080800885;-0.10702313;-0.014174811;-0.107284054;-0.055524364;-0.028935878;-0.07444391;-0.03648584;-0.12157109;-0.21654627;-0.12945315;-0.051089626;0.044945583;0.048483722;-0.017653227;-0.2153567;0.012118818;-0.09673863;-0.04558422;-0.11359543;0.010730276;0.088632025;0.030302012;0.044570275;0.05054384;0.04193157;-0.09784004;-0.11819614;-0.027868463;-0.04767293;-0.002998128;-0.0719691;-0.0077179694;-0.031902958;-0.029892653;-0.038918734;-0.06282601;-0.031339362;-0.019678622;-0.042325642;0.05641486;0.0014977098;-0.032134462;0.01738455;-0.11154095;-0.024218177;-0.07077923;-0.090414025;0.09218273;0.076206006;0.050242044;-0.0756619;-0.027815007;-0.0067000417;-0.09073158;0.037178606;-0.09926144;0.11022693;-0.08457631;0.07351848;-0.04522091;-0.06853621;-0.024919072;-0.08326638;-0.2072146;-0.007702422;-0.0036905808;-0.070022;-0.0831901;-0.18075262;0.11023761;-0.07901542;0.008930126;0.008510036;-0.027781893;-0.002556025;-0.05862332;0.12072123
-0.046053745;-0.18060873;-0.07019575;0.030193977;-0.19858006;-0.07779955;0.035893895;0.1406652;0.04929427;-0.017335383;-0.10303959;0.11262578;0.032846194;0.048124596;-0.09923056;-0.046382245;-0.11227275;-0.052944567;-0.041223384;-0.12826866;-0.039081503;-0.087509766;0.046363477;0.016691629;0.0017070882;-0.06742132;-0.08419375;-0.09111134;0.053036936;-0.05697778;-0.102636375;-0.04559336;-0.059041318;-0.009359217;0.03145422;0.012228909;-0.021548633;-0.04760516;-0.08833309;0.050336152;0.058310717;-0.06525529;0.02129161;-0.121730566;0.081052385;0.06063463;0.015578559;0.020842109;0.20319429;0.06436219;0.044216305;-0.08281372;0.11645803;0.041390494;0.032939836;0.07403424;-0.038265385;-0.06302337;-0.038448326;-0.051142327;-0.083475076;-0.10550609;0.031117622;-0.10283747;0.002430118;-0.074346766;0.07149921;0.037412245;-0.05753021;-0.07337771;-0.13084893;-0.12706923;-0.09343675;-0.10801198;0.16722924;0.025636477;-0.081064336;-0.041077532;0.062484734;0.054025747;-0.047361612;0.036948893;-0.15626307;-0.12311754;-0.03902641;-0.06589812;-0.10465335;0.13362166;-0.12715423;-0.061062507;-0.04393264;-0.05431481;-0.11242689;-0.16707046;-0.047289863;0.012911958;-0.01574502;0.037009858;-0.0074006114;-0.041104574;0.056485392;-0.023197979;-0.07954388;-0.051650826;-0.061152577;-0.042083822;0.011429345;-0.040531516;-0.012589016;-0.050727196;-0.049921554;-0.041620735;-0.042123448;-0.051141784;-0.07227511;-0.062821455;-0.118128106;-0.16388132;-0.054692805;-0.115801245;-0.09265748;-0.12186794;-0.048045546;0.03311609;-0.0971858;0.03325847;-0.16748127;-0.07161629;-0.016541818;0.00057722017;-0.08856536;0.072043926;0.022024779;-0.08029113;-0.033287268;-0.067316175;0.0012192455;-0.051403623;-0.0229482;-0.016291948;-0.04064948;-0.0038099051;-0.026099717;0.036054235;-0.07778605;-0.114460215;0.107230306;-0.1109632;-0.037754636;-0.06833606;-0.025190819;-0.05020153;-0.059266675;-0.06881345;-0.012861599;-0.1053223;-0.032485787;0.014274143;-0.08596806;0.023263443;-0.052123267;-0.032530427;0.025983388;-0.042674426;0.1564025;-0.020487806;-0.043265473;0.052130666;-0.022275852;-0.025481636;-0.0128309075;-0.06961319;0.075266;-0.09002096;0.023818484;-0.038865305;0.027965037;-0.014579254;-0.07891245;-0.02981599;-0.08010439;0.115398355;-0.09624404;0.09025152;-0.0747498;0.009476214;-0.01619561;0.028234323;-0.07602885;-0.05326408;-0.108907245;-0.06039045;0.13965239;-0.05884378;-0.11049226;0.059679966;-0.021799987;-0.05062894;-0.06462195;0.12368473;-0.05573234;0.025686206;-0.010850338;0.049251396;-0.030919082;-0.09824784;-0.03795973;-0.0123047745;-0.033421665;-0.0767897;-0.03434479;-0.090970606;0.056405697;0.059707914;-0.105681114;0.18040477;0.13149832;0.08492593;0.074911036;-0.048219554;-0.10965366;0.012957044;-0.008070652;-0.075091586;-0.08705065;-0.13139974;-0.019964632;-0.1904627;-0.06329579;0.030076874;-0.07063174;0.042912062;-0.034293566;0.0059152013;0.025282333;-0.047246963;-0.08287626;-0.06854833;-0.053119455;-0.08569055;0.08603333;-0.06310291;-0.012813606;0.011838382;-0.03343382;-0.07840417;-0.038640823;-0.10490917;0.041291643;-0.02284116;0.11051083;0.0406203;-0.03564609;-0.015051363;-0.02839216;0.036790546;0.026618129;0.032073636;-0.08627469;0.11550379;-0.12591831;-0.13869855;0.03340428;0.07500336;0.09402652;-0.054011326;-0.16888656;-0.0080338195;0.109404616;0.007800995;-0.08963259;-0.058317114;-0.0319927;0.04290712;0.08290228;-0.104521014;0.05880908;0.011551597;-0.067055315;0.08372826;-0.046996135;-0.027661227;0.04134577;-0.063046016;0.0013130831;0.06421625;0.00050174515;-0.028857093;-0.034961298;-0.07484067;-0.04793634;0.033121105;-0.15092476;-0.09660753;-0.15239081;-0.01053368;-0.07491373;0.04692117;-0.13832186;-0.058430906;-0.061807863;-0.044898346;-0.059028264;-0.008795113;0.106364176;-0.07602397;-0.008322819;0.012363307;-0.08421603;-0.024926607;-0.13876867;-0.06910542;-0.093635306;0.05967881;0.0056501296;-0.11361513;-0.113045774;-0.01919317;-0.015744451;-0.09578523;0.061038066;0.0061730086;0.014840794;-0.1361454;-0.043840986;-0.07919288;0.09408421;0.02179735;-0.10603338;-0.03468004;0.03970528;-0.001711344;0.009587405;0.025330324;0.015723167;0.04709484;-0.0363463;-0.10517455;0.010948549;-0.049293093;-0.12856685;-0.08513488;-0.00092698203;-0.027261399;0.020943722;-0.00796842;0.06862353;0.06752913;-0.113871746;0.020751318;-0.07716221;-0.026180431;-0.15984571;-0.025046337;-0.07463589;0.029127585;-0.031636734;-0.05456413;0.010879756;-0.049658295;0.19270024;-0.015172443;0.07518499;-0.016494537;-0.16685025;-0.08232994;-0.004651866;-0.04148977;0.009410567;-0.006377747;0.030828224;-0.119197845;-0.123854384;0.08477185;-0.051591042;0.055118687;-0.023998454;-0.1278464;0.021134559;0.03532794;-0.0808103;-0.11497941;-0.08821082;-0.093526036;0.007324639;-0.080665246;0.017388077;-0.09824229;0.029178672;-0.011249949;-0.028150203;0.059912737;-0.06873414;-0.091422535;0.04812541;0.034644686;-0.025751544;-0.14997269;-0.061538737;-0.10957648;-0.13035262;-0.046267144;0.068115346;-0.007769457;0.029270656;-0.022968788;-0.030709188;-0.09601945;0.0029252954;0.030488785;-0.0544598;-0.09836161;-0.094981425;0.030360196;-0.037806556;-0.09577598;-0.057372;-0.054496832;-0.025100945;0.054659262;-0.052662212;0.033921618;0.08635743;0.0051338132;0.06540183;-0.025746193;-0.016324023;-0.085055165;-0.04859397;-0.043989774;-0.04300501;-0.0011218815;0.020521913;-0.05039798;0.04193945;0.020110853;0.04611739;-0.052269835;-0.034732357;-0.040834855;0.030154489;-0.11716149;-0.050879307;-0.10351582;-0.037742317;0.05848771;0.012170307;-0.07893782;-0.061570372;-0.07408648;-0.15997833;-0.00083926355;-0.14388381;-0.07788974;0.019423766;-0.037840925;-0.15125693;0.082690194;-0.050241586;0.0022094967;-0.028950712;-0.0010074723;-0.022664772;0.08107496;-0.08394744;0.05191932;0.008378983;-0.032731455;-0.020096287;-0.00048485486;0.021615976;-0.024763286;0.05882247;-0.040004935;-0.055119675;-0.0044931034;-0.0531989;0.043198586;-0.086106405;0.006012332;0.056953352;0.029866975;-0.006594026;-0.0338415;-0.012935762;0.050856978;-0.06424951;-0.041081704;-0.033678565;-0.05184659;-0.075667694;-0.10098493;-0.0076630344;-0.111343205;-0.015109547;0.019810284;-0.07265406;-0.043554075;-0.004795103;-0.1354721;-0.1284904;0.036681756;-0.04758659;-0.14014845;0.029662676;-0.0016408963;-0.025689175;-0.13314448;-0.07941596;-0.06587986;0.05260803;-0.0037476257;0.068736844;-0.11484302;-0.0012994446;-0.050869618;0.020753091;-0.054610617;-0.0119571015;0.053957574;-0.10693892;-0.05998334;-0.040033057;-0.1170578;0.022664815;-0.06288385;-0.015624402;-0.088887945;-0.07680304;-0.0029113065;0.035299093;-0.018731251;-0.05169559;0.010968268;-0.06200295;0.011584146;-0.08910265;-0.03157048;0.014782955;-0.020287255;0.026987944;0.12025961;-0.06263622;-0.08867723;-0.111475855;-0.01363066;0.07291008;0.054443836;-0.057104666;-0.016938038;0.0071655274;0.02427715;-0.08640115;-0.099799365;0.05456769;0.06726905;-0.09068144;-0.041142993;0.007136379;-0.007341342;-0.085666664;0.022443088;-0.11251116;0.031895153;-0.06159882;-0.0067842817;-0.060817022;-0.19219176;0.06553879;-0.12530316;0.04183235;-0.11144467;0.12022782;-0.01636556;-0.051036276;0.044814955
-0.11043133;-0.06407352;0.021941155;0.10365751;-0.16631642;-0.04246442;-0.04801025;-0.020592859;0.028899655;-0.053318545;-0.0056303446;0.10477445;-0.0015102599;-0.07821837;0.050985742;0.09824091;-0.13490689;0.060321823;-0.014538038;-0.04018232;0.048461467;-0.035348475;0.010728434;0.10917927;0.02941921;-0.06084706;0.003535232;-0.11457815;0.14274043;-0.020141536;-0.11198866;-0.06944666;-0.040492058;-0.012678129;-0.1254075;-0.104867585;-0.14814661;0.024949612;-0.07083971;-0.026900616;0.028855028;-0.084820114;-0.0032650977;0.02048786;0.028506866;-0.015589759;0.1588055;-0.103690274;0.13737266;0.019181063;0.024834592;0.03185164;0.029620767;0.022202572;0.04624903;0.026516173;0.035513535;-0.07492644;-0.04578608;-0.026656978;-0.09531354;-0.06805037;-0.031703733;-0.165113;-0.043078564;0.0107522;0.00047791627;0.051026333;-0.0827573;-0.044312973;-0.076113306;0.017899789;-0.09698681;-0.008276038;0.083588466;-0.05653336;-0.057665773;-0.032852594;-0.07225792;-0.028478783;-0.12096337;-0.040779054;-0.115147375;-0.063643016;-0.12988396;0.032686047;0.008959351;0.24194732;-0.010217284;-0.033181902;-0.010238044;-0.03471854;-0.17951003;-0.013018394;0.06117429;-0.1057687;-0.11954894;-0.022294153;0.072025;0.01896326;0.08884827;0.042837046;0.07954276;-0.040423464;-0.060563006;-0.06822266;0.056471344;-0.025227422;-0.08575549;-0.13388732;0.0449227;-0.08236611;-0.0134601295;0.016415792;-0.121190004;-0.07490839;-0.066377096;-0.13397704;0.0045519588;-0.07686401;-0.08863189;-0.027723664;0.097762726;-0.09307776;-0.054883868;0.03178021;-0.16463646;-0.105971955;-0.116434135;-0.024192855;-0.13131471;0.08074147;-0.0064505697;0.026444888;0.040904284;-0.024722146;-0.04479168;0.010689013;-0.004713156;-0.020468527;-0.016331328;0.008273254;0.017084073;-0.07206429;-0.0028267556;0.039392386;0.024738433;0.029014273;0.025905471;-0.008872231;-0.007612816;-0.12074538;0.015218071;-0.07867963;0.026058204;4.0122643e-05;-0.018430619;0.011881041;-0.094055355;0.022844784;-0.018275578;0.0761635;-0.06989966;-0.02134617;0.045728505;0.0007751486;-0.057937443;-0.0029983416;-0.085333385;-0.053266156;-0.095839635;-0.062323485;-0.020090913;-0.087747164;-0.05049501;-0.039988417;-0.03512625;0.008333695;-0.010522908;-0.034499973;-0.02432242;0.12559423;-0.10948394;-0.055282447;0.08795013;-0.060442142;-0.11342967;-0.00174937;-0.0905186;-0.11698162;-0.09454875;-0.01124938;0.04743214;-0.10864012;0.0064182286;-0.08113868;-0.04977466;0.02444926;-0.05110855;0.023122463;-0.06574981;-0.0011074598;-0.09274121;0.0010714503;-0.0607867;-0.023035575;-0.038971156;-0.010032934;-0.069114976;-0.08181483;-0.0876744;0.015067143;0.07432923;0.06079727;-0.053346775;0.07479507;0.20573847;0.08092899;0.02205427;0.037959013;-0.05005988;0.11163536;-0.040008605;0.03511357;0.0056026;-0.036735706;-0.09278129;-0.06730632;-0.08752858;-0.035627574;-0.09487627;-0.026771333;-0.1046671;0.020947985;0.045158926;-0.18762586;-0.019354802;0.06537194;0.01188387;-0.15113485;0.07147479;0.060424346;0.0023258568;0.035111874;-0.057929337;-0.08935965;-0.07878809;-0.041758914;0.025599;0.07931856;0.073347926;-0.10416865;-0.05089172;-0.07703138;0.018148053;0.006548637;-0.001108089;-0.04445644;-0.097064726;0.1001866;-0.012502686;-0.12781906;-0.066779405;0.0725417;0.10104298;-0.023695802;-0.12079865;-0.09035582;-0.0458615;-0.03037782;-0.12667412;0.03712277;0.045633353;-0.043516506;0.072175585;0.0053609773;0.09325068;-0.048964363;-0.013219704;0.06164052;-0.04371264;-0.036760654;-0.03949736;-0.09072676;-0.0013718115;-0.05060757;0.111448005;-0.055035945;0.017210541;-0.064297244;-0.0087600965;0.075420246;-0.06200464;-0.09642939;-0.10907432;-0.070234545;-0.13287383;-0.09705817;-0.04731902;-0.062131714;0.003313025;-0.081807785;-0.08559221;-0.031981505;0.022174077;-0.016813666;-0.0074927774;-0.03501383;-0.034825236;0.047091577;-0.1329857;-0.06835953;-0.08486348;0.015234175;-0.117311426;0.049764793;-0.105253994;-0.1494952;-0.02824386;-0.10178883;0.021185596;0.10281566;-0.009725067;-0.13312945;-0.06218671;-0.059293423;0.08690219;0.020187674;-0.07306376;0.023495909;0.014191023;0.035441402;-0.025452644;-0.03540608;-0.025054833;-0.087993875;-0.071623586;-0.014104948;-0.02907317;-0.006163511;-0.16315225;0.013946738;0.013834995;0.0022031951;-0.06671639;-0.08643727;0.0027311433;-0.008509579;-0.03731997;-0.079617955;-0.04390205;-0.07380469;-0.04599955;-0.100515015;-0.0761004;-0.062335327;-0.09749582;-0.07258272;-0.11795956;-0.04418144;0.12759517;-0.043454424;-0.004329992;0.00395147;-0.13042381;-0.053294428;-0.06725746;0.03287226;-0.007900666;-0.084494;-0.04732542;-0.030468151;-0.11703999;0.027092274;0.009933376;-0.067178726;-0.008911874;-0.15341288;-0.11052936;0.041750684;-0.018552637;-0.10568858;-0.055634197;-0.10579806;-0.13319096;-0.0027196475;-0.09403648;0.030354392;0.033133257;-0.0031856396;0.036920805;0.046452157;0.028745748;0.024997143;-0.033819668;-0.07647571;-0.026831945;-0.12623057;-0.06488662;0.020602066;-0.09170168;-0.11588772;0.028502667;-0.04992264;0.08706564;0.00799055;0.0011201792;-0.08074376;-0.04977666;-0.029358353;0.04021728;-0.049422536;-0.10490096;-0.060635794;-0.087673225;-0.12444705;0.041070446;-0.037794005;-0.02758887;0.018874524;-0.022434097;0.11282988;0.07608403;0.010310925;-0.010500867;-0.048562013;-0.0039344407;0.022313574;0.034987114;-0.07938043;-0.045215607;-0.007975759;-0.032770302;-0.16323999;-0.057538334;0.0351467;-0.07300026;-0.044563945;-0.08176831;-0.17303434;-0.064254224;-0.010739951;-0.0744796;-0.13116749;-0.08921547;0.005922452;-0.008642453;-0.032618564;0.002631358;-0.049635578;-0.26264694;-0.08570089;-0.021367729;0.023857484;-0.037208088;-0.05486889;-0.111493535;0.04506843;-0.044454508;-0.04897189;0.014776411;0.04377088;0.023827396;-0.077500224;-0.06948065;0.009850823;0.020450164;-0.06018642;-0.025557993;-0.013507734;0.018662557;0.008033132;0.033450898;-0.017976623;-0.019148808;-0.13126451;0.04219808;-0.046967503;0.037616562;-0.06764272;0.021973848;0.03933927;-0.12713733;0.06275244;-0.046603177;0.002607009;0.04236628;-0.106803775;-0.12478614;-0.12914698;-0.036688417;-0.15874226;-0.09194464;-0.0627353;-0.07258391;-0.018929679;0.004394798;-0.031228522;0.043175533;-0.10532472;-0.09234058;-0.0034820505;0.052089203;-0.08422119;0.031201337;0.004019915;-0.0063433493;-0.21518636;-0.11102154;0.0025931136;-0.01645333;0.03835452;0.013852276;-0.09958991;-0.06781252;0.005855463;-0.007914105;-0.15283974;0.048377603;-0.036981124;0.018074505;-0.0068933363;-0.06022465;-0.018402284;-0.11252795;0.013646439;-0.0010617032;-0.0039533353;-0.06299636;0.053751905;-0.08834287;-0.08965476;-0.03955634;-0.026100772;-0.11654138;-0.08980327;0.008709649;-0.021470752;0.0019427093;0.06174787;-0.050623003;0.10228385;-0.055472586;-0.09370753;0.0026728332;-0.0016626643;0.040455166;0.014980521;-0.049460404;-0.014372846;0.026885105;-0.056662098;-0.10534407;-0.0844478;-0.05424449;0.17996936;0.056586545;0.022469256;-0.019333402;-0.03885426;-0.015297048;0.0012508538;-0.113136806;-0.015338851;0.0032515328;-0.046141833;0.036100302;-0.20238785;0.050505638;0.01503474;-0.03394138;-0.08041055;0.09693452;-0.01851029;-0.022960924;0.12614574
-0.05705708;-0.075926475;0.017632471;-0.0108130975;-0.11576062;-0.02554813;0.044810846;0.11567336;0.052526865;-0.13171212;-0.09456029;0.037837043;0.028484898;-0.07150451;-0.030798016;0.021605289;-0.12992062;0.03167022;0.000998954;-0.023429364;-0.04612341;0.022245554;-0.006031657;0.121989466;-0.078406215;0.062576324;0.017185872;0.0038972993;0.114204414;-0.00902808;-0.12363124;-0.026441343;0.013975385;-0.09282787;-0.045917984;-0.026776437;-0.173171;0.049293783;0.0011433694;0.044074874;0.0032485258;-0.015538226;-0.042851027;0.022547157;0.019034937;0.05341148;0.10843973;-0.005136445;0.17460948;0.00055989873;0.021824969;0.06364209;0.064882115;-0.069368675;-0.062350024;-0.083212584;-0.007509927;-0.103556484;-0.020938836;0.0033245138;-0.09610827;-0.022394253;0.015205187;-0.15427627;-0.02059663;-0.030888278;0.043437198;0.007102653;-0.0014305316;0.05368063;-0.037708208;-0.097121455;0.00690898;0.014794743;0.06350034;0.0038024199;-0.055936463;-0.07883819;-0.065955505;-0.023946103;-0.052924655;-0.015691202;-0.12533699;0.0049902825;-0.04967045;-0.06755324;-0.065247744;0.19536825;-0.13186869;-0.022866076;-0.023333538;0.022061223;-0.103536904;-0.12548265;0.028926976;-0.024225773;-0.06935338;0.04651714;-0.055922933;0.0027005868;0.07464334;-0.07342866;-0.07468166;0.01741824;-0.09928498;-0.031310923;0.05152403;-0.116284356;-0.07165523;-0.07859944;0.013537236;-0.04840043;-0.09743002;0.033589683;-0.029445253;-0.008080226;0.024425274;-0.01870007;0.06513544;0.0058497163;-0.058518846;-0.075367235;-0.020220483;-0.018312512;-0.026329115;-0.10400198;-0.066439606;0.03539718;-0.08887846;-0.07545824;-0.052014943;0.07179668;0.049801987;-0.04366813;-0.06624468;-0.08229597;-0.09481011;0.01580772;0.009326219;-0.10125761;-0.09062822;0.009655185;0.053588163;-0.065901935;0.034593586;-0.06856765;0.10912226;0.0020171865;0.025314674;-0.06802343;0.056791008;-0.029003313;0.030142006;-0.10197469;-0.045767408;-0.101105064;-0.06746353;-0.10772779;-0.12513976;-0.11463431;-0.089798324;0.035593696;0.043290112;0.051459197;0.11468041;-0.06616901;-0.10188822;-0.053953968;0.025328642;-0.069667354;0.010795336;-0.09420734;-0.039276812;-0.0026400757;-0.06342256;-0.054569345;-0.07826141;-0.0658543;-0.007604378;-0.014794657;-0.043381225;0.11317121;-0.026157184;-0.03360534;0.014982095;-0.021286694;-0.08395748;-0.08417487;0.039551508;-0.008817599;0.033029873;-0.09633693;0.072163515;-0.11093351;-0.035077576;-0.049175896;-0.017662035;0.06361384;-0.06999372;0.08371467;-0.030653238;-0.020972656;0.0030120742;-0.05155945;-0.07689479;-0.056926005;0.0711007;-0.008151121;-0.090913095;-0.051893327;0.046012573;0.009821395;0.07793212;-0.050946996;-0.095496796;0.10950485;0.18288028;-0.008013244;0.072442204;-0.017865056;0.03273583;0.12498859;-0.06553267;-0.09037711;-0.060603313;-0.030091722;-0.14569892;-0.13324691;-0.106183596;-0.07545979;0.03310338;-0.094467476;0.015837612;-0.028588234;-0.05800987;-0.12677377;-0.0053685885;0.040341824;0.00537278;-0.10848163;-0.033120006;-0.083061844;-0.009446234;-0.09367946;0.05697614;-0.12621327;-0.10483849;-0.061390582;-0.042609535;0.047497116;-0.015811326;0.010440527;-0.056942295;-0.09707202;0.042064354;-0.07062301;-0.11641555;-0.08937492;-0.03783315;-0.00794508;0.034118;-0.13804051;-0.0066625825;0.027189774;0.12046725;-0.09401014;-0.13736309;-0.017775204;0.061311744;-0.101701;-0.02710279;-0.09834165;-0.061734322;-0.033762623;0.07820541;-0.0018285026;-0.034087557;-0.077843025;-0.037156723;0.09796973;-0.083686985;-0.007426817;-0.06094153;-0.065076984;0.018618727;0.0053890846;0.09611073;-0.08683806;-0.07722318;0.05872852;-0.031436093;0.13946448;-0.054282743;-0.01976783;-0.1413377;-0.026380124;-0.00051265175;-0.03189186;0.021630036;0.035520263;0.058545463;-0.0044654575;-0.12373606;-0.016155517;0.092607915;-0.07526589;0.006059568;-0.033278193;0.0043439837;0.0038995356;-0.14015244;-0.13694385;-0.12147132;-0.032912347;-0.02015506;-0.05825274;-0.11725491;-0.025809186;-0.055829;0.009870635;-0.04136675;0.061265215;-0.07672625;-0.06823884;-0.051190216;-0.026518663;0.07074556;0.019682787;-0.03641728;-0.05646663;0.059281174;-0.015757117;0.12681033;-0.09475527;-0.06958351;0.014432592;-0.06713684;-0.043165278;0.0021325757;-0.055177752;-0.17120636;-0.073067315;0.098292544;-0.016784742;-0.019579483;-0.06848142;0.1007673;-0.106060386;-0.04607816;-0.063894875;-0.009157473;0.047619972;-0.12983462;0.026893623;-0.06252991;-0.07996267;-0.086218916;-0.026874904;-0.0845774;0.030526167;0.14521402;-0.060669873;-0.020940717;-0.04898795;-0.020013142;-0.03969738;-0.1095967;0.0028186324;0.06625809;-0.0853366;-0.07438097;-0.11165865;-0.043713972;-0.016930066;-0.1020025;0.015043409;-0.008546183;-0.06741485;-0.0071939565;-0.06811495;-0.048088536;-0.033999126;0.052763145;0.033206366;-0.14311627;-0.06492161;-0.13188384;0.021989938;-0.0870752;-0.05384626;0.010574956;0.021120548;0.026386933;-0.02222463;0.058304463;-0.03290395;-0.08911127;-0.057680774;0.0078123086;-0.07767099;-0.11914315;-0.0901002;-0.0013030719;-0.13626564;0.09768827;-0.06421857;0.043745805;-0.09933699;-0.05735674;0.05510603;-0.08870813;-0.097153656;-0.110923275;-0.010994843;-0.09223725;-0.08212274;-0.08719301;-0.079953365;-0.03075408;-0.05535932;-0.042363536;0.03591477;-0.0044305758;0.026872525;-0.05215524;0.035675824;-0.06926017;0.05307478;0.029501999;0.057383895;0.041652177;0.03379015;0.027725127;-0.1570546;0.06956153;-0.09864214;0.054454524;-0.100290865;-0.04793361;-0.15898165;0.02743877;0.015147727;-0.043624125;-0.118788145;-0.07506171;0.06870347;-0.12617376;-0.14163539;0.050008066;-0.12341708;-0.21102853;0.018253658;-0.09633216;-0.061648134;-0.01064935;-0.013840808;-0.012154611;-0.071139075;0.042423487;0.03468071;0.03478397;-0.0139445355;0.04390966;0.061121084;0.009419605;-0.030883638;-0.04192205;-0.043890294;-0.00829077;-0.018949447;0.019853033;-0.014777852;-0.047891315;-0.04193662;-0.07861081;-0.11820373;-0.02966071;0.055063203;0.02284838;0.010051938;0.09233369;-0.07406347;-0.06711216;0.068104774;0.030885186;-0.028759418;-0.054600425;0.0013858635;-0.020500662;-0.1132316;-0.07818716;-0.18294391;0.04618573;-0.005966963;-0.016775342;0.064492635;-0.00580273;-0.059073806;-0.013956078;-0.05600019;-0.029991204;-0.011381626;-0.03613617;-0.1136393;0.041958537;-0.03988997;-0.14224936;-0.16120966;-0.07806474;0.054899763;-0.012105678;0.038498323;-0.08935918;-0.19927582;0.023769874;0.00015657475;-0.04519168;-0.09394833;0.017920434;-0.024387421;-0.02975458;0.02638277;-0.05937177;-0.05687176;-0.11141147;-0.0024214496;-0.07329804;-0.05228219;-0.12638865;-0.048594624;0.04226338;-0.10980235;-0.056135457;-0.05731611;-0.09468075;-0.058020696;-0.094845824;-0.020820614;0.08547236;-0.0373972;-0.040408928;0.1281909;-0.10522182;-0.024681157;-0.11648965;-0.002033197;0.071685754;0.067976445;0.021307027;-0.03785644;-0.042528942;-0.01774798;-0.028358473;0.034536324;-0.069385976;0.04889309;-0.011734672;-0.060411997;-0.043037336;-0.07949891;-0.09013886;-0.06869337;-0.18481646;-0.11585187;-0.117755234;-0.059374586;-0.040366877;-0.095614694;0.1546533;0.013406944;-0.10241152;0.0020217157;0.07697046;-0.043064095;-0.07792221;-0.014092477
0.0073295934;-0.15945299;0.0004980099;0.117301285;-0.117260374;-0.0652319;-0.005755504;0.10679225;0.06689105;-0.06324923;-0.10888007;0.05997026;-0.012504939;-5.186708e-05;0.040763464;0.034151413;-0.06549686;0.09064235;-0.03769054;-0.024535412;-0.10199956;-0.052281287;0.008601337;0.076975815;-0.007811447;0.009259982;-0.042956334;-0.12153739;0.041815024;-0.07246678;-0.16187188;-0.098140046;0.047538847;-0.075957306;-0.005648955;-0.01998017;-0.045444895;-0.0027844063;-0.0975233;-0.09259937;-0.080842175;0.028811425;0.06849187;-0.09041743;0.08400884;-0.013304054;0.0168459;-0.04289372;0.120622024;0.048964012;-0.009002484;-0.057916213;0.0051250383;0.0031794198;0.0034686865;-0.041218292;-0.06786549;-0.11424369;-0.03708379;-0.008525226;0.01675033;-0.0049206438;-0.04104343;-0.14095472;0.046014197;0.04734257;0.025843887;-0.0596743;-0.037045404;-0.037822295;-0.05772462;-0.095967;0.03660695;-0.10978711;0.21133775;-0.040729973;-0.13195065;-0.006230402;0.04980475;0.07769865;-0.0812301;-0.076719925;-0.20052952;0.040410478;-0.043831754;0.021806875;0.029908357;0.11574567;-0.08344428;-0.0173735;0.051497698;-0.022110004;-0.08686859;-0.094096616;-0.08562632;0.010082105;-0.11437598;-0.08538626;0.033612277;-0.044336367;0.050025407;0.039940525;0.013346256;-0.050064646;-0.009457907;0.005254279;-0.02275664;-0.118221916;-0.0005788717;-0.11158269;-0.060965907;-0.14227386;-0.08083308;0.051648177;-0.12531297;0.029764531;-0.08716144;-0.0999693;0.048577372;-0.040016074;0.026333006;-0.045232408;0.022149393;-0.112413704;0.038878348;-0.09955036;-0.06039522;0.046113428;-0.025817312;-0.014132487;-0.18441936;0.032873146;0.007524417;0.012059673;0.04068882;-0.059510365;-0.011354841;0.0071656327;-0.04041394;-0.0054129907;-0.052034173;-0.047476348;-0.044606797;0.0051249433;-0.046782017;-0.0051102573;0.17330101;-0.036767077;0.087548986;0.008149149;-0.049325336;-0.054544095;-0.0615832;-0.07231936;-0.11569571;0.0019557863;-0.068090685;-0.043286562;-0.01225611;0.010174819;-0.024024371;0.0035098693;-0.07786789;0.0054116435;0.16074115;-0.072724655;0.04320661;0.10300309;-0.0145276;-0.10947479;-0.122523956;-0.07261685;-0.049725775;-0.012992452;-0.08492106;0.025619255;-0.13986614;-0.0932207;-0.1172681;-0.08884555;-0.030920979;0.13886446;-0.03386735;-0.052592732;0.09535845;0.012521986;-0.04393736;0.025577111;-0.033384394;-0.012836065;-0.10507108;-0.10025669;0.08510449;-0.122958764;0.05031094;-0.013048653;-0.01782497;-0.08790874;0.018082034;0.09796231;-0.100506775;-0.022303246;-0.03302354;0.038165443;0.07368974;0.020084508;-0.01742175;0.013099861;-0.10162136;-0.08299298;-0.06352585;-0.05556349;0.03600488;0.039326333;-0.112692766;0.07173056;0.1269758;0.030325264;-0.06072758;-0.08214586;0.05280206;0.058765646;-0.05210412;0.027513158;-0.023949476;-0.06659852;-0.069166064;-0.053355247;-0.109362364;-0.027782831;-0.03410172;0.06045102;0.0075470516;0.018113667;-0.024873924;-0.055020403;-0.05168254;0.00814648;0.008727725;0.019052325;-0.03600245;-0.012928122;-0.021749364;0.02269971;0.083437964;-0.12287938;-0.17732126;-0.0190685;0.02024971;-0.04972007;0.08585066;-0.023747463;-0.048927;-0.003594329;0.0064826775;-0.064445175;-0.075464346;-0.06859588;0.034508187;0.03034994;-0.044794217;-0.13378027;0.042893402;0.065968595;0.059065435;-0.037466835;-0.067951865;-0.096361876;0.042117056;-0.09863174;-0.0009201715;0.043830287;-0.09242775;0.017387474;0.046957932;0.01249844;0.060576078;-0.096141025;-0.018214049;0.07737382;0.041869815;-0.041577246;-0.09721524;-0.08044353;0.024548482;0.049974408;-0.049868446;-0.06530135;-0.0749557;-0.07916256;0.06342274;0.037740976;-0.029119106;-0.047089074;-0.06975269;0.010420414;-0.036940802;0.00036148573;-0.018419018;0.023051163;-0.07315802;-0.025895495;-0.059455004;0.01834489;0.07803271;-0.11754734;-0.06824828;-0.04470398;-0.028675191;-0.014062894;-0.036995426;-0.1331548;-0.116623834;-0.019309148;-0.1182517;0.007533517;-0.110522926;-0.077157736;-0.049699645;-0.10101407;-0.053608913;0.05543697;-0.09239566;-0.17251967;-0.023124445;-0.07923917;0.095163316;0.04689198;0.014856843;-0.101013325;0.025031496;-0.056166805;0.06880343;-0.12438048;0.03135601;-0.064284384;-0.030675866;-0.088310905;-0.033693623;-0.035284612;-0.08917436;0.012768686;0.044430394;0.061574463;0.030814297;0.05120701;0.08256168;-0.04811227;-0.040715463;-0.02307491;0.041586645;-0.07568608;-0.12500541;-0.04309361;0.0008394856;-0.03795583;-0.008718695;-0.022546155;-0.1316836;-0.07179364;0.10248711;-0.018894719;-0.016508935;-0.104377896;-0.13056673;0.02357902;-0.12010687;-0.047811475;-0.038383503;-0.055265676;-0.062594615;-0.10134422;-0.08036439;0.055220034;-0.01130202;0.019844655;0.059666708;-0.10076615;-0.03169676;0.05273412;-0.066083565;0.02714032;-0.025403606;0.054341897;-0.0724684;0.056456532;-0.09113454;-0.10647289;0.054262534;-0.089990884;-0.08886156;-0.01936342;0.021902774;-0.049636267;0.0867206;-0.027628815;-0.017843528;-0.11337716;-0.1394596;0.032057524;-0.1267279;-0.13011906;0.032552935;-0.10824652;0.0023211297;-0.001216386;-0.016690055;-0.1359325;-0.027000284;-0.054788258;-0.00544206;-0.052989252;0.024730997;0.0011024126;-0.04761648;-0.01992718;-0.021398095;-0.10442044;0.04318434;-0.05695214;-0.04520541;0.06405321;0.071663834;-0.04057181;0.028460355;0.00206921;0.055182993;-0.033264253;-0.07145238;0.038068842;0.04164843;-0.06534884;-0.01013702;-0.08438979;-0.009773199;-0.09970879;-0.0073776664;-0.056977313;-0.0882092;-0.053163834;-0.10109329;0.001734571;0.01466212;-0.12426221;-0.10268198;0.011657092;-0.11761288;-0.065747894;-0.005214201;-0.14829162;-0.2652286;0.08878576;-0.102441214;-0.07013922;-0.04027306;0.06773126;-0.015539808;0.079851896;-0.035713285;0.02178271;-0.080761984;-0.07823066;-0.058738627;-0.06430422;-0.10881971;-0.04852641;-0.030985205;0.053590734;-0.034054626;0.031699266;-0.0075930157;0.041839056;-0.041124307;-0.08235418;-0.012597668;-0.0023100807;0.0060428274;-0.016493399;-0.051984154;-0.09434561;-0.006144189;-0.124740906;-0.02228158;0.07385817;0.053636886;-0.094626546;-0.0043166843;-0.07119465;-0.10009135;0.0075638616;-0.03350277;-0.049067188;-0.03966997;-0.0068920646;-0.0053894445;-0.028705621;-0.018205835;0.0774824;-0.039512515;-0.09949954;0.036936548;0.023081087;0.003478467;-0.04587358;-0.11442668;0.033557493;-0.03961106;-0.24303097;-0.15949927;-0.053014513;0.068700686;0.002846985;-0.07902053;-0.1629181;-0.00079194794;-0.112737484;-0.020150185;-0.057555754;-0.07403318;0.070631005;-0.014213912;-0.074720874;-0.027504982;0.020334488;-0.08171963;-0.07830095;0.04396156;-0.06498789;-0.10758832;0.01227703;-0.07034007;0.007493919;-0.0047006374;-0.10678409;-0.020763002;-0.024987651;-0.021346698;-0.049916077;0.099231005;0.045218896;-0.02822583;0.011469193;-0.04506838;0.025010793;-0.06411659;-0.042705495;-0.007766697;-0.022333086;0.06976534;-0.0033407353;-0.04254593;0.015734121;0.015299386;0.0073056626;0.07168391;0.19347304;-0.0791611;-0.03425351;0.001903204;0.041364264;0.032397293;0.020949656;-0.07189654;0.038313754;-0.0092860395;-0.0016196258;0.029011514;-0.14866276;0.034722622;-0.07171957;-0.0706103;0.023470867;0.12192766;0.016008902;-0.07140458;0.12216907
-0.07928906;-0.176294;-0.057662122;0.046294205;-0.0932296;-0.05681718;-0.039574064;0.005886951;0.036496155;-0.014978357;-0.020341031;0.02210485;-0.12450541;-0.12325378;-0.09716291;0.0024445967;-0.023046542;0.050697986;-0.043897796;0.016663078;-0.08314674;-0.038423914;0.010477426;0.1287615;0.039631225;0.001850593;0.008701284;-0.10482872;0.053162877;0.005127013;-0.13596115;-0.01026683;0.047059756;-0.10552093;-0.04186186;-0.10847319;-0.1200048;-0.045221616;-0.041547794;0.043027103;-0.04048619;-0.017703176;-0.020538066;-0.031532772;0.09150375;-0.083789796;0.15109952;-0.07718841;0.22804007;0.045943588;0.026821932;-0.061363947;-0.0649991;0.04412481;0.017287975;0.03180794;-0.072553046;-0.045403387;0.07129156;0.044707984;0.019866278;-0.1183532;-0.054125488;-0.039648023;-0.0056320294;0.01953461;0.061630107;-0.039120596;-0.04550795;-0.03473972;-0.12784915;-0.095404305;0.030057892;-0.037911884;0.16456704;0.005835335;-0.15590921;0.0301436;0.10376878;0.0975405;0.026161743;-0.049980104;-0.19061476;0.014989364;-0.07530778;0.019782305;-0.0425078;0.2100526;0.013994507;-0.08280614;-0.041549176;-0.10849195;-0.12748742;-0.115088224;-0.039397124;0.028417444;-0.12324586;0.04120476;-0.008309964;-0.09696256;-0.018262021;-0.014332055;-0.013904461;-0.13021517;-0.0028375066;0.006769833;-0.07099989;-0.058252227;-0.046664264;-0.14033206;0.06609206;-0.09867083;-0.07699273;-0.08334702;-0.027094044;0.011535183;-0.053760633;-0.047851447;0.036456287;-0.0680661;-0.10445489;-0.090774514;0.003493489;-0.03202753;0.038142353;-0.04803121;-0.19349732;0.020812359;-0.12338186;-0.029859442;-0.04732386;0.014758081;0.016359156;-0.10976306;-0.05785679;-0.098229565;-0.07407235;0.019041538;-0.053916495;-0.008511899;-0.05698268;0.014964099;0.021090858;-0.11767769;-0.052672487;0.052922525;0.086561695;0.033217065;0.12132084;-0.097724415;-0.03858629;0.020246118;-0.06860746;-0.14468849;-0.07459055;-0.06740432;-0.0155569;-0.08911352;0.014989227;-0.08775269;0.024895629;-0.07802683;-0.06368305;0.08397003;0.12810107;-0.020513648;-0.019038705;0.05143495;-0.043632295;-0.07173673;-0.04380652;-0.006626795;-0.07841963;-0.038207937;0.011778385;0.025857896;-0.040751148;-0.13011876;-0.06000804;-0.07665535;-0.097753465;0.019119056;0.035163242;-0.021602292;0.12568249;-0.056804497;-0.03571239;-0.031170482;-0.020568648;-0.12572332;-0.055225093;-0.11431529;0.107311204;-0.04095551;-0.056146402;0.0850972;-0.097794905;0.039399453;-0.0061966493;0.09162112;0.03850675;0.02824598;0.005932428;-0.07153096;0.025320321;0.03391234;-0.029530862;0.06420406;-0.03730992;-0.07290623;0.04851416;0.03311275;0.063496344;-0.025404857;-0.109915264;0.14312962;0.19112732;-0.081127666;-0.05924965;-0.10145518;-0.0963999;0.10189397;-0.06750872;-0.13173176;0.05016218;-0.11071853;-0.027950058;-0.06458794;-0.0794555;0.06538059;-0.040498573;0.015009828;-0.019587731;0.055296548;-0.08731778;-0.068642356;-0.03800143;0.0471964;-0.025739824;-0.06774164;-0.023664428;-0.050841857;-0.08491666;-0.112808354;-0.042873982;-0.106123276;-0.08453881;-0.059326947;0.024630664;0.0021695115;0.024438368;-0.065850265;0.044068567;-0.105883434;0.042540394;0.062319234;-0.09565035;0.031564537;-0.019705385;0.09675696;-0.028681764;-0.04274591;-0.008005832;0.024212284;0.05127305;-0.14180204;-0.0505776;-0.17986952;0.13011064;0.0064243358;-0.00353;-0.034455616;-0.014648549;-0.002646341;-0.046984788;0.018493598;0.05988651;-0.018423045;-0.02733542;-0.011594539;-0.045724377;0.0068006786;-0.020629194;-0.078182526;-0.033261683;-0.04816729;-0.0123077575;-0.03580633;0.007959173;0.030950353;-0.061696164;0.040125083;-0.08304189;0.009084409;-0.16301158;-0.015738033;-0.076759666;-0.014623008;-0.021625249;-0.06265767;-0.078945756;-0.029912679;-0.058011353;0.028110925;0.10555114;-0.08649922;0.00040623912;0.041297518;-0.04085332;0.08067772;-0.07251962;-0.0058694435;-0.008415626;-0.04752231;-0.13915224;-0.09427442;-0.118926145;-0.052000783;-0.040917523;0.035168387;-0.08772277;0.10126541;-0.031243676;-0.1180621;-0.0018218454;-0.06781781;0.17454736;-0.08149589;0.0038166905;-0.041697133;-0.029904323;-0.07010815;0.026069209;-0.11968896;-0.08659146;0.075968936;0.030044898;-0.07987737;0.042645648;-0.027304795;-0.08731704;-0.08962172;0.040573336;-0.046840355;-0.1116881;0.04271491;0.053683296;-0.00057223224;0.008082486;-0.07863556;-0.096375994;-0.09588432;-0.11041168;-0.07303379;0.004787648;-0.035526454;-0.09443616;0.016523443;-0.05020307;-0.080898084;0.053404156;-0.083894454;0.12359756;-0.092699245;0.014572182;0.0008468637;-0.050461657;-0.039131556;0.06850677;-0.0607095;0.041963223;-0.10227602;-0.0051844046;0.034260027;-0.039729767;0.032386016;0.049807556;-0.02114724;-0.008715802;0.036766328;0.032917857;0.032893755;0.061051287;0.008025733;-0.062151983;0.048267286;-0.023096127;0.014899249;-0.018040927;0.035932153;0.005664692;0.119219884;-0.039294183;-0.018665515;0.03289884;0.03931475;-0.026419654;-0.029468417;-0.04915255;-0.069307886;-0.09663229;-0.13308237;0.0033319748;-0.05248231;0.030245889;0.018239385;-0.099159986;-0.12753782;-0.031169455;-0.019655444;0.05486048;-0.03481445;0.025743855;-0.041829895;-0.013813606;-0.11753134;-0.017543182;-0.029532202;-0.05708693;-0.10167303;-0.077086814;0.0112838;0.12559605;-0.01580158;-0.028180653;-0.058776304;-0.060674787;-0.05713054;-0.091521695;-0.08729616;-0.062266067;-0.044087328;0.007257545;-0.07268208;0.03562221;-0.022732362;-0.07260999;0.00477674;-0.07359555;-0.1554792;-0.0780302;-0.09347251;-0.09409634;-0.08001055;0.0016877991;-0.07630627;-0.061532926;-0.035603523;0.017099397;-0.08201968;-0.2730147;0.017960543;-0.07851425;-0.025192978;-0.017171888;-0.06876278;-0.1508125;-0.07116622;-0.072725;0.04181788;0.008229969;-0.06992645;0.003188513;0.006661987;0.045692924;0.034273956;0.05766702;-0.0620867;-0.006430312;-0.03505278;-0.12117429;-0.108015224;-0.055765312;0.039774887;-0.003578286;-0.115445726;-0.09535156;0.08575715;-0.11261357;-0.03074202;0.036817897;-0.048873793;-0.005067785;0.070060305;-0.03419064;0.023330042;0.0622486;0.016198918;-0.11387603;-0.008774535;-0.033731002;-0.07922937;-0.10245567;0.018255752;0.014680454;-0.100240596;-0.08268498;0.07058285;-0.02958109;-0.029427141;0.042647246;0.018393507;0.030015117;-0.11140736;-0.058462434;-0.03336971;-0.097594984;-0.23547916;-0.019546818;0.05767904;-0.012207759;0.023953747;0.008620424;-0.21219134;0.07067313;0.037682157;0.010743757;-0.08821786;-0.07626746;0.13420172;-0.13227285;-0.08368148;0.035549834;-0.07035901;-0.044333097;0.007836479;-0.038011644;0.010555848;-0.04524787;-0.045494825;-0.009168291;0.007546225;0.0031745252;-0.083679706;-0.0125147;-0.072235845;-0.01370123;0.02264564;0.1245764;0.08971014;-0.04511384;0.032928407;-0.01533989;0.031169519;-0.08110014;-0.08067864;0.08306511;0.12764186;0.052446023;0.057950046;-0.097781844;-0.03134602;-0.014438813;-0.06730487;0.07115626;0.16686249;-0.067929715;0.070798114;-0.09767303;0.022743268;-0.051382225;0.0039214613;-0.120152816;-0.0071019996;-0.08990857;-0.014912358;-0.0882757;-0.14854512;0.14880712;-0.096240774;-0.108423606;-0.06897703;0.039334092;0.014988156;-0.0340517;0.09542717
0.039628692;-0.14013931;-0.050041657;0.044079892;-0.19700828;0.018792192;-0.061265882;0.024327377;0.107518874;-0.018328438;-0.15220727;0.103687845;-0.12359629;-0.027481481;-0.065226935;-0.05099749;-0.08985031;0.10376049;0.031305294;-0.06699127;0.046921533;0.018196758;-0.09377297;0.07261065;0.06009175;-0.058119338;0.036696903;-0.050872125;0.04216097;-0.079159714;-0.024017317;-0.12048272;0.04549897;-0.012687117;-0.02965454;-0.044014055;-0.040897954;-0.015919238;-0.027301235;-0.08778634;-0.11546079;0.0025878176;0.061954606;-0.07325182;-0.08027249;-0.037391894;0.0016449522;-0.020471672;0.22953235;-0.10672979;0.014833492;0.03217244;0.0023732102;-0.05690782;-0.041324142;-0.004411626;-0.019399324;-0.032826237;-0.0531118;-0.075344026;-0.0882157;-0.082622826;-0.04655115;-0.18391356;0.045057695;0.012439164;0.09283085;-0.05475131;-0.064455315;-0.08962117;-0.07460906;0.011707971;-0.041470006;-0.017507097;0.15535761;0.010677263;-0.12684193;-0.08421177;0.10995993;-0.013313405;-0.05791528;0.065464824;-0.111728474;-0.024738897;-0.070777185;-0.015494508;-0.006479572;0.12479156;-0.00425015;-0.08543999;-0.030600406;-0.0906359;-0.09143631;-0.04781525;-0.033599846;-0.009394964;0.017198533;-0.06757588;-0.09401529;0.032403067;0.019967569;0.04671662;-0.030076763;-0.02484833;0.043214027;0.033718668;-0.039031528;-0.053422503;-0.09854245;-0.11906262;-0.06929344;-0.017984966;0.025089838;-0.08557276;-0.1663711;-0.050951324;0.06461757;-0.061418783;-0.033475835;0.023766065;-0.068085;0.012469779;-0.048970293;-0.06526553;0.039761882;-0.10859658;-0.13626242;0.020645466;-0.06581809;-0.032911934;-0.18153264;0.0553293;0.060517337;-0.107279666;-0.06275636;-0.020691233;0.024089905;0.05442989;-0.11035437;0.0024906313;0.021276085;-0.015695246;0.07584464;-0.011776592;-0.046416212;0.045603015;0.12613347;0.014628679;-0.009927828;-0.014555928;-0.03763317;-0.022480085;-0.012604346;-0.0915116;-0.03934765;-0.00618394;-0.06478358;0.06596235;-0.103398286;-0.025219407;-0.011370136;-0.020778438;-0.08052306;0.063291766;0.08573119;-0.10289483;-0.08125919;0.08890028;-0.056264363;-0.08194968;-0.056059543;-0.09364473;0.06282035;0.02053907;-0.08257827;0.0008786707;-0.11396066;-0.07676354;-0.12496145;-0.05039939;-0.12194524;0.058556158;-0.005255595;-0.010404942;0.03840603;-0.09602477;-0.030846588;-0.10879931;0.027811311;-0.020781076;-0.03649664;0.009295673;0.10020552;0.009822586;0.08599391;-0.057187732;-0.09009274;-0.073773526;-0.1218765;0.015924295;-0.09606029;0.064298876;-0.08737798;-0.036906514;0.015069053;0.022793716;-0.0020302464;0.03331332;0.025144234;0.008917197;-0.016264802;-0.009016796;0.026550788;0.13787912;-0.11292091;0.16978921;0.14836967;-0.05532537;0.0091265645;0.014511505;0.007701959;0.07776453;-0.09877406;-0.09834651;0.049016412;-0.025544195;-0.0849699;-0.21526976;-0.08681436;-0.07219295;0.024945376;-0.0166168;-0.045465823;0.101809375;0.015354357;-0.14612755;-0.04762991;0.09176027;0.010656194;-0.043766428;0.0093305055;-0.062043477;-0.098524466;-0.11926118;0.016150402;-0.0779944;-0.14769149;-0.0021014235;0.029754117;-0.055944808;0.07172565;0.038958706;-0.096256815;-0.010007142;0.015671877;-0.004187178;-0.12558302;0.03630085;-0.06868077;-0.0069068866;-0.06589915;-0.091986805;-0.03563373;0.081739075;0.116320916;-0.011108757;-0.14001179;-0.100049086;0.091484606;0.04017163;-0.10788558;0.02293166;-0.07449057;0.056209832;-0.027129196;-0.073485486;0.05798117;-0.08630904;0.019310756;-0.02635118;-0.024873806;-0.035819277;-0.059607044;-0.063153364;-0.045958202;0.027407613;-0.060374543;-0.11402202;0.06822587;0.08419858;-0.04062186;-0.006449178;-0.043382287;0.019155288;-0.09727878;-0.0876808;-0.012756064;0.014401555;-0.084197015;-0.083621256;-0.09294664;-0.00041442955;-0.13139838;0.03138457;-0.0066090454;-0.047131844;-0.058291122;0.022505533;0.01908185;0.10020773;-0.02782497;0.011717378;-0.106956966;0.0037536616;-0.058161844;-0.019930812;0.0030567683;-0.0077472464;0.046145305;-0.08106645;-0.07032897;0.01075164;0.03840758;-0.15955128;0.062392984;-0.0583113;0.14657183;-0.095870465;-0.04582194;-0.0667917;-0.09804421;-0.04582242;0.14622039;0.026041193;0.027857639;-0.021881307;-0.09672064;-0.01879934;-0.095165655;0.035957433;-0.16472404;0.023737047;0.10713663;-0.07215326;-0.06728657;0.038694143;0.035025455;0.03872096;-0.0025928002;0.026094278;0.043484647;0.03456946;-0.1750646;-0.07004887;-0.03404451;0.043771196;-0.040488683;-0.019664895;-0.046570458;-0.016057612;0.14533114;0.012236232;0.07199427;-0.03387429;-0.0132835945;-0.082765155;-0.075311966;0.070750594;-0.069143295;0.042624738;-0.015800968;0.031383105;-0.10231355;0.07650736;-0.079179876;-0.10138793;-0.04521102;-0.12957779;-0.053856634;-0.022609672;-0.056612372;-0.035440035;-0.07999387;0.013517042;-0.11166414;-0.08904225;-0.030499779;-0.046406258;-0.090326674;-0.02838437;0.00953014;0.08137652;-0.033181466;0.021205042;-0.014039646;0.10294188;-0.0020688125;-0.020152204;-0.008238727;-0.051614154;-0.10249152;-0.15315446;0.017444098;-0.15262273;-0.010130728;-0.10142357;-0.09722957;0.010352027;-0.108626775;-0.045236494;-0.06180116;-0.0040193177;-0.010854048;0.052462287;-0.08639784;-0.09875752;0.03207807;-0.0066988766;-0.09140886;0.041292373;-0.032283746;0.09655818;0.1167921;-0.0011316249;-0.0665012;0.098319985;-0.086982295;-0.07721496;-0.10634924;0.045832213;-0.03614764;0.031397205;-0.08027733;-0.05531404;0.009306584;-0.063483946;0.032410987;0.037682705;-0.06755369;-0.06884449;-0.091754414;0.022211505;0.04024163;-0.091373906;-0.021533694;0.048307415;-0.124768235;-0.021623874;0.05179224;-0.1511989;-0.2069138;-0.05836377;-0.060813196;-0.080942884;-0.041642025;-0.03981257;-0.07666074;-0.07932171;-0.069444425;-0.082864225;0.006530087;-0.00035856722;0.029440392;0.0935292;-0.09194826;0.06513623;0.0557522;-0.071813256;0.12688431;-0.05313224;-0.084902644;-0.009079657;-0.04360772;-0.042328436;-0.016926352;-0.036347687;-0.04803594;-0.034112338;-0.0026090408;-0.0673749;0.11717588;-0.023080373;-0.021096954;0.07741508;-0.0059673167;-0.021891685;0.018795898;-0.069378905;-0.092435375;-0.10535055;0.02933615;-0.1556855;-0.04895532;-0.043064155;0.023707354;-0.092917114;0.029974043;-0.046063278;-0.041549496;-0.07297085;-0.053687856;-0.07273551;-0.047336653;-0.055243332;0.017478338;0.09739976;-0.03196026;-0.2019283;-0.0819049;-0.0990113;0.03357644;0.03365572;-0.06567766;-0.12320158;-0.048628684;-0.11039813;0.0061103953;-0.11159201;-0.0700837;0.12989634;0.026163204;-0.08720473;0.021702249;-0.07361341;-0.09990664;0.05993329;-0.058938786;-0.025249986;-0.17114511;-0.051907107;-0.03245402;0.028934537;-0.073431976;-0.05970397;-0.026119962;-0.050634645;0.04728024;-0.098853745;0.030008722;0.08675277;-0.12614965;0.036056492;-0.032549366;0.03176448;-0.07698865;-0.02742832;-0.028758375;0.03061626;0.011460812;-0.023228005;0.020712705;-0.024813447;-0.021648202;-0.01778964;0.04928807;0.16612545;0.018536616;-0.04431864;0.034715276;0.0002464225;0.00047097873;-0.0720366;-0.042058185;-0.018782292;-0.084236644;-0.0153302355;-0.12905213;-0.2056841;0.04253163;-0.038295455;0.014222468;-0.049585767;0.16568711;-0.0713541;0.015972288;0.06302668
-0.053951263;-0.13678658;-0.026048997;0.038759463;-0.23873611;-0.122620344;-0.011265552;-0.07261699;0.019047454;-0.07646371;-0.0034606175;-0.03868319;-0.09368383;-0.089494444;-0.005793839;0.009687526;-0.012558565;-0.025666177;-0.10601031;0.027059054;0.00044226547;-0.0979054;-0.026551535;0.13362753;0.00060882705;0.04607085;-0.046629407;-0.09779535;0.12688905;-0.09135596;-0.11650606;-0.022770982;-0.10082019;-0.13182735;-0.04440838;-0.053550147;-0.025594596;-0.015271043;-0.030769456;0.063529156;0.0038644834;0.03591825;-0.051186625;-0.13286184;0.04995973;-0.0233492;0.09216472;-0.0009214021;0.22310254;-0.0037754609;-0.028562518;-0.042197987;-0.029652888;-0.068817504;-0.04785617;-0.11452664;-0.056246847;0.001571142;0.09860603;-0.04948773;-0.031821623;-0.0120913945;-0.12133179;-0.14764516;0.032599818;0.022853127;0.03561022;0.06314166;0.049177088;0.02416742;-0.074461095;-0.0213871;0.045468263;-0.0864526;0.1654669;-0.028366074;-0.09929273;-0.060384244;0.02889788;0.0058357837;-0.026690714;0.05787499;-0.16681579;0.04271118;0.021327514;0.0157526;-0.07701091;0.12892087;-0.1109332;-0.057056732;-0.08155989;0.028485566;-0.020605078;-0.046357855;-0.02816868;0.026328407;-0.026473649;0.017807037;-0.06584997;-0.0692465;0.021506418;0.047005408;0.0034401515;-0.11298609;0.03412746;0.040589567;-0.03497271;-0.016757632;-0.07847659;-0.15402402;-0.085033074;-0.041802384;-0.087055005;-0.076428294;-0.16409369;-0.068821;0.02870103;-0.11226461;-0.070337944;0.026740598;0.00067286787;-0.12738718;-0.021585423;-0.08918548;-0.120332815;-0.009511874;-0.11352651;0.11608036;-0.050699364;0.014262421;-0.13322994;0.039652802;0.04082314;0.038684495;-0.057457194;-0.050698284;0.016316956;0.09048626;-0.008576585;-0.07694454;-0.061416145;-0.1259768;0.059566617;-0.009788514;-0.03481036;0.032037906;0.09327261;-0.12084878;0.11576647;-0.033503417;0.08187833;-0.019824216;-0.0029749004;-0.05170357;0.004343154;0.012475309;-0.072424084;-0.012782346;-0.05804217;0.014215036;-0.024517292;-0.051550984;0.00065395905;0.05428251;0.06597477;-0.03411923;-0.05824097;-0.008843059;-0.05552555;0.004137098;-0.092686;-0.06684601;-0.03634404;0.046419278;-0.07957115;-0.05416356;-0.115612864;-0.13613984;-0.01567713;0.0064005908;-0.096773535;-0.018843956;-0.107263215;0.045335006;0.10141894;-0.039061718;-0.009510062;-0.055328056;-0.023150207;0.009507229;-0.09872558;-0.099409826;0.07395598;-0.10388787;-0.045227382;0.025387218;0.015310499;-0.044082962;-0.013812707;0.088016056;-0.079723276;0.038638398;-0.13037539;-0.032711122;0.08896649;-0.10275642;0.08210331;-0.07553797;0.018307678;0.00050820864;0.02979275;-0.049716987;0.11619439;0.067804694;0.008792559;0.08998499;0.15728003;0.05737009;0.0023138684;-0.04009635;0.020166436;-0.01799631;-0.06920041;-0.026746567;0.01671655;-0.10123131;-0.014515212;-0.15740453;-0.011970684;-0.006825787;0.03178558;-0.051968746;-0.11321013;0.06157017;-0.060787223;-0.15632737;-0.016594354;0.014601773;-0.085758835;-0.11274577;0.02521936;-0.07951077;-0.10551689;0.010419513;-0.05375297;-0.15130432;-0.17344248;-0.0050498573;-0.039437495;0.055680644;0.02928582;0.00391734;-0.0068784673;0.05638248;-0.007976743;0.046254765;-0.008679341;0.016949885;-0.026854446;-0.005222311;-0.03013157;-0.0619629;-0.10827342;-0.07582993;0.032433458;-0.015160862;-0.101982206;-0.07965609;0.0062061483;0.0117324535;0.035447136;0.022617957;-0.089863464;0.007409306;0.05317486;0.016221123;0.031704843;0.02940983;-0.0077818255;0.060397737;0.008033795;-0.022574628;-0.036920182;-0.044704627;-0.008259635;-0.06823231;0.07224067;-0.012605228;-0.08370168;-0.018923575;-0.04552747;0.121834666;-0.07198957;0.022415852;-0.10503948;-0.09802547;-0.11730606;-0.037266016;-0.13145694;0.04179927;-0.037070192;0.023781454;-0.15987723;-0.09429072;0.010034316;-0.056869894;-0.1401338;-0.03866819;-0.06405452;0.049468186;-0.12304286;-0.05063332;-0.11294111;-0.015801376;-0.11374354;0.0038188212;-0.109241925;-0.09782973;0.043108944;-0.03888836;-0.028069926;0.034002807;0.010659311;-0.12776531;0.008702076;-0.07638393;0.09283215;-0.08764995;-0.08989802;-0.10125265;-0.08679398;-0.057183705;0.09324211;-0.08821603;-0.038431205;0.0016931653;-0.1173801;-0.06881362;0.046736956;-0.06489646;-0.14869799;-0.08586598;0.028660893;-0.07122675;0.03266518;-0.013457754;-0.033433832;-0.0069749863;-0.011960297;-0.032068018;0.009688062;-0.075451516;-0.047018785;0.0023052844;0.034317255;0.04198941;-0.0012880738;-0.10829974;-0.03195968;-0.03537399;0.12187283;0.014538312;0.0544483;-0.01294352;-0.099288195;-0.006948328;-0.07137844;-0.047588337;0.05515585;-0.012117261;0.013901895;-0.0019511384;-0.10455611;-0.026132401;-0.062350087;-0.03455797;0.020405749;-0.08405203;-0.081040755;-0.011605499;-0.081851915;-0.033404738;0.018050365;-0.011761426;-0.1119527;-0.09565155;-0.12672761;0.018190896;-0.06211441;0.0017549575;0.04504636;0.011467441;0.04140539;-0.050023273;0.080493584;0.053121477;-0.049039744;-0.12265654;0.033574477;-0.034584567;0.019925216;-0.08394737;0.019832537;-0.16402572;-0.05352756;-0.017736614;-0.051329274;-0.07595408;0.03922019;-0.04163493;0.0085098045;-0.026106352;-0.08393603;-0.012222567;-0.02606612;-0.07217945;0.009587275;0.0668853;-0.10336225;-0.042317685;-0.15530537;-0.047901575;0.027160803;-0.004104237;-0.09414533;0.03290796;0.021393532;-0.024120566;-0.104050644;-0.029426035;0.025890466;0.0026430308;0.016951757;-0.08662577;-0.06190023;-0.016625099;-0.082217425;-0.023171766;-0.011901861;-0.15274349;-0.022677131;-0.012168868;0.06048177;-0.17004332;-0.09417849;0.04777606;-0.07577359;-0.037678037;-0.027509058;-0.14250563;-0.16209906;-0.008165305;-0.027214563;-0.03414548;-0.04004549;0.014811413;-0.047854222;-0.0005493803;-0.020623019;-0.013528602;-0.079549626;-0.07242577;0.011612501;0.098308116;-0.0017228336;0.033776913;-0.0018404151;-0.048091028;0.013023183;-0.064080864;-0.109759964;-0.034837537;0.0026990625;-0.0283129;0.008034858;-0.10363185;-0.020487424;0.041246843;0.037032355;0.0059470716;0.0066517256;-0.09220043;0.03695761;-0.055492673;-0.035038814;0.03694886;-0.03616565;-0.101322174;-0.0656212;-0.02023355;-0.060162447;-0.13816556;-0.054450806;-0.033822164;-0.12118077;0.02888312;-0.08014338;0.08718788;-0.019209366;-0.05399936;0.024066437;0.01705579;-0.060913876;-0.08326609;-0.100203104;0.016822297;-0.036796164;-0.14263923;-0.19325985;-0.08756421;0.06841683;-0.00039581375;0.02412895;-0.10243911;-0.08329863;-0.044512056;0.081059426;-0.057037048;0.009656992;0.0044818274;-0.1160546;-0.022300897;0.019812062;-0.15379384;0.008337545;0.031766146;0.070811346;-0.059245896;-0.017303454;-0.033352528;0.027501274;0.026899945;-0.044764955;0.010025494;0.043250173;0.034243472;-0.02280539;-0.0522565;0.057253607;0.07339422;-0.059152927;-0.015747894;-0.058073718;0.029386042;-0.10468796;-0.14820458;-0.0068172202;-0.02029223;0.023958998;-0.080248535;-0.06197274;-0.07808977;0.025349874;0.017553069;-0.05502449;0.03280192;-0.061856933;0.0072450344;-0.03007969;0.058612265;-0.035514962;0.01194944;-0.05006474;-0.045937054;0.017986178;-0.018659484;-0.062891796;-0.20590332;0.095577806;-0.14005563;-0.047088906;-0.09556015;0.07892568;0.021597039;0.019332675;0.080233395
-0.08650746;-0.16630189;-0.00037971916;0.01785617;-0.22526912;-0.091610536;-0.034133423;-0.021587174;0.022378966;-0.106935576;-0.017444925;0.07422278;0.00828756;-0.12664555;-0.0761624;0.0010329479;-0.055552993;0.13797094;0.034179587;-0.071043156;0.020727979;-0.06308431;-0.061317615;0.10203058;-0.003121373;-0.056198422;0.062073726;0.014609904;0.09226419;0.032592107;-0.09457524;-0.058086634;-0.030441483;-0.036897417;0.05801153;-0.07821724;-0.084735654;-0.11090023;-0.07094196;0.04850842;-0.034276012;0.0767668;-0.082885966;0.0007450886;0.008861448;0.036276665;0.07197396;0.060972292;0.22309485;-0.1266819;0.02481322;0.049995385;-0.013212718;-0.044312995;0.012021419;-0.0762693;0.011270323;-0.010535446;0.062877364;0.024802202;-0.09732581;-0.08054041;0.031186618;-0.01929185;-0.036863137;0.02144033;0.10724518;0.053503424;-0.040209137;0.001565836;-0.14694282;-0.13635074;0.0017911214;-0.111771144;0.22398214;-0.08067457;0.010339031;-0.04398628;0.030331196;0.12769149;-0.114415824;-0.055466544;-0.098786466;-0.06652732;-0.041042853;-0.026893292;0.02393569;0.21896894;0.000846489;-0.11225855;-0.017626341;-0.098515965;-0.13543005;-0.054459993;0.022059722;-0.017320307;-0.099660516;-0.06342751;-0.021428287;-0.040282577;0.04578193;-0.04978092;-0.07654111;0.0003553769;0.001235893;0.026788969;-0.09018593;-0.05502971;-0.02800319;-0.13544181;0.058519132;-0.1501124;-0.038556624;-0.07612044;-0.034430005;0.0602229;-0.09751;-0.048512165;-0.060286865;0.02551681;0.024134798;-0.028002275;0.030498281;-0.08822309;0.03190853;0.03289941;-0.09091972;0.12350342;-0.021795759;-0.02362456;-0.17156254;0.006269688;0.028279996;-0.08416176;-0.01939338;-0.06704351;0.028799882;0.07672329;-0.105756804;0.034972712;0.008283679;-0.12659301;-0.006656084;-0.07596135;0.024496762;0.01186556;0.11409519;-0.022394376;-0.005358098;0.045616273;-0.014461617;0.026719442;-0.049983975;-0.10848522;-0.045531753;-0.04927793;0.0012681648;0.05471586;-0.09057946;0.068129115;0.010673449;-0.10991805;-0.06746078;0.017650966;0.112474665;-0.07989201;-0.021983692;0.08758413;0.08952285;0.013281205;-0.00094508694;-0.10676888;-0.07008636;0.0060869306;0.016185354;-0.08655124;-0.021486467;-0.12087274;-0.027752733;-0.023612073;-0.08594295;-0.028429817;-0.08217723;0.054252397;-0.024364693;0.04791098;-0.022983674;-0.015457332;-0.052059274;-0.082870625;-0.041550048;-0.014946301;0.024925765;-0.12440965;0.012774064;0.005714963;-0.057582527;-0.065491065;-0.051961653;0.07064917;-0.060780704;0.059397835;-0.04263798;0.038910218;0.091416724;-0.022500016;-0.05019203;-0.05872986;-0.06322151;-0.06460829;-0.007940442;-0.06381254;0.027073696;0.10937688;-0.107506536;0.05179061;0.19378716;0.027395127;0.013059188;-0.09745161;0.047410592;-0.027616784;0.01149594;-0.026814748;-0.06721585;-0.009082814;0.0074087526;-0.096899554;-0.053742193;-0.01940657;-0.10290526;-0.009692613;-0.13149072;0.004286637;-0.05965175;-0.16307488;0.01115431;-0.0074895658;0.037517305;-0.108113036;-0.0036009315;0.046662714;-0.10777805;0.00032193083;0.036919687;-0.07675131;-0.0708594;0.011719174;-0.032013323;-0.064687654;0.021761343;-0.08039269;-0.066695504;-0.029433029;0.021175925;-0.04103312;-0.033760756;-0.017718518;-0.080456644;0.11786928;-0.046349622;-0.1772678;-0.055658754;0.02473125;0.0544651;-0.12536427;-0.13143048;-0.1527914;0.12210782;-0.022587525;0.0006699409;-0.037009116;-0.014162083;-0.006143688;-0.07645399;-0.11456484;0.012405235;-0.09859152;-0.08631911;-0.0023169373;-0.13063002;-0.027114173;-0.11569905;-0.104495145;-0.026752383;-0.033452988;0.050354734;-0.018656218;0.055520624;-0.010325145;-0.016962469;0.015629845;-0.031856924;-0.038189515;-0.03581886;-0.018620932;-0.120527886;0.0143377315;-0.04988268;0.014506671;-0.021827474;-0.062632814;-0.1573651;-0.055833053;-0.013826222;-0.024615766;-0.12296402;-0.032620396;0.045725226;0.06678307;-0.03521242;-0.09634954;-0.0370242;0.05160018;-0.09089751;-0.01118546;-0.065948874;-0.014925866;-0.022292962;-0.051209915;-0.09779513;0.027112696;-0.014242799;-0.06313918;-0.0866155;0.07034036;0.030106211;-0.08149892;0.029611403;-0.06421321;-0.05346847;-0.019880842;0.027707499;0.017247327;-0.018953448;0.0034250764;0.024179896;0.010171584;-0.07135454;-0.084716044;-0.072538584;0.017984362;0.08037558;0.028855218;-0.111543454;0.024973447;0.00086097413;-0.013133104;-0.041690346;0.024824027;-0.088884294;-0.018437302;-0.15423813;0.027978424;-0.07929323;0.002714243;-0.062277522;-0.07476447;-0.1196965;-0.06964713;0.049279474;-0.07655598;0.065285794;-0.014527173;-0.15835266;0.039046735;-0.112857334;-0.044454794;-0.07451211;-0.114071555;-0.034066994;-0.03131196;-0.12792836;-0.003462134;-0.00033187712;0.0109487185;-0.02341353;-0.054098316;-0.008108023;0.02078988;-0.0378217;-0.08078591;0.028581247;0.0535149;-0.08186484;0.037232302;-0.0017909817;-0.005795663;-0.038542867;-0.0027348795;-0.0927676;-0.025040489;-0.025023572;-0.024957081;-0.051477965;0.07287406;-0.0744351;-0.12601043;-0.05989219;-0.06955984;-0.0324003;-0.03681106;0.043692484;-0.1471201;0.07027214;0.008264027;-0.06815418;-0.057422943;-0.107985124;-0.06026081;0.037875917;-0.06458316;0.039186064;-0.059806872;-0.08581576;-0.07606688;-0.043485522;-0.08514126;-0.037311547;0.0063179987;-0.0642952;0.039774835;0.007982899;0.04218414;-0.0983423;0.11898859;-0.051382013;-0.006379395;0.0042963587;-0.04599203;-0.067610644;-0.047972713;-0.05958104;-0.06724721;0.019258292;-0.01027138;0.042670205;-0.078908674;-0.028862573;-0.15222898;-0.00056165503;-0.004670658;0.012234264;-0.0678266;-0.045632277;-0.034277737;-0.025296396;0.0081461985;0.026674647;-0.022873463;-0.15720281;-0.023339165;-0.075854324;0.007217973;0.024623683;0.12927961;-0.08461136;0.013872164;-0.073273696;0.013525082;-0.09222876;0.008846913;-0.070177555;0.084312744;-0.06677669;0.0347073;-0.082839094;0.017359266;0.012051782;-0.108465105;-0.12740912;-0.017852612;0.00593483;-0.0061563607;-0.022349758;-0.053426128;-0.040620606;0.06380029;-0.11029525;-0.03540364;0.025929553;-0.09591984;-0.0504807;0.10014287;-0.022542356;-0.03604652;-0.0347225;-0.09847588;0.022661166;-0.060243107;0.014559055;-0.14918028;-0.0045570103;-0.10859371;-0.1071616;-0.102634415;0.02764908;0.020807536;-0.058819562;-0.07371322;-0.016969709;-0.02199977;-0.022105144;-0.049974564;0.03055434;-0.025426144;-0.096414015;-0.19459713;-0.15554155;-0.101355664;0.04037481;-0.02275312;-0.116740696;-0.17304525;0.06115727;-0.105940446;0.06398517;-0.089341745;-0.08724538;0.10518845;0.002281171;0.04034029;-0.015919117;-0.06168029;0.03731517;0.043742258;0.04142988;-0.1030635;-0.06770337;-0.09241751;0.050288685;-0.08370152;0.04544102;-0.072504185;-0.039339263;0.039947007;-0.10337479;-0.06758422;0.05756502;0.05036928;-0.037277482;0.09711046;0.03667185;0.0129207885;-0.06695201;0.0024021338;0.01869347;0.110290274;-0.04641747;-0.08909142;0.026357777;-0.07377594;0.052263286;0.025150696;0.056099564;0.10143814;-0.0033717921;0.07777159;-0.072584055;0.068942636;0.053558692;-0.08193745;-0.13038272;-0.074359715;0.0053572925;-0.08526546;5.997328e-05;-0.12816866;0.037761666;-0.006433543;-0.11195439;-0.1152825;0.14083391;-0.10536939;-0.025636092;0.109741546
-0.00604444;-0.083234355;0.078652956;0.12259855;-0.23527494;-0.049931455;-0.018859116;-0.047349744;0.04155968;-0.033097766;-0.108389854;0.10410286;-0.070308484;-0.016645828;-0.06618298;-0.10566832;-0.081879444;0.078089975;0.04450106;-0.0669834;-0.06463761;0.024892008;0.019157214;0.1337713;-0.0012511382;-0.09105674;-0.046892576;-0.023754096;-0.012016259;-0.014791312;-0.13042901;0.020473983;-0.08019577;0.031349853;-0.009695169;-0.030059358;-0.012433109;0.040720478;-0.0295281;0.005521082;0.020255258;-0.0057584727;-0.014780917;-0.07717121;-0.05132359;-0.018692436;0.13803487;-0.092838205;0.22381768;0.0012823578;-0.07037685;-0.071633376;0.026110478;-0.074448645;-0.0073448163;-0.09823042;-0.09649888;-0.05270432;0.072792664;0.03732368;-0.057681225;-0.023897098;-0.11617209;-0.10437186;-0.052078627;0.0480324;0.061728872;0.008310982;0.04079965;-0.009473342;-0.03544603;-0.00044262217;0.0029810758;-0.0352873;0.058512185;0.06262125;-0.0414615;0.0038038522;0.05134385;0.054686755;-0.09190448;-0.08013238;-0.11583811;0.021078771;-0.1441032;0.029896399;-0.02785694;0.20062886;-0.009390837;-0.11975793;0.03904993;-0.046425253;-0.024443677;-0.15847258;-0.073581316;-0.07375758;-0.09924735;0.019499721;0.009638766;-0.07717519;-0.018221825;-0.03849316;-0.015771313;-0.13355908;-0.053310186;-0.0016924255;0.05522593;-0.12732336;-0.0072029857;-0.051684845;-7.858523e-05;-0.027774438;-0.06717001;0.0050077434;0.0019096455;0.032476295;0.0321855;-0.12286563;0.026319552;-0.10355563;-0.076944254;-0.07774447;-0.076765105;-0.091376394;-0.021474786;-0.0035040206;-0.12892924;0.11029287;-0.019610863;0.023355179;-0.059780974;0.0100733405;-0.0042049093;-0.08361929;-0.016046615;0.0012824883;0.035672534;0.12273211;-0.057062473;-0.029567447;-0.12071789;0.020550307;0.06928302;-0.09567538;0.03140444;-0.010181254;0.13092187;-0.001032644;0.124158636;-0.100041024;0.06130843;0.0067452164;-0.06332193;-0.14369555;-0.039318446;-0.028605446;-0.010932996;-0.03803068;-0.12064333;-0.05955333;0.047982343;-0.019708907;-0.06918356;0.0581461;0.12443956;-0.09092724;0.080799505;0.0613098;0.060639676;0.019584116;0.0021481414;0.021867756;-0.09664174;-0.015551022;0.03069634;0.005116703;-0.12016292;-0.007535219;-0.05345578;-0.06870605;-0.03054542;0.07941642;-0.10876769;0.126163;0.10315268;0.018042803;-0.02729376;-0.10995233;0.016760975;-0.0716819;-0.019018237;-0.05272106;0.14435348;-0.13454142;-0.052871823;0.07069911;-0.01854083;0.0038420863;-0.051546924;0.049031116;0.023070779;-0.090721056;-0.09390156;-0.065793574;-0.0045392103;0.012076239;0.06245044;0.057698805;-0.020060439;-0.07944279;-0.05955532;-0.011144451;-0.0074398937;0.05312056;-0.07469666;0.14977361;0.17566262;0.06416039;0.008809527;-0.08612726;-0.068062074;0.052627377;0.003147108;-0.09096125;0.003028327;-0.0044287806;-0.022951348;-0.19324489;-0.07409174;-0.019863121;0.04949744;-0.026675103;-0.034598347;-0.041242287;-0.047371518;-0.19921616;-0.07131349;0.050692752;-0.10308873;-0.08193496;-0.06887855;-0.037254293;0.0107552465;-0.11220759;-0.02247529;-0.0695799;-0.077971235;-0.114667095;0.013806313;-0.08124054;0.0024914518;-0.0095750205;0.0463412;-0.016038824;-0.02967707;-0.01242037;0.013768738;0.019530417;-0.00091491017;0.07261811;0.0007234989;-0.16223888;0.032899223;-0.025909627;0.043834157;-0.11270579;0.00076661917;-0.045807756;-0.013763964;-0.0017645862;-0.06586377;-0.088623926;-0.021215312;0.07133048;-0.052768707;-0.1309446;-0.04942896;0.008694323;-0.043166406;0.03589026;-0.14093837;-0.053767502;-0.0033271164;0.035594817;0.0041950117;-0.07579301;0.07408486;-0.045083236;-0.06569123;-0.016746163;-0.05448398;0.11343824;-0.01556784;-0.048351787;-0.15364163;-0.07431438;-0.1252651;-0.091239326;0.015169102;-0.0598613;-0.022866497;-0.015969036;-0.17938533;-0.081897706;-0.076666586;-0.06796197;-0.105712876;0.04934116;-0.06858055;0.090678744;-0.1312539;-0.017507058;-0.048261773;0.019210039;0.006285121;-0.01337006;-0.09124897;-0.0061174124;-0.07620192;0.0032047904;0.051414724;-0.0011807429;0.04893446;-0.15937439;-0.0014896257;-0.09905673;0.14088629;-0.044835087;-0.10770041;0.023091262;-0.070585966;-0.031076616;0.08768354;-0.059305143;-0.0034875972;0.0042348043;0.016848003;-0.035353653;-0.06479179;-0.016173858;-0.1663371;0.0065254946;0.045332316;-0.024931328;-0.03693279;-0.09632659;0.030441908;-0.07507778;-0.007023486;-0.031809762;-0.1008269;-0.06608894;-0.13389029;-0.066359505;-0.030754535;-0.063711345;-0.035517387;-0.067847386;-0.09183795;-0.048177987;0.11150457;-0.056761507;0.14820568;0.033874754;-0.087876566;-0.0705668;-0.038772363;-0.06998754;0.0365528;-0.05100002;-0.04181057;-0.09371607;-0.015744144;-0.044155635;-0.097369485;0.03551634;-0.07827237;-0.11032975;-0.060018234;-0.05326363;0.05099546;-0.08827821;-0.062170245;-0.10348379;-0.057689678;-0.0834285;0.033791807;0.043188658;0.020614965;-0.0042029414;0.044147745;0.05032351;0.019923672;-0.09246583;-0.047035012;0.08107374;0.0053524855;-0.14561248;-0.02723931;0.0142123345;-0.04548661;-0.09353168;0.015687086;-0.17135604;-0.028799163;-0.10918911;0.06377595;-0.052343972;-0.08821973;-0.0801209;0.055556417;0.014382922;-0.106178336;-0.052770574;-0.097996585;-0.03607563;0.00806185;-0.04192136;0.01270569;0.015053884;-0.08860502;0.054222222;0.037173003;-0.0041618627;0.0029787614;0.05450542;-0.06884173;0.044925727;-0.111071564;-0.09087974;0.0741523;-0.11100843;-0.017058806;-0.04883803;0.034188487;0.04747253;-0.060978744;0.06394184;0.012434876;-0.06615884;-0.04184231;-0.035516564;-0.005067527;-0.13331011;-0.032776643;0.032965418;-0.057723876;-0.009341248;0.042053197;-0.14914133;-0.30781257;0.05565262;-0.020299863;-0.08941219;0.056128323;0.10157399;-0.109951735;-0.071503125;-0.03147784;-0.042282104;-0.09139845;-0.10436162;0.044983122;0.034024976;-0.04298474;0.0069136713;-0.032338046;0.047222793;0.06115964;-0.043621797;-0.14039905;0.007208091;0.015918383;-0.023059076;-0.100370176;-0.09515588;-0.02027366;-0.0835132;0.026971633;-0.11043175;0.089823954;-0.10158403;-0.093271784;0.078601755;0.043677356;-0.09472455;0.02727601;0.027678853;-0.0008543869;-0.04559451;-0.100361936;-0.038150683;-0.039640237;-0.0047991485;-0.12486227;0.0069827074;-0.08148817;0.018229537;0.032136973;-0.06784138;-0.042586707;-0.08261671;-0.035263572;-0.07579545;0.027157094;0.053576596;-0.013255386;-0.15741977;-0.04731192;0.04998018;0.027222896;0.052197736;-0.06234285;-0.10581777;-0.08513721;-0.028720891;0.037126634;0.00908433;-0.0067215143;0.07694613;0.027112234;-0.063179635;-0.0015079698;-0.08587211;-0.09670406;-0.03363674;-0.017428758;-0.0048946273;-0.122617096;-0.07032444;-0.025372874;0.04432961;0.024442036;-0.023943832;-0.08423655;-0.045847185;-0.10343103;-0.057445936;0.07285272;0.049082715;0.03544399;-0.05586107;0.012835249;0.00034625625;-0.090862416;0.033687387;0.07604575;-0.015631704;-0.06768075;-0.01026744;-0.08931931;-0.029691301;-0.09410498;0.06025057;-0.054596223;0.11751709;0.0024490685;-0.03791627;-0.012993828;-0.06618832;-0.046711124;-0.051008746;-0.07952266;-0.08445019;-0.054570694;-0.028722782;-0.08727488;-0.20367922;0.06468305;-0.009395042;0.027357493;-0.027727202;0.092424445;-0.015739782;-0.09450208;0.018174613
-0.08272586;-0.045965243;0.03055501;0.0032227107;-0.17374083;-0.0045024315;-0.04414376;0.040735207;0.13396186;-0.065843895;-0.09795946;-0.037245523;-0.11172954;0.03092484;-0.048470758;0.030386012;-0.109307334;0.00069181627;-0.087670885;-0.086064935;-0.009007252;0.01564616;0.010145076;0.16023508;0.010481433;-0.028765524;0.018859886;-0.004025207;0.12189832;-0.103446916;-0.08494289;0.010880612;0.05386844;-0.109061;-0.08848929;-0.0877815;-0.06940665;-0.08018368;-0.03445568;0.03755114;-0.10532002;-0.0464355;0.011428279;-0.10717461;-0.041051954;-0.01831575;0.09174778;0.007865155;0.12922673;-0.11863304;-0.03086753;0.024075812;0.008107988;-0.021867678;0.057825964;-0.10295686;-0.026844844;-0.037362386;-0.0053137937;0.034494743;-0.0900703;-0.09471849;-0.016980495;-0.080527864;0.043832853;-0.052182224;0.089733176;0.08329367;-0.03010696;-0.028662251;-0.109224014;-0.02575903;0.04746661;-0.0023633915;0.15111189;0.035487022;0.004314969;-0.07553913;-0.050470956;0.18115082;-0.059832446;-0.043039612;-0.034359172;-0.10332546;-0.0676847;-0.099295355;-0.091363646;0.2199381;-0.013616548;-0.10196358;-0.06839064;0.013329485;-0.124487326;-0.14548095;-0.09537482;-0.12352213;-0.008460263;-0.027394434;0.04610956;-0.0719647;0.023887495;-0.049827814;-0.04388914;-0.07869041;-0.0022235413;-0.04485982;-0.07853928;-0.107685775;-0.071486;-0.04095126;-0.06839677;-0.090304725;-0.105420224;-0.08386939;-0.0344836;-0.05704934;-0.0077201976;-0.002450806;0.008835069;-0.02706722;-0.09709678;-0.06859754;0.03101936;-0.030957349;-0.039860763;-0.073317096;-0.09909681;0.029803365;-0.010117163;-0.11868924;-0.15108523;-0.03232241;0.013035318;0.050852463;-0.08275933;0.038497403;0.0051444783;0.08381426;0.007126627;-0.03497215;-0.07780914;-0.030586282;-0.0074333423;0.021150086;0.022330912;-0.004541374;0.011742094;-0.08905528;0.08900407;-0.05079875;-0.059948508;-0.014312756;-0.025351161;-0.012100095;0.038632963;-0.09567722;0.007849741;-0.065112695;-0.03556559;0.022026911;0.040639576;-0.07197624;-0.0042552715;0.11300518;0.11533159;0.025083978;-0.009885119;0.07229979;0.048458993;-0.1090113;-0.122699976;-0.063659616;-0.020758541;-0.09928354;-0.03438287;-0.015682848;-0.07761749;-0.0573276;-0.042056017;-0.06692424;0.023484912;0.117518015;-0.023695514;0.09253112;0.029109415;-0.028119044;-0.1304962;-0.045437414;-0.068938956;-0.0755725;-0.08240778;-0.0042006625;0.05136295;-0.10386935;-0.022342665;0.077151276;0.039665446;-0.07849938;-0.092416584;0.14969687;-0.02707159;-0.051477317;-0.028615914;-0.084739916;0.0732469;-0.046213847;0.0892856;-0.05722396;-0.09026701;-0.033795863;-0.06237746;-0.030015998;0.07492104;0.104321465;-0.09866074;0.17201453;0.18782732;-0.036349043;0.012610603;-0.05677155;0.018776426;0.04020578;-0.02757893;-0.049932666;0.0098323785;-0.0798788;-0.05910948;-0.20674622;-0.07574319;-0.003261917;-0.0440814;-0.041854177;-0.10626457;0.06635392;0.01863497;-0.20813371;0.042005856;-0.047076173;0.01598669;0.028747039;-0.011163264;-0.06730814;-0.019880427;-0.11222805;-0.04615227;-0.11912523;-0.16118048;0.01055876;-0.064711094;-0.01787027;0.046294756;-0.008539003;-0.04817905;0.060485054;-0.01623997;0.02203352;0.03380436;-0.0818267;0.006711244;0.040548325;0.02498111;-0.07106566;-0.033793945;0.057143293;-0.0038964956;-0.13395262;-0.0024390556;-0.100861095;0.14090917;0.027676744;-0.07974384;0.053942077;-0.09893043;0.06787269;0.0066421614;-0.11464537;0.033598963;-0.0298842;-0.10870898;0.06706418;-0.089366406;-0.06850043;-0.06852305;-0.097823516;-0.017600376;0.01910985;-0.015429937;-0.030353896;-0.07612295;-0.06620206;0.038227245;0.0977828;0.005661199;0.011468142;-0.08665284;0.008420979;0.023325603;-0.066848986;-0.029301802;0.0060361107;0.030235747;-0.10188053;-0.024403756;-0.08089059;-0.068199754;-0.06161877;0.010716021;0.032678306;0.0548043;0.0028970023;-0.1388582;-0.05721326;-0.070983194;0.033555884;0.04996163;-0.038020078;-0.12245578;-0.098825835;-0.053859673;-0.11343388;-0.047231827;0.05323393;0.013130136;-0.08947139;-0.0010801967;-0.019486958;0.105068944;-0.04194036;-0.11512093;0.034903158;0.024101276;0.026414545;0.050611366;-0.03355812;0.025361788;0.08615483;-0.0770045;-0.02030631;0.026653592;-0.039890733;-0.1524458;-0.10324561;0.11795587;-0.05331301;-0.013465915;0.014868934;0.087806925;-0.08450147;0.0028223789;-0.027159574;-0.024452135;-0.10326853;-0.14270644;-0.018962225;-0.044470534;0.024352081;-0.092587635;-0.032897178;-0.024240075;-0.025280261;0.1868467;-0.015363017;0.05303864;-0.024264636;-0.1089931;0.014432848;0.04410488;0.04757835;0.039252307;-0.09250157;0.031457607;0.019203419;-0.0862324;0.0065132882;-0.103658564;0.054742627;0.0062466427;-0.10034759;0.043331485;-0.062350173;-0.10475597;0.014896207;-0.011184815;-0.05655993;-0.061166275;-0.09710153;-0.12961698;-0.04612191;0.028535675;-0.067093775;-0.11371556;-0.010708502;-0.043657374;-0.012521554;0.027331978;0.021520013;-0.094151236;-0.022902435;-0.087196946;-0.07962291;-0.051295962;-0.023904223;-0.051178906;-0.016142638;0.062210895;-0.07841567;0.012814929;-0.041666012;0.016039213;0.019429801;0.056496035;-0.10481762;0.02761354;0.016439267;0.024517676;-0.1167821;0.030401403;-0.050056487;-0.039801806;-0.004178256;-0.1398093;0.022708872;0.0877533;-0.00058098836;-0.118829116;0.038016632;0.027567161;-0.08137716;-0.033075694;-0.09036383;0.051476344;-0.10490416;-0.08970281;-0.059655473;-0.07000975;-0.067372076;-0.03797838;-0.04406619;-0.08568307;-0.07791212;-0.05647129;-0.09514528;0.037461698;-0.016710443;0.012312476;0.073456794;0.026307717;-0.04601435;-0.07624925;-0.11999312;-0.23913129;-0.05613778;-0.033767637;-0.003107108;0.04976232;0.09480427;-0.0106148375;-0.08094245;0.054446716;-0.045806084;-0.11078386;-0.093922146;-0.0766583;-0.061913867;-0.044740234;-0.03950569;0.020380745;-0.027624605;0.0472275;-0.0050939084;-0.017145112;0.04604279;-0.014081383;0.05607168;-0.08027373;-0.07873144;0.062238213;-0.024741497;0.031301573;0.028713368;0.080944166;-0.10336732;-0.061596174;0.024190394;-0.1120078;0.034802727;0.06349999;0.022692487;0.024960164;-0.12908335;-0.03208228;-0.10207387;-0.0058416883;-0.01154675;-0.07209095;-0.0909361;-0.016460821;0.019959899;0.026850665;0.046048366;0.0067602904;-0.084824875;-0.07183442;-0.06642755;-0.045190252;-0.028838638;-0.08419626;-0.10687565;-0.03667686;-0.09674899;0.062091123;-0.072024755;-0.123294264;-0.100955956;0.024345322;0.014245883;0.07794564;0.050466653;0.060912065;0.09715049;0.014854147;-0.076648;0.027429584;-0.06817753;-0.05390322;0.014956997;0.039556917;0.008608469;-0.10343414;-0.071005374;0.053396087;-0.017193213;0.028780527;-0.10540877;-0.09292564;0.0073616505;-0.09919412;0.04231041;0.16722062;0.054850366;-0.004545986;-0.005116954;0.045378212;-0.10471866;-0.09919744;-0.070257574;-0.04728271;-0.020703709;-0.06472916;0.054464262;-0.039669964;0.05273896;-0.015803892;0.015164156;-0.06182944;0.15355136;0.03889216;-0.05693358;0.04698445;-0.017814802;-0.07222228;0.003179409;-0.001434268;-0.041335486;-0.08756867;-0.09975674;-0.07608203;-0.10752006;0.096922256;0.014117348;-0.113085054;-0.11864647;0.14320731;-0.020080289;-0.003794317;0.10575291
-0.0042863367;-0.016114527;0.044282187;-0.029830672;-0.12638426;0.01569509;0.06794463;-0.054162752;0.04368872;0.0008082281;-0.12168513;-0.03759023;-0.020134479;-0.08582209;-0.04881569;0.03497378;-0.028721021;0.11370246;0.017624177;-0.02292765;-0.029542318;-0.04845793;-0.009991993;0.11686439;0.024803124;0.023265483;-0.055403184;0.022078624;0.12106695;0.01776776;-0.046925724;-0.070469186;-0.030558193;-0.0961345;-0.042238075;-0.13090886;-0.02462791;-0.11277319;0.00016068475;-0.022914592;-0.07726537;0.027106475;0.08695889;-0.106573306;-0.0035803453;-0.044849176;0.099907085;-0.06792284;0.05831828;-0.027260829;-0.03769806;0.010432936;-0.0063707326;0.07201803;-0.04727688;-0.08793822;0.018621173;0.046831556;0.024290906;0.04189598;-0.13055408;-0.0395743;0.010098439;-0.1199651;0.021757253;-0.062131405;-0.040960867;-0.05872558;0.08111859;-0.06641567;-0.053649887;-0.00510209;-0.10044722;0.025645085;0.18581948;0.030169453;-0.07215317;0.015340684;0.0146453725;0.18167298;-0.019112054;0.0205224;-0.17176089;0.025306046;-0.15664056;-0.037943248;0.040766764;0.17378777;-0.05198278;-0.10437001;-0.07276685;0.009334665;-0.09620483;-0.112932876;0.03464408;0.015923385;-0.011072359;0.07482475;-0.053246576;-0.07298889;-0.017257627;0.024443438;0.03449133;-0.0769538;-0.058774978;0.01663188;0.018000351;-0.07125239;-0.07456296;-0.053522088;0.039976276;-0.07870985;-0.023743423;-0.060066447;-0.06200246;0.0001993765;-0.07412341;-0.06531978;0.048968263;-0.021766163;-0.0641949;0.031910162;-0.054722354;-0.060359992;0.0070121414;0.021281475;-0.086199135;0.026217239;-0.0909537;-0.057038885;-0.050565574;-0.03832682;-0.07606824;-0.024241608;0.011845531;-0.026630687;0.018647771;0.097397305;-0.05812324;0.030167034;-0.010204094;-0.08063613;0.04473886;-0.019001791;0.0256821;-0.0055343504;-0.008768566;-0.021459099;-0.04012639;-0.10770626;-0.016928213;-0.085194804;-0.011251369;-0.060523726;0.03231263;-0.06656608;-0.044990815;-0.06305034;-0.08534654;-0.00027680668;-0.090479076;0.038770657;0.015639408;0.06348308;0.10213199;-0.06799881;0.084457815;0.07506076;-0.0029677975;-0.09304375;-0.0029040384;-0.09469762;0.03192012;0.0063059134;-0.039824095;-0.11727503;-0.091400854;0.00027350703;-0.059610844;0.051013056;-0.017890014;0.020332024;-0.05293371;0.11529119;-0.07905235;-0.00270382;-0.0026044305;0.013288436;-0.05955334;0.0029800576;-0.06605067;0.047777634;0.027813444;-0.015108872;-0.033591814;0.08632274;-0.016950525;-0.041304506;-0.07646732;0.159366;-0.056334917;-0.043472774;0.006336644;-0.0046735955;-0.011454973;-0.07882295;0.021451706;-0.06740261;0.0009919446;-0.097068526;-0.08341897;-0.09630343;0.05356627;0.10636632;-0.07269197;0.11985856;0.1481204;0.011830289;0.06474154;-0.0039241235;-0.080971606;0.028192155;0.008613933;-0.028510835;-0.045786165;-0.04268667;-0.0139850825;-0.08797734;-0.13191117;-0.0091934055;-0.023537776;-0.091639794;-0.053548258;0.101330966;0.03411195;-0.14477356;-0.010622647;0.05347699;-0.10561171;-0.14714323;-0.03804007;0.06283034;-0.053249937;-0.065908104;-0.04301685;-0.092380054;-0.13888997;0.009192042;-0.028623333;0.008616968;-0.014794702;-0.008266754;-0.10651827;-0.011726282;-0.084787406;-0.0056268983;-0.11077596;-0.04809267;-0.012023768;0.15213256;-0.034596276;-0.10835244;-0.03454679;0.032579765;0.02954242;-0.024481695;-0.09202282;-0.0148089435;0.10967504;0.0309562;-0.012926737;-0.016149564;-0.019891994;0.008099039;-0.09324701;-0.07726251;0.09852369;-0.007814899;-0.03149397;0.04334124;-0.12558512;-0.098728165;-0.0749105;-0.009692941;-0.0923887;-0.060210306;-0.015960637;-0.040887173;-0.08745766;-0.10858342;0.087261744;0.009639;-0.04333581;0.046712767;-0.02367162;-0.03071086;-0.104242586;0.009184506;0.027752217;-0.06000927;0.05754737;-0.012627274;-0.16126092;-0.033182528;-0.026197318;-0.00281938;-0.113480315;0.0346351;0.0014409438;0.019001793;-0.07547056;-0.03885881;-0.11913229;0.09131963;-0.033160202;0.027038408;-0.017656459;-0.04882238;0.017310305;0.04055493;-0.036991496;0.10185421;0.030832099;-0.08326974;0.04442145;0.05105326;0.074330255;0.0068762265;-0.08104521;0.03691864;-0.074913196;-0.04195002;-0.048440114;-0.06336614;-0.043857306;0.015752845;-0.035341833;0.010200955;0.0050340183;-0.031003047;-0.042250037;-0.08450932;0.022963436;-0.022051672;-0.082728595;0.043660346;0.041361075;-0.0006982498;0.031402484;-0.087261066;0.028760042;-0.09374687;-0.1244594;-0.06621176;-0.029685814;0.036581468;-0.023231907;-0.08708728;-0.009995785;0.036563832;0.17733848;-0.030549394;0.022269636;0.014226756;-0.11330922;-0.039307043;-0.0019393195;-0.035876006;-0.0038277502;-0.10737532;-0.017419469;-0.116081625;-0.008282253;-0.0025634982;-0.06524148;-0.070396364;-0.026598774;-0.14599913;-0.09844731;-0.014505224;-0.0693202;-0.065250665;-0.08036361;-0.06134854;-0.06847885;-0.042863052;-0.027283615;0.026570879;-0.085356876;0.021233004;-0.025174461;-0.028129919;-0.04375318;-0.09041699;-0.08891287;0.08373972;-0.004683297;-0.09418928;-0.013562839;-0.07229607;0.022065545;-0.112028725;0.0290395;-0.14186494;0.06964981;-0.07055447;-0.05461968;-0.035455823;-0.0736457;-0.025140686;-0.08180475;-0.0705423;-0.01083555;0.061942115;0.00050618115;-0.108266704;0.02132881;0.040800568;-0.0638384;-0.09100207;-0.0020187744;0.06450797;-0.0017519146;0.0016374892;-0.07415134;0.02483318;-0.03353172;-0.06171273;0.05558831;0.049116626;0.02364;-0.060977165;-0.052485112;-0.009457344;0.022160312;0.035881884;-0.001118586;0.062754214;-0.0032511286;-0.093837194;-0.003777002;-0.024671834;0.017593319;-0.12119437;-0.06260083;-0.039142415;0.016019909;-0.012330707;0.033380684;-0.106543854;-0.2044067;-0.0482419;-0.008037476;-0.09525151;-0.037431736;0.02587789;-0.15134437;0.03111746;-0.10980276;-0.09996013;-0.032161064;-0.040218465;0.045252316;-0.0020636509;-0.101203896;-0.054572776;-0.092067294;0.007329543;0.11929582;-0.124086864;-0.06239361;-0.076170035;0.023604013;-0.021351112;0.02658271;-0.09846;-0.10353246;0.0041535087;0.0038400544;-0.026705036;-0.043821942;-0.075380445;-0.106302634;-0.10380031;0.05863427;0.019848866;-0.0120965;-0.06929412;-0.0007659556;-0.09911068;-0.07858941;0.00037338023;0.04477868;-0.114182755;-0.11611398;0.01701311;0.011253015;-0.051669363;-0.107834734;-0.0001480614;-0.05431512;-0.09231852;-0.04841234;-0.08106576;0.008903395;-0.013580114;-0.1381821;-0.18033081;-0.039282672;0.0808646;0.12056643;8.411215e-05;0.025431788;-0.15903282;0.018140534;-0.025401065;0.06796148;0.04052569;0.05740001;0.0055300444;0.009236647;-0.08180422;-0.06780901;-0.08974226;-0.039607327;-0.09305159;0.024354892;-0.026726529;-0.13362212;-0.021392034;0.01434663;-0.09938629;-0.0001668731;-0.074988335;0.040956575;-0.06725077;-0.10523286;-0.11904089;0.052319307;0.06292145;0.045072623;0.016427409;-0.08377217;0.004372905;-0.052425873;-0.026843578;-0.0019784945;0.08435455;0.062343314;-0.06419124;-0.069115736;0.0045682136;-0.07816856;0.053675383;0.042908292;0.09633086;-0.086632565;0.031401627;-0.084930755;-0.027113574;-0.01024222;0.038414154;-0.169504;-0.12193579;-0.1111983;0.020217441;-0.0059459815;-0.051516514;-0.020772547;0.0259037;-0.05720695;-0.07179776;-0.03624434;0.011762998;0.024075398;0.0017988693
0.008074302;-0.1336374;0.0055182693;0.105904;-0.1456323;-0.03822778;-0.02942056;0.067051426;0.05333904;0.009501459;-0.09814928;0.05210383;-0.03371612;-0.093429044;0.020597441;-0.059330035;0.012042458;-0.0021870334;-0.04907232;-0.06353887;-0.023606353;-0.07319343;-0.071863316;0.14154916;-0.04996262;0.008389466;0.046514444;-0.07463368;0.05658621;0.030155893;-0.15423599;-0.046218988;-0.05226334;-0.04786397;-0.09255727;-0.028447727;-0.064538345;-0.07543431;-0.09298378;0.05920993;-0.0900303;0.06395049;0.057795595;-0.011606127;0.08092567;-0.001484586;0.0221509;0.0032208567;0.20111912;-0.11567444;-0.034533236;0.062377412;-0.008239174;0.046879966;-0.028006837;-0.04016564;-0.124958605;-0.07920256;-0.040772423;-0.06635393;-0.101638466;-0.014340144;-0.022936488;-0.084874034;0.018760508;0.055759247;-0.0042931973;0.037199736;-0.039659686;-0.082968354;-0.16664165;-0.06629521;-0.10574914;0.021023644;0.064025044;-0.084515765;-0.043105822;-0.06707981;-0.008788317;0.04643086;0.011300065;-0.010929829;-0.045935303;-0.0058646477;-0.053088356;-0.091058224;-0.067778744;0.14795455;-0.0026188944;-0.11143172;0.04110279;0.04026534;-0.1162143;-0.011821071;-0.046250876;0.024746422;-0.10878657;-0.07316878;-0.04123686;-0.0067556724;0.108599454;-0.08758639;-0.13178527;0.008570192;-0.079970375;-0.097907126;-0.05995153;-0.03419767;-0.06330317;-0.022449296;0.054772854;-0.036969665;0.042152017;-0.016311508;-0.067975044;-0.05835012;-0.0015363958;-0.13359807;0.06649089;0.03865333;0.030739278;-0.08293491;0.003197923;0.0365625;0.041194875;-0.10291801;-0.08986605;0.045293123;-0.12415368;0.02633036;-0.023332607;-0.011633416;-0.081535324;0.0016292208;-0.021900238;-0.04204682;-0.10750578;0.07503852;0.032562196;-0.056247193;-0.041671894;-0.05123022;-0.047815196;-0.039520074;-0.046226643;-0.0851085;0.0552486;-0.073933914;0.09985638;-0.11223802;0.0392705;0.028870828;-0.11964556;-0.048922915;-0.07290866;-0.049296856;0.0026901634;0.068140596;-0.05658862;0.044571158;0.05041415;-0.051293056;-0.059186;-0.006301665;0.11674977;-0.017743135;0.0013838916;0.045387473;0.055748902;0.027998801;-0.02326105;-0.04812739;0.0047938093;-0.0774594;-0.011413766;-0.09102727;-0.09651999;-0.09180226;-0.04807819;-0.043079972;-0.09393801;0.09605748;0.0044632214;0.12566017;-0.07251271;-0.05895973;-0.0042258664;-0.09419704;-0.105291344;-0.05614432;0.006605692;-0.05511733;0.072414964;-0.02465681;-0.04921859;0.042286877;-0.032733336;-0.090963975;-0.0897886;0.15358545;-0.06811095;-0.0076481537;-0.0061508105;0.025455123;-0.057867188;-0.11994535;-0.035384398;0.056166347;0.01061676;0.0706415;-0.0046961596;0.024976365;0.0882278;0.076419376;0.03162866;0.065193094;0.20770027;0.03460001;0.0022891653;0.042672098;-0.029299092;-0.006278676;-0.010294433;-0.11076263;0.007709265;-0.00028590643;-0.057201024;-0.14406307;-0.12056281;0.025930062;-0.03307612;-0.057305735;-0.006523429;-0.0025973371;-0.02236;-0.14723445;-0.050768062;-0.0840375;-0.0064117145;-0.09115331;0.07017151;0.055512257;-0.0531294;0.025396893;-0.0012022452;-0.012245318;-0.15663113;-0.0071696807;0.028188523;-0.05200363;-0.026171954;-0.061361376;-0.08375524;0.05228026;-0.007842561;0.07424996;-0.013076608;-0.0417408;-0.072030574;0.010768478;-0.077892736;-0.046907675;-0.11087909;-0.030396422;0.0075357733;-0.06857154;0.010818087;0.011077315;0.058281828;-0.09324084;-0.042710096;-0.06881725;-0.02017602;0.013914204;-0.002585003;-0.092578426;0.00017536666;0.029891673;0.021551456;0.09146127;-0.07859216;0.02433844;-0.0441436;0.011262343;0.017187305;0.075886235;-0.014883577;-0.12702854;-0.023533203;-0.055171225;0.054384254;0.11398557;0.008861856;-0.088772476;-0.15651928;0.004624784;-0.064102024;-0.10844694;0.033282544;-0.0069885333;-0.076309785;-0.055469256;-0.1678263;-0.017149946;0.021419685;-0.03495597;-0.11037694;-0.07865898;0.047638122;-0.0037812986;-0.041918132;-0.11579986;-0.057644103;0.02740451;0.05925335;-0.09887998;0.017896077;-0.0611458;-0.07917853;-0.07611634;0.045267206;-0.029138962;0.01798832;-0.1485293;-0.062212724;-0.10621349;0.026641555;-0.09594603;-0.069499195;-0.0007013401;-0.053394698;-0.022069996;-0.0011758942;-0.106269;-0.031643517;0.026667701;-0.06890147;-0.0018334559;0.010761994;-0.031267878;-0.04110526;-0.092738986;0.08043841;-0.082192466;0.019289013;0.027484888;0.023429397;-0.08780559;-0.102526344;-0.046190917;0.013774555;-0.08603041;-0.09221341;-0.07267739;-0.122597374;0.005254302;-0.06490051;-0.012720864;0.014669936;-0.04455435;0.087949775;-0.05830276;0.073175766;-0.054696474;-0.02842653;0.016683316;-0.038758304;0.025902994;0.028195182;-0.050707947;-0.036037333;0.028582923;-0.052590914;0.035030983;0.038582794;-0.097639926;-0.07654236;-0.061147388;-0.016883653;-0.03656097;-0.0129307695;-0.06666191;0.056554124;-0.009940977;0.024487792;-0.05589702;-0.06972184;0.00026520813;-0.030548954;-0.027299942;-0.02077385;0.07261424;-0.012879175;-0.019264696;0.0129609555;0.051721226;-0.03072705;-0.011271763;-0.024391947;-0.057989724;-0.026815182;-0.050539218;0.06288373;-0.007969911;0.043307174;-0.07796043;-0.07501176;0.007791103;-0.09664023;-0.0038831546;-0.013859043;0.02625257;-0.020273037;0.054041006;-0.033510022;-0.006301317;-0.020586079;-0.016272742;-0.078550816;-0.042150263;-0.0020387836;-0.021589112;0.08118318;0.029890485;0.0007847449;0.022733843;-0.05405792;0.030119434;-0.05906948;0.069739245;-0.055056874;0.054849215;0.012837299;-0.10096802;0.059478663;0.027222544;0.004738524;-0.03345485;-0.087935425;-0.025496503;-0.10329648;0.041873425;0.02538574;-0.04616092;-0.023448797;-0.017566413;-0.10640681;0.0039387243;-0.10118536;-0.10685557;-0.17968366;0.016686633;-0.0730055;0.0068034492;-0.014127913;0.09366465;-0.017482642;0.045426536;0.03650932;-0.0030069835;-0.00646305;-0.08353793;0.0025683683;0.006044615;0.05221769;0.052686665;-0.008862039;0.042959783;0.058031693;-0.07236365;-0.06372282;-0.06434635;-0.05956063;0.003898653;0.002761642;0.038305257;-0.09754819;0.053242527;0.049374837;-0.04069182;-0.06716933;-0.033229873;0.03400675;-0.02196383;-0.015250397;-0.047040623;0.021214498;-0.036499493;0.0071594757;-0.07339336;0.020924438;-0.011653881;-0.00745052;-0.11976241;0.02812068;-0.081887625;-0.046189185;0.07516674;-0.04835291;0.043579288;-0.03533527;-0.03309397;0.040674433;-0.031417154;0.012905838;-0.021675188;-0.094090335;-0.15671423;-0.18036453;0.077434756;0.09352787;-0.09316193;0.049130928;-0.04532964;-0.047899622;-0.044877823;-0.039135996;0.0533287;-0.09946043;-0.014425331;-0.10246147;-0.0072179763;-0.061384212;-0.071945384;-0.079037905;0.004525058;0.05196319;0.024194743;-0.118324995;0.012632774;-0.018982721;0.017108703;-0.077616215;-0.06107983;-0.021895815;-0.0083838655;-0.10327631;-0.0606233;0.14438003;0.05713668;-0.0026254456;0.018398464;-0.1239056;-0.035439838;0.011696739;-0.09743466;0.06700244;0.051237248;0.022550015;-0.078742854;-0.08332478;-0.10700431;-0.09388495;-0.061685897;-0.04698314;0.12937361;-0.0975738;0.063784815;0.0573786;0.038963072;-0.0019577371;3.7368804e-06;-0.03994083;-0.11190328;0.026709966;0.001368842;-0.09151397;-0.13640538;0.03298724;-0.0064795977;-0.0958603;-0.052031543;0.066275336;-0.05959929;-0.056310955;0.014482545
-0.12432452;-0.0076480345;0.040301763;-0.026440915;-0.04912394;-0.08516776;-0.054440815;-0.07707834;0.03214295;-0.020054141;0.0053397417;-0.042166147;-0.11004691;-0.052987337;0.037751134;-0.026523216;0.028093744;0.113274515;0.01715797;-0.098125555;0.026183104;-0.049892094;-0.097993605;0.12370194;-0.087122425;-0.07404653;-0.05331206;-0.09724205;0.1477242;0.015198398;-0.05631706;-0.024996947;-0.03701074;-0.011117721;-0.04765141;-0.10959382;0.007855231;-0.07803661;-0.03023483;0.059758063;-0.09455287;-0.033147365;-0.0325627;-0.051411238;-0.08149921;0.058471587;0.07684723;-0.068965934;0.1598931;0.013226162;0.01645292;-0.044327084;-0.07073043;0.003130851;0.061423954;-0.06225081;-0.0322591;-0.04683432;-0.019825764;-0.07014656;0.028481511;-0.11598471;0.04820219;-0.13499261;-0.0033402832;-0.06594465;0.043371964;0.032776527;0.04206878;-0.015841454;-0.023147484;-0.034478303;0.046889905;-0.052368116;0.04864631;0.026598044;0.01435112;0.0067910505;-0.06842148;0.036996946;-0.055345714;0.062042393;-0.13980173;-0.05173828;-0.18351367;-0.06975221;-0.00059033936;0.12536629;-0.073567905;0.03179241;-0.008670734;-0.07253117;-0.124754265;-0.1291475;-0.035515834;-0.09327346;-0.022867464;-0.02235453;-0.079449445;0.048677813;-0.013523166;-0.022630367;-0.1382229;-0.03333035;-0.031273216;0.018597618;0.04638221;0.009921247;-0.08838365;-0.14703393;0.06212004;-0.13963684;-0.06230763;0.023505138;-0.020463735;-0.034222085;0.012969994;-0.13059726;0.06571597;-0.08696427;0.026015164;0.037312225;0.086880505;-0.07794481;0.00560417;-0.09178301;-0.14609545;0.046554178;-0.08035065;0.012261362;-0.06650028;0.018971184;-0.00303393;-0.02772652;-0.07311295;-0.056874912;-0.033312272;0.08547684;-0.03096324;-0.033920262;0.026526524;-0.018606441;0.029127454;-0.07908291;-0.09401509;-0.094730824;0.0809541;-0.11624253;0.021144481;-0.07809629;0.019503735;-0.017327948;-0.10333996;0.0038675258;0.04184579;-0.05587727;-0.010728094;0.018753266;-0.083954394;-0.026308967;-0.063462526;-0.0849331;-0.0743727;0.034290098;0.044744126;-0.018280935;0.036634248;0.016827956;-0.055045437;0.009367464;-0.08687996;-0.03753872;0.083707005;0.053414736;0.0011316418;-0.07748762;-0.10508955;-0.104704745;-0.12761313;-0.0643011;-0.07180135;-0.05923087;0.014477838;0.064859256;-0.12004771;-0.10835864;-0.05746309;-0.029716024;-0.08986612;-0.041343674;0.041052997;0.056895453;0.07776262;0.012428909;-0.045780398;-0.045793425;0.03886978;-0.0732058;0.021455398;0.1367585;0.07271733;0.00060274586;-0.00721484;0.01314171;0.045408875;-0.0009827049;-0.098718874;-0.0059628813;-0.11015812;-0.030076846;0.060533285;0.045445815;0.14528131;0.05183122;-0.057108823;0.06537475;0.26770553;0.073996134;0.0129276635;-0.057889417;0.012759126;0.0112711135;-0.043036766;-0.10721586;-0.09299412;-0.012526972;-0.07697106;-0.070092015;-0.0041990317;-0.10511898;-0.09559246;0.059029467;-0.12384935;-0.013765284;-0.024732044;-0.027415384;0.05848541;-0.0033902877;-0.083401196;0.0012666156;0.08310407;-0.023736784;-0.056159366;0.034622032;-0.077893704;-0.008234407;-0.15418154;-0.031382218;-0.06700593;0.042578377;-0.03100561;0.009599977;-0.0041303188;-0.0941875;-0.061882183;0.050627176;0.043687228;0.050645694;-0.024612824;0.049164653;0.05189853;-0.068584345;-0.029370934;0.03935933;-0.0076181046;-0.0064654066;-0.04827463;-0.007766267;0.020725;-0.098832846;-0.008594945;0.036339775;-0.10012443;0.09168706;-0.082148135;-0.1134461;0.093356356;-0.040365938;-0.071514666;0.07045082;0.0461613;-0.044547535;0.062338937;-0.02278322;-0.06667991;-0.045200158;0.055338815;-0.098827064;-0.028748808;-0.0059410883;0.0071988767;-0.009659671;-0.00033352885;0.036358744;-0.053343143;0.048323546;-0.030339831;0.045277018;-0.11086967;-0.057696097;-0.06540812;-0.04744231;-0.106082685;-0.046248905;0.010319334;-0.112605184;-0.10840811;-0.05640324;0.05001513;0.06623257;-0.036047436;0.0052128998;-0.065118924;0.045236107;0.07756784;-0.10308801;-0.05108093;-0.118855536;-0.031394564;-0.010954059;-0.0033153996;-0.03463188;0.0037690585;-0.0538536;-0.088791326;-0.0671917;0.05012483;-0.11399766;-0.005239259;-0.11328395;0.055331383;-0.017326668;0.038091928;0.0058396044;-0.035256457;-0.078016646;-0.14084293;0.00084227213;-0.019635241;-0.025178513;-0.091134995;0.012944484;0.06172826;0.059045352;-0.04846652;-0.086997434;-0.013624833;-0.052148778;-0.04115741;0.03454163;0.0031084502;-0.021631615;-0.027726047;-0.09280151;-0.029788977;-0.061353557;0.018742628;0.043562796;-0.042381704;-0.057815835;0.14735223;0.0127706565;0.12539437;-0.0706342;-0.14932932;0.039577838;0.010789224;0.011746712;0.018688545;0.015049975;0.08648993;-0.044158045;-0.16471633;-0.02522812;-0.101628825;-0.042599335;-0.04427581;-0.038073998;-0.020270573;0.029298138;-0.020763366;-0.0029738713;0.03971062;0.015203458;-0.103579976;-0.021874616;-0.04969978;-0.05863479;-0.0726556;0.020008696;-0.033708286;0.03932127;-0.104014955;0.024308786;0.066646986;0.015650524;-0.0641737;-0.05888819;-0.047569875;-0.055535812;-0.034900997;-0.14628604;-0.02413446;-0.033168823;-0.032240566;0.025763582;0.06429248;0.03347827;-0.12994352;0.019785563;-0.057033762;-0.10968205;0.011911484;-0.08240678;-0.034457784;0.002008822;-0.009432629;0.010537565;-0.048860934;-0.09142631;-0.090999424;0.0513148;-0.014116256;-0.1038879;0.053215466;0.0855281;0.028645122;0.02306404;-0.0093207415;-0.0156043125;-0.02536072;-0.06822733;-0.11202902;-0.00096899265;0.00074096676;-0.10821476;0.044603314;0.06758185;0.049607843;-0.059201434;0.03298504;-0.09446872;0.02537967;-0.031967267;-0.09656187;-0.08526821;-0.067626595;-0.12919451;-0.04379815;-0.091600396;-0.21755663;0.019322291;0.016388698;0.014297718;-0.021755321;-0.055444937;-0.074322976;-0.012720252;0.042664804;0.0072769537;-0.10689206;-0.04331764;-0.029656023;0.031579465;-0.063004985;0.04059254;0.00010035954;0.059228152;0.09494873;0.0025117341;0.0053749266;-0.07303594;0.009289857;-0.06242103;-0.025414245;0.014715279;0.0344096;-0.10378489;0.05282446;-0.06818162;0.055209648;-0.03770393;-0.065344505;-0.07787602;-0.06799683;-0.01334096;-0.034490425;-0.034365308;-0.025913289;0.0065547763;-0.013098429;-0.08197433;-0.08176682;-0.10664272;-0.10799191;0.030051885;-0.11385683;0.05667884;-0.10929;-0.028544405;-0.049141396;0.018640699;0.08060575;-0.0033708524;0.02679696;0.08883469;-0.04035443;-0.12575817;-0.1115409;-0.067046225;0.0015788439;0.013944305;0.01231081;-0.16362602;-0.031921834;0.0045634173;0.03906426;-0.081967756;-0.05116138;-0.0775782;-0.03610572;-0.027637351;-0.06488213;-0.03260967;-0.06437155;0.02666729;-0.040831357;0.017415445;-0.09855989;0.05278164;-0.067904085;-0.0041692276;-0.09319708;-0.02936557;-0.042130865;-0.10218195;0.013855693;-0.08750466;0.14199246;0.004199369;0.06763987;0.082491346;-0.03981186;-0.09812717;-0.02639507;-0.024037356;0.06763643;0.036153816;0.08104683;-0.0908327;-0.08115393;-0.0711181;0.016232269;-0.10175844;-0.009937701;0.024149159;-0.100995675;0.047457986;-0.0053346814;-0.020892736;0.002799845;-0.06643132;-0.08067777;-0.047819585;-0.07695063;0.007934001;-0.006599498;-0.11282436;-0.028887428;-0.060850214;-0.107405506;0.014826473;0.085032225;-0.11648478;-0.08153457;0.09719983
0.012123021;-0.07961353;0.01636234;-0.01133433;-0.122667395;0.010876851;-0.05422948;-0.011352054;0.058447372;-0.08815439;-0.0739633;-0.036655273;0.035436027;-0.018437492;-0.0104943365;-0.04717501;-0.058781564;0.06829646;-0.06609224;-0.07921135;-0.016404036;0.0376625;-0.049697362;0.16191761;0.022431506;-0.019397061;0.040122766;0.008617239;0.06432021;0.03681453;-0.021223305;-0.036185376;0.02340754;-0.038206913;0.039285902;-0.06588792;-0.113172986;0.019087754;-0.04857857;-0.026559833;-0.094987676;0.062608235;-0.077371344;0.03111684;0.08509716;0.010418305;0.04974983;0.043539252;0.056967147;-0.080755495;-0.067526795;0.06482645;-0.077872306;-0.09555861;-0.010929795;0.04720026;-0.07318561;-0.00034493738;-0.035425935;-0.10556401;0.018046955;-0.06892504;-0.06909816;-0.0033364433;0.019260054;0.07115029;0.020541817;-0.046699684;0.051595997;0.028934084;-0.050003815;-0.12160924;-0.06048348;-0.095098265;0.07129882;-0.03704249;-0.1129341;0.024922304;-0.033815287;0.12930453;0.033277173;-0.08869637;-0.1866139;0.041394882;-0.1311752;-0.03571312;0.014271058;0.20538169;-0.08592204;-0.044643458;-0.036095247;-0.09108895;-0.029256862;-0.050228022;-0.053005014;-0.09881417;-0.065098405;0.05424298;-0.019934803;0.015181966;0.040785965;-0.057955574;-0.059894014;-0.072416835;-0.0039730566;-0.025411755;-0.013006704;-0.08555214;-0.07568168;-0.076621905;-0.045211457;-0.066794574;-0.05978453;0.01320342;-0.113396555;-0.054105602;-0.08573032;0.036944598;-0.052191995;0.04591447;-0.047706183;-0.042815823;0.0055015604;0.02111117;-0.07090977;-0.079391286;-0.20295629;0.000677781;-0.010657133;-0.04167128;-0.119620286;-0.06408328;-0.04605932;0.04005689;-0.050387867;-0.09146213;0.010124991;-0.008889511;-0.017305;-0.11533649;-0.083320074;-0.08526619;0.03279704;0.0035751904;-0.009679963;0.0037684967;0.05429555;0.015597133;-0.00577211;-0.0056004864;-0.011245927;-0.078518406;-0.095897004;-0.12305849;-0.066357486;-0.010145586;-0.078808315;-0.09865001;-0.041733842;-0.0876498;-0.016905935;-0.075713664;-0.015263262;0.058837004;0.10325105;-0.11603691;0.037509527;0.05120832;0.028470175;0.019281367;-0.017093461;0.034631494;-0.061135612;0.057924416;-0.070357665;0.042115968;-0.114567444;0.0132523;-0.022281362;-0.103591025;0.007909382;-0.042281292;-0.052120928;0.03851293;-0.046259068;-0.06689554;-0.018613217;-0.07735058;-0.046147868;-0.021079512;-0.07431344;-0.024979016;0.14099205;-0.13055554;0.011138867;0.039347496;0.018822912;0.029710257;-0.004844205;0.10450802;0.03902395;-0.065852575;0.0032363415;-0.027054094;0.06950196;-0.0885219;-0.0160962;0.060804784;0.0099453535;-0.06749583;0.008682598;-0.106099464;0.038279317;-0.01621038;0.037241362;0.06355362;0.20862925;0.038061783;-0.044007875;-0.109995365;-0.00095028884;-0.03728747;-0.089267835;-0.046081726;-0.09513772;-0.09201053;-0.020646967;-0.11739867;-0.09179153;0.007101597;-0.013935427;-0.060471397;-0.10242194;-0.038513176;0.023157353;-0.0332891;-0.058484297;0.018936016;-0.04730294;-0.06608932;-0.075460464;-0.047306925;0.048740216;0.04230381;0.053144306;-0.028486667;-0.12856036;-0.022980252;-0.075964265;-0.108262405;-0.05550607;-0.025499376;-0.025007801;0.0007511985;-0.054277357;-0.06628275;-0.13161063;0.018058345;0.036907803;0.1298044;-0.048315898;-0.03732207;-0.029659418;0.044751875;-0.04715909;-0.07843475;-0.026636012;-0.07896914;0.09545107;0.009968644;0.04748472;0.020792268;-0.0005765958;0.06789273;-0.11579235;-0.06625696;0.092579976;0.036900915;-0.04020606;-0.028939761;-0.09815211;0.03908991;-0.10125612;-0.009217715;0.020762222;-0.08019077;-0.011204163;-0.071321;0.072716944;-0.05123364;-0.08044524;0.053723946;-0.09742227;0.04489279;-0.015570293;0.051762123;-0.077177964;-0.050552115;-0.0746338;0.015914343;-0.037598766;-0.080131374;-0.15090391;-0.075152695;0.04759799;0.003735865;0.0076009;-0.0073099774;-0.081449896;-0.05243436;0.0064576385;-0.11458288;-0.0031619123;0.04070639;0.011142914;0.041555014;-0.007653139;-0.007746236;0.040016126;0.03766722;0.039729107;0.07927953;0.041642;-0.06482343;-0.019024087;0.056182034;0.009981027;0.015453054;0.0169995;0.042338364;-0.059833694;0.05606895;-0.04452558;0.021981368;-0.07478585;0.038318437;0.023652866;0.013684852;0.0067541404;-0.085211605;-0.028108707;-0.10473442;0.14307807;-0.011161115;-0.008519765;-0.08107044;0.07163134;0.036179107;-0.048092578;-0.044039164;-0.0022592386;-0.058067884;-0.008476983;-0.0042235916;-0.0801003;-0.020559581;-0.015363742;0.018472241;-0.03893102;-0.08257115;0.046284962;-0.055334438;0.12767716;-0.100042984;-0.06430245;-0.10526754;-0.01182189;-0.04186932;-0.10212248;0.0006307156;-0.0046230955;-0.06760855;-0.030431354;0.004297371;-0.028891198;0.0008295421;0.04061697;-0.06592474;-0.092554696;-0.064986266;-0.099309064;-0.0050307484;0.017660476;-0.08937928;-0.095826134;-0.06869858;-0.058053125;-0.10446013;-0.092614934;-0.026566701;-0.1140331;0.07853846;-0.030476855;0.05536858;-0.042438515;0.063291036;-0.040180366;-0.06958162;-0.03826219;0.0421865;0.013434269;-0.13647403;-0.0945076;-0.07777434;0.1067899;-0.010159649;0.054568335;-0.0013489455;-0.04695709;-0.08750439;0.06020209;-0.09837648;0.004574701;-0.036610775;-0.07728121;-0.10488214;0.016276535;0.04466931;-0.043192875;-0.015265933;-0.055122644;-0.024680631;0.05381758;-0.038280003;-0.018312627;0.12506114;0.054231357;0.035360347;-0.070175126;-0.012287654;0.050576095;-0.024019325;-0.041697543;-0.09654269;-0.08418922;-0.094206095;0.037316263;-0.040987562;-0.081683025;-0.0061508566;-0.003502203;-0.07924817;0.009784727;-0.07176092;-0.0632798;-0.091255724;-0.104340315;0.016931174;-0.040842444;-0.062680386;-0.23480588;0.004569633;-0.013101835;-0.06908888;0.1001193;0.010209931;-0.061114676;-0.13076274;-0.10183396;-0.08215477;-0.043158125;-0.08267054;0.02665109;0.09353367;0.013398563;-0.042818174;-0.060044713;-0.112843804;0.015075388;0.0057346635;-0.033054803;-0.040389434;0.071132444;0.085975185;-0.017705617;-0.08998376;-0.022388529;0.009314387;-0.006270714;-0.083608516;-0.0354596;0.021269908;-0.037635323;0.03689409;-0.064705186;-0.09659464;0.055422194;0.01097625;-0.008858825;-0.0751143;-0.004991039;-0.012778307;-0.068684146;0.026308132;-0.0098202545;-0.07412181;-0.09487191;0.051258355;-0.07655294;0.01429673;-0.09569155;-0.002046287;-0.020039538;-0.0031171893;-0.027056491;0.016498733;-0.10505087;-0.15999727;-0.121015765;-0.08367082;-0.029422237;0.019896336;-0.048345946;-0.19561826;-0.07686908;-0.0041877045;0.08186;-0.08259539;0.034125697;-0.037217576;-0.06955661;-0.051669;-0.017622003;-0.04737424;-0.08793105;0.009009196;0.063280284;-0.053562026;-0.004374452;-0.061658707;-0.09071859;-0.0738995;-0.055018224;-0.03417834;0.00082213053;-0.08512504;-0.048224695;-0.0621793;0.12148379;-0.029645406;0.012544642;0.024932813;-0.048838984;0.01741492;0.038995616;-0.02644925;-0.06511478;-0.034232453;0.09792533;-0.07995233;-0.070075266;-0.08195139;0.01804909;-0.060340233;-0.014347767;0.14806412;-0.018894108;-0.039236944;-0.02466271;-0.05112031;0.0038851874;-0.07774052;-0.09095278;-0.07927565;-0.061133046;0.009602248;-0.047870673;-0.13293888;0.07311949;0.004281287;0.032237977;-0.026327522;0.069888316;-0.11513971;-0.09363229;-0.048004486
-0.07202477;-0.14938486;-0.01096002;0.041982;-0.20082608;-0.017284805;0.03892845;-0.025666183;0.09850843;0.023954097;-0.013970441;-0.095762365;-0.06584621;-0.07799257;-0.07156265;-0.0061891284;-0.068092324;0.119574785;-0.10005602;-0.030658366;0.026290342;-0.033038154;-0.060428564;0.16145545;-0.07845346;-0.008126004;-0.06910477;-0.09242575;0.0761716;-0.06825877;-0.09633348;-0.09934724;-0.041436907;-0.0776732;-0.07328573;-0.017161932;-0.10193804;0.002009786;0.047533587;-0.016992288;-0.039285574;0.07536107;0.028660761;0.015850704;0.0431423;0.04903077;0.024187878;-0.08212981;0.15841278;-0.026927985;-0.06517503;-0.070502706;-0.10812435;0.042226046;-0.018312708;-0.10468975;0.010940668;-0.046445653;-0.10876113;-0.07321116;-0.040140603;-0.0145464465;-0.09481758;-0.16553105;-0.059262972;0.029414086;0.022014774;0.06593342;0.020439405;0.04090071;-0.059846662;0.020397337;-0.06928783;-0.10250017;0.045407355;-0.023123184;-0.09374263;-0.10007649;-0.019003259;0.045413967;-0.031641923;0.06266265;-0.13098566;0.0025577343;-0.10538226;-0.028115561;0.0040683374;0.21285011;-0.011930646;-0.10203616;-0.03986055;0.01474986;-0.12588264;-0.06377287;0.064174354;-0.052519877;0.045268573;-0.0035898695;-0.011304216;-0.03362921;-0.018206032;-0.081941634;-0.06344578;0.00187441;-0.05485184;-0.1032668;-0.09473141;-0.030047858;-0.01683109;-0.15574212;0.046410404;-0.06458532;-0.06383257;0.048390456;-0.07719895;0.041536402;0.049153995;-0.10476617;0.04122407;0.022075377;0.000534242;-0.012850265;-0.041040562;-0.020710545;-0.09299647;0.005911361;-0.22019228;0.07373121;-0.11051485;-0.029876415;-0.11610432;0.035410084;-0.06426916;0.056512695;0.05968018;-0.044073254;0.012052043;0.039206617;-0.10840223;-0.050582867;-0.01990733;-0.09319894;0.047888804;-0.07913564;0.009121717;-0.027620917;0.086921304;-0.07727437;0.0032966582;-0.014660358;0.040102396;-0.037365716;0.006248472;-0.10308443;-0.00324446;0.055913262;-0.08941304;-0.08854256;0.021643328;-0.10383273;-0.0942955;-0.117506355;0.045946576;0.090668425;0.08462299;0.040626045;0.093774095;0.026827732;-0.065305255;0.014857232;-0.031053664;-0.0718675;-0.061884232;-0.07959931;0.0073125027;-0.068136424;-0.022560345;-0.09008777;-0.1456938;-0.10498013;0.006574945;-0.045480054;0.03071271;0.09732229;0.041069962;-0.014934492;-0.08856007;0.0083511295;-0.07522654;-0.10223761;-0.07820713;-0.050752506;0.12953822;-0.11537623;-0.058121033;-0.0070456513;0.05127986;-0.042135045;0.025987096;0.12494553;-0.014286243;-0.09628471;-0.089347735;-0.00071079505;-0.03518466;-0.061466444;-0.08243369;-0.0066015334;-0.03426173;-0.0009062197;0.020094192;0.033841636;0.066958;0.0018439265;-0.073620625;0.06286171;0.13903505;-0.022125931;0.052628886;-0.05906576;0.036938593;-0.014558231;-0.09772825;-0.054488577;-0.050224546;-0.053842694;-0.11242168;-0.051135834;0.0402865;-0.0035686798;-0.043966614;0.04967208;-0.011680273;0.07400844;-0.06694024;-0.17123753;-0.09714447;-0.0053422363;-0.034880523;-0.09693907;-0.016584175;-0.04780897;0.057445683;-0.035605486;0.056807946;-0.15992002;-0.08799883;-0.057936665;-0.0040387735;0.033271085;-0.03964579;-0.058818895;0.03193606;-0.016511686;-0.061621767;-0.010052465;0.0034786167;0.038330223;-0.066917844;0.035325997;-0.09169568;-0.18244904;0.030279707;-0.044914797;-0.03785525;-0.12700419;-0.017447975;0.039823055;-0.043200273;0.03902138;0.00509274;0.035890333;-0.012921134;0.10476506;-0.11401465;-0.0036358575;0.0010878523;-0.08322705;-0.09840574;0.07217749;0.034726676;-0.050623372;0.036319036;-0.025531493;-0.031172967;0.06870575;0.033851206;-0.12132262;-0.05132493;-0.012284081;0.042220704;0.12780438;0.026548058;-0.06947977;-0.15528527;-0.10475088;-0.106523156;-0.020406466;-0.04294042;0.02959763;-0.0643787;-0.14483577;-0.1353461;-0.01635296;-0.045534626;-0.054118223;-0.11982409;-0.033942405;-0.039233122;0.04017126;-0.09945206;-0.062453467;-0.060903575;0.038676087;0.019046267;0.00932836;-0.0070064557;-0.080364525;-0.063744664;-0.06842557;-0.008265911;-0.03725751;0.0077875615;-0.16252102;-0.012308345;-0.021827206;0.0495202;-0.07194415;-0.11202993;0.022984874;0.008279098;-0.09030919;0.05951491;-0.00987519;0.026052658;-0.07124307;-0.11820753;-0.066235684;0.06620911;-0.090208456;0.0007201804;-0.09837232;0.05965859;-0.077158466;-0.020811835;-0.0022925346;0.012301126;-0.02638306;-0.042653784;0.0210968;-0.08137643;-0.029667323;-0.0839682;0.02544868;-0.09709442;-0.06729799;-0.0050024763;-0.089148715;0.013930722;0.03984762;0.13655281;-0.048968;0.10861271;0.048248306;-0.074262254;-0.06787645;0.05523301;-0.013866442;-0.018236624;-0.03840921;-0.01082692;-0.060067125;-0.16585056;0.06683313;-0.012752678;-0.058358915;-0.09479559;-0.028841224;-0.029787874;-0.027350994;-0.0028563507;0.0076169563;0.07001058;-0.034675904;-0.0015796579;0.028758781;-0.0074467487;-0.021863902;0.055052675;0.025713988;-0.058551703;0.027276948;-0.087990984;-0.08702251;0.01961636;-0.048462655;-0.1037847;-0.005128677;-0.014670346;0.02281076;0.016776778;-0.15896797;0.00037201348;-0.13589242;0.01667967;0.009809734;-0.059977006;-0.062825814;0.041770466;0.059999973;0.07883253;0.039839875;-0.0074369474;0.075142235;-0.022143826;-0.019628165;-0.09029066;-0.008595808;-0.050331626;-0.039542206;-0.10302188;-0.00780432;0.17070319;-0.022871392;-0.025617136;0.048510958;-0.06860819;-0.10001992;-0.076741606;-0.012731305;0.05428358;-0.08353417;-0.04834184;-0.121562056;-5.5221677e-05;-0.076670825;0.051053844;0.013929363;-0.10244128;-0.073431775;-0.08441963;-0.09722598;-0.0051349397;-0.08796628;0.03453366;-0.0302385;0.018818742;-0.1321129;-0.10130039;-0.07730306;-0.19586039;0.033498418;-0.10139568;0.024681974;-0.0075892876;-0.02811182;-0.07773867;0.007093828;-0.019728288;0.0039221835;-0.08621601;-0.07157356;0.03806934;0.036096428;0.03358933;-0.008792392;-0.0687204;-0.09963149;0.004424386;-0.009508767;0.048349008;-0.0033541285;-0.06572061;-0.03329279;-0.018492544;0.020987406;-0.0977762;0.041649606;-0.07282004;0.027923858;0.022167493;-0.0020267451;-0.07267884;-0.060259398;-0.010918841;-0.019834641;-0.08326353;-0.016011285;-0.048221327;-0.0068365512;-0.023488646;-0.060387127;0.022893546;-0.023093492;-0.03767625;-0.06526637;-0.060956765;0.030119613;0.009992853;0.020948838;-0.046037696;-0.08497318;-0.044850115;0.00957572;-0.0014216627;-0.01586798;0.026916202;-0.06787018;-0.15273261;0.05013048;0.0059564207;-0.085324846;-0.019113522;-0.18876825;-0.05473526;-0.010568874;-0.074592814;-0.068219155;-0.011317938;-0.023940934;-0.11176221;0.04629939;0.045249946;-0.041124847;-0.08166116;-0.04759545;0.019384928;-0.087423876;-0.06692124;0.03919904;-0.10165542;0.032401104;0.02837514;-0.09196;-0.11308538;-0.00060567475;0.051539868;-0.07102088;0.03155875;-0.014474105;0.09003386;0.091297805;0.011164142;0.030035162;-0.04542199;-0.14080122;0.06767115;0.08156692;0.053373434;0.05389996;0.024473703;-0.08848881;-0.0332121;0.045085184;0.015430241;0.14678329;0.038611427;0.026500994;-0.10191672;0.06528013;0.024555976;-0.055338312;-0.13705581;0.050005548;-0.03529176;-0.09685286;0.03345009;-0.09969297;0.08863424;-0.03130427;-0.060929995;-0.003787165;0.006388803;0.028638704;-0.029265719;0.07735889
-0.08231769;-0.07700063;0.00695165;0.10815337;-0.08566802;-0.10124062;-0.07107554;0.018961862;0.0302528;-0.0765713;-0.059138287;-0.0034350234;0.01450909;-0.03489352;0.0029067562;-0.13163684;-0.104067825;-0.010200764;-0.06687161;-0.02041967;-0.114234984;-0.03740787;0.010333812;0.079127856;0.02396438;0.043469008;-0.048343968;-0.07579284;0.098082066;0.03434861;-0.057015754;-0.005650633;-0.050490137;-0.06140593;-0.12873852;-0.046931665;-0.020427475;-0.045453135;-0.07663982;-0.054435723;-0.031055406;0.016894577;-0.03303704;-0.071563266;-0.033575952;-0.025651189;0.04351233;0.021212965;0.06612661;0.013199743;-0.04922617;-0.07197855;0.022537617;0.034806684;0.0068668006;0.022324389;-0.13327627;-0.0848325;-0.08345838;0.005195857;-0.0050876373;-0.1137618;0.042276338;-0.045727096;0.032842062;-0.0106005315;0.083840795;-0.07212677;-0.074210174;-0.024755819;-0.16662762;-0.066734746;-0.022153623;0.030555742;0.13015768;-0.04878882;0.04810889;-0.059574414;-0.014796014;0.048932087;-0.005366318;-0.015097363;-0.1075272;-0.03711466;-0.08560784;-0.07110446;-0.059307516;0.22579443;-0.102338396;-0.02040041;-0.091425434;-0.13920067;-0.09245608;-0.09199239;-0.07318104;-0.07706247;-0.09765433;-0.059654254;0.030078536;-0.11274106;-0.051063884;0.014518294;-0.12766938;-0.037994564;-0.040332474;-0.09130006;0.051938176;-0.09622822;-0.025578834;-0.070610434;-0.04612525;-0.110990606;0.030964943;-0.00908272;-0.12848027;0.061391972;-0.08535955;-0.09540345;0.026021915;-0.106888235;0.06423821;0.0039020164;0.03912794;-0.08372234;-0.095476925;-0.07551015;-0.21893124;-0.07423311;-0.08284025;-0.01869715;-0.1000597;0.047348812;0.068400584;-0.10836566;-0.073094726;0.061067436;0.02509873;0.013196349;-0.0307928;-0.101986445;-0.081153326;0.002588216;0.020157441;-0.09055433;-0.042693686;0.04124468;-0.018148987;-0.011979175;-0.061736632;-0.06602006;0.03378791;-0.030289989;-0.014460023;-0.08493347;-0.015995353;0.040909614;0.043041356;0.0039930916;-0.08226167;0.003457173;0.050724473;-0.10245643;-0.03725449;0.053302992;0.021013068;-0.004873188;0.0551012;0.074986756;-0.003912777;-0.032270547;-0.022141812;0.0201202;0.007344238;-0.009702567;-0.03143141;0.022094218;-0.09214942;-0.03980211;-0.049325828;-0.023380531;-0.029312802;0.100595996;-0.009209175;0.0491298;0.026835646;0.0134383;-0.063375294;0.046260573;0.07224699;-0.11949258;-0.07232082;-0.016626649;0.08997589;-0.09754546;-0.015373161;-0.048237074;-0.02009081;-0.06846149;-0.0378215;0.13779621;-0.1046688;0.038868535;-0.095855534;-0.094321616;0.029337857;-0.024399437;0.010610171;-0.020482702;0.042000003;-0.016031569;0.059734423;0.01668198;0.058991842;-0.020691814;-0.10021887;0.015152002;0.114415616;0.013177043;-0.047189113;-0.103349306;-0.056722354;-0.0653535;-0.09682927;-0.11665224;0.0039672265;-0.06078576;0.024237279;-0.14165801;-0.00204025;0.072275795;-0.03129646;0.010893216;-0.13979952;-0.040973444;-0.0020932152;-0.08814681;0.026225464;0.04624968;0.0021586304;0.04188766;0.010974934;-0.019853422;-0.016953424;-0.077118985;0.008215838;-0.0017999458;-0.14694878;-0.008282513;0.01331464;-0.103313155;-0.06493409;-0.06549771;0.030665932;-0.004655586;-0.0688823;-0.004769599;-0.06857839;0.018365553;0.04241797;0.15221284;-0.01117249;-0.112526804;-0.031146264;0.015949521;0.09917572;-0.100000925;-0.064849526;-0.075336665;0.02426328;-0.07747697;-0.10539121;-0.02827104;-0.10769437;-0.02630523;-0.031351868;-0.11827427;0.10942832;-0.020766648;-0.08981846;0.026484627;-0.08381298;-0.024147088;0.032181736;-0.061799422;0.02779995;-0.029717132;-0.063140176;-0.059239022;0.007877542;0.008938859;0.03812353;0.11797593;-0.105292216;0.011003537;-0.17059824;0.053217296;0.00767603;-0.018424656;0.03643633;0.034200925;-0.04159576;-0.08510307;-0.06639956;-0.024868075;0.069116145;-0.08095597;-0.031856004;-0.053803686;0.010951255;-0.0763819;-0.07786443;-0.08450025;-0.022529826;0.098239355;-0.059950914;-0.07231973;-0.08090743;-0.0010164832;-0.05775045;0.03156775;0.015690492;0.03251182;0.06978308;-0.029230233;-0.07826619;0.034772083;0.14180689;-0.0066502984;-0.032290794;-0.03652694;0.040932357;-0.044315405;0.038852137;-0.040520854;-0.016851414;0.03360639;-0.030305982;-0.06552401;0.054696273;0.04200133;-0.017488066;0.0434854;0.069355205;-0.015327802;-0.0834689;0.03827692;-0.03942907;0.013045466;0.0017261318;0.0014301164;0.0019639214;0.011693024;-0.06459968;0.014701393;0.018389901;0.02810158;0.04461497;-0.07648922;-0.07228624;-0.101224735;0.10850641;-0.0585693;-0.013780062;-0.07781637;-0.107474335;0.037625317;-0.09024017;0.020798165;-0.09806678;-0.025208715;0.009429931;-0.090605795;-0.12733479;-0.03806813;-0.025795871;-0.029751524;0.004372012;-0.033370253;-0.0067243115;0.006439221;-0.014225522;0.07283477;-0.006641832;0.04848807;-0.12313798;0.024911305;0.029458476;0.0046295254;-0.07312288;-0.028870216;-0.03511831;0.11933489;-0.047474205;-0.09040972;0.08071929;-0.025214845;-0.07899211;-0.034845546;-0.11252182;-0.07579941;0.031078577;-0.109676845;-0.100337274;-0.17239575;0.031173978;-0.10703624;0.053404972;0.015385653;0.017554132;0.02668856;0.063855045;0.06697812;-0.06745872;-0.045858406;-0.087560035;-0.026929768;-0.0039557056;0.046720244;0.0006580244;-0.033893365;0.010234837;-0.02670283;0.04604434;-0.04413406;-0.05174158;0.07265726;0.033247624;-0.030398758;-0.13745111;0.0025261075;0.0074990997;-0.0443571;0.01780384;-0.14956325;-0.062024012;-0.048459817;-0.04009664;-0.05615563;-0.025294758;-0.02699366;-0.020775702;0.018576022;0.06622196;-0.15946147;-0.085989684;-0.057255253;-0.088502176;-0.097256735;0.043655336;-0.034278512;-0.17211013;-0.019374466;-0.09436838;-0.1452311;0.0858953;-0.001987482;-0.025776008;-0.09351096;-0.011227368;-0.044020966;-0.07744319;-0.0220749;0.052365944;0.03455529;0.009094353;0.08415306;-0.1156519;-0.048298087;-0.067195736;0.03783544;-0.005708615;0.002618102;-0.04505825;-0.02095486;-0.0030295271;-0.074957244;-0.07334531;-0.04391626;0.0012463558;-0.03863078;0.016396305;-0.12155826;-0.087866016;0.037460867;-0.10974182;-0.088588305;-0.10846624;0.014278403;-0.061523303;-0.019670295;0.026456356;-0.040776696;-0.042104974;-0.034746516;0.019316928;-0.053145137;-0.019856855;0.07749694;0.00262176;0.030632248;0.024322946;-0.08401502;-0.0029371895;0.03851361;0.011883519;0.040207986;-0.06607522;-0.11192778;-0.15215734;0.0073645334;0.04261845;-0.033122472;-0.05560318;-0.12841934;0.06786627;-0.036348265;0.04311809;-0.032986302;-0.061854403;0.0030711484;-0.13564275;-0.021493608;-0.056312203;0.012761308;-0.10957877;-0.07547329;0.027206171;-0.11279851;-0.018416509;-0.09292212;-0.08666088;0.053164937;0.010764564;-0.060967483;0.041601464;0.039554153;0.0003163567;-0.031589765;0.097895645;-0.07086485;-0.013933416;0.08681483;-0.10313069;0.039012395;-0.071175456;-0.0038046525;-0.059121948;0.10271909;-0.008515684;-0.07804356;-0.08382587;0.04578828;0.008085443;0.025211344;-0.0764789;0.02696483;-0.05181028;-0.012816997;-0.013422293;0.0837949;-0.051794853;-0.043048233;-0.017693026;-0.0030571956;-0.075845614;-0.014378868;-0.008176069;-0.071099654;0.046652995;-0.11213194;-0.075352676;-0.03552362;0.117518075;-0.010290575;0.00396178;-0.08741549
0.029118959;-0.09420771;-0.07769219;-0.023375908;-0.21144201;-0.0048700473;-0.060844358;-0.05284479;0.0560739;-0.055917107;-0.035433438;-0.013905134;-0.14697614;-0.03370357;0.015152904;-0.058262296;-0.11275159;0.010067656;-0.058052287;-0.012679074;-0.010915456;-0.082513705;-0.018513313;0.12288098;-0.09538633;0.027796444;0.043586817;-0.06804728;0.0347539;-0.06296492;-0.13161258;-0.03105513;-0.10337383;-0.11037921;-0.014547218;-0.010579111;-0.00620386;-0.07033482;0.0028130459;0.0728379;-0.119099095;0.053403318;0.02869645;-0.13100913;-0.017461581;-0.035172105;0.021575091;-0.0636572;0.16779706;-0.08340428;-0.023651276;0.029480187;-0.0767946;-0.07368015;-0.05083056;0.044994082;-0.00064650155;0.009844955;-0.100033775;-0.061658677;0.029490538;-0.051134083;-0.039010182;-0.08395387;-0.08591098;-0.051844627;0.011039837;-0.05879361;0.03594108;-0.033296086;-0.03957068;-0.021249326;-0.037681375;-0.0018894809;0.042250637;0.024592828;-0.07334552;0.04788156;0.017839607;0.09047374;-0.059669796;0.042103026;-0.050986048;-0.04483369;-0.05660809;-0.107093625;-0.0008045535;0.2304436;-0.11038531;-0.012219079;-0.08020689;-0.053939085;-0.01891947;-0.0789802;-0.013472462;-0.04907135;-0.03450688;0.0056063524;0.0032938642;0.034085765;0.052218955;-0.033928383;-0.05319686;-0.017339775;-0.028915942;-0.024886558;-0.06770258;-0.09462349;-0.038009033;-0.07307365;0.04155394;-0.037208837;-0.010526246;-0.06431345;-0.076776944;0.037428666;0.026438205;0.054003246;0.010792682;-0.021685418;0.03636891;-0.11383401;-0.08043166;-0.058401223;-0.014134939;-0.0536702;-0.18047489;-0.045002315;-0.032117832;-0.12804212;-0.06489337;-0.062105753;0.029570526;-0.07161341;-0.00832782;-0.08097632;0.014748081;0.07060212;0.0076802303;-0.041583862;-0.04750659;0.022022236;0.057072043;-0.067303866;-0.024142452;-0.09585604;0.08274423;0.015417526;-0.06462734;-0.06078442;-0.004540976;-0.05499718;0.02496903;-0.021924919;0.0038909663;0.038465995;0.07011859;0.0030738784;-0.010956742;-0.072750956;0.0014019408;0.005120953;-0.11416183;-0.024312122;-0.012063106;-0.027100801;0.09679994;-0.048767738;0.047031138;0.028416142;-0.053353634;-0.10262186;0.007046991;-0.04878037;0.060011964;-0.10042144;0.012681699;0.0015128534;-0.019775422;-0.05184999;-0.019384105;0.026364459;0.058449592;-0.029450303;-0.055594057;-0.029592281;-0.04341291;-0.041868687;-0.08631916;-0.010674469;-0.015858676;0.031120688;0.10810373;-0.10835776;-0.015424991;-0.0016653866;-0.021751;-0.10227667;-0.053100485;0.1340124;-0.095383555;0.0012771384;-0.091514066;-0.032732535;0.0859768;0.024520641;-0.060435016;0.03228714;-0.039658505;-0.030968292;-0.0647724;-0.055923473;0.016200589;0.029657407;-0.00056305306;-0.01430454;0.12627128;-0.044207223;0.073470175;0.016574891;-0.07137283;-0.028416881;-0.07021208;-0.04776097;-0.0725579;-0.11811009;-0.0008404063;-0.09657678;0.048188508;-0.047862723;-0.035573713;0.07321707;-0.11336445;0.04854517;0.01900806;-0.08112176;-0.104452685;-0.03249808;-0.069184594;0.043066673;0.028311146;-0.11009603;0.03659832;0.0015346895;-0.06364456;-0.13558856;-0.058808357;0.023307024;-0.097679615;-0.031010741;-0.035392296;-0.04685872;-0.05400652;-0.091743015;-0.10125044;0.089303985;-0.11592025;0.06479613;-0.022796744;0.07581269;-0.042052157;-0.1684496;-0.015689515;-0.06294803;0.047445584;-0.0546968;-0.054135162;-0.0037160483;0.028278366;-0.073777035;0.019656664;-0.05469837;-0.03360101;0.039025627;-0.13181268;-0.11427572;0.10523929;-0.070464835;-0.098952144;-0.0033304559;-0.076127484;-0.03138811;0.024954373;-0.019570744;0.037971172;-0.02801902;-0.026599452;-0.04120792;-0.06497008;0.012269235;0.005503823;-0.03749533;0.024738422;-0.012234477;-0.016239703;0.014113276;-0.058170665;-0.042916186;-0.033910967;-0.05914622;0.055597223;0.008571168;-0.10907501;-0.039023217;0.028279398;-0.031814262;-0.120028734;0.017711727;-0.07708457;0.027240233;-0.11091819;-0.06445851;-0.009051526;0.014702554;0.017920919;-0.07280592;-0.028947247;-0.0985555;0.001405276;-0.045564726;-0.04386776;0.070972495;-0.055582166;-0.072999075;-0.04182116;0.008376926;0.079799764;-0.1104278;-0.11065414;-0.05035839;-0.019528626;-0.0109456;0.0064865714;-0.021435196;-0.06710063;0.002350596;-0.05099725;-0.09061845;-0.0055616475;-0.076723844;-0.14324006;-0.004861228;0.09935217;-0.060166836;0.025865866;-0.027553514;0.012081873;0.02307619;-0.013245939;0.047028866;0.045927607;-0.09315931;-0.08848199;-0.08510846;0.021504538;0.010884024;-0.004777957;-0.013122727;-0.13195921;0.033327255;0.15917914;0.049667023;0.051012937;-0.046553325;0.016653676;-0.03763242;-0.09754911;0.010804774;0.049240433;-0.039996035;-0.066258;-0.058626242;-0.13832672;0.03836069;0.014942392;-0.035265215;-0.030836523;-0.01668874;-0.1091974;0.010183503;-0.034860373;0.034896124;0.041097943;-0.05639372;-0.086707115;-0.09371172;-0.09516965;0.032005478;-0.06333676;0.04308243;-0.015664268;0.08200537;0.001999875;0.0046362854;0.011011394;-0.033411074;-0.056848146;0.0065783155;-0.054159638;-0.01158402;0.041584074;-0.042657875;-0.09776573;-0.08554465;-0.016741352;-0.09132642;-0.03084324;-0.08438651;-0.08832463;-0.02071995;-0.044195306;-0.033264726;-0.030806644;-0.04581418;-0.10074976;0.038823284;-0.060730536;0.061456434;-0.043345273;-0.070120044;-0.019305948;0.032198038;0.09609945;-0.09695509;-0.086666554;-0.004499755;-0.07517594;-0.08197342;-0.06854873;-0.08443133;-0.06355736;-0.033573613;0.006052059;-0.14257452;0.04890993;0.00414286;-0.060638785;-0.013442415;-0.11572997;0.0046715834;-0.069979265;0.06120158;-0.009010057;-0.17375891;-0.036922902;-0.009368066;0.016746791;-0.14215483;-0.019435357;-0.036543656;-0.26620242;-0.047856245;-0.04871171;-0.08039061;0.012561737;0.02425965;-0.12452216;-0.072230056;0.0070271497;-0.06379777;-0.13008955;-0.087114185;0.03369976;-0.04192706;0.03527853;-0.002365566;-0.030728774;-0.10041337;-0.0794296;0.03091287;-0.042374566;0.009546234;-0.011210488;0.037197538;0.051171176;-0.08578819;-0.03879604;0.029422665;-0.08954613;-0.090353355;0.06610983;-0.12636296;-0.05787103;0.008533955;-0.11886511;0.050113495;-0.05152933;0.04141084;-0.06553045;-0.08588557;0.0043868455;-0.07169064;-0.01672201;-0.03983362;0.00061419874;-0.07616559;0.019393539;-0.0015579865;0.037623394;-0.057242498;-0.028044913;-0.092148535;-0.065663375;-0.016821338;-0.009869693;-0.0016354269;-0.07133642;-0.16808046;-0.08638272;-0.0796251;0.055013824;-0.07945692;-0.054698024;-0.11785691;-0.015377296;0.020822143;-0.011804316;0.076228835;0.048591066;-0.028919416;-0.09568094;-0.0014716858;-0.075264774;-0.0028644584;-0.03616808;0.025147106;-0.019409895;0.0018241052;-0.09151661;0.0064487285;-0.043298963;0.060208954;-0.03692336;0.014928706;-0.02995141;-0.022544704;-0.028150972;-0.073502384;0.008078284;0.036052857;0.06928627;0.09829127;-0.07394385;-0.006007282;-0.09673433;-0.1462055;0.06784667;-0.0011344708;-0.012545068;-0.07621426;0.051144615;0.053951144;-0.044049423;-0.02737418;-0.0026436616;-0.010783834;0.009413296;0.0038760272;-0.06013992;0.065968804;-0.018541047;-0.12197453;-0.11141934;0.03694389;-0.05162057;0.026747972;-0.010332764;-0.082988106;0.07769317;0.0019862265;-0.05573467;-0.022701785;0.09855535;0.012138944;-0.050134607;-0.08561357
-0.0010116406;-0.08773637;0.017082104;-0.042525277;-0.055755753;-0.04446984;-0.07011473;0.025631009;0.08441328;-0.031717714;-0.0794181;-0.10095918;-0.08996867;-0.082947545;-0.0069121155;-0.026811354;-0.07207914;-0.049707033;-0.10198751;0.04855248;-0.114142306;-0.06721923;0.0062317443;0.06747859;0.029088942;0.008460588;-0.0049074735;-0.1144982;0.037226617;0.042057335;-0.14021237;0.01247363;0.023823919;-0.117000826;-0.12570089;-0.052374028;-0.12909669;-0.043104928;0.03813844;0.05377656;0.0115371095;-0.024108723;-0.037729423;0.011403565;0.058047637;-0.008444308;-0.03226278;-0.043826904;0.12065328;0.032770786;-0.10479159;-0.08701982;-0.103393756;0.006759917;-0.097062275;0.018846964;-0.08051884;0.04146887;-0.13354233;-0.039310668;-0.012851594;0.047509793;-0.05052521;-0.078664064;-0.044630304;-0.0014646054;-0.005888197;0.06447828;-0.012835049;0.016529981;-0.025524328;-0.025086649;0.030077223;0.010358442;0.11700949;0.052721824;-0.054612897;-0.077957965;-0.05876959;0.0952831;-0.030103732;0.014952361;-0.0384328;0.039515737;-0.028458923;-0.06372527;0.019669697;0.2075126;-0.05589591;0.02286633;0.025748424;-0.076177046;-0.16395433;-0.011313446;0.04081756;0.002993341;-0.050722923;0.07745996;-0.08410241;0.036012422;-0.05391002;-0.019643437;-0.14312193;-0.13185151;0.01606141;-0.05677057;0.015505857;-0.06996176;-0.11026598;-0.10106053;-0.036954045;-0.14060014;-0.06757452;0.016981024;-0.0054055275;-0.058061194;0.043664128;0.020587882;0.08499682;0.0334513;0.06058783;0.016194979;-0.031424806;-0.03703395;-0.012549108;-0.0870502;-0.18533638;0.04998161;-0.005581077;0.009484675;-0.10991138;0.0039507747;0.032149803;-0.006690399;-0.050322745;0.06970878;-0.064216204;0.07924539;-0.027402593;-0.07585216;0.0067668906;-0.018337008;-0.025908753;0.021710956;-0.0031903107;0.04359156;0.026541067;-0.039832905;0.021584501;-0.0073121144;0.01464652;-0.06535957;-0.09331956;-0.10343136;-0.037739154;0.054125678;0.015184242;-0.050848756;-0.005240674;-0.047993913;-0.071043484;-0.06921513;0.014614475;0.08167201;0.09156209;0.013284656;0.024901144;0.06241311;0.035467036;0.032209914;-0.11855363;-0.037761346;-0.07973201;-0.07063627;0.022066526;-0.10596899;-0.098286405;0.01537106;-0.01950948;-0.018478785;-0.025637476;0.0335125;-0.0058503975;0.029014912;-0.07623405;-0.08002372;-0.11587331;0.015471678;-0.05081686;0.005827939;0.0028549691;-0.03095686;0.09369416;-0.13692224;-0.040196296;-0.056017406;0.043916028;-0.04842527;0.014730705;0.14799798;-0.031847075;-0.01652558;-0.013754709;-0.07505103;0.059219725;-0.11644343;-0.06337604;-0.10981218;0.021042427;-0.000864281;-0.03585982;-0.13074195;-0.012504709;0.031845335;0.001222347;0.048655313;0.23909293;0.06399055;-0.0059117447;-0.08531119;0.042855106;0.039781705;-0.03319857;-0.07979456;-0.0015989224;-0.081485234;-0.008910964;-0.120121285;-0.060068954;-0.048442163;-0.0046213767;-0.07383161;-0.059431877;0.014961613;-0.020833127;-0.17289287;0.036175217;-0.043326125;-0.0700681;0.022878958;-0.020446094;-0.008554997;0.008229486;-0.03153594;-0.014653672;-0.113370515;-0.13123515;-0.032689344;-0.038816076;0.019840574;0.11851505;0.008319246;-0.0463406;-0.06264426;0.047145855;-0.06453341;-0.10442185;-0.09695592;0.010274222;0.14321068;0.0006583824;-0.12683143;-0.028332178;-0.08373384;0.008260168;-0.14892226;-0.0074640033;-0.02143864;-0.072646305;-0.04952101;-0.073582105;-0.054239795;-0.02288592;0.01448086;-0.06419058;-0.10705686;-0.053679924;-0.040511608;0.0036988494;0.092183046;-0.109692834;-0.017974406;0.036511395;0.018040929;0.033335447;-0.037946302;0.040653475;-0.06029567;0.0005597153;-0.02543829;-0.05530453;0.0880865;0.014996698;0.0077337557;0.0008729052;0.02732112;-0.047629993;-0.10225121;-0.0008174111;-0.06499606;-0.019395113;-0.12868784;-0.021105273;-0.0530658;0.028262915;-0.043174993;-0.11998084;0.04365564;0.0034644501;0.06435591;-0.08128229;0.02323876;0.017065566;0.03135636;-0.0071146498;-0.0036759877;-0.023901833;-0.039507546;0.06195037;0.017533395;-0.09675667;0.08911692;-0.09218887;-0.11269787;-0.0076866644;0.038241673;0.11118679;-0.01757583;-0.0716509;-0.09345121;-0.045550458;0.06334425;-0.047257993;0.021202704;0.011418385;0.027541738;-0.038713537;-0.08634859;0.02502299;-0.09131561;-0.02656041;-0.04675951;0.07003505;-0.013625229;0.037983418;-0.08180698;-0.02205539;0.050550383;-0.05005514;0.044100307;-0.087086804;0.043524995;-0.15640934;0.017434089;0.008188648;0.04181852;-0.032273572;0.013818825;0.009542454;0.025546804;0.17162186;-0.09550379;0.054855168;-0.1073035;-0.012850058;0.04954519;0.03701132;-0.056807864;0.051677868;-0.0029297967;-0.0033641742;-0.09944664;-0.1447372;-0.043937933;-0.0053799013;-0.049095295;0.026633594;-0.042696483;-0.021283654;0.067827374;0.008422993;-0.06532068;0.04586687;-0.08968799;-0.08824283;-0.003954285;0.0044071088;0.02032025;-0.08111134;0.016248008;-0.042339973;0.09880638;0.037048165;-0.06638418;0.009023024;0.049334638;-0.04418096;-0.061436754;-0.025839334;-0.099222414;-0.039592743;-0.057943318;-0.03396934;-0.1485105;0.01586415;-0.033031352;-0.087484024;0.022476686;0.0044028563;0.053158406;0.061913803;0.025293952;0.017677208;0.07228915;-0.08065634;-0.116304755;0.024026133;0.04405821;-0.010597167;-0.034397636;-0.027201707;0.012841863;0.061513092;-0.030790573;-0.070077576;0.002978161;0.035245236;-0.06757725;-0.097718015;0.03320882;0.010571697;0.007371915;-0.051938877;-0.15074511;-0.028543564;-0.018553838;-0.038374726;-0.02818804;-0.057848863;-0.14858477;-0.040601127;-0.05358848;-0.088373385;-0.17543626;0.016922858;0.056748837;0.02698485;-0.12373207;0.029391324;-0.12259653;-0.22774208;-0.007582405;-0.06843102;-0.071739726;0.0040357453;0.13877673;-0.15955304;-0.09057763;0.028655123;0.024299335;-0.10255355;0.006050542;-0.098672524;0.082266554;0.02601251;-0.08103185;-0.13848877;-0.011776715;0.08813009;-0.05830684;0.022425238;-0.019396063;-0.010557999;-0.011030411;-0.013111759;-0.060979377;0.06486798;0.036806777;-0.03591265;-0.115513496;-0.019612916;-0.11576863;-0.12092352;-0.0069917347;-0.10555331;-0.057564646;-0.046793245;-0.04270755;-0.11850151;-0.072970554;-0.03851376;-0.10501867;-0.027811112;0.041219708;-0.03838198;-0.09140476;0.01586411;-0.02491211;-0.06584254;-0.00090822537;-0.017627995;-0.10831046;-0.06458892;0.039979525;-0.0080746645;-0.010583451;0.019548183;-0.16856086;-0.03374686;0.0074547366;0.0008058592;0.0059778215;-0.10008732;-0.15626664;-0.0047590593;0.016381802;-0.09629058;-0.08702228;-0.07340499;-0.018341882;-0.035712156;-0.1004852;0.025650484;0.023668401;-0.0104348;0.018992048;-0.023011126;-0.111230284;-0.028292457;-0.042809617;0.043428227;-0.08530522;-0.041485276;-0.03898494;-0.047550123;-0.048814654;-0.072009645;-0.07776686;0.07968892;-0.009202571;-0.08799346;0.016199192;-0.037201755;0.03839899;-0.056228757;0.020542188;0.08414652;0.089432456;0.053769197;-0.005257479;-0.030911854;-0.03689423;-0.07807606;0.009843446;0.05033626;-0.031140458;0.05252149;0.041876383;-0.040929582;0.10603041;-0.019369973;0.026106201;-0.1103533;-0.0036208353;-0.0074032866;0.012092032;-0.064552836;-0.07630707;0.028176334;-0.090309;-0.0038948213;0.0061815293;0.014120299;-0.0035319019;0.04033764;-0.097970724
-0.0044273227;-0.1503372;0.01820569;0.06255214;-0.12819117;-0.0567958;-0.0059109866;0.035276797;-0.0070225443;-0.019424997;-0.114803016;-0.12988853;-0.08512961;-0.018477686;-0.08155213;-0.10407299;-0.020720625;0.06281627;-0.004632379;-0.05735128;-0.024679678;0.05433692;-0.07611884;0.013781229;-0.02815919;-0.07727915;-0.037885435;-0.05793977;0.00089638797;-0.055387713;-0.108568564;-0.083578475;0.0042604264;-0.016822482;-0.12619016;-0.10641203;-0.12721482;-0.11603314;-0.0891998;-0.033562474;-0.07563031;0.045827176;0.05097806;-0.0605831;-0.037275314;-0.050442133;-0.08188327;-0.046921063;0.12375075;-0.10782819;-0.027094139;-0.04503774;-0.069053486;-0.03838235;-0.04896189;-0.030035762;-0.014691023;-0.027811578;-0.06476955;-0.012334625;0.023053622;0.033028517;-0.015824221;-0.06622621;-0.047053892;-0.07182926;0.0538026;0.0212488;0.060663935;-0.08149351;-0.09078435;-0.004593191;0.0608741;-0.056512635;0.1510303;0.06396224;0.030614724;-0.012117482;-0.022791574;0.14803746;-0.10011034;-0.035758436;-0.18614972;-0.069425896;-0.15739459;-0.010679936;-0.07691377;0.22326513;-0.00085487094;-0.10909484;-0.048900194;0.014438545;-0.17319798;-0.05098143;-0.103305295;-0.040271685;-0.08229309;0.04590312;-0.09926495;0.003927721;0.020135494;-0.0005515376;-0.11221894;-0.06274861;-0.088164106;0.053861786;-0.02245887;0.024563204;0.025569085;-0.06374373;0.077278994;-0.11589944;-0.057467766;0.04385975;-0.11234454;0.020927453;-0.043590937;-0.004648571;-0.06334344;-0.030474873;0.054092813;0.022895025;-0.015785726;-0.0025907059;-0.017972028;-0.06256988;-0.09687789;0.017277984;-0.0629363;-0.098131806;-0.069649994;-0.0021081842;-0.0021573827;-0.0056172046;-0.062198345;-0.01670227;0.0029664247;0.061380323;0.019723272;0.017887503;-0.022593074;-0.025602076;0.045625515;0.04142384;0.018935043;-0.017996376;-0.020751903;-0.020403901;0.08444211;0.030077685;-0.07835825;-0.054657526;-0.08102132;-0.09506511;-0.10491684;-0.095903195;-0.014404833;0.07033588;0.01431182;-0.072260104;-0.040591776;-0.06746549;-0.07620193;-0.052246284;0.07823282;-0.05163466;0.059142224;0.094046116;-0.045911673;-0.114992395;-0.04715408;-0.07015917;0.048632897;0.061866786;-0.043915715;-0.124565504;-0.105152324;-0.06858049;-0.11383759;-0.035344858;-0.08908187;0.084726125;0.06428885;-0.03734894;-0.17009085;0.016614163;-0.011524347;-0.10810022;0.039535247;-0.03734245;0.040555738;0.002039141;0.004901772;0.0075994604;0.038667317;0.05843992;-0.008757149;0.05246867;-0.009935777;0.19472018;0.0034022876;-0.0872932;-0.071331754;-0.063601606;0.07709257;0.010923114;-0.09487637;-0.11613571;0.016962687;-0.06933835;-0.030509366;-0.10442727;-0.024164092;0.029125685;-0.09569207;0.14888339;0.10211747;0.0318466;0.066419765;-0.051102545;-0.07703962;-0.09098922;-0.054762825;-0.028980946;-0.01818945;-0.013695725;-0.062211394;-0.0858465;-0.09346029;0.059459064;0.04229735;0.06756699;-0.00401321;0.073975876;-0.12036528;-0.102653414;0.016850628;0.038472302;-0.0021884125;-0.091012456;-0.07045199;0.01567325;-0.035969216;0.047097187;0.022334473;-0.030608175;-0.095531985;-0.022891637;0.04235693;-0.061305583;0.073680006;-0.017861886;-0.0016423998;-0.07867764;-0.01641056;0.064554095;-0.0057952674;-0.053633448;-0.025171831;0.08137901;-0.021543253;-0.053731482;-0.045548465;0.04144233;0.103052326;-0.049521096;-0.10795317;-0.014272617;0.067533314;0.02318987;-0.108377986;-0.008208863;-0.05187628;0.018111438;-0.029722637;-0.056075674;0.032855827;0.064327374;-0.07992991;-0.00574189;-0.06841387;-0.027131127;0.014314609;-0.009360847;-0.11063821;-0.05207287;0.04968742;-0.10504008;0.06155382;-0.08236034;0.059636813;0.017414808;0.035080615;-0.08772517;-0.14823206;0.05273888;-0.010359037;0.024112636;-0.0066870763;0.039627556;-0.0182146;-0.09082174;-0.14057676;-0.09166365;0.035062097;-0.05609037;-0.1110875;-0.021070769;-0.08512913;-0.058131017;-0.10755456;-0.08167245;-0.10103034;0.051860686;-0.011181943;0.03129959;-0.10270301;-0.11087238;-0.055176217;0.022111233;-0.10762589;-0.054356523;0.0512324;-0.09390159;-0.07202472;-0.013633328;0.17635867;-0.12344765;-0.10587743;-0.057416927;0.0032676281;0.021496098;-0.04483974;-0.14431062;0.056653425;0.041108057;0.029305251;-0.006678882;0.04103505;-0.09652453;-0.04258836;-0.009564952;0.06625403;-0.07929764;-0.07236527;-0.020228738;-0.060724236;-0.10227473;-0.0052058855;0.012120463;-0.08657683;0.045211036;-0.046439104;0.050221268;-0.05470011;-0.044656176;-0.04721293;0.011497953;-0.012903164;-0.01801787;0.19714281;-0.046763364;0.071175836;-0.043686498;-0.08306857;0.032461334;-0.036875736;-0.0364511;-0.033602864;0.019771755;-0.040052358;-0.076552495;-0.10902448;-0.0058649336;-0.07549254;-0.07584279;0.0627725;-0.10093192;-0.009097783;0.026701467;0.019282829;-0.016355976;0.0669559;-0.06676297;-0.020834716;-0.063707285;-0.050932158;-0.005518523;-0.053860966;-0.07384418;-0.09891263;0.0033854004;-0.027688144;-0.008918732;0.06898689;0.09540852;-0.018852578;-0.08733211;-0.005168765;-0.00503199;-0.017888874;-0.17136952;-0.11683906;-0.13551039;-0.010037734;0.07121694;-0.06823887;-0.057155658;-0.112861775;0.059083328;-0.008800193;-0.08988203;-0.0034318524;-0.07298115;0.043661576;0.03127955;-0.05494144;-0.002737172;0.0095155835;-0.056221884;0.020172788;0.015733274;-0.0027477995;-0.017960042;-0.122483954;0.004070867;0.051227536;0.0072166813;-0.11982438;-0.01118004;-0.073923014;0.035518233;-0.057957623;-0.05583245;0.019271642;0.021248972;-0.0038521017;-0.017641589;-0.061865326;-0.020761466;0.016668707;-0.011318433;-0.0026001951;-0.046405;-0.017345581;0.05555395;-0.09471934;-0.07963828;-0.060336612;-0.11979298;-0.21122853;0.08542317;-0.04008273;-0.06634795;0.015321423;0.04765577;-0.15651494;-0.12921096;-0.046934113;0.009368999;-0.10964354;-0.13131006;-0.105993174;0.005981731;-0.09654278;-0.07866678;-0.164924;-0.027292706;0.071554095;-0.033522777;-0.07669148;0.029448198;-0.02503758;-0.035556756;-0.052253257;-0.022734787;0.0633469;-0.04473329;-0.0875086;-0.00076712033;-0.044164415;-0.09479397;0.018058809;-0.077135235;-0.07171298;-0.02743308;-0.011168283;-0.08808251;0.01910891;0.01202007;-0.061279934;-0.104575716;-0.11423648;-0.08125385;0.056419663;-0.065084465;-0.019765599;-0.084670976;0.055446044;-0.0751978;-0.004706866;0.009525258;-0.11751028;-0.10977868;-0.0038049137;0.05122408;0.014435936;-0.14609264;-0.124690816;0.054417126;0.07679803;-0.03946349;0.008830707;-0.15241505;0.04753582;0.020470068;-0.058270853;0.011123287;0.0075510764;0.08099785;-0.11968356;-0.119250536;0.023718607;0.051246878;-0.03177483;0.023826465;0.0055059805;-0.059841845;-0.04084959;-0.07310625;-0.027856607;-0.07296313;-0.0059176674;0.008486336;0.012870081;0.0051707905;0.011620061;-0.021167185;0.089574635;-0.03338176;-0.029752145;5.1068117e-05;-0.07882966;0.054921832;0.017287802;-0.058382165;-0.05486888;0.04570613;0.037855197;0.049990073;-0.021626763;0.055930458;-0.10324765;0.056457;-0.031534765;0.07868482;0.024680387;-0.031386692;-0.011650406;-0.004904047;-0.07738929;-0.03676713;-0.13710022;-0.0030143412;-0.10120595;0.023422638;-0.10166075;-0.06641101;-0.030915372;-0.02837127;-0.08469674;-0.02622265;0.07788597;-0.107249655;-0.10579018;-0.058710538
-0.0046304776;-0.17958984;-0.019052671;0.121394694;-0.14069214;-0.118131004;-0.010509661;-0.10237745;0.107505016;-0.08921879;-0.0074674212;-0.11038148;0.0018077432;-0.11690593;-0.056137286;-0.010365311;-0.13889551;-0.036968015;-0.091840774;0.06317441;-0.002547549;-0.037714113;0.025298791;0.021780383;-0.0160737;-0.024744866;-0.0630659;-0.15197219;-0.067834005;-0.046540935;-0.032481942;-0.09766361;-0.05555396;0.02564423;-0.0457954;-0.03780342;-0.07171368;0.028932456;-0.0819942;0.038101804;-0.12792353;0.03486316;0.0071538403;-0.0802931;0.035811633;-0.08573961;-0.06594518;-0.019099617;0.17925112;-0.09667374;0.046953723;-0.051034693;0.0021849493;-0.073046654;0.010263108;-0.081947245;-0.069291905;0.02112554;0.024531515;-0.10335645;-8.971255e-05;-0.021530522;0.024356557;-0.037984483;-0.014642995;-0.05287262;-0.034374118;0.061106376;-0.017212056;0.059979346;-0.07718986;-0.111756265;0.045899015;0.013586608;0.1671858;-0.06397753;-0.05580041;-0.08572606;-0.042824496;0.13837081;-0.022903474;0.07165192;-0.14628023;-0.07633876;-0.15382707;-0.058592264;0.07151531;0.1504157;-0.08014073;-0.059008166;-0.03838193;-0.041315317;-0.08505891;-0.093549915;-0.07992492;-0.10340712;-0.10461995;-0.02619331;0.0021363432;-0.12391993;0.04548929;-0.07197413;-0.054455776;-0.012102523;0.01354849;-0.065967485;-0.10053108;-0.009149512;-0.104704216;-0.05926562;0.0107717095;0.0030027395;-0.028286545;0.016433736;-0.09108495;0.0155244125;-0.09476008;-0.0052104983;-0.016356934;0.024529956;-0.03880496;-0.011637227;-0.010904403;-0.038120978;0.027015144;-0.01952967;-0.15403934;-0.037858676;-0.007169496;0.0067121345;-0.015473619;0.09353758;-0.014098045;0.013212096;-0.006862628;-0.0453073;-0.044045053;0.11986245;-0.094070025;-0.123983525;-0.12762216;-0.1330427;0.012581805;0.029468121;-0.01697162;-0.09341825;-0.068332136;-0.02650598;0.13020743;-0.067702055;0.051209636;-0.030381203;-0.1417876;-0.11575786;-0.09532335;-0.06700482;-2.2103868e-05;0.04253032;-0.113929726;-0.1089215;-0.10008105;-0.119730465;-0.0042168093;0.081069306;-0.0074783484;-0.06772768;0.08816146;-0.015587934;-0.0821475;-0.09384815;0.014683207;0.047459953;-0.033371102;0.007729151;0.011858941;-0.10691643;-0.030440351;-0.048261352;-0.06533446;-0.030773496;-0.066875905;-0.05768472;-0.022246253;0.047714565;-0.106100984;0.043353073;-0.061595753;-0.07007997;-0.022436127;-0.13264053;0.058319002;0.003726995;0.07726508;0.01736459;0.03298758;0.031301584;-0.013332758;0.057204828;-0.09862037;0.144625;-0.11165704;0.061146874;-0.022075072;-0.018324725;-0.052003495;-0.05877901;-0.060834073;-0.10609958;-0.06865249;-0.039048918;-0.07598149;-0.05336099;0.08075656;0.045172263;-0.01309767;0.12806165;0.22467177;0.039330065;-0.012419769;-0.016672991;0.044524964;-0.005385161;-0.0087210545;-0.01326159;-0.08214952;-0.05314873;0.03895342;-0.17864911;-0.0776617;0.06572628;-0.04406954;-0.045978848;0.008246282;-0.029686937;-0.009867055;-0.042997748;0.014008017;-0.087764084;-0.07666596;-0.06255146;-0.055812635;-0.03945228;-0.03302676;-0.07155597;0.032726903;-0.107035965;-0.10921503;-0.06036554;-0.029601913;-0.057388622;0.082986556;0.053210717;-0.041061394;-0.07381171;0.012998426;0.05347926;-0.009988015;0.018906917;-0.089614384;0.080990106;-0.0076353657;-0.121626355;-0.009077649;-0.03098404;0.0351005;-0.13719636;-0.12392657;-0.016497493;-0.015593249;-0.11154746;-0.023240613;0.0048925043;-0.12522371;0.09785418;-0.061141517;-0.13142015;-0.055348035;-0.06615002;-0.052174486;0.07719086;-0.072224304;-0.007743098;-0.012652939;-0.09597674;-0.11092455;-0.09454701;-0.053227924;-0.1412411;-0.05953029;-0.08053412;-0.08011393;0.009766414;-0.028582212;-0.037720896;-0.14183067;0.049183644;-0.021021215;-0.11701303;-0.0010842419;-0.0019718977;0.047421582;-0.115097255;-0.15950815;-0.04210488;0.08858851;0.062479105;-0.05013208;-0.12146085;-0.015337792;-0.051418193;-0.10914813;0.011583265;-0.09443059;0.06140012;0.005923455;0.06552536;0.01497059;-0.11824385;-0.03228339;-0.11835709;-0.06685843;-0.03521323;0.01592813;-0.104280405;0.040795512;0.013711433;0.12771672;0.013268941;-0.11821828;0.03433761;0.029360201;0.047066506;0.021356259;-0.08864549;0.039427504;0.0432969;-0.050983947;0.039914228;-0.02933126;0.008447247;-0.12352475;0.03198637;0.04143589;-0.062638484;0.0001877797;0.0105944285;-0.046962533;-0.0072212364;-0.07652899;-0.020062283;-0.072430514;0.038636494;-0.13276377;-0.06025153;0.018277576;-0.02140195;-0.028306615;-0.056761865;-0.018903583;-0.109219424;0.18274048;-0.04485691;-0.01923139;-0.014339093;0.03363529;-0.034279786;-0.06855873;-0.041290827;-0.06349596;-0.04547401;0.014289799;0.009399633;-0.09709404;0.0035341193;-0.0588663;-0.043250613;-0.008415043;-0.056443676;0.031201571;-0.033422053;0.049028546;-0.06469221;0.071569845;0.008232903;-0.016442252;0.050268546;-0.14229216;0.037857708;-0.07158456;0.040601507;-0.019180797;0.11207224;-0.08887272;0.018466758;-0.017144851;0.09219433;-0.0099521745;-0.121362455;-0.050765153;0.018001594;-0.057802286;-0.05811898;-0.075371236;-0.10274475;0.09642875;0.02101468;0.0045293136;-0.11859771;-0.042834338;-0.014904215;-0.011755509;-0.018857747;0.007999192;-0.0023238242;-0.0815492;-0.09905429;0.06521974;0.07065562;0.012893446;-0.10542617;-0.11022121;-0.037488278;0.09635715;-0.1110749;-0.1460615;0.008643773;-0.08068812;-0.10061243;0.011376852;-0.049174488;-0.05112555;-0.055249296;-0.0866356;-0.049369313;-0.074266344;-0.1130132;-0.08686921;0.042737316;0.034443513;0.00844034;0.010701805;-0.06979107;0.024472242;-0.018530138;-0.12110585;-0.08128327;-0.05827931;-0.12817936;0.0028624432;-0.056801517;-0.2050923;0.04331905;-0.16739607;-0.070963666;0.095525414;0.12794483;-0.09330589;-0.106696084;0.002021046;-0.08110304;-0.045012165;-0.07508991;0.040457565;-0.015401622;-0.023711976;0.05829675;-0.031451657;-0.085668646;-0.024323625;-0.039523568;-0.08760417;-0.033637777;-0.0877258;-0.01261962;0.048789784;-0.0067905793;0.040736556;-0.06409549;-0.04833431;0.038297646;0.05709262;-0.13176548;-0.060899056;-0.02740146;0.020662758;-0.0708855;-0.14469153;0.05981884;-0.060425133;-0.13882136;0.045616843;-0.06453283;0.005731395;0.029294476;-0.07873915;0.05292486;-0.013703571;0.07267925;-0.010391596;-0.030225988;-0.09021006;-0.023076966;-0.057018638;-0.04517472;-0.08284992;0.04614679;-0.06493095;-0.13644712;-0.12992272;-0.0089686075;0.07159618;-0.09755492;-0.14869498;-0.067861296;0.0663251;-0.089279495;0.008349406;0.06805653;-0.057786204;-0.055733122;-0.07822554;-0.0010022216;0.028311612;-0.03891559;-0.008199429;0.01551114;0.018638808;-0.05595902;0.027868234;-0.0888944;-0.07772592;0.06644326;-0.048992097;-0.102380276;0.03568752;-0.049131166;0.021379221;-0.021921394;-0.018628053;-0.016666789;0.025481582;0.041977882;0.00014367126;-0.06654406;-0.06960409;-0.090048544;0.015469203;-0.030962601;0.11925756;-0.06628972;0.020767547;0.0236057;-0.076521195;0.062881105;-0.036232;0.0005524089;-0.030203324;0.06359435;-0.048503976;0.096044555;-0.06769604;-0.086116545;-0.018546993;-0.01746812;-0.019112937;-0.07860463;-0.023496851;-0.12638931;-0.028821995;0.012337769;0.036842693;0.020313678;0.0170184;-0.054980088;-0.070201516;-0.11798368
0.03155805;-0.054865856;-0.042297944;0.08166837;-0.1777683;-0.11128045;-0.05962503;-0.065492325;-0.03223417;-0.07674363;-0.010982953;-0.13275081;-0.0799411;-0.039601408;-0.08222958;0.009616393;-0.023321925;0.021027643;-0.10364661;-0.09167654;0.034225654;-0.013242918;-0.011109354;0.13826327;-0.028787017;-0.024151167;-0.039305054;-0.0236618;-0.07179323;-0.08039626;-0.0429668;-0.00414687;-0.079597935;0.030656872;-0.08446024;-0.00015329842;-0.04618357;0.015381221;-0.022648929;-0.031866215;0.031406913;0.07815263;0.04545307;-0.066892415;-0.020646421;-0.097976394;-0.011011678;0.017151752;0.16151913;0.045905035;0.022338795;0.039634783;-0.069102705;-0.090208694;0.043958575;-0.053529296;-0.09174272;0.02507762;-0.055371266;0.0019379455;0.027036602;0.01248339;-0.117554;-0.02656779;0.045796853;0.040938526;-0.08535358;-0.0819562;0.06726784;0.016389564;-0.09462526;-0.033720672;-0.044198114;-0.013771341;0.083987765;0.018017713;0.0050589065;-0.12015958;0.028332634;0.075877875;-0.06851516;-0.066695616;-0.1280733;-0.087496415;-0.08915386;-0.012719046;-0.071101114;0.19384186;-0.06918676;-0.0024628707;0.028619964;0.041960508;-0.037245635;-0.10066169;-0.096896954;-0.028253632;-0.09968479;0.030652368;-0.033703517;-0.068450645;0.04691118;0.003703896;-0.16546126;-0.06450192;-0.025781568;0.026148075;0.010094533;0.009911284;0.0029148858;-0.12545003;-0.0721365;-0.06333366;-0.09397653;-0.038026765;-0.12509973;-0.08494889;-0.04500615;-0.03291989;0.08055294;0.044644438;0.024585798;-0.049251772;0.010413446;0.014367241;-0.039073437;-0.038728416;-0.117190585;-0.06402475;-0.06170881;-0.11757656;-0.13214515;0.029919572;0.04045767;0.002157375;0.07524946;0.0436029;-0.076136045;0.056663465;-0.005372748;-0.08900117;0.02942786;-0.111702316;-0.0059758085;-0.04921414;0.022786701;0.041308027;-0.000564657;-0.098636344;0.04559499;-0.03733243;-0.060920954;-0.026460517;-0.041880384;-0.05561675;-0.09056514;-0.051249195;-0.07679021;0.06572901;-0.07902351;-0.07476024;0.02134958;-0.02353908;-0.0376568;-0.02244362;0.06447518;-0.103946164;-0.02129479;-0.013846664;0.014220308;0.034328207;0.006740553;-0.07243719;-0.055773165;-0.08652614;0.056917384;-0.013074081;-0.022556849;-0.012934044;-0.0430153;0.0648088;-0.03340783;-0.078787975;-0.04053813;0.090351135;-0.13779639;0.04195783;-0.098044455;-0.010721177;-0.03384069;-0.04915322;-0.06871728;-0.03345176;0.020882154;-0.086502686;-0.012527507;-0.0549952;0.012223376;-0.030050093;-0.10975825;0.09245937;0.009136513;0.013687096;-0.11342537;-0.039335135;-0.041534614;-0.018682703;-0.06317228;-0.0034040315;0.009168239;-0.026015468;0.051267922;-0.039513163;0.026001384;-0.03530133;-0.055432275;0.11467037;0.21927649;0.046058234;0.08490535;0.046321586;-0.020774417;-0.009797934;-0.006759042;0.021778027;-0.084419444;-0.08760254;-0.029711222;-0.10844973;-0.012012508;-0.0074785147;0.056776308;0.009276128;0.0030568994;0.051433247;-0.028726304;-0.14773595;-0.03922964;-0.02672301;-0.017191017;-0.0933182;-0.065564334;-0.013744043;-0.046757754;0.025654277;0.016950997;-0.160075;-0.15090579;-0.09213212;-9.4474504e-05;-0.0234047;-0.019745875;0.042934902;-0.02294868;-0.0831293;-0.08633875;0.040686995;-0.050690725;-0.03796669;-0.015888536;-0.014488054;-0.08514891;-0.03515508;-0.050639637;0.002825529;-0.0012564845;-0.07853174;-0.11510412;-0.089989945;-0.030299034;0.029644625;-2.1911239e-05;0.04907697;-0.06690096;-0.03912366;-0.113865495;-0.01801155;-0.023710452;-0.09442815;-0.033435825;0.07495101;-0.14555724;0.02570355;-0.047563557;-0.11059;-0.07208777;0.04270989;-0.052072268;-0.11604487;-0.040585704;-0.073697604;-0.045840207;0.01421439;0.026222445;-0.06008119;-0.10489299;0.0069306456;-0.09587789;-0.026713738;-0.060152594;-0.017268887;-0.048211254;-0.048692834;-0.03466427;0.04119878;0.0011315201;-0.046456914;-0.09146739;-0.029592264;0.04857106;0.04947813;-0.13762419;0.054443263;-0.06860867;-0.050893053;-0.025018327;-0.06702207;-0.081920445;-0.106300004;0.045783605;-0.08344216;0.0047147525;0.05023711;-0.048322294;-0.12987071;-0.008611395;-0.04264286;0.09836349;-0.11228069;0.0146504585;-0.11186091;-0.101433896;0.017423078;-0.08717502;0.015641922;0.019692896;-0.025142832;0.00373801;-0.045353774;0.021398785;-0.0034997787;-0.07613301;-0.07055241;0.094665565;0.056518868;0.0028675306;-0.00315167;0.035980962;-0.02290035;-0.08781088;-0.031805303;-0.0011040542;-0.031189065;-0.14908177;-0.06570138;0.050857745;-0.03558905;-0.08687971;-0.113089204;-0.020135572;-0.09747626;0.12985222;-0.07536219;0.07594014;-0.049848802;-0.123784244;0.011033536;-0.064180434;-0.035020113;-0.071985595;-0.09652248;0.01919422;0.002747876;-0.11165546;0.0046900893;0.04033903;-0.07581962;0.055918716;-0.102882124;0.009892334;-0.044227388;-0.08935683;-0.032463696;-0.0809991;-0.105424084;-0.10742352;0.009595016;-0.029797275;0.014473303;-0.039521564;0.004118514;-0.07272853;-0.031028783;-0.11295644;-0.008514429;-0.006159886;0.0025968698;-0.038746275;-0.017469022;-0.08499495;0.009954821;0.010267259;-0.004665068;-0.018018505;-0.0072904103;0.015498937;-0.07412509;0.05675598;0.0031480205;0.019224294;-0.055710908;0.012769086;-0.07097606;-0.03605144;0.07658172;0.034360353;0.029059477;-0.022172913;-0.084578514;-0.049259774;-0.08766602;-0.052800886;-0.041937977;-0.039634917;0.04932348;-0.011792073;-0.041953143;-0.041363038;-0.035280384;-0.05928362;-0.03054801;0.027262181;0.03694901;-0.088813804;-0.061436135;0.002838397;-0.010887366;-0.06106837;-0.06833807;-0.021925213;0.016355509;-0.031556163;-0.010327108;-0.09006398;-0.11147994;-0.093356684;-0.07829295;0.043564927;-0.11496869;-0.032867532;-0.14359762;-0.21468022;0.027221812;-0.09967573;0.009798351;-0.0070322384;0.11435827;-0.06685122;-0.032574065;-0.05008514;-0.08770406;-0.08266365;0.029083015;0.050662044;0.028259194;-0.055565067;0.01766079;-0.13778046;-0.111129075;0.009922776;-0.036907498;0.05564492;-0.10809126;-0.032598067;-0.0554781;-0.057731424;0.012813611;-0.03945211;-0.029850675;0.012564213;-0.012381249;-0.10920601;-0.031709943;0.043146174;-0.024006935;-0.040421087;-0.016643886;-0.13609704;0.024619997;-0.0017583037;-0.07669914;0.018758304;-0.0024494394;0.013906859;0.052230686;-0.015113948;-0.010512248;-0.0507837;0.021894349;0.033478253;-0.10272835;-0.111687906;-0.106166914;-0.019219875;0.022909943;-0.11618707;-0.065892525;0.0026031553;-0.0910063;-0.174102;-0.09388966;0.12054018;-0.018919585;-0.042760767;-0.034525406;-0.02051051;-0.032955877;-0.08390146;0.05947604;0.065025106;-0.041483786;-0.06688178;-0.08326691;-0.059795853;0.04106368;-0.09953436;0.033262406;-0.0022847657;0.00360299;0.009036752;0.00095493556;-0.034410667;-0.0074077575;0.014052868;0.029423125;0.050366905;-0.07693871;0.011897384;0.04389939;0.10771644;0.050546348;-0.01663739;-0.033639673;-0.10632346;-0.052517552;0.005935144;0.07648852;-0.07098879;-0.048167527;-0.00021681169;0.043026984;-0.10136399;0.024078498;0.035091992;0.056985356;-0.053170152;-0.05612154;0.040832654;0.06938546;-0.0837506;-0.036543854;-0.03636515;-0.09827534;-0.11812152;-0.0793175;0.005563736;-0.06203452;0.023569262;-0.037438087;-0.005016904;-0.050163858;-0.07927325;-0.0038896042;0.041744977;-0.016650537;-0.014811469;-0.003760806
-0.042701814;-0.054539807;-0.046164937;0.071090415;-0.044616017;-0.1250597;-0.045858387;0.01142155;0.05084754;-0.09103076;-0.1417311;-0.07164228;-0.032854732;-0.09617751;0.018363154;-0.14367549;-0.0745788;0.09249957;-0.028747002;-0.06753184;-0.103653304;-0.011406134;0.044879287;0.065763675;0.016332645;0.04683926;-0.0479731;-0.04911149;-0.018400293;-0.07570928;0.010235609;-0.07906;0.01145607;-0.07314107;-0.1276345;-0.08894773;-0.06892722;-0.009680238;0.064183444;-0.06352634;-0.003077669;-0.06154748;0.05805701;-0.09462979;-0.071115956;-0.07965819;-0.09897282;-0.045578323;0.1397341;-0.06907172;-0.017568447;-0.038094025;0.0015906827;-0.06657151;0.024736766;-0.07866655;-0.010229866;-0.07569264;0.01566033;-0.07306054;-0.08434002;-0.05687897;0.038201846;-0.14779603;0.06476275;-0.055875123;0.074207604;0.0348415;0.010895037;0.01598869;-0.13337843;-0.11727911;-0.080807835;-0.05959665;0.13672522;-0.050375976;-0.11643347;0.04459913;-0.037285913;0.021062588;-0.003028556;-0.007996223;-0.092912704;0.039926153;-0.08204234;-0.035483934;-0.051218424;0.2033228;0.005424315;-0.05784684;0.05437983;-0.10141429;-0.016522625;-0.0761542;-0.021713832;0.023961853;-0.018875428;-0.0312743;-0.02182704;-0.05138019;0.05967946;0.070574835;-0.06983658;-0.067364305;-0.06895161;0.04433683;-0.09508599;0.0034714362;-0.0726443;-0.0028661462;0.01730095;-0.11992828;-0.01256748;-0.013393778;-0.105232395;-0.048155744;-0.061883096;-0.059980363;-0.010496538;-0.04135108;0.05319772;0.023052521;-0.09600671;0.036710933;-0.11591954;-0.07526136;-0.1560366;-0.026985649;0.008021165;-0.050042924;0.0055502886;-0.009128316;0.012185414;0.02988047;0.03527965;0.06857586;0.052568424;0.012663176;-0.122950174;-0.058990475;0.013840056;-0.051753975;0.07228835;-0.060010105;0.005041025;-0.063894264;-0.006594474;-0.036039386;-0.008227449;0.051263645;-0.061328735;-0.058433563;-0.080091394;-0.053423718;-0.112956375;0.041704085;0.049578708;0.06108849;0.02464461;-0.13012122;-0.012154983;0.005617147;-0.054003675;0.09041375;0.07582643;-0.039970137;-0.047326665;0.061505474;0.075812265;0.013358653;-0.09656447;-0.003858143;-0.10187122;-0.009097862;0.0532958;-0.07230921;-0.021881497;0.0029623348;-0.04176492;-0.067366235;0.030501546;-0.044401854;0.023965625;0.043497343;-0.13876748;-0.09110744;0.004892889;-0.007036875;-0.05273898;-0.14153627;-0.08914796;-0.05810746;-0.035663024;0.012985498;-0.031176386;-0.062186792;-0.08893478;0.047891412;-0.030171625;0.07555309;0.052499287;-0.038922552;-0.010812315;0.06199711;-0.05486501;-0.10484611;-0.030292984;-0.105425276;-0.07717093;0.047253296;0.0020949836;-0.09954642;-0.035645496;0.03003131;-0.06730778;0.101222545;0.0850589;-0.050047375;0.062453195;-0.003088683;0.0031877437;-0.0207741;-0.039437585;-0.028874937;-0.0029945679;-0.09504534;-0.10703375;-0.047525413;-0.030898813;-0.045010876;0.053765457;-0.027659101;-0.12281683;0.008775739;0.015947016;-0.12857956;0.028292209;0.05085274;-0.04274068;-0.08740071;0.016529355;0.032623634;0.016528465;-0.09145799;-0.05268462;-0.05210926;-0.1287021;-0.018445482;-0.07999812;-0.034282874;-0.031373333;-0.05304795;0.018258346;-0.101049304;-0.09340517;-0.01589601;-0.042333852;0.06827215;0.05152639;0.050919384;-0.017823571;-0.027672892;0.036829975;0.0036705406;0.028275242;0.008798467;-0.091395564;-0.047228765;0.028873716;-0.08677526;-0.048612252;-0.07211352;-0.08081951;0.031710915;-0.084040776;-0.109331444;0.059353672;-0.03998427;-0.017873121;-0.030593479;-0.13291708;0.019839982;0.023956776;-0.01628108;-0.11803913;0.016513519;-0.072643615;-0.079168044;-0.04707392;0.03930289;0.015068723;0.027631585;-0.05749109;-0.0973991;-0.039459977;0.008957864;-0.14395025;0.03129191;0.0015909853;0.051564205;-0.023117572;-0.041109778;-0.06173573;-0.03752056;0.03725743;0.058791317;-0.0049399477;-0.058759034;0.011079295;-0.10118975;-0.0060260277;-0.050160628;-0.09741802;-0.06307216;0.07645203;-0.0072701657;-0.0123520745;-0.07867006;-0.05796036;0.014352892;-0.001962785;-0.03437466;0.053786196;-0.1640559;0.049559224;-0.0064747497;0.14479472;-0.012677092;-0.047099724;-0.11541709;-0.06494301;-0.052089557;-0.04754433;-0.09764861;0.05016348;-0.07164566;-0.039924834;-0.02539376;-0.010610522;-0.030790122;-0.11295709;0.018029837;0.035551168;-0.051862847;0.009534042;0.024415273;0.047780495;-0.05578472;-0.03790558;-0.07456318;-0.009569082;0.043620937;-0.12512533;0.023049928;-0.0122006945;-0.03077953;-0.028911984;0.027601257;-0.09170863;-0.070429064;0.19834056;-0.10819866;0.022360584;-0.051258925;-0.07644417;-0.025247287;-0.028315252;-0.055537514;0.02337906;-0.021009272;-0.047383457;-0.03555757;-0.13655756;-0.030266667;-0.058009744;0.004917665;0.05601442;-0.03718637;-0.052769136;-0.032435283;0.04725443;0.03514166;0.04246524;-0.021197878;-0.068915024;-0.044115078;-0.101690896;-0.015263909;-0.10954417;-0.08638603;-0.010503428;-0.028414538;-0.09288155;-0.0951323;0.019123562;-0.04328688;0.019621618;-0.034006607;-0.080373816;-0.07065912;0.05258417;-0.09530839;-0.027341275;-0.053375732;0.05528108;-0.059225015;-0.08341033;0.010195719;0.021472018;-0.031077817;-0.040962595;-0.024088725;-0.07361375;0.0019415632;-0.0863808;-0.100467205;-0.041391704;-0.053790037;-0.02294777;-0.0610685;-0.08953141;-0.049467016;0.09972232;-0.053745545;-0.05128543;0.07297169;0.012545686;-0.023496449;-0.10993776;-0.08435304;-0.06437525;-0.022997608;-0.0963236;-0.08730961;-0.042179823;-0.080529355;-0.02555767;-0.07303143;-0.072649695;-0.13858269;-0.0024616064;0.018242637;-0.027869536;-0.1304614;-0.10550328;-0.0142457755;-0.033105064;-0.07042157;0.04667128;-0.14981747;-0.18472278;-0.028835665;-0.12292297;-0.11728338;0.10161781;0.10136097;-0.096947655;-0.05637114;0.038661465;0.01542937;-0.0014454814;-0.059809666;-0.0057920893;-0.06978852;0.00876287;0.043391746;-0.040032137;-0.013378627;0.0030445498;-0.010298052;-0.08221631;-0.051030084;-0.08686157;-0.04360639;0.025036996;0.007697733;0.010581041;-0.039989125;-0.04321586;-0.09848893;-0.093909115;-0.03190682;-0.069956526;-0.15839773;-0.029646492;-0.07848872;-0.16945006;-0.060951468;-0.090655394;-0.011996006;-0.049911823;-0.033388354;-0.088315316;0.0065062577;-0.08678932;-0.0702393;-0.11684337;-0.03184267;-0.04836456;0.024084562;-0.06502701;0.041359458;-0.0779081;-0.021433948;-0.075284936;-0.010657094;0.02912513;-0.20021456;-0.05213304;-0.064270385;0.0010829952;0.043472927;-0.016698053;-0.14965405;-0.060118422;-0.09528909;0.027791161;0.04476997;-0.08881714;-0.059026822;0.015616198;0.030052291;0.009309357;0.025287978;0.022727992;0.010599555;0.048531946;-0.03323047;0.04432102;-0.022452684;0.036251817;0.042748764;0.012636787;-0.005981547;-0.04346217;0.0074371044;-0.08572045;-0.016106416;0.017863577;-0.064753875;0.017388327;0.06797285;-0.019057034;-0.051991485;-0.063078165;0.054856304;-0.015460494;0.09136772;0.039848313;0.021414174;-0.10003446;-0.04127546;-0.020188717;-0.08913819;-0.038478814;0.0046618264;-0.004071992;-0.0036881147;-0.039964434;-0.05377392;-0.0021480564;-0.05418971;-0.097022474;0.053834315;-0.08900912;0.029165;0.03410122;-0.1754695;0.055964395;-0.11778779;-0.0873385;-0.051549062;0.06439012;-0.0844042;-0.0031566108;-0.07504347
-0.052281875;-0.1093213;-0.020598026;0.13441198;-0.10786375;-0.035431407;0.04698318;-0.07085718;0.10249111;0.00070582016;-0.16527961;-0.07113437;-0.12182135;-0.051690836;0.031330343;-0.1636008;-0.07589144;0.06135051;-0.022993047;0.03252467;-0.10074339;-0.04448925;-0.008254406;0.14047205;-0.088551104;-0.025525944;0.046619218;-0.151988;0.009405898;0.046464726;-0.009465048;-0.011302481;0.054867472;-0.10184157;-0.09682729;-0.0013606382;-0.0027831309;0.030840557;0.057505134;-0.036873117;0.0058236453;0.0027817125;-0.07618223;-0.085142694;-0.084920585;-0.0014578875;-0.05239361;-0.07518578;0.067507565;0.032959934;-0.06408798;-0.04659822;0.018269345;-0.040308822;-0.006788949;-0.055229034;-0.099219136;0.064877614;-0.030749548;-0.033315573;-0.041877043;-0.087897405;-0.078674205;-0.15231635;0.008213189;0.0382727;-0.06735976;-0.013031959;0.010277977;-0.021231836;-0.05454054;-0.10294895;0.009888436;-0.10573746;0.10393627;-0.078952484;0.014185129;-0.01810736;0.025292054;-0.031810444;-0.0028461502;-0.0737671;-0.06465597;0.03541439;-0.11933773;0.016224008;-0.008895734;0.110081054;-0.03420943;-0.13192767;-0.08103928;-0.11967231;-0.026120743;-0.102907605;0.015192571;-0.020293746;-0.015414883;0.03589449;-0.084691435;0.016801415;-0.05012697;-0.088496;-0.10477193;-0.04757153;0.04014612;-0.035979554;0.009643397;0.02329305;-0.12446256;-0.06946853;-0.018171161;-0.07620631;0.018706381;-0.03321032;-0.0030848498;-0.08491738;0.018892331;0.087064825;-0.062204678;-0.051601473;0.04799262;-0.043582577;-0.07761293;0.03641908;-0.015962766;-0.07852071;-0.15527117;0.027524406;-0.07536176;-0.13671541;-0.06700646;-0.06861152;-0.09292577;-0.06110242;-0.026275037;-0.012154709;0.0040207477;0.06957489;-0.14059056;-0.11769836;-0.123866804;-0.054063242;0.03887632;0.024908086;0.00830434;-0.024294613;-0.07895911;-0.113473125;0.13638656;-0.034450483;0.09760107;-0.03767333;-0.039517637;-0.15385677;0.012451386;0.026004324;0.004532431;0.023782352;-0.038378734;-0.009078742;-0.107944414;-0.058794897;-0.14588307;0.026593138;0.12193004;-0.07130584;0.0054477854;0.0076309964;0.056207113;0.05221549;-0.0019729398;0.015903754;-0.08544523;0.011972945;0.061111957;0.0283884;-0.007864947;0.0114808455;-0.07864029;-0.015678823;-0.057542715;-0.0011389448;0.05575927;0.095405;-0.15420921;-0.05460946;-0.13171718;-0.045155767;0.072711565;-0.03583997;-0.031752158;0.031519536;0.11471992;0.017353753;0.116744846;-0.057311177;-0.0054773353;-0.04604518;-0.1197481;0.14825341;0.012109876;-0.07691314;-0.07078996;-0.07741576;0.032241132;0.0012499728;-0.020005664;-0.04475311;-0.004863313;0.075558074;-0.052185234;-0.06846798;-0.0003963726;0.03992276;-0.09908377;0.14069627;0.112537846;-0.0634183;0.08718564;0.045434363;-0.07700664;-0.010030173;0.07175515;-0.059127677;0.04826497;-0.044486906;-0.023047708;-0.07450548;-0.058818277;-0.05203421;-0.08846494;-0.05783342;-0.010863976;0.04833164;-0.026153727;-0.05833233;-0.02711268;-0.07406506;-0.044295788;-0.010280014;-0.08237932;0.0039099506;-0.002095451;0.039297257;0.03011245;-0.10458523;-0.07101652;-0.063071266;0.01615845;-0.058945768;0.052585423;0.033295766;0.052690223;-0.07198906;-0.062072214;0.064359955;-0.12266397;0.053372614;0.001933936;0.074704;0.052118547;-0.046811678;0.046810027;-0.030921498;0.06464633;-0.011893547;-0.07888415;-0.065788254;0.042981036;-0.07306059;-0.06898554;0.0026562351;-0.07696537;-0.0060475357;-0.10145722;-0.009097768;-0.035688594;-0.058051944;-0.011150614;-0.010575869;-0.12775365;0.038076144;-0.113660716;-0.052726015;-0.002466808;-0.064350575;-0.08717952;0.0050476743;-0.062145486;0.009328966;-0.045813844;0.03285015;-0.07153335;-0.08722379;-0.1526808;-0.086807765;-0.12793508;-0.037610687;0.017202744;-0.036507346;-0.009184499;-0.14405149;-0.058729906;-0.060394254;0.0006960793;-0.10028117;-0.06339393;0.014315784;-0.053041197;-0.06483339;-0.12054876;-0.04903061;-0.021117557;0.033850946;0.086933725;-0.059932265;-0.0042014904;-0.094073944;0.001568076;-0.044199668;-0.09021638;-0.04405851;0.03690046;-0.034996536;-0.027474845;-0.022902913;0.07160869;-0.029177139;-0.120239;0.020645002;-0.10209845;-0.010770392;0.027743956;-0.054108184;0.035710767;-0.08092101;-0.1006673;-0.08226106;-0.054958355;-0.043155972;-0.048686497;-0.0274432;0.12335804;0.0056018652;0.0053050965;0.041856203;-0.062024612;-0.05733134;-0.011834085;-0.02568536;0.0036567205;-0.0065605547;-0.098605976;-0.0623059;0.049661573;0.019830294;-0.03214106;-0.019871645;-0.11602852;-0.08589079;0.1797403;-0.062170547;0.14191285;-0.045480974;-0.049103096;-0.06558226;-0.09239271;-0.021947525;-0.055639405;0.017180832;0.039256;-0.08929434;0.01142632;-0.03519782;-0.030446572;-0.092357464;-0.057574432;-0.0052320655;-0.11814198;-0.046481784;0.04115888;-0.021530421;0.04105329;-0.10648598;-0.14544347;-0.067321144;-0.13534693;-0.007447931;0.018000446;-0.0055896966;-0.007656549;0.04612299;-0.03840885;-0.057019416;-0.014506065;0.08346034;-0.014705128;0.020698948;-0.0761126;0.032150757;-0.028203005;-0.0039103585;-0.08031466;-0.13006833;0.06368707;0.033954304;-0.036107037;-0.12109584;-0.07539353;-0.010098714;-0.043391336;-0.019534387;-0.030547509;0.08602916;-0.03916852;-0.029960006;0.03299929;0.06699987;-0.097159676;-0.003787523;-0.06109216;-0.08359001;0.022517333;-0.09280938;-0.0680685;0.089708954;-0.082793824;0.032418873;-0.12662947;-0.068747684;-0.00789397;-0.019088052;-0.043795798;-0.11054118;-0.04255805;-0.022690019;0.012286423;0.055349328;-0.022368385;-0.037148163;-0.053631883;0.042521294;-0.032071248;-0.08159763;-0.05375507;0.01812559;-0.048942808;-0.087757766;-0.005728779;-0.096181065;-0.1337934;-0.009925933;-0.030226223;-0.06070156;0.118480586;0.1067792;-0.018541656;-0.024020517;0.03644809;-0.055504173;-0.0049567344;-0.06019428;-0.08819596;0.021734102;-0.01837929;-0.026753176;0.00068024464;-0.01606509;-0.05568933;-0.04156778;-0.04267483;-0.043602124;-0.04244001;-0.025063183;-0.056933936;0.017534643;0.058932528;0.0020382975;-0.0853339;-0.066071324;0.038298406;-0.018598774;-0.007680212;-0.05215297;-0.07745823;-0.06667484;0.0021055443;0.012778663;-0.08068939;-0.055046927;-0.0037962846;-0.0001369811;-0.13500193;-0.0137031255;-0.01433155;-0.027214237;0.00857508;0.051546354;-0.033302292;-0.0650613;-0.08657052;-0.10384609;-0.0026041113;-0.010890154;-0.08693542;-0.10051334;0.025802692;-0.19145891;-0.18572207;0.044672433;-0.05158362;-0.09587649;-0.12135923;-0.109425835;-0.015627714;0.03284484;-0.089412466;-0.023693668;-0.071584344;0.073162116;0.012418608;-0.03928931;-0.047165714;0.0046375496;-0.06686016;0.0064672837;-0.08591277;-0.037827995;0.022438876;-0.080100894;-0.027034864;-0.009585695;-0.07065764;0.038869727;0.06277335;0.005505339;-0.10624132;0.01878087;0.090549774;-0.05053145;0.10450017;0.01964088;0.019679239;-0.07391639;-0.031932462;0.010016964;-0.08507469;0.11705084;0.13291001;0.0078005055;-0.09086465;-0.050532322;0.05856631;-0.045822173;-0.072828755;0.102038145;0.061978925;0.10119438;-0.0053952965;-0.005127532;0.013681196;-0.02758383;-0.093352675;0.011142153;-0.0056543765;-0.08553919;-0.113566615;-0.07150385;-0.032821234;-0.013797748;-0.10802012;-0.023873689;0.06800965;-0.08236905;0.011942287;-0.06737961
0.0415056;-0.095745996;0.012084407;0.041393578;-0.19531964;-0.083873406;-0.055825833;0.0039929487;-0.026482398;-0.052063026;-0.0140694585;-0.00593439;-0.049382973;0.010812441;-0.10158035;-0.1037119;-0.055909347;-0.05936036;-0.05221513;0.004050924;-0.068284445;-0.002818253;-0.057082985;-0.011666553;0.057557825;-0.007044807;0.020217152;-0.022244617;-0.006349065;-0.09660978;0.010462541;-0.011349696;0.028257253;-0.1005983;-0.11376108;-0.078434125;-0.017655466;-0.038288917;0.02272992;-0.052101642;-0.12259288;0.06748307;0.037052132;0.015119615;-0.07833493;0.06221263;-0.070281476;0.028280662;0.14955391;-0.013560685;0.058659524;-0.035954352;-0.121385805;-0.09838612;-0.04927693;-0.050915986;-0.08594832;0.062103912;0.0061641983;0.03598184;-0.07145451;-0.118818775;-0.12357393;-0.07620413;-0.06266622;-0.013176967;0.07156194;0.052487317;-0.07656296;0.03318582;-0.08736877;0.013957098;-0.0056181788;0.039006602;0.15732022;-0.032796606;-0.105319604;0.030587617;0.036258616;0.084812984;-0.061494336;-0.019873092;-0.07003197;-0.10142685;-0.095536664;-0.0930166;0.042752966;0.16613123;-0.051083606;-0.069726944;0.061068613;0.055207744;0.008241932;-0.019605396;0.023011798;-0.12832688;-0.059498716;-0.05389775;-0.0838866;-0.116184026;-0.117979325;-0.09112722;-0.026547177;-0.16536987;-0.03641008;0.0126944;0.051612075;-0.042618185;-0.09273;-0.1305646;-0.07211223;-0.109211236;-0.0844596;-0.08572332;-0.14543512;0.046442553;-0.029999793;0.06461576;0.067299716;-0.004849494;-0.030195016;-0.02269632;-0.03381413;0.053791583;-0.110439554;0.028185165;-0.1459417;0.014143845;0.0047926265;-0.01101835;-0.0855081;0.0702662;0.026580032;0.008762321;-0.016665054;0.030303728;-0.05709288;0.11599762;-0.012792809;-0.064553864;-0.04800723;-0.007995479;-0.038879275;0.0061282353;-0.062436882;0.012059302;-0.030684615;0.015566197;0.13988352;-0.029727852;-0.035116065;-0.10132127;-0.13855734;-0.06469228;-0.10789923;-0.03346638;-0.022380766;0.07068483;-0.024093855;-0.06938741;-0.080246724;-0.11173061;-0.069288656;-0.043296915;0.027187904;-0.033292454;-0.05538069;0.0061843754;0.091820635;0.024581578;-0.11000813;0.035940293;-0.048371345;0.018359073;0.06753431;-0.1210992;-0.05099576;-0.024086518;-0.07375057;0.04304267;0.0053911214;0.09810469;0.016552394;0.05124394;-0.051569942;0.025554575;-0.13566998;0.02176149;0.048353925;-0.1147872;-0.06289318;0.04951287;0.013653224;-0.033164114;-0.041982573;0.054987524;0.01096918;-0.09702993;0.0020980109;0.14169781;-0.017123275;-0.07271457;-0.09084753;-0.028036052;0.0020562904;-0.064208485;0.046108548;-0.11403233;0.0391311;-0.058497358;-0.006474899;-0.036407232;-0.027996203;0.036134213;-0.021797573;-0.022914743;0.10751535;-0.05914524;0.07419378;-0.040400155;-0.014466045;-0.07194668;-0.04735198;-0.049481332;-0.04734771;0.040866107;-0.09276986;-0.04516316;0.019313058;0.0815194;0.002036426;0.005383861;-0.13234559;-0.041143756;-0.051597048;-0.12416654;-0.08761363;0.023336727;-0.07561648;-0.024825595;0.034686286;0.021468597;-0.09867125;0.05731111;0.021866975;-0.12187573;-0.03963656;0.031749785;-0.039326616;-0.07930215;-0.0374009;0.070634864;-0.009167609;-0.063657194;-0.0015529658;0.06552655;-0.073764674;-0.00035591473;0.028371071;0.08333596;0.043427892;-0.047845148;-0.06098188;-0.0073409895;-0.09298873;-0.14254831;-0.052467145;-0.10816796;-0.044090193;-0.032976642;0.0519277;-0.09857691;-0.11464824;0.026157623;-0.14592738;-0.1270255;0.063683175;0.040644787;-0.076701745;0.038453892;-0.11416803;0.00635728;0.02459125;-0.099881686;-0.070824906;-0.019999128;0.04707175;-0.03815557;0.068236284;-0.031127082;-0.083119564;0.08309112;-0.035009045;-0.034039866;-0.1694821;0.02798364;-0.026642703;-0.066160575;-0.023191664;0.028807824;0.04633323;-0.15157346;-0.11042691;-0.0206711;0.08588554;-0.07206799;-0.10740486;-0.10605417;-0.014108031;-0.07011698;0.00055586174;-0.066201895;-0.019721983;0.01713009;0.04282184;0.019107385;-0.10564769;-0.117455296;-0.094328284;0.022825304;-0.023024678;-0.03520538;-0.008593095;-0.053988393;0.0029545643;0.04195266;-0.02844696;-0.10203498;-0.11841032;-0.010919538;-0.11697057;-0.07163151;-0.021401547;-0.05943655;0.016448196;-0.04530497;0.047748573;0.061231922;-0.06384093;-0.07966716;-0.14127487;-0.091176294;-0.0062505603;0.08950855;0.040505536;0.0176406;-0.0107969865;-0.036729988;-0.05080247;-0.04749282;-0.01358353;0.04224257;-0.08191198;-0.08582755;-0.04766539;0.04418789;0.05360235;0.015572427;-0.11795277;-0.046172995;0.071188845;-0.09579918;0.0043844767;0.02892523;-0.017104654;-0.091639966;-0.012353158;0.06608219;-0.12181726;-0.069603495;0.007882249;-0.074281834;-0.0014316051;-0.026726302;-0.04066463;-0.05343786;0.015041963;-0.1736448;0.019165672;0.048381485;-0.06712403;0.0028012816;-0.021881936;-0.023015743;-0.025076436;0.028547157;-0.07063172;0.018779285;-0.098822325;0.027774654;0.005656116;0.035687603;-0.033530947;-3.4814468e-05;0.050748926;-0.026334649;-0.0139548145;-0.07122814;-0.054194447;0.057743218;0.046100415;-0.1515571;-0.012690194;-0.1062681;0.06064566;0.0031002793;-0.07587466;-0.09653858;0.030741343;-0.079994686;0.043265793;0.013790604;-0.06472558;0.015171793;-0.07725282;-0.08188027;0.062392145;-0.038577635;-0.07326789;-0.041983314;-0.127902;0.018455384;0.08954305;-0.034467172;-0.14158179;0.08197808;-0.019729534;0.00735491;-0.088259;0.004894665;0.07267199;0.016410915;-0.023067048;-0.10705991;-0.028697187;-0.12245909;-0.104658045;-0.08869627;-0.007882628;-0.016844517;0.04412635;-0.10492007;0.007923494;-0.17520946;-0.014727314;-0.020707991;0.046623964;-0.08638834;0.048169356;-0.14200768;-0.21255814;0.083674476;-0.102471866;-0.0051894127;-0.013385459;0.08598746;-0.03680671;-0.10992595;0.032551177;-0.09179946;-0.0011769021;-0.08337777;-0.03471387;0.0652831;0.0073353606;-0.00027012057;-0.15465187;-0.07904463;-0.07611532;0.019478424;0.039947156;0.010816819;0.07141549;-0.013048219;-0.04311539;-0.04855851;-0.018924307;-0.02681209;-0.11228993;0.037154727;-0.010733176;-0.08358904;-0.087620616;-0.09173291;-0.07525267;0.040465765;-0.05559402;-0.085401274;-0.08849055;-0.04331319;-0.0639892;-0.07456498;-0.07710252;-0.0101436805;0.04201818;-0.07913764;-0.0931168;-0.042243466;-0.01471708;-0.053280156;-0.013851773;-0.007963168;-0.017713197;-0.08410916;-0.06583563;-0.071785145;-0.06453674;-0.1349893;-0.1469703;-0.01169154;0.094638795;0.0031022208;0.011063229;-0.04061444;-0.017294506;0.039650366;-0.011630686;-0.03852845;-0.08253353;-0.016847301;-0.119041726;-0.0086883;-0.049461275;-0.07026311;-0.02839347;0.042966105;-0.08066673;0.008881319;0.070065476;-0.064315826;0.007705332;-0.054777183;-0.021492736;-0.08882269;-0.07010496;-0.008603828;-0.10856199;-0.08643372;0.10301017;0.023978017;0.062363666;0.08012368;-0.035794098;-0.10124474;-0.04379541;0.06640518;-0.09047164;0.050242912;0.09233545;-0.045843046;0.058026608;0.038684674;-0.06750909;-0.013520951;-0.012716849;0.07911652;-0.015750317;0.06917455;0.044384237;-0.014498723;0.023995826;-0.08092425;-0.03409543;-0.025705447;0.030254323;-0.13198568;-0.043395348;-0.16768861;-0.005216259;-0.07726257;-0.03804402;-0.020781694;0.07214838;-0.043241195;0.028053612;-0.010382401
0.061936427;-0.09938718;0.054528885;0.06791968;-0.072880656;-0.13067113;-0.07698435;-0.0113291945;-0.042817768;-0.033519566;-0.050646592;-0.104327686;-0.050400082;-0.02695882;-0.05638712;-0.059686568;-0.13643488;0.014392998;-0.027685873;0.0049764756;-0.03296994;-0.022192063;-0.040951487;0.007528597;0.057967104;0.061830167;-0.09679132;-0.13736783;-0.11469139;-0.015172902;-0.007321826;-0.1360482;-0.05655132;0.010703331;0.03383312;0.017285565;-0.09980802;-0.04135891;0.020753937;-0.039703205;-0.061165646;-0.008291988;-0.070460886;0.012937044;-0.062793076;-0.044117775;-0.08567442;-0.011661044;0.15472771;-0.0023064273;0.058272984;0.05093522;-0.0021623725;-0.077135;0.057580512;0.0413563;-0.073318794;-0.036075212;0.019191667;-0.04167555;0.04817264;-0.09929828;-0.03537381;-0.12516841;0.07115305;0.09287929;-0.061280053;0.042081814;0.05102353;-0.028440975;-0.12355853;-0.044117723;0.04506909;-0.063796654;0.110252224;-0.024310607;-0.0069944086;-0.004657097;0.066587575;0.0934507;-0.09187719;-0.059726074;-0.14411592;-0.038096804;-0.13018374;-0.11318062;0.0062206713;0.07976388;0.020736966;0.013433121;0.03731053;-0.062483527;-0.10485055;-0.13599712;0.041142732;-0.06791627;-0.09564734;0.014081671;-0.032164134;0.031507347;-0.039907288;-0.089533255;-0.15126012;-0.13097988;0.017071312;0.040295392;0.019017369;0.019103127;-0.009464903;-0.111719035;-0.028215092;-0.10980767;0.009383735;0.015239456;-0.030040955;-0.02807349;0.018958692;0.08542791;-0.08141901;-0.08597028;-0.029625686;-0.044665545;-0.13940932;0.059880365;-0.05742796;0.049415983;-0.1506204;-0.08951127;-0.060810424;-0.06762688;-0.08910465;0.017441904;0.021241892;-0.06297078;0.044535987;0.009614141;-0.081718415;0.07103375;0.014960401;-0.04163513;-0.09132659;-0.08931874;-0.08231724;0.016211877;-0.014998815;-0.040685344;-0.022584466;-0.06842783;0.07566571;0.031565294;0.015984047;-0.036015857;-0.042679124;0.0046651624;-0.107797846;0.015347474;-0.06643817;-0.024869816;-0.047152;-0.0022310272;0.004177339;-0.027061287;-0.016581014;0.045682833;0.102220386;0.006456971;0.048294064;0.044832844;0.022836173;-0.050860897;-0.0030958245;-0.04258455;-0.04565265;-0.007997405;-0.041843966;-0.049677547;-0.15005052;-0.057804476;-0.024522169;-0.008751514;-0.13797109;0.052260857;0.04973665;-0.033813972;-0.11595544;0.07163914;0.025453245;0.009674015;0.07892434;-0.11117318;0.046490077;-0.07542341;0.091753215;-0.12998402;0.037214153;0.036378372;-0.086567484;0.02982746;-0.08470725;0.17909704;-0.05201927;0.024633814;-0.053720023;-0.052870523;0.04573702;0.044012934;0.059050232;0.0007647722;-0.028234351;0.021744832;-0.078148104;-0.11435594;0.06617101;0.123286106;-0.020343153;0.09577898;0.1700741;-0.029325072;0.0338588;0.033216786;0.03163957;0.049278002;-0.019533802;-0.0067200796;-0.0043407283;0.03543342;-0.00841596;-0.07081807;0.06863655;-0.044168033;-0.072046585;-0.017048465;-0.06343039;-0.027795052;-0.062248018;-0.14073785;0.0068934304;0.0011144126;-0.08838301;-0.10290818;-0.04930511;-0.05897033;-0.098212704;-0.097245716;-0.044315424;-0.13035028;-0.1841954;-0.13429178;-0.009433952;-0.04239877;0.042857442;0.094495565;0.033541154;0.04787976;-0.05904851;0.036056105;-0.16158792;-0.058735028;0.020783652;0.13757506;-0.079912886;-0.12109667;-0.09455632;0.028303823;0.024106685;-0.049507916;0.014577653;-0.120902345;-0.05365146;0.009539891;0.0013527627;-0.05435221;-0.10066617;-0.013562149;-0.015992679;-0.08485668;0.046639267;-0.08148356;-0.043202717;-0.0452222;-0.07702282;-0.041222353;-0.024617368;0.029398875;-0.03480089;-0.07192092;0.025179163;-0.1419509;0.053084843;-0.046534263;-0.10045994;0.11171108;-0.019252634;-0.10799743;-0.08194627;0.059204448;-0.09187178;-0.09033829;-0.019671246;-0.039379664;0.014631851;-0.10910482;-0.13564222;-0.085001014;0.053859994;0.047919914;-0.106634624;0.0005392865;0.04391494;-0.039230965;-0.06628802;0.043772046;-0.14629066;0.035925843;0.074382745;-0.016597714;-0.104748875;-0.08414;-0.04576459;-0.004309389;-0.08473012;-0.024738662;0.05583396;-0.15159672;-0.027157571;0.06664334;0.034000304;-0.06574336;-0.042481422;-0.020003507;0.022137659;-0.039232094;-0.03731193;-0.11867355;0.0024310804;0.054936275;-0.022489712;0.030204793;-0.056791354;0.016033141;-0.15913068;-0.09846204;0.0603739;0.08757879;-0.12668434;0.022764223;0.088505365;-0.12737316;0.0042989184;0.049674004;-0.07766138;0.017171627;-0.1555008;-0.02978429;-0.100449346;0.06508632;-0.009250411;-0.029521424;-0.027147083;0.0028141737;0.07501866;-0.0010577521;0.14983895;-0.06573772;-0.06643057;0.03272922;0.047430605;0.029157793;-0.14796537;-0.09672998;-0.087532565;-0.06298111;-0.012623097;-0.010214096;0.05175188;-0.053225875;0.016601661;-0.1099102;-0.065860145;0.056189086;0.0376104;-0.044714093;-0.0064742477;-0.04410241;-0.07643247;-0.09592896;-0.057345953;-0.04109612;0.00088642596;-0.0155181885;-0.09532708;0.015384764;0.024852335;0.013827001;0.007826015;0.11483088;-0.09754253;0.0089859925;-0.012492589;-0.05123791;0.038637705;-0.0764513;-0.05031242;-0.09620196;0.0377649;-0.022123875;0.03934398;0.018284515;-0.020595865;0.06953724;-0.0042033773;-0.02792035;-0.0776947;-0.02837742;-0.10548757;0.003051137;-0.0197268;-0.004806935;0.032547556;-0.014464753;-0.06450691;-0.08359365;0.09944035;0.03987838;-0.09333216;0.046489384;0.0070593962;-0.085488774;-0.0053046783;-0.074647814;-0.02355089;-0.017416961;-0.09221348;-0.054518115;-0.07372107;-0.06421162;-0.02203793;0.0744077;-0.109201714;-0.11704304;-0.003808428;-0.065636866;0.044451576;-0.03193935;0.056028165;-0.022739083;-0.07182187;-0.11891002;0.0563338;-0.07435894;-0.20315468;0.09809148;-0.035883345;-0.06143421;0.06184925;0.17228657;-0.13858663;-0.10712368;0.042574774;-0.071733855;-0.036040433;-0.0020214631;0.039998952;0.05216884;0.005462711;-0.03647444;-0.08963233;-0.04682735;-0.097765096;-0.0806857;-0.0732377;-0.015396248;-0.010544482;0.068100475;-0.016858686;-0.061001156;0.034877136;0.11411476;-0.027180806;-0.06305086;0.003183176;-0.0070551685;-0.03513679;-0.15427639;-0.07892352;0.044129238;-0.09291865;0.029825144;-0.01281563;-0.026732508;-0.0037536158;-0.0683848;-0.1255445;-0.0031016741;-0.048012048;0.035320647;0.026401771;-0.00990061;-0.06267269;-0.10930982;0.084094755;-0.00310321;-0.17149845;-0.077229485;-0.027855271;0.031136772;-0.119699374;-0.12016022;-0.14786166;0.035693087;-0.05460002;-0.050314847;-0.11288528;-0.18783672;-0.0036930246;0.018736847;-0.07048531;0.092159964;-0.031077022;0.10479622;-0.09737728;-0.115405485;0.030725883;-0.016579583;0.017591674;0.03908983;0.005193636;-0.035086256;0.030443264;0.045333404;-0.08918489;-0.006605404;0.06262892;-0.06676525;-0.034746952;-0.07806047;-0.106671534;-0.014884028;0.058837444;0.018218586;0.09798622;0.089475356;-0.009914351;-0.0109739425;-0.025190486;0.004011696;-0.082723185;0.07987527;0.06064004;-0.029992538;-0.08466973;0.021627048;0.034982473;0.053795874;0.006171395;0.02516628;-0.085444815;0.10836787;0.026682533;-0.039608203;-0.019125264;0.0042561395;-0.08833778;-0.10393499;-0.031591896;-0.07916022;-0.07094237;-0.05426398;0.012201574;-0.1306888;-0.04564731;-0.09213108;0.017207108;-0.12587234;-0.025770437;-0.15915325
-0.046605486;-0.1837296;-0.04296522;0.117786825;-0.14094783;-0.11832793;-0.07632175;-0.14644201;0.0130107235;-0.013003663;-0.14877495;-0.040203314;-0.11125285;-0.09630635;-0.056938946;-0.15170254;-0.2296774;-0.058666307;-0.10245212;-0.052217823;-0.05997725;-0.03385445;-0.043825917;-0.009858944;0.06042835;0.063263096;0.016893027;-0.05025848;-0.028186945;-0.09597033;-0.09274649;-0.02026578;-0.015566471;-0.106989056;0.017840758;0.04069457;-0.1217689;-0.03742927;-0.04841515;-0.045362815;-0.13701107;-0.05386246;0.056870826;-0.12940419;0.025152368;0.0525473;-0.006113679;0.032365657;0.023029298;-0.10038064;-0.054925643;0.021278756;0.009946425;-0.054158013;0.060969908;0.047593266;-0.10765584;-0.067698464;-0.035331514;-0.10791704;0.05556169;-0.005400242;0.020311868;-0.084126584;0.04776763;-0.048404988;-0.07432107;-0.05520631;0.062195543;-0.070781864;-0.11939939;-0.1268438;-0.079831034;-0.061025776;0.07958992;0.007148906;-0.07147093;-0.0063089905;-0.054626662;0.016445471;-0.019378033;-0.046487868;-0.09848275;0.055990078;-0.006424469;-0.08224965;0.041932017;0.11954176;-0.10905536;0.00848822;0.021501275;-0.034350827;0.02964586;-0.10510544;-0.082613796;-0.080800116;-0.028366406;0.09487231;-0.021174995;-0.10867142;-0.10904441;0.043536454;-0.02134574;-0.12590656;-0.10019185;0.06394123;-0.019068172;-0.056249835;-0.11897843;-0.17790495;0.001980123;-0.11352403;-0.0939749;-0.0019111568;-0.13056898;0.06977505;-0.08018241;0.14153221;-0.09274933;-0.059094917;0.051225748;-0.03783458;-0.06746825;-0.04477194;0.0027340306;0.061371904;-0.23110461;0.010366428;-0.058488443;-0.09261579;-0.13927376;0.109091505;0.018121205;-0.011673812;0.036372915;-0.056348935;-0.06837057;0.10884191;0.016287085;-0.057121612;-0.017855296;-0.09767804;0.0031968744;-0.061881274;0.012285623;-0.10070283;-0.06851245;0.03043871;0.1050898;0.055753823;0.048692483;-0.0024063895;-0.09299246;-0.07327993;-0.047079634;-0.05730884;-0.07178253;0.07782548;-0.13558508;-0.07275851;-0.023255304;-0.15169042;-0.14156231;-0.0111159375;0.08049152;0.0105973575;-0.06890527;0.09422027;0.05628719;-0.04188762;-0.124309756;0.0017995043;-0.0024566762;-0.08150167;0.040504012;-0.01037088;-0.13733006;-0.08644167;-0.09376609;-0.053358838;-0.037505724;0.09921717;-0.0749736;0.030463306;-0.08657329;0.07849071;-0.059012793;0.011641137;-0.06795544;-0.16131915;-0.03772551;-0.06919768;0.034213323;-0.14608411;0.09106184;0.07649071;-0.060366813;0.016376099;0.015089927;0.16981216;-0.011068227;0.056758102;-0.021038456;-0.092792094;0.06290891;0.05717978;0.02311906;-0.1461981;-0.036730524;0.0016649669;-0.074954085;-0.081895426;0.039099753;0.09012663;-0.13382317;0.10683851;0.13996017;-0.08365436;-0.03177667;0.013749633;0.022641491;0.048792735;0.032813698;0.010074038;0.034249485;-0.065072805;0.033095147;-0.17143352;0.044484567;-0.0039760023;0.013887552;-0.049134996;-0.11642681;0.04263278;-0.1138149;-0.14831887;-0.035145137;-0.04518537;-0.014187767;-0.016414914;0.019307561;-0.048055395;-0.097380675;-0.07442199;-0.011688042;-0.16009678;-0.20524804;0.028439883;-0.049015943;-0.032155354;-0.042459592;0.1015962;0.009148017;0.054739255;-0.049455866;0.1077137;-0.049615912;-0.012959641;0.061732225;0.09165074;-0.003936261;-0.0787751;0.0070059095;0.022093954;-0.002931643;-0.08336609;0.039752293;-0.11529303;-0.0891117;-0.054350443;-0.0007605545;-0.034158476;-0.09607241;0.086562;-0.05831837;-0.09778854;-0.012576327;-0.088862844;-0.1132213;0.025417339;-0.019300466;0.055804193;-0.1224023;-0.06310632;-0.023477022;0.023806678;-0.084679;-0.058312517;0.052479338;0.035111386;-0.008992411;0.018754438;0.05497875;-0.0040619443;-0.15018348;-0.08093915;0.01240489;0.01609327;-0.07245152;-0.09739772;0.06021891;-0.04472334;-0.064738385;-0.11294563;0.016964393;-0.03630475;-0.060914785;-0.01247171;0.042601522;-0.026863763;0.0038015868;-0.02119098;-0.11530211;-0.031616036;-0.043746445;0.021976586;-0.08969635;0.0030018303;0.00023812706;-0.036949255;-0.010052272;0.033830233;0.012511878;-0.089707956;0.029332044;-0.033663757;0.004283072;-0.118224;0.0027451632;0.01854307;0.0042690113;-0.11477576;0.048606895;0.00254196;0.05856703;-0.060315747;0.028910555;-0.08404889;-0.041296035;0.013371368;-0.055630773;0.04789757;0.13545474;-0.0003771802;-0.069251;-0.06579776;0.089820445;-0.056949023;0.04713853;-0.073282786;-0.055197697;0.008813793;-0.18609285;-0.059240207;-0.044304896;0.021415541;0.055287752;-0.055197854;-0.08137306;-0.07511405;0.13270834;-0.10087188;0.12068861;-0.084174976;-0.06201229;-0.057104792;-0.042172007;0.05228967;-0.07713554;0.037276745;-0.083658375;-0.11514563;-0.024937961;0.118508905;-0.046532612;-0.023598976;-0.07301154;-0.075566776;-0.08929658;-0.0329461;-0.0781095;0.01598309;0.022820234;-0.083737455;-0.03264388;-0.04962877;-0.12769693;0.035819393;-0.10864623;-0.063553795;-0.09930556;0.020272719;0.037265614;0.034103207;0.093069054;0.02547034;-0.061750475;-0.010283073;-0.044666033;-0.027250001;0.013101353;-0.048167326;-0.06932197;-0.08577498;-0.019887755;0.011914401;-0.077005036;-0.0628585;-0.06446793;-0.089969106;0.04560989;0.024207918;0.032491744;-0.010960155;-0.077179946;0.022292197;0.04186724;0.035341628;-0.078367285;0.0081265345;-0.15119629;-0.047282837;0.1354637;-0.10932063;-0.08982458;0.05949383;0.05199102;-0.040323723;-0.12601753;-0.09330568;-0.07685428;-0.030185767;0.017296914;-0.13365406;-0.047299504;-0.0061082086;0.03943819;0.008956257;-0.09401689;-0.06765156;0.05031716;-0.07022559;-0.043302048;-0.15433039;-0.07248309;-0.06653312;0.010006207;-0.06020948;0.005310407;-0.11307463;-0.20193245;0.09686611;-0.16965584;-0.009367455;0.06340132;0.13745178;-0.17150311;-0.04380976;0.0030929819;-0.04422785;-0.06604453;-0.016411813;-0.052237593;0.042395826;-0.115499705;0.06883352;0.019178746;-0.12500916;0.016580582;-0.070544;0.025295313;0.053211395;0.003473791;-0.042939223;-0.0891752;0.05830484;0.0013445035;0.119284615;-0.07953258;0.06749225;-0.023495667;-0.069350295;0.04052882;-0.16240555;-0.046874072;-0.07318682;0.001797094;-0.012759374;-0.13932529;-0.046253584;0.0016234895;-0.011712621;-0.116456665;-0.0913993;0.036452014;0.042880476;0.04811481;0.05958232;0.0095661115;0.02401406;0.0068450863;-0.034793064;-0.10311294;0.01611741;-0.06813776;-0.012892409;-0.06450618;-0.16673021;-0.10573229;-0.10900299;-0.056566462;-0.005776179;-0.11080227;-0.19169733;0.034939144;0.05844494;-0.050084762;0.039848782;0.012140616;0.026343474;-0.1132281;-0.057061784;0.070941225;-0.010470258;-0.111203976;0.007348192;0.056979448;-0.0005870311;-0.07804056;0.030755281;0.034367524;-0.06984665;-0.069404304;0.02568768;0.06891591;0.0001838073;0.02516766;0.025050577;-0.033250812;-0.0049825422;0.07336228;0.019093629;-0.08538609;0.0053863027;-0.06465843;0.031745404;0.023624748;0.11297953;0.05730223;-0.03986376;0.015465448;-0.013145527;-0.056180406;-0.030098956;0.06426395;-0.030683158;0.064268894;0.06295115;0.03662367;-0.04387469;-0.0284324;-0.025921505;-0.11214107;-0.06813043;0.001077561;-0.052763317;-0.037369583;-0.13471836;0.04405234;-0.13238244;-0.061048873;-0.11457311;0.07796627;-0.067121685;-0.06240872;-0.15023282
-0.04347651;-0.049824025;0.026876377;0.15244833;-0.101153076;-0.03140433;-0.032278307;-0.10453322;-0.019221375;-0.100912295;-0.1116231;-0.023801008;-0.1126067;-0.10598184;-0.09131543;-0.16518927;-0.18423133;-0.05979259;0.038438234;-0.063865125;0.011395264;-0.076793306;-0.08334637;0.08908849;-0.04442106;-0.06194295;0.013625946;-0.0200472;-0.04816171;-0.034507483;-0.026808213;0.002281629;-0.014524772;-0.103743404;-0.07798523;0.063211106;-0.05487305;0.013055124;0.0101529565;-0.006374708;-0.120543346;0.046065412;-0.06200741;0.023762021;0.010122901;-0.0687007;0.029767135;0.024609858;0.023673631;0.03769706;-0.005283063;0.025939697;-0.09077434;-0.06904138;0.026431963;0.024468107;-0.058096025;0.0065549235;-0.021484027;0.025794318;-0.11255459;0.017989893;-0.024362171;-0.08615252;0.030053107;0.0065527377;0.007977337;-0.035712287;0.07373119;0.013561493;-0.090291284;-0.09966161;0.012679425;-0.05729734;0.14866547;-0.068096854;-0.012584128;0.00912944;-0.093919076;0.106297724;-0.037727315;-0.0034316028;-0.012029534;-0.048465837;-0.021474062;0.009211469;0.059851274;0.19292814;-0.07702641;-0.12023357;0.008811541;-0.06464321;0.040573526;-0.09112337;-0.036074728;0.009848039;0.012330582;-0.047337197;-0.078975394;-0.122964926;-0.027331172;-0.08630531;-0.108662315;-0.068453856;-0.0712555;-0.10116885;-0.0469842;-0.023950694;-0.1027534;-0.025917098;-0.08770813;-0.066002086;-0.031191487;-0.0127073685;-0.010752755;0.0079497155;-0.028891494;-0.018228747;0.040180672;0.036115;-0.07837169;-0.118000984;-0.18135089;-0.0047757295;-0.039708003;0.023136321;-0.2041344;0.014732525;-0.008578217;-0.00043214698;-0.06981816;0.06980288;-0.0504189;-0.06938864;-0.023606623;-0.009421807;-0.05381341;0.08634294;-0.06765876;-0.06289107;-0.040701937;0.018353473;-0.072081655;-0.10613688;0.012050677;0.03575564;-0.01789486;-0.11472928;0.054218255;-0.08077196;0.14126931;-0.06292943;-0.07462515;-0.039124727;-0.09628486;-0.072505996;-0.0039951038;0.03691152;0.012577178;-0.032989107;0.042026717;-0.14744744;-0.03739262;-0.036979232;-0.002519027;0.028718442;-0.02897812;0.115968905;0.091927454;0.004575105;-0.05950338;0.003214877;0.009613975;0.030267052;-0.017575646;0.022473713;8.6883476e-05;-0.063308984;0.04096853;-0.06553956;-0.12777072;0.057277445;-0.099162765;-0.00085104303;-0.12498111;0.03285496;-0.12878227;-0.074158184;-0.0639036;-0.028856639;-0.013460213;-0.038690258;-0.020787064;0.015561279;0.10559205;-0.02011667;0.05075352;0.054612625;0.0070333364;0.095762946;0.018862547;-0.040856965;-0.060512986;-0.05538036;-0.058613278;-0.014731454;-0.012444071;-0.025982961;-0.081454426;0.1242512;-0.013958834;-0.052993856;-0.081926316;-0.011989598;0.002804551;0.09167639;0.058213882;0.041758575;0.06984655;-0.028109375;0.039936982;-0.084302664;0.0074849995;-0.09180563;-0.030939987;-0.028975725;-0.028290424;-0.07030897;-0.01992611;0.045082267;-0.08704729;0.014326092;-0.019476242;0.07532007;-0.058516257;-0.07056014;0.017210422;-0.020823808;-0.029653708;0.0045880675;-0.09918787;-0.05260163;-0.068011686;-0.07601002;-0.05035274;-0.16199619;-0.17464559;-0.12219413;0.034191806;-0.055164713;0.0895292;0.075760916;0.040874273;-0.09225868;-0.09842303;0.013520455;-0.08440133;0.031561773;-0.090183355;0.04555838;-0.0535192;-0.16811211;0.052564282;0.04361869;0.029750528;-0.0009815004;0.02408806;-0.06941318;-0.021958124;-0.10238901;-0.00399877;-0.09160373;-0.04722222;0.085256614;-0.008396979;-0.08722896;0.012478526;-0.090131365;0.021337533;0.06869008;-0.11730985;-0.0070728706;-0.13633779;-0.019535668;-0.09914253;-0.045484383;0.03287612;0.00095854636;-0.051763017;0.021415224;-0.10988111;-0.027698066;0.052556578;-0.07319389;-0.03178392;0.03452623;-0.119968474;-0.06754306;-0.08465081;0.015718844;0.0470166;-0.028758181;-0.08994233;-0.0029758199;-0.047607847;0.04369587;-0.09635162;0.025752353;0.0170585;0.027583472;-0.008861027;-0.070340686;0.010986754;-0.046060707;0.0700134;-0.07508489;-0.10510905;0.003794686;0.0048771934;-0.070004255;-0.08845097;-0.06851293;0.013048926;-0.09369301;0.074416585;-0.016290687;0.10121818;0.00497558;0.016750485;0.00951329;-0.05136463;-0.13272877;0.08287853;-0.09582087;-0.0745123;-0.043489266;-0.038730957;-0.016098162;-0.03159376;-0.0410077;-0.08367581;-0.061487872;0.12718116;-0.07281994;-0.016580919;-0.04887809;0.056977477;-0.12498441;-0.019607864;0.01392001;0.075445205;0.017145561;-0.15433879;0.045714226;0.055778712;0.03845862;0.06578507;-0.009895671;-0.03308661;0.030508142;0.058545154;-0.059989735;0.14383133;-0.11775731;0.01861136;0.052018482;0.0052259117;0.034911696;-0.140562;-0.03844599;-0.049462028;-0.01988055;-0.08228142;0.019585298;-0.07574291;-0.09727588;-0.08084744;-0.052267306;-0.0072365436;0.065767124;-0.02197041;0.07289043;0.07878466;-0.01630656;0.0053858743;0.031822227;-0.15084346;0.002460128;-0.06896633;-0.07745436;0.0143748615;-0.009078969;-0.08369988;0.042550802;-0.005439798;0.047510736;-0.070534766;0.015056681;-0.012576015;-0.05003804;-0.08390182;-0.10479789;-0.14685185;-0.041800052;0.034749076;-0.03386407;-0.010134707;-0.07431954;-0.017128533;-0.009870775;0.0563409;0.025755398;0.014494679;0.07775691;0.013725333;-0.05894005;-0.07949693;0.06655086;-0.08463363;0.02835787;-0.11361783;0.016442684;0.06887207;-0.06731888;-0.010738388;-0.022926778;0.0016921302;-0.01542131;-0.079503216;-0.086729236;-0.07119989;-0.07929938;-0.015732745;-0.07446139;-0.07025647;-0.1118653;-0.103946015;-0.031506278;0.042948212;-0.0340119;-0.025113845;0.03865512;0.018247806;-0.02492839;0.03332762;0.047019985;0.03824429;-0.09580513;0.019025626;-0.100219116;-0.14890459;-0.046761233;-0.058854178;-0.14416757;0.09904895;0.17122379;-0.102042176;-0.046173234;0.024043346;-0.035229623;-0.054218184;-0.06667668;0.023321753;0.070881106;-0.023897119;-0.07737818;0.010287068;0.029416543;0.017340947;0.05329418;-0.031013824;0.054023128;-0.012260968;0.02350321;-0.022033233;-0.07389859;-0.014806507;-0.008943618;0.00875191;-0.021090407;0.031979725;-0.09490764;-0.0025758701;-0.17765579;-0.01984127;-0.047874;-0.037194587;-0.058466822;-0.13089302;-0.013970263;-0.07379625;-0.11913716;-0.11129955;-0.03668286;-0.0508856;-0.108580455;-0.020599365;0.035460312;0.026659053;-0.017769901;0.041692264;0.04306495;-0.0057932967;-0.044909034;-0.056125026;-0.017590068;-0.07566536;-0.07348505;-0.073359326;-0.10328689;0.061043642;-0.07496017;-0.08968768;-0.2087014;0.035439048;-0.068557456;-0.062269755;0.023600152;-0.023608135;0.042375006;-0.12749481;0.028497284;0.059478756;-0.045171335;-0.047019046;-0.041997466;0.018953053;0.017234875;0.0073441747;-0.019778974;-0.042106383;-0.03793208;-0.06986968;0.0088596195;-0.09094623;-0.065422274;0.027870309;-0.0039126235;0.062099222;-0.049952343;0.095812954;0.02362951;-0.015921155;-0.085133396;-0.016538298;-0.07406259;-0.023843436;0.12694213;-0.0010458814;-0.028098127;-0.08464733;0.040946327;-0.047449887;0.03626322;-0.053747725;-0.011610466;-0.021828676;0.040811997;0.0027018245;-0.07374849;-0.072066955;0.03310699;-0.107904896;0.0464021;-0.096722916;0.0009289887;-0.035402652;-0.04994902;-0.027074303;-0.12850924;0.023108274;-0.022026557;-0.057296388;-0.048487462;-0.05419174;-0.02339443
0.048530124;-0.054956973;-0.032227684;0.060589593;-0.11693086;0.0069363425;0.03271715;-0.1160322;0.099772505;-0.087341316;-0.07486479;-0.14062905;0.023106966;-0.0006572133;-0.060998417;-0.0066830395;-0.07402641;-0.034176886;0.039703563;-0.022482168;-0.0072354856;0.035528164;-0.016366728;0.0055084275;-0.062921815;-0.06567186;0.037840877;-0.10364922;-0.1282694;-0.1077508;-0.10935153;-0.08375976;-0.060029626;-0.11704749;-0.028483626;0.05788551;-0.05440007;0.049989425;-0.06422237;-0.040464677;-0.059012614;-0.04485363;0.06624352;0.011875892;0.014862075;0.0027913714;0.052272256;0.0085239345;0.03396697;-0.0018845557;-0.05483366;0.013548755;-0.08948081;0.057112116;-0.01598745;-0.07283207;-0.080809146;0.048564225;-0.09366277;0.010429309;-0.06273806;0.016628295;-0.05230798;-0.0944547;0.0327615;-0.04504076;-0.033777077;-0.024633007;0.014096804;0.011808383;-0.06493082;-0.00019957434;-0.0416752;-0.102506116;-0.0024823898;-0.038911693;-0.038855586;-0.09167277;-0.104852445;0.05677443;0.033802383;0.025084225;-0.11606659;-0.027722668;-0.056916006;-0.050742526;-0.029012945;0.17492107;-0.13003628;-0.04400773;-0.016249733;0.093593284;0.013443896;-0.12434574;-0.034562077;-0.053863235;0.022606602;-0.0022679544;0.096755594;-0.07087923;-0.11378449;-0.024912098;-0.08338844;-0.01177717;0.030652676;-0.073259056;-0.08564299;-0.04210545;0.017987473;-0.1609061;-0.06711421;-0.11608659;-0.10279982;-0.02989765;-0.035978813;0.058705978;0.022188144;0.12695996;-0.0217381;0.013869939;0.033974487;0.01797062;-0.10847115;-0.037075225;-0.05072838;0.00031608832;-0.12181684;-0.0053004893;-0.06480721;-0.13484295;-0.117885634;0.120755404;-0.056389593;-0.056180265;0.0037725407;0.043560136;-0.01863047;0.040834498;-0.13604383;0.030103376;-0.10131507;-0.06630428;0.018586647;-0.095686466;-0.0033992338;-0.026994333;0.0011877761;-0.03723623;-0.010843629;0.019993726;0.07844604;-0.07472418;-0.09638728;-0.063413955;-0.014981538;0.05101723;-0.07058663;-0.08456287;0.013950923;0.06194261;0.027746715;-0.08695921;-0.031823467;-0.10427536;0.056948002;0.012186436;0.08267616;0.023276588;-0.06544227;-0.059210274;0.008953759;0.03442717;-0.051904965;0.059793647;0.004147918;-0.10571095;-0.12429918;-0.1158947;-0.06930676;-0.046499245;-0.029718548;0.07730707;-0.07383727;-0.029165776;-0.015358248;-0.07720327;0.02206191;-0.0345058;0.07385965;-0.15154117;-0.018123556;-0.087146185;0.07307846;-0.10623974;-0.021356788;-0.057664976;0.03557898;0.036284868;0.019486291;0.19535796;-0.047819216;0.021218468;-0.022995556;-0.0020636697;-0.057192963;0.029712498;-0.008969695;-0.09761275;-0.08541677;0.019202597;0.03529227;-0.055783622;-0.020793337;-0.07236103;-0.044745516;-0.0035863165;0.1613831;0.052683935;0.042298716;0.002973261;-0.0033336126;-0.014129637;-0.038342424;-0.06255883;-0.090438165;-0.10673958;-0.117637396;-0.16631958;-0.018186301;0.00066699635;-0.03171298;0.018711481;-0.104897246;0.009738243;-0.036953073;-0.08276957;0.00246759;-0.06620444;0.028374383;-0.081269324;-0.040817328;0.022989538;-0.014935968;-0.07718466;-0.079704985;-0.11315951;-0.1580053;-0.059417542;0.006924627;-0.102133155;0.10008553;0.098750204;0.034453448;-0.07920255;0.009515748;-0.021661725;-0.09932842;0.03906527;-0.00015219607;0.10557181;0.0026548929;-0.1086585;0.013525976;0.0012744273;-0.0045636357;-0.15667757;0.025555337;-0.08272049;0.015610011;0.047466867;-0.056056276;-0.018945158;0.037374847;0.1377038;-0.052278806;-0.11928455;0.04359466;0.06804882;0.010759755;0.07147991;-0.064173765;0.05943305;-0.010641401;-0.09135919;-0.039416585;-0.038218167;-0.089772865;-0.0073870346;-0.010489101;-0.12126408;0.059203487;-0.0015811383;0.10314941;-0.021901174;-0.15636875;0.05454559;-0.12322539;-0.102100894;-0.08718073;-0.007165697;0.03774467;-0.015467348;-0.046148024;0.013911103;0.061835386;-0.016490322;-0.04112411;0.01981353;0.014434667;-0.032034665;-0.052156117;-0.036206942;-0.12184832;-0.08841481;-0.012907648;-0.058191717;0.0356135;-0.13981488;0.0065107257;-0.03933464;-0.0743584;-0.043166168;-0.04435449;-0.040383212;-0.044973545;0.02261667;-0.016718796;-0.059836514;-0.0056689745;0.011968713;0.032131825;-0.013197214;0.02277509;-0.10023915;-0.040429424;-0.059329793;-0.044390406;-0.03139483;-0.05782945;-0.09238692;-0.12162903;-0.016317211;0.016071962;-0.05182759;-0.047979705;0.005969233;0.010248563;0.007459258;-0.055483602;-0.07359629;-0.07603061;-0.114530735;-0.15583695;-0.058064774;0.024058636;-0.037150107;-0.013934408;-0.07478083;0.011056932;-0.051011972;0.15224732;-0.0858563;0.016079048;-0.106859215;0.055009183;0.02957713;-0.080463305;-0.029877052;-0.037700888;0.025598323;0.003322873;-0.06060474;-0.068592146;0.007727688;-0.0014178173;0.017219907;-0.017883727;-0.033901636;-0.05587157;-0.008491649;-0.016330961;0.013276082;0.021916542;0.017181959;-0.07059788;-0.033316143;-0.022492595;0.050281666;-0.07507172;-0.04256786;-0.09536076;0.064606346;-0.044246886;-0.09375205;0.0058113625;0.025069702;-0.033433978;-0.03787928;-0.12503137;0.034797933;0.0030691703;-0.015950207;-0.100581735;-0.06897494;-0.06683714;0.004607926;-0.07093782;-0.09842613;-0.05261531;-0.054203916;2.7570568e-05;-0.031170202;0.06195758;0.057710655;-0.010458683;-0.0012843839;-0.07848588;0.0009992372;0.0071607535;-0.07052483;-0.116930455;0.025093662;0.08439585;-0.025387486;-0.10514048;-0.019713089;0.0429365;0.002728665;-0.13021807;0.013816829;0.04569681;-0.10463782;-0.040976446;-0.13757126;-0.045380417;-0.07708107;-0.06854638;0.060195755;0.006199557;-0.00264349;0.045257647;0.027867243;-0.0019884675;-0.18384199;0.06109114;-0.02006131;0.07214097;-0.083000705;-0.047262684;0.00044122915;-0.24478504;0.026117714;-0.085682504;-0.11811121;0.043342337;0.14643541;-0.025597084;0.04294232;0.031885684;-0.03871378;0.015226404;-0.028441485;0.026588183;-0.0679108;-0.0381483;-0.06071885;-0.14355138;0.037629623;-0.021773588;0.059305236;-0.016744684;0.041357674;-0.07247767;0.0003822897;-0.0066228784;-0.07398507;-0.023720054;-0.0022542567;0.009377769;0.032086417;-0.07194363;-0.08607309;-0.10268393;-0.018634051;-0.07356618;-0.012494884;-0.11577916;-0.0062683127;-0.13662334;-0.0071973726;-0.047414847;-0.0398584;-0.11163836;-0.038143773;-0.04634697;0.027657539;-0.08875734;-0.07618966;-0.031929098;-0.101087354;-0.08884966;-0.0631394;-0.11139897;0.033283725;0.012927197;-0.0012268287;-0.0014850206;-0.21452567;-0.13692912;-0.07922174;0.123104885;-0.09819158;-0.0064988686;-0.115776345;-0.0025649902;0.0387847;-0.07502439;-0.0044167447;-0.058536794;-0.09998697;-0.028453497;-0.0063592144;-0.0066009387;-0.018474609;0.03586714;-0.07901394;-0.042939536;0.013523212;-0.031996746;-0.0139481975;0.0057761823;-0.061724693;-0.07041546;-0.045879107;0.024656307;-0.03399027;-0.05111237;0.032525383;0.05061224;-0.040044464;0.06570331;-0.055442944;0.026068933;-0.06755954;-0.022728102;0.028311547;-0.014275657;-0.013041526;0.0658531;-0.09519681;-0.0013897824;-0.09402999;-0.05352097;-0.047348253;0.0044466155;0.01760226;-0.033688184;0.03453152;-0.063720874;-0.05293438;0.0033217538;0.025912952;-0.06517778;-0.07436255;-0.0435535;0.010100959;-0.054935675;-0.11295224;-0.028817976;-0.13025537;-0.066060625;-0.07568573;-0.0021209;-0.010380747;-0.1172282;-0.16275604
0.0041558845;-0.1545144;0.015933817;0.12652247;-0.14253433;0.023891237;-0.0018864103;-0.0061246604;0.052082814;0.025557358;-0.14218122;-0.031741317;-0.11962881;-0.06983808;-0.011041799;-0.008631786;-0.15402786;-0.022292936;-0.070461474;0.07576658;-0.017781433;0.050414097;-0.043624483;0.078279026;0.0076152175;-0.042525172;0.0017614568;-0.087472185;-0.121655025;-0.024195068;-0.144358;0.0019510493;0.047998853;-0.029162759;-0.03609054;0.0435253;-0.10623248;-0.0059824926;-0.05895459;0.026799656;-0.09815361;0.058272168;0.025485871;-0.055614635;-0.049556166;0.0637328;-0.07383175;-0.043340184;0.05243433;0.0191799;0.020171495;0.028327566;-0.045515794;0.006976221;0.040188745;0.01686967;-0.1306686;0.053494748;0.067683;-0.0074488334;-0.0113026565;-0.0031819518;0.038166106;-0.034248732;0.044440538;-0.049935464;0.024901861;-0.017812725;-0.037663244;-0.026191859;-0.068614945;-0.11835276;-0.08296967;-0.06345876;0.07623683;-0.06497011;-0.045104455;-0.032589156;-0.0014949956;-0.05233059;-0.03159849;0.03044551;-0.0671372;0.01220603;0.0053043673;-0.12485419;-0.010591462;0.16683254;-0.10564688;-0.030721337;-0.07094198;0.061817884;-0.095933534;-0.09518668;-0.036455043;-0.08361896;-0.07200092;-0.0041147303;0.039497938;-0.09299118;-0.08489936;-0.02964004;-0.09720431;-0.051439147;-0.019963648;0.014384828;0.038065135;-0.026358375;0.015406844;-0.10055718;-0.045473434;-0.0836943;-0.08984414;0.033727333;-0.068873525;-0.086110875;-0.08368475;0.14655808;0.02572707;0.04250977;-0.03326142;-0.1257653;-0.19745578;0.014458633;-0.07254256;-0.05349648;-0.1312795;-0.07281209;-0.03120596;-0.040346622;-0.081411175;-0.013541096;-0.08305426;0.029017992;0.0011028983;-0.028042927;-0.10581327;0.045871347;-0.08512246;-0.11194872;-0.07615834;-0.0004769939;-0.08575954;-0.079338826;0.052573737;-0.04362569;-0.03687965;-0.048828214;0.033496298;-0.075269856;0.11858294;-0.07743702;-0.021056931;-0.0023930105;-0.04329803;-0.030936567;-0.11373024;-0.026271997;-0.0073228655;-0.04539425;-0.053133085;-0.14035961;-0.09127331;0.024298223;0.101545654;-0.012572742;-0.0123399105;-0.008805795;-0.083937384;-0.020656135;-0.1278303;0.027948163;-0.038199846;0.023019282;0.05553294;-0.1136148;-0.06181148;-0.060550246;-0.0008812066;0.052661277;-0.15040429;0.032636043;0.057893503;0.0051672;-0.120151;0.007621903;-0.06754051;0.048459526;-0.08078001;-0.009742154;-0.06960428;0.04916217;0.030818159;-0.06863126;-0.039249144;0.059023682;-0.013125267;-0.08440173;0.005276289;0.1637627;-0.10477031;0.005362929;-0.032025017;-0.010972144;-0.020773603;-0.0012338237;-0.030327633;-0.035645407;-0.036648616;0.03484041;-0.08050729;-0.04297358;-0.07397824;-0.010423259;-0.07887005;0.03448272;0.051431663;0.022083128;0.07207708;-0.011558285;-0.085740454;0.0012434726;0.031633377;-0.103422605;-0.10007323;-0.10450105;-0.012284363;-0.08319951;0.027379174;-0.077320285;-0.069745064;-0.06698632;0.0144908205;-0.074273035;-0.07128279;-0.14048287;0.02661315;0.027442321;-0.085878894;0.012734471;-0.026773937;-0.08004234;0.0141695;-0.01626033;0.052794814;-0.030832214;-0.112573035;-0.0778931;-0.037370685;-0.10776162;0.11287178;0.006850325;0.0060272943;-0.02722109;-0.03362288;-0.013615024;-0.12908557;-0.039395023;-0.033568308;0.018800769;0.03744028;-0.17455901;0.0038670714;-0.009533502;-0.07117288;-0.005750877;-0.060941886;-0.0033659642;-0.034129452;0.04910164;0.03422524;-0.019226829;-0.116626695;0.009393072;-0.0072946153;-0.09780597;-0.05964228;-0.040273134;-0.022118635;0.052732646;-0.02955468;-0.043359783;-0.09571202;0.012819717;-0.07792857;-0.05191902;-0.043905012;-0.061088305;0.014461352;-0.04332618;-0.049556058;-0.005850704;0.08455382;-0.012183663;-0.054377515;-0.0034084197;-0.10749289;0.008287285;-0.0187864;0.021266345;-0.049593896;-0.08650595;-0.077976555;-0.10414325;0.018773243;0.017464617;-0.05306595;0.008420845;-0.050490007;0.0004063973;-0.104699425;0.022621633;-0.11120959;-0.017704159;0.03509188;0.05249327;-0.09875977;-0.057534557;0.03318352;-0.006564644;-0.02431538;-0.02613104;-0.009630506;-0.087549955;0.009266474;-0.034149196;-0.030888211;-0.10213547;-0.094318666;-0.037635323;-0.04580813;-0.053179413;-0.08792138;-0.12287968;0.0419865;0.02570995;0.02169832;-0.08866834;0.05971848;-0.04347519;-0.14606254;-0.024457147;0.119999625;-0.059272926;0.0371483;0.017636454;-0.026911944;-0.019850405;-0.09254583;-0.07350371;0.024288997;-0.08211414;-0.124444865;0.0693118;-0.0028197253;0.056291558;0.019834459;-0.06146113;-0.04885951;-0.08884495;0.057469152;0.019888032;0.14389727;0.023911152;-0.05734191;-0.056341957;0.04060358;-0.04392896;-0.02162319;-0.06623967;0.016805163;0.017654965;-0.028745035;-0.08181805;0.026720105;-0.004940138;-0.06199525;-0.15534057;-0.10891959;-0.005392086;-0.079149686;-0.07476561;-0.07149094;0.015551335;-0.008636488;0.061530463;-0.16864634;0.037407186;-0.034339864;-0.04143461;0.03329097;-0.019432183;0.0039591845;-0.0042586536;0.01063099;0.062449776;-0.06874264;-0.043700296;-0.040619314;0.05573142;-0.015790088;-0.113665126;-0.053685255;-0.024675854;-0.017406138;0.0120678395;0.048340455;-0.03331199;0.03535749;-0.07309244;0.027248243;0.026372783;-0.06270965;0.050757375;0.015991926;-0.081850946;-0.071694575;-0.05620357;-0.08423151;-0.110591374;-0.16126688;0.027121501;0.08155752;-0.057445284;-0.04821959;-0.07440806;-0.06573168;-0.0782619;-0.03198043;-0.04075829;-0.012089669;-0.091924295;-0.019296488;-0.030712085;-0.08320715;-0.008718074;0.049961273;-0.071870826;-0.0046326625;-0.045763467;0.0075776065;-0.046626046;-0.020943763;-0.14122315;-0.026009806;0.011107914;-0.02478371;-0.09542671;-0.10564508;-0.017901292;-0.19163801;0.013952086;-0.09669853;-0.09980323;0.051570833;0.17307715;-0.10291203;0.000866009;-0.063563526;-0.0035984989;0.03205594;-0.08537967;0.05183327;-0.08330852;0.03320968;-0.033638477;-0.038876325;-0.050378215;-0.0031842194;-0.094977625;0.05527884;0.008626358;-0.09549776;-0.02820237;-0.071118355;-0.06973999;-0.06503203;0.029215135;-0.07855784;0.014940948;0.045378964;-0.114791356;-0.0909985;-0.12361396;-0.07707749;-0.09106737;-0.03300487;0.030479496;0.0017181982;0.009423746;-0.034925193;-0.10176252;-0.11631591;-0.021851497;0.018316457;-0.041160867;-0.06523911;0.0036875892;-0.04865537;-0.0014229907;0.009123619;-0.053133223;-0.03503653;0.092945896;-0.072587214;0.00353434;-0.024485147;-0.1165021;-0.14882015;-0.06553005;0.12325726;-0.08036209;-0.102489896;-0.1984211;-0.06642594;-0.057224512;0.01237605;-0.043556172;0.032954212;0.009547156;-0.013912264;-0.11560244;-0.068596035;0.04795119;0.053295154;0.037015203;0.034604482;-0.006465524;-0.028568484;-0.06303331;-0.005173997;-0.065434076;-0.021034827;0.023270924;-0.032263577;-0.11536659;0.0059330226;-0.010538633;-0.042032365;-0.09895235;0.050550934;-0.009873916;0.04537501;-0.006449325;-0.020594161;-0.06922762;-0.017017521;0.11533276;0.087429106;-0.05924915;-0.04347294;0.053948976;0.004720232;-0.04354499;0.047813565;-0.041134186;0.025378007;-0.012283455;-0.08934384;0.07682254;-0.07883319;-0.014698501;-0.09445976;-0.095420726;0.02085009;-0.004926718;-0.13458225;-0.043167397;0.03377754;-0.0192932;-0.009245346;-0.08253246;0.044836864;-0.06881879;-0.061539404;-0.055466138
0.04409126;-0.04284341;-0.0011421711;0.05033566;-0.14605151;0.008429552;0.052002285;-0.06635895;0.11946075;-0.008307021;-0.16506618;-0.029540058;-0.05469574;-0.06240912;-0.03951396;-0.0958629;-0.15815896;0.043610416;-0.050138693;0.027716193;0.020604286;0.007027724;-0.05659037;0.07167935;0.06296836;0.011936833;0.04800285;-0.12292253;-0.028112037;-0.054836538;-0.020263944;-0.040276848;0.028728243;-0.12086161;-0.09071298;0.046160135;-0.08394592;-0.01890566;-0.037236284;0.06544306;-0.037509095;0.049507916;-0.096012875;-0.10070274;0.013695123;-0.037864525;-0.07106467;0.056277584;0.12638171;-0.15262192;-0.034869622;-0.092406906;-0.10340049;-0.014333779;-0.04271253;0.026402073;-0.041701317;-0.07739352;-0.008368923;-0.002481444;0.0186993;0.017284758;-0.0804426;-0.06158702;-0.08193247;-0.027965691;0.000574175;0.015448631;-0.005301841;-0.041882373;-0.11184433;-0.009095084;-0.07911769;-0.010419784;0.055606302;-0.011287705;0.057331517;-0.10804621;0.0034044515;0.034458052;0.022575963;-0.07856743;-0.029660035;0.05339831;-0.054635365;-0.008099317;0.062207215;0.17671263;-0.025148341;0.026190937;0.011439141;0.08957844;-0.103062205;-0.12325088;-0.07173247;-0.12530233;0.011396838;0.047292598;-0.037110206;0.029378528;-0.092649736;-0.031782966;-0.056829214;-0.16649562;-0.052206542;-0.011844552;-0.0966337;-0.012095027;-0.031997085;-0.13766007;-0.016104879;-0.14257012;0.048651278;-0.030155545;-0.07181635;0.0024132289;-0.039688937;0.11392439;-0.070726514;-0.07566015;0.019497171;-0.06885514;-0.064871944;0.058108993;-0.07627262;-0.01905969;-0.11897208;0.039960086;-0.11506565;-0.049727544;-0.12995547;0.09439394;-0.011055682;0.0137589555;0.0034488123;-0.03444048;-0.088829026;-0.0096645765;-0.13767256;0.011162742;-0.09299313;-0.0073631955;0.005715631;-0.105395325;-0.03295876;-0.08368922;-0.047987986;-0.089670815;0.112277545;-0.043210518;0.0070828814;-0.05040672;-0.09218913;0.029654087;0.01446183;0.056160722;-0.06321539;0.054152727;-0.056394223;-0.044288497;0.04928074;-0.07799709;-0.03774774;-0.073467664;-0.04572808;-0.09028957;0.09748184;0.0017876189;-0.062528186;-0.058972795;-0.08687025;-0.102773234;-0.02642743;-0.08471944;-0.06454286;0.020329472;-0.0043293154;0.008915563;-0.026121523;0.008594977;-0.077543125;-0.09879544;-0.096940614;0.015735712;-0.036638148;-0.008900602;0.0044814637;0.060442857;0.0056458786;-0.026874298;-0.004885731;-0.071879245;0.0904687;-0.105245784;0.09807294;0.044053216;-0.012406627;-0.10961342;-0.10182132;0.085243374;0.0095974915;-0.09360022;-0.042080272;0.03914671;-0.053892616;0.007282825;-0.018941611;-0.060943894;-0.09209205;0.052731685;0.035674907;0.0039220587;0.0540151;-0.028649995;0.007673903;0.039093167;0.13769603;0.03490285;-0.029390344;-0.112944864;-0.049694154;-0.05850755;-0.07653596;-0.009367637;0.0238172;-0.11633263;-0.056894902;-0.13758896;-0.0369854;0.02508499;-0.04900863;-0.011635355;-0.038042128;0.020095764;-0.025111342;-0.10955206;-0.017567076;-0.01181408;0.018497009;0.037882295;-0.0584452;0.03351631;0.035095297;-0.09300977;-0.019061452;-0.008999168;-0.18398848;-0.07942668;-0.027187938;-0.124549486;-0.010944538;0.02056335;0.01550246;-0.04319695;-0.10777079;-0.02193722;-0.1210545;0.045728527;-0.048464514;-0.009690022;-0.09975985;-0.15762569;-0.01147639;0.008309952;-0.064512774;-0.056481384;-0.021954183;-0.059098873;0.027711278;0.046512797;0.02033404;0.01599918;-0.0007349946;0.09654264;-0.04883301;-0.13079755;-0.0029189899;0.05024314;-0.11114716;0.04664798;0.0002986478;-0.08576004;-0.10448537;0.0347926;-0.037869576;-0.011183451;0.07289584;-0.078606814;0.0029759998;-0.06219348;0.054247703;0.041064467;-0.026498353;-0.09186794;-0.121710494;-0.09092093;-0.104333855;0.02709614;-0.0049209394;0.015743187;-0.041290555;-0.1525355;-0.07484371;-0.07815801;0.09569234;-0.091607146;-0.07486987;-0.031666;-0.05002637;-0.050455224;-0.0033375982;-0.11093608;-0.1468189;-0.07219405;0.09903864;-0.02597849;0.020356793;0.014761598;0.046315238;-0.088701814;0.042937025;-0.01910858;-0.05391467;-0.12929194;0.038031604;-0.032767545;0.061214115;-0.09630612;-0.044954408;-0.09347029;-0.0035783588;-0.017729277;-0.09790365;-0.02174069;-0.024294926;-0.07219218;-0.06364657;-0.010753339;-0.01062813;-0.096540965;-0.024089571;-0.046951085;0.12777959;-0.044545196;-0.08942498;-0.033091668;-0.11138206;-0.087142594;-0.01051202;-0.07905291;-0.031356473;-0.103821374;-0.08140683;0.021676574;0.010767417;0.0713592;-0.026177801;-0.05177985;-0.08135875;-0.0027246608;0.002772401;-0.048375476;0.14322522;-0.10439624;0.06515473;-0.053592492;-0.078522645;0.017445082;0.009127779;0.026460884;0.0619985;-0.015848486;0.049851205;0.022494767;-0.029405573;0.020574035;0.026108146;-0.07741164;-0.033720337;-0.019044869;0.050264694;0.044078317;-0.025228115;-0.07480475;-0.009012467;0.059119787;-0.072690345;-0.07624297;-0.030528892;-0.016263412;0.021090673;0.10451789;0.044108592;-0.006037866;-0.09658853;0.049652666;-0.07929394;0.053816084;-0.16893688;0.027555073;0.031463534;-0.107015274;-0.034596432;-0.052416768;0.010808261;-0.09377288;0.022617267;-0.07350793;-0.098538026;-0.0034088788;0.082424834;-0.03902352;-0.08673028;0.014172374;-0.1069952;0.013519622;0.016798189;0.09308912;-0.12508798;-0.1259478;-0.105459966;-0.03941119;0.09569875;-0.10212065;-0.067463934;0.056452777;-0.058390982;-0.098196976;-0.1069183;-0.0490915;-0.0325502;0.016089076;-0.054553963;-0.13789429;-0.028141685;-0.0058964156;-0.009944196;-0.015697282;-0.07469022;-0.026156342;-0.040076062;-0.0073092584;0.047808405;-0.07597271;-0.003066813;-0.023891894;-0.01890271;-0.08632991;0.021069573;-0.10686637;-0.23275499;0.020813799;-0.17970599;-0.049822457;-0.022305926;0.07611683;-0.052844904;0.01762325;0.016864493;-0.09367037;-0.07304858;-0.07954234;-0.09395229;-0.062050913;0.011593997;-0.0075006383;-0.030237377;0.023650313;0.0035333938;-0.028582068;0.028398376;-0.04202616;-0.034975443;0.042023316;-0.09706407;0.010466803;0.013388776;0.0009216356;-0.04084221;-0.07946928;-0.08180413;-0.09473078;-0.03236322;-0.08320505;-0.08445231;-0.09480444;-0.10199677;-0.07361534;-0.072531216;-0.059339125;-0.023743547;-0.001699503;-0.076618865;0.027429558;-0.03453421;0.0027805187;0.038115717;-0.00625387;-0.07588282;0.002797352;-0.032129712;0.0069083674;-0.098974;0.06163941;-0.13719994;0.04603987;-0.11385456;-0.22486165;-0.04674006;-0.05139519;-0.00022008877;-0.019932544;-0.0445137;-0.2093547;-0.08838467;-0.02050762;-0.10122907;-0.08091566;0.026686009;-0.08228624;-0.0042023114;-0.034925237;-0.076349184;0.0060935672;-0.061205506;-0.084621355;-0.0072963564;-0.10855263;0.0064248466;0.008347575;0.057998303;-0.05459681;-0.018581461;-0.012952685;-0.01634689;-0.036525127;-0.09565166;0.0056771697;-0.119836524;-0.020175599;0.02005378;-0.10003582;0.052633826;-0.04996959;-0.08435301;0.025037823;-0.0813967;0.14410715;0.04804839;-0.019652827;-0.08355211;-0.10187857;0.032712486;0.030850515;0.057636812;0.08296919;-0.05939369;-0.061505042;-0.07325837;0.030035453;-0.02376132;-0.104973346;-0.1032114;-0.056346353;0.025908396;-0.06967993;-0.14471152;-0.060093448;-0.08687926;-0.026619447;-0.05875127;-0.04209841;0.009535318;-0.09090069;-0.03869377;-0.103989884
0.008163104;-0.13167743;0.016837355;-0.0035431092;-0.22725369;-0.03392236;-0.007813528;-0.110774875;0.11568534;0.06151181;-0.07290273;-0.0776774;-0.11361241;-0.113505;-0.0042537604;-0.11310243;-0.23430918;0.0040770187;-0.012911365;0.05972081;-0.0147618735;-0.06075121;-0.03775823;0.04711119;-0.05593898;-0.0697164;-0.07188042;-0.02720366;-0.048356302;-0.046452474;-0.03422145;-0.013980508;0.07068378;-0.029543744;-0.061817113;-0.081803784;-0.085033126;-0.048165835;-0.103368886;-0.011213161;-0.07122795;0.014060595;-0.0174438;-0.061715245;-0.10384003;-0.072305106;0.027907522;0.031113533;0.1048877;-0.12446152;-0.09625907;-0.07166907;-0.026892567;-0.012470981;-0.06819286;0.04422656;0.009623002;-0.08684172;-0.016613137;-0.06843459;-0.06797653;0.013754547;-0.094915085;-0.13263392;-0.078717545;0.01768087;-0.02364484;-0.018632269;0.0022890319;0.052334744;-0.15991613;-0.075844415;-0.006919503;-0.098858476;0.020764321;-0.065612584;0.036998317;-0.0911689;-0.068113506;-0.04923852;0.03575349;-0.03279002;-0.12866732;-0.046234325;-0.02362068;-0.057205785;0.04233823;0.14453754;-0.10609411;-0.030856416;-0.09460485;-0.053399753;-0.04820226;-0.17992437;0.055264257;-0.09416097;0.07503965;0.025467372;-0.036708754;-0.018623488;0.030277178;-0.054756444;-0.13761792;-0.105666414;-0.014562871;-0.04572751;-0.022940794;0.03133685;-0.07454126;-0.04612514;0.05513663;-0.09740559;-0.07180706;-0.0419421;-0.14704284;0.057553668;0.040095244;0.11189912;-0.09488234;-0.09042452;-0.07654341;-0.0946869;-0.06072957;-0.00832844;-0.020419566;-0.1054418;-0.19201906;-0.00374975;-0.042884156;-0.10805755;-0.03436824;0.019800896;-0.10834731;-0.10037234;0.031026995;0.015218415;-0.0719165;0.094654016;-0.06842724;-0.085329354;-0.1395026;-0.110205755;-0.021830048;0.038385756;0.044794437;0.005036737;-0.01576941;-0.11368807;0.009756273;0.052770633;0.10572104;0.014240135;-0.06929206;-0.013897429;-0.010203416;-0.07440361;0.038792506;-0.00529081;-0.057154402;0.012417158;-0.009690065;-0.07415163;-0.119338326;-0.088136874;0.08331341;0.006383481;-0.022039725;-0.019808654;-0.0051002717;-0.034924172;-0.07437446;-0.10333291;-0.048545383;-0.02042756;0.026757497;-0.022700539;-0.053050876;-0.0125708375;0.11414412;-0.020425938;-0.08144979;-0.08479896;-0.078507416;0.067396805;0.0017121469;0.0038239872;-0.12013854;0.045009445;0.067679256;-0.06665994;-0.04248112;-0.056249004;0.016430847;-0.14291713;0.046852496;0.01869922;0.012513239;-0.104500584;-0.10222002;0.1025516;-0.049652163;-0.09073438;-0.011208396;0.034411747;-0.055445243;-0.06738726;0.09419278;-0.08276468;0.055211175;0.124026105;-0.059939805;-0.004011904;-0.024370668;-0.029325746;-0.024497235;0.1022781;0.103327386;-0.041752227;0.012712312;-0.026247188;-0.081422746;-0.08194413;-0.0009769149;-0.053030156;0.007332469;-0.055501223;0.025956513;-0.12591273;-0.05448256;0.0128043145;-0.057027534;0.030069625;-0.12092186;-0.03979768;-0.011294961;-0.12911701;-0.05493096;0.03972306;-0.014320743;0.019656863;0.035035983;-0.016578833;0.018172568;0.006479705;-0.04609229;-0.14241277;-0.19940184;-0.037581798;-0.025613403;0.020328663;0.06418076;0.05516013;-0.064334825;-0.09234003;-0.1038388;0.11742948;-0.08649486;0.06411231;-0.0656359;-0.0079609575;-0.004246248;-0.036696345;0.04752818;0.02563477;-0.047879525;-0.09676126;0.027325973;-0.02123602;-0.0724055;1.9391438e-05;-0.010937886;-0.052019633;-0.04905644;0.095229425;-0.07099631;-0.15594798;-0.11453853;0.04019499;-0.034464635;-0.008811448;-0.08164201;-0.041248146;-0.13747288;0.052613873;-0.1007313;0.005736353;0.04194791;-0.08946867;0.07211757;-0.109535456;-0.06584381;0.101849616;-0.014144566;-0.08642512;-0.19748333;-0.05609388;-0.10910257;-0.024300072;-0.08234596;0.03611214;0.025276499;-0.14657107;-0.16299346;-0.09557399;-0.0071606594;-0.023190564;-0.056683954;0.024494585;0.0058019874;0.02465968;-0.03200553;0.020330748;-0.12697223;-0.09042265;-0.03826904;-0.04101714;0.005930446;-0.104581274;0.010726205;-0.10249752;-0.048855294;-0.042922452;0.030951712;-0.1657964;0.07705808;-0.05523877;-0.06606525;-0.004051987;-0.07807226;-0.087191224;-0.029254006;-0.058031242;-0.025579471;-0.13128997;-0.09177406;-0.07325126;-0.07755329;0.06392998;-0.037640054;-0.11203549;-0.038904693;-0.0045815744;0.08390062;-0.015753224;-0.09344413;-0.090677544;0.0212147;-0.13663593;0.065901175;0.07246426;0.057607226;-0.044046238;-0.19128688;-0.05586595;-0.03133078;-0.017292818;0.061503105;0.034989398;-0.0039302884;0.040119555;0.09861436;0.0088732345;0.14671266;-0.018698841;0.028047172;-0.03665405;0.024666501;-0.049385913;-0.007841748;0.032571413;-0.018640291;0.036325637;-0.07968421;-0.07986079;-0.082686804;-0.022666644;-0.013554547;-0.07452621;0.05032471;0.06435152;0.023434201;-0.04581124;0.013412889;-0.04331635;-0.029345281;0.0031812326;-0.056016732;0.02640691;-0.033896778;-0.036179304;-0.049364578;0.08032094;-0.035834685;-0.10984875;-0.007771371;0.003590215;0.021609068;-0.023778226;-0.10318465;0.01280237;-0.082887314;-0.03672393;-0.111954436;-0.11387324;-0.011622976;0.016070437;-0.07294717;-0.013125132;0.042546;-0.0018546422;-0.044290885;-0.06051795;-0.0030678923;-0.05701881;-0.10866947;-0.06616529;-0.089652285;0.06035626;-0.005702377;-0.04183521;-0.11771512;0.041849677;0.06846571;0.031726446;-0.1391853;-0.05266005;0.010965083;-0.037912212;-0.04487745;0.042551722;0.0270881;-0.09406806;-0.026604237;-0.04848254;-0.03665314;-0.025277965;-0.112434134;-0.027195234;-0.05029853;-0.023678698;-0.010089968;-0.10766617;-0.08889679;-0.10621603;-0.101632856;-0.009063983;0.081227124;0.0025049858;0.03548722;-0.09260437;-0.16984361;-0.027238233;-0.111054786;-0.06054667;0.019192843;0.14290121;-0.03928329;-0.027091792;-0.035829376;-0.07635056;-0.08323365;-0.14323719;-0.0798191;-0.0653648;0.011801986;-0.017929444;0.012108588;-0.12305683;-0.030627653;0.043600496;0.038048565;-0.032097515;-0.066389255;-0.04049204;0.018650409;0.020340705;-0.039987165;0.09155883;-0.056697156;0.014403317;-0.088706546;-0.0013953284;-0.0033742925;0.00755326;-0.113642596;-0.07267277;-0.086303785;-0.07410793;-0.13879476;-0.115429275;0.0133435875;-0.011814042;-0.03802985;-0.03483061;0.0076030917;-0.05442643;0.0010439535;0.0066567557;-0.048423864;-0.064338215;-0.017049633;-0.10860293;-0.068508334;-0.03979359;-0.10027738;-0.099513926;-0.0028977676;-0.19307813;-0.21192321;0.04580328;0.02163436;-0.0607766;0.011269206;-0.04780394;-0.037128888;-0.0020902269;-0.05287475;-0.046887975;-0.022339344;-0.054522578;-0.005707123;-0.038463637;0.02761231;0.07558747;-0.09188664;0.042372383;-0.0030198419;0.01612642;0.12314746;0.038866226;-0.04067381;0.04779829;0.010820211;0.019193824;0.04338501;-0.019540293;-0.041122988;0.038798917;-0.041013777;-0.05552644;0.07567587;0.006092665;0.0022160257;-0.042858616;-0.08935612;0.018878149;-0.060211223;0.13171394;0.07030366;0.056758456;0.047944587;-0.01852672;-0.062305834;0.0118035;0.06958804;-0.021111807;0.059284754;0.051081907;-0.08560277;0.047164686;0.046499282;0.018899677;-0.040574823;0.05307035;0.038410407;0.01914243;-0.019983882;-0.0421727;0.050386585;-0.011829683;-0.046657056;-0.12774116;-0.06813039;-0.059102245;0.00019551364;-0.03710155
0.01879507;-0.06983988;0.057161823;0.1027964;-0.10362477;0.0064251386;-0.045774415;-0.009660414;-0.0135888485;0.0682258;-0.0949455;-0.05273359;-0.11305507;-0.052604742;-0.06171139;-0.09648989;-0.19373979;0.016747372;-0.03334134;0.034698244;-0.08709485;-0.09079591;-0.098477446;0.08754608;0.043743357;-0.053443722;-0.051922735;-0.012407319;-0.08242245;-0.08212059;-0.08512048;0.02105433;-0.055211876;-0.0253207;-0.009968781;-0.08541772;-0.05827039;-0.058131784;-0.103156455;-0.020203868;-0.09139843;0.0643568;0.04717214;0.0010942224;0.026255356;0.015433669;-0.0012874798;-0.10731281;0.11869746;-0.02715803;0.015050881;0.04453165;-0.080669716;-0.08191031;0.0060061216;-0.050008245;0.012431282;0.0306218;-0.0006779621;-0.056583665;0.031793624;-0.07661458;0.008812929;-0.09621933;-0.0804476;-0.023066685;-0.0486506;0.025902098;0.022207856;-0.014020102;-0.1680043;-0.052560218;-0.085987695;-0.00036331703;0.10691552;-0.015802026;-0.04654902;-0.12631603;0.037612922;-0.020475801;-0.04175805;0.019453112;-0.03522727;-0.0820274;-0.062175028;-0.018391905;0.06691687;0.1854623;0.007320899;-0.0010821532;-0.042566787;-0.05182356;-0.008029584;-0.079444766;-0.052758142;-0.07434577;-0.00021214734;-0.057407342;-0.023652365;0.032047275;-0.08089448;-0.068498746;-0.07689271;-0.16512515;-0.11543533;-0.052072;-0.064898655;-0.036722656;-0.13335316;-0.046383284;-0.039610073;-0.122806;-0.07207246;-0.08778676;-0.024606233;-0.053151596;-0.06594634;0.15636835;0.029602531;-0.03854367;0.03009085;-0.035964258;-0.13174717;0.0019349849;-0.10653462;-0.10605831;-0.16401786;-0.0874049;-0.06826088;-0.0049035777;-0.12233114;0.04540905;-0.11028735;0.0132720955;0.05271708;-0.006674732;0.03309662;-0.020633645;-0.03762884;-0.07980466;-0.097159125;-0.05128931;-0.0031780005;0.033851802;-0.09944438;-0.085297674;-0.051201507;-0.09740722;0.12548174;-0.092515744;0.05107516;-0.031793848;0.0041631716;-0.094711654;-0.08417952;-0.057258658;0.042958222;-0.032237347;-0.056568563;0.051118173;0.050071955;-0.08416878;-0.00084613374;-0.053160213;-0.039964195;0.020199027;0.05065788;0.041505855;0.009045009;0.0025331422;0.00610661;-0.026183892;-0.08374964;0.03324812;-0.025678445;0.016082114;-0.008599037;-0.07258494;-0.008962121;-0.07259168;-0.04972552;-0.15438741;-0.0053381743;0.10065185;-0.00060759316;0.02222915;-0.055866733;-0.035564825;-0.022174781;0.0027206403;-0.008556982;-0.080955714;0.04151041;0.01571585;0.052263085;-0.051216807;-0.09315692;0.0009803486;-0.022751817;0.07015699;-0.037298396;-0.029268248;-0.06985548;-0.06650169;-0.04613517;-0.07568146;-0.062063195;-0.07725971;-0.073487595;0.03886089;0.065330766;-0.006433371;0.05270749;0.07788214;-0.06479349;-0.02853198;0.112262;0.038849484;0.118459225;0.011271172;-0.026991313;-0.06982056;-0.0060653584;-0.09938605;0.03925767;0.022720367;-0.01629087;-0.10141918;-0.012200669;0.0765297;-0.032314204;0.008198221;-0.08177448;-0.1272837;-0.0809864;-0.06519318;0.008580233;-0.005954647;0.03603141;0.11488972;-0.09971152;0.030129125;0.025753025;0.005713711;0.058186974;-0.07986154;-0.1049222;0.03724611;0.038036074;-0.039213125;0.021813404;-0.004867377;0.048863668;-0.06036906;-0.04498823;-0.030068241;-0.08781503;-0.06758797;-0.067652896;0.017870657;0.051685493;-0.017259948;-0.022006543;-0.043026768;0.0026438057;-0.15335731;-0.048679784;-0.028034681;0.014188145;-0.052148726;-0.04163683;-0.0779928;-0.014846697;0.07157369;-0.132872;-0.13220662;-0.074040115;0.041994102;-0.07464423;0.06381841;0.0041346;0.012390107;-0.06608597;-0.036809083;-0.0994852;-0.079964265;0.06540849;0.01943363;-0.055630747;0.040641952;-0.0905337;0.039452918;7.143276e-05;-0.0061773527;-0.061527476;-0.08465061;-0.033504445;0.020628387;0.016038798;-0.05428035;0.026963193;-0.03619393;-0.085542455;0.015028801;-0.007584171;0.034884747;-0.010269501;-0.044883665;0.034727775;0.02004544;0.01637667;0.009871224;-0.016168714;-0.01681178;0.08736651;0.047756724;-0.04339481;-0.13213122;0.0038864827;-0.07570324;-0.02596822;0.0072114784;-0.095713;-0.14207537;0.040457964;-0.025411474;-0.050971102;0.0232564;0.007967532;0.043837257;-0.042574875;-0.045716103;-0.08151726;-0.026635645;-0.014911391;0.0074866205;0.04772536;-0.06934204;-0.0428744;0.029631672;-0.018417267;-0.07533508;0.022227017;-0.03914982;-0.031780384;-0.03422663;-0.007663011;-0.058052555;-0.055743054;-0.07896988;-0.030135237;0.026491538;-0.17898044;-0.0024977336;0.031164112;-0.085182935;0.04511218;-0.090427265;-0.11493012;0.0036353348;0.038413677;-0.0113063;-0.0072959233;-0.07185841;-0.11327111;-0.10501221;0.049963832;-0.049436715;-0.11451771;-0.059929777;0.08627136;-0.1148176;-0.04736009;-0.08506878;-0.11622978;0.020433858;-0.025989631;-0.14468949;-0.105615914;-0.06813333;0.029668225;0.029575078;0.026368985;-0.056922022;-0.10119431;-0.042165376;-0.15133548;-0.075643525;-0.050654445;-0.067416154;0.04832863;0.116921455;-0.0021916933;0.034799635;0.012163207;0.04194208;-0.111132234;-0.024010379;-0.11188663;0.009336013;0.041446123;-0.061350968;-0.009006548;0.033359677;0.057862688;-0.12386603;-0.0047597336;-0.09123171;-0.08758362;-0.0572261;-0.047776923;-0.07963396;-0.0645013;-0.09955715;0.027063515;0.018597145;-0.03972246;-0.029438278;0.03957438;-0.117678836;-0.015139153;0.030174818;0.015808957;0.062772736;-0.044275347;-0.059799984;-0.097207636;0.03472665;-0.13906884;0.031472243;0.0051820115;-0.07203749;-0.022603512;-0.104530044;0.024338232;-0.053021457;0.030527322;-0.053354602;0.002723027;-0.13852634;-0.10050319;-0.025894122;-0.029073488;-0.08259581;0.023555718;-0.093004666;-0.004420984;0.0010516739;-0.04231194;-0.08423435;-0.1254239;-0.09086664;-0.14710915;-0.051791918;0.0025502518;0.17273922;-0.10038301;-0.026945643;-0.06227325;0.013404975;-0.032220773;-0.15106437;-0.0885438;-0.091149755;-0.09932963;0.054265577;-0.03437998;-0.00085889205;0.098477155;-0.035690613;0.045656722;-0.091156155;0.031061787;0.06047383;-0.012031729;-0.057815157;0.011998705;0.069141425;-0.025758892;-0.064508684;0.0319472;-7.205884e-05;-0.054207325;-0.123694904;-0.058928683;0.012928473;-0.101329386;-0.058026742;-0.1263257;-0.11135187;-0.086894706;-0.13509543;-0.06827507;-0.06773347;-0.07998428;-0.07480589;-0.085473135;-0.027353788;-0.08891185;-0.06695982;0.0076219905;0.012735364;-0.08109182;0.07432849;-0.05300406;-0.042075533;0.018055886;-0.17915119;-0.18966003;-0.07121722;0.090408176;-0.025242535;-0.07004333;-0.15044057;0.051830437;0.02865445;-0.05548877;-0.027098296;-0.028901583;-0.06370241;-0.08501744;0.0029143838;-0.085636556;-0.02144238;0.041695233;-0.06509568;-0.07205852;-0.122661084;0.07141363;0.021388987;-0.059511647;-0.09085793;-0.031608082;0.044759892;-0.021770349;0.03917862;0.029139481;-0.020685261;-0.059996583;-0.051001504;-0.06074449;-0.06613962;0.04978783;-0.05471848;-0.017028848;0.07276143;-0.11699956;-0.009266957;-0.003004869;0.01995178;0.006266457;0.013909347;0.013766831;0.0070009413;-0.09000734;0.09090883;-0.0848305;0.08179037;0.03996622;0.04356883;-0.015070116;0.054228872;-0.03493755;0.041261278;-0.07512601;-0.074056305;-0.10876039;-0.14990114;0.019743292;-0.07091889;0.033654083;-0.02927206;-0.027788911;-0.023435064;-0.032689072;-0.05910154
0.05341052;-0.13370527;0.006750333;0.06979335;-0.05962515;-0.013845844;-0.039160203;-0.08724675;0.06888791;-0.07086731;-0.14214492;-0.105989546;-0.01694898;-0.057918172;-0.009356044;-0.1355023;-0.13435839;-0.08688664;-0.018137658;-0.075946756;-0.016664958;-0.07691264;-0.105641685;0.052803736;0.004668837;-0.05712437;0.04535795;-0.022079827;-0.10367322;-0.028953364;-0.10038845;-0.12984106;0.020219246;-0.044878453;-0.10698728;0.05029682;-0.156016;-0.040590268;0.031949442;0.031161234;-0.046013452;-0.096805364;0.045788195;0.00061258534;-0.094831385;-0.01932326;-0.021026878;-0.051531054;0.10715833;-0.077645674;-0.03645091;-0.09095482;0.069979295;0.008787886;-0.12031593;-0.023260895;-0.0060921563;-0.09266061;-0.08935208;-0.053337216;-0.08634542;-0.036418937;-0.09956076;-0.08481651;-0.046530325;-0.024641206;-0.06630927;-0.026281867;0.013326541;-0.060985334;-0.062424064;-0.008009489;-0.110493;-0.033517312;0.0004968903;-0.03797041;0.101753384;-0.025698574;-0.09186782;-0.008462875;-0.05805723;0.026217712;0.012073916;-0.042962916;-0.04125624;-0.054812804;-0.016511047;0.03475376;-0.017227286;-0.004115295;-0.006365516;0.07114645;0.011270778;-0.047924075;-0.059577297;-0.11659301;0.04976718;-0.08598789;-0.031389505;-0.09239604;-0.047105145;-0.02589946;-0.14104563;-0.048816457;-0.030962497;-0.012656065;0.035533678;0.040280614;-0.12051686;-0.032475505;0.03190028;-0.0539649;-0.091622256;-0.097527035;-0.05428795;-0.04026507;0.045507308;0.16417646;-0.07523346;-0.044142492;0.033189528;-0.045559425;-0.026906747;-0.011157101;0.02001293;0.04867988;-0.10682436;-0.020311741;-0.0038646185;-0.012119491;-0.055028256;0.10814035;0.0030816311;-0.039428208;-0.018615263;-0.03649823;-0.039273784;0.022060366;0.019079786;-0.055960227;0.0067208074;0.017166827;-0.015372745;-0.09878403;-0.07051662;0.022143;-0.017150417;-0.096589416;-0.03354792;-0.03578218;0.063994385;-0.053713765;0.001293265;0.01815288;-0.011854305;0.0060720136;-0.06576698;-0.011687058;-0.100176744;0.033422776;0.03716755;0.014168582;0.044765264;0.06471588;-0.008592205;0.0005306512;0.11729658;0.018952265;-0.010239887;-0.06365937;-0.115441605;-0.0327783;-0.02938976;0.063838325;-0.083547704;0.038939513;-0.10423732;-0.10478463;-0.01645106;-0.09584035;-0.13571936;-0.01571116;0.03601402;0.0579008;-0.1435527;0.0063919392;-0.044712212;-0.034839995;-0.09508254;-0.12758264;-0.07227582;-0.027751664;0.10558216;-0.010996684;0.021387905;0.024218699;-0.093344465;-0.04203221;-0.005933106;0.14544496;0.009897374;0.02152433;-0.06552609;-0.02266219;-0.0060969433;0.016772434;0.05339988;-0.12263263;0.034673017;0.07283933;-0.08882837;-0.060239177;-0.06949884;-0.07571359;-0.11630063;0.0981626;0.055202585;0.04322687;0.12152147;-0.043637455;-0.01924188;-0.021628935;-0.025569608;-0.026655432;-0.048872508;-0.005362396;-0.11067925;-0.18478917;0.034615915;-0.065657035;0.033619653;-0.014025285;-0.0044163633;-0.003401986;-0.06385272;-0.15403457;-0.06713041;0.003003505;-0.0327308;0.03564629;-0.025290934;-0.027523382;-0.033802528;-0.045200404;0.07648455;-0.03463501;-0.08510027;-0.06086639;-0.09462242;-0.06501877;-0.009570934;0.00817593;0.07767924;0.041122023;0.039955195;-0.0005991495;-0.05166927;0.021724239;-0.07009443;0.0138176065;-0.1005859;-0.10595403;-0.0023178288;0.008322002;0.06498193;-0.059612043;-0.019133884;-0.14368773;-0.050613478;0.05326512;0.016086247;0.011832492;-0.010387629;0.006093616;-0.041382;-0.15513456;-0.010506956;-0.033215087;-0.06406791;-0.07962511;-0.023167625;0.0592498;-0.042944867;0.062188607;0.051197264;-0.057937004;-0.019086987;-0.012878968;-0.09018595;-0.043847878;-0.0875316;0.09370204;-0.00019405782;-0.03187281;-0.15341322;-0.008973775;0.028124455;0.040796906;-0.074876785;-0.04685338;0.012085348;-0.109162696;-0.09122709;-0.08621809;0.0618504;-0.08054761;-0.032591496;0.035182282;0.026454829;-0.021781806;-0.12953901;-0.093451984;0.0032610975;-0.03916245;0.061504077;-0.008995059;-0.0830345;-0.076219596;-0.03930994;-0.09461448;-0.060711406;-0.038053773;0.05425556;-0.043757536;0.01830411;-0.04848357;-0.055114396;-0.10080291;-0.054387435;-0.088026;-0.009003305;-0.082763866;-0.040203847;-0.12007753;0.027611686;-0.057850353;-0.08434485;0.02538052;-0.042118654;0.02470217;-0.08048001;-0.011427626;0.07577803;-0.064329565;-0.049329728;0.031239223;-0.12397735;-0.098309875;-0.067411646;-0.03832146;-0.07248092;0.008361449;-0.08959506;0.018984497;-0.02560397;0.03638716;-0.07040575;0.029534763;-0.10615196;-0.008088422;0.11555551;0.03227255;0.009273498;-0.09753011;0.00011002895;0.017675072;-0.024444586;-0.06679813;-0.030510418;0.024837341;0.011645485;-0.063844256;-0.03998616;-0.009504346;-0.104656406;-0.0073167146;-0.10108806;-0.015685288;0.027376177;0.07592967;-0.061262824;-0.08329355;-0.09110765;-0.009352621;-0.07320124;-0.044396717;-0.091875665;0.035543866;0.0014486791;-0.0696655;0.045675613;0.0040351353;-0.06531017;0.0026745126;0.012216763;-0.039973255;0.023007825;-0.012243839;-0.016059052;-0.0070467857;0.052579887;-0.04684084;-0.08252379;0.031638045;0.11280327;0.012463533;0.006218725;-0.027951106;0.010376269;0.009120356;0.038482986;-0.037524205;0.0198282;0.04964619;-0.08286451;0.060109094;0.007582245;0.03528038;-0.10702132;0.021574223;-0.08487362;0.059196558;-0.0076704146;0.021582715;-0.053286444;-0.036990922;0.050650433;0.032523967;-0.12947354;-0.08765492;-0.07365472;0.03771768;-0.09676854;-0.08934733;-0.08625223;-0.033808365;-0.0546941;-0.08052904;-0.042870592;-0.12732245;-0.0793895;-0.01309285;0.034999855;-0.06458247;-0.01515835;0.0038919975;-0.0070654363;-0.14882705;0.0038756488;-0.17067121;-0.22839451;0.04768691;-0.16514583;-0.06414167;0.011148861;0.09850158;-0.02077937;-0.10344288;0.04721629;-0.06219226;-0.035059527;-0.044284984;0.018892875;-0.106287636;-0.011517808;-0.055713322;-0.010413133;-0.10650842;-0.0046890406;-0.024228178;0.11540353;0.029357502;0.004617311;-0.0042919233;0.0021459565;-0.046742566;0.0622311;-0.02746704;-0.07938402;-0.051998712;-0.046529774;-0.1000186;-0.027839374;0.038397364;-0.1060098;-0.047198948;0.022869483;0.04938246;-0.020709364;-0.12886128;-0.044830482;-0.00268681;-0.058807198;-0.034772567;-0.004941435;-0.041042306;0.04432835;-0.03120216;0.04375672;-0.06345552;-0.006878918;-0.049997654;-0.05327127;0.09179928;-0.090154685;0.012413729;-0.02211559;-0.21783385;-0.087457344;0.05410053;0.1751755;-0.020691995;-0.04555805;-0.052806243;0.0017475355;-0.029272351;0.0025909853;-0.044658847;-0.0333525;-0.0034297553;-0.13062716;-0.027607152;0.020839036;0.099014014;0.05189776;-0.031749804;-0.10480132;-0.0569833;0.07736805;-0.10598457;-0.07718646;0.02823367;-0.062233653;0.025938777;0.019950753;-0.041878503;-0.0012860841;-0.10759365;-0.023185052;-0.11007152;0.07791777;-0.08534249;0.037249435;0.010233162;-0.05159974;0.05999639;-0.07852776;0.07641607;-0.0003123357;0.04644878;0.0577024;0.027529068;-0.0002467036;-0.07161826;-0.08795434;0.07829737;0.048742507;-0.033127625;0.03790597;0.03369327;-0.041415956;-0.021743255;-0.08317129;-0.05906265;-0.037991807;-0.065528415;-0.10630998;-0.13684194;-0.05808604;-0.06464718;0.006864206;0.028001573;-0.04508759;-0.10850813;-0.014648677;-0.1401043
0.008036199;-0.0768868;0.052152876;0.08571377;-0.10806813;0.011883511;0.062629424;-0.00366558;0.0710573;-0.05844976;-0.027550617;0.013740798;-0.054753907;-0.12301798;-0.06912815;-0.011081782;-0.06894185;-0.04583774;-0.025112668;-0.055054914;-0.02493193;-0.07399566;-0.021520516;0.107729286;-0.01832001;0.04797965;-0.049130987;-0.13612106;-0.093226954;-0.09139743;0.031542055;-0.09907156;-0.066459626;-0.06578524;0.03403064;-0.020619096;-0.11250405;-0.037178487;-0.06875071;-0.09256545;-0.09867694;-0.00036987674;0.0017998521;-0.06425137;-0.07819858;-0.063710414;-0.09712507;-0.06006921;0.10681235;-0.09010991;0.028505217;-0.020853672;-0.089171655;-0.08269509;-0.011573742;-0.0319617;-0.032559443;0.019081833;-0.08313882;-0.08201972;-0.06741667;0.03605515;-0.067276165;-0.011708483;-0.11435543;0.045549788;-0.09757224;0.019384852;-0.06220003;-0.028645555;-0.04034516;-0.015502578;0.014207644;0.046376478;0.10582186;-0.12295505;-0.046907824;-0.10378804;-0.023851296;0.02398751;-0.015204704;-0.11286099;-0.07311939;-0.11128908;0.012368267;0.005765464;-0.063522495;0.1299378;-0.08840338;-0.09112801;-0.0419678;0.010005579;0.05434692;-0.1378258;0.008862903;-0.02485674;-0.07897775;0.058559906;0.0873883;0.047905944;0.00022138123;0.015726753;-0.16027537;-0.12566729;-0.027131371;-0.108675;0.06549346;0.011923387;0.012720739;-0.08211782;-0.057117004;-0.05866438;-0.04576406;-0.07917657;-0.098560326;-0.092823915;-0.07518596;0.15408912;0.035971656;-0.029893763;0.0020063608;-0.0048561054;-0.119292095;-0.038046002;-0.080753535;0.0061322576;-0.11173208;-0.092485264;-0.105815515;-0.062159926;-0.12142459;0.17264204;-0.124594525;0.015036285;-0.06848837;-0.023667723;0.0054805875;-0.07127042;-0.13145038;-0.024854096;-0.05468042;-0.031971302;-0.094088174;-0.020919733;-0.034072552;-0.08974675;-0.0844957;-0.12301764;0.07383083;-0.09606716;0.036791496;-0.06205799;0.021678273;0.02277242;-0.07486901;-0.02693206;-0.07589363;-0.074788734;-0.09032902;0.005383131;-0.09104803;0.010387954;-0.034989055;0.037789796;0.037928216;0.005056839;0.06205554;0.06635243;0.008348989;-0.11473148;0.077249885;0.033921424;-0.03215339;-0.028715044;0.024489792;-0.028604822;-0.09363555;0.021513294;0.016753267;-0.06401711;-0.09260356;-0.050933294;-0.093840614;0.05403581;-0.1238819;-0.071731135;0.0481231;-0.05534775;0.014493738;-0.07574049;0.007420912;0.026232433;0.04249705;-0.12930927;-0.07072562;-0.02714131;0.032115236;-0.04741621;-0.016071396;0.12814848;0.060259752;0.005697033;0.030172171;-0.04926916;-0.025217451;-0.032514457;-0.073126525;-0.12061071;-0.07494749;0.0078637935;0.052705456;-0.00052360154;0.110764;0.060623866;-0.004534159;0.10571573;0.1746047;-0.004104752;0.03952318;-0.048504584;-0.07128803;-0.041879237;-0.047671497;-0.09833305;0.012931106;-0.0824774;-0.07966346;-0.12528268;-0.06633557;0.03249692;0.035412;-0.106006995;-0.12126909;-0.06187264;-0.113045;-0.09098926;0.00040790747;0.026513737;0.04275717;0.01185696;-0.030648967;-0.0899197;-0.089451954;-0.093388535;0.052571915;-0.047810186;-0.10984147;-0.03367184;-0.019058645;-0.06482318;0.09218264;0.14181247;-0.07376367;-0.10351117;-0.09870281;0.06616506;-0.09397902;-0.07503476;-0.09172814;-0.0556961;-0.058177795;-0.02677659;-0.036059063;-0.019555291;0.040810153;-0.116239786;0.06276584;-0.016453054;0.0071118358;-0.018021518;0.023643779;-0.058216162;-0.016092619;0.021865657;0.0011458143;-0.0725633;-0.019976974;0.056554418;-0.012270431;0.010156313;0.037048157;-0.088461734;-0.05192523;-0.073071994;0.018410875;-0.028826743;0.036773216;-0.033870906;-0.034483697;0.029979063;-0.0504937;-0.050622266;-0.020150315;0.00020914248;-0.15380573;-0.07636607;-0.01063366;-0.079085454;0.004747901;0.0215318;-0.097437486;-0.13842092;-0.06902422;0.05963209;0.05204143;0.015924513;0.0005149972;0.037317626;0.04676538;0.032722473;-0.07278881;0.016273629;-0.028301103;-0.08785982;0.12864214;-0.08094018;-0.019489132;-0.11362752;-0.08142146;-0.050032016;0.061888497;-0.0053189523;-0.09393792;-0.12858811;-0.09151408;-0.015835302;-0.013287457;0.034131803;-0.094215795;0.036732856;-0.0065624057;-0.0745627;-0.115503505;-0.07132398;-0.0153333135;-0.10215315;-0.024734791;-0.06407976;-0.09265081;-0.08695439;-0.06819316;-0.0013142913;0.02642281;0.037447922;-0.06910391;-0.068808764;-0.06845398;-0.085983135;-0.092770234;-0.05106662;-0.00044995392;0.038763747;-0.16483858;0.047509175;-0.031653486;-0.076002896;-0.0077651786;-0.038802255;-0.050047264;0.027968684;0.12916122;-0.016410382;0.10511373;-0.0994063;-0.1264495;-0.01761855;-0.012437533;-0.019590957;-0.05332242;0.039789006;0.022732673;-0.05144435;0.050097987;-0.07640589;-0.09601167;-0.025069028;-0.0041667554;-0.026725704;-0.06324156;0.04290906;0.01956734;0.058911588;-0.025211269;-0.07089598;-0.055941295;-0.094528064;-0.09435952;-0.08902184;-0.05618302;-0.031817995;-0.09285519;0.109610245;-0.02019635;-0.013759215;-0.12590574;0.023224428;-0.0650348;-0.098501086;0.021506;-0.042335846;0.003752602;-0.026482219;-0.096283436;-0.06381496;0.07581968;-0.09140278;0.07464727;-0.08764253;-0.021421738;0.009646762;-0.06917888;-0.016047161;-0.080309644;-0.04136857;0.023319911;0.027377969;0.05359417;0.0793244;-0.029720878;-0.04096314;-0.15332499;0.11863755;-0.017697703;-0.02387569;-0.039888475;-0.056629438;-0.07364539;0.0015811784;-0.0789291;-0.05792713;0.013660933;-0.020209145;-0.046251096;-0.1329733;-0.08327856;-0.09551249;-0.055474468;-0.09444528;-0.03428423;-0.09447047;-0.07404851;-0.072254136;0.02372062;-0.16772608;-0.01833285;-0.03822863;0.11287871;-0.0004721473;0.014337427;-0.124227755;-0.20781393;-0.057410862;-0.11297552;-0.0041889986;0.02908935;0.11642344;-0.03456294;0.008667111;-0.041520048;-0.0013303122;-0.11264833;-0.10044514;0.006344706;-0.037418604;-0.008242883;-0.09279902;-0.048530735;-0.0101262145;0.14041272;-0.01980403;0.070542805;-0.09474975;-0.03834306;-0.03935464;-0.08393411;-0.003602459;0.011700273;-0.0138337035;0.0056035807;-0.019639464;-0.06663831;-0.019579059;0.058284376;-0.09827079;-0.07002617;-0.05983373;-0.11787371;0.02540738;-0.024049206;-0.042542286;-0.053289022;-0.06331184;-0.11031184;-0.04071849;-0.01667735;0.0038349433;-0.104008354;-0.0033088014;-0.017934388;0.003101999;-0.052593373;0.02664268;-0.0025548325;0.09234499;-0.048241287;-0.045025233;0.0038970308;-0.1293851;-0.1044493;0.049338736;0.04188326;-0.043778267;0.02515945;-0.12139595;-0.08085821;0.010087109;-0.13609074;0.005508393;-0.04317579;-0.1352046;-0.012200496;-0.085261576;-0.08360916;-0.031816285;-0.054445554;-0.07115211;-0.102156244;-0.069757834;0.0049263104;-0.091610886;-0.012925632;0.017344624;0.059458822;-0.068766646;-0.068621464;-0.07121046;0.0035753457;-0.11346446;0.023399679;-0.14140607;-0.09263183;-0.1454303;-0.058002654;-0.015096849;-0.025074573;-0.011807122;-0.066964485;0.05515923;-0.082923666;0.028516596;-0.051753663;-0.010261307;0.014588864;0.020848082;-0.093692414;0.03534952;0.044861823;0.014551989;-0.098361015;-0.06582283;0.058433373;-0.0229004;-0.07424038;-0.083252035;-0.06581961;0.029984029;0.022484463;-0.08425813;-0.11559294;-0.046826277;0.01585368;-0.07956507;0.042749505;-0.11091118;-0.0975971;-0.052431103
0.08056341;-0.120907374;-0.07503829;0.045523897;-0.06869112;-0.09184241;-0.028709522;0.07032148;0.0655458;-0.034950517;-0.15702754;-0.061034236;0.04676148;-0.03540136;0.013518383;-0.03646753;-0.21887223;-0.040320985;-0.05236533;-0.112107635;-0.025338184;0.05896602;-0.04101573;-0.043875083;-0.101982184;-0.042716112;-0.034584876;-0.12365188;-0.060960077;-0.042370286;-0.08830443;-0.051107347;-0.07532907;-0.08661373;-0.046417277;0.014591298;-0.06553892;0.03786606;-0.06644574;-0.061114118;-0.03972979;-0.04578919;0.08190203;-0.08494188;-0.022335012;-0.012459987;-0.02446052;-0.005936691;0.06885833;0.0004337772;-0.08392463;-0.06647132;0.01668794;0.010245625;-0.115527615;0.04769588;-0.09039809;0.047182962;0.00712206;-0.036028184;-0.08032487;-0.035807416;-0.009475308;-0.031646106;0.007842462;-0.102267556;-0.12881103;0.06261436;0.03258525;0.03622674;-0.0039584055;0.021110116;-0.0892819;-0.057339914;0.04049279;-0.068889216;0.0031670653;-0.0585219;-0.02760337;0.013052081;-0.09147583;-0.0861227;-0.10829356;-0.019897226;-0.027153725;-0.082703836;-0.06316571;0.12415337;-0.10468296;-0.0036742557;-0.092285156;-0.043421403;-0.026087206;-0.07058029;0.071802795;-0.011552591;-0.038557418;-0.026222324;0.09220508;-0.01545625;-0.0024833416;0.024168843;-0.13592088;-0.12109155;0.05225261;-0.03150238;-0.043816183;-0.043068256;-0.098412275;-0.118095204;-0.09733622;-0.0036076463;-0.11891519;-0.035090834;-0.03207476;0.035819132;-0.078722015;0.10799938;-0.075097345;-0.023238776;-0.081861034;-0.06429468;-0.07841512;-0.041389614;0.048658658;0.043590486;-0.11562032;-0.09907643;-0.028579885;0.016509939;-0.022338029;0.15643261;-0.0742848;-0.082320005;0.10221407;-0.040977363;-0.03368631;0.06719934;-0.022315228;-0.025754534;-0.060883697;-0.06908626;0.0023495832;0.032046612;-0.016177256;-0.08478889;-0.06615109;0.026778638;0.091617666;0.054372802;0.069070965;0.051413145;-0.046564598;-0.022646397;-0.0639129;0.00074630586;-0.08444473;0.039196547;0.015574552;-0.015281446;-0.03618457;-0.010354278;-0.007517257;0.04303421;0.06295158;-0.0047683953;-0.0042425347;-0.057383582;-0.043609608;-0.10628304;-0.014507681;-0.015917514;-0.07322318;-0.018803628;-0.0860778;-0.1016442;-0.00888262;-0.037402514;0.09692604;-0.016081965;-0.028375262;-0.13323942;0.023938218;-0.06917032;-0.11296887;-0.09441423;-0.019191913;0.038810432;0.032394487;-0.10447384;-0.08812757;-0.08192476;-0.04534216;-0.09492949;-0.044156905;-0.010392138;0.020558376;-0.012155518;-0.100608006;0.07038887;-0.037089296;-0.063803025;0.038025178;-0.08328235;-0.029608494;-0.03374757;-0.088841386;-0.054619625;-0.070089646;0.0005370964;-0.028010128;-0.09351471;-0.030654151;-0.07975095;0.032207146;0.01248372;0.10955807;0.08988039;0.079809904;-0.073179685;-0.081090935;-0.05757305;-0.12243471;-0.09112985;0.02705969;0.012895755;-0.12596299;-0.082986616;-0.03068829;-0.07845278;0.038369633;-0.05053862;0.020227445;-0.078005336;-0.035641618;-0.07999729;0.0036268116;-0.13835818;-0.027966596;0.050474174;-0.060571615;0.0629873;-0.022490714;0.030193832;0.0015467214;-0.013942741;-0.17047565;-0.04815711;0.016090313;0.03416955;0.005709671;0.069182694;0.05885134;0.027519654;0.01132558;0.0047609406;-0.09706511;-0.0932369;-0.008303868;-0.07463231;-0.07840698;-0.16431315;0.013007981;-0.120563574;-0.021721171;0.018632727;0.00944852;-0.07323728;-0.13352023;-0.004202788;-0.016290449;0.027736071;0.032417614;-0.024776235;-0.09803671;-0.09130596;-0.122609794;0.0031997557;-0.09257793;0.0627347;-0.021206498;-0.048596688;0.029817322;-0.025308415;0.06188824;0.04866184;0.031310234;-0.09017019;-0.095196076;-0.11988421;-0.07074992;-0.037872657;-0.023657303;-0.0034968038;-0.0808581;0.04133641;-0.10956224;-0.046156913;0.014070012;0.024858313;0.045132853;-0.06412348;-0.15442505;0.0016466079;0.05780065;0.04538353;-0.07775764;0.04933157;-0.08158308;-0.02370923;-0.033646774;-0.09047571;-0.0067372993;-0.008703905;0.030919328;-0.10049422;0.03026086;-0.07471983;0.02568584;-0.055823952;0.0155695565;0.0072390735;-0.08070933;-0.17530549;-0.006832576;-0.02624255;-0.020201068;0.03941876;-0.08472412;-0.032296248;-0.011270766;-0.055374883;-0.14775988;0.033133395;0.044382725;-0.04077787;-0.10846462;0.039421897;-0.11558608;0.022249654;-0.07634845;-0.10812374;0.12301917;-0.09997003;-0.022457607;0.04380297;-0.004043734;0.00899405;-0.11862456;0.052984167;-0.030934762;-0.06750114;-0.16389614;-0.02463828;-0.009644411;0.00226627;0.04911594;-0.089934476;-0.12625237;-0.07630416;0.023093231;0.022397714;-0.011632535;0.043447185;-0.080564715;-0.08802124;-0.04056201;0.024163513;-0.0012089866;0.04657581;0.058076024;-0.05824318;-0.0049566953;-0.09780143;-0.074383944;-0.08354853;-0.10273908;-0.12523921;0.038387846;0.04082738;0.010937915;-0.08903578;-0.10218258;-0.059938986;-0.08488877;-0.0636436;-0.08355346;-0.039939743;-0.0072263386;0.014045134;-0.047130838;0.012134591;0.0028762862;-0.042503115;-0.08454666;-0.0068489173;0.047730125;-0.13083127;-0.011567125;-0.051919714;-0.09861084;-0.088253245;-0.071802065;0.044215698;0.054625694;0.009892317;0.06078603;-0.07402496;-0.0154352095;-0.008230842;-0.09628933;0.030204518;-0.033509403;0.017191926;-0.11938278;0.0071241367;-0.072089575;0.06298883;0.0018751934;0.008007233;-0.124591805;0.05392915;-0.12549864;-0.0019231179;-0.023170972;0.046241786;-0.055002812;-0.07592362;-0.0992856;0.056295663;-0.043077104;0.03504079;-0.06508416;-0.10268869;0.03982921;-0.062797114;0.025117695;-0.06411984;0.048999663;0.010853149;0.009153885;0.015413534;-0.090497196;-0.14015716;-0.04382457;0.04105568;0.066951;-0.095892064;-0.08480957;-0.16418263;-0.09653206;-0.08844593;-0.012174028;-0.058632262;0.08675313;0.1620616;-0.050847746;0.01786743;-0.040540714;-0.034779724;0.006640492;0.020285308;-0.053869702;-0.11012664;0.013843354;-0.0831352;-0.04446439;-0.014169784;0.028853422;-0.08605344;0.025501257;-0.02139811;-0.08418671;0.014416668;-0.0466593;-0.07064277;-0.09360573;-0.02435271;0.049959134;-0.04643422;-0.046799988;-0.058477428;-0.07352307;-0.12725027;-0.013436329;0.008874182;-0.069458134;0.015427378;-0.12315303;-0.034375858;-0.07772618;-0.05612729;-0.014954176;0.01314893;-0.04437539;-0.044083834;0.058234405;0.005080503;-0.08772955;-0.018688545;-0.11879554;-0.11823321;-0.049112633;0.040026516;-0.011747712;-0.066322625;-0.06095273;-0.15851454;-0.1604538;-0.03654344;0.0927577;0.03597689;-0.08833489;-0.122286156;0.027822757;-0.038198046;-0.031426124;-0.058462594;-0.06419123;-0.048171397;-0.047729976;0.014518537;0.008130053;-0.038899228;-0.086140126;0.03009755;0.007371486;0.016589133;-0.007778876;-0.11136171;-0.05764905;-0.071155675;0.09074431;0.007870473;-0.0010573289;-0.11332718;0.0064240005;-0.058194254;0.008255491;-0.100844495;-0.05940271;-0.030146727;-0.08335264;-0.038081896;-0.13010028;0.112452455;-0.05140036;0.08805433;0.018248148;-0.047514603;0.01921467;-0.08516104;-0.08414482;-0.08205215;0.029264908;-0.06317888;-0.07055391;0.050282642;-0.036453;-0.017630218;-0.046063174;0.011506801;-0.06832033;0.0411535;-0.062108144;-0.057142206;0.01589122;-0.019339507;-0.14351618;0.022066047;0.021013124;-0.09872772;0.022241868;-0.016639907;-0.07880956;-0.16114014
0.06757322;-0.029905478;-0.08334418;0.0038991242;-0.0701815;-0.068303436;0.039515145;-0.017450225;0.06559133;0.027593803;-0.07608655;-0.0683326;0.013752718;-0.024390725;-0.035721965;0.008179668;-0.14561373;-0.03446312;-0.0460611;-0.07264428;-0.09590994;0.06639674;0.042816307;-0.0054045254;-0.06564095;0.029617317;-0.03768097;-0.078151576;0.010017142;0.011200987;-0.026833842;-0.04874342;-0.09572137;-0.02051875;0.002381529;-0.06568109;-0.11324154;-0.024837315;-0.044995904;-0.1013088;-0.10097448;0.049765248;-0.027081944;0.0021257466;-0.1244602;0.054139946;-0.10812454;-0.110920735;0.09393113;-0.040125918;0.063669525;0.040871464;0.0014341121;-0.091516554;-0.12869355;0.12671344;-0.13630743;-0.109308735;-0.082406715;0.015026744;-0.11094842;0.0031576538;-0.11760368;-0.0453814;0.03244295;0.02396583;-0.11540499;-0.052348476;-0.067148186;-0.08217191;-0.14983687;-0.060380846;0.0392397;-0.03824514;0.0072716074;-0.07202674;0.11615374;0.008048892;-0.0021715846;-0.10206363;-0.025760004;0.021742277;-0.058203872;0.044527955;0.045709778;0.0031150915;0.0607399;0.19915766;-0.07653869;-0.053980723;-0.07100469;0.032514762;-0.0035716211;-0.1037515;-0.0006258637;0.018383006;0.00022700804;-0.08792536;-0.03416107;-0.114982605;-0.07440519;0.045655273;-0.1315883;-0.0042960513;0.02682106;0.027616853;0.051034648;-0.0010652737;-0.04375438;-0.15398286;0.052563686;-0.015861599;-0.0026504498;0.055452634;-0.03570538;0.010295038;0.044522885;0.15556055;0.006741649;-0.07723502;0.029863313;-0.045587063;-0.110455096;0.03985315;0.04540738;-0.0020570718;-0.25933307;-0.052414946;-0.05786573;-0.06953988;-0.07375898;0.15681975;-0.040290583;0.055562437;0.06174133;0.07528493;0.013331245;0.027890453;-0.030466074;0.015006713;-0.058921542;-0.030466931;0.04355381;-0.059194367;-0.047069132;-0.107902795;-0.1611513;0.032706473;-0.052103393;-0.0755741;0.13326858;-0.027280213;0.043776214;-0.010190137;-0.08601668;-0.0016810211;-0.041381415;-0.09313001;-0.043925025;0.057325024;-0.022176523;-0.045314454;-0.07041559;0.022754142;0.07961283;-0.1092301;0.116766796;0.1097086;-0.13061412;-0.008209162;0.08276567;-0.089277685;-0.0015410669;-0.04984674;-0.0079692835;0.012750473;-0.13329282;0.023388417;0.0077296486;0.04315115;-0.017059328;-0.15803179;-0.061550826;0.061252557;-0.08190613;0.03535602;0.048833918;0.023137242;-0.102379434;-0.0116922865;-0.07842342;0.040681668;-0.04946636;-0.055064652;0.041262228;-0.024096837;0.037867878;-0.06528192;0.022444706;0.12434756;-0.04384035;0.028484093;0.018017864;0.024620207;0.023386592;-0.011816375;-0.019805772;-0.038570236;0.042711128;-0.007084258;-0.050467882;-0.08885554;0.08247379;-0.011952925;0.035227932;0.031231418;0.124893256;0.14717616;0.0046880147;-0.10009735;0.014724242;0.041371733;-0.058946252;-0.04079939;-0.009167302;-0.08279249;-0.026512545;-0.13693213;-0.07693553;0.017534286;-0.04098199;0.014713638;-0.08618582;-0.12891318;0.042596694;-0.08408367;-0.030821387;-0.1002489;0.020548163;-0.039984297;-0.09019358;-0.06871013;0.0474974;0.044583846;-0.015548677;-0.11035288;-0.11150626;-0.032542016;-0.030975726;-0.0054252367;0.07912785;0.04590549;0.0371821;-0.060512584;0.00658576;0.04772931;-0.12792365;-0.08320071;-0.02242105;0.07319727;0.023647774;-0.002893972;-0.11267512;-0.16221625;-0.03598505;-0.11436192;0.0644895;-0.09703801;-0.014679;0.017465817;-0.10740886;-0.052035876;-0.06772706;0.011472225;0.039378256;0.0035972612;-0.074238606;-0.07815836;0.0066180844;0.019128775;0.06936663;-0.01791279;-0.10091986;0.01997034;-0.018285979;0.06791091;0.007819454;-0.08495338;0.04818649;0.013606025;-0.048737638;-0.05873107;0.004264318;-0.013528923;-0.035042156;0.030368607;-0.0020913556;-0.060703393;-0.07574687;-0.096815586;-0.053979587;0.008966958;-0.013616661;-0.026888961;-0.016717643;-0.075924985;0.02701981;0.004539966;0.044469062;0.08838118;0.0041645807;-0.07589045;0.02586691;-0.029099073;0.043915585;0.048558366;-0.07780207;0.018387234;-0.08939788;0.047708943;-0.004816152;0.049662214;-0.07443469;-0.16859841;-0.028593011;0.050896626;0.08666117;0.0038176426;-0.049151625;-0.038117357;0.018520482;-0.11102997;-0.050548512;-0.09820211;-0.04201637;0.02368413;-0.027279466;-0.0628241;-0.06112277;-0.08549586;-0.029573798;-0.04810915;-0.013533705;-0.10780966;0.009795113;-0.0013198726;-0.13830978;-0.018940795;0.027843589;0.0406794;-0.100994;-0.09600139;-0.10159987;-0.013766423;-0.010546061;0.048205327;0.06034271;0.02221764;-0.02839847;-0.09696569;0.0042126174;-0.018121194;0.12994851;-0.017588599;-0.10670675;-0.10762477;-0.02770893;-0.0014304082;-0.016547875;-0.009463786;0.096847646;-0.0033928799;-0.00434394;-0.13989812;-0.046887446;-0.027127506;0.012402615;-0.01655209;-0.013585311;-0.06573345;0.036783103;-0.050904818;-0.09823078;-0.03069719;-0.032373533;-0.045737516;-0.12683965;-0.05348643;0.0076686097;0.0026912717;-0.07233497;-0.0051385374;-0.0025010086;0.041700568;-0.053985476;0.030191852;-0.0730275;-0.06421471;0.013553405;-0.06837986;0.035733655;-0.15084;-0.07165134;-0.004797175;0.12317848;-0.00023034707;0.040960476;0.06581685;-0.05841245;-0.034021523;-0.059336342;-0.032516833;-0.048045505;-0.08290178;-0.05894979;-0.060448553;-0.08023299;-0.010019614;-0.086444445;-0.07092139;-0.10457607;0.016243452;0.0173677;-0.057741437;-0.016594768;-0.021343306;-0.06754259;-0.085645854;-0.12259899;-0.008781252;-0.042785566;-0.06635525;0.051188525;-0.054783642;0.007888679;-0.07264733;0.011852389;0.06335664;-0.05722482;-0.07567611;-0.08209312;0.021149546;-0.0075651854;-0.078583956;-0.014173552;-0.012391032;0.035021536;-0.033086576;-0.097480856;-0.01897969;-0.13173549;-0.015818626;-0.11077603;-0.1045795;-0.06607078;0.052822176;-0.028342085;-0.108306326;-0.027690314;-0.023819493;0.009948972;-0.00703166;0.0036382596;-0.13021252;-0.039750766;0.008744786;0.016495219;-0.10582425;0.103344075;-0.042159576;0.06226774;-0.08948376;-0.047487393;0.049864408;-0.07963518;0.063895635;-0.0022617811;-0.021844013;-0.03400336;-0.02646881;0.041463792;-0.014395559;-0.0013430077;0.01954705;-0.07997424;-0.04588759;-0.13149655;-0.10472259;-0.12331653;-0.015485921;-0.052523077;-0.12935948;0.008833774;0.036587987;-0.07614922;-0.025620194;-0.04893851;-0.08524731;0.031835657;0.019842401;-0.06832025;0.019222481;-0.070877954;0.060368404;-0.11428128;-0.022762837;-0.12966308;-0.16284323;-0.17902979;-0.04958431;0.17688912;-0.014682617;0.026870832;-0.02270562;-0.0023465895;-0.053253416;-0.12470674;-0.055922333;-0.10077101;-0.046052102;-0.10778485;0.026297903;-0.07018157;0.10235115;0.045559686;-0.07388395;0.010608977;0.030176964;0.058472205;0.011667438;0.04814233;-0.08588572;0.06291092;0.023009641;0.049314566;0.006006602;-0.021286255;-0.06033243;-0.08674606;-0.09222312;0.027443286;-0.13266104;0.06517487;0.009868382;-0.015460991;0.1190335;-0.05883816;-0.04100572;-0.037867617;0.02564994;0.06076157;-0.01221996;-0.036802594;-0.018741963;0.0038460824;-0.00036283862;-0.043558173;0.03746052;-0.053274833;0.029636914;-0.020656528;0.04455597;-0.03640435;0.0068012686;0.024657013;-0.07708641;-0.01987552;-0.1700639;-0.06844945;-0.1068539;-0.054712445;0.026926205;0.04368512;-0.021677425;-0.10652585;-0.1310212
-0.029164333;-0.09231793;-0.016554361;-0.030150022;-0.0707555;-0.02896529;-0.057636224;0.0030115093;0.10946101;0.06741512;-0.073771656;-0.096002534;-0.08153072;-0.055475;-0.06418822;-0.11193476;-0.089538254;-0.16805303;0.0075046583;-0.07104122;0.004733192;0.023599887;0.018651953;0.06417801;-0.002264862;-0.05498072;-0.07260878;-0.050134294;-0.06553437;0.043436456;-0.04783791;-0.089018025;-0.021945704;-0.08383864;0.0060681435;-0.019635448;-0.04666362;0.043311536;-0.06518524;-0.014164925;-0.06992364;-0.009619591;0.05671603;-0.11447537;-0.07932977;-0.096226655;-0.09092959;-0.038164575;0.11666527;-0.07441546;-0.06819843;-0.004815403;-0.09428119;-0.066000246;-0.028697712;0.110436596;0.009184873;-0.094274186;0.01668308;0.04926956;0.0020170633;-0.00012965141;0.022924904;-0.05738964;0.03048679;-0.027538277;-0.096682705;0.018690242;-0.03824343;0.058334857;-0.049639415;0.0034180875;-0.06152088;-0.027162962;0.12998706;-0.11630093;0.12146677;-0.03327076;-0.06679735;-0.084416844;0.02913586;0.04832144;0.015831472;-0.060684916;-0.07039245;-0.14816661;0.00875203;0.18262212;-0.06874983;-0.03468315;-0.08492997;-0.06592763;-0.03341054;-0.0485216;-0.058560576;-0.032746892;-0.0075642746;0.042696375;-0.0051030205;0.049144782;-0.109055504;0.0095170885;-0.09084951;-0.10426926;-0.054874398;-0.05460437;-0.07412813;-0.018547673;-0.09478493;-0.13479395;-0.019534167;-0.10673877;-0.08307702;0.043158405;-0.053379737;0.0058840388;0.03144388;0.006857247;0.032517232;-0.0005035911;0.04894596;-0.09244271;-0.11294951;-0.06223864;-0.08942395;0.03992443;-0.2317741;-0.11272464;-0.06994868;-0.074930206;-0.05161894;0.10581933;-0.14922625;-0.030811906;-0.059092868;-0.04993831;0.045806497;0.044857603;-0.0071625956;0.023619046;0.023675047;-0.04290194;-0.046361625;-0.10332786;-0.08253084;-0.0007661208;-0.095378764;-0.07856827;-0.0016272353;-0.030643975;-0.0085874675;0.042756036;-0.02899821;-0.07854305;-0.08279545;0.0076796007;-0.12027099;0.02179802;0.039943542;-0.015498874;0.0010115234;0.027194547;-0.083790265;0.0744565;-0.030060804;0.014767056;-0.03789405;-0.031820618;0.017325863;-0.010201158;0.05826066;-0.022926128;-0.1264481;-0.038519867;0.053232554;-0.09447679;-0.033385586;-0.101479895;0.056960795;0.005117334;-0.015611022;-0.20027372;-0.0046861335;-0.00055826403;-0.14825466;0.058682352;0.018048864;-0.08116436;-0.01095034;-0.083491854;-0.05296829;-0.05733538;0.012635451;-0.06831234;0.009934631;-0.011605909;-0.10591641;-0.10516098;0.017958967;0.13039283;0.059434928;-0.03376262;-0.12221534;-0.041357562;-0.05525834;-0.03185473;-0.01381552;-0.095291995;-0.07904481;0.061541766;-0.06117349;-0.08947967;0.083948426;0.0066542216;-0.07661984;-0.0031680774;0.089375965;0.11912234;0.14064357;-0.07891963;-0.016175892;0.0016594816;-0.0037377924;0.015676063;-0.110626824;0.0118006775;-0.013865271;-0.026782548;0.049559787;-0.0045732763;0.029729964;-0.09392026;0.035172906;-0.15431124;0.024723554;-0.10278926;0.05876414;0.012938818;-0.042695668;0.021454861;-0.07407646;0.028845815;0.017167825;-0.020956192;0.09710239;-0.1144926;-0.15661222;0.032033015;-0.0042734337;0.013797702;0.08227253;0.18828043;-0.03895921;0.015623875;0.016051363;0.05698727;-0.08781232;0.03535979;-0.076262385;-0.058590483;0.052387513;-0.11819185;0.04643021;-0.17427732;0.054239705;-0.025871273;0.05532175;-0.054535147;-0.026967647;-0.072906286;0.0057768454;0.06459338;-0.025210846;-0.0156119;-0.08835162;-0.1534153;-0.08923212;-0.028217694;0.023181055;-0.028449344;-0.033017535;0.060758837;-0.039249953;-0.005187666;-0.10271017;0.05893994;0.00832471;-0.12995113;-0.09106337;-0.0031028886;-0.04608848;0.04564997;-0.025783546;-0.07204308;-0.085057914;-0.09091763;0.033382036;-9.6548865e-05;0.03598955;0.027559334;-0.002841874;-0.010277003;-0.14470437;0.026119052;0.075894356;-0.033877194;-0.024852252;-0.06609558;-0.011768297;0.0602993;-0.11850219;-0.050840892;-0.012591983;-0.12294948;0.03734396;-0.022339331;-0.067835495;0.005908577;-0.03158784;0.019685037;-0.051183958;0.054479543;0.033492133;-0.16995622;-0.06542564;-0.06406873;0.012980698;0.042309936;-0.056076996;-0.0052421587;0.05001027;-0.012067351;-0.013242597;0.029282492;0.017531617;-0.099395305;-0.09529645;-0.08703496;-0.12420476;-0.0032525016;-0.16142924;-0.0758304;0.06739752;-0.09227964;-0.023950942;-0.024230136;-0.026149062;-0.02659423;-0.052144464;-0.045911934;-0.032719385;-0.02298114;-0.13939793;0.037437063;-0.0081225075;-0.044285383;0.02100327;0.01087869;-0.041949492;-0.0375327;0.0556434;-0.09549361;0.0917649;0.0033102739;0.0067221005;0.023261601;-0.030034423;-0.08348852;0.008189289;0.02632787;0.11166314;-0.08648881;0.076762736;-0.037626363;-0.06578803;0.032832544;0.033496905;-0.015647814;-0.063045196;-0.0040602842;0.05107081;-0.09010762;-0.060137838;-0.08372831;-0.08903824;-0.069515795;-0.02204586;-0.00039511587;-0.06399111;0.04649033;0.0010535488;0.018642772;-0.052509174;-0.072120674;-0.02031676;0.010207;-0.027310463;0.023488829;-0.034269106;0.04548353;-0.02678697;-0.05695474;0.023385637;0.052175574;0.13395374;-0.11175919;0.054178145;0.057099544;-0.048591137;-0.061622895;0.04650716;-0.04956786;-0.022340845;-0.04802877;0.03605599;0.08613808;-0.0033916477;0.03359048;0.031611413;-0.0462035;-0.10956987;0.06458655;-0.11534357;0.05794;-0.095977046;-0.009289712;-0.07367446;0.01956551;-0.052643258;-0.04998179;-0.052297704;0.04867955;-0.0901624;-0.07427106;0.0021155258;-0.07474458;0.03304922;-0.047536884;-0.09148573;-0.044763327;0.031362385;-0.0015980095;0.07182285;-0.021048885;0.0003597524;-0.06606004;0.087849274;-0.010546946;-0.038875647;-0.15366463;-0.17944661;-0.054504044;-0.1602187;-0.015985513;-0.05107413;0.15631859;-0.005665805;-0.07755481;-0.11502775;-0.034429707;-0.055635028;-0.03204523;-0.088463806;0.012044888;-0.025245208;0.0017087144;-0.08610048;-0.13083056;0.13391897;0.016387014;0.09710816;-0.052851878;0.05758382;0.06592054;-0.015818259;0.07540536;-0.09662796;-0.08714408;-0.08609209;0.06422389;-0.030852618;-0.038021635;0.028898109;-0.0025796099;-0.03967083;-0.090129025;-0.12178441;-0.07457885;-0.114536986;-0.07962968;0.056298003;-0.0061100414;-0.0796624;0.040126964;0.006053102;-0.09828758;-0.059143376;-0.0002473754;-0.00977948;-0.05397839;-0.06751381;-0.06544504;-0.022887195;-0.02430609;-0.117215626;-0.08869174;-0.08610547;-0.087908246;-0.12961093;0.029742438;0.11444536;-0.073768355;-0.013879918;-0.06943459;0.010162446;-0.07181694;-0.063140646;-0.05820098;-0.051910326;-0.11077015;-0.012398697;-0.017700452;0.0028047976;-0.020100595;-0.018679002;-0.06654332;-0.04433341;-0.04326997;0.0010117529;-0.053723942;0.04699542;-0.08646441;0.03177041;-0.06143649;-0.037572138;-0.07282831;-0.055668358;-0.08643315;-0.030688815;-0.14098871;-0.061838534;-0.09329026;0.07383235;-0.04696797;-0.073651604;0.08967218;-0.056249928;0.10678336;-0.032250807;-0.017143292;0.06572703;-0.01163854;0.013707026;0.04607184;-0.07135784;-0.09508057;0.006209894;-0.041242406;-0.0058361907;8.180733e-05;-0.075042166;-0.07691531;-0.04581782;-0.036453057;-0.01337436;0.0136941075;-0.11675869;-0.014506047;-0.040608108;-0.13635416;-0.094861455;0.0103580635;0.030933788;-0.0783193;-0.11966894;-0.07161482
-0.049761027;-0.09779555;0.057849627;0.06859354;-0.19341977;-0.0870678;0.011991559;-0.06907328;0.012861543;0.0015169829;-0.02313165;-0.00038082252;-0.010203529;-0.13243209;-0.07018173;-0.010718325;-0.18721072;-0.07513294;-0.005250974;0.050907996;-0.08518225;0.033493116;0.024531314;-0.084106706;-0.05586139;-0.030806974;0.07282964;-0.111067444;-0.1664175;-0.008702296;-0.13294463;-0.11692379;0.03233092;-0.11083845;0.043974154;-0.045859277;-0.1600533;-0.034585457;-0.048008382;-0.07043843;-0.070750244;0.018566864;-0.03148909;-0.083119795;-0.10234954;0.03917471;-0.02142686;-0.08842889;0.049518116;-0.16598377;-0.10329645;-0.08252361;-0.09687599;-0.06436666;-0.10999695;0.09957302;-0.08155104;0.048992716;0.021692656;-0.03794773;0.025432907;-0.007472578;-0.061771564;-0.08179249;-0.076950066;-0.08420909;0.06821592;0.0044704583;-0.03279622;-0.0041654706;-0.018624956;-0.046719298;-0.0791001;-0.0019714264;0.14056672;-0.040788192;0.023101542;-0.019755378;0.04816985;-0.07885319;-0.05433318;-0.048887596;-0.07098842;0.027561223;0.042499054;0.0039775623;7.822198e-06;0.13530558;0.026150264;0.027514052;0.03283073;-0.111889645;-0.04216145;-0.028734665;0.045825448;0.005375169;0.082974225;-0.069360785;-0.01262919;-0.09358245;-0.067557774;0.013272155;-0.028847417;-0.09640162;-0.020936416;-0.028325152;0.011189139;-0.031051258;-0.11610742;-0.07859565;-0.07889943;-0.14413929;-0.0011445093;-0.099842526;-0.10152229;-0.034736544;0.0337434;0.1656522;-0.061324153;-0.061262168;0.037082646;-0.063428394;-0.045310527;-0.05229893;0.031350035;0.0063431663;-0.20613937;-0.08440605;-0.0060449946;0.008384075;-0.17531523;0.073169194;-0.03149883;-0.024379566;-0.044175036;-0.019588634;0.022556778;-0.011298978;-0.13475914;0.012429566;-0.1466747;0.023622844;0.029142631;-3.90728e-05;-0.022307336;-0.021113582;-0.009289701;0.011654895;0.073985174;0.081706434;0.133558;0.0664754;-0.05837856;0.030601297;-0.0206402;0.056799855;-0.01816711;-0.054091062;-0.005578472;0.0050855456;-0.08898819;-0.15684201;-0.07582986;-0.009390563;0.043088976;-0.10463639;0.031549577;0.048268598;-0.117424086;-0.10007215;-0.113878;-0.11139032;0.014013292;0.06577711;-0.065888554;-0.0071763652;-0.057622727;-0.09237408;0.029187497;0.05723329;-0.02810188;-0.078841865;0.009182736;0.058863465;-0.08068078;-0.03642983;0.03020333;0.07192651;-0.009408835;-0.0019146099;-0.071722455;-0.013752712;0.016711116;0.009563685;-0.10486206;0.051473465;0.024129268;-0.021070557;-0.06485963;-0.008138495;0.034557648;-0.08781025;0.004530449;-0.01989828;0.058234293;-0.00853292;0.089742616;-0.104817316;-0.032154676;-0.013901967;-0.059142254;-0.106724866;0.026146797;-0.068900295;-0.12181573;-0.036755335;0.03595571;0.050707437;0.11474316;-0.044629272;-0.043463793;0.033262525;-0.040483654;0.017296799;-0.02012416;-0.010617961;0.018133989;-0.1686037;-0.045416232;-0.016060773;-0.020588318;0.004072277;-0.13745654;-0.12879099;-0.046800762;-0.20698975;-0.006629673;0.008281868;0.038405467;0.07091787;-0.0153199015;-0.058247793;-0.053381905;-0.045396786;0.01263897;-0.114689894;-0.13592145;0.030511223;-0.0261833;-0.027828129;-0.01366258;0.054323792;-0.07374156;0.015579793;0.047655977;0.12435814;-0.15315479;-0.06823284;0.0025821356;-0.039196815;0.054286353;-0.044979706;-0.048142128;-0.09266645;-0.02050708;-0.071979955;0.09712495;-0.0940076;0.008666214;-0.049113896;-0.07679765;-0.04158115;-0.10294554;0.14362904;-0.103440434;-0.16436549;-0.08790964;0.020083552;0.03367008;-0.041734807;0.025471285;-0.026847003;-0.12141887;0.071664356;0.03596216;-0.11666461;0.034635715;-0.028374225;0.039617106;-0.042070102;0.028079132;-0.008701988;0.05739125;0.04536416;-0.16349925;-0.019596025;-0.11273127;0.016881078;0.016864037;-0.053423665;0.033365414;-0.08725815;-0.11687954;0.007378769;-0.0045740562;-0.00030673319;-0.14431286;-0.082293056;0.077571034;0.14448711;-0.11038858;-0.09332899;-0.009205978;-0.07611331;0.10735956;-0.0775604;-0.08182454;0.0032372237;0.045554228;-0.028931284;0.021940328;-0.006267887;-0.03344322;-0.14173208;-0.0013996667;-0.081550114;-0.0743703;-0.025845485;-0.05405435;-0.12104456;-0.03617012;-0.03945477;0.053641055;0.02317654;-0.058266327;0.009474012;-0.040153634;-0.041671652;-0.07496246;0.04295651;-0.032810032;0.044224616;0.05057846;-0.01652279;-0.015938835;-0.040186852;0.0024487213;-0.047712956;-0.08087894;-0.082018435;0.046354182;0.031706866;-0.13909096;-0.007563207;-0.05048189;-0.045756374;-0.0056326003;-0.10345524;0.019382482;-0.037960928;0.04365116;0.047340322;0.10958163;-0.11635556;-0.044217683;-0.10540827;-0.062176682;0.020947471;-0.12775543;0.05308332;0.101604715;-0.06321965;0.03983685;-0.10900235;0.02388262;-0.0062648733;-0.02753468;-0.04066298;0.052555464;0.0188357;-0.07819956;-0.07831254;0.028150028;-0.07972595;0.0040711206;0.03914122;-0.06725478;0.030109592;0.052902278;0.06923225;-0.01954152;-0.0027914005;-0.07562126;0.0047452906;-0.06352302;0.09111955;-0.07187751;0.0081997365;-0.1036167;-0.06464498;-0.031959396;9.3659975e-05;-0.0792989;-0.07059086;0.09160601;-0.11179441;-0.005454225;-0.07997054;0.057546802;0.050953645;-0.08190704;-0.012396127;0.025324807;0.058073062;0.021210719;0.09169011;-0.06932854;-0.012300816;-0.012947647;-0.035676036;-0.1098255;-0.05263487;-0.11767877;-0.025159653;-0.11971501;0.05057005;-0.071844704;-0.00278925;-0.12503737;-0.013586277;-0.05913449;-0.016150385;0.007735631;-0.046863068;0.08321969;0.016742392;0.02588121;0.05002924;-0.10927243;-0.0021953215;0.0050624823;0.048977647;0.02501753;-0.17896613;-0.03146205;-0.08045322;0.014528967;-0.03407521;-0.059255827;-0.07229106;-0.25942063;-0.009683212;-0.17513995;-0.1431638;0.049980614;0.069251195;-0.14137238;-0.077654175;0.03568822;-0.08535045;-0.06228746;-0.007475318;-0.025753267;-0.0104195345;-0.029751914;0.08037216;0.0236434;-0.124010265;0.12708727;0.015650967;0.092603154;0.026770638;0.035699684;0.1122881;-0.093227364;0.08722965;0.063166;-0.008857284;-0.027805468;-0.006925561;0.06541226;0.019180028;0.068782456;0.038247846;-0.069401726;-0.048166256;-0.038015194;0.07571558;-0.055183474;0.0012550605;0.052765056;-0.1351439;-0.11675217;-0.06466943;0.038044844;0.03255862;-0.035193205;-0.070855394;0.033750795;0.026262064;0.052542653;-0.062093005;-0.026759142;0.020267082;0.023274647;-0.13858464;-0.0035059822;-0.10601318;-0.23830543;-0.009235252;0.12653433;0.0042702295;-0.13106476;-0.15647183;0.07656959;-0.06793315;-0.08833673;-0.031370226;-0.088090695;-0.094551384;-0.097031206;-0.08138357;-0.050133348;-0.01567892;-0.040842745;-0.006119229;0.061327223;-0.047112044;0.06323032;0.0048795263;0.04162539;0.011114642;-0.0062094675;-0.033435624;0.0034781657;0.013326153;-0.067432076;0.036773928;-0.18018681;-0.12095568;-0.025962485;0.013642742;-0.029845517;-0.07345483;-0.08049765;-0.002421144;-0.032057513;0.12549199;0.039245818;-0.043449316;0.097340345;0.0005590435;0.040934395;-0.095990725;0.04170909;-0.037208058;-0.033609584;0.1076795;-0.038747244;0.10466494;0.018031918;-0.11131509;-0.026064834;-0.025017258;-0.056398902;-0.103658535;-0.12467052;-0.031706445;0.03021657;-0.13222547;-0.09285318;-0.014917812;-0.046160147;-0.042203944;-0.12509517;-0.21413003
0.021486681;-0.054105513;0.025491191;0.12229324;-0.19399764;-0.114814274;-0.06973881;0.050381612;0.09085391;-1.7464557e-05;-0.17674372;0.050083727;-0.0942473;-0.13243507;0.005774074;-0.15691052;-0.057350792;-0.07465908;-0.059885643;0.03618751;-0.10028747;-0.08959042;0.02788992;-0.0709219;0.034266703;0.03306048;0.03429346;-0.059191115;-0.0072835297;-0.042551298;-0.02491564;-0.029282026;-0.047326043;-0.08983387;-0.066101275;0.07552638;-0.15070127;-0.011260492;-0.006030378;-0.08670934;0.0150576485;0.054944772;0.027773513;-0.04085893;-0.07846142;-0.020773884;-0.03898825;-0.053246588;0.07096576;-0.06228843;-0.030894449;-0.0068580634;-0.019211717;-0.0076212427;0.014284342;0.13498893;-0.01232797;-0.059185054;0.038641386;-0.022011166;-0.03577535;-0.064914875;-0.059404258;-0.013238158;-0.023798803;0.042075638;0.02490959;0.014836746;0.026415385;-0.03552561;-0.030035844;-0.0060492903;-0.041875217;-0.042137247;0.0036925862;-0.107126266;0.06751094;-0.023443393;0.028808033;-0.07720556;-0.039906383;-0.0034534978;-0.0879762;-0.060270693;-0.050798256;-0.116084404;0.02714321;0.09795027;-0.022559168;-0.017853873;0.04884936;0.015389192;0.07296176;-0.04593455;0.005053577;-0.07393819;0.011440859;-0.0017099053;-0.092639916;-0.10502632;-0.08578549;0.062422264;-0.034108046;-0.07428296;-0.022977497;-0.085236885;0.05016944;0.013872785;-0.039092157;-0.10141982;0.009900408;-0.004076403;0.013870519;-0.09060252;-0.009074806;-0.09450179;0.029882357;0.050562534;-0.027266042;-0.08488368;-0.006583068;0.0046038046;0.0012334461;-0.06316163;0.013046956;-0.06038449;-0.19782162;-0.05586951;-0.064711004;-0.09986407;-0.091194496;0.11257332;-0.07163617;0.019213531;-0.02392347;0.057412576;-0.0914201;0.07558574;-0.11896037;-0.040649664;-0.051695764;-0.13569257;-0.099096596;0.05344001;-0.053031813;-0.08066568;-0.014672173;0.009633097;0.025808668;0.062861614;0.11976828;0.029547347;-0.1245425;-0.035359684;0.015838694;0.04078811;-0.04978995;-0.10177005;-0.12334879;-0.014210298;-0.050000016;-0.11010573;-0.10298671;-0.054350372;0.0076454612;-0.113477446;0.05422696;0.095594265;-0.041341204;0.019803481;-0.052245654;-0.01562307;-0.093043156;-0.0515201;-0.014487168;-0.028624061;-0.17895733;-0.10381045;0.05986976;0.015964985;-0.023516675;-0.060452923;-0.07186108;0.0066010044;-0.07177606;-0.016088575;-0.11406645;0.06685072;0.06117126;-0.15403543;-0.09600979;0.042547688;-0.007954465;-0.0672713;0.046241518;0.027104;0.022041269;0.062279638;-0.06965301;0.08100952;-0.06911603;0.05444395;0.010632968;-0.017801097;0.06373642;-0.011786181;0.08323436;-0.13374795;-0.028625945;0.107194215;-0.081946544;-0.065929025;0.022978144;-0.01655269;-0.002707436;-0.007266916;0.09681733;0.030601364;0.04541695;0.024595913;-0.086524285;0.051650606;0.031164473;-0.011320155;-0.0124878455;-0.11045375;-0.074172705;-0.1070933;-0.002152082;-0.0018277577;0.023875821;-0.053560622;-0.022188002;-0.11518035;-0.041717485;-0.13609037;-0.017265968;0.019208176;0.028006207;0.06810504;-0.121939406;-0.075269684;-0.0751883;-0.07016189;0.13325731;-0.09023929;-0.18358432;-0.002603783;-0.012447601;-0.13174303;-0.074815854;0.12476437;-0.0024140896;-0.070833266;-0.013096983;0.060634337;-0.13393849;0.04390404;-0.07423552;0.03459513;0.000117012954;-0.051016532;0.03967076;-0.1382767;-0.07702181;0.013108792;0.005147346;0.01892597;-0.039064765;-0.0036559477;0.06886163;0.0013045558;-0.1266651;0.11490575;-0.16867527;-0.15201151;0.025653064;-0.025948148;-0.012166454;-0.122594416;-0.034534276;-0.07083832;-0.13947295;-0.028533928;-0.10766078;0.0395575;-0.05243322;-0.13876551;-0.07908264;0.008898736;-0.12262576;0.09438533;0.08127714;-0.01753479;-0.16072465;-0.08128774;0.029408623;-0.075992845;-0.06622345;-0.10066026;0.03172128;-0.015280748;-0.008576312;0.00174381;0.017818317;0.05450183;-0.02892158;-0.0640154;-0.07234802;0.1294281;0.008977552;-0.02745107;-0.06631442;-0.05253799;0.039412867;-0.013789653;0.013786264;0.017420493;0.020048188;-0.0722008;-0.07416508;-0.076667614;-0.094771974;-0.1029844;0.033300836;0.02167702;-0.017868476;-0.09528018;-0.032432135;-0.11928608;-0.0582753;-0.13525333;-0.083945185;0.0158226;0.026277538;0.019834477;-0.036286294;-0.057991724;-0.060627688;0.03808463;-0.091958135;0.04309799;0.06430778;-0.081982195;-0.040711507;-0.073124215;-0.03351121;-0.026044754;0.027992224;-0.029688822;0.012623516;-0.093100466;-0.036734756;0.0342609;0.04661421;-0.070949286;-0.067413196;-0.114391685;-0.14072572;-0.042605072;-0.059919097;-0.07613388;0.0890715;-0.036964007;0.012690863;-0.042449284;-0.063911475;-0.035342786;-0.05951427;0.06062963;0.08326985;-0.06997192;0.07027852;-0.016076403;-0.07903646;-0.046966836;-0.0022634799;0.01538349;0.0069432105;0.027494032;-0.020029899;-0.0054093106;-0.033622254;-0.07728687;-0.097613595;-0.0374019;-0.12302914;-0.00987162;-0.032825697;-0.06519599;-0.03083864;0.13095085;-0.0053191176;-0.04729698;-0.05305364;0.038565423;-0.10880993;-0.006848926;-0.12847638;-0.08827437;0.044486035;-0.06098859;-0.1133885;-0.004160227;0.076072484;-0.18054338;0.033625804;0.049559757;0.066062964;-0.028572591;0.03574751;0.061039973;-0.03123844;-0.071004696;-0.057216246;0.027521128;0.028280811;0.1164351;-0.057214204;-0.0012748191;-0.04562406;0.09957279;-0.14448602;-0.08959332;-0.10519691;0.0205857;-0.08002954;-0.02638879;-0.0953815;-0.07870569;0.07144007;-0.09656035;0.054313444;-0.038162254;-0.05634481;-0.0074476264;-0.0342832;0.028050546;0.007393398;0.019471092;0.07474997;-0.044573396;0.008998459;-0.15102577;-0.015982034;-0.008401305;0.0190737;0.036923386;-0.07257748;-0.04585137;-0.13273677;-0.03323456;-0.09994458;-0.026330179;0.10159887;0.16415428;-0.16952778;-0.16071507;0.039434686;-0.016340043;-0.00068532367;-0.0610973;0.032966994;-0.037377525;0.024932224;-0.08545906;-0.08131368;-0.15372144;0.05882816;-0.046384234;0.012453395;-0.037319828;0.03483947;0.010241593;0.025289148;0.019058736;0.03384099;0.015431925;-0.10359248;0.07090511;0.124969594;-0.002047785;0.087260775;0.037605103;0.0055877967;-0.08227617;-0.114834316;-0.008170874;-0.0727161;-0.11247326;0.040373582;-0.09773358;-0.0735799;-0.08590865;-0.079733595;-0.0841848;-0.015620829;-0.0135122705;0.09512258;-0.08122529;0.04970801;-0.03382885;-0.053312253;0.013578144;-0.001815174;-0.073057845;0.023592565;-0.091437586;-0.24173725;-0.09859717;-0.0026139454;-0.03545519;-0.13087718;-0.0731613;-0.015402598;-0.050947964;-0.009412548;-0.077002674;-0.010982721;-0.070121475;0.012421879;0.0012174548;-0.05256781;0.1481384;-0.033815447;-0.047585808;-0.03192729;-0.015948545;0.100461304;0.043426324;0.020192122;0.03189107;0.06454006;-0.04715262;0.031231519;-0.0050471895;-0.03625876;0.055111855;-0.038344976;-0.115718186;0.028293576;-0.15754858;-0.03084479;0.030875837;-0.058611374;0.14187084;-0.13302849;0.13878202;-0.1241942;0.04845503;-0.016682591;-0.039747342;0.04614107;-0.08418915;-0.009793448;0.038010422;0.00906995;0.09837045;-0.021410234;0.0006044544;0.048278693;-0.055267204;0.02274327;-0.027029263;-0.070455305;-0.062644236;-0.008190887;-0.1326098;0.004321286;-0.05177603;0.032748375;-0.015781289;0.10260681;-0.10099736;0.011630552;-0.14949429
-0.03530778;-0.0325676;0.04238043;0.1302139;-0.07238241;-0.018256871;-0.049020577;0.0018437429;0.009371894;-0.0060871034;-0.12703192;-0.025460614;-0.08767006;-0.100956604;0.048357785;-0.058162104;-0.13593273;-0.08366654;0.0049013435;0.07778034;-0.031244095;-0.042407215;-0.041091096;0.002409889;-0.04066863;-0.034364637;0.008025084;-0.16925643;-0.102771044;0.03468244;-0.038680125;-0.03446086;0.05248489;0.037222464;-0.07139534;0.0033175808;-0.08320066;-0.08852072;-0.05151552;-0.0026955523;-0.113700815;0.06352429;0.09526029;-0.05754677;-0.08283587;0.048652668;0.009571159;-0.051368684;0.012076746;-0.0667898;-0.087534264;-0.03200528;0.007859997;-0.021948056;-0.020029845;0.12652466;-0.020395799;-0.07711084;0.020444581;-0.07776367;-0.049890198;-0.06828427;-0.104926966;-0.07490431;0.042739812;-0.022035595;-0.021328364;-0.05554033;-0.07614328;-0.07459513;-0.08805825;-0.062191755;0.027546989;0.0012862835;0.117832676;-0.09611623;0.012409352;0.030317146;-0.077928476;-0.003516026;-0.016469102;0.0291799;-0.045374535;-0.03264454;0.0046708398;-0.01340351;0.043300997;0.022266237;-0.05871196;-0.08215608;-0.09773215;-0.0681125;-0.028392788;-0.115791425;0.034526587;-0.10443211;0.062080715;-0.017042201;-0.024371238;-0.019153425;-0.067259796;-0.07411409;-0.017471993;-0.11802845;-0.021149058;-0.007991171;-0.04547639;0.06778185;-0.08687717;-0.046040565;0.03676204;-0.015175955;-0.016760018;-0.07502449;-0.07004549;-0.028049074;0.05812111;0.113046706;-0.0060885;0.03424993;0.015501328;-0.015340643;-0.037073735;-0.0018341461;-0.01177955;-0.06907475;-0.27000067;-0.038362756;-0.13587387;0.007848838;-0.08647847;0.059764992;-0.037638485;-0.021347772;-0.041573226;-0.012041644;0.023018846;-0.0017831916;-0.12752697;-0.031578846;-0.058889315;-0.017205583;-0.061476298;-0.024269806;-0.052647114;-0.017371045;-0.022419976;0.005693947;0.00015202834;0.060538486;0.109397024;0.0021962665;-0.001475677;0.042284716;0.0071975174;-0.061663415;-0.04588956;0.020960452;-0.056268774;0.05752874;0.047469772;-0.028063044;-0.065418296;-0.062927574;0.055670634;-0.06238364;0.018181015;0.065296575;-0.11893036;0.029275212;-0.02487367;-0.09107305;-0.08853585;0.064048976;0.031613063;0.007280497;-0.124652766;-0.022678303;0.06965679;-0.003586648;-0.09511679;-0.18052712;-0.0038087205;0.019614885;-0.12192001;-0.010930378;-0.048350826;-0.00220599;0.017319465;-0.13172245;0.037144788;0.03249224;-0.010015802;-0.12488436;0.04641413;0.02180427;-0.08742663;0.063747555;-0.10297157;0.065925755;0.044059526;0.06458185;-0.05578992;-0.10254376;0.0075876424;-0.07064851;0.07674388;-0.12667459;-0.0012207336;0.01730712;-0.062634304;-0.010661298;-0.08279526;-0.04154791;-0.11776727;-0.018228479;0.08440651;-0.03506811;0.10001415;-0.02046769;0.051864117;-0.002338618;-0.04163477;-0.062849805;0.034070387;-0.0095735295;-6.650193e-05;-0.15150467;0.07433616;-0.06010183;0.02364242;0.025982246;-0.025549289;-0.12399268;0.020362113;-0.10410976;-0.091337904;0.005930605;0.038502693;0.046014443;-0.07497698;-0.042118058;-0.08649147;-0.09286553;0.105121955;-0.048705224;-0.1391333;-0.11008852;-0.0013573065;-0.13994089;0.06804546;0.056395456;0.009868055;-0.012202426;-0.0033046287;0.044469073;-0.019972255;-0.054455496;0.0713073;0.063164644;-0.03637872;-0.16895548;-0.027730031;-0.09408107;-0.0022055004;-0.054603856;0.012811841;-0.012454646;-0.11087744;0.08985527;-0.07011799;-0.082040735;-0.061042484;0.07457073;-0.07521786;-0.05719242;0.018899173;-0.06399419;-0.06563871;0.028523337;0.0006380116;-0.076147534;-0.05633958;0.046826087;0.007960318;-0.01595185;-0.062235024;-0.06360023;-0.035879098;-0.045705754;-0.09193098;-0.01331155;0.0017304758;-0.07459517;-0.0776322;-0.041815944;-0.120354354;-0.1107774;0.050841562;-0.020666633;-0.048866116;-0.019009624;-0.10810608;-0.08444058;0.041052498;-0.09858387;-0.005940358;-0.051347125;0.022915587;0.06860388;-0.049611762;-0.12158359;-0.10248684;-0.079726204;0.015482646;-0.06829515;-0.06321527;0.00392469;0.010028943;-0.106804766;-0.028960483;-0.015637888;0.03573588;-0.19383834;-0.072084405;0.012782164;0.030915558;-0.0034683808;-0.045482974;-0.08707388;-0.036261283;-0.096782066;0.025593655;0.014621375;-0.021663126;-0.07187577;-0.055917837;0.03649137;-0.012946164;0.018965643;-0.07597983;-0.06078754;0.16019112;-0.082192704;-0.00046227805;0.013367065;-0.15162574;-0.07290192;-0.053922538;-0.015489674;0.049035523;-0.046078254;-0.13946673;-0.060327612;0.034852456;0.031338263;-0.019034045;-0.06606954;-0.101227075;-0.10348333;0.08948135;0.04558677;0.17486325;0.007287308;0.037289802;-0.083146974;0.03192985;-0.011924813;0.01161892;-0.04437703;-0.0054717623;-0.105099246;0.043848723;-0.11319896;0.011936483;-0.04123959;-0.05103658;0.009011655;-0.10159979;0.0635744;0.021777323;-0.050602805;-0.024383342;0.022469746;-0.14545228;0.025733486;-0.089660205;-0.07479615;-0.04905766;-0.050547037;0.013017677;0.033008892;0.028844796;-0.11558603;-0.043611392;0.059543185;-0.049466446;-0.0766026;-0.13164386;-0.0870533;0.064264;-0.1455215;-0.16157486;-0.07066275;0.027187271;-0.13455409;-0.0054517845;-0.08107776;0.020498069;-0.0704746;-0.00999584;-0.014511056;0.03310818;-0.020328864;0.015683372;0.08183466;-0.0072969226;0.13704234;0.02064535;0.011639169;-0.10333861;-0.049174666;-0.07404227;0.007256203;-0.14699532;-0.0066776555;-0.052388158;-0.08550918;-0.023477742;-0.02381145;0.001367267;-0.0008709777;-0.027120251;-0.067089014;-0.044668116;-0.0849123;-0.047231276;-0.07862423;-0.0066462858;-0.096296154;-0.055397596;-0.037776165;0.040547326;-0.14462762;-0.072058804;0.02301883;0.09383834;0.010116762;0.032301493;-0.056187786;-0.13320293;-0.09988465;-0.09443922;-0.077605836;0.03216064;0.15125482;-0.03043353;-0.116796106;0.06256142;0.03730232;-0.043671403;-0.05088755;-0.003632242;-0.067442186;-0.09621374;-0.031377282;-0.06118198;-0.05667498;0.010190947;-0.09071905;0.02002768;-0.012125026;-0.027512763;0.07394224;-0.0074712546;0.11436376;0.030236179;-0.10114723;-0.12897132;-0.021131586;0.017884826;-0.011680752;-0.029229412;-0.006486592;-0.010603816;-0.025092524;-0.11413272;0.045823965;-0.099085964;-0.09508704;-0.010287828;-0.11783609;-0.13369799;-0.066629104;0.03146853;-0.014921069;-0.069016576;0.042236287;0.05301469;-0.022055682;0.08522789;-0.009632366;-0.11172965;0.09535475;-0.008263116;-0.035308138;-0.0728022;-0.1679092;-0.20190409;0.025766002;-0.0006399657;-0.05517186;-0.114483945;-0.07555623;-0.050422866;0.020791257;-0.11579849;0.006421307;-0.019335901;-0.15116693;-0.111811556;-0.051453684;-0.07520434;0.09064104;-0.002708431;0.072594404;-0.010897797;-0.07967784;-0.018434737;-0.022499582;0.07671764;-0.06503297;-0.04301826;-0.021493489;0.05950353;0.019701686;-0.020313073;-0.04878955;-0.03552611;-0.07277278;0.098175004;-0.06481121;0.021050574;-0.008995698;-0.089046605;0.03686459;-0.07270801;0.0800129;-0.12136701;0.009520893;-0.015474189;-0.024648204;-0.020678397;0.0528771;0.0017312829;0.038451865;0.0376844;-0.0055323564;0.016131902;0.027490726;0.008076013;-0.010196718;-0.09925026;0.010886775;-0.05696983;-0.14786953;-0.019194795;-0.1695417;-0.07904388;-0.12759282;-0.08925477;-0.12616785;0.07779033;-0.023550047;-0.031459834;-0.18979196
0.049046285;-0.14458142;0.07111632;0.010723472;-0.21873751;0.008058969;-0.018266322;0.010903505;0.0536351;0.042357806;-0.106480695;0.045512613;-0.009109785;-0.04835817;0.01554008;-0.06607701;-0.11452843;0.013500625;-0.089825;0.006286034;-0.11362799;-0.09987171;-0.10633118;0.0077360906;-0.020956153;-0.044132825;-0.03924174;-0.15023409;-0.013600419;-0.06967842;0.017020205;-0.15292233;-0.04513248;0.012474331;0.031348843;0.041080866;-0.05376021;-0.083756566;-0.052182496;-0.07600675;-0.11794821;0.04249834;0.053778492;-0.029848797;-0.11894925;0.03114634;0.030280419;0.0026282966;0.037519105;-0.11720971;0.022716124;-0.021193352;-0.13372508;-0.022890579;-0.10412767;0.047879882;-0.15771942;-0.04530622;-0.04978904;-0.01780261;-0.048433963;-0.13600622;-0.095181294;-0.060008667;-0.061821632;-0.093579575;0.03827572;0.04700948;0.042363074;-0.019951286;-0.06689122;-0.1280275;-0.060361616;-0.06827127;0.032116536;0.02447503;-0.025055261;0.0021133292;-0.063113466;-0.056538254;0.05162563;0.03810589;-0.041315474;0.02673481;-0.04784467;-0.051935;0.04303588;0.13017003;-0.13560961;-0.07108207;-0.06740662;-0.090513535;-0.06660597;-0.09371726;-0.008550731;0.009749177;0.08633797;-0.041742515;-0.018010488;-0.088620506;-0.1883767;0.045029286;0.06558108;-0.16671142;-0.0067318785;-0.051204357;-0.09223434;-0.064054005;-0.10375124;-0.14224088;-0.07701341;-0.05658982;-0.08672906;0.053962506;-0.03743254;0.031537328;-0.08087611;0.10097227;-0.16430306;0.017489044;0.029143821;-0.0057674423;-0.0627968;0.06887012;-0.101371765;0.058029886;-0.26499474;-0.026998745;-0.0986574;-0.13342646;-0.17748061;-0.010406678;-0.10018447;-0.08031154;-0.10703231;0.057164483;0.01644188;0.08200796;-0.111136965;-0.015348108;-0.13308704;0.010482754;-0.0586672;0.027941495;0.012711966;-0.033479013;-0.03054202;-0.0477094;0.06088918;0.071751;0.07740259;0.060239173;-0.03812418;0.02121265;-0.008993629;0.061551258;0.05099279;-0.083068945;-0.058063846;0.0096751815;0.030965505;-0.18012808;-0.12107801;0.012709955;-0.113372244;-0.09082258;0.013937606;0.025021099;-0.03804829;-0.08645031;0.022688929;-0.016173832;-0.014916607;0.00686958;0.010373054;-0.04163819;-0.046872433;-0.061982345;0.15631479;0.010705606;-0.025413992;-0.105048396;0.046768438;0.089616194;-0.091060825;0.047564607;-0.12795906;0.05715693;-0.03602162;-0.05430034;0.027976645;0.008727242;0.122747965;-0.06327453;-0.01427123;-0.004402949;-0.055450425;0.046991527;-0.0534543;0.065012716;-0.05476841;0.048289668;-0.107410766;-0.088693105;-0.04507284;-0.009731296;0.090909906;-0.13641806;-0.07874544;0.08994858;-0.021576481;-0.13126156;0.05621482;0.09049935;-0.09564926;-0.10443942;-0.02577029;-0.04957371;0.04712255;-0.030800767;-0.03818184;0.016103951;-0.022664394;0.007882673;-0.07496994;0.034148738;-0.059017003;-0.08789305;-0.049155567;-0.036642384;-0.07290762;-0.032728758;-0.13218583;-0.116378814;-0.02983599;-0.20314218;-0.03275298;-0.011073061;0.0094570145;0.12972653;-0.1303698;-0.05215836;0.013184414;0.024238937;0.048414927;-0.04325806;-0.22437598;-0.04957049;0.004213863;-0.038764726;0.044276405;0.07216564;0.06285755;0.06909476;0.0550765;0.06688432;-0.08307459;0.003312834;-0.05228242;0.13062805;-0.06141755;-0.023991464;0.034309402;-0.068856634;0.021252014;-0.08007554;0.12078935;-0.12588468;0.032170083;0.09052023;0.0979027;-0.09166546;-0.0827244;0.10630845;-0.14972901;-0.044573434;0.021183036;0.025662493;-0.1012313;-0.038731873;-0.04615276;-0.03289988;-0.09065277;0.037697572;-0.074562766;-0.11333552;-0.08889765;-0.09231917;-0.07160118;0.017337704;-0.12622929;0.07145097;-0.055140518;-0.073567115;-0.1492034;0.031664044;-0.106109716;-0.03656155;0.049464732;0.022350725;-0.02152941;-0.14728713;-0.04088;0.005537964;-0.00077255757;-0.10191008;-0.04683615;-0.08592441;0.0042046756;0.17491706;-0.111847736;-0.09876919;-0.009494125;-0.07684688;0.010566003;-0.024911655;-0.039848194;0.010941841;0.026230244;-0.0712994;0.032745007;-0.03532847;0.037536968;-0.2076917;-0.0065940903;-0.015170748;-0.052544747;-0.10541618;0.025232207;-0.089465015;0.03861814;-0.09704704;-0.056137536;-0.015247656;-0.07061345;0.03600249;-0.060760263;0.022901898;0.024305673;-0.0061792843;-0.19519588;0.036230903;0.115469836;-0.031012116;-0.024812225;0.06157061;0.02877349;-0.074584655;-0.05199704;-0.06770891;-0.066626504;-0.09826483;-0.17700881;-0.013886295;-0.03873052;-0.007684842;0.058338445;-0.061226673;-0.04969408;-0.06201293;0.04286056;0.05005846;0.045350365;0.023604078;-0.042315196;0.008940068;0.020796083;-0.04286475;0.031142356;0.0041902694;-0.043972436;-0.0035569095;0.07790369;0.040750075;-0.022218361;-0.111043006;0.036945798;0.008999508;-0.08576229;0.026757475;0.044021394;-0.050553568;-0.025924567;-0.06729193;-0.13548377;-0.025627915;-0.14129733;-0.058348037;-0.039375376;0.0052578226;-0.0033659358;0.08232197;-0.009102919;0.038653925;-0.040595725;0.14736022;-0.043541003;-0.07116486;-0.050997097;-0.032003682;-0.030930825;-0.17017312;-0.08938979;0.019642286;0.052326366;-0.19617686;-0.06847038;-0.06561652;-0.06224539;0.062646404;0.029235573;0.040067535;0.09405554;0.0035943938;0.057161424;0.061142925;0.05662854;0.008371112;-0.12139816;-0.028540641;-0.16696423;0.044544265;-0.07880019;0.017971333;-0.18750103;0.15448762;0.0008857613;-0.10290829;-0.08453834;0.037143867;-0.0061541665;-0.074026145;-0.085965306;-0.12216782;-0.07215267;0.010932679;0.014211261;-0.0030262482;0.008490999;-0.13475573;-0.04144577;0.061237637;0.080775954;-0.14802557;-0.026314698;-0.040675662;0.034034897;-0.08231665;-0.073612705;-0.0029516397;-0.18341975;0.022822272;-0.10205152;-0.054156765;0.055596884;0.1340102;-0.18878631;-0.0663723;0.046416897;-0.014621005;0.00633496;-0.10602072;-0.06683671;-0.11398757;0.029792977;-0.037665717;0.012800979;-0.06518365;0.06211748;-0.08455137;0.05213611;0.06086884;-0.08591301;-0.01689509;-0.07257291;0.0064023845;0.03651031;-0.043603633;-0.053008337;0.10782043;0.11826813;-0.0900721;0.09060605;-0.060706273;-0.034973834;-0.05190439;-0.008209859;0.032469742;-0.07274364;-0.14257663;0.017533777;-0.11144572;-0.08001765;0.020264907;0.07124434;-0.030030703;-0.058531124;-0.045061152;-0.021340858;-0.016370367;0.028361704;-0.0070071653;-0.14428076;0.15152147;-0.01411651;-0.121251106;-0.01307642;-0.19430308;-0.25420374;0.028572047;0.05747103;0.01573181;-0.06393002;-0.19367896;0.012126559;-0.0383378;0.020182926;0.03895742;0.05208744;-0.16562527;-0.00027533932;-0.01016301;-0.14346655;0.13811581;0.06843881;0.05672813;-0.033091325;-0.06017209;0.039034795;-0.07672641;0.07958731;0.06721079;0.0077312384;0.05557036;0.06499607;0.0074569127;-0.05125031;-0.029600967;-0.14715128;-0.055859815;0.06681318;-0.09918065;0.012421957;-0.014548546;0.019702747;0.019283585;-0.05293436;0.16669126;-0.11065758;0.050220124;0.052120123;-0.03373031;0.0055759475;-0.016337354;0.06628992;0.092435576;-0.06625895;0.13132663;-0.016815962;0.07807653;-0.08921647;-0.13450877;-0.034201328;-0.0566342;-0.051116735;-0.047005102;-0.068613574;-0.14522935;0.041772757;-0.055477746;0.032432888;-0.13501602;0.008646573;-0.0985971;-0.09020141;-0.22163945
-0.003908464;-0.081938155;-0.027439486;0.034172766;-0.11723904;-0.1198939;0.011198841;-0.08417603;0.04887972;0.055852633;-0.08697395;0.0025174664;-0.03325482;-0.0012448431;0.055666517;-0.16061418;-0.04655124;-0.12786609;-0.020357637;0.08765386;-0.058127202;-0.06277972;-0.089061595;0.017052846;-0.10528415;-0.0020455888;-0.07750135;-0.11063909;-0.124003455;0.042847868;-0.102624126;-0.1517024;0.070138656;-0.027895818;-0.0030578237;0.013709934;-0.07810228;-0.10672504;-0.016575214;-0.013657908;-0.0850211;0.045352224;0.06422752;-0.068408936;-0.045064673;-0.013972601;-0.017442966;-0.07874857;0.08171529;-0.12517112;-0.10305571;0.01963352;-0.08086197;-0.041350756;-0.0090944;0.034040317;-0.0700608;0.030868756;-0.0044842227;0.034844972;-0.08700536;-0.09781652;-0.040266637;-0.12346459;-0.031790283;0.052550957;-0.019601528;0.11374458;0.060514607;-0.006209517;-0.068862244;-0.034526616;-0.054003105;-0.119713545;0.00860844;-0.028504424;-0.033972956;-0.02178053;0.034848817;-0.09948165;-0.015429252;0.0237589;0.014484532;0.021823822;-0.07748327;-0.05411757;-0.09258461;0.09706697;-0.086635835;-0.015528019;-0.018756192;-0.022815483;0.064283304;-0.0679414;-0.080947034;-0.03984928;0.02042917;0.0012366746;-0.041128322;-0.11851612;-0.07889046;-0.06296379;-0.05629418;-0.041266877;-0.03063727;-0.028514763;-0.028786115;-0.04915242;-0.09151987;-0.13006517;-0.050744154;-0.13884036;-0.097359285;-0.01414566;-0.052774932;-0.090300106;-0.011852465;0.19222431;-0.118606016;-0.008128593;0.07864816;-0.058083005;-0.05553193;0.08595199;-0.00016199402;-0.059412964;-0.25734988;0.030190092;-0.13400802;-0.117101096;-0.1649085;0.014126706;-0.015957972;-0.032044865;-0.015016786;-0.06696342;-0.085803226;0.10428286;-0.022893807;-0.032580256;-0.042978164;-0.0010007344;0.034879223;-0.10199724;0.09155532;0.04531697;-0.017789373;-0.09476188;0.004860031;0.043923076;0.15976536;0.026543003;-0.12539755;0.05101977;-0.038949687;-0.08396132;-0.066280685;-0.036962792;-0.06768915;-0.0016578806;-0.041634206;-0.17977092;-0.06463852;0.026434835;0.020242294;-0.048517566;-0.0056174654;0.032794394;-0.14221767;-0.08495713;0.010633074;0.03467826;-0.13884552;0.075524546;-0.07447006;-0.07377798;-0.037868686;0.0020791746;0.0003971174;0.014002952;-0.09960611;-0.11664633;-0.07259081;-0.010525593;-0.02594422;0.04934287;0.021282438;0.02570379;0.072733045;-0.14693174;0.047791872;0.04668693;0.07900026;-0.101197325;-0.05557741;-0.06094308;-0.05443318;0.06526196;-0.10318218;0.0038933384;-0.10324452;0.040997114;0.007649487;0.012925205;0.043996733;-0.034040473;0.029333564;-0.011745305;-0.03748102;0.0631572;0.010187977;-0.07951681;0.053812675;-0.08395744;-0.081636116;0.019833706;-0.018710777;0.049776506;0.049757373;-0.033980094;0.014739084;0.047381382;-0.04162659;-0.11144183;-0.06736093;-0.024948034;-0.07525533;-0.08789466;-0.04397739;-0.058720887;-0.0013121591;0.061625347;-0.12653507;-0.13767965;0.0014166984;-0.17609787;-0.049931258;0.0052588447;-0.097334124;-0.008077325;-0.08292416;-0.037821114;0.014489886;-0.028429719;0.069970876;-0.0439009;-0.10086425;0.047510058;-0.00020255579;-0.040338412;-0.06815945;0.038565148;-0.05672772;0.047601458;0.032584395;0.060519233;-0.12618713;-0.049954947;-0.025331147;0.084074385;-0.060942512;-0.07448647;0.01204711;-0.079836465;-0.02289876;-0.1473778;0.044216655;-0.02400275;-0.003314211;-0.0067411494;0.00682898;-0.102578655;-0.020743513;0.13262784;-0.08893583;-0.016418742;-0.004512391;0.053887658;-0.07611711;-0.06747567;0.017269766;0.05245732;-0.07292627;-0.049212873;0.030972;-0.0049852105;-0.07655025;-0.07161466;-0.002570954;-0.07174455;-0.12043761;0.015610393;0.10877717;0.014972081;-0.18304846;-0.102584936;-0.08114578;0.0014122451;-0.09075401;0.031344894;-0.022644598;-0.135727;-0.054648433;-0.08918117;0.019200088;-0.056908447;-0.12316514;-0.11753539;-0.049646772;0.18525186;-0.04627423;-0.10396914;-0.12351982;-0.03434535;0.00986751;-0.06517958;-0.008048943;0.011234533;-0.09927356;-0.038067702;0.036409605;-0.012344349;-0.07628811;-0.147945;0.0053157546;-0.040889084;-0.020504164;-0.10177077;-0.0771633;-0.10057934;-0.005844005;-0.097120196;-0.015338067;0.002986889;-0.03103326;0.054450415;-0.023804376;0.014670572;-0.12336845;-0.12208571;-0.04770858;-0.020996656;0.0177559;-0.09222257;-0.06264872;-0.037866667;-0.019439276;-0.049414385;-0.013867401;-0.08465226;0.04550792;-0.063904665;-0.053293824;0.062045746;-0.06571702;0.06341091;-0.073339604;-0.041545138;-0.07525431;0.030462284;-0.044117503;-0.04147487;0.046021268;-0.079156935;-0.10374939;-0.054850835;-0.048696183;-0.09274288;0.011368868;0.06442041;0.007767682;-0.10547002;0.08248431;-0.026515622;0.026411815;-0.045738686;0.01574999;-0.068174616;-0.0045856624;-0.083280295;0.036451273;0.04252056;0.08156851;-0.031895816;-0.15029538;-0.09142234;-0.010570129;0.04189719;-0.019665109;0.039358363;-0.0016653264;0.12532133;0.032891225;-0.047601428;-0.05401436;-0.023764722;-0.01664256;0.010296544;0.00044402212;-0.062354993;-0.0027676218;-0.043714248;-0.06666322;0.0029544719;-0.0680716;-0.16739948;-0.097080894;-0.01933707;-0.018897295;-0.066057235;0.08356109;-0.015054121;0.030892026;0.060171556;0.0061588697;0.058743417;0.03493488;0.0077009723;-0.092869125;-0.037663475;-0.11244996;-0.012233901;-0.10176237;-0.062679194;-0.10239601;0.07463876;-0.066180445;0.020406062;-0.12442607;0.011458054;-0.030588815;0.037450034;-0.07024066;0.00024507064;-0.017011505;-0.12255229;-0.027157504;0.046429586;-0.015004025;-0.042863153;0.057726532;0.039440416;-0.007874211;-0.03121184;-0.008137981;-0.039829537;0.11061654;0.03703522;-0.012046003;-0.12608942;-0.21267566;-0.06982284;-0.15025812;-0.14918818;0.05514452;0.10669408;-0.044496674;-0.07027121;-0.011948312;-0.04605261;0.014057061;-0.13860445;0.017653057;-0.1036694;-0.032170754;0.06557904;-0.095088765;-0.08032933;0.13550393;-0.059787314;0.035716556;-0.05925622;-0.030076917;0.08015235;-0.0074348347;0.030946953;0.006679306;-0.026499072;-0.03707987;0.013534679;0.037058983;-0.060853146;-0.01573643;0.038115647;0.02234669;0.036856335;-0.09417387;0.04606123;-0.09896603;-0.110400565;-0.030216742;-0.12314111;-0.088351235;-0.049139228;-0.03212352;-0.061205164;-0.062808774;-0.064449854;-0.032713212;0.0010876548;-0.05155909;-0.03490618;-0.1072114;0.11502437;-0.07342525;-0.1245653;0.0030334601;-0.18548496;-0.11660138;-0.09738014;-0.0041403905;-0.09961801;-0.075758025;-0.14383304;-0.042221755;-0.021915682;0.007282984;-0.04132855;-0.0861399;-0.12318162;-0.06708833;-0.09743192;-0.16401212;0.09293048;-0.09685263;-0.0035217477;0.023184542;-0.051269904;0.14002307;0.052683048;0.075078;0.0054040416;0.069794826;0.0011399791;0.06815019;-0.0701103;0.043617487;0.005576514;-0.010310801;-0.12824355;0.00077227043;-0.06074245;-0.023732094;0.036628865;-0.06939492;0.0408272;-0.14834878;0.10986647;-0.094840504;-0.06997185;0.071306214;-0.012966662;-0.006095908;-0.08227828;0.059802543;0.036639016;0.09121767;0.037956797;0.038883854;0.17247622;0.0031242468;-0.114580855;-0.09116631;0.027338801;0.0035453818;-0.093194075;-0.04349152;-0.11633606;-0.043332234;-0.04702348;0.0011755825;-0.04592505;0.09558187;-0.07640983;-0.01794063;-0.20095146
-0.0026038196;-0.03779027;-0.08051532;0.008064715;-0.17440955;-0.115185186;0.07186894;-0.035303403;0.101012625;0.076687805;-0.08567008;-0.0636184;-0.003982554;-0.06481938;0.0180651;-0.10218622;-0.112562165;-0.095186375;-0.07248705;0.039329443;-0.01261696;-0.06384291;-0.06967039;-0.10025456;-0.08728881;-0.08290108;-0.07147414;-0.09932947;-0.10230097;0.0049541136;-0.040074002;-0.024381414;-0.017132832;-0.07397022;-0.04756496;0.02175481;-0.038855538;-0.03583338;0.022961028;-0.029871343;0.008873595;-0.035731796;0.065811;-0.023078024;-0.036255933;0.033405367;-0.019777471;-0.0019686033;0.13542382;-0.14127564;-0.07367369;0.0048317974;-0.027592072;-0.08923039;-0.08505517;-0.014804514;-0.05738343;0.03688556;0.025205735;-0.09699019;-0.042995762;-0.06782975;-0.09548085;-0.16797076;-0.07945501;0.018998984;0.047910817;0.051880334;0.039620806;-0.0208904;-0.04469793;0.017107364;-0.013955996;-0.050195836;0.028603058;-0.011736039;0.056218795;-0.08852915;-0.029371666;-0.09147349;-0.041210942;-0.08023629;0.030925427;-0.037429582;0.02988418;-0.077093646;-0.032064244;0.122443646;-0.078152224;-0.013246168;-0.004628897;-0.03536717;-0.008463653;-0.06941436;-0.08248002;-0.0044863834;0.022282118;0.057068467;0.016330179;0.035494693;-0.08489202;-0.04679085;0.04570498;-0.15189442;-0.016995179;0.048867308;-0.09397826;-0.034989968;-0.037517477;-0.17522605;0.026006032;-0.043263275;-0.07476532;0.031341795;-0.09682969;-0.059649546;0.010438341;0.15118042;-0.075773835;-0.07993624;-0.0562602;-0.029462565;-0.066753455;0.017845232;0.019576913;0.034958802;-0.16214824;-0.016824322;-0.057538267;-0.0060714893;-0.18137106;0.0414213;-0.08214502;-0.09907409;-0.08093899;0.023599321;-0.06684718;-0.010599574;-0.12564224;-0.03938248;-0.067202695;-0.0508548;-0.0637929;0.006704488;0.06414903;0.0005230796;-0.16060409;0.014118283;-0.05622006;0.034163028;0.16966963;0.0902997;-0.017512493;-0.065103166;0.010007655;0.062282413;-0.08952306;-0.062635794;0.009730917;0.12233397;-0.05170415;-0.06853329;-0.12682807;-0.08453329;-0.018590001;0.026727874;-0.050574623;0.12025278;-0.056318283;0.033606093;0.056381237;-0.077397734;-0.057321917;-0.08011998;-0.05149044;-0.044497155;-0.07424979;-0.07340536;0.072396584;0.040898144;-0.023236662;-0.07476544;0.010844764;0.032423038;-0.0042409147;-0.01971168;-0.050829772;0.059108634;-0.02811812;-0.12669902;-0.044437904;-0.076145336;-0.051376026;-0.040122263;-0.106922664;-0.028871095;-0.057491187;0.0037386315;-0.12875564;-0.0006027975;-0.054635018;-0.08472158;-0.04492687;-0.06936398;0.026608853;-0.04356707;0.031926747;-0.036168803;0.011607806;0.0054158946;0.052236576;-0.071126625;0.012218234;-0.011380321;-0.050751045;-0.0114200385;0.08143651;-0.022608394;0.056102037;0.024347953;-0.081843205;-0.027510455;0.013400659;0.0012003918;-0.064766735;-0.12170387;-0.039762445;-0.13495812;-0.022315603;0.049811646;-0.06496686;0.0009278629;-0.0476056;-0.1686272;-0.020907797;-0.09038689;0.027146915;-0.108318694;-0.025082612;0.0870652;-0.18498465;-0.09233543;0.05514728;-0.026029123;-0.05146282;-0.1547899;-0.0793046;-0.018973311;-0.054088965;-0.12213237;0.052255284;0.02960966;0.04210638;-0.077905625;-0.0316434;0.014712881;-0.15414351;-0.041538633;-0.024146631;-0.052321713;-0.058801368;-0.051759407;-0.09233885;-0.04421103;0.023251934;-0.05414946;0.03132252;-0.13243507;-0.053503204;-0.069600746;0.007845379;-0.040418547;0.017737301;0.1009127;-0.098655425;-0.008827664;-0.01659479;-0.098631024;-0.039693937;-0.11150304;-0.0708325;0.044924524;-0.06323633;-0.014377788;-0.07536993;-0.041344155;0.039739117;0.008900593;-0.03254671;-0.023206247;0.024946129;-0.014002101;0.09312926;-0.04066304;-0.049900625;-0.05798325;-0.027708001;-0.11236522;-0.023805002;0.039569244;-0.09026893;-0.121449195;-0.028402915;0.0005116842;0.009299133;-0.0135367485;-0.13946949;0.0040825196;-0.017846515;0.09028385;-0.1114001;-0.104628615;0.0067620547;-0.17057227;0.033745445;0.0014940725;-0.005144747;-0.10204525;-0.02323696;-0.039069522;-0.08014172;-0.05428758;-0.020996792;-0.078070864;-0.05408981;0.07749095;-0.018406872;-0.025101585;-0.008854266;-0.098580286;-0.09412995;-0.026756523;-0.04902027;-0.0052529178;0.011968769;-0.090780415;-0.080638;0.013856204;-0.015669152;-0.116738625;-0.12825596;-0.002813213;0.13610916;0.010423149;0.034994207;-0.05943419;-0.1361315;-0.039744984;-0.041885428;-0.06349331;0.05252689;-0.025718533;-0.18168186;-0.07639395;-0.02525519;-0.038400985;-0.05598728;0.0317981;0.016283482;-0.09210484;-0.036769073;-0.030731248;0.13181417;-0.11159981;-0.02141656;0.0142858755;0.007936758;-0.009228721;-0.045883138;-0.089119025;0.062212028;-0.09686235;-0.016731873;-0.039569873;-0.06857116;-0.019591274;-0.030951321;-0.029932432;-0.025861088;-0.025450509;0.013760558;0.06587606;-0.065517195;-0.08210048;-0.04767915;-0.081624664;-0.10854262;-0.03305713;-0.09151749;-0.085156426;-0.10180455;0.02245241;-0.019340998;0.010419557;-0.043601803;0.08449587;0.019004092;-0.031245394;0.016425595;0.0036616793;-0.04213161;-0.07439331;-0.04859092;-0.116272405;0.09700914;-0.037686244;-0.037138037;-0.0409849;-0.013519566;-0.05161706;-0.08405977;0.07183726;0.06749149;-0.044800997;-0.007531096;-0.05990276;0.0022499638;0.057401914;-0.0024729252;0.024084257;0.00024130498;0.115155876;-0.046009246;-0.06408295;-0.10867291;0.0030998338;-0.028932419;-0.07409012;0.009001604;-0.09569107;-0.005112951;-0.03545475;0.017112387;-0.085198335;-0.04105219;0.043374248;0.017080512;-0.060920488;-0.07466942;-0.0013575667;-0.08794506;-0.0028590395;0.005367941;-0.09109736;-0.02606902;0.031419836;-0.019922758;0.03152717;-0.04579304;-0.13830927;-0.12633069;-0.087354906;-0.1660641;-0.11746268;0.043086365;0.07806579;-0.14018114;-0.089173466;-0.06356361;-0.066405505;-0.08852602;-0.0073749637;0.003132618;-0.018093824;-0.09330015;0.066587366;0.027026962;-0.16396384;0.15969175;-0.10005053;0.0030078953;0.06183641;0.019337611;0.06939439;-0.034521945;-0.004853419;-0.08501854;-0.09548686;-0.025745662;0.060993683;0.071132876;-0.104465075;0.08121514;-0.049277492;0.029428706;0.032854028;-0.022771217;0.004357695;-0.027936172;-0.049734555;-0.0115532465;-0.095784314;-0.13326079;-0.05467136;-0.018767282;-0.11667167;-0.044605665;0.04118642;-0.02350819;-0.094978735;0.049118944;0.008369708;-0.055028617;0.12646745;-0.122795075;-0.06991427;-0.07358128;-0.21521029;-0.14264053;-0.1083506;0.07676292;-0.063945;-0.08308473;-0.03865859;-0.061234016;0.038587842;0.016293643;-0.07024755;-0.051606845;-0.105431564;0.0068060393;0.030463427;-0.12870991;0.052258804;0.01943122;0.042028796;-0.02748047;0.019421577;0.013572211;-0.06124232;0.04628341;0.06412335;0.037385922;0.038780168;-0.01072121;-0.071513385;0.028820928;-0.050866406;-0.072926305;-0.13303563;0.047638282;-0.094437964;0.078428715;-0.04145181;-0.016558418;0.115420125;-0.067255214;0.118731074;-0.006798911;-0.005996991;-0.04413956;0.0152916415;-0.03260023;-0.021290043;-0.06531811;-0.11251249;0.031617448;0.120572515;0.015346476;0.062342107;0.054482296;-0.100396976;0.0015312685;-0.06678416;-0.050661016;-0.10993674;-0.064164855;-0.06713597;-0.016328575;-0.018775659;-0.10373217;-0.01949571;0.009037139;-0.06433401;-0.06143008;-0.093597844
-0.044973247;-0.07002014;-0.059363533;0.12539986;-0.04504602;0.0057853414;0.03638512;-0.055562377;0.07070168;0.08692976;-0.07033611;-0.059583727;-0.039010912;-0.043090276;-0.070537396;-0.071753845;-0.051705252;-0.12223219;-0.044738915;-0.017253947;-0.12446219;-0.028719189;-0.033272807;-0.11997135;0.018311504;-0.024212752;-0.09513089;-0.13919349;-0.031698793;-0.0033932014;0.011521064;-0.012264109;-0.07606299;0.0023197243;-0.07644152;0.051471516;-0.043384373;-0.017457372;-0.08566894;-0.08195972;-0.1237217;-0.08801905;0.104427725;-0.068126306;-0.027655307;-0.03912637;-0.004759074;0.047153737;0.15707195;-0.044392034;-0.036894992;0.05235908;-0.07966123;0.04328823;-0.084100686;0.06961338;-0.16320044;-0.0856265;-0.053006664;-0.06304294;0.062088963;-0.06281846;-0.10422477;-0.1298989;0.039388187;-0.030946847;-0.047709703;0.05333321;-0.023989368;0.035803594;-0.081587814;0.0169008;-0.011601329;0.04078722;0.09551964;0.0052866153;0.06224767;-0.026173154;-0.095935956;-0.048901595;-0.00727066;0.0607989;0.101238005;-0.072970495;-0.0959817;-0.038294572;-0.043437596;0.108359724;-0.076688744;-0.032725044;0.014635122;0.027068973;0.003580019;-0.027964044;-0.08450911;-0.05179715;0.03586528;-0.08807258;-0.022137238;0.026658282;-0.059885025;-0.06724048;-0.035527416;-0.124392726;-0.003556989;-0.053416904;-0.027123624;-0.0057485346;-0.08992743;-0.056324214;-0.0925528;-0.08765871;-0.04239521;-0.060990285;-0.10303437;-0.026270073;0.036143556;0.17284751;-0.13662708;0.025893647;-0.022830024;-0.005032952;-0.07295882;0.07822138;-0.11080515;0.05150601;-0.15216403;-0.02774396;-0.056243237;-0.14841938;-0.1851751;-0.0032970025;-0.055302236;-0.11248071;-0.031118363;-0.0702614;-0.007626731;-0.021659719;-0.06217099;-0.048252434;-0.029758442;0.008773856;-0.020400349;-0.0027928427;-0.036841337;-0.02966944;-0.11854788;-0.101091444;0.07136373;0.039069995;0.19072871;-0.056437258;-0.111085355;0.011840363;-0.050875127;-0.042639732;-0.12167237;-0.053461283;-0.015608389;0.074985154;-0.07820731;-0.12784925;-0.03381297;-0.030843943;-0.08907992;-0.05081961;-0.011431561;0.11328804;-0.14993058;-0.079505235;-0.06424837;-0.09176568;-0.17181398;0.07086587;-0.042959657;-0.05424422;-0.08079128;-0.14083089;0.011830829;-0.04165546;-0.034652486;-0.18201162;-0.021366304;0.09410812;-0.09118067;0.0355283;-0.12590724;0.020578993;-0.020641873;-0.05204838;-0.04709071;0.0075361;-0.008931161;-0.11410981;-0.044912748;-0.040067114;-0.021233827;0.058527727;-0.12222522;0.07964485;0.05697178;-0.018738689;-0.03511723;-0.052599758;0.09483725;-0.003967947;0.067009985;-0.044582352;0.042922713;0.0464808;0.025975969;-0.051053822;-0.052841116;0.0537467;-0.023707664;-0.08775309;0.061230175;0.0722666;0.050962873;0.002358514;-0.055667456;-0.0027605412;0.019800914;-0.13251227;0.0423474;0.027036935;-0.13682216;-0.09680136;0.049297445;-0.045664497;-0.0635245;0.016892644;0.009992776;-0.049818665;-0.011928303;-0.14870338;-0.10351323;-0.113920406;-0.09038362;0.092638604;-0.095769934;-0.08152294;0.052269727;-0.11947016;-0.06690745;-0.03757157;-0.08032953;-0.08207617;0.034387883;-0.01505799;0.0014720467;0.021897746;-0.059964374;-0.047598884;-0.014259557;0.016184177;-0.11486894;-0.03060749;0.023725752;0.063989274;0.051155556;-0.05714134;-0.08276308;-0.106720775;0.012683003;-0.15212353;0.035411797;0.02475074;-0.083560176;-0.08354324;0.05339837;-0.09969343;-0.10263107;0.014061556;-0.13728674;-0.13786468;-0.102312885;-0.084291466;-0.09469076;0.013209946;-0.04704653;-0.038917825;-0.1375215;-0.06990601;-0.04724234;-0.014141974;-0.049971312;-0.053829085;0.049234826;0.013266912;-0.10491797;-0.0006267507;0.08849326;-0.114310466;-0.11741224;-0.028160129;-0.023453673;-0.082870826;-0.016273819;-0.084058195;0.021204893;-0.046434864;-0.1714623;0.005535682;-0.099464834;0.010360292;-0.11596493;-0.01633646;0.03773726;0.07232186;-0.027842177;-0.112726055;-0.085799366;-0.14225806;-0.043456588;-0.032375384;0.009538927;-0.058556378;-0.096739955;0.02388102;0.03229529;-0.01838024;-0.055372726;-0.2076157;-0.059245523;-0.03263056;0.0311917;-0.047969013;-0.06295452;-0.029213283;-0.044156373;-0.0760208;0.05656054;0.012790575;-0.05207173;-0.08939505;0.065474;-0.08537873;-0.093728326;-0.10579268;-0.15457089;0.00069831096;0.091711104;-0.120567635;0.012885056;0.04632942;-0.1285441;-0.075913884;-0.0036619056;-0.05282657;-0.029556902;-0.006363998;-0.06916491;0.044417135;-0.07999365;-0.090866074;-0.056593046;-0.07302708;-0.042004574;0.008038635;-0.030052358;0.035447225;0.08391384;0.007393044;0.0024985082;0.05086787;-0.09013651;-0.05628507;-0.0484995;0.00892501;0.050259992;-0.113110095;0.096071236;0.009241882;-0.0626971;-0.08218284;-0.071270965;-0.10536408;-0.015422609;-0.0673548;0.05982183;0.074001744;0.054981004;-0.044117816;-0.02712139;-0.05771168;0.04672558;-0.09315648;0.012036763;-0.040841028;0.032300033;0.09146164;-0.01128664;-0.10285615;0.07926332;0.08964622;-0.05608008;-0.03738093;-0.11589983;-0.033010405;-0.041563988;-0.098772846;-0.12650505;-0.03361742;-0.010575254;-0.16309816;-0.09282131;0.038537145;0.01966611;-0.046251222;0.010482644;0.02132177;-0.003916076;-0.062364794;-0.10418978;0.009804344;-0.016340727;0.12887266;-0.07103992;0.013528349;-0.012598918;0.113047056;-0.02195921;-0.008140816;-0.12415278;0.06471069;-0.009371153;-0.0076868464;-0.13021855;-0.0352552;-0.020898856;0.032738496;-0.04046334;-0.021576246;-0.05614416;0.00048521656;-0.09140386;0.05153681;-0.060956765;-0.047716174;-0.0015004008;0.0329604;0.08124766;-0.09141383;-0.086722896;-0.068803065;0.023081053;-0.03781555;-0.056206543;-0.01873474;-0.21951905;-0.044891357;-0.08525279;-0.012120454;-0.044419434;0.19608779;-0.12136969;-0.1294365;0.019364167;-0.08105277;0.008966977;-0.01890567;-0.089355156;-0.07981386;0.03284191;-0.0015515861;0.03302821;-0.10260189;0.13274722;-0.047994655;-0.0013043877;0.053229697;-0.06139122;0.09432476;0.05299923;0.075298525;-0.079485714;0.012047708;0.00898131;-0.05367946;-0.010449435;-0.06052328;0.013463622;-0.051137708;-0.10684231;-0.029910054;-0.103344105;0.034304824;-0.1095542;-0.04222622;-0.026510801;-0.12837622;-0.05998261;0.050524745;-0.051844228;-0.02928882;0.041216042;-0.07495651;0.087133124;-0.11127928;0.103035085;0.042942937;-0.12920323;0.16092817;-0.063139275;-0.03294912;-0.017155204;-0.21778525;-0.18392822;-0.09768636;0.06254675;-0.052007534;-0.14371255;-0.0887148;0.04755275;-0.10317564;0.0028850741;0.00693593;-0.06352559;-0.11372104;-0.004540858;-0.03997152;-0.051903814;0.030974641;0.043139055;0.040196855;-0.056733444;-0.062721334;0.032026634;-0.0021746163;-0.042912547;0.035033915;-0.017713053;0.016774282;-0.015827617;0.00751632;-0.018804058;-0.04062878;-0.11438222;-0.07670653;0.013246194;-0.0024697706;0.044487156;-0.027779562;-0.061830178;0.09422397;-0.11765802;0.14620787;-0.057567216;-0.016279893;0.008838625;-0.06974854;0.010415136;-0.012179724;0.013920674;-0.014056671;-0.006050142;0.14114086;-0.023206072;0.1503816;0.024799287;-0.055525538;-0.074694864;-0.055219702;-0.029654028;-0.16251181;-0.0017220405;-0.17645326;-0.13660224;-0.027273657;0.017859912;0.0026543646;-0.0010440364;-0.08618313;0.015785117;-0.0808825
-0.03774779;-0.042841487;-0.017580705;0.06883168;-0.07027335;-0.03874561;-0.07690086;0.07044937;-0.055241477;-0.027993917;-0.022719584;0.03589195;-0.07665164;-0.017483242;0.005463457;-0.048485015;-0.02826059;-0.16085275;-0.026261626;0.025340421;-0.015613117;0.049876794;-0.06118394;-0.082765885;-0.022175563;-0.05877201;-0.02759792;-0.06696541;-0.15147011;0.0091494005;0.042122323;-0.03023247;0.04141417;-0.06542594;-0.108362615;-0.062472194;-0.035535313;0.05350002;-0.053538296;-0.10669229;-0.038933095;-0.0827205;0.12785907;-0.081581794;-0.08071447;0.04008222;-0.010081694;-0.044186648;0.018964991;-0.087427616;0.06011388;-0.02110693;-0.02200141;-0.10682202;-0.07593496;-0.008132399;-0.008383387;-0.062558174;0.008425005;0.005873227;-0.0359035;-0.068796575;-0.015495305;-0.15458222;0.0108708665;-0.005962215;-0.10557318;-0.03650975;-0.088954136;0.02560114;-0.058605466;-0.008860584;-0.08080622;0.038728014;0.065889165;-0.007896232;0.057074204;-0.10267783;-0.10573218;0.008743465;-0.09408673;0.03392802;0.08201349;-0.060876895;-0.012035124;-0.033260014;-0.0947712;0.12692243;-0.073372655;-0.05860525;0.014850851;0.011001335;0.004724052;-0.12614618;0.024442045;-0.011786292;0.057562906;-0.048616115;0.09289691;0.035813954;-0.05923133;0.05692593;0.05868915;-0.09175967;-0.026252953;0.011576443;0.054156918;0.033589177;-0.1212575;-0.020049479;0.045263797;-0.060246196;-0.07488426;0.056892235;-0.054267567;-0.07341498;0.0038538717;0.1367025;-0.05193215;-0.04085557;-0.058647886;0.039602183;-0.13526645;-0.10778545;0.033915285;-0.05115972;-0.27767068;-0.07353095;-0.1250098;-0.1218425;-0.11315683;0.078378744;-0.049735557;-0.06905464;-0.013157578;0.014101377;-0.08567327;-0.07489014;-0.10883386;-0.06829592;-0.023671027;-0.08596136;0.010840297;0.039790154;-0.06374686;-0.09754747;-0.2085274;0.009147051;-0.077759184;-0.0354529;0.13527896;-0.094463505;-0.02351421;0.078959264;-0.023288876;-0.05110028;-0.12610486;-0.0025204122;0.019980924;-0.047848787;-0.012083684;-0.04272825;0.010344962;0.0449495;-0.026747227;-0.06519027;0.0014446463;0.056670908;-0.15808408;-0.04174959;0.07130235;-0.104352355;-0.045474153;-0.081545986;0.02309903;0.01623677;-0.1347047;0.015892386;0.023565935;0.030445447;-0.09845375;-0.16463755;-0.09582208;0.005561434;-0.08560216;-0.049067404;-0.016128222;-0.015557311;0.014000164;-0.04464027;-0.007811186;0.06374563;-0.09549826;0.0073539717;-0.061280377;0.00706157;-0.10200378;-0.068608366;-0.0781123;0.10146323;-0.08320925;-0.0061975;-0.001969151;0.05368509;0.023521286;-0.02627535;-0.0010172172;-0.07449842;-0.0100576775;0.091967195;-0.03887347;-0.01647527;0.04310821;0.021947509;-0.016496804;0.002296617;0.11811434;0.12751961;0.012940716;0.00033654727;0.007885611;-0.024024028;-0.029262796;-0.07312939;0.034390654;-0.11304043;-0.09915879;-0.1768476;-0.038932916;-0.059506115;0.031489577;-0.03701899;-0.0553238;-0.17651351;-0.02349565;-0.16052136;0.0058276267;-0.123703964;-0.036806177;0.029834667;-0.17152737;0.044503476;0.008981926;-0.12032811;-0.07877778;-0.14100707;-0.18790963;-0.0918619;0.02427099;0.011120547;0.057882044;0.10847477;-0.026674287;-0.10645533;0.053294335;-0.0006956622;-0.044238776;-0.074793644;-0.026720475;0.017856061;0.0022010568;-0.0011097081;-0.053308338;-0.06138361;-0.050379876;-0.11408901;0.030084493;0.029568342;-0.088176586;-0.025119295;0.01731257;0.00060641323;-0.023062197;0.08041271;-0.043150924;-0.052063517;-0.12954828;0.037151255;-0.099500485;0.02962187;-0.014572303;-0.06196362;-0.069812834;0.028950425;0.021217726;-0.083496846;-0.06457137;-0.09627925;-0.08046028;-0.12391559;-0.03005805;-0.025826162;0.04126636;0.046657067;-0.12356126;-0.067877404;-0.0041160765;-0.04220052;0.004762172;0.001480474;-0.10555278;-0.0273989;-0.08843993;0.046954945;-0.032424346;-0.020273928;-0.07644261;-0.07992029;0.053003;0.1950778;-0.1477069;-0.056533348;0.0044000703;-0.108576655;-0.0021105846;-0.039058622;-0.06968173;0.014380383;-0.07871927;-0.052297857;0.041863084;-0.016435616;0.033405986;-0.1274561;-0.091869004;-0.04249756;-0.043106474;0.00816183;0.036241937;-0.11259498;0.043393623;-0.1382235;-0.014370962;-0.040610045;-0.0007426921;-0.10532742;-0.04592868;-0.06316059;-0.14109766;-0.07640057;-0.08679158;0.048160553;0.004149254;-0.0053874357;-0.063031696;-0.042691782;-0.17385088;0.017435847;0.02620841;0.022721589;-0.09661868;-0.0013775656;-0.037956506;0.048913684;-0.08010386;0.022651313;-0.022003403;0.044890698;-0.05569914;-0.0014783985;0.06948874;0.00678925;0.14002602;-0.0078004254;0.009291657;0.02830373;-0.027966816;-0.10536007;0.021538451;-0.03593856;0.026556488;-0.067357674;0.073240615;-0.12099793;0.013217833;0.054332122;0.038201217;-0.031885654;0.036171235;-0.053430695;-0.088600695;-0.091005415;-0.014593749;0.032485034;0.008131061;-0.086310156;0.009796819;0.005608461;0.038226664;-0.08282291;0.057520512;-0.042352125;-0.01052185;-0.020120477;-0.07367445;0.08923565;-0.015956733;-0.045472153;-0.0006355589;0.02802598;-0.09695877;-0.12917401;-0.041348454;0.04914091;-0.023143457;-0.041167136;-0.0658386;-0.010621991;-0.105958425;0.038580973;-0.023283262;0.0054381923;0.0307749;-0.08711655;0.021614246;-0.08707566;-0.005294594;0.03481779;-0.10546466;-0.102221884;-0.10361719;0.11517781;-0.1796539;-0.0025467013;-0.12524123;-0.0022326803;-0.08907619;0.012516315;0.059229806;-0.056769665;-0.082467884;-0.07131937;0.0017381466;-0.05929503;-0.08398142;0.0152913295;-0.07638208;0.002083901;-0.019618798;-0.03790866;-0.020343069;-0.006843461;-0.003817778;-0.056830555;-0.14206849;-0.06838157;0.08126166;-0.01091161;0.028968211;-0.17008877;-0.14390887;0.023013193;-0.027001532;0.021920756;0.026506737;0.14718975;-0.08169188;-0.021554006;-0.027869942;0.013716778;0.009239201;0.013321509;-0.01350453;-0.017990729;0.040026385;-0.09232386;0.006088608;-0.004450153;0.057462744;-0.06707078;0.036719374;-0.019229617;-0.057268433;0.0116298795;-0.022273127;0.02593988;0.006580248;-0.055626076;-0.015593292;0.056622535;-0.015712356;0.024589265;0.021925062;-0.09139692;0.023759538;-0.010705134;-0.11156617;0.055570435;-0.08636805;-0.06912581;-0.08182302;-0.05090663;-0.09602298;-0.07027186;-0.07389194;0.058714654;0.0038439422;-0.10136206;-0.0367895;-0.122929946;0.07683715;0.030987654;-0.04376785;0.089242205;-0.05733964;-0.060197297;-0.034258418;-0.20411105;-0.10644772;-0.03161035;-0.0075685387;0.015118351;-0.09712687;-0.037225872;-0.06798194;0.03961105;-0.09334317;-0.09577201;0.048627097;-0.07567702;0.01597563;0.0072835996;-0.14105816;0.12353113;-0.009165953;-0.108524665;0.041518524;0.0117713325;0.039947316;-0.08973852;0.024476983;0.03599481;-0.07513873;-0.02873086;0.00834318;-0.10779789;0.026175866;0.041373186;-0.058217127;-0.013836514;-0.036147688;-0.08213284;0.018619956;-0.048292324;0.028885897;0.07791161;-0.081324905;0.07302085;-0.03363139;-0.06684814;-0.011020663;0.022124292;-0.063344985;-0.05210492;0.0012044654;-0.03288398;-0.040935416;0.043832477;-0.08834607;0.11245796;0.0024858266;0.00038263935;-0.0071849586;-0.01446294;-0.043535;-0.07016751;0.010757376;-0.118025884;-0.079653524;-0.12798283;-0.046519805;-0.11896074;-0.089186944;-0.021101674;-0.0841767;-0.16562669
-0.07924201;-0.13292539;0.029153166;0.15975164;-0.17080706;-0.1066993;-0.025985716;-0.04848946;-0.035302192;0.09070974;-0.04095665;-0.10249302;0.018997293;0.03937882;-0.002525927;-0.07304154;-0.05208493;-0.11111664;-0.014551729;-0.05708049;-0.025992475;0.0027896638;-0.09902547;0.018985223;0.039141174;0.04774845;-0.09331732;-0.1580935;-0.14457794;0.004886272;0.009681504;-0.11171932;0.029232541;-0.088999964;-0.019570608;0.04480342;-0.07290723;-0.012011908;0.032381218;0.0017676312;-0.105862394;-0.09343918;0.053232387;-0.04690791;-0.05575651;0.013348023;0.04562371;-0.100199685;0.00049240596;-0.01165922;-0.007584154;0.048740704;0.018826658;0.030284341;-0.17089169;0.047923554;-0.1075413;-0.11004572;-0.05654902;0.027371228;0.029168114;-0.0035043745;-0.014994898;-0.1127961;-0.081752785;-0.07803351;-0.031555545;0.024518916;0.053092554;-0.015949348;-0.14164829;-0.038953826;0.016745731;0.012296968;0.11760045;0.02290884;0.025474755;0.04473188;-0.14464037;-0.0012535205;-0.07954001;0.01356137;0.07775159;-0.09338806;-0.12582684;-0.045559965;-0.059931096;0.035035305;-0.09071026;-0.027159471;-0.041226372;0.03953646;0.0628937;-0.13396002;0.039088517;-0.06422383;0.018114278;-0.079384916;0.015808553;-0.034705233;-0.08886642;0.06219299;-0.0024430023;-0.123448856;-0.025312124;0.024520388;0.0035347946;0.023005305;0.0005315327;-0.024519851;0.051665768;-0.06426703;-0.074512735;-0.013182533;-0.07106434;-0.07206704;0.020331027;0.16592145;0.0056031896;-0.03861531;0.044407226;-0.003058303;-0.17234361;-0.101183705;-0.043213755;0.008441216;-0.2437233;-0.010435324;-0.004406252;0.006026776;-0.107093565;0.013321513;-0.14106417;0.032705244;-0.10141285;0.017044315;0.029972468;-0.07301143;-0.05562926;-0.055141725;-0.074194156;-0.015665542;-0.120522015;0.0091826655;0.056018785;0.03750672;-0.11152247;-0.112513565;0.07042295;0.012821561;0.07886951;0.032823913;-0.106151864;0.010419799;-0.09518868;0.016894238;-0.025356468;0.03801225;-0.03693141;0.062591605;-0.0026543308;-0.002101984;0.012214166;-0.08185823;-0.04790293;-0.008438263;-0.06822424;0.11032712;-0.080712035;-0.05630119;-0.020381039;-0.027397262;-0.08500602;-0.08562119;-0.0043705213;-0.0013154999;-0.08415496;-0.112405844;0.077874415;-0.02058993;-0.013210513;-0.1646443;0.018866185;0.0614743;-0.039912734;-0.09991417;-0.061558742;0.056450255;0.0060496884;-0.013189377;0.040075444;0.010585689;-0.007204485;-0.07795341;-0.0656125;-0.047546934;0.056538217;-0.057994094;-0.14824285;0.083593905;-0.023152325;0.0456777;-0.087455854;-0.03386802;-0.0047447444;0.01867613;-0.021405589;-0.08311709;-0.112442635;0.06599367;-0.08711351;-0.018234953;-0.04019189;-0.10235181;-0.05792997;0.00082912704;0.055396397;0.09616374;0.017663589;-0.10492429;-0.019251935;0.09793201;0.064570986;-0.13014512;0.0029676263;-0.015419117;0.018874282;-0.04546445;-0.0051413225;-0.020549374;0.037951116;-0.031633195;-0.004835333;-0.0850562;-0.10213335;-0.22398691;-0.019167904;-0.11256119;0.02185358;0.049606502;-0.19385694;-0.086494304;0.042300586;-0.032355655;0.013938878;-0.024965446;-0.17120825;0.020844094;-0.050297923;-0.1518176;0.07056839;0.15520126;-0.030793373;0.018150702;0.04309249;0.10249928;-0.037436545;-0.044622634;0.0353327;-0.013689551;-0.025611462;-0.018936677;0.051551018;-0.13688995;0.013993864;-0.009626999;0.14225614;0.0073903715;-0.04359236;-0.045238767;0.042860568;0.053347312;-0.037398558;0.11476901;-0.05246545;-0.055434544;-0.084688246;0.030219994;0.02857871;0.012082425;0.050145067;0.03925033;0.011790446;0.081085294;-0.0333399;0.007998249;0.012284564;0.006316539;0.04933736;-0.07751035;0.03984991;-0.015393366;0.12234978;-0.0694167;-0.024690913;0.0007836475;-0.08158276;-0.0872494;-0.084910624;-0.017468382;0.017735789;-0.04708055;-0.08587828;-0.09601934;-0.12800895;-0.018975874;-0.06487825;-0.06704716;-0.07390992;0.08144387;-0.051430013;0.007522823;-0.0370184;-0.008280515;0.05965772;-0.06739249;-0.047374543;-0.004587658;-0.09183277;0.03838883;-0.017576378;-0.015356354;-0.04843092;-0.19674727;-0.09220801;0.020096334;-0.010402001;0.04252976;-0.014629357;0.037587117;0.04901541;-0.111370765;-0.10246433;-0.026994957;0.0037376077;-0.106602564;-0.04543274;-0.047277477;-0.14874715;0.01668297;-0.12503216;-0.02601199;0.06094114;-0.10980653;-0.09784611;-0.021884006;0.004908273;-0.038350295;0.033470735;-0.072906956;-0.06772935;-0.054736864;-0.13201742;0.021051655;-0.008351261;0.049533088;-0.024882521;-0.05436296;-0.05716822;0.009376736;0.09117197;-0.06782727;0.19865893;-0.048559282;-0.12031123;0.0063768183;-0.09446633;0.006019719;-0.023540301;-0.09143331;0.098580964;-0.0057887686;-0.00092475465;-0.07666728;-0.054560628;-0.099432744;-0.027426586;-0.1040126;0.013451305;0.03540718;-0.020812359;0.003146783;0.05612673;0.009945733;-0.036117755;-0.106193304;0.07800575;-0.10197523;-0.051048275;-0.059350546;0.06207768;0.1246621;-0.048966214;-0.023007624;0.088100836;-0.013245308;-0.07730067;0.019542692;0.020491786;-0.091538765;-0.08043824;-0.086626455;-0.1463998;0.045807887;0.043841295;-0.1595864;-0.07777066;-0.043587763;-0.056559168;-0.03591941;-0.05671399;-0.028165402;-0.028772105;-0.038533688;-0.04523842;-0.082731284;-0.04142026;-0.03559363;0.010193535;-0.12076009;-0.05071922;0.015640719;-0.18006936;0.0046059005;-0.16167536;-0.011301118;-0.056289636;0.045980763;-0.035509344;-0.0017698626;-0.037742812;-0.0799506;-0.022328438;-0.09427916;0.058879927;-0.055592466;-0.08494078;-0.07691896;-0.0123975845;-0.053210005;-0.057791274;-0.06988922;0.03647043;-0.124133766;0.0021101735;-0.015883459;-0.014743129;-0.073536366;-0.07939162;-0.10646848;-0.17596161;-0.034321688;-0.030166138;-0.0017390453;-0.083095066;0.09825821;-0.16909786;-0.019437244;-0.10257983;-0.0635511;-0.048437517;-0.1010029;-0.102948524;-0.10556688;0.0023748046;0.056745227;-0.06862282;-0.10847784;0.059537623;-0.09410748;0.0058475826;0.044018537;-0.0065286784;0.023638057;0.03869212;0.077533044;-0.06256234;-0.15065089;-0.037145548;-0.07565766;0.09160031;-0.084153235;0.018692404;-0.022820508;0.02853471;0.0005621035;-0.13976763;0.029051982;-0.050250083;-0.037699837;0.024036573;-0.096437514;-0.01588916;-0.0018089628;0.02900041;-0.077998295;0.05454742;-0.014758998;0.093643166;0.044927098;-0.053779766;-0.07694612;0.0010463352;0.0012156278;-0.1005466;0.0126246475;-0.106303036;-0.18304466;-0.22077417;-0.026716704;0.079346366;-0.102647655;-0.14600864;-0.06808791;0.01384299;-0.09898254;0.0045086844;0.008619093;-0.022937112;-0.15520352;-0.049769122;-0.1036287;-0.15253039;0.083300024;-0.0518861;0.05406712;-0.10271333;-0.075586386;0.0983115;0.03696253;-0.09965975;-0.074713044;0.05825164;-0.100420795;-0.058712315;0.034148328;-0.07397793;0.048697285;0.019065505;-0.078773335;0.052803535;-0.1605676;0.019462017;-0.058150206;-0.07355906;0.08370151;-0.09121845;0.07416367;-0.031516816;0.0089815315;0.07035516;-0.104572155;-0.050769966;0.02968418;0.062908106;-0.009390977;0.06949051;0.059278402;-0.09380402;0.08093761;-0.061247166;-0.037436087;-0.03677365;0.018496856;-0.066036895;-0.022889817;-0.11697292;-0.056571446;-0.01783015;-0.09107643;-0.044447668;-0.040845048;0.05091912;-0.036140062;-0.09541663;-0.20491514
-0.07483965;-0.067071095;-0.090554476;0.07583575;-0.027840583;-0.0068458254;0.0075415345;-0.006977253;-0.06733603;0.12924536;-0.05806888;-0.13842478;-0.08473122;-0.02386835;-0.04967558;-0.073492885;0.006906359;-0.21832177;-0.08968869;-0.091474906;-0.0003372671;-0.058191184;-0.027958961;0.07585789;-0.0092720855;-0.037064623;-0.107477546;-0.04196269;-0.09319106;-0.04936157;0.04079048;-0.080206506;0.027830135;-0.08207871;-0.021153735;0.025097966;-0.10232582;-0.07483173;-0.025766589;-0.10601137;-0.03319095;-0.12345776;0.09739523;-0.100324854;-0.03553429;-0.060718574;-0.1267071;-0.058254506;0.066969395;-0.12978354;0.02791323;0.028326279;0.059096962;-0.09468943;-0.19702287;0.06672459;-0.06751527;-0.071297444;-0.022604419;-0.07931766;0.02412065;-0.08365292;-0.046936993;-0.1445591;0.011340849;-0.11978339;-0.078487664;-0.00036797905;-0.05283361;0.054457948;-0.11397498;-0.014966786;-0.009184254;-0.019987708;-0.023861308;0.025071502;-0.09219101;-0.03598296;-0.07348084;-0.089859635;0.0006449027;-0.04631899;-0.0062083113;0.01745931;-0.1758721;-0.12238859;-0.014365153;0.12555234;-0.087474;0.025288673;-0.085131235;-0.06805729;-0.08326938;-0.14378297;0.012716023;-0.098387726;-0.056282327;6.618228e-05;0.042108368;-0.025906444;-0.123513915;-0.012654389;0.002862925;-0.09122266;-0.06515142;-0.08761256;-0.016059909;0.027767906;-0.036710866;-0.0646934;-0.03239302;-0.12087589;-0.03546714;-0.07927521;-0.11623968;-0.108898394;-0.027018694;0.14157113;0.012670664;-0.082492046;0.0051144916;0.06092477;-0.1531709;-0.02191626;-0.07963272;-0.04026271;-0.1421102;-0.033294134;-0.11252808;-0.048377056;-0.0706225;0.047401555;-0.1173691;0.049240984;-0.015093519;-0.0018108168;0.01354253;0.007524811;-0.014769222;0.040863764;-0.08298321;-0.032877572;-0.015767597;-0.092138946;-0.002490892;-0.07497966;-0.20573685;-0.013717322;-0.018948136;-0.11060158;0.08379032;0.0017615817;0.03943038;0.060129613;-0.051141564;-0.014026854;-0.18670471;0.026061328;-0.107715026;0.055886887;-0.082694024;-0.008850633;-0.00856675;0.033538554;0.010787122;-0.017470162;-0.0009821238;-0.0020074283;-0.13027695;-0.008078649;-0.0027387347;-0.05892417;-0.09308269;-0.0066253943;-0.08537629;-0.04635674;-0.092213474;0.011264951;0.09279122;-0.039959054;0.07669602;-0.18134336;0.004329914;0.051930793;-0.08731919;-0.031231893;-0.1110523;-0.0042527933;-0.09188034;0.012585047;-0.124143705;-0.08103383;-0.0704476;-0.083925456;-0.12917598;0.020464867;0.05530216;0.0051037567;-0.12653038;0.066555485;-0.07426106;-0.10544262;-0.0009505943;-0.08457108;-0.03869261;-0.027307915;-0.07037468;-0.10561696;-0.05207902;-0.028381318;0.06137976;-0.03852884;0.050911296;-0.041477334;-0.061092313;0.090733044;0.028275404;0.12198165;0.061193816;-0.03938668;0.032240182;-0.02091165;-0.066639856;-0.076075085;-0.030119862;-0.122992896;-0.0661936;-0.15682445;0.032219395;-0.11721856;-0.07711441;0.05642158;0.025671154;-0.17431363;-0.01302324;-0.06649696;-0.008476907;-0.11103352;-0.016881555;0.045434218;-0.08433808;-0.020226777;-0.006727637;0.03803669;-0.009079161;-0.01808779;-0.081630245;-0.055151362;-0.0899047;-0.1105105;-0.017558709;0.20208243;-0.05156658;0.05026698;-0.07913276;0.05162519;-0.05550211;-0.09903186;-0.075879134;-0.04152862;0.0066812597;-0.14782782;0.03808985;-0.018251462;-0.03481018;-0.09340022;0.090917945;-0.0652626;-0.083269455;0.012293278;-0.07398057;-0.069961175;-0.022576066;-0.019915266;-0.06286538;0.005512635;-0.14274038;-0.07195813;-0.033650976;0.064912744;0.021726461;0.030586693;-0.11339647;-0.027378548;-0.07337173;0.027238254;0.06968061;-0.108518176;-0.08415494;-0.07110222;-0.06780696;-0.06919377;0.08336414;0.03394679;-0.06455983;-0.10534471;-0.033952072;-0.013051728;-0.010816637;-0.03168443;-0.0834077;-0.032416925;0.0063570677;-0.095480755;0.039097466;-0.034295432;-0.032397475;0.041911468;-0.075541355;0.10867413;-0.08710565;-0.12708701;-0.13608828;-0.03319451;0.071850896;0.027259093;0.030941686;-0.0020925286;0.061836384;0.030939858;-0.06441184;-0.042657282;-0.069125906;-0.1394214;-0.07003224;0.03463943;-0.021167774;0.03239242;-0.08734616;0.034611765;-0.0029942824;-0.16489239;-0.13498047;-0.11033655;0.023581488;-0.017002314;-0.09301408;0.049303424;-0.119365945;-0.070470676;-0.052760847;0.012007009;-0.04197126;-0.07948099;-0.069130145;-0.024688207;-0.12550503;-0.030179696;-0.064731486;-0.02208888;-0.033765256;0.028434036;-0.06543633;0.062605575;-0.023008445;-0.015626242;-0.06915631;0.028124362;-0.053028353;0.022840757;0.113171525;-0.035822157;0.107506976;-0.09292767;-0.10145675;0.007797823;-0.081815995;-0.114063546;-0.030484524;0.050369773;0.1247482;-0.11442568;0.014965489;-0.047385618;0.02684869;0.011544317;-0.005547813;-0.09079299;-0.084310226;-0.088490896;-0.09478217;-0.1074015;-0.084720105;0.016716626;-0.04569268;-0.0092731295;0.022646071;-0.09960751;0.05931987;0.009747547;-0.06394359;0.07948286;-0.035293605;-0.085063696;-3.5416386e-05;0.0061751176;-0.07857505;-0.034149982;-0.10791546;0.023012768;-0.07556423;-0.07331083;-0.011423525;0.041671686;0.09571417;-0.13633087;-0.09106172;0.09111564;-0.0761954;-0.010048064;-0.024227208;0.008031695;0.047898885;0.019962903;-0.117328;-0.002588236;-0.031912763;0.10104523;-0.021437418;-0.007351895;-0.03557752;0.08835891;-0.13636675;-0.025657585;-0.011716066;-0.01660648;-0.0054868436;-0.05941478;0.014620296;-0.04882573;-0.08369547;0.04753988;-0.0938867;-0.14921798;-0.022028767;-0.052825503;0.034744225;0.024606202;-0.08902759;-0.063460305;-0.009956957;-0.023647234;-0.062257618;-0.03182145;-0.057230182;-0.0952625;-0.01053626;0.0007134811;-0.015331888;-0.13455977;-0.17131667;-0.041090846;-0.09366346;0.011818706;-0.06704615;0.14770004;-0.17865591;-0.1397444;-0.057275735;-0.13926846;-0.012113842;-0.1396334;0.007803716;-0.1263645;-0.056707114;-0.09373735;-0.06100634;-0.01990769;0.12678863;-0.06361764;0.0400709;-0.022927444;0.033962745;0.05872158;-0.06905567;-0.030518346;-0.026705142;-0.12865128;0.005584186;-0.07292526;0.02999537;-0.10256377;0.047648687;-0.12851897;-0.05140011;-0.04804607;-0.12120953;0.014849136;-0.06859935;0.0012798127;0.031159487;-0.007780986;-0.0096834395;-0.020075878;-0.051467888;-0.07396405;-0.06175698;-0.104580194;0.009131788;-0.10268748;-0.05790626;-0.01120773;-0.033458203;0.073597275;-0.100260995;-0.0634021;-0.1291921;-0.18297918;-0.091583274;0.026508285;0.015255374;-0.030734574;-0.113074176;-0.13742007;-0.08580043;-0.0023878333;-0.02847005;-0.07344423;-0.062688105;-0.1965245;-0.03484439;-0.071033634;-0.15146391;0.03585076;0.023796936;-0.047143742;-0.023668364;0.017115396;-0.022004329;-0.028583732;-0.010636945;-0.08004641;-0.06391657;-0.053683173;-0.031174416;-0.10411955;-0.0020504987;-0.029194295;-0.0138516035;-0.07171251;-0.0355121;-0.15964815;-0.015240112;-0.0911955;-0.07238394;0.12676656;0.021963306;0.016932173;-0.12917763;0.0061397497;0.013322276;-0.10864091;0.027634393;0.022373833;-0.049300507;-0.15762775;-0.02491447;0.15472615;0.030576583;0.12589943;-0.047427412;-0.06147143;-0.103056274;0.02137634;-0.045871302;-0.14474408;-0.024503127;-0.091989495;-0.09447458;-0.07331145;-0.05653575;-0.038587555;-0.08442538;-0.04610197;-0.047526952;-0.16181391
-0.02734418;-0.12889807;-0.02643829;0.15986678;-0.05217299;0.033409543;-0.06007082;-0.06410621;-0.05537073;0.037063;-0.13509034;-0.08838593;-0.03369826;0.027183576;0.057773784;-0.04342154;0.05507283;-0.21637651;0.059887797;-0.09524225;0.041428342;-0.027650444;-0.11979336;0.058334243;-0.12386725;-0.08811646;-0.07683128;-0.06420045;-0.11601363;-0.04180821;-0.03452224;-0.04384392;-0.061652828;0.035871964;-0.01513412;-0.020703964;-0.08329042;0.050362833;-0.11446914;-0.082473464;-0.058112558;-0.11193058;0.0740132;-0.12998655;-0.091716446;-0.108093895;-0.14142878;0.023811467;0.028842537;-0.037447583;0.014678341;0.031078191;-0.03617339;-0.06399262;-0.18075179;0.08057533;-0.005945769;-0.032720476;-0.05789784;-0.06364032;-0.008354205;-0.0842783;-0.078582324;-0.05344697;-0.097429655;0.011888295;-0.09438873;0.065088086;-0.022213083;-0.011244022;-0.06653162;-0.046440613;-0.04098772;-0.06558228;-0.08322522;0.03304293;0.046138376;0.014652409;-0.034492835;-0.0967612;-0.05933914;0.016261512;-0.008736473;-0.092420116;-0.1302812;-0.12547863;-0.06050432;0.17781554;-0.005981997;-0.09282666;0.023897031;-0.0106430175;-0.097925685;-0.17883794;-0.055716008;0.008081993;0.014245788;-0.10915039;-0.0144763775;0.021432359;-0.132122;0.0063277464;0.0010834765;-0.0246346;-0.044167407;-0.013639625;-0.06981394;0.101916134;0.019342337;-0.032955423;-0.06895769;-0.0014373054;-0.102244645;-0.004344177;-0.031714357;-0.11457054;0.006468729;0.16400142;-0.070155375;-0.07205695;-0.035151068;0.013079933;-0.14381374;0.017948734;-0.03205261;0.04025241;-0.18651891;-0.040702693;-0.013947897;-0.13240896;-0.104614906;0.07062666;-0.08051671;-0.09091402;-0.02791849;-0.06753989;-0.07370317;-0.12396617;-0.0062805964;0.011046027;-0.095838994;0.012780195;-0.10042304;-0.024480505;-0.06545508;-0.0570339;-0.22727592;-0.046614237;-0.008365527;-0.09781415;0.03265784;-0.093896195;-0.04690644;-0.01675013;0.038795087;0.010151015;-0.14370793;-0.030174308;-0.01083301;-0.11238883;0.00941387;-0.086522914;-0.035630826;-0.021820385;0.07076119;-0.011006279;0.05398971;-0.05519948;-0.109320164;-0.011985757;0.020455128;-0.012842891;-0.0991122;0.015919266;0.035390865;-0.0573403;-0.029561978;-0.02582702;0.045218837;0.013757806;-0.014568855;-0.20784955;-0.02330745;-0.09573648;-0.0069399285;-0.026087452;-0.025963467;-0.07434175;0.011486619;-0.10547521;0.025842091;-0.052104086;-0.018929234;0.013615525;-0.09865909;-0.06585988;-0.07488145;0.074834734;-0.0040219384;0.066465065;-0.014498494;-0.063201144;-0.0640349;-0.07659361;0.08554252;0.0041210265;0.007870478;-0.045302432;0.016457394;0.059168305;-0.04144234;-0.060478367;0.02893412;-0.003104083;0.022951646;-0.02842555;0.13194332;0.05514299;0.14411558;-0.07386034;0.010552712;0.03751458;0.063141726;0.00470145;-0.0141091;-0.056281004;0.007667869;-0.108713664;-0.034118403;-0.05127062;0.028392822;0.0190851;-0.06504683;-0.20400111;-0.05293362;-0.15467899;-0.03726474;-0.05416761;-0.11017009;0.008260853;-0.17319046;0.040011343;0.0430612;-0.021697253;-0.010331092;-0.016151218;-0.15314355;-0.021156218;-0.059485607;0.009394494;-0.0149573125;0.14245029;-0.018490663;0.030085774;0.03645884;-0.091894545;-0.12311426;-0.06880722;0.013738787;0.08528531;-0.09402245;-0.1016511;-0.11504392;-0.02817441;-0.018916963;-0.07516009;0.05208178;-0.019324068;0.0062213363;-0.08650521;0.018192584;-0.008744216;-0.0069432273;-0.026683608;-0.13740492;-0.053864878;-0.0701318;-0.024682239;-0.060944892;0.0011723168;0.07832283;0.034455106;-0.056257367;0.0176228;-0.006324094;-0.0048532444;-0.07000998;-0.04377557;-0.027511533;-0.083013706;0.057409327;-0.025287354;0.07057304;-0.0040305518;-0.09401127;-0.05418713;0.041421067;-0.09777316;-0.09270312;-0.07702546;-0.032760553;-0.10257795;-0.015138907;0.04312504;-0.0828933;-0.09585298;0.016636679;0.012995473;-0.028388422;0.043957032;-0.12861621;-0.048067268;-0.13231784;-0.06574871;0.09176728;-0.07122043;-0.021838844;-0.12479744;0.026081905;-0.053347103;-0.056779504;-0.11616897;-0.09173383;-0.105375566;0.015081345;-0.007052003;0.0697344;0.04288053;0.019382924;-0.061027896;0.004996729;-0.11001081;-0.13297857;-0.02534169;-0.10088164;-0.005183084;0.016928477;-0.03497851;-0.1014525;-0.11791817;-0.029473025;0.013139094;-0.06979451;-0.057791527;0.04161923;-0.101211786;-0.07562638;-0.021765584;-0.06393126;0.029627716;0.047839552;0.021423068;-0.060033694;0.061352763;-0.12131271;-0.032114964;-0.043185573;-0.032281693;-0.07277582;-0.027467394;0.023122085;0.031630307;0.13620849;0.006002466;-0.019078918;0.028870605;-0.057214532;-0.06892956;-0.03320009;0.0141829625;0.13983068;0.014945286;0.055583395;-0.12122395;0.035865203;0.018053854;-0.047350585;-0.04000501;-0.0031903007;0.030885296;-0.11705332;-0.11006177;-0.099602714;0.051186558;-0.042019963;-0.019204423;0.10678529;-0.018275766;-0.062340457;0.046873037;-0.031578712;-0.032135062;0.036020003;-0.053395394;0.047190722;0.074060954;-0.016785767;-0.05422782;-0.072270915;-0.07800962;-0.07134453;-0.10678637;-0.056737404;-0.080350205;0.11988155;-0.1393945;0.047868542;-0.013929276;-0.016190553;0.012403565;0.026690528;-0.023681298;-0.039500017;-0.058273092;0.0025711833;0.031747404;-0.02589133;-0.023709847;0.018087238;-0.06752471;-0.018268725;-0.047264524;-0.094867125;0.017921813;-0.13407582;0.09389242;-0.0031359266;-0.09749458;-0.10066347;-0.06603381;-0.094920896;0.007544856;-0.025329724;0.010940927;0.04164566;-0.09369246;-0.04459462;0.0065795816;-0.022423405;-0.038651265;-0.050975632;0.004764005;-0.020630285;0.008794632;0.005785366;-0.020903545;0.016183378;-0.029224042;0.021661779;-0.013231025;-0.19483788;-0.0067032436;-0.09788263;-0.04790723;0.011165327;0.03393356;-0.013810531;-0.029958386;0.014932917;-0.09910031;-0.040279858;-0.013222693;-0.032774713;-0.04395584;-0.051767837;-0.0015503424;-0.06055524;-0.14063525;0.124088995;-0.067145556;0.041311804;-0.08658392;0.024940932;-0.037607446;0.03525712;0.058493853;-0.050989494;-0.17491364;-0.04872589;0.042751733;0.031889115;-0.089910775;0.055096738;-0.11053547;-0.052908856;-0.04711244;-0.20822467;-0.1052932;0.021989899;0.0021791668;-0.119951904;-0.11006853;-0.0046994467;-0.10820756;0.04749;-0.062242143;-0.05096581;-0.013902803;0.0708261;-0.10762189;0.034887455;-0.07362871;-0.03077119;0.042493157;-0.058900487;-0.032636594;-0.06176507;-0.061711617;-0.16328916;0.004590951;0.036564566;0.018108463;-0.072228;-0.05101419;-0.022553638;-0.048808966;-0.022860708;-0.07234957;-0.08589122;-0.1740553;-0.09302982;-0.040847305;-0.17972812;0.017903743;-0.01559186;0.02542203;-0.044685803;-0.05561346;0.014756384;0.015104655;0.042731825;-0.092230715;-0.00854519;0.009535955;-0.07113724;-0.11624787;-0.064870946;-0.08008851;0.004535496;-0.010367009;-0.011686347;-0.06378101;-0.012522936;0.025031295;0.026123611;-0.002376244;-0.012304495;0.058180872;-0.124861;-0.054204464;0.065518476;-0.003043919;-0.08372454;0.037513826;-0.036537994;-0.031557765;0.023607507;0.11211367;-0.064060524;0.048989534;-0.10938854;-0.04123633;0.016690087;-0.10469988;-0.016358582;-0.06407593;-0.078532144;-0.113981955;-0.07440476;-0.13243079;-0.03305659;-0.060028095;-0.052674238;-0.01784525;-0.0032953564;-0.17436497
0.016443986;-0.09768869;-0.01613236;0.14330913;0.0034505192;0.0066584134;0.047031775;-0.03910042;-0.019692859;0.093032636;-0.08890673;-0.14769755;-0.11156438;-0.004388947;-0.08380745;-0.060505927;-0.029649122;-0.11777123;0.04280396;-0.109277405;0.040790148;0.038503945;0.029943902;-0.004910707;-0.033806004;-0.027062207;-0.12884006;-0.07817814;-0.033622865;0.017626392;-0.02600846;-0.07494105;0.046468753;0.012294385;0.028182667;-0.045886327;-0.11830484;0.058715466;-0.023987137;0.04989109;-0.04826414;-0.1399311;0.17079766;-0.028972054;-0.03655064;-0.11845892;-0.105448976;-0.02145184;0.018954024;-0.106994145;0.08141999;-0.07967327;0.051699188;-0.066904925;-0.19605622;-0.006485105;-0.096234724;-0.067237794;-0.11249739;0.035672206;-0.048972502;-0.14053412;-0.041925587;-0.10326561;-0.09587747;0.013012408;-0.1315553;0.06902777;0.01586879;0.053774748;-0.072249025;0.027081393;-0.076145865;0.042865857;0.017444005;-0.08305684;-0.047195613;0.00026762666;-0.07660979;-0.13599916;-0.11063168;-0.029418917;0.07195294;0.01144415;-0.033725306;-0.10590938;-0.009118336;0.07680892;-0.05250892;-0.0972934;-0.066936016;-0.015377969;-0.0119897835;-0.024685327;-0.02747405;0.02308291;0.015915556;0.02722018;0.05620021;-0.010610274;-0.025980907;-0.0987983;0.062384054;-0.05363994;-0.0876935;0.0005923503;-0.057679303;-0.029813884;-0.08298032;-0.12482952;0.027955735;-0.076126926;-0.08834493;0.03352771;-0.03683699;0.006606247;0.032849815;0.16881008;-0.043223903;0.019404296;0.016261907;0.029811755;-0.035834707;0.0355183;-0.051672317;-0.088701755;-0.27365515;-0.052744046;-0.01125701;-0.11124936;-0.15800495;0.13726348;-0.015138369;-0.07720123;-0.021913966;-0.057951618;0.006768499;-0.010515011;-0.09524765;-0.010620784;0.00021055905;-0.097830884;-0.06763273;-0.117370345;0.042669624;-0.08917826;-0.18667856;-0.07676313;-0.07691536;-0.07225884;0.13229744;-0.09412334;-0.04933107;0.020491675;0.021938028;-0.031234376;-0.121691026;-0.036317665;-0.06993451;-0.0019262108;-0.0073547876;-0.13789028;-0.09112515;-0.04483348;0.054431807;-0.014114166;0.024228951;-0.01578834;-0.08247906;0.035294577;0.098464996;-0.05818838;-0.11427854;-0.09712783;0.04266051;-0.05642278;-0.017865922;-0.118524335;-0.016168633;-0.0028411448;0.05510823;-0.24556185;0.04723844;-0.0859193;-0.07283495;-0.09532558;-0.124023;-0.10354505;0.0062104026;-0.014967779;-0.057537276;-0.054487027;-0.14835966;-0.07875402;0.009755508;-0.023194479;0.042778026;0.00559284;-0.15600196;0.09298124;-0.012944317;-0.07539397;0.00939351;0.05308599;-0.031845693;-0.023348112;0.051735755;0.05081609;-0.025581928;0.03285217;0.05530773;-0.051536083;0.033163074;0.020447321;-0.117714524;0.0065837684;0.14231761;0.08025582;0.1598965;-0.12204577;-0.028250601;-0.033112135;0.04156482;-0.10565568;-0.0011965438;-0.11866549;-0.09415451;-0.046664428;-0.046560097;-0.057706602;0.004738796;-0.08053812;-0.042862874;-0.2026853;-0.0129987765;-0.17174964;0.0013355247;-0.05434528;0.03511874;-0.0728227;-0.12127335;-0.090669036;-0.112186186;-0.12559678;-0.034931686;-0.13335955;-0.06260847;0.041792233;0.017624564;-0.12563056;0.045023244;0.24115956;0.025894076;-0.012978879;0.019026157;0.039754424;-0.11426576;-0.0019934985;0.021574186;-0.047790185;-0.0018947414;-0.05131372;-0.11810397;-0.13268155;-0.014516322;-0.051863424;0.06609875;0.06070254;-0.0032616125;-0.101725526;-0.084388725;0.04145264;-0.11352589;0.063722245;-0.035218593;-0.06324389;-0.07456003;-0.036907338;-0.056394916;0.061362147;-0.025373396;0.009331415;-0.09372489;-0.062221825;-0.051651925;-0.03362302;-0.02195072;-0.011105012;-0.06332615;-0.038103495;0.054624673;0.054488808;0.034104243;-0.035882834;-0.16374367;-0.028802443;0.044045255;-0.018803068;0.03149214;1.9759604e-05;-0.0048641106;-0.14045438;-0.041917063;-0.09435646;-0.12017819;0.008643454;-0.04453419;-0.051017586;-0.061398983;0.14719364;-0.13813142;-0.10064621;-0.038692888;-0.163235;0.10909063;-0.07423245;-0.0016780039;-0.020128576;-0.024096541;-0.048471227;-0.06225341;-0.13081779;0.042740196;-0.059736617;-0.04254233;0.0059397826;0.11206561;-0.040069025;-0.06354535;-0.058168687;-0.03939451;-0.10283321;-0.1000689;-0.045030463;-0.066771604;-0.09246553;-0.0004802896;0.006031557;-0.100946166;-0.06138189;-0.08356395;0.05061952;0.049591206;-0.09242825;-0.06582291;-0.051864807;-0.1555522;-0.08497529;-0.09796934;-0.01679574;0.05018621;-0.04414214;-0.105987646;-0.051944137;0.029495794;-0.051552586;-0.07352285;-0.06316977;-0.10577393;-0.031085674;0.048182238;-0.000854461;0.19148146;-0.10812515;-0.084773585;-0.023151772;-0.060788706;-0.10010053;-0.14982739;-0.0706171;-0.004049514;0.01961385;0.07468023;-0.027250513;-0.018957749;-0.059850983;-0.08352974;-0.05011017;0.015651422;-0.0008306566;0.018715354;0.000296528;0.03694982;-0.020765835;-0.024397101;0.007563226;-0.02667165;-0.06229864;-0.05593031;-0.078542575;0.018408794;0.023776526;0.06404028;-0.06278773;-0.0267228;-0.048670337;0.017249217;-0.12006601;-0.085173324;-0.046975102;0.04709783;-0.023382358;-0.030148253;0.058576014;0.096979335;-0.10328011;-0.05004262;0.0937975;-0.116721116;-0.019542105;-0.08835396;-0.086679004;-0.007054529;0.00068521744;-0.079496644;0.03698155;-0.03452047;0.07487354;-0.031778738;-0.10391252;-0.0577815;0.00027059484;-0.18750498;-0.07652201;-0.15020682;0.025249485;0.0021565908;0.0056759263;-0.077577434;0.040866483;0.053618256;-0.0061016413;-0.043635797;-0.06237006;0.07307294;-0.011532795;0.0054438715;-0.032830827;-0.09962706;-0.039765228;-0.09523897;-0.0495252;0.033944268;-0.07965359;-0.04036444;-0.114883855;-0.045940753;-0.003023164;-0.025355032;-0.14974633;-0.12547514;-0.11636491;-0.071873516;-0.071028925;0.001847457;0.04956621;-0.09120126;-0.16238289;0.017766219;0.0021616116;-0.03526966;-0.11882484;0.0034176398;-0.0068306774;-0.024660045;0.09121394;0.034862306;-0.15425238;0.07543916;-0.078195445;-0.061913446;-0.05095104;-0.025753679;0.009802366;0.054172084;-0.007932662;-0.10316991;-0.12963107;0.049104366;-0.061396614;0.028931355;0.002406317;0.030450335;-0.06494105;-0.07722285;-0.027461449;-0.16893259;-0.066014096;-0.044132598;-0.13396545;-0.1006008;-0.091858566;-0.05054897;-0.017668039;-0.11018876;0.05256682;-0.014635802;0.038156267;-0.050470177;-0.0056604417;-0.04723606;-0.08226335;-0.0946019;0.056983426;-0.083240226;-0.015150024;0.017720506;-0.087983795;-0.09368059;-0.06899597;0.091639936;0.046971373;-0.059690062;-0.15111983;-0.057436667;-0.051153358;-0.11455176;-0.0031519704;0.05294349;-0.2191306;-0.082828835;-0.059753858;-0.15096219;-0.0030945307;-0.03433534;-0.06352488;0.017513566;-0.117269464;-0.025338551;0.023375304;0.019863792;-0.026451504;-0.07328168;-0.07724569;-0.07822946;-0.054273114;-0.06931854;-0.0064006723;-0.0394143;-0.1331346;-0.055505328;-0.08623175;-0.040029496;-0.02517361;-0.025901102;0.10404167;-0.028109493;0.0885213;-0.09716691;-0.003498959;0.0545215;0.038627606;-0.020164456;-0.08863564;-0.03219314;-0.046081275;0.042446304;0.14332464;-0.09038139;0.017491823;-0.07569234;-0.109256975;0.002058132;0.032346126;0.028026875;-0.1064149;-0.06974466;-0.08548657;-0.061065253;-0.10037926;-0.011196669;-0.117073976;-0.11482105;0.040961932;-0.099063024;-0.08845204
-0.0016366848;-0.08168453;-0.019228974;0.19000848;-0.0996703;-0.06033766;-0.0886522;-0.087759115;-0.024304956;0.099222735;-0.15508188;-0.019618219;-0.08416117;-0.0099344095;-0.026050316;-0.047630817;-0.048532583;-0.18429995;-0.03405104;0.045208946;-0.008970501;-0.059344955;0.014833038;0.028171472;-0.1319698;-0.043606617;-0.0815454;-0.088210315;-0.049458325;0.003897781;0.027649045;-0.07487831;-0.11428747;-0.03575865;0.026454955;0.055666108;-0.07574578;-0.075942844;-0.035876878;0.04499935;0.009055361;-0.12138338;0.114943735;-0.047130313;-0.09664292;0.0058900258;-0.06399868;-0.070328526;-0.071339;-0.010333149;-0.041827347;0.014884898;-0.023821631;-0.103902385;-0.14571431;-0.08804187;-0.10349187;0.04539511;-0.030266143;-0.023643395;-0.08697639;0.0016194532;-0.11742143;-0.12398728;0.010134399;-0.13064373;-0.11636032;0.011095763;-0.102422364;-0.04933459;-0.12625699;-0.037107795;-0.024281433;0.027434435;-0.032601736;-0.0708506;-0.061710045;0.07462635;-0.117846526;-0.029817274;-0.09219543;-0.0018818093;-0.01658139;-0.098498225;-0.1660283;-0.062290024;-0.06967042;0.02650425;-0.045041908;-0.058056805;-0.07789154;0.03174837;-0.030064862;-0.18527402;-0.04569704;0.013821793;-0.024426736;-0.016604895;0.11492426;-0.11265308;-0.059455138;-0.060453698;0.09661243;0.024359757;-0.06287693;0.050308254;-0.02893192;0.07811079;-0.05003406;-0.023904258;-0.027474524;-0.10501247;-0.036508646;-0.019938668;-0.070612006;-0.06938071;0.031527728;0.111862354;0.06941821;0.019752301;-0.039719995;0.041943517;-0.1677827;-0.0738326;-0.10654017;-0.05420436;-0.27893254;-0.038415458;-0.021228565;-0.063285865;-0.01441347;0.07180592;-0.09830598;-0.0063430285;0.07798514;0.05832084;0.029162854;-0.04019583;-0.024224505;0.03691372;-0.1201823;-0.0009851923;-0.021383202;-0.022679225;0.024548652;-0.04336147;-0.16895775;-0.050862353;-0.0061731115;-0.022460654;0.010777485;-0.08894458;-0.11011439;-0.011143694;-0.12562564;0.011201014;-0.14487249;-0.031032091;0.03180987;0.044681318;-0.055806365;-0.02110597;-0.07511611;-0.03671742;0.034495592;0.019328842;-0.07260725;0.049904067;-0.07433916;-0.0709737;0.022854846;0.0070517533;-0.060517207;-0.027110968;-0.017768752;-0.085967764;-0.054563615;-0.0014075167;0.021334566;0.01639619;0.02300753;-0.19790652;-0.0910582;-0.075599395;-0.019867891;-0.0012228118;-0.044658486;-0.00976578;-0.09210531;-0.08466593;0.03627663;-0.019019026;-0.13243344;-0.10148684;-0.07595638;-0.09290385;-0.013163955;0.033936493;-0.021507818;0.0911543;0.062469155;0.0054347366;-0.020519696;0.017071022;0.05956041;-0.033546053;0.10338195;0.009988856;-0.039597098;-0.02290687;-0.07801856;-0.12473711;0.056786273;-0.11237461;-0.07238067;-0.02918929;0.1084023;0.056392774;0.17513067;-0.06767158;-0.09874473;0.09840743;0.044134695;-0.11968365;-0.08406156;0.013530461;-0.038559336;-0.1709247;-0.08739051;-0.01745952;-0.073303506;0.03945457;-0.047867257;-0.21100572;-0.06893886;-0.14169167;0.033033263;-0.0797153;-0.027453745;-0.063485146;-0.17991433;-0.11287085;-0.068562895;-0.11503861;0.03797806;-0.13084893;-0.18377155;-0.057750605;-0.07609868;-0.07606889;-0.08944593;0.22068854;-0.057318937;-0.004938904;-0.10559084;-0.048872698;-0.049261525;-0.002721022;-0.08836794;-0.040679973;-0.034992058;-0.09179885;-0.10414225;-0.028201928;0.076420926;-0.096717015;0.0411063;0.0012675424;0.057527862;-0.06407948;0.0297713;-0.021259937;-0.09561185;0.003648333;-0.0850731;-0.14024378;-0.05902492;-0.08166762;0.05267878;0.050462406;0.10410357;-0.07838197;-0.010276242;-0.076363996;-0.011790067;0.046679012;4.7028234e-06;-0.09351722;-0.091961265;-0.06929414;-0.051772483;0.021709127;0.01258193;-0.04937265;-0.17718467;-0.078702755;-0.10743272;-0.08311522;-0.027372357;-0.07957979;-0.09715033;-0.07003876;-0.039847627;-0.02951714;0.029747901;-0.02776842;0.010508705;-0.041868966;0.060375225;0.18449499;-0.02999672;-0.11128083;-0.10032822;-0.1632312;0.024498729;0.022315187;-0.10319039;-0.14510104;0.058971092;-0.056911748;-0.059060615;-0.009070908;-0.08203746;-0.20354135;-0.040692274;-0.10740043;0.07840961;0.051305734;-0.019991156;-0.09283108;0.007294305;-0.11243353;-0.041930337;-0.055373296;-0.06928192;-0.05124038;0.027110163;0.045456797;-0.025039824;-0.0251366;-0.10331951;-0.00012137395;-0.007089928;-0.04858785;-0.095201336;-0.083950065;-0.16767137;0.03223343;0.0032511037;-0.020257957;-0.0393095;-0.09552793;-0.028937647;0.052452005;-0.055300638;-0.05768197;0.037601903;-0.035656497;-0.041210238;-0.047127843;0.0048991116;0.00449956;0.1565989;-0.09172555;-0.04623954;0.03392054;-0.047781732;-0.06317622;-0.0042592757;0.0020543023;0.1348924;-0.04498688;0.1369195;-0.061564248;0.060710263;-0.09421448;-0.063752756;-0.064944535;-0.034019813;-0.10150761;-0.011779328;0.014161923;-0.03126073;-0.008750958;-0.118362196;0.0021479472;0.03849671;-0.095982544;0.033594705;0.024265422;-0.020496659;-0.03551616;0.05784106;-0.012367286;-0.032142695;0.089634;0.025332415;-0.07789537;0.05778805;-0.05731249;-0.113097854;-0.025170537;-0.15494792;0.02621118;0.05565699;-0.07318072;0.030804964;0.10737275;-0.10745436;-0.094542466;-0.11112409;-0.07640655;-0.0057732034;-0.0031626818;-0.050021477;0.051062357;-0.07534833;0.0077167777;-0.004449534;-0.013336775;-0.08130428;0.027416656;-0.15608652;0.06403096;-0.13480675;0.11740184;-0.0083959205;-0.08900508;-0.05435255;0.029793967;0.043525346;0.033575717;0.03882452;-0.09531693;0.055770796;0.033745345;0.017830603;-0.051209226;-0.09623587;0.039655697;0.013601809;0.041250642;-0.08957886;-0.050548214;-0.10751832;-0.11980673;-0.016005019;0.07994753;-0.035120998;-0.14156203;-0.21871763;0.0020414544;-0.0960961;-0.08527065;-0.10063425;0.08023946;-0.008681858;-0.05340323;-0.117062226;-0.13559526;0.036081567;-0.11185211;-0.10752679;-0.13691384;-0.08384958;0.04470155;0.08229937;-0.031377047;0.108938344;-0.00790102;0.084862396;-0.02785118;-0.022434251;-0.036665488;-0.07499222;0.10718471;-0.048151035;-0.0995585;-0.08927356;-0.0760702;-0.00082319876;-0.034080453;0.04394366;-0.10084395;-0.0006405666;0.049318835;-0.13243584;0.024217095;-0.042541463;-0.13282265;0.015927259;-0.038069885;-0.09740576;0.038144957;-0.09546435;-0.04578521;0.039179243;0.012285634;0.06310635;-0.12565304;-0.057110418;-0.032711476;-0.018580126;-0.058975633;-0.09325702;0.0880573;-0.026706364;-0.15921605;-0.086881824;0.023938373;0.025199099;-0.04944669;-0.038048655;-0.06656968;-0.05453394;0.030231936;-0.0015871872;-0.062550254;-0.039615843;-0.22334838;-0.0254696;-0.09115771;-0.1308028;0.036174618;0.01584684;-0.021615488;-0.004466681;0.039028157;-0.013929474;-0.10452113;-0.012789403;-0.0027126535;0.04829036;0.03704883;-0.026657075;-0.11754453;-0.11643505;-0.02113744;0.03343996;-0.012064326;0.04628973;-0.015398734;0.00997278;0.034922995;0.009983676;0.1379286;-0.045966636;0.11806363;-0.039326813;-0.08040899;-0.013033376;-0.024728999;-0.007267267;-0.049100123;0.039552;-0.113223836;-0.10476517;0.090266675;-0.089380175;0.06661918;-0.091637395;-0.11540214;0.017731464;-0.025567073;-0.12218047;-0.12389893;-0.117107205;-0.0708868;-0.10154803;-0.07469266;-0.00014824771;-0.044188187;-0.025306866;-0.07151156;-0.028887829;-0.11663749
-0.071180075;-0.10204911;-0.0013548096;0.11558866;-0.12538688;-0.034649655;0.028458402;0.004446298;-0.020425763;0.12592751;-0.014834246;-0.038444314;-0.05278253;-0.056450047;-0.04440765;-0.18583266;-0.023074778;-0.07803551;-0.068506934;0.03780271;-0.04842939;0.051394522;-0.043515217;0.07125607;0.026619414;-0.03476479;0.024284827;-0.16465853;-0.11540614;-0.03670531;-0.0022844141;-0.030840054;-0.04885086;-0.03377409;-0.03224824;0.02536953;-0.032939903;0.017650869;-0.10575327;-0.023122264;-0.12837921;-0.08742639;0.116316564;-0.1341968;-0.1543301;-0.06514361;-0.053338982;-0.02011293;0.01506712;-0.084658444;0.062466845;-0.06287505;-0.024203738;-0.0047260136;-0.13736905;-0.07285408;-0.012807251;-0.053205263;-0.12631238;-0.043713238;-0.032199744;-0.024081457;0.035947584;-0.0032749106;-0.042824924;-0.054922927;-0.102149844;0.095796406;0.0023001537;0.054454967;-0.0820722;0.024482839;-0.10991631;-0.09116896;-0.0014395032;-0.06857219;-0.045360222;0.060573686;0.0036730615;-0.15366812;-0.109382145;-0.007977894;-0.012578627;0.004908731;-0.008310497;-0.04109815;-0.050261695;0.19682176;-0.049163308;-0.023346327;-0.021725299;0.07449375;0.03905236;-0.13760667;0.022437397;-0.11918108;-0.08226824;-0.05698421;0.110194914;-0.093921304;-0.16492161;0.053989295;0.0007878206;-0.05121809;0.05961404;0.004238045;-0.015420315;-0.03387928;0.027400855;-0.056042146;-0.06485839;-0.05190276;-0.030561665;-0.101034686;-0.081799366;0.04277091;-0.10914007;0.09920353;0.049270116;-0.11833585;-0.02259349;-0.02242294;-0.11838854;-0.054649334;-0.036844116;-0.05221126;-0.21795298;0.017270155;0.0216061;-0.10929462;-0.080254994;0.078347;-0.11923954;-0.079428375;-0.057219718;-0.0284182;-0.10350371;-0.11348492;-0.07161112;-0.07618847;-0.11416461;-0.12644695;-0.038647056;0.032390594;-0.07985302;-0.12312494;-0.11540116;-0.1032713;-0.091541514;-0.005341908;0.1372894;-0.043884475;-0.100455515;-0.014236649;-0.097472355;0.018429251;-0.11077235;-0.05756817;-0.008275513;-0.06372766;0.003734797;-0.010329157;-0.07043669;-0.07200986;0.046493195;-0.028210772;-0.035582036;-0.04863098;-0.18464698;-0.121189885;0.06845539;-0.00039800123;-0.07997316;-0.06898532;0.009288144;0.04251161;-0.10522497;-0.10931702;0.007123872;0.033388443;-0.05016199;-0.2225938;-0.025942272;-0.032980617;-0.030898785;0.027110508;-0.10034545;0.01192277;-0.014498582;0.001725038;-0.03753572;-0.07521818;-0.060013086;-0.056576442;-0.045868475;-0.051293187;-0.008976745;-0.08213674;-0.073245995;0.1951559;-0.09418986;-0.020052548;-0.09932016;0.015238703;0.010555108;-0.028289309;0.0795615;-0.016936857;0.035980184;0.10433433;-0.09717849;0.025884384;0.07838787;-0.12152204;0.03060916;-0.010092106;0.17373918;-0.039088648;0.03027561;0.033249244;0.036898825;-0.04040429;-0.030519607;0.017255787;-0.04359782;-0.07914875;-0.012539652;-0.09255752;0.048326027;-0.04774739;0.024973616;0.05138606;-0.067683764;-0.13344121;-0.055299982;-0.22324145;-0.087585784;-0.022397434;-0.11763151;-0.024818989;-0.067915104;-0.08314652;-0.07377969;-0.030193144;0.058503788;-0.09694858;-0.17580052;0.03333202;-0.1257238;-0.052273057;-0.054910257;0.2764245;-0.051212184;-0.03387883;-0.05815435;0.06751479;-0.120964326;0.038477615;-0.04533366;-0.040803794;0.00949799;-0.14785102;-0.009130813;-0.04368146;-0.0052188085;-0.100616395;0.10665815;0.043720424;-0.098828346;-0.09920803;0.043499414;0.028573131;-0.09976959;0.006873652;-0.16947521;-0.105354555;-0.12880081;0.004561377;-0.038965132;0.05867555;0.027926678;0.06374101;-0.07246229;0.033274047;-0.08722905;0.046007168;0.013990548;-0.00045137136;-0.036751326;-0.1174988;-0.021595165;-0.08620725;0.08083677;-0.040347565;-0.12734415;-0.02093136;-0.047652613;-0.060545694;-0.11655319;-0.003612134;-0.057688527;-0.034153517;-0.13558982;0.022563871;0.013263541;-0.0987965;-0.007380169;-0.01982025;-0.043695986;0.07401238;-0.105367534;-0.08547924;-0.09086889;-0.15489294;0.13076171;-0.07159982;-0.032781795;-0.06101511;-0.078078605;0.0064071547;-0.023468642;-0.032082964;0.016030425;-0.16615333;-0.064595066;0.029387167;0.14142172;0.00026215313;0.051964574;-0.058715213;-0.08835345;-0.094308406;-0.045702677;-0.07607364;-0.06952459;-0.12034156;-0.10156529;0.026174372;-0.099840544;-0.02098705;-0.1510318;-0.014388647;0.051925287;-0.067456365;-0.009573202;-0.042475414;-0.173956;-0.03235946;-0.07481854;-0.0390181;0.04650759;-0.0049577085;-0.15755056;0.051808298;-0.026853962;-0.05078349;-0.07343486;-0.06494366;-0.045164667;0.011065973;0.120088376;0.035224337;0.13621373;-0.09950177;0.0473917;-0.07790913;-0.104521826;-0.033742405;-0.02393381;-0.0030674073;0.07631914;-0.02249688;0.08724745;-0.11086839;0.049599558;0.05266441;-0.015020237;-0.045639224;-0.07953318;-0.022405023;-0.032299586;0.0048270114;-0.059775647;0.046497654;-0.114825726;0.026887113;0.08537527;0.028178489;-0.08534373;0.02694194;0.015859535;-0.013523314;-0.037484076;-0.01908483;-0.1157591;-0.0026916463;-0.08432485;-0.018204907;0.041104626;0.011881473;0.02899164;-0.03076428;-0.071592376;0.0073413844;0.11938167;0.0054715606;-0.040828075;0.103939295;-0.020513276;-0.0145639945;-0.01696548;0.004671722;-0.040564165;-0.034645982;-0.075641625;-0.08650143;-0.0017151479;0.026079934;-0.0146579305;-0.08177155;-0.047714;0.07708204;-0.11437913;0.014181631;-0.1359331;0.019646838;0.056872435;-0.028983422;-0.15540595;0.04317122;-0.09625809;0.07189015;-0.026221238;0.0021059215;0.0240514;0.047801986;-0.091837145;-0.07238088;0.04708687;-0.028881654;0.021114692;-0.061399072;-0.029065788;-0.11773833;-0.06082695;-0.10500438;0.06815618;-0.06316194;-0.070668295;-0.031555813;-0.06958749;-0.029447658;-0.12977201;-0.063183405;-0.009128099;0.003725313;-0.081343316;-0.06059586;-0.059638016;0.01766422;-0.11995103;-0.108162045;-0.047309157;-0.11126727;-0.019843662;-0.0521724;0.004055732;-0.14833438;0.015434725;-0.112615466;0.103536576;-0.05915796;-0.056206595;-0.057853866;0.055596188;0.09806877;-0.033312287;-0.055846043;-0.0012202313;-0.0027856438;0.027337536;-0.11760077;-0.036488626;-0.08764007;-0.0490032;-0.025138617;-0.15551388;-0.097546116;-0.1189236;-0.10566392;0.04132959;-0.1084949;-0.07392369;-0.046687502;-0.037318286;-0.06984423;-0.024869094;-0.011365186;0.088275224;-0.026619077;-0.09216501;0.031026345;0.06699628;0.05164897;0.008667683;0.092449866;-0.14177844;-0.16749974;-0.22648752;-0.060287606;-0.03245927;0.008846802;-0.06393967;-0.08232301;-0.10395414;-0.009498429;0.0048663006;0.044744752;-0.10976551;-0.17658314;-0.017786248;0.029441928;-0.067519926;0.04660663;0.014204359;-0.053887036;0.028278498;0.03705312;0.08526652;-0.011895535;0.037875038;0.03822714;-0.05092299;-0.062072285;0.018969035;-0.022082567;-0.023223553;-0.0038815476;-0.03189984;-0.0026677847;-0.09089345;0.005266109;-0.005325531;-0.07202323;0.024621096;0.006643717;-0.097257085;-0.045169972;-0.1969474;-0.019125706;0.0069860746;-0.02353622;-0.017686049;-0.04702582;-0.003650104;-0.025751553;-0.06255638;0.09349126;-0.015666228;0.12552452;-0.09582167;-0.018291729;-0.055770643;-0.037984636;-0.023523364;-0.023446746;-0.057374943;-0.099428765;-0.10272485;-0.14852165;0.047081526;0.047795583;-0.1392901;-0.0077352794;-0.12444803;-0.21961029
-0.07776495;-0.05617587;-0.050683774;0.0689887;-0.014333422;-0.018365014;-0.10257968;-0.009626205;-0.022875177;0.127844;-0.104134336;-0.028909253;-0.020389853;-0.015075855;-0.0076395385;-0.1203395;-0.02964193;-0.16613927;-0.006719668;0.018420558;-0.0045121587;0.03535716;-0.03749082;-0.038988642;-0.10276832;0.046354495;0.028090298;-0.029906914;-0.13114657;-0.022224292;-0.06844448;-0.057083394;0.035326548;-0.007411016;0.04300454;0.04383756;-0.17640872;-0.038984966;-0.0584091;0.040258016;-0.053242367;0.03984274;0.09471423;-0.03863965;-0.08865997;-0.0848015;-0.0049681137;-0.096974954;-0.07527691;-0.08154946;-0.032634962;0.00058099494;0.00083011325;-0.102739476;-0.071393974;0.02703758;-0.07772845;-0.04857558;0.013337759;-0.016356885;0.051831696;-0.13533498;0.0031099531;-0.04231881;0.020111322;0.029857006;-0.054496486;0.10590112;0.015538176;-0.07524192;-0.1901528;-0.022466129;-0.0729471;-0.0997831;-0.0603858;-0.0030258945;-0.012086032;0.08116264;0.02609622;-0.11896715;-0.062407102;-0.024903156;0.027098661;-0.05467128;-0.12635791;-0.03663002;0.03450252;0.11189469;-0.10647141;-0.05743934;0.028874774;-0.033660553;0.016140437;-0.1630855;-0.0239715;-0.035115287;-0.016020248;-0.025184033;-0.034634717;-0.10387221;-0.14412965;0.0048851636;-0.040299855;-0.0055174967;-0.06356963;0.0558306;0.0079708835;0.09381231;-0.035687566;-0.080723956;0.04785177;-0.08741178;0.021407112;-0.06554488;-0.036273785;-0.016611205;-0.051194172;0.034381278;-0.0014425776;-0.087356344;-0.03900506;-0.02440592;-0.16607575;0.05164784;-0.07649378;-0.09556388;-0.3118187;-0.108624905;0.01896333;-0.13884546;-0.027576193;0.0031840247;-0.09191276;0.0026670909;-0.03180755;-0.009080834;-0.03328775;-0.12347593;-0.035279103;-0.0045816354;-0.120730825;-0.05262683;-0.018361956;-0.05521944;-0.014255412;-0.05789391;-0.08775392;-0.069286734;-0.10333302;-0.064102806;0.14954717;-0.03143987;-0.038610637;0.01735723;-0.12289257;-0.09363083;-0.04375249;-0.04663892;-0.016110329;-0.011453439;-0.1082102;-0.15280405;-0.085733406;0.063599154;0.04450483;-0.050324988;0.032230012;0.11922902;-0.05019931;0.037743315;0.14560634;-0.09650342;-0.14402753;-0.039919306;-0.041972823;-0.09030342;-0.123066746;-0.0771675;0.046278898;-0.005147222;0.009388453;-0.16063325;-0.041533276;0.011217985;-0.027095413;-0.098668054;-0.1058779;-0.053645886;0.0064122095;-0.0633949;-0.028877193;0.03863579;-0.06930747;-0.025090598;-0.094897754;-0.0608439;0.020401562;-0.06032221;-0.14698845;0.037382677;-0.022167102;0.053680077;-0.16068006;0.05496626;-0.0070850262;-0.072525464;0.018587938;-0.09983829;-0.067474306;0.08184696;-0.0003776579;-0.10039167;-0.039684474;0.028311798;-0.10461408;0.058950372;0.08072627;-0.0018781627;0.028223408;-0.01417967;-0.10887062;0.094324104;0.012481178;-0.06823818;-0.071231484;-0.05104759;-0.076511934;-0.18353322;-0.02706015;-0.014013774;-0.05895075;0.057417836;-0.11783146;-0.15746246;-0.063444905;-0.13415986;-0.0878561;-0.082828864;-0.0013933192;0.016846592;-0.16547768;-0.02188259;-0.012138669;-0.03827213;0.069906294;-0.029822761;-0.19908866;0.048026357;0.00033877735;-0.13245451;-0.03102457;0.24050547;-0.09265145;-0.020264786;-0.00854282;0.03625391;-0.0020465038;-0.0011203543;0.0066411886;0.09166988;0.032706052;-0.06570941;-0.08546085;-0.008748524;-0.034821067;-0.042467166;-0.022237346;-0.012942423;-0.04477098;-0.03408927;0.049617913;0.00026996617;-0.09528518;0.08548717;-0.12419897;-0.099571526;-0.07150858;-0.022948174;0.052332025;0.0495991;0.013712801;0.07231063;-0.09409255;0.058813524;-0.07493258;0.02945597;-0.058021616;0.0122267995;-0.011755644;-0.0024095366;-0.031878926;-0.06500171;0.008818608;-0.11888558;-0.16904068;0.01205892;-0.01991304;0.0069554946;-0.076426774;-0.036251683;0.02249101;-0.15699564;-0.15029873;-0.10171327;-0.09232522;0.026937583;-0.040688243;-0.109164186;-0.070635304;0.119836405;-0.077600874;-0.07151715;0.0009439003;-0.16760267;0.066381864;0.03550486;0.025818883;-0.11355453;0.0142589165;0.009748314;0.046792373;-0.085159466;0.012599001;-0.118946135;-0.052007724;-0.06956572;0.036343426;0.0126308305;0.05005842;-0.024556432;-0.11370113;-0.098770976;-0.13548017;-0.030320216;0.03420915;-0.08289592;0.035750978;0.0469294;-0.12963213;0.0041886414;-0.13792953;-0.040702105;0.02396312;-3.6425918e-05;-0.10112674;-0.042135652;-0.05130841;-0.057797186;-0.00210131;-0.08932242;0.00923782;-0.095741294;-0.091531426;-0.09181813;0.015613732;0.044901974;-0.04281269;-0.10302992;-0.090142205;-0.08518022;0.15879399;-0.027555302;0.08167988;-0.114380926;-0.032178383;-0.108513296;0.034173403;-0.11679418;-0.14699204;-0.08245749;0.101370655;-0.10050135;0.108141884;0.002639268;-0.020451672;-0.08706802;0.058712933;0.013214122;0.020171758;-0.08384595;-0.1037904;-0.05627947;-0.040671322;-0.0029167791;-0.15062302;0.044497382;-0.035927184;-0.06904506;0.046467967;-0.04780271;0.013344335;0.029578434;0.013052732;-0.042912602;-0.09871058;0.041981567;-0.08195435;-0.065479815;-0.11759534;-0.049614295;0.048997104;-0.14670646;-0.15341863;-0.02958775;0.068914324;-0.09142416;0.003832882;0.08558033;-0.068521656;0.043446127;0.036463086;-0.11659892;0.012843098;-0.0781079;-0.08112243;-0.018645842;-0.05937853;0.036662772;-0.08373664;0.016051276;-0.06575162;-0.0039980877;-0.22142106;0.03847699;-0.09093965;0.07375399;0.057815783;-0.0025151095;-0.110293224;-0.003642539;0.05146218;0.03766444;-0.00717785;-0.1179028;0.014760379;0.02431229;0.0062592817;-0.031341217;0.045951635;0.017866181;-0.005396969;-0.04967652;-0.032727204;-0.03780465;-0.06553521;-0.0124497805;0.09707478;-0.04768673;-0.07478319;-0.09782233;-0.13536376;-0.037140053;-0.13009004;-0.04665648;-0.12650912;-0.009343666;-0.05119314;-0.17135191;-0.10574687;-0.030518217;0.007950093;-0.17585774;0.019135693;-0.05232749;0.018518602;0.011386702;0.018737854;-0.060209673;0.04193864;-0.086445384;0.06807133;0.01956581;0.06695339;-0.03215568;-0.062851;0.098190844;-0.07152101;-0.10387598;-0.061924066;-0.06368021;-0.016176041;-0.022644727;0.01090695;-0.14313991;-0.085983604;-0.08773058;-0.14763072;-0.021549249;0.033213254;-0.02937723;-0.030715868;0.012375445;-0.014406393;-0.08634044;0.042329215;-0.09263009;0.04370105;0.028054057;0.043922946;-0.120534174;-0.054953437;-0.121887594;-0.041107234;0.0154653555;-0.015490526;0.06549006;-0.016146166;-0.23051529;-0.11309798;-0.010997178;0.05862728;0.03725765;-0.09400205;-0.15472159;-0.03803211;0.0040640268;-0.06298361;0.052474227;0.00867579;-0.15652165;0.013657001;-0.07513547;-0.12026331;0.06502253;-0.03812887;0.041891556;-0.020896053;-0.0940643;0.13134006;-0.018167451;-0.09387231;-0.011998257;-0.016469892;0.014426595;0.021962741;-0.014768862;0.028777298;-0.0001441854;-0.030796666;-0.07362367;0.03490006;-0.034480363;-0.09370931;0.029639894;0.0164153;0.09473734;-0.09509699;0.016123539;-0.1328027;0.02010557;0.06284124;-0.07958122;-0.069294445;-0.07637205;-0.031799722;-0.087363146;-0.10182478;0.13709468;-0.06777193;0.03547737;-0.065121345;-0.0516241;-0.054816205;-0.024573738;-0.08806413;-0.041034583;-0.08448129;-0.096448;-0.050342657;-0.004311191;0.0014323599;-0.107629314;-0.1254719;-0.027115855;-0.01936972;-0.19495483
0.003955243;-0.061125163;-0.07568478;0.15999343;0.02065857;-0.074314944;-0.10341604;-0.0010150233;-0.0055939336;-0.009597706;-0.040376406;-0.057946224;-0.07741917;0.040442586;-0.0179168;-0.050397787;-0.026620237;-0.12447198;0.04467781;0.016067026;0.0180407;-0.050443653;-0.07069543;0.09000189;-0.014053258;-0.0026901101;0.0159137;-0.14764608;-0.09156617;-0.09608357;0.0011278407;-0.112303205;0.0023788288;0.004461614;-0.04136929;-0.058655947;-0.037331834;0.050680332;-0.13352798;0.02241211;-0.073358215;0.012955251;0.15822801;-0.11121427;-0.032077003;0.031131517;-0.090361334;-0.031155605;-0.057558108;-0.03432263;0.10051336;-0.09439432;0.06997826;-0.0044354494;-0.053350303;0.0129609825;-0.026325103;0.0020129;-0.06913351;-0.029120771;-0.00020385576;-0.09967802;0.036351327;-0.08862505;-0.08002565;-0.08229481;-0.008535447;0.12585023;0.02048301;-0.023039876;-0.19279772;-0.10491384;0.03410822;0.018683523;0.023335863;-0.03588006;0.056671374;-0.00838095;-0.13606353;-0.11522154;-0.03156078;-0.098580375;-0.033853415;0.004886001;-0.12880713;-0.026148006;-0.071348056;0.061782796;-0.11834174;-0.076089434;-0.034765095;-0.0459778;0.028285671;-0.16719468;-0.030930772;-0.0008401216;-0.09808935;-0.10123894;-0.034193818;-0.05053033;-0.18523827;-0.020163774;0.05137234;-0.09757359;0.04363564;-0.07276328;0.055407226;0.018941376;-0.06993195;-0.060704466;-0.064408086;-0.09947725;0.007910739;-0.022120217;-0.06374951;-0.104203425;-0.035131045;0.16326189;0.07193128;-0.08213699;-0.006910535;-0.062395282;-0.092263795;-0.10121797;0.0032251386;-0.08920746;-0.257463;-0.022003332;0.026476353;-0.016979164;-0.16763316;0.13931909;-0.17288095;-0.038566597;0.008555983;-0.03763903;0.02505776;-0.0038891246;-0.013382739;0.037795383;-0.047851928;-0.12917423;-0.034466278;0.017548857;0.087212086;-0.023467872;-0.16900904;0.029740259;-0.0932641;-0.04460202;0.11806558;-0.07556526;-0.12703905;0.04910413;-0.07665012;-0.08201683;-0.0017968026;-0.10189739;0.012187848;-0.052314155;-0.12532142;-0.14708437;0.0035165127;0.048079714;0.09030968;-0.077276625;-0.047581736;-0.02389958;-0.15360469;0.024509443;0.112390265;0.007287278;-0.06756261;-0.054322384;-0.10378243;-0.06115288;-0.17022374;-0.11075458;0.04840389;-0.051868055;-0.05850174;-0.26564315;-0.032500204;-0.14909588;-0.10416041;-9.6405165e-06;-0.061071288;-0.07843425;-0.11216365;-0.10413431;-0.096450366;-0.046793155;-0.01979015;-0.06946949;0.03346148;-0.057716854;-0.030280355;0.051857997;-0.023427993;0.19851784;-0.010924575;-0.014418811;-0.15232225;-0.05529938;0.054733124;0.016420629;-0.009438646;-0.11135835;-0.10783089;-0.016042324;-0.013020109;-0.10993071;0.08428873;0.0066412315;0.0102275945;0.021618752;0.08753438;0.087034516;0.063107334;-0.05669829;0.042882;0.05238862;0.020141914;-0.10979147;0.015458983;0.0026333532;-0.030622153;-0.18446037;0.044902366;-0.071042225;-0.008226259;-0.050182085;-0.006756343;-0.21664248;0.053117633;-0.09846552;-0.081562705;-0.09405894;-0.09726668;0.032783948;-0.02649996;-0.07927834;-0.102312736;-0.088694155;0.031893443;-0.033067387;-0.10631069;-0.01990398;-0.09130771;-0.076864935;-0.078243;0.14323719;-0.08481013;0.010019257;-0.031414054;0.073608056;-0.03156177;-0.08059736;-0.024616715;0.024335342;-0.08087116;-0.050486382;-0.035415348;-0.10133873;0.038990863;-0.1108342;0.12137006;0.0040572444;-0.007113338;-0.05996951;-0.014811517;-0.046055567;-0.09459872;-0.017251628;-0.01766278;-0.0049957023;-0.010216774;-0.012527244;-0.062542595;-0.029613856;0.044820882;-0.07282477;-0.046149313;0.026376221;0.009131678;-0.055552743;-0.053316124;-0.08872044;0.01991979;-0.101849064;-0.029612357;-0.035232432;0.04394151;-0.011424593;-0.13795495;-0.11096119;0.050645977;-0.012379402;-0.016020399;-0.06781944;-0.08565631;-0.03863602;-0.123306796;-0.068615265;-0.014880166;-0.04812871;-0.15313345;-0.08684303;-0.019044032;0.12560807;-0.106039435;-0.061666496;-0.027917704;-0.21111433;-0.00070408196;-0.0124303;-0.100224756;-0.07941572;-0.03610961;0.0020933033;-0.03894425;-0.11107681;-0.019932874;-0.14549077;0.002473767;-0.0726444;0.09554567;0.037178364;0.03333342;0.023456084;-0.11208205;-0.051069897;-0.16396335;0.010785383;-0.05821282;0.015537531;-0.0444901;-0.0048105516;-0.14010103;-0.025180925;-0.07077612;-0.0039442834;-0.055046942;-0.0063316007;-0.01533399;0.022850912;-0.07107439;0.014473598;-0.03639966;0.00020482637;0.012051198;-0.08183338;-0.054979313;-0.01566768;-0.04943563;-0.084395304;-0.030391585;0.020267876;-0.05579751;-0.042815804;0.10212117;0.028278368;0.1210252;0.018784331;-0.039491124;-0.031488866;-0.12146424;-0.028103722;-0.08416577;-0.0935762;0.11496561;-0.059229545;0.10998675;-0.0064240876;-0.025568873;-0.04034026;-0.0852756;-0.07635445;-0.002349166;-0.106029205;-0.105737165;-0.054098975;0.03918993;-0.019253124;0.0063205697;0.007093702;0.011441081;-0.08312062;-0.066833936;-0.070854;0.023953555;0.036753725;-0.043150015;-0.014821522;0.008009527;0.041704424;-0.020644082;0.025565144;-0.076486416;0.01927974;0.029559735;-0.03667115;-0.061075605;-0.031198466;0.14636913;-0.07906608;0.012468695;0.044825707;-0.02035611;-0.09069028;-0.07370242;0.024362074;-0.07200933;-0.11007543;0.043182947;0.03194167;-0.06848042;-0.0006952915;-0.011281241;-0.030428773;-0.09379752;-0.016271157;-0.24292414;0.021918274;-0.15275322;0.011391018;-0.008324006;-0.017955221;-0.018718926;-0.027073244;-0.06772302;-0.07096041;-0.022235408;-0.10574787;0.024993919;0.034723956;-0.015414173;-0.045308866;-0.007222164;0.025697732;-0.012139561;-0.048443355;-0.0049224277;-0.11695639;-0.05139251;0.03212511;0.12945221;0.06674921;-0.033946153;-0.018995339;-0.14600141;-0.08246189;-0.080805235;-0.09348878;-0.13249174;0.0415284;-0.13942827;-0.0214379;-0.0011791639;-0.09633661;0.03675432;-0.106373146;-0.079653464;-0.05711285;-0.03216993;0.0722012;-0.024100384;-0.092822164;0.029927522;0.018631216;-0.0610224;-0.06859233;-0.009379553;-0.05473806;0.047189385;-0.027702611;-0.0992829;-0.14724718;-0.020746024;-0.046299737;-0.00074517686;-0.020279791;-0.038908705;-0.023114266;0.06021969;-0.03157662;-0.13683702;-0.12798032;-0.080369465;-0.03776347;0.031170135;-0.13658;-0.08231832;-0.027524726;0.013671774;-0.097844645;0.0528576;-0.07287255;0.018856023;-0.10269139;-0.05271625;-0.057374686;-0.04238976;-0.057576124;-0.044839583;0.032862023;-0.087265864;-0.15925784;-0.15522958;0.020877613;0.12626404;-0.037123106;-0.082612254;-0.122545764;-0.105723545;-0.045373637;-0.010747196;-0.020196011;-0.067616515;-0.26879072;-0.10358403;-0.008884132;-0.18701464;0.024327772;-0.08770007;-0.08331051;-0.03249219;-0.040368315;0.030236773;0.042164262;-0.0227847;-0.052506033;-0.059898566;-0.06567824;-0.05315171;-0.10089834;0.038071215;-0.055742793;-0.042465996;-0.01482657;0.035688505;-0.09766619;-0.07883052;-0.084634006;-0.005192014;0.09475482;-0.10554587;0.056310102;-0.13703646;-0.08474568;-0.063288376;-0.0076762927;-0.04385842;-0.009574799;-0.08269687;-0.02157841;-0.072029874;0.16057168;-0.0022878803;0.15138635;0.05292672;-0.12365801;0.046145644;-0.04192035;0.029579807;-0.16756375;0.010791969;-0.1218703;-0.07057799;-0.1499026;-0.09092365;-0.097618744;-0.122989796;-0.13019252;-0.053249642;-0.22043277
-0.0144669125;-0.0062460913;0.015934344;-0.19553575;0.08134078;0.03941129;0.09335586;0.010627558;0.07330273;0.0559601;0.11716586;0.018083096;0.102776155;0.08273734;0.03687569;-0.12219064;0.015854636;0.024984201;0.041014597;-0.021900117;0.09455944;0.061986133;0.08316617;0.11155442;0.0780297;-0.0015382232;-0.081221856;0.03259684;0.16205473;0.0857485;-0.037304655;-0.006389715;-0.061925247;0.08933831;0.058773387;-0.00084508426;0.08697413;-0.01992201;0.061331436;0.0035908944;0.11093403;-0.0140423495;0.022558203;0.023174413;0.08690167;-0.0677269;-0.039320298;0.04424952;-0.09972118;0.06582276;0.11019274;-0.014792863;0.04204083;-0.020173104;-0.055223513;0.019219337;-2.030638e-06;-0.045654193;-0.032187928;0.07439724;0.011950405;0.10294708;0.019918358;0.10029271;-0.03248959;-0.100592226;0.0002536157;-0.004224216;0.058425568;-0.048062157;0.1082742;0.016835501;-0.037989866;0.035894882;-0.018039243;-0.038151637;-0.13068932;0.021237133;-0.1000575;-0.1030095;0.07960368;-0.058466833;0.093501896;0.029664425;0.07870293;0.1095576;-0.08395436;0.03509903;-0.023503153;0.09921057;0.073736995;-0.05545666;-0.05311274;0.11208144;-0.03380774;0.038345292;-0.13661057;0.002576691;0.068083346;-0.03254033;-0.0027997612;-0.020928469;-0.07060747;0.006517292;0.06739088;-0.052301873;0.025189662;-0.040256284;-0.0073521356;0.088069916;0.03297034;0.058296643;0.115292065;-0.086683884;0.09908448;0.021990841;-0.08409846;-0.06733717;0.052433323;0.045369104;0.07366097;-0.027168492;0.16303344;0.01493625;0.014812303;0.00016552015;0.20978044;-0.010141399;0.13092004;-0.0036152257;0.1629405;0.14427036;0.083957024;0.0013429308;0.060392786;0.010365544;-0.104412235;-0.05408896;0.00333517;0.021428557;0.04071197;0.0663471;-0.0117221605;-0.06409447;-0.065022506;0.07141918;0.08283867;-0.014933397;-0.120467216;-0.058057796;-0.10158809;-0.04307496;-0.019483753;0.046095468;0.05054814;-0.047664087;-0.09190178;0.09595308;0.05079374;-0.12239989;-0.051715247;-0.1954191;0.061759982;0.009472549;-0.03698036;0.09380879;-0.024844691;-0.08364813;-0.11425455;0.022267343;-0.0642266;0.028734641;0.06776281;-0.03407355;0.031012502;0.02114322;0.0018545613;-0.015809774;-0.19857083;-0.028874565;0.13188621;-0.03825467;0.024543835;0.01940172;-0.05393048;-0.07099596;0.03935794;-0.03122368;0.0028454629;0.027840491;-0.037706114;-0.030579364;-0.05796149;-0.009929512;-0.1428722;-0.13612989;0.09459295;-0.08451365;0.04938241;-0.07157689;0.069007725;0.08441502;0.042440563;0.08532428;-0.1579668;0.08001653;-0.030273438;-0.02367374;0.0508053;-0.024719087;0.041333124;-0.01556772;0.05791789;-0.045617696;0.026937345;-0.075319834;0.042125758;0.14668186;-0.033790328;-0.033691946;0.07542408;-0.0043917145;-0.062993765;-0.033769496;0.025565889;0.05267598;0.06537659;0.090708174;-0.07651091;-0.0036195156;0.049412936;0.022133814;0.045353908;-0.082229376;-0.04998692;0.13721555;-0.021436928;0.022071375;0.111366846;0.03173218;0.138228;0.072449714;-0.07326241;-0.011671662;-0.14800073;0.138782;0.17769706;0.039487265;-0.024586925;-0.027404752;0.07685097;0.05058801;0.06688506;-0.007072575;-0.019628234;-0.03748979;0.12214301;0.003514991;0.029621664;-0.09903821;-0.046808906;0.10497068;0.038788084;-0.11286607;0.08573863;0.06472109;-0.11938495;0.06357268;-0.023859808;0.010310593;-0.09945771;-0.07208753;0.108641654;0.020272044;-0.094708994;0.06882867;-0.015876576;-0.07167156;-0.041747637;-0.008743423;-0.058872867;0.07974046;0.06698525;-0.047689468;0.041707706;0.07125604;0.123497546;0.05250529;0.07319772;-0.02146965;0.091487736;-0.10941814;0.051958807;0.024138264;0.13127701;0.08081541;0.03334266;-0.024100684;-0.046695713;0.08060285;0.088226385;0.124912135;0.03415173;-0.029176606;0.21083614;0.0053716414;0.041654944;-0.049629223;0.0059851524;-0.13177341;0.048703663;0.04183648;0.11348574;0.004329661;-0.061167873;-0.03736609;-0.02041151;-0.010734376;-0.058554877;-0.009809337;-0.030923655;-0.06666026;0.018092498;0.02006208;-0.06265039;-0.078176595;-0.09374195;0.051172093;0.06647787;-0.0023662243;0.089332975;0.118499696;-0.06266305;0.055424724;-0.049575806;0.032723438;0.014709172;0.09357387;-0.065473944;-0.044220276;0.089887194;-0.03845992;-0.015745692;0.038503036;0.10881604;-0.055111695;-0.010637111;0.0803557;-0.081682935;0.01631941;-0.0655958;-0.009532517;0.13830554;0.054332253;-0.05795977;0.06599815;0.0147458995;0.005516661;0.07937402;0.034055527;0.045450706;0.078185506;-0.0072648614;0.03879821;-0.15431245;0.00011847468;0.0800899;-0.03649748;0.18327089;0.085619144;0.0976259;0.0952829;-0.030845637;-0.1989528;-0.020770032;-0.005731144;-0.041963153;0.027693668;0.08387806;-0.17309038;0.031914078;0.058621828;-0.099395275;0.05686482;0.14037089;0.08943718;0.134141;0.06961785;0.0051661213;-0.016435798;0.023707919;0.03098781;0.059400737;-0.0074039134;-0.089803115;0.014315483;0.052012388;0.030088525;0.12400508;-0.07610075;-0.019242924;0.10750453;-0.08445322;0.13473082;0.054893937;0.18080772;0.032795202;-0.015399038;-0.10982872;-0.029181557;0.048914306;0.0076049706;0.0016544972;0.046503138;-0.09584432;-0.047522526;-0.00734421;-0.01462978;0.017557759;-0.010479769;-0.012594029;0.034203906;0.09160914;0.026674666;-0.070725866;-0.0050983746;-0.0580085;-0.01843094;-0.07732309;-0.030051112;0.05124375;0.029226208;0.04217168;0.10307699;-0.0069545642;-0.030840117;0.0068772347;-0.026556902;0.07606019;-0.040408466;-0.07922425;-0.016250258;0.039097745;0.09571971;0.017867444;0.08059823;-0.10805708;-0.15764731;0.0031802475;-0.01630504;0.09847226;0.013817372;0.114452906;0.10693294;-0.051763397;-0.012310109;0.118578516;0.13601972;-0.021857519;-0.041546818;0.08895261;0.09003057;-0.065305986;-0.08026689;0.043650135;-0.087935224;-0.021042604;0.049514085;0.03642142;-0.011913842;0.07893282;0.026024291;0.005322331;0.042041883;0.0066555417;-0.03738271;-0.0072369576;0.054967605;-0.022953494;0.046978045;0.023623845;0.018069884;-0.084818706;-0.062273998;-0.033359904;0.10894508;-0.008193473;-0.038882945;0.0062835766;-0.011474618;-0.013631786;0.07788067;0.0054083015;0.062302884;0.024894314;0.0578412;-0.018362626;0.05537889;-0.07172586;0.08396799;-0.15781145;0.0344181;0.10857794;-0.07321704;0.07286795;0.15053628;0.047441386;0.17064351;0.15597776;0.013482345;0.018415628;0.11744814;0.014215662;0.14707786;-0.06580629;-0.047973286;0.013439161;0.06795937;-0.02851255;-0.02939112;0.018344792;-0.0037593408;0.04268583;0.16676114;-0.060472965;-0.0909927;0.031010592;0.006387659;-0.11441659;0.058151096;0.010794024;0.0763684;-0.06460427;-0.028754063;0.0019113162;-0.033724193;-0.012846925;-0.07977208;0.18418764;0.097146235;-0.11402604;-0.087211326;-0.033673245;-0.07704315;-0.0042588087;0.0980355;-0.021793671;-0.021832589;0.055755403;0.053856734;-0.010064664;0.03685388;0.044660687;0.012753772;-0.020013373;-0.061354633;-0.020321727;-0.08627883;0.07764012;-0.048482653;0.05156836;0.017381903;-0.052966014;0.048520636;-0.05683021;-0.017598005;0.030172393;0.15681283;-0.06074809;0.09996322;0.027503377;0.060735747;-0.080222644;0.12715836;0.059990376;0.10569604
-0.009032587;0.07138184;-0.016811969;-0.088366315;0.097430214;0.017880794;0.063126765;-0.094731085;0.052285217;0.005483046;0.07582222;0.12593545;0.052308224;-0.04479441;-0.014473871;-0.17720026;-0.0794443;0.13599667;0.07734055;0.047670834;0.09589996;0.06108623;0.031056874;0.05317177;0.065251715;-0.0029152865;0.04508104;-0.0132514695;0.2349757;0.056381486;-0.023342904;0.027033297;-0.08078971;0.053977434;0.044785284;-0.007905019;0.06324736;-0.007293309;0.04018439;0.022573866;0.020422764;0.06117562;-0.0005781023;0.05723137;-0.011583281;0.046247873;0.13508762;-0.036752097;-0.027191306;0.056343596;0.054033637;0.045389;0.026089856;-0.04549494;-0.111147836;0.054916546;-0.02337222;-0.048647832;0.0064450456;0.069228716;-0.06787689;0.06833836;0.021411771;0.0150307175;0.0029963625;0.016958106;0.138443;-0.005250251;-0.027406504;0.0933864;0.053919878;-0.008069325;0.023386268;-0.030549908;0.0061760643;-0.010790311;-0.067547314;-0.061029587;-0.00048749577;0.038691327;0.0670419;0.032092877;0.021617195;-0.0009220657;0.08833302;0.073473126;0.007999331;0.053519003;0.060046885;0.08954384;0.048127178;-0.075102836;0.08223115;0.1326751;-0.03310304;0.0805197;-0.00345766;0.06340018;-0.027941443;0.018121148;-0.14427768;-0.03619472;-0.09933658;0.06761896;0.052458193;0.08111887;0.09611711;-0.053547654;-0.023690077;0.11345067;0.08716904;0.1038491;0.089144394;0.061455756;0.06391344;0.103434876;0.028952729;-0.10493591;-0.06579981;-0.01957982;0.0040152227;-0.03134002;-0.027620306;-0.02925852;0.0822003;0.05593475;0.18751603;-0.015677242;-0.0007444298;0.09422813;0.09985817;-0.0052358024;0.087458335;0.002995721;0.02391262;-0.016455846;0.07514526;-0.03903513;0.12324402;0.005612732;0.103804864;-0.03217276;-0.05442191;0.033375822;-0.0067408774;0.010973118;-0.033130888;-0.038124606;-0.04737879;-0.0385576;-0.028801568;0.05507931;0.052664284;0.054299098;0.066063374;0.064722545;-0.013854366;0.022922307;-0.026806721;-0.05273338;0.059383545;-0.09943226;0.0126242135;0.07816462;-0.045391977;0.034157973;-0.10732443;0.10371149;-0.030666195;0.089044005;-0.024884274;-0.0195917;-0.014967829;-0.07325647;-0.009884226;0.06091162;0.0058831894;0.048973575;0.009408215;-0.041879915;0.06700878;-0.055456024;0.077457674;0.028829997;0.0035261146;0.032031834;0.032443464;0.014369306;0.046814736;0.0134811215;-0.015507968;-0.053356178;0.031415783;0.06681073;-0.03156049;0.0074960473;0.049988076;0.04562531;0.10712493;-0.002880735;0.021625703;0.008398163;0.09400844;0.0028134123;-0.011144131;0.021038689;-0.03996508;-0.028027188;0.033643037;-0.020988606;0.03264118;0.07131318;0.17351213;-0.061948024;0.016480446;-0.06501404;-0.047582187;0.05156072;-0.012970822;0.08403484;-0.052598163;0.03786133;-0.0318019;-0.028221585;0.0775926;0.049377777;0.024925087;0.012565201;-0.018119995;0.092006095;0.08208706;-0.034671046;-0.007878184;-0.00019948359;-0.04515051;0.11383917;-0.046321396;0.011475367;-0.02576844;-0.04297401;0.1396559;0.024146196;-0.05896311;0.04593517;0.029132802;0.024506906;0.00085893227;0.0066240015;0.085334584;-0.07822654;-0.035710234;-0.05206285;-0.06937976;-0.052919116;0.101055376;0.081553206;-0.04447548;0.053287767;-0.013056991;0.031348012;-0.0077308444;0.080522604;0.01280071;-0.039974514;0.034493726;0.02164811;-0.111104965;0.06779375;0.10609702;-0.068764284;0.0181315;-0.045665983;0.060829174;0.087465644;-0.20594768;-0.027956007;0.06221904;0.009422625;0.038548794;0.07348897;-0.10640609;0.047982596;-0.11781063;-0.0011166346;0.05127243;0.02717676;0.069539316;0.09140229;-0.04274925;0.055670653;-0.015062875;-0.04884217;-0.04998369;0.06684281;0.026664618;0.040150467;0.10710971;0.09744219;0.058303073;-0.024305144;-0.0024561076;0.054967463;0.036544863;0.037444483;0.054334547;0.11436926;0.09484043;-0.029719433;0.031097965;-0.022296328;0.00571775;0.010036766;0.029711317;-0.038927395;-0.100267984;-0.021001462;0.088641405;0.037371077;-0.029273633;0.08162086;0.05478567;-0.10999989;0.04773226;0.055456735;0.021652441;0.019059602;-0.10599364;0.06301338;0.07362305;0.05952629;-0.017225567;0.10635857;0.0726902;-0.018329304;0.01723902;0.015876783;0.10507616;0.06011444;-0.031495567;-0.008288213;0.13434042;0.08615138;0.03910203;0.08199588;0.07350415;-0.040460363;0.10913402;-0.109383024;-0.07368234;0.038475372;-0.035449333;0.07020413;0.061571565;0.01640359;-0.04283436;-0.052425303;-0.03623161;0.059268888;-0.0229505;0.08782316;-0.13950862;-0.03826144;0.060136758;0.075893745;-0.10993828;0.06927079;-0.041429795;0.029339818;0.049826726;0.053828403;0.08780385;0.08423837;0.047328163;0.05966861;0.050060876;0.09757893;0.00855256;0.015289028;0.031135993;0.016667072;0.046764452;0.06536096;-0.020615712;-0.058016866;0.077385485;0.06946373;-0.10186997;-0.032826312;0.042402424;-0.05694455;-0.005401213;0.11593322;-0.054479748;0.104290575;-0.013102796;-0.0441823;0.08164381;-0.08546145;0.14297998;0.018654188;-0.0036887946;0.1289204;-0.12798189;-0.012109991;0.02673898;0.034542173;-0.05834497;-0.049673613;0.047642644;0.013669104;0.06843939;0.028585833;0.018916525;-0.029258888;-0.06442593;-0.036450647;-0.044659145;0.00045070515;0.065604076;-0.04537251;-0.087182134;-0.12013502;-0.013895268;-0.049076457;-0.23122141;-0.027551081;0.071619585;-0.008468592;-0.114319816;0.02740431;-0.019311074;0.025979333;-0.01032107;0.109836474;0.010517688;0.038059045;0.0071715033;0.00024541424;0.08748882;-0.06226172;0.06204501;0.05519404;0.012648584;0.02260338;0.06475239;0.033602588;-0.0146146435;0.029029628;-0.008688329;-0.006187083;0.1318515;-0.018940024;-0.008227499;0.03319801;-0.071962364;0.057597358;0.12960088;0.09463939;0.07523417;0.07898919;0.062992655;0.0036869496;-0.0128754955;0.08559854;0.09027281;0.09144504;-0.033658933;0.016471302;0.008656835;0.057245895;0.058654886;0.072851084;0.1022424;0.017400706;0.047396917;-0.09673403;-0.032281738;0.10118509;0.044279136;0.08224836;0.14529364;0.0068872455;-0.014713558;0.0001454195;0.09178637;-0.04041107;0.047567457;-0.036591247;0.057735037;-0.03364471;0.10767645;0.106198594;0.08196646;0.00063439476;0.102511115;0.03457096;0.08895785;0.06444069;-0.047454543;-0.044435523;0.017211864;-0.06456473;-0.015182561;0.08215422;0.0067005414;0.032629147;0.034835044;0.050771624;0.15288544;0.034002624;0.026568092;0.012881023;-0.010110046;0.11946349;0.04166489;-0.04506435;0.033005815;0.06384799;-0.012155047;0.0064097643;0.050286163;-0.031667892;0.019640012;0.050385866;0.039388217;-0.016370313;-0.013660944;0.095394515;-0.087605335;-0.034387976;-0.052443672;-0.022021528;-0.10719182;0.008109888;0.060579434;0.014718819;-0.033620894;0.07360089;0.13661404;-0.018185105;-0.06328406;0.084854476;0.016631644;0.086393096;-0.10008854;-0.04380622;-0.09035243;0.021924619;0.10614805;0.0027956625;0.07206742;0.079596415;0.09733389;-0.064620495;0.04163483;-0.038747925;-0.011164645;-0.027759265;-0.021926707;0.0491818;0.11205805;0.090378076;0.06363667;0.031099664;0.0033655502;0.048304573;0.009842906;0.08918828;-0.006261629;0.06851996;0.035581764;-0.026744798;-0.16491821;-0.013788783;-0.017359715;0.11464181
-0.014019783;0.07144803;-0.016931372;-0.07162174;0.006263163;-0.04622588;-0.06398568;0.03254172;-0.03820071;0.08537709;0.07862947;0.0021111092;0.0014455433;-0.0073567587;-0.038442507;-0.1248214;-0.044423513;-0.006480786;0.06624434;0.026799494;0.015370765;-0.057147086;-0.06989832;0.120814934;-0.058376525;-0.009007118;-0.031940117;0.10632377;0.14247012;0.06354595;-0.050629426;-0.009533002;0.047014143;0.041655775;0.00023791139;0.035201207;0.09476653;0.08315225;0.0851672;0.06886336;0.018483814;0.062196136;0.07700786;0.08217155;-0.0048226546;-0.04380553;0.06852632;-0.03990829;0.050586328;-0.046757217;0.07789308;-0.025414033;-0.010709582;0.016459027;0.013050367;-0.01556876;0.08728465;-0.04800616;0.0059070936;0.05013787;0.05280573;0.08108417;0.10557987;0.056210577;-0.031112595;0.04212726;-0.116932996;0.022107158;0.019454354;-0.043618046;0.040806103;0.04487074;0.006711065;0.050705183;-0.02891488;-0.0773382;-0.053369343;0.0102785565;0.013574954;-0.045418624;0.02725974;0.045727495;-0.06766923;0.075762734;-0.075435996;-0.015769321;0.041809637;-0.060862854;0.06498562;0.10276345;0.09178075;-0.10222569;0.113868095;0.12238315;-0.017746653;0.099576965;-0.004606983;-0.008455228;0.1024686;-0.0037623139;0.040944565;0.005693265;-0.12545882;-0.00915978;0.031236714;-0.0379171;0.091183156;-0.0019513343;-0.02748522;0.11407778;0.031379934;0.00788523;0.10519636;-0.058683068;-0.012613258;-0.05344004;0.08582848;-0.068561696;-0.06355899;0.011302174;0.04721299;0.05607946;0.075064585;-0.06430481;-0.0035767502;-1.3757878e-05;0.08621516;-0.0095956335;0.045946386;0.015262099;-0.010113075;0.02609992;-0.0062707616;0.06348005;-0.0683077;0.041067187;0.012758295;-0.022831624;0.03567792;0.081279434;0.07441438;0.039640926;-0.022202777;-0.028315952;0.09481268;0.040292326;-0.042928852;0.037478328;-0.104413405;-0.06408797;0.0100841075;-0.005178937;-0.024674188;0.02487817;-0.043817908;-0.008949674;-0.045263145;-0.019448565;0.027527789;0.011223575;-0.04229035;-0.098347664;0.027612556;0.035800725;-0.012897321;-0.049265444;0.066148564;-0.06268791;0.029579643;-0.034810122;-0.07117923;0.019258546;0.08176062;0.060443956;0.05762517;0.07557394;0.041741963;0.080718294;0.066350475;-0.05700971;0.03578381;0.023199422;-0.0440363;-0.030948693;0.004653609;-0.07348221;0.056571186;0.0133459205;0.00671943;0.105011314;0.053941336;0.08330601;0.04581944;-0.029007578;-0.008158587;-0.1043932;-0.024961475;0.035807155;0.062346477;-0.033714816;0.0019094875;-0.04524455;0.032622363;-0.045309007;-0.058240533;-0.04930936;-0.14038469;0.02402294;-0.041830108;-0.090532444;-0.0026934177;0.104752846;0.091494866;-0.14814156;0.05177201;0.051854204;0.030649224;0.030401353;0.013011368;0.031272653;0.023154575;0.04559426;-0.07639991;0.11031648;0.04708125;0.03821757;0.05281447;0.009847948;0.046609264;-0.018448632;0.003748151;-0.0052106576;0.019234756;0.02108386;0.01123488;0.060644925;0.06152778;0.025243318;0.043953776;-0.067972295;0.14526339;0.11784304;0.0074738134;0.11841073;-0.08814546;0.043871865;0.08304598;0.029835632;-0.056479543;-0.041408416;0.036707222;0.06573928;-0.032519106;-0.014244655;-0.033920318;-0.087519154;0.06703825;-0.015973546;-0.05172705;0.067916624;-0.016908811;0.09739972;-0.0018339938;0.045807034;0.035789225;0.118539795;-0.15890197;0.10507967;-0.06899335;-0.020505112;-0.03972173;0.035863165;0.120413065;-0.003315626;-0.091269985;0.11376531;-0.0037517617;0.0369186;-0.023688054;0.037669998;-0.13327482;-0.008270539;-0.029818166;-0.009340335;-0.007718549;-0.026268618;0.07540037;-0.0068542687;0.06615898;0.07091366;-0.008860126;-0.07771957;0.037973396;0.030074943;0.099615775;-0.05314725;0.02406711;0.07173984;-0.04559278;0.028424216;0.056128424;0.12500246;0.117449254;-0.009868885;0.05617011;0.049187906;0.12890443;-0.0030710099;0.068397835;-0.008446631;-0.036183193;0.10611941;0.07746492;0.014590037;-0.036194656;-0.005574522;0.06342069;-0.0214428;0.011066754;0.102485776;-0.05038347;-0.063989714;-0.013892245;0.0946952;0.06592652;0.06172274;-0.022586085;0.036373172;-0.0132048;0.014598999;-0.014769743;0.074987315;-0.08828272;-0.004842784;0.0598281;0.03621969;-0.056924935;-0.024144292;-0.019972868;-0.05235391;0.058907956;0.011050877;-0.11264148;0.10056849;-0.017931981;-0.059333056;0.043761842;-0.056978125;-0.0017739232;0.032796092;-0.052096028;-0.027560705;-0.0100237345;-0.06935916;-0.048929617;-0.03522833;-0.069462284;0.038864765;0.11372635;-0.026557514;-0.012508723;0.022873161;0.044121016;0.064959556;-0.124019675;0.027171506;0.014407343;0.088296264;0.020358508;0.055847432;0.055529922;0.11225985;-0.062344197;-0.06229976;0.031510826;0.04490203;-0.029681534;-0.12200392;0.009233849;0.024027197;0.03897887;-0.026444513;0.008250899;-0.017202478;0.06668848;-0.025077347;-0.028719816;-0.02058401;0.017826827;-0.038706396;0.10116388;0.08706769;-0.09127568;0.0881676;-0.04080984;0.078765795;0.044193402;-0.028890487;0.13879988;0.005537571;0.031205205;0.10701525;-0.1353274;0.048014067;0.05265924;0.008395337;0.029921561;-0.07107217;-0.0746304;-0.053223923;0.06287716;-0.029389638;-0.07662046;0.060711585;-0.06845711;0.08889733;-0.042669106;-0.07644206;0.020135924;0.010530736;0.034787133;-0.049357355;-0.04485428;-0.0458713;-0.16302422;0.043360494;0.067291066;0.022991989;0.043817572;-0.0036310595;-0.025929354;0.015018699;0.076303415;0.09662241;0.003057726;-0.025683308;0.076825835;-5.2959378e-05;-0.036600616;0.0064697717;-0.07816773;-0.035554785;-0.07222832;-0.021188825;0.057515655;0.071696274;0.13848318;0.027610753;-0.0011478214;0.0633999;0.037608735;0.0057536024;0.117248;0.01372338;-0.144582;-0.0986198;0.059613798;0.093799554;-0.075637236;0.054387487;0.045613628;0.10217582;0.034952506;-0.0538287;-0.013581239;-0.088290736;-0.011608121;0.04267019;0.0033388285;-0.035196587;-0.064222164;-0.07170622;0.043732047;0.099812314;-0.045050535;-0.00304314;0.049320318;0.04951203;0.11218494;0.0041218116;-0.026267108;0.0016530534;-0.10779775;-0.08436047;0.092544176;0.032699056;-0.046255127;-0.038643837;0.08003522;0.11435373;0.04776701;-0.040628687;0.0039238404;0.079168834;-0.06275464;0.07586104;0.091232635;0.032832265;0.00782534;-0.07822361;0.0028660984;0.05228483;0.03114936;0.07450922;0.077093214;0.09101418;0.005381419;0.20155966;0.14377496;0.060481858;0.056270562;0.06941472;0.094803214;0.14545591;-0.031438306;-0.05369044;-0.049307916;0.105046764;0.06845327;-0.0064558475;0.019546054;-0.007130119;0.13859634;-0.014464867;0.008481596;0.07960983;-0.035205483;0.08821856;-0.034785256;0.07070424;-0.013855287;-0.030750398;-0.02230727;-0.039002925;-0.08756715;0.034956686;0.020425212;-0.038689215;0.0040011336;0.08991481;-0.00639605;0.032266255;0.024042126;0.07018403;0.041745603;-0.021169886;-0.07233663;0.015794564;0.025436508;-0.019940289;-0.017355023;0.08700561;-0.014362729;-0.026621243;-0.020893266;-0.07884607;0.019671725;0.010904697;0.09118738;-0.051068436;0.04785301;0.018115327;0.03940476;-0.01269295;0.052969217;-0.004180732;0.098027505;0.0519179;-0.08333622;0.0076869805;0.05215699;-0.0010137252;-0.1308536;0.013005578;0.050813816;0.19739425
0.053324766;0.08881661;0.06583675;-0.08979451;-0.012824678;0.10504749;0.075039074;0.0043640435;0.0377124;0.07716017;0.0774291;0.094648965;0.08706709;0.08091032;-0.04087512;-0.13443474;0.046245616;0.029227078;0.0017235992;0.014434312;0.07876262;0.0018533869;-0.013911573;0.10512716;-0.04523987;-0.05415941;0.05429411;0.113722876;0.060055777;-0.025343928;-0.03348527;0.06406857;0.057488564;-0.010797803;0.03399733;-0.0805333;0.06772593;-0.017033264;0.0997176;0.026957422;0.027315583;-0.054634355;0.061355956;0.0499993;-0.032430086;-0.04190592;0.01841796;0.03121708;-0.00024124372;0.029287284;-0.043715544;0.021588998;-0.060149524;0.0111033805;0.057247642;0.07370808;0.014430482;0.05844995;0.050556358;0.06140427;-0.014945075;0.14044335;0.0675739;0.080910034;-0.011789447;0.082975835;-0.1059624;0.16323288;0.025748387;-0.011514929;0.11545369;0.07946267;0.044677474;0.038697097;-0.031242922;-0.023353616;-0.023538716;-0.074461535;-0.06697283;0.07899504;-0.013927019;0.040344287;0.09366021;0.07655486;0.0019772355;0.049477637;0.058445692;-0.040210146;0.10588692;0.003622173;0.037113104;-0.056942247;0.03331377;0.025731776;-0.020194126;0.07679227;0.004370464;-0.0017722388;-0.112115294;0.094837174;-0.03680174;-0.054210395;-0.07980355;0.007087784;0.020404305;0.051915966;0.039432567;-0.083858885;0.0444226;-0.0025654251;-0.02355246;0.041933484;-0.019166837;-0.013919449;0.06784154;-0.05310037;0.0041340617;-0.089752786;-0.09183327;0.03230201;0.017372295;0.017728819;0.122222714;-0.00081609923;0.096239194;-0.040822703;0.11450647;0.07097561;0.009827226;0.07647288;0.02403926;-0.10439945;-0.011569939;-0.015642663;-0.0886619;0.012253642;-0.04468597;-0.08254425;-0.01321758;-0.00675563;-0.0154647855;0.06365294;0.083703585;-0.053106226;0.07286761;-0.012128331;0.07637773;0.03559376;-0.018914795;0.027914295;0.056599267;0.040852603;-0.043687545;-0.050421834;0.103307016;-0.05529231;-0.081776336;0.066570245;0.05199495;-0.04752334;0.042764667;-0.15389852;0.024160484;0.11862729;-0.028947257;-0.018534537;-0.032773677;0.076188974;0.020262118;-0.026494525;-0.041054185;0.05076667;0.04470799;0.04580569;0.04886741;0.05052201;0.100829564;0.050798852;0.08518047;0.020313187;0.13055125;0.013322983;0.07810032;-0.020433597;-0.089061886;0.023796935;0.09401825;0.020510593;0.04007576;0.123970695;0.056525737;-0.061855294;-0.11376332;0.11932624;0.10457342;-0.0689592;-0.030138845;-0.06934931;0.095351964;0.0070817415;0.049263354;-0.0034749527;0.122002624;0.055099815;-0.06627974;-0.040471844;-0.0780206;0.04054455;0.0400807;-0.061290935;0.0546744;0.07499804;0.14197066;-0.11484869;0.12190561;0.01968311;0.058746453;0.15235856;0.08385111;0.10986222;0.0749835;-0.0064719166;-0.017670926;0.012660425;-0.028976938;0.09430508;0.014001887;-0.0005909637;0.015132917;-0.05543312;-0.037800334;0.050406635;0.09586428;0.040849555;0.03186653;0.16157503;0.056794718;0.02330472;0.037437607;-0.09054837;0.09661934;-0.0038949891;0.062549606;-0.04080213;0.020129494;0.059515428;0.045244794;-0.043492176;0.031607118;-0.09827858;0.0029097586;0.02459478;-0.02274582;0.029645655;0.076078676;-0.09168839;0.08500659;0.051183045;-0.042103637;0.09373952;0.029340617;0.005421979;-0.029370436;0.055986535;0.013711702;0.13423242;-0.13981186;-0.006658869;0.07757928;-0.03925469;0.03992195;-0.012530009;0.10190831;0.057875082;-0.19336335;0.09150625;-0.06304857;0.04092111;0.035946503;-0.00013249628;-0.027257532;0.07205438;-0.04250039;0.02254979;-0.016013002;0.03802005;-0.023208674;0.14071709;0.040911946;0.009602985;-0.04365281;-0.013479447;-0.17555547;0.033400055;0.08525078;0.055736464;0.0451321;0.0023589062;0.008142434;0.0310788;0.035411965;0.07659274;0.15032087;0.066443674;-0.065649405;0.10538491;0.12424916;-0.017088028;0.06605235;-0.092814185;-0.0122190155;0.011748698;0.10546498;0.031786904;-0.12064696;0.07611773;0.015432049;0.093422584;-0.044290304;-0.013304256;0.029886367;-0.026614673;-0.0030565325;0.0044443733;-0.029485753;0.075050995;-0.10828269;0.072558194;-0.041076995;0.06452211;-0.022402849;0.06653636;-0.019200832;0.0063775224;-0.0055787535;-0.08254279;0.06863033;0.021124803;-0.07177644;0.05088821;0.15092789;-0.072189115;-0.014954335;-0.018202813;0.06546542;0.049209245;0.019839792;0.04493351;0.03060067;0.07396881;0.030499382;0.0041129664;0.10339545;0.04079579;0.0012932431;-0.06861028;-0.002538524;0.076250255;0.08248924;0.017848441;0.049186073;0.0057332404;0.029363936;0.08330865;-0.066542976;0.03673391;0.07936988;-0.0076317843;0.08295077;-0.048459567;0.13414058;0.11024729;0.0016879068;0.05809141;0.001636493;-0.05562707;0.039995678;-0.021205192;-0.05967354;0.0016303727;-0.036472324;-0.018261604;-0.07868147;-0.0046887817;-0.013217631;-0.0026627898;-0.039436694;0.041204643;0.06358582;-0.026351118;0.005480979;0.089241564;0.021529425;0.0906457;-0.03911402;0.080070525;-0.008077085;0.051734712;0.0017337332;-0.014426184;-0.08705011;0.058022767;-0.14325203;0.08453958;0.10511619;0.009281982;0.0038085144;-0.012866876;0.062070426;0.04219542;0.026572565;0.05366482;0.037875496;0.024871293;0.041765016;-0.037776798;0.051132936;0.047314223;0.03559932;-0.010354961;-0.091912426;-0.025299158;-0.026316198;-0.058897838;-0.197652;0.01800559;0.01579712;0.066544145;0.033594247;-0.04936918;0.039073538;0.024440281;0.053233527;0.07920031;0.05728509;0.0986426;-0.02444682;-0.048906952;0.07007966;-0.021771299;0.032148354;0.0137691805;0.013413867;-0.025127215;0.05376294;-0.031951334;0.083274975;0.026177244;-0.049923733;0.07823745;-0.0039824573;0.04426769;-0.00893619;0.09033348;-0.12674178;0.03389195;-0.025268074;0.13562456;-0.04153496;-0.018547887;-0.021795858;0.068057954;0.03570889;-0.037278477;0.062196765;0.021821816;-0.04756828;0.05729292;0.018784747;-0.012607971;-0.092485175;0.006972841;-0.034957677;-0.0028852096;0.09236459;-0.14516523;0.03240315;0.008524961;0.041657675;-0.06547032;0.043263264;0.10386456;0.011010433;-0.10410064;0.05855594;0.019872198;-0.076814696;0.052077197;-0.011889023;-0.014677624;0.01687169;-0.010604133;0.008374008;-0.014476832;-0.026870785;0.013594119;-0.011157631;-0.0043070335;0.050168354;0.019731391;-0.08072874;-0.030669268;0.09597427;0.019047022;0.039134998;0.021741789;0.09426457;0.030437602;0.18202965;0.023897972;0.10104765;0.052127607;0.07489249;0.04971525;-0.08719047;0.0054024244;-0.055401187;0.029920496;-0.020065328;0.018675845;0.013904181;0.058680266;-0.011282225;-0.09215301;-0.05473853;0.017578235;-0.059672665;0.12263302;-0.0013602135;-0.06148278;-0.03167195;0.010010268;-0.05523177;0.05294041;-0.049137637;-0.023668952;0.087142296;-0.014173689;0.17492652;0.06728358;0.023926713;-0.09257395;0.04308161;0.042922694;0.017729105;-0.020996576;-0.05976433;0.070541896;0.051742654;-0.021235336;0.047841284;-0.053745437;-0.023032103;-0.005574204;-0.011425677;-0.14893873;-0.050903626;-0.06480997;0.08706789;-0.0070877355;0.059872072;-0.0026976843;-0.022038916;-0.029373225;0.04980547;-0.04843794;0.030540917;0.09593155;0.08990048;0.114534274;-0.021235585;-0.015473768;-0.17865133;0.012872746;0.09008017;0.17854965
-0.044930562;0.07818517;0.080640934;0.017641762;-0.05907404;-0.0057942565;-0.03206317;0.07122282;0.08529784;-0.065418325;0.05447553;0.099686496;-0.023665402;0.0854769;0.020183045;-0.19587557;-0.0059463056;0.028056037;0.080194876;-0.0029281038;-0.032399498;0.09760711;0.0816159;0.08463116;-0.074190624;0.09555035;0.060786974;0.124684215;0.20400167;0.036249343;0.08253308;0.10592533;0.039599836;-0.00076376216;0.038721543;0.06888533;0.015542652;-0.020002196;-0.020453013;-0.02530005;-0.0068033505;-0.013251354;-0.0965303;0.056209758;-0.046048682;-0.08529645;0.11008615;0.0884814;0.02291447;-0.045097735;-0.11705049;0.05431176;-0.036570575;-0.047921184;0.12020803;0.10675718;0.031436082;0.03796417;0.05624952;-0.06570229;0.076666564;0.05219736;0.09640641;0.0577894;-0.03668231;0.08579288;-0.07741513;0.111085996;-0.07392397;0.08482772;0.055042583;0.0052450113;0.09589065;0.08194573;-0.027063658;0.050236933;-0.060697805;-0.06952635;-0.06972438;0.06055693;0.0107489545;0.011063662;-0.02512972;0.039110575;0.065648586;0.0047285547;0.034772806;-0.043857746;0.019523915;-0.012566761;-0.056865517;-0.06863277;-0.011438067;0.031109575;0.05989682;0.0061999457;-0.046015732;-0.0061464524;-0.030354818;0.03941722;0.025593689;0.08392486;-0.08322976;0.07265249;0.067871876;0.07481016;-0.04717996;-0.0023279083;0.108548686;0.09028675;-0.04433815;0.031135492;0.08222488;0.07600733;0.1045459;0.07618425;0.07213795;-0.062106896;0.016172066;0.08804673;-0.054412097;-0.08228176;0.048536614;-0.0010971949;-0.019230532;0.07853587;0.1326963;0.11624192;0.12626614;0.069331385;0.075185016;-0.10307377;-0.016045647;0.025004717;-0.10998165;-0.052479748;0.073902994;-0.054766886;0.014258689;-0.047848914;0.080433436;0.038252927;-0.0149685545;-0.04951922;-0.070153646;0.089226335;0.01474104;0.017591292;-0.032413658;0.014940013;0.112148434;0.014788598;0.045873746;-0.1022604;-0.024202317;-0.019664956;-0.043315236;-0.05070001;0.07027961;0.097392306;-0.018856136;-0.22261396;-0.04781688;0.1304233;-0.07728593;0.1019939;0.069026396;0.041048683;0.016083261;-0.050101005;-0.0042454405;0.0017748206;-0.040321082;-0.0467622;-0.015106628;0.045455668;0.12635453;0.1101897;0.008432137;0.031236311;-0.033372525;0.06175841;0.0864168;0.109641954;-0.006013081;-0.066870905;0.070736565;0.044716537;0.05747558;0.02043785;0.067254536;-0.042602934;-0.059893526;0.07946561;0.0036875992;-0.04530771;-0.04091586;0.0040578824;0.0961444;-0.045774635;0.020158315;-0.052851208;0.08404414;-0.02545831;-0.018334445;0.07569514;-0.11051905;-0.13967508;0.07789928;-0.014887055;0.06818089;0.011923613;0.14960316;-0.03253205;0.12304929;0.011070225;-0.09759191;0.12006497;0.12528431;-0.0025209084;0.08777424;0.008743128;0.04234163;0.0802396;0.05523936;-0.017524673;0.03638129;0.038175244;0.019938895;0.057258643;0.051355854;-0.021082288;0.024674634;-0.096938975;0.0029801992;0.107898235;-0.017432343;0.070867024;0.06870597;0.012841729;0.009708326;-0.0019377522;0.09206467;-0.05077033;-0.06966405;0.13905483;0.02497819;0.07865013;-0.024857506;-0.1547891;0.019989623;0.00777272;0.07479733;0.08603133;-0.055638462;0.049744725;0.008128798;-0.033809595;0.08319495;0.06278406;-0.01466591;0.08984297;-0.008085181;-0.049466476;0.036305916;0.057576276;-0.13459145;0.018871304;-0.06224374;0.008139763;0.07501006;0.08034066;-0.023283293;0.11271163;-0.12998047;0.07250716;-0.07190761;0.0277748;0.059074704;0.11288948;0.008619992;0.06893012;-0.020578282;-0.056284107;0.02155448;0.047082294;-0.017834738;0.035668317;-0.06902075;0.05630498;-0.08016662;-0.06383476;-0.054993708;0.0816389;0.0063821957;0.04947678;0.026151635;0.082165614;-0.057253644;0.026379695;-0.038432363;0.10532444;0.13315888;0.022747183;-0.05524248;0.05855646;0.08179722;0.052186046;0.09662343;-0.038905922;-0.0017863283;0.06823618;0.10113615;-0.038497563;-0.05201573;0.026437378;0.063266024;0.0034008487;-0.025326949;0.089722894;0.02821178;-0.03378515;-0.029890038;0.12271406;0.043679766;0.07920309;-0.113489926;-0.052223634;-0.012540271;0.08848533;0.04641845;0.012118549;-0.040710315;0.109116256;0.08034113;-0.05894143;0.06827573;0.004706004;-0.1271036;0.109253526;0.13859957;0.056687243;-0.007640515;-0.030723663;-0.031706873;0.050656933;-0.0007963497;-0.048347227;0.058439706;-0.006582746;-0.018079616;-0.0048003243;-0.054131165;0.056709442;0.03444803;-0.04032038;0.056801282;0.03912889;0.07189322;0.007825645;-0.040792637;0.024827773;0.040443175;-0.011411212;-0.13073933;-0.07368806;0.06488487;0.03354692;0.04330075;-0.037677974;0.081245594;-0.022545945;-0.0056288703;-0.01126486;0.0020837681;0.03632377;0.06550001;0.030117275;-0.018802883;-0.06192856;0.04307252;0.059649896;0.055387247;0.03653257;-0.018797796;0.09410817;-0.06283053;0.008923248;0.03203972;0.003365447;-0.051583026;0.116112985;0.037802126;-0.009595628;0.028716808;0.08018246;0.0895056;-0.029804168;-0.05168986;-0.079142794;-0.07085827;0.022097586;-0.0766161;-0.048019625;0.032854274;0.052906662;0.06088564;-0.009158474;0.042860102;0.0071260757;-0.08711136;0.04172438;-0.08424151;-0.0662913;-0.0376014;0.020338519;-0.0063884226;-0.00359031;-0.022293644;-0.0017131292;-0.03650728;-0.027232694;-0.015114451;0.026037294;-0.19639282;0.005657213;-0.019123526;0.041609637;-0.12102827;0.03643456;-0.027688857;0.09622684;0.046219844;0.1189543;0.039752677;-0.04245551;0.05840771;-0.01788301;-0.0681311;-0.06371848;-0.028080484;-0.030328175;0.0436732;-0.0038627523;-0.055669878;-0.00363801;0.11718461;-0.11026239;-0.033026937;-0.009320602;0.08299838;-0.12496971;0.08302902;0.0807983;-0.0856998;-0.049013037;-0.021243881;0.0046616895;0.029175991;-0.04856815;0.10367918;0.106653765;0.066808484;0.02219688;0.10073836;-0.011304971;0.021555463;-0.037440747;0.052530654;0.02492184;0.017460423;0.049669396;-0.034340177;0.059557974;0.037587352;-0.060114216;0.004749471;0.0103130825;0.08677958;-0.06782367;0.04241886;0.08120819;0.027638277;-0.077205315;-0.054078445;0.0061602974;0.069568135;-0.007971088;-0.025001317;0.116499364;-0.07622956;0.061124317;0.039733708;0.047567185;0.036799725;0.08000793;-0.014480537;-0.03801415;0.045478415;0.00046775446;-0.06309589;0.03519238;-0.02347591;0.08302712;-0.023227189;0.038257297;0.0017280569;0.03537251;0.04813929;0.08052565;-0.01507519;0.03954782;-0.06942871;0.12347781;-0.054536942;0.08408289;-0.028771944;0.02641052;-0.053703055;0.06748184;0.011393148;0.048584975;0.07364261;-0.15027194;0.08869347;-0.030613862;-0.07259453;-0.043105762;0.013169934;0.008392716;0.028485004;-0.041998003;-0.019090842;0.025912235;0.05399611;0.010620375;0.054014705;-0.014211035;0.09001448;-0.02746406;0.077071436;-0.022260029;-0.06570444;0.054176647;-0.033988357;0.02130628;0.01916829;-0.003709154;0.07189013;0.064244255;-0.058362655;0.055309545;0.059183;0.07998881;0.04109437;-0.064771;0.05673779;-0.0109635275;0.07780681;-0.07495998;-0.0068037417;-0.019498808;0.03617441;0.033542342;-0.00989254;-0.04039918;0.019738909;0.07629;0.10668977;0.09113227;-0.05501237;0.08333692;-0.11725982;0.03846969;0.029570963;0.20249242
-0.038098175;0.11324653;-0.020365171;0.0064310855;-0.03898285;0.04255618;-0.042685084;0.108386986;-0.06327893;0.046539012;0.014214509;-0.02171257;-0.007095713;0.09014021;-0.011080622;-0.13988683;0.016517276;-0.044090554;0.007760792;-0.07659795;0.11550991;0.0645461;0.0089044;-0.004883469;-0.050108872;0.09398722;-0.07326522;0.1089132;0.1047366;-0.0070544425;0.009325887;0.04091402;0.023471484;0.051960863;0.02593295;0.047072697;0.12585677;0.098892;-0.0090547055;-0.07364147;-0.014265945;-0.109829456;-0.13772742;0.12353235;-0.025738271;-0.060922746;-0.004211591;0.05150397;-0.10381366;0.11955076;-0.022876129;0.027454188;-0.05153969;-0.048182327;0.03868458;0.14675182;0.04142088;-0.03934182;-0.030160572;-0.019296931;0.048730962;0.031282887;0.10029778;0.087231494;0.030476073;0.029922033;-0.0772041;0.06050955;0.0713745;-0.059048206;0.10992944;0.016969403;0.04262586;-0.038032226;-0.043034974;0.030415643;-0.03398711;-0.08860761;0.054529097;-0.077920206;0.081722975;0.0037404913;-0.053728305;0.022488363;0.037686717;0.08458409;-0.050806645;0.03863606;-0.014448515;0.05760934;0.062097732;-0.08616265;0.05346903;0.08476019;0.067888774;0.03345889;-0.023169274;0.028524626;0.011579569;0.068275996;0.15357994;0.03840293;-0.015842602;0.05132266;-0.016089395;-0.054847088;-0.035154846;0.013187275;-0.0046243924;0.07505248;0.055858865;0.13077767;-0.017262919;-0.0045800344;0.12989356;0.009906537;-0.018289965;-0.0274099;0.012790107;-0.03148161;-0.06206795;0.0037737251;0.12254466;-0.01749976;0.019465255;-0.07465215;0.16422635;0.13411264;0.045692366;-0.0038756037;0.079062335;-0.038190342;-0.051779583;0.053954024;-0.07031835;0.03439255;0.027542677;-0.07499458;-0.015460499;0.04115069;-0.006252595;-0.034142047;-0.032610435;0.04573931;0.068347864;-0.067068234;0.056032408;-0.00096263364;0.02923223;0.0022245701;0.100899614;0.013098359;0.010275846;0.053015582;0.0794758;-0.058555804;-0.034335244;-0.014310812;0.101916656;-0.039598543;-0.0019411553;-0.14595847;0.028544623;0.056895964;0.04515979;0.051798385;0.029931938;-0.010399103;0.043053944;-0.083615564;-0.029126005;0.10740039;0.13679187;-0.02706339;0.009716412;0.062437773;0.06320957;0.0036795598;0.021247951;0.042138666;-0.050325688;0.008399623;-0.012165135;0.009027443;-0.07609858;0.03328879;0.07407332;-0.051925667;-0.035630725;0.07524838;-0.060693447;0.082531735;-0.10678539;0.002030157;-0.07097187;0.051150724;0.037324462;0.037508387;-0.057055954;-0.027096035;-0.04272206;-0.014161929;-0.0031896022;0.016223842;0.0009262346;0.018382495;-0.019888654;-0.03235915;0.06565611;-0.07767359;0.068508364;0.11144156;-0.0068205497;-0.027567862;0.101303495;0.027197417;0.0724551;0.14157666;0.14387202;-0.049922783;0.03746464;-0.11446524;0.042601593;0.09521564;-0.041848592;-0.051461145;-0.038100548;0.12076987;-0.02309024;0.026948815;0.05099946;-0.0055154306;0.01111531;-0.026637165;-0.011186251;0.12827192;0.08894463;0.0693125;0.05369656;-0.024354521;0.113237865;0.049582336;-0.033149287;-0.034976672;-0.011775816;0.14641757;0.1256595;-0.00714435;-0.05752948;0.014667986;0.007859563;0.04112503;-0.052641984;0.0178461;0.03927031;0.044435132;0.07598409;0.036644243;-0.061707586;0.0029586654;-0.0038162621;0.016632285;-0.023883443;0.016089888;0.06291528;0.09062366;-0.14229137;-0.030947512;-0.100192085;0.02408175;0.025601873;-0.05502958;0.07748563;0.100330755;-0.06840053;0.04050227;-0.033396654;0.0561432;0.07120932;0.10720678;-0.045013674;0.05747698;-0.0927771;-0.03745034;0.12780926;0.025998944;0.14127477;0.11088298;-0.039970264;0.018406726;-0.04530811;-0.13227078;-0.08070737;-0.05221064;0.050550032;0.015172457;0.06727511;0.0075459797;0.069706984;-0.041316457;0.036740188;0.11071091;0.039559174;0.08559433;0.03980927;-0.048909433;0.13236341;0.08881469;0.09005116;-0.10146932;0.10013815;-0.044908393;0.10817708;-0.077694036;-0.041937374;0.024413234;0.06679894;-0.04827733;0.022628052;0.09797846;0.09086351;0.023719724;-0.00768773;0.06160931;-0.018712236;0.011317186;0.00054522464;-0.07661829;0.110563025;0.038208704;0.019502353;0.12468042;0.050441485;-0.028755022;-0.026734972;-0.08705298;0.05529856;-0.06025529;-0.05427761;-0.036849838;0.13298844;-0.020785762;-0.17314132;0.04010059;0.030413274;-0.0018558563;0.008020238;-0.027493317;0.06120187;0.030792205;0.009042989;-0.021343015;0.10921457;0.021419786;0.009500728;0.05098038;0.06666774;0.0230525;0.06463531;-0.051131178;-0.012204824;0.06847387;0.035631735;0.06896442;-0.06318166;-0.013144481;-0.0037218987;0.041369695;0.04842915;0.07846347;0.16655202;-0.050925795;-0.08262794;-0.04790051;0.07556531;0.04938426;-0.025351765;0.06791952;-0.01487965;0.051134128;0.013108049;-0.07129688;0.023466684;0.01662185;-0.0011269987;-0.019624587;0.14258185;0.0029845042;0.022176761;0.025569882;0.08873291;0.031994693;-0.028497819;0.07015567;0.02225902;-0.007872513;0.059096307;0.0060330546;-0.0007919433;0.06582099;-0.021770783;-0.0035315708;-0.021411125;0.07353049;-0.0514346;-0.04684123;-0.030166639;-0.010506122;0.13282174;0.07126767;-0.07439138;0.04956509;-0.014802104;-0.014931082;0.076095976;-0.04220806;-0.0433893;-0.057962492;0.12875879;0.0014538226;-0.0037808528;0.038188525;-0.038621664;0.0040018465;-0.107884586;-0.007793994;0.014296726;0.10373958;-0.0071501434;0.020622022;0.062006913;0.026573438;0.06317927;0.015707606;-0.07313163;0.051716868;-0.012796737;-0.030615276;0.08288062;-0.056940734;0.019196564;0.085900836;-0.034199044;0.095036745;-0.03300215;0.02690288;0.05272061;-0.11069456;0.010477849;0.04113439;0.08845177;-0.12590411;0.0740385;0.12697783;-0.1455608;-0.039709974;0.080514506;0.021400271;-0.056682974;0.011061786;0.021048682;0.026876517;-0.013653266;-0.09540373;-0.025581276;-0.15346116;-0.025808794;-0.020481596;0.0740462;0.032957666;0.03346129;-0.045781292;0.058287296;-0.0040996443;0.103728816;-0.17198707;0.050678775;-0.08089409;0.00915746;-0.04738994;0.022154758;0.0042961477;-0.020790515;-0.062990464;-0.009641832;0.07006959;0.032384478;0.08323938;0.024050342;0.107319914;-0.09658446;0.082556196;-0.0100820465;-0.06651518;0.085829586;0.02644102;-0.06596693;-0.076606736;-0.08157228;0.06951699;-0.0367418;0.024614308;0.035219375;0.012581888;0.016037557;-0.012820981;0.024628311;0.15747884;0.06312694;0.05672346;0.026721943;-0.023123963;-0.00691635;0.02161152;-0.037380077;0.0580138;-0.11645343;0.09788432;-0.059479;0.08160002;0.029219665;0.10220569;0.14810541;-0.10765832;0.09058638;-0.056737885;0.039982297;0.09984366;-0.028273284;0.030890591;-0.038929902;0.07171587;0.029422203;-0.030842377;0.047947615;-0.022196822;-0.051357504;-0.081780374;0.019320607;0.0147396615;-0.06509898;-0.06671109;-0.025386425;0.024470307;0.050648775;0.081054516;-0.002347842;-0.032827467;0.091406845;0.04607691;-0.015309487;-0.062049937;-0.06104607;-0.039422743;-0.032107245;-0.22172838;-0.020440213;-0.071496665;-0.03889223;-0.05558736;-0.028122224;-0.030702798;0.09375001;0.059922222;-0.023234272;0.038662758;-0.010379622;0.03588289;0.0015717474;0.096389465;0.050506163;-0.054753922;-0.18059896;0.09973691;0.09594879;0.053918578
0.0062029813;0.01668708;-0.052873183;0.07993417;0.03155355;0.075343594;-0.01885514;-0.02792601;0.030014273;0.004020314;-0.02964591;0.048844058;-0.021612577;-0.011927903;-0.044068392;-0.10943915;0.042404834;0.027980134;-0.054597437;0.0074777855;0.07441715;0.061836272;0.07698563;-0.043100726;0.020739233;0.06367919;-0.0352166;0.061312445;0.049669895;-0.052733634;0.09041562;0.028853485;0.039717384;0.029474963;-0.06662693;0.060986567;0.05168137;0.102522306;0.020772614;-0.06794744;-0.045047697;-0.078838564;-0.044920396;0.07357895;0.054009374;-0.0580979;-0.07700475;-0.062374473;-0.09143686;0.040306505;0.054005094;-0.002775161;0.06814705;0.021678604;0.040838633;0.07442746;0.030132152;0.08971823;-0.013218084;-0.026531804;-0.014651908;0.07037162;-0.0490924;0.10850202;-0.06859202;-0.0139380125;-0.047508094;0.063174166;-0.057115883;-0.017967602;0.043577116;0.11673901;-0.017068408;0.062165447;-0.04396293;-0.046113674;0.05920691;0.040181775;-0.040638924;-0.03719279;-0.06724197;0.056521397;-0.03852272;0.087735526;-0.03277737;0.078793555;0.07460197;0.021778839;0.11079652;0.0933217;0.020454306;0.1044448;0.09940204;0.14177404;-0.052503034;0.0925867;-0.06917504;0.021497345;0.067173235;0.034144543;0.10376886;0.06396723;0.013870013;0.045731425;0.10196786;-0.042995017;-0.0065227174;-0.024225209;0.09297608;0.10889346;0.019327996;0.08988941;-0.037673574;0.052933816;-0.0011134798;0.042047437;-0.010216447;-0.09886124;-0.08441647;-0.018562013;0.03235221;0.043235846;0.104970165;0.018137328;0.052024264;-0.05345132;0.08874011;0.12721759;0.0019632473;0.061873637;0.032456186;-0.0090088;0.043842588;0.02664218;-0.005769333;-0.01767031;-0.0034926054;-0.014586518;-0.009253098;0.034572847;-0.02326662;-0.044750277;-0.050389055;0.09228507;-0.056294955;0.028246317;0.1309495;0.10732442;0.026283758;0.060231853;0.010495958;-0.03354101;-0.02665645;0.1012624;0.10851014;0.02281815;-0.046148214;-0.036846776;0.029418979;-0.033671077;-0.027309177;-0.09443776;0.028321452;0.04038783;-0.039387267;0.07987026;0.10700659;-0.0066530704;0.0062509906;-0.022614058;-0.0764886;0.07505589;0.018816266;0.058614366;-0.015409459;-0.04242827;0.09512511;-0.007964064;0.14838098;0.049120698;-0.017533576;-0.034321632;-0.018581683;0.06891615;-0.047371976;-0.01807452;0.09465586;0.06260121;0.0013696714;0.005059564;-0.03285477;0.08945454;-0.007062142;0.020084893;-0.014889353;0.081538;-0.003785764;0.033455502;0.015117025;-0.11391465;0.0111015355;0.06604978;0.058772083;-0.013912358;0.06981462;-0.0075528617;0.07398572;0.009899863;0.008731719;-0.019314365;-0.02341105;-0.032024413;0.07684565;-0.12039465;0.06156102;0.023240745;-0.056028705;0.09837529;0.18844646;-0.032037318;0.012857515;-0.011032574;0.06470275;0.05268263;-0.048150126;-0.049321853;-0.036890525;0.123762995;0.042642318;0.013920877;0.066017255;0.00036744477;0.10530678;0.033563115;0.08476578;0.14629039;-0.037315726;0.020821737;0.10336626;0.026257783;-0.010500319;0.033196706;-0.030958856;0.017146816;-0.08089588;0.00697452;0.1088085;-0.0032991024;-0.0007969712;-0.09225748;0.05536221;0.017459294;0.0399321;-0.05728852;0.06563286;0.07873378;0.10785809;0.08624375;-0.00091808324;-0.020745588;-0.029659523;0.10047517;0.002448451;0.027985144;-0.08862459;0.032910224;-0.042008482;-0.073137365;-0.04180582;0.038292788;-0.0083787665;-0.034389768;0.063233726;0.09841001;-0.11944121;0.09224172;0.028852426;0.06507513;-0.015282003;-0.014836729;-0.09132382;-0.055475738;-0.0046384386;0.08116631;0.108002;-0.029103337;-0.054751292;0.012270396;-0.07829199;0.005104412;0.06926493;-0.09975605;-0.016136551;-0.058954455;0.08074805;-0.013872842;0.02326225;-0.035685807;-0.060929913;-0.02850468;0.07281159;0.018847616;0.07208027;-0.03143054;0.048907638;-0.003932133;-0.0017117439;0.0794513;0.01009893;0.0488203;0.008054171;0.041327886;-0.036757324;-0.040507168;-0.0953623;-0.067169465;0.06401829;-0.049982324;-0.02702459;0.0007120485;0.0005880341;0.051650416;0.06120768;-0.009165595;0.04185233;-0.057268158;-0.09168956;0.003231528;-0.008187905;-0.018925708;-0.0481711;0.06278583;0.014188368;0.009558037;-0.06115539;0.037639838;-0.030521821;-0.03446004;-0.05352852;0.016428143;0.13313068;0.028175574;-0.13372262;0.063518584;-0.003932358;0.007838656;0.13350631;0.044982314;-0.019156499;0.06374033;0.05598843;0.036466304;0.0076615997;0.01347161;0.03271487;-0.0032204152;-0.069242746;-0.037265625;0.112960815;0.03441753;-0.11500003;-0.020486755;-0.09244696;0.063953966;-0.047650475;0.058355436;0.04265205;0.11064791;0.06895757;0.0034097948;0.08907929;0.06581655;-0.075778514;0.07846098;-0.0064456873;0.0028076477;-0.0668468;-0.008014538;-0.009944286;0.043481346;0.045838058;0.045987766;-0.009862428;-0.04757238;0.13040876;-0.033103995;0.018327901;0.043067656;-0.04079027;0.08346279;-0.025164818;0.04229283;0.08120074;-0.03450526;0.03438736;-0.014372341;-0.022083877;-0.08026962;-0.07792329;0.032551944;-0.082448505;0.0652702;-0.109033674;-0.00873256;0.031287517;-0.058022678;0.084033705;0.04423938;0.027009387;0.065161265;0.03717604;0.07198997;0.033715017;-0.063168906;0.07424252;-0.0006257649;0.0051362645;0.020348052;0.035418827;-0.050265025;-0.031893995;0.011900555;0.0077148075;0.09765618;-0.15027739;-0.019561218;-0.04577183;-0.037572693;0.00513574;-0.028684014;0.06666629;0.086863086;0.013045275;0.06999472;-0.0759825;-0.0076483847;0.06316264;0.02261291;0.0799008;0.033730533;-0.0755076;0.027776089;-0.08475589;0.004827043;0.04018893;-0.040986177;0.041382067;0.023455119;0.0545708;-0.04595884;0.13268521;-0.06220595;-0.028574929;-0.01981833;-0.0543789;0.0604126;-0.013352043;0.044410124;-0.053240143;-0.016478173;0.115791716;0.1403418;-0.048147757;0.035301674;0.109490864;-0.10955376;0.009458851;0.08742996;0.034959774;0.017706625;0.00094451517;0.027249862;-0.01895308;0.08631737;-0.04420321;-0.037900373;-0.026016397;-0.008952096;-0.053449757;-0.07686886;-0.096381806;-0.019137703;-0.009373296;-0.034420602;0.09084676;0.11054792;0.061823882;0.005873847;0.0038648555;0.01941865;-0.06727145;0.067739144;0.03559439;-0.04368773;0.07412844;-0.001085866;0.07277305;-0.0004041352;0.040766507;-0.06617747;0.03364385;0.0009148384;0.025348384;0.048110858;0.027920173;0.007935226;-0.03211309;0.058266938;-0.0004181185;0.0506083;0.00473415;-0.022630416;-0.055744044;0.09397762;-0.078897014;0.0064610788;-0.023004785;0.13527706;0.032311678;0.11218392;0.06508347;0.024969606;0.04462575;0.051582858;0.036728036;0.030368881;-0.043046877;-0.005349527;0.03311398;-0.020415805;0.037969917;0.09017276;0.01846819;0.023554994;-0.06740504;0.07302845;-0.057384916;-0.064158;-0.0118048405;-0.024819493;-0.03757499;-0.031044392;-0.03867066;-0.0664814;0.042911805;-0.06760895;-0.09165471;-0.024097597;0.09125682;0.06370036;0.092840746;-0.0679973;-0.051139142;0.014697355;-0.027119497;-0.18124394;-0.0029597187;0.07701159;-0.014443012;-0.003271606;-0.027059915;-0.008921992;0.12432436;0.024912909;-0.05093283;0.05338289;0.055955756;0.09666909;0.11936813;0.07598644;-0.036670033;0.08646875;-0.057492714;0.06913731;0.028701935;0.03259458
-0.05143516;0.07802153;0.025792124;0.09666721;0.010599426;0.07279293;-0.0031201632;-0.010199255;-0.035649415;-0.106212124;0.028551277;0.07615648;-0.004002939;0.026193134;0.025225773;-0.061313216;0.0918235;0.04978454;-0.01873957;0.058287974;-0.027613362;0.06729051;0.033112474;-0.14165635;0.033153046;-0.05132736;0.053863686;0.0037443545;-0.15899175;0.06336878;-0.023416473;0.08486591;-0.064211294;0.009702139;0.07037514;0.018709218;0.09903097;-0.044393864;-0.0050409143;0.012373217;0.00017312668;0.06418014;-0.064151384;-0.014859545;0.063158885;0.03405986;0.046517044;0.005912959;0.061284985;-0.053845588;0.03252162;0.09957794;-0.040522836;0.054720383;0.06456404;-0.010176274;0.06874387;0.025628246;-0.017702233;0.023785213;0.11546724;0.08412121;0.07134537;0.070870645;-0.015772253;-0.0020646583;-0.030618334;0.14680971;-0.035635173;-0.010481044;0.036170423;-0.040863022;0.029540692;0.01762955;0.08505224;0.05235295;0.052331027;0.06447116;0.031958394;0.09729603;0.09323079;0.080869354;0.0364472;-0.00057033653;-0.10138118;0.07318115;-0.021277227;-0.093829475;-0.042516004;0.01565159;0.0035892106;0.05821713;0.08014024;0.12830299;0.027961545;0.03769685;-0.018248592;0.08554436;-0.045498133;-0.068804786;0.011951475;-0.03139615;0.06754357;-0.0016187397;0.030181268;0.030865606;0.06744855;0.050656546;0.025599116;0.07337902;0.009765669;0.0028084668;-0.024814615;0.05130003;0.023615548;0.020843707;0.029416187;-0.019541426;-0.104542986;0.02249528;0.1262453;0.04951092;0.018781304;-0.04961682;0.07387326;0.04077597;-0.022531796;0.14231603;0.09566966;0.0019329115;0.07285793;0.07446296;0.053336628;0.087388605;-0.124205925;0.056053016;-0.0073914463;-0.012964939;0.010190028;-0.0070759715;0.063356884;-0.06865751;-0.030580672;-0.04666515;0.031418804;-0.052118283;-0.014776526;-0.0104531525;0.13446859;0.04500441;0.117112;0.104992405;0.08259236;0.12641798;0.010280524;-0.02765346;-0.08181603;0.13414255;0.027060492;-0.022579867;-0.035567373;-0.19341177;-0.038552683;-0.12830907;-0.040669933;0.047710523;0.0075663147;0.0018821241;0.048163146;0.07620942;-0.042680327;0.11001042;0.051566247;0.092468195;0.0128385695;0.021051532;0.060800713;0.07928885;0.09985798;-0.058639143;-0.15924355;0.11927022;0.07044506;0.04886142;0.081924066;0.063183166;0.08011351;0.062741384;0.080622345;0.010635299;0.059282348;0.04583052;-0.009231012;-0.031681407;-0.04802909;0.0097585;0.0645114;-0.022450577;-0.058821574;-0.13765667;0.051080056;-0.024523027;0.0018122806;0.077926226;0.0723851;0.0050778626;0.012378399;-0.11114099;-0.012579755;0.06985819;0.039136436;0.08990541;-0.027994117;0.005573339;0.088544376;-0.01886976;-0.024614386;-0.0105172945;0.1537193;0.06947675;-0.027688043;0.017823817;0.059276678;-0.06082833;0.025027866;0.054113176;0.04829021;0.11469519;-0.029197816;-0.0069565843;0.071327694;-0.01622089;0.10566187;-0.05786999;0.08882264;0.0994978;-0.05523533;0.12626666;-0.0014424126;-0.09396119;-0.10344245;-0.022520283;-0.0027397631;0.08129054;0.0060214205;0.09251447;0.1204321;0.06469681;0.03718536;-0.034888484;-0.06587558;-0.089186974;-0.016698651;0.08042063;-0.033043485;0.030978648;-0.013878357;-0.015277935;0.09391799;-0.050479136;-0.03152283;0.087353796;0.084643275;0.10504977;0.028202334;0.021139232;0.101760566;-0.0220007;0.07834527;-0.018684343;-0.022262594;-0.034390483;0.059716105;0.11155839;-0.053456265;0.0068269772;0.109930575;-0.035929505;0.06620937;0.017408475;-0.032636248;0.08695146;0.0048114653;0.011328927;0.0819826;-0.014948552;-0.055398688;-0.030710097;-0.045531373;-0.015942128;-0.015110799;-0.09338939;-0.019240988;0.032818496;0.059237644;0.012667393;-0.011751999;-0.0009831813;-0.058422875;0.032850586;0.05530174;0.061916437;-0.01220995;0.0104178;0.055847175;0.024312079;0.061776854;0.03944323;-0.0051195705;-0.013820485;-0.014058275;0.044892862;0.031310353;0.079857215;-0.11464983;0.09106776;0.06582993;0.013536718;0.026063321;0.06824582;0.10003487;0.07251551;-0.0304907;-0.08607393;0.0893729;-0.042488247;-0.1444852;-0.030284813;-0.040573698;0.07628683;-0.011730955;0.010772717;0.11064413;0.053099822;-0.0050471704;0.051242277;0.15626861;0.08831699;0.00037944847;0.039406873;0.07700959;0.039417215;0.027570734;0.0112155415;-0.017314492;0.063127235;0.06457893;-0.07919531;0.03055925;0.08155694;-0.075850494;0.040233873;0.1187573;0.055446763;0.08532554;-0.057079438;-0.03950643;-0.04093692;-0.018122703;-0.04185609;-0.13417938;0.098851435;0.034348562;0.013120536;-0.026168281;0.019151457;-0.0029747216;0.06649957;-0.015893402;0.019264402;0.13430208;0.06913935;-0.07290826;0.11637517;0.05836526;0.00018429932;0.040895272;0.0020341608;-0.015379717;0.06726065;0.012783993;0.04621;0.060287073;0.09670865;0.08240631;0.0057545938;-0.07301207;0.07990338;0.07668092;0.025812404;0.011485557;0.0038378194;-0.04139778;-1.2846034e-05;-0.011896362;0.08784296;-0.033428326;-0.034337875;-0.14254406;-0.025345825;-0.016851477;0.10354978;-0.11459516;0.08827682;-0.009809846;-0.12910745;-0.00566544;0.011654555;0.17114224;-0.032582343;-0.006250935;0.137043;0.030476842;0.014086131;0.07180178;-0.02665654;0.0069640335;0.112517715;-0.029098354;0.07669836;-0.088496044;-0.0034441473;-0.008356161;-0.05585185;-0.21658742;0.055989675;0.03857541;0.03473817;-0.06167007;-0.057328038;0.04564776;0.007820561;0.087120794;0.082261145;-0.0548225;-0.05601286;0.014831236;-0.06802872;0.043960314;0.05300039;-0.013468107;0.00022508099;0.029366212;0.12229471;-0.052394744;0.072390564;0.024615448;0.0713675;-0.0056393556;0.04216601;0.03201189;0.012150703;-0.036769502;0.056160115;-0.033469807;0.049163178;0.09290102;-0.0012428826;-0.0060528107;0.07423501;0.08128484;-0.046265125;0.014596915;0.009248953;0.04270326;-0.0004613686;-0.054682452;0.0011952067;-0.073570184;0.062967464;-0.094497524;-0.031171212;-0.044267688;0.044242132;-0.006376762;-0.09184725;0.0814387;0.017454075;0.00519258;0.024157433;0.090540715;0.061921604;-0.046933856;-0.013305811;0.06931738;0.0392355;0.0053451387;0.09293608;0.055175513;-0.0513908;0.018581726;0.060451232;0.039416283;0.028587546;-0.011551264;0.011870423;0.08398808;0.013449723;0.043811426;0.044553373;-0.025246881;-0.051675264;-0.003873455;0.07519138;-0.03039965;-0.062301576;0.07651559;0.1534331;0.057362188;-0.063894026;-0.0043000244;-0.007874293;-0.02967276;0.035839476;-0.018514616;0.0746691;-0.041860566;0.13100627;0.092832886;0.17642693;0.057377912;-0.031749584;-0.008599257;0.067451455;-0.01954089;0.07662465;-0.003569798;0.051738832;0.057053894;0.05798234;-0.04891376;0.038299754;-0.0647896;0.059507824;0.061418287;0.008423239;-0.010103284;0.020558635;-0.099360324;0.025363741;0.036056053;0.11349017;0.027530586;-0.040612664;-0.014134991;-0.06284818;-0.08934783;0.0056346282;0.049804896;0.00286984;0.07918335;-0.027073093;0.056265533;0.037343375;-0.036935523;0.0117045175;0.03907975;-0.03906195;0.00257636;0.087115176;0.050034836;0.06786396;0.16044107;-0.037919946;0.084992416;0.030052494;0.04220898;0.13423842;0.078351885;0.05937007;-0.038437366;0.046380915;0.028601084;-0.0147556495;0.05978335;-0.08402803
0.053111397;0.04965497;0.032755695;0.04479355;0.010888211;0.06653236;-0.00503546;0.08807908;-0.032363586;-0.0707477;0.05297607;0.0017675061;0.09908104;0.054922525;0.027923824;-0.06355096;0.13536558;0.01214492;0.018825773;-0.051247004;-0.021858433;0.064322256;0.01690538;0.08063159;-0.019407835;0.07816886;0.08073951;0.0045901616;-0.08122737;-0.045315936;-0.03166968;0.08062247;0.034809187;0.09559716;-0.00714013;-0.07918281;0.051383562;0.05283565;0.04147254;0.00074723875;0.048119612;0.019451762;-0.05975867;-0.00917935;0.0009368346;-0.022610364;-0.08110792;-0.045120973;-0.015322639;0.088167064;0.0004209254;0.052164957;-0.06365711;-0.03951528;0.028780987;0.00851691;0.071659364;-0.02685992;0.10805801;-0.038458604;-0.0035392141;0.033599067;0.06422126;0.10788874;-0.012278599;0.013627174;-0.002694323;0.083192065;0.060572654;-0.022446306;0.06906023;0.061339125;-0.03899826;-0.02312619;-0.011388581;-0.0004455486;0.06091089;-0.03662562;0.0009394323;0.11446219;0.085641034;-0.079498924;0.11282556;0.10382401;-0.010646906;0.03372839;-0.069654435;-0.14343126;0.08423896;0.06909578;-0.03600255;-0.040735766;-0.063122906;0.022224873;0.1019214;0.0726682;-0.07961214;-0.018763155;-0.02143577;-0.048823304;0.084163845;0.08428183;0.08277899;0.049048252;-0.03515219;0.020349596;-0.020204647;0.13053343;-0.0036902688;0.09074392;0.012871652;0.10020148;-0.027175998;0.07224055;0.14158274;-0.0128404405;0.081393175;0.010407953;0.009807655;-0.037760492;0.026390458;0.051425777;0.093864284;0.010126412;-0.01689102;0.029391414;0.0084224325;0.051034156;-0.023897052;0.05386821;-0.004378324;0.085920975;-0.024300706;-0.017398218;-0.05502789;0.061935287;0.057611324;0.09023861;0.043729927;0.00036560965;0.047104787;0.07287546;0.090128474;0.085457906;0.08317233;0.034030534;-0.055723112;0.061962746;-0.013076517;0.07126654;0.06398951;-0.005213685;0.03699006;0.031804126;-0.003583121;-0.032353427;0.07216829;0.11924122;-0.008760387;-0.07014972;0.039714903;-0.09235173;-0.04579115;-0.11306727;-0.039121207;0.0035100565;-0.017097924;0.06736097;-0.020928875;-0.036945507;0.008776291;-0.056008;-0.1142637;-0.04300648;0.08209618;0.00034874913;0.034638543;0.10627839;-0.061828222;-0.08803967;-0.09381215;0.040875707;-0.056236073;0.12861182;0.08219329;-0.0346633;0.06468342;-0.03489959;-0.0536291;0.0057252953;-0.052968368;0.06633386;0.08926976;-0.001441455;0.041223224;-0.10385536;-0.04085913;0.023945114;-0.047738727;-0.13382499;-0.018833604;0.01857056;0.04929747;-0.023744028;0.058947373;0.030408708;-0.08367515;-0.038039763;0.03129831;-0.052468292;0.072567575;0.084893525;-0.021938171;0.07730649;0.00089350017;-0.0649254;-0.029343333;-0.0057856697;0.21330498;0.046298373;-0.026560254;0.079571895;-0.0010775811;0.090611465;-0.050559923;0.04195277;0.03097491;0.017124308;-0.047198407;-0.091421284;-0.063072436;-0.037148546;0.05092958;-0.019337673;0.0009571154;0.11398352;-0.04848187;0.08983311;-0.041769132;-0.0075364164;-0.010857991;-0.05523034;0.08480477;-0.011296441;-0.035708923;0.119018555;0.14546491;-0.0015674691;0.11209919;-0.09357575;-0.0588389;-0.099652186;0.11342808;-0.0050165504;0.084920876;-0.029742645;-0.001209896;-0.0039487616;-0.06267874;-0.058865786;0.063560426;0.15299381;-0.04796188;-0.08243806;-0.0019172842;0.067275986;0.047216963;0.022783268;0.02276323;-0.01178589;0.02537699;-0.0023041032;-0.01718394;0.12524733;-0.09078552;0.09025674;-0.043456726;-0.014933094;0.06845708;-0.04989634;-0.05003739;0.018162727;-0.0640127;-0.025037628;-0.039761692;0.05992843;0.05742459;0.06152373;0.057044346;-0.052266095;-0.038170222;-0.022352237;-0.0022100115;0.08097635;0.059331473;0.03205338;0.043577064;0.096256144;0.029304367;-0.07027433;0.092133895;0.05183135;0.11234189;0.053541113;0.050187066;-0.024174647;0.018517502;0.077187225;0.019622518;0.00724633;0.06488175;-0.044447016;0.07910477;0.028463263;-0.030784773;0.018419467;0.076234445;0.012096527;0.006748561;0.028219363;0.08082299;-0.006925069;-0.026290946;0.014040865;0.076201;-0.022370467;0.013496167;-0.08358736;-0.015416244;-0.014614326;0.052834094;-0.0310625;0.009574671;0.10944057;0.03551543;-0.010495184;0.0101214545;0.089339845;-0.08989817;0.0586542;0.117370956;0.051307764;0.037325136;0.08569435;-0.042503547;0.02689627;0.030138768;-0.087541446;-0.05108995;-0.03914982;0.07140382;-0.05771931;0.025554126;0.05035679;-0.0141336825;0.063912086;0.07803457;-0.04218124;-0.020932207;0.032190997;0.0011983358;-0.057717167;-0.051610347;0.026730804;-6.179187e-05;0.004175773;-0.046620335;-0.02205312;-0.0245268;-0.04258076;0.10598938;-0.019231264;-0.08527565;0.021123819;-0.02945713;0.029357625;-0.030199008;0.07956003;0.08162482;-0.07294684;0.06268392;0.04994795;0.058544014;-0.026156005;0.053202316;-0.035994016;0.05769546;0.07680898;-0.0012895177;0.07650803;-0.0637058;0.12416586;0.04697267;0.029726101;-0.07563449;0.10479727;0.01439299;-0.044809006;-0.0011674998;-0.0079345405;-0.012627688;0.091363624;-0.10539491;0.12819555;-0.06385533;-0.07610615;0.023878066;-0.04312798;0.10527856;0.07587227;0.0122625055;-0.0076906118;0.030650597;0.040581327;0.037748292;0.05773483;0.07127894;0.03360338;0.016005522;-0.05701718;-0.0472677;0.054422095;0.10655623;-0.057120267;-0.06564433;-0.052591577;0.08411882;0.09513227;0.07496108;0.036969543;-0.06535354;0.058937564;0.026386999;0.1263984;-0.011968319;0.05179755;0.0932445;-0.022444656;0.012518014;0.024129665;0.061479557;-0.013971645;-0.0015221571;0.07544801;-0.05882165;0.07087058;-0.042497884;0.019234624;0.018759381;0.008580835;0.14363776;0.0004808491;0.031914245;0.064982176;-0.1110342;-0.052977476;0.016393756;-0.012597559;-0.04169978;0.06842028;-0.0028600325;0.011627447;0.041754737;0.0954984;0.096132785;-0.12196738;0.010086235;0.029210526;0.046911325;0.019802637;-0.16477047;0.0528724;-0.074720584;-0.09632285;0.011072099;0.025230376;-0.061137103;0.05382816;-0.03694873;-0.111562535;-0.0068910522;0.08941844;-0.111780785;-0.07025787;0.0483392;0.10515609;-0.030797739;0.051099434;-0.048311047;0.04397891;0.0411861;0.066658705;0.039574783;-0.01148446;-0.01333485;0.06338395;0.027501617;0.06219684;0.09792792;0.08609083;0.036146823;0.073747315;0.010983152;-0.009008129;0.08488533;-0.063544996;0.0130606545;0.07858923;0.004521687;-0.051041383;-0.07949365;0.016970351;-0.0234487;0.17681932;0.061629903;-0.040403914;0.035276957;-0.03457685;-0.071790755;0.122267574;0.07187028;-0.007732006;0.0879388;-0.048385665;-0.05574727;0.022275507;0.040533092;-0.039682116;-0.031817976;-0.017915644;-0.060234208;-0.03637335;0.017431982;0.011474904;-0.025058098;-0.012403499;-0.028810007;0.045012183;0.00748655;0.043154847;-0.056669373;0.088201895;-0.0017227689;0.07491529;0.122514986;-0.024388438;0.028751966;0.014939669;0.12331565;0.07721914;0.106820844;0.004720878;0.07169941;-0.01172631;0.03584969;-0.048399497;0.0075771757;0.003611811;0.029260255;-0.0143485265;-0.027214702;0.030136462;0.09363114;0.030128025;0.006352423;0.10360618;0.061957147;0.10377036;0.081191674;0.03656538;-0.022851115;0.043070525;-0.069853656;0.097059205;0.019397564;-0.06274502
-0.07429483;0.10044876;0.028476823;-0.05090264;-0.024670651;0.046777442;0.0017376142;0.050119795;-0.052350666;0.054393113;0.0012695526;0.024858113;0.080089256;0.041323293;0.041052144;-0.16225787;-0.047923766;0.10181745;0.1001683;-0.0017893757;0.07382986;-0.0153317815;0.12028519;-0.03205403;0.030543478;-0.020668598;0.02484227;0.10076997;0.0752262;0.008906594;0.08479499;0.06957887;0.07811476;-0.039876264;-0.1361452;-0.05735644;0.013550667;-0.014763509;-0.027528528;-0.06850552;0.042536937;0.080663554;-0.02337764;0.061115656;0.01608836;0.009483187;0.010600524;-0.06541855;0.00356542;0.012176604;0.09637442;-0.06576373;0.068247505;0.041904368;-0.024213731;-0.021204062;0.032854777;-0.03955613;0.02114938;-0.013912396;-0.013078733;0.030472532;0.09100185;0.118649974;-0.0068405014;-0.028025256;-0.03539684;0.06901494;-0.0037661672;0.013418038;0.04301106;0.09853371;-0.06957121;0.026077218;-0.024200892;-0.013269858;-0.051803082;0.056226004;0.0624639;0.13999178;0.0042124284;0.028310072;0.04386798;3.3702934e-05;0.06075408;0.020175429;0.056699265;-0.16567786;0.039765157;0.09953474;-0.07287625;0.05413582;0.023428846;-0.018250223;0.031021759;-0.02050506;0.010989793;-0.025789596;0.028054137;0.01913226;-0.015757458;0.0043360945;0.052038178;0.015757276;-0.03765361;0.015750248;0.108162455;-0.03331523;0.12310224;-0.0072001973;-0.029761631;-0.03219021;0.09021355;0.07926171;0.0045161196;-0.027023457;-0.0020463278;-0.023810076;-0.065800466;-0.014754027;0.11693244;-0.0143026905;-0.06138788;-0.018692669;0.0066668675;0.03629688;0.02014052;0.0005891836;0.010735757;0.0046602185;0.08912669;-0.085412964;0.01542933;0.0965821;-0.02280242;-0.062566034;0.04136812;0.12517719;0.011572422;-0.04785021;-0.02605828;0.059247743;0.03537127;-0.058009777;0.027500227;0.09925532;0.15521236;0.1108844;0.10204094;0.06346032;-0.0518352;-0.044596314;-0.050115988;0.07491682;0.007893668;0.05536657;0.039441153;0.052438434;0.04663405;0.086388215;-0.07505391;-0.19321728;0.116363324;-0.07637054;-0.14381017;0.06842326;-0.13267784;0.059962463;0.04079779;0.031795777;-0.074689284;0.02045016;-0.1133634;-0.040946063;-0.0089179715;0.07230443;-0.018206904;0.096351735;-0.102456726;-0.06729217;-0.1472392;0.093485646;0.06419524;-0.027264183;0.01058444;0.004388455;0.10577469;0.033928458;0.0101732705;0.062983304;-0.058349896;0.07061243;-0.036617257;0.095828146;0.042224444;0.0047531663;-0.044902276;0.09072224;-0.0052888026;0.0046619405;-0.024176024;-0.018558215;-0.034670837;-0.00884522;0.0761612;-0.045932166;-0.028768051;-0.010561744;0.07678567;-0.023873026;0.05960918;0.009373433;-0.02909003;0.10144393;-0.00022686529;-0.12109826;-0.13265139;-0.026606442;0.14197074;0.051445495;-0.031136837;-0.03157917;0.028405322;0.069512986;0.028142776;0.08308052;-0.040680688;0.08808692;-0.06271716;-0.058345377;-0.06393454;-0.065331094;0.058697846;0.002378788;0.051678073;0.025284711;0.02652158;0.06616489;0.03223921;0.010749456;-0.005679819;0.0015882659;-0.01914285;0.019975;-0.0052697235;0.0053749215;0.032879025;-0.025416033;0.044849478;-0.043267332;0.064848535;-0.032639593;0.023798758;-0.056132708;-0.0347256;0.0018747782;-0.0015116864;0.073757105;-0.008290324;0.09856908;0.075768165;0.12199254;-0.069161505;0.02441462;-0.11913372;0.046669096;-0.09073402;-0.10478502;0.076023795;0.021026695;0.05717916;0.10562364;0.008947711;0.14660183;-0.06662968;-0.043281477;0.07346832;-0.050787535;-0.029319702;0.035166845;0.019830035;-0.017990362;-0.01823627;-0.059266593;0.0041367896;-0.035125114;0.04255008;-0.026134804;-0.042832796;-0.03307234;-0.05661492;-0.1038837;-0.022894977;0.048244692;0.04144334;-0.032706816;0.04344426;-0.010864468;-0.052478362;-0.054587394;0.06236051;0.01716243;0.040940378;-0.040356148;0.038271055;0.046526637;-0.028726341;-0.00061500154;-0.013282705;0.027576132;-0.022421712;0.074877605;0.078254454;0.15095778;-0.084554985;-0.061572347;0.100758016;0.001741489;0.09964713;-0.05902037;-0.05068003;-0.020925624;0.05223176;-0.06925629;-0.00647284;0.003634549;-0.044165503;0.033751287;0.10268776;0.09110374;0.06035743;0.037100755;-0.0076009464;0.042573698;-0.020680925;0.049624193;0.054592956;0.057724223;0.00096254656;-0.003119867;0.021054877;-0.09434299;-0.08127138;-0.03464493;-0.0561342;0.0031590299;0.19092974;-0.054231897;0.06518345;-0.0539407;-0.07071319;0.105945505;0.05949959;-0.018782083;0.023492359;-0.05062216;-0.016904805;0.118413985;-0.0077192564;-0.017726276;-0.16334732;0.053242583;0.06508741;0.10326971;0.06408173;-0.024768053;0.045685865;0.073419325;-0.060075253;-0.013387431;0.13699669;0.07961674;-0.016512072;0.14524603;0.009088454;0.10462165;0.07917394;0.034355834;0.04475946;-0.038294833;-0.016360313;-0.0035767897;-0.04918128;-0.014629582;0.0575629;0.022706017;0.052500363;0.029913425;0.041325793;-0.045038436;0.084006585;0.09305929;0.06494436;-0.0058479295;0.10226023;0.078584276;0.04088333;0.020917164;0.028917495;0.045414455;0.05487984;0.027186513;-0.18151817;0.015454006;0.0709195;0.025302747;0.030344948;0.026767626;0.008358237;0.014158436;0.0939947;0.08532182;0.043175586;0.029118337;0.014585171;0.06707346;0.024243418;-0.021267988;0.07016005;0.067336306;-0.09257188;-0.02147056;0.06526463;0.013030606;-0.109689;0.017901966;0.047571234;0.05525324;0.0034342324;0.101239055;0.031683587;0.0636397;-0.058425594;0.11620637;0.032614958;0.0931889;-0.025568347;0.019039733;0.019858044;0.006970249;0.08588585;-0.007870879;-0.059849307;0.0050697885;-0.07374493;0.06324683;-0.037562985;0.057431836;-0.035808742;0.13374044;0.04735539;0.06856264;-0.024600329;0.024996474;-0.09077261;-0.015918812;0.08872347;-0.017680224;0.0051642354;-0.03982044;-0.0016969469;0.0014161349;-0.04009335;-0.038836367;-0.048824403;-0.026958587;-0.01531099;0.0013149588;-0.062105175;0.06586527;0.0050408035;0.06529405;0.058840748;-0.04186969;0.05859684;0.050789237;0.04141815;0.069119066;-0.03234542;-0.02608293;0.035663124;0.025384296;-0.0836483;-0.13443643;0.073878706;0.09055857;0.03452057;0.004101532;0.11773124;0.09759398;0.0026822817;-0.019592337;0.077517875;0.06106832;0.096531756;0.016361486;-0.07695205;-0.026125478;0.031596072;0.023912458;0.11242298;0.03195197;-0.032912947;0.0860769;-0.03168109;-0.005943011;-0.003145047;0.13816659;0.036085445;-0.036903095;0.02426909;0.10423351;-0.0015056909;0.15545024;0.01588517;-0.056636747;-0.019788077;0.026506213;0.049068443;0.08523713;-0.015747245;0.008293502;-0.051938;-0.04801799;0.06160385;0.058929373;0.045552816;0.023474215;0.024431812;-0.021908129;-0.08437799;0.087532975;0.00986406;0.00913591;-0.0430868;-0.044268485;0.04400973;-0.024488704;-0.015210276;-0.076233625;-0.080276;-0.02414769;0.05970317;0.07592124;0.11999515;-0.079018;-0.009187269;-0.01075672;0.08860204;0.068590306;0.033279005;0.0048418264;-0.07465031;0.077438064;0.06622494;-0.020752192;0.027842673;0.043478277;0.026399141;0.011181042;0.09745154;0.07222593;0.16522793;-0.04280566;0.059616968;0.097799614;0.023100995;0.14909704;0.020054134;0.0035890636;0.048247173;-0.001042584;-0.024484375;0.025330052;0.047077905;-0.081198856
0.05892796;0.061207198;-0.01408399;0.04432827;-0.010964771;0.06559189;-0.017313357;-0.033640344;0.0048855497;-0.045855924;0.10345177;-0.03157107;0.0666854;-0.01841609;-0.017171852;-0.0130144805;0.06802245;0.05911614;0.062126055;-0.046598103;0.09314889;0.03179183;0.09082835;-0.07787758;-0.030037314;0.0045540784;-0.043063447;0.06555845;0.015965555;-0.036028523;0.03403604;-0.004657953;0.02319575;0.0028186925;-0.12744862;-0.009681924;0.060600135;0.040144626;0.09289273;-0.023107044;0.076798804;-0.020410093;0.033613343;-0.049930286;-0.029249575;-0.13002175;-0.11129751;0.040243786;0.08832112;0.013733565;0.05593834;0.0046285675;-0.027500927;-0.043356013;-0.07911229;0.12380134;0.0036847177;0.04658365;-0.07555782;-0.030452874;-0.06649288;0.020529127;-0.013206688;0.12285684;0.053263173;-0.0011120106;-0.015300933;0.09815456;0.044487458;-0.07998023;0.06852427;0.12057543;0.026308455;-0.029982395;0.030594163;-0.022035692;-0.01875747;0.0091164475;-0.027997069;0.0791798;-0.032156054;0.017469151;0.051611334;-0.033103466;-0.06869619;-0.019501967;-0.043244913;-0.12609574;0.040704362;0.023243386;-0.06641023;0.0032175041;-0.11170503;0.12414445;-0.031130228;0.0057418714;0.029156333;0.015486944;0.061713766;0.102656536;0.042490777;0.057082627;-0.007384066;0.047297504;-0.0402224;0.070771106;0.050931543;0.08319009;-0.019793237;0.08452457;0.06904327;0.11250528;0.10709327;0.10626018;0.12904336;0.057246085;-0.029034395;-0.05688418;-0.09676323;-0.068886295;-0.011949162;0.104486816;0.08071245;0.07002611;0.06752569;0.061010733;0.04210697;0.036539253;0.02862056;0.008161149;0.030953666;0.00045480527;-0.03010602;0.055549655;0.01611965;-0.03751671;0.036989585;0.015275688;0.09787137;0.058202513;0.016179333;0.09913089;0.01108447;0.028264286;-0.0861187;0.0860824;0.026160311;-0.021193922;0.09904751;-0.051873527;-0.08763277;-0.028992698;-0.037794944;-0.011538652;0.02888012;-0.059926573;-0.09040883;0.0088418545;0.079143636;-0.044784185;0.01799528;-0.029153755;0.099816024;-0.066455916;-0.027352948;0.0036253992;0.030170862;0.05615564;0.082851194;0.08672613;0.024549846;0.053116873;-0.030973375;-0.037087347;-0.055715885;0.10748815;0.08037378;0.060002208;-0.071473;-0.021665562;-0.08543975;0.07290553;0.0050406866;0.10725906;0.018590493;-0.06137245;0.0562857;0.05422016;-0.08781525;0.06135942;-0.026424399;0.0069656805;0.055655092;-0.03509785;-0.0277958;-0.11914439;-0.019543564;-0.010645504;0.039992493;-0.11015929;0.08288059;0.0032977434;-0.0038795928;0.08129096;0.00085150567;-0.006465308;-0.16360733;-0.098576225;-0.024032725;-0.016408341;0.013523596;0.08718656;0.0382272;0.021532876;0.041281577;-0.052306935;-0.13292173;-0.052519824;0.117950626;0.02771142;0.03279923;0.094299994;0.049917907;0.09791285;-0.043414082;0.028360808;-0.047080506;-0.0042784614;0.04056049;0.08180016;0.045619383;-0.08501458;0.0037043057;-0.009004768;0.01255096;0.033310615;0.034395915;0.09979052;0.06792957;-0.11378741;0.03308596;0.076287225;0.072588235;0.028012037;-0.036713902;0.15271515;0.07683487;0.045786224;0.023295734;-0.03834356;0.066142134;0.020959832;0.014454386;-0.08160007;-0.020188102;0.04752715;0.032707244;-0.0041982303;-0.030731065;-0.052556545;0.053185508;0.09525271;-0.040992644;-0.01558041;0.0234224;-0.025457405;-0.082317285;-0.040378127;0.018217284;0.034987185;-0.039258074;0.043534294;-0.022682847;0.007998082;-0.051454123;-0.035911523;0.0018175473;0.05443712;0.077038795;-0.019968849;-0.00656608;-0.052155286;-0.103394285;0.032085378;-0.015194205;0.039379578;0.052327134;0.06528027;-0.054450702;-0.007565907;0.02034268;-0.08571781;-0.08400135;0.036112793;0.006203357;-0.06407525;-0.007013563;0.042232398;-0.026717018;-0.07320983;-0.06809226;0.0981922;0.092672415;0.01518782;0.08913798;0.05915698;-0.01631085;0.051843364;-0.026359528;-0.014069668;-0.014563098;-0.025807837;-0.036027405;0.056352194;-0.05490334;-0.041199155;0.0034631935;0.066700555;-0.004154734;0.020705251;0.06361261;0.03173719;0.035533182;0.090820566;0.032543834;-0.017947715;-0.034183636;0.031797178;-0.0024726905;0.03710579;0.034245428;-0.04402474;-0.124096036;0.011093732;-0.024694597;0.044904567;0.08676325;-0.05472596;-0.07978182;-0.06952997;0.1459946;0.043647967;-0.02743159;0.07891222;-0.001810056;0.007609331;0.009512379;0.028812468;0.026033537;-0.046415705;-0.033358254;0.027518146;0.04467999;-0.04656815;-0.061284263;0.0056607705;-0.06630677;0.018299755;0.057966426;-0.02615493;-0.03848285;0.010472632;-0.035523802;0.10563487;-0.1257526;0.041225843;0.0057229735;0.059417456;0.059590902;-0.068660416;0.027022833;0.087994024;-0.114940085;0.033760298;0.053126216;0.0145410355;-0.06348215;-0.044508543;0.03501194;0.0008773031;-0.060520563;0.085059606;-0.09020599;-0.055966232;-0.0063061914;-0.01099617;0.05194533;0.06886129;-0.027592815;-0.011858083;0.105516836;0.055110294;0.03631622;0.07045294;0.024449253;0.043416455;-0.0290849;-0.040110596;-0.0233297;-0.069227554;-0.08080942;0.010395917;-0.03603715;0.04445259;0.09617949;-0.07024536;0.0385532;-0.02835049;0.040723424;-0.06518535;-0.00013942085;0.056625433;-0.019764397;-0.06862972;0.06483195;0.0395902;0.022491785;-0.06703121;-0.019704772;0.07393942;0.05384421;-0.108010374;0.047538597;-0.048731007;-0.043915045;0.117688686;0.07519233;0.050207417;0.0023128837;-0.025705291;-0.055455748;0.10464083;0.061047446;0.01584574;-0.055628534;0.037617214;0.056870457;0.03497528;0.08169292;-0.020412415;0.014292324;-0.0024368493;-0.00044854992;0.108108476;-0.031928595;0.057560626;0.011630599;0.05224429;0.028259812;0.09512948;0.048857123;0.02300348;0.11230504;0.0203385;-0.10345377;0.046981294;0.030579887;-8.481069e-06;0.056959797;0.05917125;0.031909354;0.06862155;-0.010897769;-0.014723636;0.024944928;0.041607942;-0.031476535;0.07888608;-0.048558645;0.03132654;0.010512581;-0.017062794;-0.06450965;-0.09147063;0.059294842;-0.026860878;0.02208587;-0.0126468;-0.018781729;-0.15374038;0.04448311;0.10896737;-0.06839715;-0.080530636;0.10862729;0.038343795;0.08148424;0.052845664;0.03888243;0.030637883;0.042377252;0.08448724;-0.0244287;0.0145213865;0.01087198;0.08785329;-0.021765495;-0.06386797;0.05019478;-0.06193681;0.0057207947;0.022492617;0.06936204;0.02887913;-0.040324155;-0.018922187;-0.0033030987;0.08659974;0.06730967;0.048479304;-0.046444505;0.016388275;0.11353968;0.033992093;0.07746313;0.071446925;0.04305178;-0.01330551;0.043139923;0.13088271;0.067601785;0.04898779;-0.026639985;-0.06430289;0.057828266;0.054588746;0.069972664;0.12069627;0.009761892;-0.05164213;-0.07404482;-0.0629297;-0.025875233;-0.062215287;0.017950088;0.041479375;-0.029647093;-0.0026309993;0.020219184;-0.05656271;-0.008004094;-0.08747374;0.032886993;-0.011869957;0.07472257;0.017686028;-0.07506416;0.11540334;0.07073259;0.023404688;-0.0030978795;0.044799156;0.016424071;-0.047632363;0.047637146;-0.09262568;-0.08396322;0.12193735;0.09895041;-0.036318135;-0.034055796;0.0038944448;0.09020661;0.024157101;0.049193315;0.026284738;0.108545884;0.047342274;-0.025224347;0.024435649;-0.027088493;0.028681483;-0.055431556;0.09671275;-0.008362237;0.059232987
-0.08697111;0.096523635;-0.016832072;-0.09166742;0.014941549;-0.0015199976;0.01743415;0.00992755;-0.08396199;0.06993444;0.10434956;-0.11415716;0.05020047;0.078510486;-0.05381384;-0.022470435;0.13981764;0.015720233;0.021554604;0.060220018;0.039713047;0.02996239;-0.019706184;-0.016722476;0.079807594;-0.046180725;-0.12380702;0.10611358;0.06294986;0.07197086;0.009112443;0.07564919;-0.018775651;0.027566133;-0.026588926;-0.015594792;0.0056786244;0.009328932;0.06280791;-0.036358546;0.045435417;-0.022992756;-0.04671148;0.023355205;0.021850415;-0.021684658;-0.050896548;0.06892984;0.01895685;-0.02059069;-0.028937062;0.027331704;0.07696149;0.049951512;0.01137698;0.0020770682;-0.020052213;0.013079354;-0.010023727;-0.014088953;-0.06831493;0.118858114;0.06270109;0.13333638;-0.058885742;-0.022227429;-0.09629216;0.08239474;0.0017104596;-0.026719907;0.030596359;0.036873914;-0.05698217;-0.052290935;-0.027214773;0.024382412;0.041890077;0.0032311133;0.11714417;0.12425575;-0.062617294;-0.04531235;0.113076836;0.03622892;-0.070955634;0.0086925365;0.06695514;-0.040458966;0.11003866;0.09124779;-0.0393028;-0.008375682;0.023697585;0.045802917;0.07599539;-0.016265042;-0.0056158886;0.045170397;0.13329366;0.032134;-0.08084749;-0.033432916;0.020060629;0.08943722;0.027557865;0.05547573;0.077511;0.06973633;0.083451085;0.11105928;-0.034259804;0.12870306;0.086546235;0.10147;0.12250151;0.021100007;-0.09372588;-0.09406905;-0.095327765;0.029013455;0.047361474;0.08324404;0.04683726;-0.058548756;0.116846845;0.03371607;0.0756676;-0.030622048;0.11969867;0.056691147;0.048897043;0.02383557;-0.070304126;0.067218244;-0.008607378;-0.045368973;0.025284845;-0.07954004;0.0015799882;-0.0062239445;0.02395924;0.08493441;-0.01523141;-0.011159003;-0.09658852;0.061082054;0.1718202;0.09349509;0.08486732;-0.0012782194;-0.16670005;-0.05352503;0.08384067;0.103519484;0.094527096;0.0475163;-0.07147882;-0.025878957;-0.005808365;-0.018984135;-0.0060513727;-0.135357;0.022552596;-0.022577288;-0.11299817;0.004987642;-0.08611423;-0.023556627;-0.010767429;-0.021572005;0.088014245;0.101535074;-0.06468936;-0.045459718;-0.07503847;-0.0020375762;0.084296;0.06939014;-0.16045538;-0.07137311;0.00040182984;0.017411804;-0.041496523;0.08559498;0.058537576;0.059747685;0.08029972;0.073820546;-0.06520485;0.08983547;0.040634666;0.106669895;0.00023382767;0.043191336;-0.015472664;-0.04865785;0.025233474;-0.038874734;-0.0064157993;-0.056132086;0.063836165;0.068171814;0.10699402;0.10986749;0.07990161;-0.020572208;-0.04477293;0.058168028;0.040436264;0.05761608;-0.027951248;0.066147715;-0.074937515;-0.043795727;0.0815005;0.007970469;-0.0646921;0.022952931;0.13567334;0.032373518;0.06570244;0.05176406;-0.048837963;0.088675946;-0.054721773;-0.031793825;-0.011903633;0.07025467;0.014848311;-0.022979386;-0.045922533;-0.025139479;0.020564485;-0.0331894;0.0345929;0.059166346;-0.024709199;0.07410592;0.061729185;-0.12663402;0.06374457;0.01931463;0.045700535;-0.040608842;-0.09285755;0.070747845;0.024576422;-0.02418727;0.091687046;0.022282967;0.092199296;-0.042303313;-0.017251458;0.06398543;-0.09195939;-0.06467503;0.10052669;0.04300522;0.013724158;0.011320102;0.032406725;0.051804647;0.051476784;0.11150502;0.058768265;-0.017062785;-0.025912313;-0.08839665;-0.050015423;-0.11098033;-0.07915106;-0.045386612;0.0780181;-0.0057617896;-0.1286304;0.01798225;0.07250054;-0.047733717;0.07132421;0.06998574;0.08382399;-0.004020094;0.0046785586;0.066626556;0.049601898;0.024905946;0.11377233;0.034023777;-0.041658472;-0.0008692329;-0.024302838;-0.08268724;0.042470586;-0.03236073;0.13459693;-0.0014363341;0.04612214;-0.024561396;0.022319937;-0.03288884;-0.05369663;0.005554772;0.06727914;-0.013223981;0.035355568;0.026875766;0.05167964;-0.05987133;0.009753251;-0.16917574;0.06917122;0.10351689;0.060893957;-0.010603393;-0.12141836;-0.049514685;0.032660253;0.047807515;0.006275787;-0.0024665466;-0.039243527;-0.10652703;0.024869082;0.05314251;-0.049471214;0.033687584;0.054374807;0.038633917;0.01690098;-0.04757706;-0.044237595;0.03238673;-0.0877897;0.108670354;-0.06803638;-0.008295505;-0.046413805;-0.06501946;-0.09261502;-0.06651584;0.07793464;-0.0031070746;-0.120421015;0.08769582;0.08249738;0.06812594;0.10693461;-0.029615074;-0.030468458;-0.06758543;0.01815291;0.012538644;0.038557004;0.04778852;-0.05994506;-0.0015069968;0.040699385;0.1073707;0.08465613;0.010503145;-0.0014371335;0.057230268;-0.10652623;0.10616397;0.025574217;0.062530115;-0.031689424;-0.039987206;-0.042675037;0.08904003;0.015612389;0.008189513;-0.095885955;0.076693;0.08737184;0.05964044;-0.0009159884;-0.027244307;0.05522321;0.06385103;-0.0072689448;0.054792423;0.009308888;0.09710995;0.007521758;0.004101978;0.013582003;0.019112017;-0.0036612416;0.00076837605;0.088327795;-0.026354738;0.06347947;0.04075833;0.019413581;0.05286186;0.09815694;0.03471859;0.12125117;-0.008297578;0.06500082;0.028203147;-0.018980052;0.13807534;0.10759114;0.06911825;0.053970095;-0.078229725;-0.0023752789;-0.0087677995;0.062435634;-0.05241463;0.05370466;-0.06844856;0.0074276216;-0.022589058;-0.055471893;-0.10171766;-0.006739679;-0.046896648;0.058058977;-0.09143338;0.010590153;-0.04309068;-0.020609599;0.00044227683;-0.034338653;-0.03282449;0.0969291;0.08303115;0.05076385;0.04750678;0.07502281;0.09307093;-0.08013518;0.002162044;0.05412914;0.0431604;-0.049565293;0.054371797;-0.037771996;-0.008002387;-0.055975016;0.034238737;0.042897325;-0.07550798;-0.14245528;0.04199993;-0.09742935;-0.009228918;0.070612185;0.03917151;-0.02446984;-0.015211024;-0.13763292;0.017495526;0.08783318;0.11536193;0.037286825;0.0019505176;-0.0003646903;0.06825506;0.042933635;0.008987997;-0.026972124;0.045094013;-0.06046918;0.08108867;0.020685608;0.051830195;0.0075992458;-0.061740763;0.07141644;-0.08533024;-0.045157723;-0.025792874;0.03413576;0.072047256;0.015175397;-0.11378713;0.039438587;0.04246856;-0.08277816;-0.16938877;0.0362299;-0.026660243;-0.004477765;-0.03791027;0.11249019;-0.014906642;-0.02578418;0.10758576;-0.033346225;-0.06355176;0.0920209;0.0007642844;0.025281927;0.060801215;-0.08487289;0.0150956195;0.019659478;0.012377176;0.06596831;-0.06319086;0.04818625;0.0064083426;0.07258291;0.045927458;0.102720074;0.09954945;0.07836176;0.04265161;0.062694736;0.09034374;-0.009401925;-0.074535385;0.02964329;0.15769178;-0.00809715;0.057419986;0.09858445;0.0014482152;-0.007521508;-0.100142606;-0.056444194;0.033755418;0.009343414;0.0038401214;-0.16461077;0.029460227;-0.00035213865;0.082188055;0.014104408;0.00688143;-0.06389125;0.08814953;-0.014318023;-0.013015205;0.0067560887;0.087427504;-0.098569386;0.033684745;-0.08580376;0.02034354;-0.011190897;0.015809763;0.00694146;0.07849631;0.09911329;-0.050671052;0.00853224;0.060863677;-0.05143787;-0.08394075;-0.0885583;-0.102570616;-0.0025761488;-0.00061314105;0.008195057;-0.1400172;-0.021419974;0.047889918;0.20214488;0.063836;-0.06864669;-0.024805918;0.090762496;0.12502632;0.12539057;0.118973926;0.0038355368;-0.030702624;-0.09994246;0.06447905;-0.021494152;0.06637481
-0.01756192;0.07847879;0.027364114;-0.076242104;0.08155567;0.10804433;-0.0032670228;0.08847517;-0.045177903;-0.0720628;-0.044542726;-0.06339773;0.05289289;-0.017172834;-0.013099529;-0.011005907;0.04652885;-0.021666719;0.0025254006;-0.09320533;-0.0021410678;0.0024811958;0.05768921;-0.122899435;0.05774844;-0.04895495;-0.06069432;-0.010985609;-0.054113694;-0.027816828;0.035242073;0.08004002;-0.011378505;0.06291707;-0.05459301;-0.0028601033;0.09801523;-0.012561361;-0.035126615;-0.0058750072;-0.048039876;-0.07108228;-0.057744693;0.060115013;-0.0476591;-0.040083684;-0.1460507;-0.0267038;-0.012497318;-0.00065601815;0.085681535;-0.024958335;0.073866196;0.06205391;0.019131241;0.18156175;0.025971962;-0.023667468;-0.10029588;0.0006091227;-0.007278682;0.03411792;-0.015547487;0.08774385;-0.05763275;0.017120378;-0.1374125;0.04985992;0.018120589;-0.020021886;0.14975598;0.0036986016;0.06627968;-0.060002524;0.07225814;-0.030945746;0.1078189;0.047860596;0.10895625;0.024351887;0.054359738;0.031743217;0.06722166;0.072546594;-0.0353518;-0.0151913995;-0.091133595;-0.049895737;0.032151133;0.06627898;0.089621246;0.11094576;0.05990041;0.005994311;-0.01783517;0.033899173;-0.088165246;0.04662577;0.16957602;-0.0022986522;0.04565473;-0.05561197;-0.08228912;-0.019679654;0.026541831;-0.05463304;0.09804063;-0.0102557205;0.014670011;-0.006670603;-0.067139946;-0.018453985;-0.043893363;-0.005549765;-0.019684905;0.014652802;0.03996695;-0.028889023;-0.14050171;0.022544023;0.051493883;-0.011641258;-0.023526007;0.031961653;0.026959268;-0.03938412;0.14835511;-0.0245898;0.049466066;0.047103222;0.009339261;0.16519788;-0.08210105;-0.016961336;-0.031130724;0.055742502;-0.0009243829;-0.040730663;0.057394788;0.013403993;0.12734355;0.09004888;0.06893236;-0.052469958;0.017645376;0.06030022;0.16873753;0.005666373;0.014134878;-0.056062207;-0.034805045;0.12709475;-0.023596046;0.09349498;-0.031036502;-0.06778211;-0.041289072;0.09123933;-0.051261425;-0.045980804;-0.0037472448;-0.010663936;-0.0246968;-0.12717326;-0.11416455;0.02839306;-0.025566185;0.06372465;0.0048896805;-0.040382754;-0.034009233;0.029871674;-0.04792944;0.026565513;0.056875754;0.04193904;-0.026215589;-0.07043266;-0.13308151;0.05340402;-0.13372763;0.07846388;-0.017659413;0.08667535;0.03935294;-0.02999942;0.04590711;-0.031275757;0.061102867;0.09322516;-0.056257468;0.11034085;-0.057722945;0.023209779;-0.09526719;0.018268354;-0.055566467;-0.04789643;0.07889367;-0.13795319;0.0080174375;-0.07872629;0.10491509;-0.009867755;-0.12542775;-0.052929867;0.037321817;-0.075537406;0.036817256;0.045608137;0.031911347;0.029671678;-0.12697154;-0.049616788;-0.0013889327;-0.10922676;-0.006683183;-0.04057443;-0.02190131;-0.030148154;-0.059309218;0.05205975;-0.057888586;0.048152253;-0.050328568;0.04250218;-0.029388295;0.07554129;-0.0212212;0.07174681;-0.018142978;-0.0033671996;0.060982343;-0.023247197;0.07328247;0.107368566;0.08810318;-0.024075307;-0.026812017;-0.020073486;0.047727942;0.0070350314;0.07339679;0.024003228;-0.10482302;0.11160827;0.16728958;-0.07799842;0.068850525;0.0070729563;0.038006514;0.027740113;0.010550012;0.0764099;0.045324188;-0.06997253;0.04601559;0.05080529;0.037635323;-0.082904205;-0.05129662;0.1359261;-0.047007497;0.03509887;0.023981586;0.07965771;-0.090713404;-0.058827225;-0.032512944;-0.10067092;0.056549836;-0.007130058;0.08559663;-0.028178966;-0.04358399;0.10662525;-0.07884606;-0.03880268;0.048378572;0.020995626;0.033034563;0.017097179;-0.093837485;0.071105026;-0.044143427;-0.034056917;0.06987066;0.106402025;-0.06938356;0.033373315;-0.025820805;-0.015910115;0.015259032;0.0097499825;0.15368395;-0.0033406033;-0.024630355;-0.020611031;0.07626502;-0.0539929;-0.051535416;-0.054605447;-0.0072236173;0.054344878;0.19020006;0.05425596;0.11443856;0.04275028;-0.07276751;-0.034640808;0.123253606;0.009427617;0.086040564;0.03666245;-0.14198032;0.005694434;-0.023579456;-0.037956204;0.017920893;0.06437958;0.03283409;0.15257704;0.013567541;-0.00045830963;-0.05121735;0.012781589;-0.010619916;0.083915316;0.016473694;0.047885306;-0.020562546;0.06731224;-0.03582427;0.103756055;-0.03613989;-0.101417825;-0.0035584068;0.015376596;-0.017256515;0.023276746;0.029845938;0.018572858;-0.0040329723;-0.048771;0.03043887;0.07102493;-0.025238674;-0.08659849;-0.0787466;-0.047006954;0.054877248;-0.0004047679;0.11750365;0.007354634;-0.0135068325;-0.038086455;0.019413996;-0.012709517;0.10918821;0.0321552;0.02748822;0.01711659;-0.06586902;0.109130695;-0.06400271;-0.018795224;-0.039740812;0.077288635;0.17957188;-0.06986184;-0.027783051;-0.044311848;-0.093340084;0.06220515;0.024211785;-0.039761417;-0.055268746;-0.15078628;-0.052749712;0.035557214;0.042933315;0.028656526;0.026574021;-0.021286728;0.09495466;-0.035405193;0.028871732;0.048488893;-0.02471217;-0.094912745;0.038418945;-0.050055694;0.051187415;0.04028069;-0.030124435;0.05380119;0.0007319751;-0.032275964;-0.027753336;-0.090909295;-0.03921268;0.14265731;-0.079676695;0.12026213;0.0028998205;-0.049764663;0.096695624;-0.0365018;-0.026598103;-0.03718444;-0.02865835;-0.04692367;-0.04490239;-0.02741337;-0.06235658;0.033130288;-0.00478609;0.025778774;0.11700765;-0.034092013;0.10574357;0.016720012;-0.021979803;-0.041134693;-0.13300405;-0.033479653;0.0003219587;-0.04986371;0.057183668;-0.063608244;0.020356882;0.021478755;-0.07021468;-0.0007189801;0.08192549;-0.029706316;-0.008481909;-0.007961827;0.05714906;-0.007193402;0.004128416;-0.030675566;0.01954239;0.00086416584;-0.03511757;-0.024044687;0.10951859;-0.03269873;0.04546681;0.09021462;0.1699419;0.035161145;0.023700252;0.10750061;0.0110677;-0.022603292;0.061587326;0.030802319;-0.08001567;-0.09005002;0.093995005;0.121952;-0.08693542;-0.06543308;-0.061386704;0.014229541;-0.07616891;0.104586646;-0.010359922;0.038708054;-0.02437177;-0.021882866;0.023278672;-0.003751562;0.056935817;-0.008515022;0.0031986139;0.08572638;0.09463001;-0.04497531;0.028525336;-0.023866987;0.05421801;-0.0434489;0.034156512;-0.04134414;-0.029613512;-0.0055107647;-0.03709425;0.032820787;-0.045188397;-0.03885944;0.018976497;0.03251345;0.06216475;-0.040283274;-0.037296638;0.014000807;-0.05467279;-0.006809051;0.020520238;0.059848316;-0.049950816;0.028860813;0.051708978;0.018503545;0.016155437;0.17496258;0.06826093;0.096509345;0.13648564;-0.028760403;-0.030504031;0.06596054;-0.076137304;0.038828067;0.04051638;0.09128927;-0.014272275;0.05772169;0.06791958;-0.0005153677;0.06980293;0.10291942;0.03543873;0.019538822;0.05185478;-0.020861108;-0.06821192;-0.08237192;0.06066785;0.060809124;-0.06686365;-0.022638904;0.020911075;0.032642465;0.066630706;0.039217122;-0.14666562;-0.04194074;0.007950711;-0.018005764;-0.03742392;-0.06337838;-0.058507096;0.14007887;0.035101794;0.06381304;0.07855444;0.008619795;-0.0015281762;-0.00957004;0.0117310835;-0.037012167;0.016653098;-0.17675012;0.08189666;0.0029248055;0.0128007;-0.069323964;-0.04964522;-0.051808972;0.08905266;-0.01695846;0.0397071;0.03485906;0.04854606;0.10542082;-0.08179974;0.14200594;-0.046249136;0.08427399;-0.03672752;-0.052014463;-0.009285491;-0.080502376
-0.07155631;0.12325672;-0.009727542;-0.0167144;0.03731893;-0.05455557;0.0359327;0.10814509;-0.08174223;-0.08257483;0.016320808;-0.00048121208;-0.05817089;0.12355029;-0.051538866;-0.07239635;0.063693665;0.063369706;0.00096999475;-0.06656002;-0.006174411;0.05522709;0.06472814;-0.077958144;0.04106624;-0.053588077;0.066065304;0.032914296;0.060852937;0.046948813;0.013055364;0.030224945;0.024793893;0.037257675;-0.08746709;-0.08493713;0.049686823;-0.04061135;0.011762512;-0.045864742;0.0775593;0.02868811;-0.1480898;-0.044860683;0.07777059;-0.065156356;-0.17552266;0.057974517;0.0750669;-0.028014606;0.039658997;-0.05156029;0.03392612;0.046503637;-0.06390387;0.095616646;0.07523019;0.030623408;-0.0072662043;0.07564325;-0.039831202;0.0825951;0.032964982;0.11831075;-0.088586375;-0.029241629;-0.035280857;-0.05749598;-0.02836417;-0.022956522;0.05798685;0.07747457;0.033582944;-0.05233501;-0.034514677;-0.007828254;0.09235675;0.0006220602;0.057171565;0.043275326;0.051553886;-0.052224044;0.023043992;0.04469976;-0.11828939;0.005128646;0.014354587;-0.09328272;0.1262352;0.0005576351;-0.024952862;-0.020805806;-0.11852874;0.016677225;0.10617839;0.06069813;0.020359676;-0.019293647;0.018760428;-0.034460716;0.06536332;0.019016312;-0.074147984;0.014011132;-0.0013908148;0.07275269;0.0050810548;0.16480957;0.03245338;0.13253994;0.059363607;0.080143705;0.084048636;-0.047675204;-0.02156739;-0.031309694;-0.0043352502;-0.13601072;0.007844438;-0.010630663;0.0629634;0.0055380617;-0.0037942978;-0.013273044;0.08965224;0.05645738;0.17541786;-0.0026420625;-0.0041139848;0.060667593;0.04011101;0.10022925;-0.09689632;0.07467839;0.014523189;0.06048501;-0.05817503;-0.14623286;0.104550235;0.005558717;0.054065015;0.058219094;0.06314798;0.079803966;-0.10039172;0.01890651;0.11356604;0.08530055;-0.080137186;-0.01604703;-0.08718639;-0.0023178125;-0.035205852;-0.0073709846;-0.004350407;0.029165847;-0.11839959;0.077764496;0.026941853;-0.036244225;-0.0196251;-0.11613606;0.086814076;-0.103312455;-0.016387012;-0.038842283;0.048462387;-0.021432517;-0.037695266;0.0724306;-0.0377435;-0.047402367;0.04347592;-0.080088355;-0.012379642;0.05138514;-0.0125438655;0.039179433;-0.05751075;-0.004558565;-0.09402164;0.02286109;0.032164447;0.10385873;-0.053605467;0.026983017;0.047836963;-0.028028687;0.05473027;0.10283911;-0.09570439;0.03997577;0.0066340943;0.11824771;-0.012682912;0.02402078;0.038894776;-0.09059113;-0.008359306;-0.0409106;-0.012050752;0.016089201;0.06558391;0.056189477;0.044544987;-0.04385418;-0.1288283;-0.028488396;-0.054854847;0.004508718;0.010510464;0.061808124;0.007526424;0.0904023;0.121536374;-0.009403327;0.018822188;0.14660273;-0.0032982111;0.051129926;-0.01882495;-0.054125536;-0.03890283;-0.033179417;0.023543146;-0.007501312;0.060252048;0.024147661;-0.020963633;0.017484765;-0.03004098;0.057676215;0.059881635;-0.035975844;-0.040749747;0.1422808;0.01765193;0.05603002;-0.01860684;-0.1170741;0.083404236;0.036330357;-0.057151277;0.10174819;-0.002820453;0.18147986;0.15795085;-0.08659345;0.08016211;-0.043207224;0.11738852;-0.009101253;0.07777087;-0.016921256;-0.049231622;-0.030737853;-0.027447758;-0.08119071;0.03477829;-0.028771358;0.03800674;0.12439887;0.053273942;-0.07230518;0.06211175;0.08889955;-0.09899721;-0.033612598;-0.06472831;0.011874145;-0.026880596;-0.009909327;0.0855426;0.085123464;-0.12795864;0.010197177;-0.0066630766;0.03623439;0.103268445;0.11919488;-0.00076091615;-0.07747996;-0.061723202;0.07696564;0.111263774;0.0054990835;0.17981967;-0.0078004333;-0.08912081;0.014290977;-0.054655008;-0.07352284;-0.0671877;0.08382678;0.052094735;0.010474791;-0.05596208;0.036417857;0.0155878365;0.04017431;0.03970095;0.011185624;0.104085654;-0.008591574;0.13075024;-0.037821967;0.09572016;0.06645016;0.03880605;0.052814372;0.07950254;0.10063594;0.014240397;0.059327923;-0.0747201;0.023200022;-0.006831531;0.07395813;-0.019051608;-0.06770582;-0.0477438;0.061550997;-0.04654254;0.12064482;-0.07298928;0.06850071;-0.0738077;0.07875599;0.076658696;0.038446113;0.08566268;0.06040457;-0.03562871;0.09889374;0.03412426;0.0022465156;0.0047491533;0.009715109;-0.109942205;-0.053429235;0.12668379;-0.09980553;-0.024239263;0.0057358127;0.09141128;-0.014573297;0.02751305;0.02022637;0.04482646;-0.013178946;0.056313213;-0.061718524;0.14188048;-0.0406267;-0.022159414;-0.06105316;-0.052380472;0.010375399;-0.015078478;0.01544713;-0.032049928;0.047579292;-0.07988247;-0.029440815;-0.055671528;-0.07045168;0.08529791;-0.025672847;0.10798186;-0.07216368;0.052379295;0.08748121;-0.04830004;0.016396897;0.030562943;-0.03268143;0.0013145049;0.0051331786;0.0589776;-0.068857424;0.033819925;-0.039951984;-0.0037590049;0.0796796;0.002513214;-0.03469437;-0.025097925;-0.067036435;0.06891323;0.006245583;0.09707935;-0.059016556;0.0010055047;0.053907212;-0.10144617;-0.07496957;0.12357602;0.051781747;0.06762486;0.055140268;0.069947444;-0.0015545271;-0.06792888;0.041752703;0.0176131;-0.0073758573;-0.03207073;-0.033671405;-0.10261272;-0.021079428;-0.050666615;0.008373356;0.008443095;-0.033988573;-0.019843813;0.092425264;0.023241542;-0.02462922;0.02745359;0.078297555;0.10222047;0.06182722;0.07766107;-0.0060309144;-0.13839203;-0.09460823;0.055168834;0.050214663;-0.020249726;0.048679035;-0.0029894656;-0.0020413084;0.051156495;0.1171966;-0.0025143037;0.074998006;-0.014627868;0.056013122;0.03591121;-0.033599533;-0.039923463;0.00987058;0.06065755;0.06824226;-0.0022900368;-0.067077406;-0.087338194;0.0032227603;-0.067442544;0.08625865;0.087599866;-0.002131605;0.123188466;0.07463002;-0.110119596;0.029127281;0.034966353;-0.109340884;-0.10021371;0.051246062;0.05861752;0.07707603;0.057464957;-0.046519812;-0.041377306;-0.019387936;0.07371271;-0.015308819;-0.09656946;0.009062828;0.05976408;-0.0033945679;0.039655834;-0.1443754;-0.038465224;0.012334391;-0.07998006;0.0111016;0.02326576;-0.0971627;-0.05517921;-0.021756567;-0.0037800851;-0.08052034;0.0046117012;0.033691306;-0.0650537;-0.0059934673;-0.00520124;-0.009502841;-0.0710796;0.095648006;-0.03791903;-0.053195734;0.06461358;0.041792434;0.012627348;-0.0029639357;-0.033410147;0.079451956;0.02318336;0.06481352;-0.044934466;0.020569902;-0.04197962;-0.008620184;0.0442816;0.12575762;0.0817751;-0.025142293;0.12107971;0.06580102;0.07707896;0.05845996;0.08148219;0.028818669;-0.110409416;0.11149294;0.023180578;-0.07589636;0.06855929;0.062553436;0.03795168;-0.038016994;0.051301945;0.04672249;0.031132048;0.09080184;-0.121149346;0.037147097;0.0763701;0.09938421;-0.12563457;-0.058248688;-0.08225083;0.012310592;-0.053164937;-0.039597675;-0.0845057;-0.026168684;-0.08963109;-0.075659156;-0.023159524;0.05402192;-0.02613686;0.15057552;0.0560342;-0.045667443;0.016431;0.008006309;0.0053930325;-0.06324623;0.09162397;-0.031243846;-0.030769065;-0.15204681;0.003484016;-0.044698477;0.039779082;-0.02780778;-0.045637548;0.014795783;0.06293929;0.01916744;-0.04620327;0.09177604;0.12337617;0.08057092;0.08158017;0.03467826;-0.06561912;0.0062824385;-0.18552329;0.02391503;0.036050435;-0.050954442
-0.018948028;0.093994;-0.04515587;-0.061744705;0.08570163;0.06486665;0.027987648;0.09759511;-0.067711756;0.058588818;0.00028694235;-0.14043194;-0.01659161;0.04582181;0.042339876;0.017809732;0.041362014;0.007834931;-0.022089005;0.020780398;-0.027755218;0.04736946;0.014885797;-0.06688879;0.0061278148;-0.065988585;-0.055776216;0.026868997;-0.01891973;-0.026230045;0.014594503;0.056515783;-0.052179545;-0.023181332;-0.014769502;-0.06325778;0.053747203;0.05160557;0.081573665;-0.07062219;-0.038700715;-0.0862471;-0.0026763694;-0.021735579;0.04549706;-0.085830726;-0.09734461;0.03205928;-0.12135768;-0.010608487;0.09936737;-0.066179715;0.06302076;-0.010205433;0.011502252;0.08848633;-0.02533094;-0.025660958;0.023986757;0.09489086;0.057537653;0.08828957;0.051519323;0.14354485;-0.020986559;0.047709517;-0.060575902;-0.13218243;-0.104395494;0.042369273;0.01183495;-0.018576477;0.060931545;0.076906316;0.018711379;0.047017645;-0.062412918;0.03545358;0.013964427;-0.0033465214;-0.059920788;-0.0726054;-0.07873733;-0.043087065;-0.121423036;0.1458029;0.06728614;-0.108008236;0.03277236;0.004578832;-0.00031059806;0.11554416;-0.019421369;0.08897397;0.01499852;0.030886339;-0.06260713;-0.050169114;0.1562746;-0.019771742;0.12781969;0.04470713;-0.10290152;0.021735262;-0.026828177;0.05354611;0.09169937;0.06920338;0.02970871;0.11302718;0.034981854;0.15223101;0.0703662;-0.03571435;0.117685735;0.0007013625;-0.03880939;-0.13321646;0.09531906;0.020105988;-0.04685353;0.102772124;0.12502357;-0.06461436;0.06419341;0.015980216;0.05543037;-0.10852379;0.08258085;0.04712324;0.11707918;0.19188772;-0.052964985;0.101358816;-0.005321338;-0.092750065;-0.019268673;-0.03273643;0.009653042;0.015799273;0.037795518;0.061743688;-0.025078733;0.010865093;-0.08479316;0.08905666;0.09967166;0.010611796;-0.1529269;0.004292009;-0.045032717;-0.096702166;0.10050767;-0.013421888;0.026843037;0.094793744;-0.00033338438;0.06694481;-0.026969828;0.009578132;0.05757359;0.0014869175;0.017254159;-0.014239184;-0.12572265;-0.008897816;0.018302629;-0.041537497;0.022373078;0.057294093;0.07650903;0.027441025;0.03409484;-0.06173004;0.061198235;0.050473887;-0.019119833;-0.0055667325;-0.07585132;-0.014365046;0.05266205;0.048347376;-0.045033123;0.08851861;-0.16436014;-0.05387901;0.10921175;-0.07261845;-0.07014772;0.003438489;0.02706525;0.106684506;-0.04752954;0.054811634;-0.024383346;0.068488866;0.06699096;-0.01139534;0.017266868;0.059567187;-0.023350932;0.06662392;0.0852065;0.030933201;-0.094798625;0.047583792;-0.089545004;0.07560845;0.015083299;0.09288288;-0.099983394;-0.05596931;-0.059451666;0.057741884;0.11041998;0.06567729;-0.07335938;0.010728066;0.04192441;-0.01589965;-0.016311582;-0.08735662;-0.01091169;0.12982284;0.024221186;0.021660535;0.110431455;0.020512808;0.025145974;0.038066044;-0.03995792;-0.07463013;0.09462848;-0.085853055;0.051167116;0.042059362;-0.047883105;0.015757231;-0.007403348;0.011854403;0.07550914;0.010207867;-0.024169879;0.085902505;-0.06242462;0.0668151;0.05436922;-0.077525765;-0.08627136;0.043458715;0.14358641;-0.042488746;-0.07642216;0.020444164;0.009837698;-0.09455789;0.086001016;-0.083902255;0.056654077;-0.051414385;-0.028680181;-0.010234903;-0.10530021;0.026962185;-0.07818813;0.1427363;-0.15962164;-0.005531928;-0.020566305;0.007871229;0.021789925;0.11818677;0.08229127;0.01873397;-0.016292443;0.010656216;0.0808241;-0.03568438;0.06696974;-0.023487201;0.13618332;0.07236459;-0.03237697;0.02643427;0.03913773;0.14024135;0.046757504;0.09412381;0.014781356;-0.03776647;-0.009801835;-0.13906449;0.0922779;-0.0043081916;0.15272382;0.0144173;0.09154372;0.072277375;0.077896684;0.058889996;0.013899491;0.07707124;0.10470667;0.12580049;0.0932231;-0.009740651;0.1468117;0.063845076;-0.007899973;-0.052175496;0.059143238;0.07016876;0.084709;-0.04357516;-0.031429328;-0.04118731;0.040482655;0.07502574;-0.036479566;0.06939049;0.096434854;-0.0010055712;0.0077254125;0.12548348;0.033400066;0.06274816;-0.010569699;-0.064772114;0.026940588;0.011480244;0.07325018;0.112114;-0.13525903;0.06552424;-0.012633816;-0.07171747;0.032313995;0.02462227;-0.07779286;0.02328584;0.07037818;-0.06459638;-0.0998865;-0.09096584;0.050557606;0.011004839;0.068273276;0.08366126;-0.034788188;-0.09832501;-0.057981346;0.07383313;0.17579779;-0.0018494602;-0.03031288;-0.032664705;-0.021255963;-0.027439963;0.10123912;0.0026904666;-0.06768234;0.05221461;-0.18240626;0.0937388;-0.018241689;-0.0695481;0.014485436;0.058500107;0.13179347;0.030165046;0.06456615;-0.0073463754;-0.004618709;-0.0698842;-0.011332246;0.060846213;-0.021165911;0.05993374;0.03430537;0.005267325;0.011832143;0.06327295;0.0011538479;0.08010119;0.122151546;-0.01552165;0.00622249;-0.03035872;0.031202417;0.041925773;-0.02727331;0.057105646;-0.008154949;-0.038351536;-0.055970162;-0.009140182;0.07998501;-0.031166272;0.12047502;-0.07020469;-0.049017876;0.024571484;-0.08877139;0.07933033;0.105934195;0.0344116;0.08182072;-0.0049165604;-0.13931286;-0.077258855;0.015355327;-0.012245595;-0.005000358;0.0101245055;0.03821365;0.01654589;-0.054692462;-0.047614984;0.12202591;0.042345524;0.060611606;0.024248332;0.06980893;0.096897796;0.018284734;-0.09526591;0.0053877477;0.06534845;-0.01080335;0.023499424;0.032040812;0.03748736;-0.026607824;0.022636293;-0.04437641;-0.03567531;-0.009988245;0.007403811;0.060620293;0.10324524;-0.1133944;0.015765887;0.02967073;0.17515987;-0.029502999;-0.028262204;-0.12245671;-0.07077422;0.02215352;0.09063225;0.22226469;0.03360565;-0.004524956;0.012609704;-0.027753279;-0.0916429;0.053043433;0.11396148;-0.083312616;0.06267091;0.031139338;0.047599625;-0.08318485;0.0049149357;0.10124895;-0.06577499;-0.0025597417;0.053876102;0.05356603;-0.03697916;0.10490281;-0.08411486;-0.07672764;-0.09298597;-0.045358565;-0.14088887;-0.05125915;0.04313843;0.041323993;-0.02980065;0.013924147;0.101766504;-0.06911191;-0.12777247;-0.039081626;0.0896143;0.04524434;0.008587226;0.046377625;0.088044584;-0.10709234;0.030264862;-0.054044697;0.07204873;-0.048988245;0.055805497;-0.008802431;0.021667698;0.02183001;0.10099671;-0.10991156;0.012179322;-0.00067839766;0.053122155;0.10691573;0.05669018;0.02070461;0.19788636;0.11271581;0.041636705;0.10451021;0.09109569;0.14936768;0.0374826;0.016355569;0.020548452;-0.0017687829;-0.02858365;-0.05055803;0.035968777;0.07112743;0.0885653;-0.056790773;-0.05412378;-0.058231156;-0.10328136;-0.07602284;0.07648486;-0.13212864;-0.0021113676;-0.0544201;-0.05438693;-0.091556594;-0.08240985;0.037804592;0.010263536;-0.017371895;-0.04202327;0.10711418;0.10425607;0.008613487;-0.086264074;-0.09753858;0.04122004;0.05218973;0.04342158;0.027687598;-0.074414834;-0.033691157;0.031400584;-0.04645702;-0.0012365483;-0.06737125;-0.006915096;-0.06629836;-0.05115515;-0.029500218;-0.07651011;0.0070099276;-0.07741879;-0.008750537;-0.00061413634;-0.0037005628;-0.0031392835;-0.0146834245;-0.030684074;0.011231224;0.06670301;0.04824956;0.118010886;0.0053798077;0.027914083;-0.1266104;-0.044901527;0.05823084;0.032396134
-0.037541874;0.051843416;-0.040220093;-0.014550401;0.175149;0.02339854;-0.027904559;-0.09112505;-0.04273984;-0.037430417;0.019257829;-0.054097842;0.0086694155;-0.06154142;0.03911134;-0.10403211;-0.07215393;0.07052971;-0.041008998;0.07670982;0.08142822;0.0858252;-0.06736279;-0.10809131;0.06921315;0.044149198;0.063665606;0.043672007;-0.0044569634;-0.04855745;0.067274354;0.023686865;-0.023677291;0.05136741;-0.04211835;0.049489338;0.03810355;0.0146104265;-0.031074872;0.055175114;-0.09050393;-0.06756049;0.0049989135;0.05822247;0.14597513;0.049689684;-0.13610993;-0.015601568;-0.06968398;-0.014197007;0.09048085;0.041120324;0.081785604;0.0322323;0.03280353;-0.060796607;-0.04620016;0.015716905;0.10689442;-0.045186184;0.06781229;0.015628695;0.042648457;0.08997635;0.045204345;0.03371844;0.012977472;0.03605896;-0.08507663;-0.02839756;0.097270876;-0.012348982;0.07286102;0.06263437;-0.004300298;-0.013883406;-0.039174743;0.0065964754;0.10357684;0.16586287;0.06448865;-0.04676629;0.017424865;-0.010861194;-0.043952923;-0.04599093;0.021052008;-0.13577715;0.10047072;-0.01731209;0.032833163;0.08797477;-0.049047492;0.06326593;0.07194362;0.09088684;0.076933205;-0.0001683695;0.111548536;0.011569231;-0.0103593655;0.07350054;0.03380786;0.021574635;-0.045138266;-0.021461358;0.011945802;-0.05312875;-0.049181424;-0.009066235;0.055536244;-0.04073318;0.027825683;-0.00506658;-0.045237362;0.06517088;0.020120556;0.009614808;0.020789096;-0.06562677;0.090726346;0.010720899;-0.11254184;0.020773271;0.073364876;0.06117597;0.16409071;-0.05005274;0.025093343;0.06892369;0.0043311706;0.008870103;-0.039577093;0.018835714;0.06299138;0.03258675;-0.029836774;-0.028517565;0.07783361;0.010452544;0.041715957;-0.06093486;0.0146944085;-0.034652863;-0.011749059;0.0877509;0.12726605;-0.02344534;0.046325937;0.028233835;0.0545959;-0.064272836;0.00071892416;-0.009040179;-0.056997977;-0.03931724;0.075724036;-0.012851151;-0.07777813;-0.018170543;0.07629678;-0.14655223;0.08889067;-0.013919904;-0.08425559;-0.0033897436;0.04567377;0.03386563;0.145563;0.044735648;-0.010996061;0.02579379;0.09795691;-0.03067949;-0.017017597;0.0008146638;-0.06998072;-0.07754896;-0.0077273524;0.046000335;-0.0035967445;0.043256924;-0.054607037;0.072256245;-0.06549247;-0.0066870134;0.08573445;-0.0149024725;0.019663876;-0.020344093;0.011786167;0.0632918;0.053082928;0.11617116;-0.01317434;0.11829795;-0.06230112;-0.005622852;-0.018509036;-0.093243934;-0.051240407;0.046574716;-0.0073679932;-0.043628708;0.06693633;0.07659188;-0.07451814;0.10141031;0.004465983;-0.05344342;-0.035430465;0.027298398;-0.08863656;0.10916255;0.10945154;-0.110685594;-0.1473459;-0.13010734;-0.09950162;0.06345216;-0.040660657;-0.0078603085;0.09602241;-0.045775093;-0.051259343;0.102963455;0.035169877;0.14988618;-0.002653757;-0.004768216;0.0052090115;-0.026746325;-0.019791143;0.07834923;0.011499739;0.00050947705;0.045936145;0.053492237;0.07318522;-0.017727118;0.08571307;0.08931035;-0.02634614;-0.046800043;0.07400024;-0.03625539;0.06987169;-0.060886703;-0.032137413;-0.08125884;-0.05398809;0.0151226465;0.03732801;0.07395357;-0.047027294;-0.04861953;0.09870088;-0.015983798;-0.037527386;0.15118024;-0.005669565;0.061571945;-0.027913192;-0.0026031705;-0.098519266;0.06762289;-0.078433;0.048430886;-0.012167364;-0.06687296;-0.041191954;0.0015918812;0.05684979;0.044084977;-0.043165196;0.10656714;0.045792256;0.041484315;0.02043639;0.033605296;0.009617021;0.06385639;-0.042804103;0.075056754;0.07271011;0.01106235;-0.0802162;0.019571174;0.06477119;-0.05370463;-0.04861098;0.09163646;0.090670764;-0.036411867;-0.0038608327;0.054216065;0.08515272;0.010931656;0.029380323;-0.039078377;-0.07992976;-0.0002529908;0.03197916;0.053381022;-0.030869648;-0.01529317;0.049018994;0.018120542;0.0031239868;0.021470897;0.10513445;0.116803534;0.09060765;0.05709609;-0.05493503;-0.07942281;0.10200164;-0.057928327;-0.023706684;-0.04331721;0.016271751;-0.011175633;-0.03819593;0.05584237;0.065480515;-0.051017273;-0.113364905;0.01949598;0.0669544;0.08478888;0.07046378;0.0046893507;-0.024113802;0.03166377;0.062133335;0.08966311;0.057092346;0.053938832;-0.051660616;0.076939076;0.08263971;0.07025427;-0.07241137;0.10012431;0.05656219;0.040831245;0.04920426;-0.035646252;0.086564936;0.05641343;-0.022094592;0.047043983;0.05862087;-0.03543146;0.0019419785;0.05586731;0.06850676;-0.028682208;0.051384334;0.047804043;-0.012475727;-0.021189597;-0.12829024;0.018575974;-0.107301615;0.037144396;0.065725796;-0.002963155;-0.055042583;0.09104472;0.055662464;0.07511457;-0.04035504;0.14094293;0.029765055;-0.030766878;-0.02605081;-0.049989093;-0.062684566;0.15580846;0.058321238;-0.014707673;-0.068330556;-0.06201605;0.0586631;0.03590972;-0.019293318;-0.05973136;0.06911576;0.031380996;0.07470768;0.12086574;-0.020919912;-0.0020223425;0.05265508;0.10765943;0.048561707;-0.043244578;0.06917;-0.023554185;0.042748768;0.007237431;-0.15935822;0.04789164;0.0012307105;-0.032497823;0.056018982;-0.072214395;-0.007984878;0.016256308;-0.03930668;0.03750475;0.026462117;-0.02948022;-0.06269924;-0.047364935;-0.06744788;0.01649347;0.069370225;0.019725317;0.10662842;-0.035894156;0.04528806;0.024304088;-0.16739364;0.052057747;-0.039296594;-0.0007624571;-0.1118423;0.0109533975;0.031285483;-0.03269025;0.0062687513;-0.010761019;0.07001455;-0.04014543;-0.0021522741;0.022526037;0.047320273;-0.05081105;0.06455884;0.061358795;0.07813519;0.12395695;0.09196203;0.04897292;0.0058232634;0.055502202;0.046132937;0.116874754;0.11126157;-0.002852093;0.08519939;0.06794795;-0.033771705;0.0547862;0.020274969;0.07374995;-0.052985914;0.035368193;0.037057217;-0.069176555;0.04951097;0.078167535;0.028868718;0.05086337;0.111150354;-0.022403589;-0.07666265;0.06926344;0.061858542;0.010868272;0.0013103744;-0.03129623;0.001293728;-0.09644386;0.072970204;-0.060398377;0.046783116;-0.08773832;0.07248016;0.032513104;-0.0075844107;-0.047382407;-0.046521336;-0.030478558;-0.013521283;0.009581001;0.09469334;0.07749865;-0.020656766;0.0110869985;0.0034749298;-0.062569104;0.08027393;0.088336304;-0.08721232;-0.0020764251;0.08032195;0.017930567;0.048424724;0.03833501;-0.05464323;0.07267957;0.07794516;0.07646418;0.088245645;0.18043748;0.005818255;0.015502525;-0.02645876;0.004237038;0.09157945;0.12647626;0.06607086;-0.04615811;0.039746165;0.040339362;0.045903537;0.009677234;0.066876024;0.075057246;0.10384638;-0.0054092933;0.069940396;0.054556232;0.0252863;-0.035389155;-0.06772701;0.023456875;0.059614506;-0.051588252;-0.020472355;-0.019524843;-0.036839038;-0.008677751;0.0028382058;0.013142992;-0.0011483927;0.08110324;0.104192704;0.016061617;-0.072959214;0.012008447;0.009766353;-0.07417698;-0.017730612;0.04780537;0.10527048;0.05153546;0.09123987;0.0043323818;-0.0047859736;-0.04050087;-0.0024995233;0.083591655;-0.054571304;-0.039370406;-0.041210603;-0.05674088;0.10348422;-0.00019634962;0.120775126;-0.055454828;0.024090162;0.051501367;0.0929322;0.05469746;0.07316945;0.054833367;0.052949518;0.04276783;-0.061646167;0.015520348;0.076037444;0.04613248
0.016233934;-0.03818652;-0.023071516;-0.025247417;0.18453716;0.0501478;-0.012203395;-0.045039594;-0.023648234;-0.016117834;0.05082743;-0.02004088;0.077828564;-0.054982413;-0.057841457;-0.14813812;-0.0665435;0.14093302;-0.041027788;0.08974971;-0.057568196;-0.038122587;0.09112853;-0.13360377;0.033625837;0.075691484;0.04933014;-0.015384697;-0.06366876;0.059483875;0.006154692;0.06710739;0.009135286;0.00640359;-0.062946185;-0.018290225;0.10221462;-0.035878807;-0.016846769;0.06369266;0.058222637;-0.017937906;0.03573837;-0.020795425;0.05597421;0.013125223;-0.1263831;0.08689252;-0.040901314;0.028527658;0.13603966;0.018016035;0.15071474;0.07153205;-0.013619639;0.03883669;0.024205577;0.07544185;0.00016930196;0.090038136;-0.07730937;0.07495262;-0.040686235;-0.01453822;0.059231646;0.13142598;-0.005432651;0.11853458;0.027562153;0.07208923;0.119515926;-0.013695301;0.04756286;0.008524754;-0.04559718;0.070020914;0.1172885;-0.0014216582;0.097230926;0.13661422;-0.060033757;0.10171137;0.08248416;-0.054258138;-0.033392787;-0.0060952506;-0.07629978;-0.121840075;0.085101254;0.10915779;0.086718515;-0.05062915;-0.02448305;0.09446239;0.030563425;-0.06805277;0.040674865;0.09079218;0.10300899;-0.042839482;0.0069558797;0.09981977;-0.0040443186;-0.042160876;0.048717856;0.010993117;0.03384158;-0.08788827;0.071790665;0.10491917;-0.040174298;0.030371621;0.032647334;-0.068753086;0.10992018;0.0418507;0.03596768;0.004306861;0.041846316;-0.034211915;-0.023065312;0.028389608;-0.059321605;0.07872685;-0.045428064;-0.010093871;0.14433676;0.048962116;0.11536917;0.10721753;0.002202142;0.0591537;-0.06123418;0.03606404;0.04832571;-0.016921641;0.030562995;-0.033116627;0.0057551456;0.067415796;0.14080691;0.032863546;0.07008866;-0.031004546;-0.06063867;-0.04253233;0.16957656;-0.014323547;-0.039532535;-0.01619738;0.033872418;-0.042121813;-0.055430327;-0.031883378;-0.031532817;0.028583804;-0.024942571;0.06561193;0.05321062;-0.11883162;0.074466825;-0.16373947;-0.0022451163;0.03705051;-0.12013832;-0.031545967;-0.13077937;-0.008779178;-0.00894987;-0.03968229;-0.042092975;-0.02165006;0.021241983;0.09112235;0.040720515;0.091633774;0.08744094;0.06526032;-0.05672111;-0.07076841;-0.013793589;0.042016704;-0.030717254;-0.055435468;-0.029990787;0.034489278;-0.011818128;-0.011180395;0.03949129;0.057099827;-0.0071583237;-0.020889642;0.08911347;-0.01417746;0.015687512;0.151605;0.007884631;-0.04781481;0.1062978;-0.09478873;0.015458027;0.0751776;0.09817424;0.10689137;0.0035346402;-0.061045334;0.035189003;-0.031498577;-0.030011486;0.053147435;0.08308917;0.014338688;-0.010678213;-0.042950567;-0.018356612;-0.14741758;-0.15102999;0.0096994005;-0.065706946;-0.04124481;-0.08117695;0.08223878;0.11579398;-0.018068803;0.048567187;0.017016305;0.09085286;0.11711273;-0.023745831;-0.050272323;-0.07535313;0.0018613975;0.094855025;0.08141749;0.06116719;0.13345899;0.021848181;0.016984291;-0.044149324;-0.028354505;0.09568843;-0.006828219;0.023322862;0.009341141;-0.0032861612;0.031593073;0.045156892;0.06294925;0.041939195;-0.11943776;0.012808215;-0.028564157;-0.029807996;-0.043462314;-0.027696326;-0.077367105;-0.0038563346;0.0010581721;0.09625471;0.087951586;0.09112388;0.12598616;0.0019712888;0.013505333;-0.079954386;0.12918909;-0.078890495;0.08650307;-0.00805181;0.102626994;0.04377912;-0.03828729;0.04683766;0.11155597;-0.062527865;0.050040454;0.07758804;-0.0632434;0.075442016;0.014482515;0.10147025;-0.04135875;-0.008359104;-0.07879668;0.022926955;-0.037194904;-0.083835855;0.09835912;0.03221594;0.097095035;-0.0022709926;0.107002445;0.07279284;0.0010328307;0.027037658;-0.020495526;0.01803738;-0.035305616;-0.042786546;-0.034564894;0.02775033;0.043336757;0.050468322;-0.008939222;0.09639114;0.025395732;0.07215636;-0.056534696;0.08122796;-0.016722579;0.069183365;0.02170652;0.08180799;0.1476095;-0.10513522;0.044208955;-0.03811066;0.0028214913;-0.051458616;-0.076355934;-0.019247014;-0.0148870945;-0.00034588022;0.018630462;0.072785564;0.035526473;-0.037717775;-0.026203772;-0.040899254;-0.04399884;0.066439606;0.10842422;-0.016699826;0.09898106;0.017804401;-0.037654694;0.11769382;-0.051651906;-0.05541463;0.015640318;0.029502438;-0.090787016;0.051023047;-0.023465144;0.071062736;-0.05473217;0.06867126;-0.044564568;0.041285496;-0.0264765;-0.06621372;0.039420806;0.078994945;-0.051149078;0.013661635;-0.005833254;-0.020659423;0.029864313;-0.05546652;0.05031344;-0.011327496;-0.06529293;-0.10211015;-0.058915164;-0.057611935;-0.019370975;-0.024312265;0.027891168;-0.00958925;-0.04750658;-0.07833496;0.022286624;-0.013531153;0.10426346;0.0181014;0.09429857;0.058775228;-0.015333612;0.053894892;0.13792935;-0.07644121;0.07527478;-0.053769574;0.016593128;0.035623964;-0.06460643;-0.06158424;-0.0373119;0.08735876;0.08187064;-0.0023999282;-0.02247464;0.04806384;-0.042538483;0.06033208;0.07845257;0.10376028;0.03012101;0.063414015;0.06789017;0.025691029;0.1346723;-0.16539735;0.051474553;0.061808597;-0.027701529;0.04278527;-0.046122;-0.065474965;0.010069766;-0.02764041;0.030998081;0.0969063;-0.0062229414;0.021635024;-0.059363153;-0.031770967;0.061425194;0.03592457;0.09629552;0.08514842;-0.011579636;0.16780017;0.0437806;-0.1442062;-0.047710806;-0.06329646;0.07930149;-0.04681114;-0.00938219;0.03418746;-0.055823684;0.051883906;0.039306387;-0.033157125;0.017595958;0.019926727;-0.04225937;0.07587628;0.05154796;-0.0291516;-0.0051938053;0.02716687;0.05710032;-0.050619148;0.055243094;-0.05410145;0.04525633;0.07627647;0.07883727;0.21125193;0.037390742;0.015485276;0.08214514;-0.042977367;-0.03674563;0.08486295;-0.06255582;-0.009357457;-0.06512996;-0.035520542;0.019932609;0.0062262025;0.08036118;0.07745929;0.10887961;0.12834705;-0.04748064;-0.08403111;-0.034442797;0.113182954;-0.01932472;-0.070306495;0.037834566;-0.051948342;-0.050798353;-0.06486944;-0.049679637;-0.042501725;-0.008737413;-0.006008924;0.061895642;0.030431416;0.025701547;0.09310658;0.00514586;0.046560552;0.066813335;-0.032284345;0.067286685;-0.05890456;0.020138908;0.062708646;0.04067375;-0.061445244;-0.028946716;-0.0206039;0.11081973;0.026548447;0.049135927;0.05134859;-0.0038278624;-0.13483289;0.04216585;-0.0064481543;-0.020696647;0.010064733;0.10903675;0.15045631;-0.036713414;0.009410088;-0.016190019;0.021387648;0.1443426;0.02258426;0.08526227;-0.019616177;0.060379982;0.07554464;0.12707812;0.07789921;-0.069633774;0.13259727;-0.08128131;0.07138763;0.028445855;0.03295136;-0.008084297;0.054106094;0.07260697;-0.044798393;0.07979919;0.08784662;0.08423527;-0.069942795;0.061534077;0.0035931969;0.046990365;-0.03591945;-0.047531076;-0.012689045;0.13062778;0.049454514;0.043376755;0.081475034;-0.011218911;-0.07585436;0.12537435;0.14835607;0.048203778;-0.013228913;-0.03836333;0.037926547;-0.06960854;0.047794968;0.056470353;-0.053608846;-0.049026582;-0.023376338;-0.08233921;-0.033266272;0.077355884;0.12896834;0.04780084;-0.020026028;0.012931883;-0.03727714;0.1333095;0.07615964;0.00042952158;0.0007151052;0.07852364;-0.033707976;0.076399624;-0.008970463;-0.044310242
-0.059166078;0.08817877;0.099809006;-0.02436338;0.11766196;0.06354554;-0.03898605;0.001932243;-0.0935012;0.06545252;0.122180454;-0.12024313;0.036176383;0.06472077;-0.05117729;-0.04098921;0.05013079;0.0007894068;0.027434586;0.05682581;0.061123524;0.027915057;-0.012604919;-0.10660384;0.074128695;-0.022079991;0.015508823;0.0021642153;0.022926519;-0.031791266;0.053154368;0.085328884;-0.015305789;0.066235706;-0.061638664;-0.048089586;0.010206026;-0.045993872;0.0033304798;0.04341609;0.077506915;0.06477633;0.039504644;0.0598515;0.026086235;-0.07372891;-0.12370952;0.007999718;-0.10155895;0.089560345;0.063909635;-0.0424115;0.13235477;0.018041022;-0.059898965;0.08007603;0.058800783;-0.023431862;-0.06382575;0.0048502903;0.059794348;-0.050913002;0.03332183;0.091191046;0.003715149;0.08996001;-0.022048261;0.06635499;-0.08200867;-0.008891807;0.027330637;-0.0149724865;-0.07680984;0.09002838;0.038114186;0.05576203;-0.01744239;0.041184355;0.024725446;0.031152088;0.070243694;-0.037668742;0.02617507;-0.047613934;-0.046883374;0.09145542;0.052706502;-0.101795875;0.048725627;0.08213693;-0.06049969;0.0034144884;-0.08118435;-0.004231634;-0.026219567;0.0822242;-0.017434621;-0.05800106;0.11437314;0.10083313;-0.039362747;-0.020745734;-0.04646129;0.09842125;0.0032234583;-0.07384206;0.02089401;0.0025706424;0.070815094;0.026933307;-0.05853751;-0.0016477662;-0.010436127;0.020976169;0.030476838;0.05866798;0.015295159;-0.0022201536;-0.04662635;0.07632533;0.009003612;-0.014114263;-0.010352777;-0.0011143067;-0.01905615;0.015915519;0.10962427;-0.040231906;0.071598195;0.01329259;0.06232429;-0.011897981;0.03418434;0.05451112;0.022713069;-0.020471014;0.0073237116;-0.0039053925;0.03390533;-0.016555972;-0.0011355298;0.06829186;0.028859288;0.07774277;0.020804517;0.038919438;0.006301951;0.07688197;-0.100508355;0.041212462;-0.04267146;-0.08772815;-0.031079644;0.016174942;0.05383308;0.02498518;0.033428527;0.07728423;0.058245774;-0.03715828;0.08373095;-0.12612449;0.0056046005;-0.023516204;-0.015796961;-0.07213582;-0.056331437;0.034135718;0.120761536;0.06324749;-0.060789242;0.056717414;0.092300884;-0.050160225;0.060771953;0.08814014;0.067385316;-0.07197145;-0.09848529;0.043573447;0.075345755;-0.0452421;-0.034219168;0.008753569;-0.1056591;-0.082116015;-0.018999802;-0.018202601;0.04616422;-0.005323503;0.0021888316;0.021605369;0.043890547;0.03985542;-0.051146533;0.09573567;0.07996322;-0.008386726;0.09420852;-0.054537613;-0.030810941;-0.033031937;0.062438156;-0.015700877;0.05754927;-0.051505655;-0.02215327;-0.013606098;-0.030607348;0.11519631;0.066595115;0.010048254;-0.009041979;0.043366443;0.075643666;-0.13214573;-0.014735828;-0.0444877;-0.07819056;-0.031156966;-9.819148e-05;0.0074530817;0.007974634;0.07246397;0.022055382;0.03961709;0.060656477;0.13188668;0.0071352376;-0.034491047;0.0007969458;-0.06708389;-0.05052055;-0.034678634;-0.0010290053;0.10901416;-0.052163795;0.09365426;-0.03513753;-0.0069112545;0.16862433;0.013055739;-0.049775597;0.03478045;0.058758114;-0.010292485;0.15380852;-0.044120707;-0.0780099;-0.10140271;0.1163752;0.092517346;-0.015266804;-0.010067396;-0.04769819;-0.1328401;-0.006089308;0.0951081;0.033192668;-0.06913796;-0.026675466;0.06498072;0.057571735;-0.009341175;-0.11176514;-0.013662797;0.045048594;0.03698423;-0.028906498;0.012134496;0.036817584;-0.011161416;-0.009897861;0.11013212;-0.15978503;0.026504125;0.06278146;-0.023279782;-0.00029581954;-0.02919611;0.024482712;0.023100955;-0.078236334;0.0050847097;0.018537141;0.06650871;0.11070452;0.09120839;-0.024095764;-0.0017530336;0.083347626;-0.00031364546;0.050581664;0.046724677;-0.0069374973;0.02546821;-0.032626238;0.05700509;0.110177666;-0.0858221;-0.0059536113;-0.049472474;0.09498405;0.0347053;0.026299959;-0.04991344;0.043222737;0.0020034174;0.010439667;0.075476214;0.005808916;0.03937106;0.028685367;0.08699604;-0.07404224;-0.053980313;0.10918437;0.029080577;-0.025167134;0.041035376;-0.006333259;0.08503874;0.017574271;0.053626094;-0.033885423;0.002586647;-0.1331637;0.058918614;0.10711667;0.08556752;0.066618;0.035331696;-0.07506175;0.01489827;-0.030019697;-0.02743553;-0.0071298764;0.011964175;-0.11388854;-0.029877394;0.14947693;0.03261595;-0.0054097255;-0.03704312;-0.0037562766;-0.0036553321;-0.069699846;-0.04022958;-0.0029040049;0.056573655;-0.07386251;-0.00049577805;-0.000711408;0.04196044;0.03607908;-0.0665504;-0.047243774;0.09799517;0.003929528;-0.01586416;-0.12844342;-0.03511423;-0.009527515;0.10076597;-0.07065086;0.040562667;-0.0096776355;0.00092602667;0.01632089;-0.030282348;-0.07923252;-0.033121586;-0.14336988;0.0074535003;-0.026469197;-0.014385532;0.044048607;0.02478351;-0.043223172;-0.019679414;0.02375299;-0.07883865;0.061504163;0.05610147;0.13468231;-0.03863655;0.091646925;0.021625366;-0.04982099;-0.069052204;0.042908013;0.07794698;-0.083224766;-0.043601733;0.071520716;-0.012613121;0.0019778265;0.064282484;0.01422325;-0.051546782;0.010525046;-0.017358692;-0.15108955;0.06357479;0.0026096243;0.011692957;-0.0014187408;0.02675072;0.012080965;-0.022546824;-0.022399902;0.109148525;-0.06681047;-0.016216023;0.075866714;0.05673283;0.028162528;0.02992806;0.02730021;0.038158037;0.06491651;0.035783578;0.120989196;0.020673722;-0.052390024;0.030269051;-0.037595015;-0.047870163;-0.03849057;0.032704912;0.028677084;0.04834234;-0.016810587;0.10741227;0.0077540562;-0.0015758922;-0.032903522;0.01086716;0.038770027;0.10748199;0.0128787905;0.05462342;-0.0075698565;0.15869953;-0.046674997;0.035292428;-0.06550519;0.0056759566;0.051967196;0.12140814;0.12427971;0.06622525;0.10901793;-0.03901044;0.027102217;-0.049525246;-0.013843478;-0.019593636;0.029215727;-0.0019056702;-0.05726735;0.10009989;0.043744422;0.06086754;-0.030975513;0.039876316;0.055818643;0.0023326494;-0.117119856;-0.02222943;0.11774746;0.032807447;0.083346516;0.03418667;-0.015042731;-0.040375303;0.034160733;0.01136855;0.06390003;-0.057194542;-0.004443445;0.085628;-0.04535652;-0.0065535638;0.10282094;-0.068799525;0.029622618;-0.047598787;0.03513022;0.073476024;-0.06761553;-0.04473465;0.012916295;0.049061548;0.0021992042;-0.050689884;0.007676023;0.068546385;-0.005465256;-0.055574335;-0.09026811;-0.012522737;0.03403251;-0.016645502;0.025323132;0.054222252;0.087378986;0.14281389;0.0751246;0.09063813;0.04485709;-0.05664793;-0.013345286;0.16842358;-0.08025459;0.056756824;0.07140634;-0.0740021;0.07626553;-0.010928451;0.085576065;0.058874432;0.011606192;-0.00062318996;0.006531223;-0.050676845;-0.060551867;0.06691535;-0.060494334;0.020921595;-0.05781871;0.034675654;0.08375451;-0.018013867;-0.008238024;-0.029926745;-0.047876816;0.050102416;-0.0039027014;0.081187814;0.016743599;-0.069018394;0.013410663;0.013625962;0.0047130072;0.05906547;0.06395566;0.11233583;-0.0072457395;0.028282342;-0.008205993;-0.016205087;-0.07309655;0.076243564;-0.025318993;0.07117653;0.04960178;-0.067434676;-0.01937899;0.031013906;0.014809461;-0.03158047;0.09776552;-0.052845698;0.03053638;0.021145066;0.055440065;0.15242845;-0.02237207;0.08494417;0.035093747;0.05017667;-0.05229987;0.07565468;0.061673205;-0.09737766
-0.0071833027;-0.030438248;0.062018298;-0.061908692;0.058416467;0.057853658;0.037644297;0.046716943;-0.09023156;0.10180128;0.09175879;-0.11900189;0.026294705;0.10579454;0.06184198;-0.049049657;0.11440678;-0.03766189;0.06612503;-0.06034903;0.042403087;-0.045422103;-0.005577352;-0.00316253;0.055220895;0.0018316873;0.021801578;0.110185236;0.03489627;0.07669679;0.08595727;0.06523309;0.03441351;0.07048847;-0.012666103;0.0014592765;0.079244584;-0.03161638;0.045036364;0.04727907;0.10875851;-0.059576448;0.10720893;-0.0067701475;0.0319944;-0.0032712636;-0.03633976;0.078153774;-0.015013787;0.07104122;0.11812604;-0.05396624;0.111622125;0.074374214;-0.018541839;-0.011816597;-0.022327898;-0.02956635;0.00351926;-0.025983049;-0.058430616;0.03934924;0.032512363;-0.023475125;0.04627038;-0.040344577;-0.11315887;0.024479492;0.044353522;0.03031638;0.13960385;0.03994609;0.06075963;-0.030378984;-0.020978231;-0.09786331;0.022372164;0.018942213;-0.0067312717;0.044572372;-0.01776528;0.021617116;-0.021623027;-0.051741835;0.03881926;0.029054377;0.025997546;-0.13563325;0.025281547;0.023853784;-0.08099508;0.0638231;-0.04473839;0.13649735;0.06322974;-0.032156467;-0.020409532;0.09350431;-0.0061410917;0.026887614;-0.023581538;-0.07471469;-0.05050099;-0.007086032;0.08187752;-0.053246923;0.01010894;-0.023328943;0.08843579;0.053550318;-0.056472365;0.014503987;0.07958018;0.106879406;0.11598473;-0.035634696;-0.01709182;-0.09000364;-0.040536795;0.07229008;0.06345044;0.061539482;-0.034317657;-0.046243116;0.06898352;0.07384024;0.19353944;0.056285463;0.070280924;0.011347122;0.12974432;0.065657236;0.026094375;-0.019063257;0.06815343;-0.087845236;-0.012930695;-0.07774638;-0.03693492;-0.0464255;0.020601455;0.050342713;0.055687357;0.09189572;0.07756236;0.024250127;0.076306835;0.020351999;-0.122832194;-0.017548518;0.109408624;-0.045115996;0.055959925;0.0791352;-0.058074113;-0.020831004;0.06195701;0.0033141442;0.062002126;0.0051420643;-0.053938683;-0.12782103;-0.05555216;0.024003396;-0.043517295;0.017853813;-0.028626159;-0.025627999;0.08949802;-0.015301196;-0.13515973;-0.06008229;0.13410719;-0.06412253;-0.045331314;-0.022352027;-0.030129848;0.020864489;-0.060945734;-0.030187242;0.08164744;-0.051657856;-0.05809877;-0.03737368;0.0178549;0.02263097;-0.060141288;-0.08741307;-0.06965754;0.03323598;0.04302993;0.02042558;-0.09505859;-0.023323702;-0.043757323;0.13324063;0.052883632;0.06678285;0.018564116;-0.14912462;0.05775388;0.07826607;0.014730786;0.08460991;0.002030557;0.04343498;0.048064675;-0.03058584;-0.026003545;0.08798433;0.063483894;0.02050713;0.0037467277;0.05725031;0.0104904305;-0.08015657;-0.0009720964;-0.0010189037;-0.154005;0.06387008;0.013183383;0.09747096;-0.037575666;-0.005833031;-0.05925681;0.014049486;0.0367874;0.0772284;0.014434373;0.020565577;0.053280666;0.037010748;0.10157648;0.003008698;0.017562626;0.040216345;0.07241588;-0.026000129;-0.029863145;0.074526094;0.15861481;-0.053221498;0.007246471;0.017822137;0.099267386;-0.022777585;0.12341368;-0.039934177;0.016414238;-0.045080688;-0.002227864;-0.028384544;-0.060723156;-0.090789944;-0.049085945;0.003367559;-0.00044417568;0.048627026;-0.06254326;-0.051785298;0.08200479;0.13716105;0.0049462807;-0.057236563;-0.072546676;0.12666704;0.008498821;0.010933477;0.055106267;-0.010653084;0.027363338;-0.05622325;0.011869736;-0.027230559;-0.20304994;0.12778708;0.007494088;0.048289098;-0.023827802;0.09309826;0.10269401;0.067743726;0.0024598455;-0.015502933;0.020279545;0.044497035;0.11929511;0.015529553;0.074866034;0.07549843;0.0037679637;0.08722428;0.12977444;-0.056805525;0.017742539;0.039873183;0.020859921;0.048656594;0.036211308;0.007762219;-0.023795294;0.009961408;0.13914722;0.027584104;-0.007348943;0.040619746;0.07900792;-0.030882016;0.0762101;-0.02562799;0.0024505751;0.015472838;0.03269857;0.0386929;-0.11596126;-0.069241665;0.023804752;0.095364325;-0.039762616;0.044978477;0.082435116;0.12907869;-0.030341865;-0.020576403;0.07311357;-0.03327313;-0.17290212;-0.013478811;0.10628117;0.056425437;-0.023725972;0.015993811;-0.014615763;-0.051236544;-0.042047814;0.054187354;0.021155383;-0.019136598;0.072068684;0.10057158;0.001661044;0.00694641;0.0030981328;0.015709598;-0.019822495;0.06700331;0.032443635;0.02676416;-0.07239311;0.015064446;-0.005373825;0.08863563;0.08550792;-0.014491125;0.06772659;0.033542093;0.061560296;0.035448816;0.021432022;-0.04507783;-0.038413547;-0.080955684;-0.033012707;0.08013344;0.049931835;-0.0005898827;0.09466537;-0.035971828;0.059716195;-0.0383226;-0.018740185;-0.004492573;-0.15520768;-0.019145954;-0.032383233;0.039664004;-0.04093301;0.006899681;0.04669947;0.055435043;-0.050861828;0.03266388;-0.063972935;0.090551585;0.067501046;0.045658063;-0.032172088;0.036575817;0.0265912;-0.040035512;-0.02202416;-0.027936576;-0.0068631074;-0.010935784;0.0359023;0.015082644;0.034674555;0.03755595;0.0772952;0.025502283;-0.053150244;-0.0019198797;-0.06180736;0.051557396;-0.06553931;0.056261994;-0.05525178;-0.041159306;0.06707193;-0.03684309;-0.0339175;0.068656206;0.0074344114;-0.0074722534;0.07019576;-0.03162777;-0.07350193;-0.10621146;0.053776115;0.080662936;0.12707788;0.0034783005;0.0034639;0.010125412;-0.07630101;-0.009632699;0.06756987;-0.020084886;0.034044556;0.08273874;-0.021147674;0.020356907;0.00051868433;0.07468015;0.0740148;0.013221953;0.02639431;0.07667833;-0.028951075;-0.009038151;-0.047359712;-0.021330895;0.005635347;0.11140785;0.0401103;-0.025126798;-0.15675843;0.05295475;-0.051643956;0.086848415;0.098497726;0.037226275;0.15041032;4.0355217e-06;-0.018116739;-0.054244798;0.0021302153;0.062210597;-0.011800898;0.040036473;0.06344785;0.0268773;0.024486221;0.067934096;0.028147863;0.013302068;0.109888546;0.09741468;-0.097653836;0.07102033;0.09049671;0.038510993;-0.0036144012;0.012095932;-0.056785095;-0.003973212;0.028772382;-0.03323068;0.0537029;-0.06362874;0.07589071;0.044541676;-0.011784813;-0.10755852;0.062622614;-0.006051205;0.019255746;-0.0050928914;0.031394843;-0.028833415;-0.05334487;0.087776095;0.05309879;-0.048754737;0.026090773;-0.038932346;-0.08335012;0.04637716;-0.009489083;0.0114751505;0.04472312;0.008842329;0.006038564;0.05604034;0.04602511;0.08437936;0.064557545;0.15840833;0.03450512;0.043970622;0.046504095;0.07802308;0.07444651;0.12297429;-0.09646818;0.0042622555;0.017269095;0.037772074;0.028882116;-0.01561419;0.0018649865;-0.037322532;-0.05632053;-0.08388347;0.063164644;0.02910798;0.078660056;0.117067255;-0.14005968;0.029871399;0.07900852;0.023487672;0.023727238;0.046153072;-0.07975355;0.07815322;-0.009304883;0.04865448;0.002800717;0.15499654;-0.046944596;0.054654382;-0.042206;0.021978801;-0.005439451;0.11878564;-0.030781034;0.08823078;0.06788041;0.0151949255;-0.025578307;-0.03528478;0.021562858;-0.021810727;-0.07032936;0.0023097033;-0.07522519;-0.13143483;0.030023154;-0.10907721;0.004060659;-0.05493938;-0.053436406;-0.046251073;0.016605517;0.03233531;0.11146433;0.06034205;0.04717687;-0.0027788286;-0.047195666;0.07530056;-0.0075723515;0.024973212;0.1067499;0.06320825
-0.08652364;-0.0059982426;0.019205526;0.0024136126;0.027458936;-0.052447885;0.08405457;0.021600347;0.023822287;0.12722561;0.015143749;-0.009567855;0.05412189;-0.014197693;0.0023225094;-0.17235048;0.039206423;0.06888891;-0.025860159;-0.027951326;0.09129854;0.030609293;0.07128597;-0.055825748;-0.07341781;0.025448171;0.082725085;0.109175675;0.13668732;0.08114641;0.018012723;-0.052414756;0.012387003;-0.013670095;-0.13626286;-0.074140094;0.010360407;-0.0067515657;-0.0008493073;0.010982962;-0.05116855;0.015794162;0.17067038;-0.0101106195;0.09040512;0.041907396;-0.040042527;-0.029761795;-0.05230384;0.021273073;-0.004528009;0.10777547;-0.025317518;0.017600259;0.0772351;0.09511768;0.012108262;0.04059778;-0.0033851906;-0.01789687;0.008975293;-0.05140494;-0.027179092;0.072579324;-0.058997378;-0.03819018;0.06259856;0.11438224;0.04890524;0.07739829;0.038086556;0.07862073;0.0701538;0.05156037;-0.07356872;0.022150764;-0.030966379;-0.031399786;0.063623205;0.019218693;0.012988831;0.054952197;0.021510126;0.087883495;0.077276245;0.00083347666;0.012099312;-0.18737532;0.12023682;0.038484182;-0.0673916;0.052555192;-0.113464765;0.020478515;-0.0129281385;0.085147105;-0.057641465;-0.03154296;0.10389783;0.021454552;-0.041125752;0.06429262;0.057733245;0.11506458;-0.0032848537;-0.059376933;0.02944354;-0.0279517;0.089232236;0.075805075;0.043273143;0.05513726;-0.004742899;-0.014675773;0.04819183;0.02244661;0.039241526;0.10821697;-0.07802301;-0.019623589;-0.05486829;0.09134968;0.026796432;0.05887469;-0.0088336645;0.05952649;0.08872832;0.0055113235;0.06734292;-0.028834252;-0.03314416;0.04765714;0.03218941;0.06498178;-0.011527333;0.015074621;-0.07378389;0.010843825;0.024677547;-0.02584446;0.05504259;0.06594345;0.06668109;-0.06482747;0.033940166;-0.043055344;-0.03484802;-0.010941626;-0.04291495;0.018220652;0.02599299;0.0030793713;0.06340826;0.09897095;-0.06587028;-0.010403753;-0.014246897;-0.032678895;0.0003335621;0.029238043;-0.025910202;-0.09479089;-0.06620433;0.028199116;-0.10329826;0.009924639;-0.058406126;0.080144815;0.061801966;-0.044563692;0.015797151;-0.04750232;0.04638732;0.011186897;-0.05378666;0.0010665647;0.03918087;0.070932314;-0.07391993;0.029977838;0.15563099;-0.07660424;0.081653275;-0.12703776;-0.10924448;-0.0040329206;0.041817363;0.038474377;-0.041040715;0.023688458;-0.0645335;-0.056211233;-0.052904207;-0.029666223;0.03515769;-0.041923236;-0.02458911;0.086877495;0.08496778;-0.087233625;0.043846134;-0.027208319;-0.049714673;-0.044254348;0.038507145;-0.00022980667;-0.03319697;0.10537383;0.048199587;0.07640141;0.020778285;0.03869958;0.09767236;0.0006873314;-0.0020785674;-0.1458903;-0.15730698;-0.099383846;-0.074658245;0.048918266;0.056732338;-0.0009433338;0.023951422;0.09405287;0.036031593;0.049004536;-0.03125265;0.026815364;-0.08204088;-0.056881018;0.055211224;0.041706298;0.064912625;-0.006126762;-0.03140315;0.15707357;0.07014454;-0.002085736;0.0062549617;-0.019875076;0.05271286;-0.021316357;-0.055191502;0.040563773;0.05473644;0.02281629;0.012368598;0.04291056;0.0461452;-0.1691721;-0.057612907;-0.020326756;-0.037267633;-0.024417533;0.03161084;0.025255566;0.087449916;-0.06174711;-0.011810222;0.085481085;0.042698253;0.07471544;-0.026545156;0.06899183;-0.16851829;-0.024225233;-0.06879845;-0.00069557846;0.09806968;0.008848113;0.025444834;0.009912337;0.032658808;0.08802974;-0.09738355;0.12860759;0.12803273;0.03803558;-0.0030765566;0.043822866;0.02934073;-0.0025867668;-0.11160163;0.0532962;-0.028742416;-0.049372513;-0.018060263;0.018858192;-0.014620485;-0.036894917;0.06651812;0.09054106;0.15328234;0.011414765;0.12540479;0.0041858116;0.101426214;0.077393845;-0.022624211;0.06855572;0.07443105;0.09539673;0.09549218;-0.06219117;0.08878061;0.054245673;0.08165302;0.043360937;0.061978973;0.0025708599;-0.0061731716;-0.02119368;0.0012023397;-0.029127212;-0.1469924;-0.060611017;0.019735508;0.01788376;0.047513586;0.020281054;-0.022407185;-0.020766187;0.009691303;0.06822467;0.093606465;0.06991212;-0.10655746;0.07677451;-0.023830788;0.08244808;0.06993088;-0.0030633742;-0.021366851;0.045526993;0.045845028;-0.04094738;0.03211041;0.01713355;-0.07017124;-0.009134505;0.14616585;-0.03217272;-0.09279464;0.06777832;-0.017891822;0.016149791;0.009950277;-0.018609226;0.009084077;-0.072507314;0.025945973;-0.002797043;0.102675855;-0.061167195;0.014521001;-0.049207024;-0.012405438;-0.014631663;-0.034101035;-0.053826123;-0.076180734;-0.017928284;-0.05846338;0.02318239;-0.032283235;-0.011664176;0.023689289;-0.0347086;0.03361632;0.05791374;0.021083357;-0.042245336;-0.0579523;-0.044075128;-0.04106653;0.014157778;0.02203733;-0.010356331;0.04068103;0.029277995;-0.07391548;0.044557903;0.050132804;-0.048828885;-0.008855769;0.007619324;0.07688544;0.066244386;-0.048256293;0.017556842;0.027270572;-0.024671437;0.045450486;0.017691936;-0.03157679;0.0033314337;0.009358985;-0.027771078;0.15925953;-0.03504581;0.035441067;0.08330701;-0.10144673;0.037504554;-0.057469107;0.06355076;0.036203295;-0.033333655;0.042003293;-0.01044108;-0.071544126;-0.041215297;-0.07902345;0.088108584;0.037029576;0.002830362;0.014973281;-0.04020163;0.08263617;0.025629012;0.0804534;-0.112751275;-0.010973724;0.08811693;-0.15742613;0.019312082;-0.07250395;-0.06382622;0.0062964484;0.04528077;0.05510897;-0.02189597;0.055632982;0.059615053;0.03978246;-0.071837634;0.015932966;-0.045498643;0.045456614;0.048770633;0.023294142;0.048649397;-0.044403218;0.09321038;-0.026871182;-0.008853528;-0.022606866;0.015266565;-0.033878382;0.14151275;0.18501776;0.0047567245;0.13919756;0.11139013;-0.052134134;-0.014205535;0.02570525;0.026880294;0.065031335;-0.090426244;-0.030121513;0.09606068;0.043907866;-0.019827833;0.024543907;0.07702767;0.056731287;-0.0012531562;-0.11157771;0.04440854;0.07343597;0.07359174;-0.07042365;-0.041194256;0.025720175;-0.06420241;-0.0075192554;-0.08184054;0.017387213;0.06509883;0.08858181;-0.039745484;0.09121033;-0.03311939;0.0732272;0.085339144;-0.033701565;0.051949557;-0.032709572;0.10426099;0.06734948;0.07333046;0.028437173;0.012688699;-0.07364341;0.10323711;-0.09078543;-0.02942557;-0.04650996;0.06002712;0.025791863;-0.00078573456;-0.05612262;-0.024410738;0.10799051;0.09735508;0.067990564;0.15862857;0.13025096;0.109105036;0.028423764;0.025477152;-0.011713233;0.11219916;0.06659527;0.01694323;0.057032533;0.010875184;0.061124597;-0.0358397;0.067644514;-0.05540358;0.052994873;0.011332152;-0.044077225;0.08142664;0.041467477;-0.028014416;-0.080566645;-0.08249079;-0.02526083;0.037708197;0.04120687;0.026016466;0.06678288;-0.03699352;-0.029350381;-0.015450599;-0.021379177;0.09075378;-0.048366956;0.023917543;0.027001426;0.071497135;0.020259364;0.027480146;-0.105003476;0.10279709;-0.060844924;-0.038842663;-0.042812232;0.06785972;-0.06469934;0.055690166;-0.012419261;0.07238638;-0.00061617175;0.0053019035;-0.024762582;0.06107446;0.024601804;0.055645283;0.10611251;-0.014015301;0.05860995;-0.025463142;-0.028751038;0.025112614;-0.022253992;0.10538923;-0.053482775;0.015986608;-0.067247644;0.093277134;-0.039383203;0.14520253
0.044679116;-0.0041840943;-0.07099238;-0.045454867;-0.047385816;0.055554964;-0.04891673;0.06259236;0.065763935;0.07408953;0.12754065;0.059544627;0.08961788;0.0026324114;0.0628768;-0.17270896;0.09278805;-0.04452693;-0.023099849;-0.017099217;0.0034071573;-0.01767183;0.028226241;-0.012653527;-0.06023529;-0.056195464;0.0652964;0.06439891;-0.030499227;0.040203482;0.09991815;0.07837419;-0.00546645;-0.046529748;-0.11287518;-0.045259796;0.13142519;0.103190824;-0.045069866;-0.052570596;0.10201558;0.008675726;0.13255684;-0.055425856;-0.012605632;0.015801718;-0.1191732;0.0076751024;-0.024894098;0.03177244;-0.033086892;-0.039902598;0.09814466;0.10302252;-0.06068769;-0.013011729;0.07199439;0.06270845;0.035944603;0.019696733;0.035809334;-0.024851462;0.017436543;0.04805714;-0.07212832;-0.06090721;-0.081372455;0.08976852;0.021915533;-0.0017013035;0.12756784;0.07520411;-0.03309387;-0.0395307;-0.007821005;-0.077653155;-0.0007994769;-0.016426286;0.064592;-0.026819782;0.036771357;0.024201894;-0.06590941;-0.0011868624;0.031826865;-0.060613133;-0.0645886;-0.15464328;0.0036855126;0.01569688;0.057223216;0.13188411;-0.081843555;0.0033686892;-0.04307121;-0.07339712;-0.05071905;-0.04625027;0.05148644;-0.0030508335;-0.07224518;-0.079701774;-0.031747345;0.11518533;0.058887832;-0.08408746;-0.015614336;0.048285156;0.11309502;0.06999009;0.043508146;0.0050993636;-0.026861554;-0.054813948;0.057234317;0.046134464;-0.06891536;0.03711157;-0.06297534;0.041705597;-0.007211554;-0.031612456;0.05490505;-0.057690617;0.0014321521;0.042115677;0.06457385;-0.012609612;0.110899605;0.07063046;-0.0041036783;-0.028446026;0.033049185;0.09267531;-0.07026276;-0.0050991545;0.0326573;-0.0831714;0.10297937;-0.060739934;0.09744113;0.04071997;0.03263369;0.030488022;0.008522855;0.03956608;0.0770916;-0.029491588;-0.027531385;-0.06742717;0.056961995;0.0037972466;0.04214381;-0.018143969;-0.058359813;0.0062899687;0.008714266;-0.052394424;-0.0069721667;-0.039970722;-0.04837281;-0.1701256;0.06341313;0.03478426;-0.16522864;0.03661437;-0.120025255;0.09583485;0.07930214;-0.024076913;-0.08326383;0.07357977;0.0496069;-0.027600557;-0.047251884;-0.04055408;0.04206653;0.0042986083;0.08422697;-0.07273332;0.14210685;0.048919186;-0.043126814;-0.022101274;-0.12650196;0.025601763;-0.05502286;-0.07902502;0.06037903;0.055474322;0.043113817;-0.02240288;-0.005563999;0.02159245;0.07303786;-0.048562232;-0.005977177;0.048494264;0.10337703;-0.06848331;0.0365429;0.06422756;0.08718092;0.059421264;0.0075490815;0.0667982;-0.09457306;-0.06589617;0.0905288;0.03223236;0.037561554;-0.012587259;0.044002097;-0.006643807;-0.020143993;-0.08943919;-0.070256904;0.012737449;-0.012422785;-0.040237375;0.06851223;0.051472615;0.020805934;0.06527359;-0.071147695;0.023947774;0.08358337;0.04863447;0.04762845;-0.057686042;0.05025176;-0.076142356;0.022428563;-0.075025916;0.072054364;0.107996166;0.03713139;0.09838135;-0.0005747713;0.004414691;0.15202776;0.07162625;-0.029615281;-0.006946523;0.04423248;0.13778222;0.0531816;-0.07376733;-0.028334687;-0.07024647;0.070724875;0.0071435724;0.039082527;-0.0017979201;-0.038944073;-0.009318155;0.019653954;-0.05849644;-0.028436149;0.014104607;-0.0069618053;-0.0136376405;0.004817984;0.057075977;-0.04328292;0.07880484;-0.059858043;-0.02609867;0.09620171;-0.014265213;-0.0002458788;-0.053789925;0.08614766;0.0815011;-0.18131842;0.1072481;-0.0030054303;-0.06387473;0.03985119;-0.06562758;0.06426348;0.004085892;0.02053309;-0.04813097;-0.046866566;-0.064848736;0.050315846;-0.050360847;0.08106684;-0.0164279;0.058061153;0.048362125;0.028676316;-0.018963875;0.008318518;0.009375042;0.04400125;-0.025654783;0.10324563;-0.03885206;0.0025339248;0.107415795;0.10562161;-0.046716947;0.045310903;-0.020020092;0.07914435;-0.033507437;0.057919353;0.012816829;0.08481332;0.06931894;-0.03997731;-0.0881196;-0.0048133316;-0.0013217725;0.073402725;0.10674724;0.019743036;-0.019905522;0.0454548;0.042663857;-0.0064347032;0.07906894;0.049938817;0.030845108;-0.042386614;-0.07907976;-0.047966152;0.08407395;-0.071120046;0.073593825;0.019917803;0.10058272;-0.01077726;-0.014765982;-0.03276893;0.036322337;-0.10535466;-0.048928753;0.13784875;0.05100741;-0.017652275;-0.0045617996;-0.0115253385;-0.056065913;-0.0064420975;-0.061525337;0.007057418;0.061182983;-0.06822899;-0.015731476;0.05715103;-0.0056115454;0.08857332;-0.019464828;-0.007698076;0.06503792;0.09859349;0.007126763;-0.1501251;-0.052772556;0.010580913;0.0050587105;-0.08915227;0.06047673;0.108724795;-0.018840555;0.07972681;-0.043804694;0.074492864;-0.037698712;0.020755317;0.08474642;-0.043333016;0.0034035237;0.055994987;-0.048973195;-0.0327099;0.049359925;0.059590843;0.0066150925;-0.0027239919;0.07630454;-0.012620197;0.07935962;-0.04896441;-0.026289083;-0.05559788;-0.032144934;0.0035546636;0.02334856;0.014236758;-0.055587407;-0.06376709;0.09586173;0.01995683;0.019646838;0.09367579;-0.0046140803;0.03839665;0.049105626;-0.2080409;0.11714381;-0.024218727;-0.005561074;-0.054550048;-0.07173163;-0.027213974;-0.022579813;-0.060190383;-0.026429141;0.0010282649;0.07819747;0.013009738;0.01601483;0.024889313;0.057570968;-0.001767029;-0.05956451;-0.056257576;0.018018356;-0.016859522;-0.026734132;-0.19174889;-0.030846283;0.058322564;0.033949155;-0.04313129;0.08054443;0.07157625;-0.020069089;-0.08341013;0.11798742;0.07557971;0.06310041;-0.057556804;0.047847666;-0.02837157;0.13873374;-0.0454571;-0.019176647;0.026809953;0.07093621;0.014318494;0.052431975;-0.092598096;-0.05824174;-0.109133445;0.044263;-0.023135958;-0.06657884;0.11527367;-0.021115702;0.0012123053;-0.09545952;0.092559874;0.040510047;-0.013261547;0.06837788;0.02535215;0.05088924;0.05585962;-0.0290164;0.032898445;-0.024745408;-0.028646462;-0.077884085;-0.0099892365;0.053842325;0.020319859;0.06341566;-0.024760308;0.07550185;-0.06526658;-0.016778529;-0.020183248;-0.05942104;0.009828091;-0.055936635;0.09653819;0.0081042405;-0.037529673;-0.09353085;0.08742899;0.05484146;-0.15074359;0.082742855;-0.011724917;0.05150312;0.08030577;0.0018142827;0.06805072;-0.037303574;-0.07266186;0.05427552;0.0039468124;-0.062711485;0.010468422;-0.039468326;-0.02031939;-0.026594838;0.03439256;0.011059076;0.011911048;0.12147128;0.038555816;0.0687325;0.03954248;0.07104537;0.016413037;-0.011011109;-0.066260956;0.029013101;0.010228147;-0.010970527;0.02409483;0.04773844;-0.024048336;-0.07690878;-0.051489238;0.01417636;0.005699561;-0.09018984;-0.023878584;0.064007655;0.05757302;0.023632672;-0.049596336;0.0036614616;0.016854271;-0.069492616;0.053925473;0.048573773;0.040633496;-0.014147711;-0.057127103;-0.06108088;0.04210837;-0.026165899;-0.051742975;0.05104533;0.0018408161;0.07341345;0.042963788;0.059567943;0.013354342;0.07219911;0.045963515;-0.014044028;0.092956565;-0.010812774;-0.072579555;0.053619232;-0.044339024;-0.10284536;-0.030141301;0.07714682;0.09302112;-0.021888984;0.06597855;0.035594452;-0.06401604;0.056406178;0.054999445;0.05881943;-0.022840317;0.0011267898;0.07125817;0.12147125;0.05373291;0.057724763;-0.1227639;0.055329897;-0.03204295;0.0513299
0.0022735368;-0.03693395;-0.052918795;-0.056229487;0.014518532;0.031232057;-0.04644931;0.010304133;0.04075179;0.10704337;-0.024260836;-0.03144222;0.08207988;0.07479097;0.08297766;-0.13544512;0.10170704;-0.11711698;-0.011863644;-0.07939458;0.07037628;0.020679623;0.023076119;-0.06487789;0.007655509;-0.04129216;0.051248405;-0.02063708;0.07359088;0.03585264;0.1290525;0.06067418;0.0012273535;0.005330123;0.017483497;-0.0047188466;0.05844956;-0.023091499;-0.007508613;-0.07930961;0.09355944;0.042762373;0.13707039;0.011789089;0.02317864;0.040255792;-0.1391794;0.046821363;-0.11180071;0.046018224;0.13973564;0.02774441;0.16623046;0.09055158;0.018336795;-0.019672995;0.104227655;0.07193538;-0.0020246422;0.06250169;0.079711;0.038957443;0.0020672732;0.13154083;0.049366344;-0.065504126;-0.031457126;-0.13041167;-0.02805097;-0.04394059;0.08848535;-0.008793239;0.041665256;0.025644088;-0.01243792;0.035191324;0.09124769;0.009221434;-0.04776363;0.020353246;-0.058377255;-0.09947836;-0.028945733;-0.080951996;-0.099298894;0.04782342;-0.09376928;-0.023614788;0.037766993;0.08311903;0.07118704;0.09627909;-0.116722785;0.015232093;0.013828445;0.005580096;0.06278759;0.041325245;0.115297616;-0.057349794;-0.014316592;-0.013101706;-0.07423946;0.05012914;0.025568636;-0.03924272;0.012011108;-0.122404456;0.012879881;0.14228676;0.03790305;0.05310182;-0.034955714;-0.08774712;0.06054564;-0.081860945;-0.07085485;-0.047856413;-0.011000596;0.0884726;-0.046592366;0.06438266;-0.09999753;-0.02447405;0.10084138;0.07031573;0.17563365;0.033130705;0.10799891;0.13359016;0.117829956;-0.021348253;0.019100796;-0.03690898;0.061966438;-0.04066169;0.07179909;-0.07755183;0.11601558;0.010674993;0.120729014;-0.014222144;0.032072242;-0.05648578;0.07070927;-0.05008189;-0.06522021;-0.016962308;-0.1037554;0.07785246;0.004658697;0.013065862;-0.020152656;0.020191666;-0.031790327;-0.014707478;-0.027462875;-0.07936609;0.04573798;-0.087173335;0.0063293553;-0.11927862;-0.013819741;0.09462654;0.002041237;0.07099885;-0.0012676656;0.007232197;-0.07011919;0.0015411042;0.020531269;0.021738933;0.12273389;0.059488736;-0.03135377;0.11640239;-0.0032738922;0.055939;-0.08987982;0.058427643;0.072465636;0.0060863006;-0.05784707;-0.103093155;-0.02029262;-0.09125966;0.016899807;-0.09099132;0.020547856;0.054178838;0.059990965;-0.02021118;0.067765765;0.06917742;-0.021335304;-0.00013809738;0.06551443;0.040193368;0.010105789;-0.06854585;0.002838253;-0.0030623483;0.106946506;-0.01175131;0.07294443;0.08158819;0.035786085;-0.02092392;0.020554978;0.0880575;-0.078526594;0.0333845;0.080911726;0.0033450974;0.054838106;-0.009884713;-0.05238312;0.0046881945;-0.006412306;-0.04981632;-0.0176126;0.09682708;-0.024622783;0.03462749;-0.038163114;0.06407092;0.06442486;0.09864628;-0.025729349;0.017283494;-0.04826192;-0.015669905;0.03252149;-0.13289334;0.017204313;0.09179517;0.047193963;-0.014036932;-0.05063536;-0.08029709;0.13255812;-0.0038751026;0.016077615;0.038425755;-0.09597598;0.067201525;0.06834094;-0.06018246;-0.07057631;0.021178305;0.067524485;0.0015803225;-0.034952365;0.05062465;0.0014906257;-0.05871639;-0.0093779005;-0.053590395;0.01823106;0.036866523;0.03361271;-0.0042331107;-0.045711387;0.04096361;-0.033940017;0.039700635;-0.06458365;0.10885218;-0.012888671;0.065496;0.038000535;0.079934835;0.072363436;0.044980105;-0.09244565;0.12869489;-0.03711679;-0.014665067;0.06541824;-0.04653751;0.051746737;-0.018898722;-0.034347333;0.044325504;0.0472005;0.06300887;-0.024969934;0.028325528;-0.04348721;0.062125888;0.022085313;-0.15187877;0.07085314;-0.009776043;0.019477999;-0.008262505;0.094819956;-0.03653643;-0.047666285;0.054958675;-0.08530874;-0.03144933;0.13709064;-0.011447786;0.13860667;0.049227025;0.0030537955;-0.025507608;-0.026826875;0.03980238;-0.034846164;-0.015660826;0.016606228;-0.059017465;-0.054569427;0.045737766;0.014362725;0.035905275;0.089353226;0.033704378;0.0551999;-0.019208001;-0.036716487;0.14019921;-0.045172613;-0.04229318;-0.043089017;0.06472862;0.086045854;0.0021533952;-0.052526765;0.10915195;-0.066211455;0.014101904;0.01231581;-0.082640655;0.04518221;-0.06502125;-0.12936047;0.06431736;0.035301615;-0.022639306;-0.009195342;-0.02307348;0.029762518;0.05392608;-0.07831797;0.037767902;-0.015860232;0.017739827;-0.0654306;-0.013757245;-0.0013757085;-0.0061255465;0.018989556;-0.04522678;-0.06635545;0.10007323;0.045015384;-0.054187384;0.011323567;-0.007840553;0.028606603;0.024969848;-0.075143375;0.002157835;0.09266485;0.02435767;-0.0015325216;-0.06549154;0.056592323;-0.039344445;-0.08161142;0.06354152;-0.0015636606;-0.028226301;-0.08087262;0.09723305;0.033254057;0.013207429;-0.07787252;-0.061485074;-0.024570696;-0.060366884;0.12699102;-0.011685975;0.084598936;0.024795989;0.0551622;-0.002279827;-0.058644183;-0.024676705;-0.10905486;0.050255172;-0.054850966;0.021034727;0.107369654;-0.01662837;0.043635268;-0.018112328;0.07663322;0.13409089;-0.04557598;0.1444845;0.08578552;0.08395835;-0.060346242;0.030960856;-0.011448102;-0.006773295;0.03372611;-0.05014207;-0.011918762;0.0023414898;0.00784316;-0.0067946548;0.09989086;-0.10903325;-0.03854767;-0.0064990423;0.12438434;-0.08583748;-0.047604185;0.012159652;-0.18566433;0.0018504534;-0.058864504;-0.01790423;-0.021684289;0.0013122759;0.049302783;0.006605466;0.07472168;0.024045032;0.04595401;-0.014690383;0.05455863;-0.06340402;0.06686927;0.12342866;0.047934845;0.048510734;-0.07964486;0.14903876;0.001363034;-0.05455149;-0.070444666;-0.029976882;-0.03534103;0.09683541;0.19128427;0.020025035;0.09724568;0.10868128;-0.13879184;-0.09552607;0.1178639;0.02914769;-0.07402498;-0.010396813;-0.024657166;0.099361196;-0.058159564;0.058768794;0.07089764;-0.0011935944;0.099382706;0.05789324;-0.01565423;0.06697776;0.0768911;-0.012177121;-0.027578423;-0.020045547;0.041424748;-0.08509274;0.0039397324;0.017516293;0.027467754;-0.09790896;-0.008943495;0.00041648274;-0.0064951424;-0.08285641;0.106407404;-0.061116595;-0.0066352906;-0.0068268157;0.06833288;4.390916e-05;-0.07917627;-0.009485703;-0.00937758;0.09181023;0.082136005;0.06691364;0.08790494;-0.09758002;-0.058828585;-0.046438567;-0.067700155;0.027278585;0.035435483;0.026470888;0.024065575;0.14963934;0.10830882;0.07871197;0.19437808;-0.042953815;0.10312393;-0.010938779;-0.041824166;0.083023585;-0.026356775;-0.0059800795;0.053458232;-0.04378917;0.061941892;-0.12421485;0.10346748;0.03442516;0.023667311;0.056289274;-0.025988;-0.07530876;-0.030105397;-0.021354547;0.05373342;-0.009589207;0.0065393955;0.06200634;-0.082109556;0.050450187;-0.08976669;0.008712372;0.03079312;0.041264642;0.030123476;0.1563583;0.011960273;-0.0387205;0.06950353;0.03695693;0.008020608;-0.10369471;0.059437707;-0.04274829;-0.064332545;-0.06783549;0.061019707;0.038444255;0.018663654;0.05113913;-0.078149125;-0.15558057;-0.034748923;0.041380543;-0.045068644;-0.023449866;-0.052999966;0.022294942;0.029255988;-0.016877042;0.007141577;-0.023821652;0.1147007;0.05663962;-0.054870084;0.09018174;-0.031044796;0.038128015;-0.11183377;0.11659979;0.009664027;0.09115461
-0.079566106;-0.025497505;-0.0061451388;-0.11287281;-0.06532096;-0.050471973;0.014197092;-0.07804579;0.009097494;0.13878249;0.053454645;-0.038817983;0.007211876;-0.010537266;-0.0059667993;-0.13027406;-0.0952853;-0.09732956;0.0013754386;-0.051295362;0.00094533485;-0.05610241;0.034858547;0.039979193;0.08488072;0.0015867507;-0.05796968;0.10566058;0.010940867;-0.06135158;0.057757966;0.015514486;0.020943863;0.07023418;-0.06767262;-0.03539361;0.116612084;0.046145484;-0.046911497;-0.020016337;0.049531836;-0.06766723;0.16024525;0.10245117;0.054743376;0.015831659;0.05815663;0.037076503;-0.0026872559;0.013402328;-0.057692893;0.029717382;0.054596186;0.042892404;-0.053711034;-0.020088188;0.039623626;0.031351004;0.09308893;0.033173706;-0.034462553;0.016744498;-0.015571183;0.068746544;-0.061764088;0.085908845;0.0311454;-0.009574163;0.0022650724;-0.020382825;0.0872613;-0.032667536;-0.07188858;0.0852566;0.06429497;-0.0070016584;0.104745895;0.03098625;-0.063312426;0.11175088;0.006923197;0.0034848931;0.058499683;-0.05334207;0.092240706;0.061485406;-0.037251398;-0.098769784;-0.030498035;0.0018505931;-0.01236918;-0.039535634;-0.014546704;-0.039293133;0.034525454;0.03219705;-0.03264128;-0.089571185;0.06108239;0.037729464;0.039870292;0.014816521;-0.052314978;0.066526264;0.04994383;-0.009070344;0.07281454;-0.13509797;-0.029133584;0.08166628;-0.06452332;0.035459906;0.04320423;-0.021628456;0.053036384;0.012178864;-0.009230651;-0.0040962975;0.0047419276;-0.05106495;0.054437943;-0.051696092;0.05413461;0.06907745;0.023470996;0.05332456;0.093880825;0.10453908;0.025482059;0.080678135;0.11395205;0.016260216;0.032292932;0.09614391;-0.015373987;-0.0064398693;0.07630374;-0.04905854;0.038965143;0.013402109;0.11648041;0.026954804;-0.019615375;-0.046618644;0.028212441;0.08133424;0.033284664;0.09870027;-0.05017385;-0.04212677;-0.022069959;0.076137885;-0.045902677;-0.012417362;0.013326299;0.09141112;0.058974694;-0.040503725;0.05617264;0.03777387;0.019842431;-0.15633602;0.0985525;0.18614781;-0.036231015;-0.0072267824;-0.014601425;0.015858095;-0.028841188;0.062877685;-0.046458155;-0.055025157;0.08284461;0.00019212607;0.06624593;0.035234742;0.021629808;-0.037423067;0.018158542;0.075454846;0.04784948;-0.11462939;0.06417647;0.024290888;-0.051142737;0.027928947;0.036322918;-0.043067012;-0.034132395;0.0052035786;0.0636937;-0.04078022;0.08659669;-0.045586355;0.083207816;0.022973668;0.07827829;0.058598857;0.028039115;-0.033500448;0.0619057;-0.059193153;-0.049690776;0.09140272;-0.0070802793;0.04228736;0.015581246;0.04502383;-0.054843344;0.09193111;-0.032565895;-0.01817219;0.021258913;-0.0053272415;-0.046424076;-0.08635258;-0.092943035;-0.08992122;0.12145034;0.08066216;-0.028558299;0.057782505;-0.056403104;0.019148983;-0.030610222;0.033749398;0.04693886;0.113868564;0.07547978;0.012235643;-0.08112666;0.0028302942;0.092039764;0.0038112092;0.08233846;0.09114376;-0.013108344;0.052137233;0.014507296;-0.026252588;0.12225122;0.06771209;0.055511344;0.039128926;0.006117058;0.04204368;0.053742472;0.015043249;-0.06558906;-0.079698786;0.066235855;0.073239945;0.048447996;-0.09290409;0.051464383;0.040781308;-0.03987774;0.08447494;0.07683552;-0.064683944;-0.018826494;0.0023638362;-0.051751923;-0.08411595;-0.13011464;-0.027577039;0.03758015;-0.094960004;-0.08505928;-0.013263604;-0.0741504;-0.03557059;-0.04204095;-0.018169994;-0.2039854;0.08699655;-0.008352775;0.039893236;0.055352747;0.014220547;0.067831315;-0.043035697;-0.036730036;0.086221404;0.070190616;0.057655595;-0.035314187;0.09283742;-0.012807253;-0.030294893;0.02756398;-0.09242044;0.022490924;-0.053130575;0.10096169;-0.03366432;-0.0073448247;0.0033249096;-0.040988434;0.039855935;-0.039484136;-0.048502877;0.035822373;0.085214436;0.053942543;0.004512644;0.004063095;-0.055144843;-0.06955226;-0.030645002;-0.018612357;-0.043585617;0.024643434;-0.08807733;-0.097810864;0.06575911;0.089532375;0.07981143;-0.03809438;0.05121107;0.050741296;-0.0018684801;0.0024489623;0.082124025;0.025232796;0.007950241;-0.09265484;-0.012702982;0.09995158;0.03848689;-0.008425459;-0.038616586;-0.052430376;0.029142177;-0.022842443;0.0397549;-0.050299224;0.08146129;0.010590322;-0.03310598;0.081381425;0.015278877;0.048000168;0.014083629;-0.03413973;-0.051945765;-0.02015677;-0.109112434;0.07371631;0.083203554;-0.049057294;0.06944583;0.032108773;-0.010482754;0.02655245;0.05336169;0.045068633;0.05182761;-0.03216836;-0.03763029;-0.13448437;0.022781702;0.059144143;0.008708716;0.034335878;0.047784485;0.057672232;-0.05261444;-0.02562303;0.08034516;0.13623053;-0.0054389965;-0.055212595;-0.015331641;0.06227654;-0.014814242;0.0689657;0.0107523305;-0.05875458;0.08948282;-0.045555063;-0.044646367;-0.018726785;0.073924154;0.09285351;0.05563865;-0.0076072477;-0.00034178645;0.062404174;-0.026164545;0.008114283;-0.021387411;-0.07825481;-0.063508235;-0.06367185;0.0033074208;-0.025943248;0.06665558;0.018232869;0.04088722;0.09975324;0.03042212;-0.16813202;-0.015023845;0.038082108;0.14395621;0.016141009;-0.0249113;0.04116096;-0.015134198;-0.08258504;0.05211036;0.07030929;-0.06526702;-0.010500276;0.016938142;0.002849931;0.103899404;0.009132635;-0.016238526;0.045736857;-0.09611169;-0.053512026;0.01722055;-0.21055461;0.024883367;0.021541147;0.048613388;-0.009486564;0.023965111;-0.090789;0.04634069;0.06802513;-0.018485826;0.016373603;0.0801817;0.05799825;0.0501506;0.082986005;0.0971524;0.025332902;-0.014121071;0.05177781;-0.024273986;0.06837796;-0.010453811;-0.0009976574;-0.030549837;0.05950895;0.01811579;0.08386616;-0.056033213;0.033411723;-0.019108286;-0.08138522;-0.0954954;0.0076702926;0.11164397;-0.06192658;-0.0069682025;0.035126068;-0.020095536;-0.03731342;0.0287605;0.06874094;0.099844635;0.035183858;0.02415341;-0.030720223;-0.023096967;-0.0145812705;0.07285717;0.045852676;0.06321744;0.06926441;-0.03288329;0.056883465;0.0107236765;-0.018193146;0.024539255;0.089158565;0.036235083;0.0803208;0.085412756;-0.011729841;0.04175914;-0.035221457;-0.033909727;0.0871972;0.031198127;0.008154125;-0.041421153;-0.051627845;0.0840341;0.07296867;-0.056262814;-0.03362074;0.018392583;0.04332899;-0.075779304;0.004012753;-0.079570964;-0.10959482;0.022908123;-0.040212166;0.10344251;0.072787605;0.12182906;0.104161814;0.02991909;-0.008644701;0.06772916;-0.02747322;-0.05155539;-0.056107473;0.036374293;0.044622213;0.017224548;0.068923526;-0.01287648;-0.03976112;-0.030387633;-0.036846764;-0.0392331;0.052027225;0.013148006;0.017235268;-0.051462285;0.07997963;-0.05359476;0.022357024;0.07844524;0.008821249;-0.014147299;-0.034955908;0.10085132;0.024663316;-0.026936393;-0.022262469;0.11258502;0.04668324;-0.07113908;0.073602326;0.054900855;0.05777035;-0.14080612;-0.0030301078;0.07271727;-0.017765652;0.040557925;-0.040236317;0.0699416;-0.0034402811;0.029803704;0.03512145;-0.120304614;0.048111282;0.05383979;0.022048058;-0.015257197;0.07119688;0.015899774;-0.030181509;-0.04088957;0.07415762;-0.008728739;-0.030771635;0.010627933;0.07886454;0.022271702;-0.066639856;0.10489094;-0.06542267;0.08343334;0.07422873;0.11058039
-0.027124176;-0.05955438;0.0022140054;0.021248385;-0.05775828;0.012603807;0.015395935;-0.057959847;0.13487282;0.091101564;0.09122696;0.097329766;0.049057674;0.07803696;-0.008077054;-0.18008691;-0.040187016;-0.06923824;0.04815004;-0.056572568;0.06994476;0.051483728;0.07005031;0.04587066;0.08708953;0.017639976;-0.021088097;0.018323628;0.06460789;-0.002972873;0.023409454;0.06344439;-0.021750135;0.044777613;-0.10012697;0.046315193;0.038538653;-0.02510282;0.03697055;0.072137035;0.052894887;0.021386053;0.09221604;-0.04235015;0.049774047;0.026178986;0.030461015;0.011247014;-0.03912426;0.021225203;-0.05891486;-0.0067249825;-0.0006367235;-0.015043194;-0.0380433;-0.055132598;-0.057268407;-0.03896237;0.005217948;0.073363736;0.06820676;0.089690395;-0.06974559;-0.04093189;-0.032437332;0.043933917;-0.0045880573;-0.06688979;0.051743962;-0.050874114;-0.0039627957;-0.02143973;0.03822513;0.05534891;-0.09336846;0.036859654;0.16317835;-0.0030707452;-0.10753054;-0.045081005;0.077628575;0.028535908;0.034264106;0.049704965;0.0024210082;-0.048272353;0.0757454;-0.14779459;-0.02891717;-0.057952818;0.07378157;0.04079973;-0.025073623;0.088078104;0.09824165;0.05822486;-0.034138426;-0.054948054;0.0006373613;0.04694983;0.008478146;-0.05102305;0.030547617;0.050994474;0.08865995;-0.017301785;0.06296048;0.06846511;0.10616797;0.047165807;0.072263956;-0.0041615814;0.070242085;0.09171458;-0.009842319;0.018858366;0.03156019;0.056761835;-0.08033622;-0.025421279;-0.064210646;-0.050985977;-0.0895645;0.013796769;0.056729395;0.036643386;0.068351254;0.09470202;-0.02250225;0.039058182;0.076521136;0.04099167;0.015465244;0.06407821;-0.08487169;0.05824652;0.062368307;-0.07997359;0.019145438;-0.020166667;0.04397367;0.0326576;-0.039253917;0.045419715;-0.021422869;0.030642528;-0.085375905;-0.050597146;-0.12829116;0.08974215;0.0619815;0.12891708;0.010152403;0.094132036;0.03945139;-0.032304008;0.09007171;-0.06275267;-0.0804522;-0.07366836;-0.0003518839;-0.15162499;-0.003198409;-0.0023935544;-0.037852686;0.058771364;-0.055556573;-0.0027180496;-0.01365816;-0.049617726;-0.015512009;-0.0028671518;-0.010214384;0.043858428;-0.040872023;0.04445623;0.066006996;-0.0064242217;-0.00037446016;-0.04452407;-0.028137617;-0.042043164;0.094638884;0.010172493;0.038881775;-0.025373828;0.0829369;-0.06631674;0.014376559;0.053702526;0.038148787;0.031224703;0.01264855;0.03340227;-0.04347596;0.070087686;0.011446034;-0.04890288;0.012639489;-0.10530439;0.052270886;-0.014402183;-0.056667753;-0.03587648;-0.02019369;-0.011454058;0.045753952;-0.016477382;0.034231037;-0.11493269;0.058156773;-0.017828725;-0.017788932;-0.019559223;-0.0061937436;-0.072239235;-0.02984636;0.0049985317;0.044189967;-0.027324058;-0.037856575;0.1148302;0.07657691;-0.066881135;0.0024948423;0.06904921;-0.015033611;0.040368114;0.029510219;0.09250038;0.07859246;-0.0754243;0.025975648;-0.08135712;-0.06161432;-0.033251684;0.08396703;-0.05526708;-0.03827055;-0.025151623;-0.010220114;0.02809852;-0.010342311;0.055020254;0.018088678;-0.01812123;0.03877828;0.07121266;0.05367061;-0.06615471;0.07590694;0.06485656;0.050324053;-0.036798105;0.005161826;-0.004233496;0.05711637;-0.058652647;-0.009019167;-0.019461544;0.008471584;-0.014362073;0.074875735;0.08383525;0.035028793;0.021836836;0.052314844;0.015104797;0.034564056;0.03396249;-0.07213464;0.06808775;-0.055684768;0.06857591;-0.099310316;0.0016020252;0.028616756;-0.022068541;0.024651526;-0.077176265;0.060466807;-0.0017506077;-0.057318535;0.0884964;0.009783828;0.024903037;0.07595508;-0.038441144;-0.06304529;0.08164185;-0.0994109;-0.16333367;-0.0012179972;0.072404645;0.008149307;0.083765104;0.0502699;-0.053938877;0.09670141;0.07817678;0.05483261;0.017164478;0.04868511;0.07183621;-0.03742515;-0.059241734;0.060523484;-0.02006514;0.031835865;-0.067938596;-0.044582807;-0.009032863;-0.07106129;-0.032305576;-0.11287005;0.051275335;-0.048280362;0.009605739;0.058169927;0.0082399;0.019355051;-0.06772857;0.01268974;0.043018527;0.07881194;-0.04042482;-0.10381497;0.077892914;0.067976795;-0.07875996;0.003981012;0.024060337;0.009962814;-0.060674243;0.0005477077;0.08196543;-0.004543681;-0.028320793;0.004462717;0.021818016;0.027431827;0.0069009755;-0.0498229;0.023726149;-0.04066576;-0.028202103;-0.103372164;-0.02131344;0.020399734;0.033059448;0.0049519367;0.03211315;0.12445609;0.020133615;0.07325668;-0.059048448;-0.013201527;-0.012840596;-0.052823633;0.07427575;2.6050267e-05;0.031437874;0.017010117;0.049213618;-0.11174007;0.05080423;-0.011579288;-0.05291193;0.025536308;-0.0040942375;0.027848732;-0.036145065;-0.03369221;0.035624385;0.049332485;0.020873047;-0.039088164;-0.025904061;0.055979002;0.0003148111;0.09492058;-0.01864227;-0.07300316;-0.012128634;0.050204985;0.1039126;0.0146948295;0.018905992;0.08511293;0.055802796;-0.04398824;0.041765418;-0.02607293;-0.015689563;-0.051970303;-0.041223146;0.001209992;0.10026801;0.009550523;0.08770872;0.068270154;0.053232163;-0.093055926;0.057277314;0.074496344;0.015629722;-0.027458265;-0.07731547;0.08906676;0.05404032;-0.028082866;0.06712015;0.011131407;0.015416888;-0.072124384;-0.037260946;-0.05616871;0.1353658;0.027611578;-0.017739309;0.025335746;-0.13227963;-0.004439156;0.06519015;-0.07912972;0.02889214;0.038300887;0.06234362;-0.046057675;-0.06926131;-0.08028861;0.05615534;-0.08221045;-0.038484514;-0.021272793;0.02737798;0.030757802;-0.07051149;-0.081277184;0.048892878;0.05808328;-0.053543847;-0.03536873;0.10553497;0.06996364;0.02703577;0.12876213;0.09536965;-0.076079935;0.029881274;0.04845043;-0.07733001;0.015876329;0.07711727;-0.07513841;0.04323379;0.0023372627;0.011170276;0.04655409;0.12055322;0.013516189;0.036759343;0.049604435;-0.023406241;0.029532947;0.05880445;-0.01081751;-0.038950115;-0.0597305;0.0028520196;0.06700485;0.0016073105;0.020763308;0.034781136;-0.029522069;0.0064786975;-0.009215479;0.043749496;-0.032857638;-0.050925784;-0.01667484;-0.008781153;-0.0040171673;-0.014322783;-0.06866141;-0.014919605;-0.04038971;0.042002436;0.017616836;0.06906215;0.08875536;0.000604978;-0.0048770905;0.039086834;0.0042514065;0.051247183;-0.065653615;-0.05544416;-0.010995419;0.006591333;0.05120701;0.01958471;-0.046118345;0.10826047;0.008523039;0.11446983;-0.05907801;0.038248364;-0.02686565;0.07020392;0.036100518;-0.051305383;0.052140657;-0.0322318;0.09360106;-0.059476096;0.05482971;0.012741683;0.08151853;0.008810292;-0.034283035;-0.03356489;0.04176589;0.08714093;0.035754997;0.00965946;-0.01146417;0.046866614;0.1207841;0.09303063;0.060728453;-0.045992333;-0.06598993;-0.0075204647;-0.019974096;-0.03485789;-0.0016279016;0.06037137;-0.09033653;0.07826568;0.116434544;0.033021543;-0.06508592;0.045713264;0.047719613;0.0020354593;0.019745834;0.09865591;-0.059774563;0.01794782;0.0049321656;0.05785853;-0.0015480517;0.08310629;-0.053693913;-0.041091934;-0.009921839;0.10612549;0.013953496;-0.0016102486;-0.049812257;-0.037627988;0.12316623;-0.0361355;-0.06256128;-0.08514313;-0.06034118;-0.022524817;0.099457525;-0.018298382;-0.020559361;-0.041038904;-0.054800842;0.020069983;0.038760036;0.097291335
0.09545241;-0.05977309;0.025875073;-0.10412001;-0.0140125025;0.037940014;-0.03899623;-0.10111339;0.01368349;0.087164216;0.09104243;-0.052296925;0.057657;0.038070615;0.0066794073;-0.22737868;-0.055852134;0.06381477;0.031928297;0.07643716;-0.075566664;0.003016721;-0.015761167;-0.101791106;0.004168674;-0.018045215;0.13046949;0.07414098;0.040038344;-0.041403815;0.08116521;-0.07722096;0.036004093;-0.06442686;-0.042867754;0.101980455;0.048317537;-0.06543299;0.12137147;-0.015281885;-0.054717675;0.081509456;-0.07376887;-0.05532305;0.101577245;0.06499942;-0.05267329;0.019635461;-0.09464748;0.046218757;-0.10543264;-0.053977102;0.06547915;0.030249454;0.07791975;0.04420653;0.030487256;0.0036726394;0.045595188;-0.0054416643;-0.039125364;-0.0023659153;0.051729973;0.01995737;0.025315054;0.05976768;-0.05796515;0.009392645;0.0019204932;0.05396237;0.049650565;0.06902754;0.06506548;0.004010071;0.030484825;0.03182712;0.051563635;0.101849526;-0.06805351;0.12807198;-0.0052600284;0.036696833;0.07257159;0.059129518;0.0013764902;-0.061602313;-0.013568131;-0.044422947;0.0097018005;-0.0011069749;-0.021418214;-0.05376713;0.037309747;0.0019155362;0.03108333;0.052625027;-0.04519356;0.047824718;-0.017835673;-0.06541356;-0.005280684;-0.07719748;-0.07081814;0.020927247;0.0044466453;-0.042587917;-0.009933613;0.0470355;0.0435076;0.01965087;-0.019820156;0.0027054977;-0.035449225;0.051829163;-0.04290699;0.046893317;-0.008821594;0.020766191;0.028298687;0.040400848;-0.04917128;0.067227565;-0.00056903035;0.04681392;-0.08544102;0.06800329;0.09553524;-0.0265544;0.0026331425;0.04341176;0.037294168;-0.0750621;-0.019790852;-0.068822555;0.011674236;-0.02945066;-0.025985507;-0.11649503;-0.06674884;0.081213154;-0.0051076952;0.0544833;-0.03024838;0.07596023;0.02842239;0.040451884;-0.0022940307;-0.014583904;-0.096558616;0.05860529;-0.066824734;0.10154937;-0.05940878;0.086568184;0.01776509;0.08501682;0.049975257;-0.010859516;-0.066982284;0.06884593;0.06766728;-0.20893446;0.061058003;-0.035252254;-0.09341786;0.0033230658;-0.09101205;0.0035823444;0.08216018;0.0827521;0.043654174;-0.013830551;-0.05686315;0.06053897;0.04598737;-0.013954223;-0.0471316;-0.01810613;-0.09231225;0.078089386;-0.048280142;-0.0007646996;0.0075238296;0.06378191;-0.073210984;-0.011682579;-0.021840949;0.01786868;0.034493007;0.017147522;0.083139144;-0.056565564;0.034766495;0.030692885;0.06998895;-0.021550285;0.008906011;-0.057102583;0.040342152;-0.12117369;0.027459726;0.07368458;-0.016858082;0.063949615;0.057404026;0.0573955;-0.045426905;-0.054511603;0.084522314;-0.020055398;-0.028194722;0.0320164;0.10369434;-0.08146075;0.039705873;-0.026178058;-0.13775623;-0.0058167917;0.12965125;-0.02364133;0.0074122786;0.03602298;-0.026079746;-0.05186439;0.037862953;-0.05279975;0.024112005;0.0958528;-0.002945938;0.014515992;-0.04258242;0.08057974;0.07516019;0.0011664662;-0.062468052;0.0665777;0.03873775;0.07911875;-0.0022713053;-0.053818412;0.011191359;-0.052609608;0.0238755;0.06523959;0.017724043;0.086671874;0.084176905;0.0071696956;-0.03417408;-0.114037566;0.034324404;0.09395145;0.09931124;0.08063441;0.04002438;-0.050997846;-0.041435577;0.058264494;-0.040960845;0.10285653;-0.0070411167;-0.048201695;0.027659727;-0.027286623;0.011376755;0.04646682;0.08721746;0.072702564;-0.011943091;0.0947766;-0.05926516;-0.049794156;-0.07722674;0.14147113;-0.2013112;0.046308324;0.0655;-0.050083555;-0.049972676;-0.07940958;0.011595703;0.03826438;-0.08758071;0.07214387;0.052145224;-0.054551937;-0.051139984;0.06471259;0.014528731;0.021032747;-0.045377634;-0.11940603;-0.06786943;0.070724115;0.008651273;-0.042460635;-0.0016256676;-0.00672985;0.103388466;0.005988151;0.07144268;0.015969183;-0.012948139;0.042790096;0.007872647;0.024273429;0.030670254;0.018332005;-0.008482031;-0.060615025;0.08316985;-0.0005618406;-0.00017090394;0.004482666;-0.112567656;0.0011340687;0.08642411;-0.004171177;-0.08346984;-0.0018698677;-0.0353117;-0.089891516;-0.05321603;0.074086994;0.03135132;-0.06190094;-0.09939902;0.056266375;-0.014903141;-0.012610614;-0.029192407;0.08512173;0.00900748;-0.0023938846;-0.040831458;-0.012436065;0.028682979;-0.020353986;0.06631513;0.02965088;0.006445802;-0.056648236;0.011704644;0.12291331;-0.051051673;0.02351253;-0.006655764;-0.008948567;0.079991296;0.022169912;0.083590336;0.032189593;0.00697994;-0.02332656;0.042103168;-0.065884866;0.033139847;-0.086475275;-0.060968403;0.07000152;-0.0031311335;0.1017873;0.042509597;0.021083254;-0.04210379;-0.040059634;0.012018601;0.07378963;-0.051042497;0.030245496;0.02010275;0.023570213;-0.06834639;-0.033252176;0.10457277;-0.030480003;0.09130273;-0.074034214;0.0051298444;0.07774137;0.0029763188;0.06735605;0.024674475;-0.042835973;0.012901791;-0.026948415;-0.07002924;0.013311874;-0.0275544;0.0087041175;0.07139136;0.011635532;0.018917395;0.073317386;-0.013543386;0.05908304;-0.055474263;0.0039224336;0.05918243;0.06944153;0.088848904;0.013229903;-0.079881765;0.07568691;0.07215727;0.08576827;0.04746595;-0.09424292;0.098384075;0.0065398626;-0.028705748;0.10219049;-0.054886013;0.10687013;-0.018652352;0.09055208;0.067939736;0.006366864;-0.0024556194;0.06406593;-0.033942442;-0.12623742;0.048906222;0.08547222;-0.18726254;-0.02412167;0.02763653;-0.023307934;-0.09595895;0.067129;-0.03164629;-0.05176284;0.06731575;0.083037205;0.048738282;-0.020127362;-0.051527265;0.0835236;0.05699946;-0.036336143;0.0398044;0.05080927;0.01614002;0.03155965;0.03608456;0.07760057;0.07503441;0.068676904;0.053811315;0.08514625;0.021434352;-0.044038434;0.08626322;0.05213003;-0.16470431;-0.08606873;-0.038669854;0.021341464;0.046079915;0.06615836;0.022729743;-0.03130102;0.06671291;0.018348025;0.017505426;0.08854523;0.019883463;-0.02970928;0.026073596;0.06339308;-0.0028436931;0.0385292;0.0088420855;-0.054053478;-0.04908809;-0.051165275;-0.026681755;-0.0081975;-0.030041184;-0.044262107;-0.077591725;0.03540044;0.091199;-0.10236124;-0.000601217;-0.06048579;-0.012854724;0.021675086;0.07087224;0.062287495;-0.022496933;-0.014978702;0.052055247;-0.055806465;0.076755226;0.05886074;0.07394562;-0.04136441;-0.05530567;0.06585822;0.100264356;-0.07235024;0.006309639;-0.019222192;0.06120326;0.11609118;0.05609634;-0.02083581;-0.06279782;-0.052247837;-0.009807685;0.06688263;0.06954113;0.093745224;0.011744091;-0.037914734;0.05160938;-0.064465165;0.052220814;0.0425171;0.025207767;0.076840304;0.10809921;-0.009244518;0.076005965;-0.022684395;-0.018765321;0.061662666;0.025083333;0.059972037;0.04106043;-0.056088187;-0.14473946;0.049108382;0.056204744;0.0883485;-0.007202421;-0.012767473;-0.046655387;-0.08704389;0.0052208183;-0.08102141;-0.044777762;-0.04953099;0.057849303;-0.09517979;-0.055909574;0.116485156;0.048477538;0.049854714;0.06688597;0.040396955;-0.035322458;-0.0274548;0.068490505;-0.07168682;0.055279385;0.12576021;-0.063985415;-0.007828459;0.048284695;0.028971162;0.09697918;0.079508804;-0.04534119;0.062194508;-0.043782055;0.0335573;-0.017979398;0.0852675;-0.07388781;0.030717663;-0.12243763;-0.008642701;-0.0122955935;-0.038046647
-0.06165684;0.07819578;-0.043431558;-0.11413385;-0.055420745;0.041090183;0.002349223;-0.096019275;0.082630314;0.050781514;0.021369562;0.093003534;0.025774876;0.030903192;-0.041803494;-0.15288675;-0.089016445;-3.721111e-05;0.03132651;0.05201233;-0.006582892;-0.052355386;-0.0044176187;-0.113633156;0.0077747293;-0.070360124;0.10442373;-0.01507218;0.04514479;-0.0046778717;-0.022989018;0.06968955;0.015950866;0.04822916;-0.037189137;0.102744766;0.09462369;0.06637939;-0.015814587;0.055280227;0.10680402;-0.0006362252;0.07271887;0.010739048;0.04584203;-0.069916606;-0.010376577;0.04025937;-0.092056446;-0.07248783;-0.08177387;-0.035688624;-0.00969142;0.036998842;0.017650435;-0.07932999;-0.016010175;-0.032741442;0.003513842;0.030565983;0.027921107;0.01585642;-0.013879768;0.062637396;0.06310437;-0.016180642;0.054078747;-0.026505163;0.038156066;0.003961947;0.003635103;-0.016010756;-0.06423613;-0.028079143;-0.06270932;-0.0249078;0.13345857;0.0062949737;-0.06826374;0.06723864;0.015894672;-0.0556371;0.12764163;0.025116663;-0.07122506;-0.040978972;-0.009057146;-0.14624493;-0.028682847;0.04874519;0.03537286;-0.041624654;-0.029116306;0.06985044;0.045849837;0.08477045;0.024729757;0.05168442;0.07719861;0.021755906;-0.1021822;-0.006378097;0.08233183;-0.048766095;0.025717327;-0.022955315;-0.052137658;-0.029600907;-0.0005685341;-0.04398788;0.018610645;0.077563204;0.011892155;0.07349816;0.0827261;-0.0009016921;0.047885396;0.12250262;0.06589813;-0.03661135;-0.0028313627;0.005243108;-0.016036168;0.09252343;-0.03990295;0.08764627;0.11731765;-0.089221194;-0.027698986;-0.055400297;0.05956677;-0.012982901;0.08983356;0.021558873;0.08304967;0.07368928;0.04709675;-0.027960908;-0.057424214;0.05892625;-0.030153956;0.04847287;-0.03269507;0.0463861;0.034558814;-0.040794477;-0.040626958;0.07708582;-0.17228386;0.111082755;0.055960078;0.024774278;0.090003446;-0.022319768;-0.031027352;0.022206869;0.111510515;0.11184577;0.06534883;0.017687127;-0.0024600055;-0.16366561;-0.006815681;0.066081844;-0.099254616;-0.007821467;-0.009700506;-0.008498951;-0.015331275;0.08242344;-0.09022156;0.09421298;0.080300964;-0.06766671;0.029324606;-0.008711505;-0.06369039;-0.060597673;0.0060283476;0.09252055;0.06050604;-0.0152969025;0.014787796;-0.06133417;0.01565944;-0.023725351;0.0064214;0.07485535;0.07543605;0.024110133;-0.034838527;-0.016961167;0.14802502;0.0431745;0.119851634;-0.0035729671;-0.051342625;-0.00025157342;-0.018194811;0.023287129;0.053548265;-0.04771419;-0.01234095;0.05666278;0.07614135;-0.053474903;-0.012002506;0.054771543;0.043750126;-0.103443295;-0.03826909;0.07198052;-0.002016197;-0.09181522;0.08392941;-0.09649258;-0.119357646;0.02701144;0.10825942;0.032386582;-0.042853292;-0.047355536;0.033786803;0.032954253;0.10767549;-0.02922272;0.06850462;0.072511114;0.0037636491;-0.042837523;0.07060999;0.015104811;-0.009649159;-0.060050383;0.029824516;0.060575034;0.042204246;-0.016007287;0.10002379;0.067747496;0.12503852;-0.04731438;0.0027476156;-0.0010585452;-0.082602225;0.09236189;0.10543653;-0.018898444;-0.020609222;-0.12326983;0.043614782;0.019815093;0.001283015;0.049150363;0.11128292;-0.06948541;-0.07601868;-0.032771863;0.046125196;-0.040637847;0.046741914;0.0543783;0.02730001;0.06672922;-0.13805005;-0.03547238;0.057311434;-0.060766716;-0.03307606;-0.034741238;0.013561675;0.042276993;-0.0028182273;0.09208095;-0.14253671;-0.027073503;0.11005446;0.0021450205;-0.07784035;-0.040169273;-0.13357756;-0.039556395;-0.018040871;0.038044322;-0.058398876;-0.027030073;-0.041320756;-0.03329724;0.091739394;-0.05445416;-0.025449898;-0.04315337;0.043855745;0.04006803;-0.006657903;0.060236387;0.050592534;-0.06527516;-0.020183539;0.07974872;0.01686091;0.04940317;0.07452401;0.037643485;-0.018809248;-0.003044879;-0.022724744;0.014933206;-0.044561066;-0.02408134;0.09821279;0.089981265;-0.06996305;-0.03584537;-0.0997371;0.06860806;-0.042112485;-0.011259463;0.061950866;-0.040609486;-0.028808605;-0.012250698;0.003296096;0.05162921;-0.022408552;0.013643222;0.011558031;-0.0066052405;0.059441168;0.06317887;-0.02876896;-0.04564212;0.06478305;-0.08134546;-0.06279464;0.090795174;0.055349164;-0.026011446;0.11010107;0.10541152;0.05466408;0.086062886;-0.05264902;0.06767535;-0.05180145;-0.052278478;-0.028796619;0.022077184;0.075350665;0.092848174;0.09202747;0.0050321603;0.08463123;-0.022884311;0.01655123;-0.07906126;0.043302454;0.065412134;-0.05034482;-0.037090264;-0.076996505;0.092649035;0.047907945;0.07088882;-0.033504225;0.06599358;0.024605956;0.0884913;0.017659701;0.10189865;-0.01602567;0.051454183;-0.12258474;0.034358166;-0.07565;0.018605528;-0.0045076245;-0.036278542;-0.06528766;0.112530455;-0.0305941;0.07881795;-0.0065961154;0.03648154;-0.0409815;0.10700808;-0.003270226;0.091409415;-0.022487203;0.0475153;0.016282942;0.10857086;0.057406977;0.062374845;-0.05291649;0.06296;0.0001350483;0.009831931;0.01673892;-0.024918362;-0.03414272;0.07692181;-0.20595123;0.058170363;0.018508764;0.09607426;-0.061336335;-0.092184864;0.06882944;-0.012780084;0.06712106;0.08427455;-0.021744616;0.027835932;0.009460839;0.03266998;-0.061203174;-0.044374656;0.022564055;-0.046926703;0.059704;0.04660996;-0.01630897;0.009750887;-0.20960322;-0.018864809;0.014587589;0.08071062;-0.06388363;-0.07575517;-0.06491791;0.047305293;-0.014188989;-0.027853064;-0.017454801;0.009187883;-0.07521365;0.071781486;-0.04608382;-0.05780374;-0.042652506;0.024452945;-0.022084923;-0.042655814;0.0364101;0.051842947;0.09124433;0.011903066;0.052874923;0.0027124179;0.048179105;0.06981835;0.033075362;0.046333466;-0.026176343;-0.11585792;0.014871022;0.07420845;0.034579225;0.043181337;0.082233764;-0.0725719;0.017163051;-0.017154913;-0.07394901;0.002574501;0.0058563845;-0.05402471;-0.031753674;-0.026380287;-0.023487331;0.040926922;0.019389834;0.06582757;-0.015570846;0.042891365;0.00090048695;-0.04728972;-0.00049981225;-0.06272937;-0.08809491;-0.007889682;0.008041086;-0.06973305;-0.03535235;0.026703138;0.09803733;0.067688994;-0.06906978;0.020849928;0.078352205;0.030696671;0.030571409;0.07623464;-0.047937345;-0.08621803;0.022469375;0.057623174;-0.00635886;-0.015554823;-0.03732008;0.06926449;-0.05739625;-0.051696066;0.08385135;0.07254108;-0.05339349;-0.023710456;0.088306285;0.035732538;0.11050824;-0.06317642;-0.03043293;0.027205475;-0.004962154;0.030656558;-0.048108608;-0.041682422;0.043104816;0.07147545;0.00017769019;0.08120699;0.13231662;0.073859826;-0.05240978;0.0042879954;0.015590639;-0.04490449;0.10958229;-0.031931866;0.045795716;0.09180886;-0.053465556;-0.0390723;0.04238202;0.016760198;0.08979695;0.036890484;-0.014978349;-0.06409832;0.077073045;-0.13234232;-0.011373368;-0.02637364;-0.065652914;-0.103832975;-0.07020737;0.012778807;0.10107282;0.07761636;0.06363281;-0.030639509;-0.037617743;0.010078762;0.06915508;0.012117131;0.061493233;0.022028662;-0.06392822;0.03111309;-0.039087027;0.004681923;-0.02013447;0.07097492;0.038157523;-0.013761288;0.017864918;0.026116095;0.036147997;0.0029956603;0.016521608;0.064233445;-0.07703802;-0.036332555;0.004531744;0.059694525
0.069156125;0.060632534;0.0877252;-0.053232748;-0.07386046;0.077078946;0.013911071;0.009856099;-0.030911718;-0.00061390287;0.06079085;0.041783456;-0.044549234;-0.034548912;-0.03307861;-0.1911113;0.0032454452;-0.03501989;-0.00035098172;-0.01734888;0.012173743;0.049039256;-0.07811881;0.03273784;-0.032030717;-0.044639386;-0.051375408;-0.018999143;0.018925646;0.026711378;-0.016867183;-0.029166296;-0.0024321454;-0.062291525;-0.06763356;0.035414297;0.047728665;0.07134265;0.010262541;-0.0113732405;0.0023855532;0.026686935;0.009770489;0.04024252;0.041069385;-0.019457137;-0.04895322;-0.042302422;-0.097213045;-0.044842474;-0.07292955;0.09343382;0.056106552;0.06780762;0.11610189;-0.04389774;0.04132571;-0.022645138;-0.041703552;-0.018045861;-0.011960899;-0.019674232;0.07658221;-0.025426565;0.0264426;-0.05705202;-0.07803701;-0.0147010805;-0.011642689;-0.0022343702;0.07632312;-0.030654458;0.062255766;-0.039920967;0.0326386;0.05424634;-0.007528547;0.0745791;-0.10125549;-0.05364792;-0.042935506;-0.0661941;0.030030916;0.066245906;-0.101867825;-0.0010206761;0.03168136;-0.110447146;-0.010394368;0.08902311;-0.011154889;-0.046301868;0.09863178;-0.011807717;0.022060767;0.06789327;-0.036631513;-0.020296033;-0.07678648;-0.046752114;-0.115148954;0.06722488;0.04852331;-0.04041529;0.0070928745;0.07371519;0.0918095;0.08999065;0.06046718;0.0035619584;-0.04064645;0.036518786;-0.049667362;0.04043093;0.050081275;0.0072566248;-0.061394148;0.08814775;0.06333325;0.042521197;-0.031887356;0.063530006;-0.03927055;-0.010039976;-0.0027252166;-0.03647678;0.101310514;-0.051605638;-0.056876138;-0.007260355;-0.0022834039;-0.026704947;-0.009076374;0.038007744;-0.011419768;0.02597068;-0.045988817;-0.048986793;-0.032661602;0.01408652;0.0031637247;0.010697561;-0.04263605;0.0225079;-0.011389956;0.10037313;0.0068842038;-0.06259005;-0.11935417;0.10421808;-0.008766424;0.025451927;0.025120804;-0.015644023;0.008098101;0.06751014;0.054110613;0.05918752;-0.066132806;0.021222487;0.03562488;-0.19531587;0.0020056358;0.013350957;-0.047143504;0.054849636;-0.08076161;0.046692446;0.016842408;0.0827572;0.054093838;-0.0045265495;-0.023449512;0.0023364548;0.044287924;0.02365413;0.061661433;0.08225839;0.077177525;-0.0024031613;-0.062615536;0.017416613;-0.01071271;-0.058580976;-0.11536162;0.008392051;0.077619135;0.042834166;0.051386375;-0.03549621;-0.06589458;0.021942498;-0.015570491;0.051106088;0.07481338;-0.09903562;0.0705107;-0.024644826;0.089509;-0.05393963;-0.00016438196;0.02124951;0.012623587;-0.029073808;-0.025624901;0.0024844857;0.028545827;-0.025184587;-0.050078038;-0.084592804;-0.024246458;0.028555403;-0.010548718;0.033062413;-0.05858423;-0.09184983;-0.06682045;0.034485333;-0.008619272;0.06638086;0.02373881;0.044919737;0.046451006;0.06265592;0.07389453;-0.012387053;0.030954314;-0.00049045513;-0.07113863;-0.04525132;-0.08429379;0.033469275;-0.0117539335;-0.08458885;0.04600058;0.07687361;0.011760965;-0.056594282;-0.04147244;0.053117957;-0.008802632;0.07243239;-0.017303515;-0.029617073;-0.018810732;-0.06356996;0.078225724;0.071841754;0.008185355;-0.095680155;0.056921486;-0.07683885;-0.0245051;0.012429412;0.03925471;-0.093143836;0.010724006;-0.019340208;-0.04817404;-0.08825452;-0.03524867;0.0722357;-0.026967311;0.012712945;0.024970448;0.020051925;0.03918183;-0.113782525;0.048120815;-0.035999604;0.077322364;-0.014731125;-0.019049779;0.10493972;-0.14694317;-0.048361126;0.001812274;-0.052220844;0.040587272;0.076878585;-0.002272235;0.016582124;-0.081878915;0.09050075;-0.023074396;-0.06306639;-0.03351913;0.0781998;-0.03532026;-0.008823927;0.041372452;0.021540662;0.018571632;-0.02708843;-0.034179542;0.07513242;-0.0019192751;0.059093066;0.029530488;-0.0030639307;0.0080408165;0.080459446;0.019425666;0.03764552;0.1471102;0.009999877;-0.03323679;-0.08259332;-0.038828447;-0.0086034015;0.08585116;0.04670883;0.0284194;0.04941068;-0.027525663;-0.011405625;-0.02115273;0.059291225;0.030264352;-0.028387237;0.059738223;0.01323772;-0.013104705;-0.051980615;-0.029883139;-0.009007861;-0.019544164;0.011914178;-0.0724965;0.038125806;0.0550101;0.06322924;-0.07069797;0.0025524586;-0.0592725;-0.08798036;-0.030782165;-0.04383547;0.13603066;0.0010347955;-0.009944775;0.066348165;-0.09071644;-0.030962788;-0.070970654;0.0733611;-0.10205379;-0.12136526;-0.03664216;-0.005267938;0.02611276;0.030250221;-0.045715846;-0.07093177;0.05237976;0.010742302;0.029915195;0.008708983;0.008033841;0.044166073;-0.12083682;0.09591625;0.006428861;-0.06183641;-0.0065222746;0.04236912;0.01790388;-0.00079551735;-0.017346114;0.05830072;0.14661708;0.076116405;0.01473782;-0.0029816355;-0.060236096;0.07303456;0.044045605;0.06499294;-0.048327304;-0.0359171;0.031688206;-0.03306016;-0.07900745;0.017260754;0.08712478;0.017286174;0.06906913;0.050042175;0.08241306;0.08292824;-0.053216163;0.100110374;-0.06265743;-0.080599494;-0.080699116;0.0604523;0.072843;-0.033106815;0.02415766;0.034250386;-0.044995166;0.053971995;-0.17242415;0.11358686;0.07769528;-0.029018693;0.07066635;-0.05031954;0.10806286;0.06979846;-0.08517274;0.072874054;0.061471198;-0.028497769;0.009287609;-0.028338967;-0.047122426;-0.07075058;-0.04431824;-0.004774548;-0.048018713;0.06643225;0.057854466;0.059298906;-0.07966981;0.09174759;0.08019775;0.05735762;0.019687599;0.022169003;-0.10280076;-0.050358295;0.024603862;-0.041033693;0.02007619;-0.0077495794;-0.030775592;0.05264873;-0.008249981;-0.027146865;-0.011802167;0.03175426;0.06867784;0.07988636;0.051502272;-0.0133169005;-0.006180078;-0.027458983;-0.038074907;-6.349143e-05;-0.05448034;0.0005416206;-0.03358973;-0.016234463;-0.008206507;-0.13892452;-0.044878937;0.048005182;-0.033483595;0.08841496;-0.034844354;0.030148907;0.037181117;-0.07045985;-0.03258506;0.1004594;-0.025137823;-0.08060924;0.064411074;0.020921167;-0.038057018;0.09070288;0.068647645;-0.013048778;-0.021878742;-0.049491942;-0.047989372;-0.096353345;0.05489337;-0.076812;-0.040878095;-0.0035901722;-0.001162286;-0.042807788;0.08207728;-0.0685654;0.03265711;-0.0225674;0.031733237;0.012170222;0.08074519;0.017964333;0.046291254;-0.06636365;0.08237283;0.02721237;0.07320591;-0.030345706;-0.0055738543;0.10748951;-0.014578389;0.021080848;-0.0020064877;-0.0058266763;0.05515039;0.06645095;0.0109423315;0.052306544;0.015453879;0.07213877;0.03150321;-0.03154206;0.04154534;0.046397984;0.090668514;0.05771754;-0.012467623;0.03459166;-0.0608968;-0.082519434;-0.03403211;0.030108275;0.07991041;0.08754497;0.08824509;0.03424487;0.0629774;-0.057526674;0.11902699;-0.008704691;0.079792604;-0.024509309;-0.10812141;-0.04393769;0.03195639;0.05229784;0.0028317666;0.06350177;-0.05764342;-0.10636678;0.09633948;-0.08843131;0.060085636;0.08056858;-0.078075506;-0.042713482;0.0016207254;0.028583318;-0.00092343433;0.08624183;0.09581839;0.019925363;0.070292875;-0.045193654;-0.032445986;-0.12563153;0.0018920333;-0.011439788;0.056131586;0.01676206;-0.022852568;-0.020945024;-0.05834035;0.016722538;0.020544697;-0.050948236;-0.016779032;-0.06314215;-0.042702936;-0.053492315;0.04251703;-0.023262093;-0.08976146;0.065637864;0.015393441;-0.0072462484
0.086635605;-0.05789206;0.062447872;0.08123232;0.048458315;0.048230723;0.09327315;-0.015607299;-0.050323654;-0.09468836;-0.005663384;0.07977578;0.0012510219;0.0032346882;-0.074032396;-0.08268407;0.0021594788;0.01753543;-0.0838356;0.084635854;0.0067455303;-0.065435775;-0.0053537125;-0.0141501;-0.052149452;0.022691727;-0.05248364;-0.07977801;0.01140369;0.052342035;-0.035883907;-0.08233935;0.018616991;0.040174276;-0.025987512;0.09372841;0.023156371;-0.027160157;-0.016802022;0.0045142453;-0.0076817293;-0.05082861;0.04173387;-0.058980566;0.005074722;-0.0649799;-0.14070539;0.07071719;-0.14207326;-0.037479993;-0.057708815;-0.025616352;-0.0101926215;0.07921646;0.08815154;0.069555;-0.006516718;0.036547877;-0.10109492;0.013841693;0.054303378;0.09857677;-0.0024765998;0.00425597;-0.0037104897;-0.031238666;-0.15636502;0.0010747556;0.025459005;0.033030316;0.00017173521;0.034504976;0.08883933;0.05952215;-0.036150146;0.061915334;0.013318302;-0.03153017;-0.0034274915;0.06941967;-0.029870039;-0.03243826;0.08443341;0.018972576;-0.0005334164;0.025489787;0.044339042;-0.15679201;-0.03920854;0.04051422;0.020053549;0.023147034;0.16598634;-0.044814315;-0.086753435;-0.051241193;-0.023517804;-0.004362358;-0.012830887;0.050533205;-0.07649502;0.08107384;-0.018110888;-0.010234408;-0.067675814;0.08518646;0.07122248;0.015441737;0.06382866;-0.049572233;0.07776438;0.09142127;0.08023099;-0.058018245;-0.0088321995;-0.056725778;-0.019438656;-0.00983393;-0.012029668;0.051764645;-0.032728147;-0.040564276;-0.101255074;-0.05173038;-0.06204459;0.035628077;0.026887571;-0.058199473;0.0033049558;-0.003846701;0.021267934;-0.029435327;0.066411525;-0.014714136;-0.08594983;0.03966951;-0.055630527;-0.015479302;-0.035031967;0.021857034;-0.052872457;0.041598007;0.05500911;0.03637473;0.08898286;0.07971804;0.076700844;-0.04171264;-0.06199414;-0.015450714;0.022613917;0.00856841;-0.06532671;0.08582592;-0.04484575;-0.013106208;0.1197846;0.030500896;-0.00039073412;0.004916545;-0.012012957;-0.046942092;-0.017380234;0.08274605;-0.13978565;0.07670406;-0.0044711134;0.102339745;0.047907982;0.05529379;-0.04556359;-0.038278136;-0.018914491;0.08141368;-0.005938757;0.06532452;-0.018597683;0.041790877;-0.06111514;-0.04530968;-0.05668996;0.09679925;0.0101638585;0.047939714;-0.08473343;0.02226023;-0.07186547;0.09244137;-0.0566395;0.045742087;0.05108722;0.010625183;0.04531501;-0.057921275;0.02068346;0.038262498;0.052004587;0.026688179;0.04511134;-0.020269262;0.012370406;0.02095536;0.021958608;-0.08012762;-0.10765143;0.06275691;-0.048458528;0.04061881;-0.032397665;-0.03483957;-0.026005596;-0.064278364;0.077437855;-0.06910509;0.06955222;-0.091520436;-0.0823962;-0.090694845;0.122339;-0.025231766;0.036571756;0.0089942785;0.018786332;-0.07715234;0.09454654;-0.02441626;0.109285615;-0.04389064;0.04828593;0.044094507;0.00936807;0.01737019;-0.07262931;0.09734775;0.06266993;-0.040581465;-0.0031441436;0.06015816;-0.012598807;-0.048808534;0.07308464;-0.075957365;0.025575712;-0.045267988;0.020290602;-0.100488715;0.07644734;-0.0026276724;0.064924344;-0.071836315;-0.06574746;-0.011780793;0.03340981;0.08496324;0.02889406;-0.10184109;0.0009462314;0.05003647;0.08383907;-0.04942295;-0.05226949;-0.02774347;-0.045187633;0.08282997;-0.10796149;-0.0053730593;0.08399556;0.0068544;0.039700672;0.03560283;0.021536848;-0.040247235;0.05991657;0.07491192;-0.16967861;0.06036266;-0.037710484;-0.027309693;-0.07636265;-0.06322566;-0.17467812;-0.004588826;-0.13053255;-0.014265854;0.06675388;-0.007836826;0.0010162154;-0.0236939;-0.031630643;-0.025698347;0.025663765;-0.03712508;0.040356196;-0.025755972;-0.034096893;-0.044488084;0.04160982;-0.04038336;-0.018783586;0.039067905;-0.0014313773;0.055387896;-0.013732164;0.00116162;0.12958981;0.0009169718;-0.03972081;-0.038204737;0.06520526;-0.052878227;-0.026023403;0.007729576;-0.06740382;-0.015343067;-0.039444976;0.058112033;-0.047464613;0.093941;-0.034783456;0.042456325;0.003272422;-0.083835065;0.04236221;-0.043643996;-0.029839395;0.085134655;-0.025183711;-0.07750616;-0.031069474;-0.031014543;0.024813596;0.013951562;-0.025779614;-0.008123648;0.08570594;0.034607984;-0.038200337;0.023995899;0.024676;0.08628674;-0.018689182;0.081821635;-0.076919876;0.094166294;-0.0099590765;0.043767814;0.014788359;-0.073223375;-0.046796106;0.086586684;0.08414122;-0.029808331;-0.006958899;0.0583565;0.00047522679;0.061625738;-0.05649138;-0.021907954;-0.062680274;0.008822561;-0.10177263;0.0214899;-0.031391505;-0.05814232;-0.011592341;0.07477352;0.08275023;0.10808945;-0.03227696;-0.006736402;0.03487938;-0.075113356;-0.024503052;-0.07943053;-0.01222045;0.064117454;-0.054218996;0.0089785475;-0.016990878;0.020403223;-0.04111908;-0.03862023;0.06538554;-0.007385008;-0.009974839;-0.01102816;-0.009221976;-0.032517;-0.05872631;-0.007181772;0.015450083;0.015379824;0.04854876;-0.0076272627;-0.043402046;0.03963865;-0.06795266;0.033914294;-0.044310946;-0.044608112;0.045178644;-0.0069394372;-0.13320622;-0.07854332;0.024230765;-0.0150290625;-0.026476843;-0.040684085;-0.007567167;0.05286494;0.030401325;-0.024168126;0.06649632;-0.021869589;-0.06547543;0.10508974;0.05282818;-0.10263364;-0.006438292;-0.07012684;-0.053823937;-0.08221035;-0.028593231;0.05147925;-0.10126205;-0.04405253;-0.0018905784;0.060966413;-0.10392698;0.02298477;0.030106355;0.062023252;0.045992345;0.009977263;-0.031632286;-0.017351551;0.041810807;-0.028178576;-0.062954515;0.061232124;0.07021052;-0.040550433;0.041152302;0.07014407;0.030621164;-0.054815553;0.12304816;0.033676464;0.08869392;0.09530644;-0.019271122;0.042356413;0.064253494;-0.014004397;-0.08164093;-0.028426465;-0.03869809;0.000979607;0.002047876;0.11114064;-0.019568095;0.0683364;-0.054693256;-0.05985249;-0.054311134;0.0021244937;0.029614119;-0.0754503;0.06508895;0.08485084;-0.07360224;0.043295868;0.007824611;-0.044329487;-0.060882468;0.00993966;-0.01861218;-0.07135026;0.029638145;0.054865617;-0.005317548;-0.00832157;0.10816832;-0.008102196;0.013763874;0.029674843;0.0779059;-0.019718023;-0.05920403;-0.03395855;0.03639727;0.024709448;0.019691978;-0.044869516;0.08462867;-0.013628095;0.0017323832;-0.04977447;-0.01409926;0.09430628;0.08802177;0.012469215;-0.079057015;0.049253814;0.055900156;-0.030905858;0.021500766;0.05309196;0.07135712;-0.009153179;0.043091625;-0.07497708;-0.06488906;0.020094106;0.11531661;0.034268647;0.03241111;-0.07472908;0.047214016;-0.060784332;-0.055610728;0.015861169;0.11801518;-0.0023573393;0.08828884;0.047250677;-0.02672308;-0.021577096;-0.042504676;0.043610085;0.09537048;0.03785065;-0.018944813;-0.069456026;0.052084275;0.092801556;0.02624133;0.08841473;-0.19893828;0.022828445;0.13231052;-0.042370718;0.0031622911;-0.0021854092;-0.035883613;0.06598967;-0.041912578;0.032893457;0.091292046;0.049504116;0.008951657;0.05503758;-0.024157995;0.09517729;0.059764035;-0.02351231;-0.051753588;0.031694483;-0.042935487;-0.097155504;0.031408627;-0.055780817;0.056586515;0.07623917;-0.030337188;0.071480304;0.0002223977;-0.024875268;-0.059055302;0.034682103;0.07037236;0.012364382;-0.046880033;-0.037434332;0.0071708094;0.0041347085
-0.065554254;0.06764287;0.05458323;-0.09825673;0.018231012;0.048507906;0.077080294;0.07862441;-0.12207322;-0.015045601;0.02701207;-0.08404793;-0.068741165;-0.03661897;-0.0145414155;-0.09138973;-0.018753322;0.067441575;-0.063320935;-0.034690283;0.023422033;0.06035048;0.07390369;0.001499152;-0.027034877;0.044411793;0.07486177;0.0093153035;0.021796927;0.008566059;0.048731923;0.040990546;-0.014774746;0.09479004;-0.043516424;0.060374595;-0.00279294;0.029161943;-0.010994041;-0.04182267;0.11156984;-0.080437355;-0.012891194;-0.012150272;-0.088970214;0.049567018;-0.15236223;-0.041333787;-0.07547099;-0.065311484;0.00760471;-0.0031812317;0.0632747;-0.036800776;0.08556755;0.09868996;0.06305672;0.069471076;-0.13829714;-0.058804456;-0.008427029;0.14275976;0.073509775;0.09137046;-0.039458435;-0.088973254;-0.08842173;-0.10578536;-0.05773225;-0.045787916;0.05477881;0.042377938;-0.07230165;0.07265985;-0.004897799;-0.06640094;0.028595239;0.040618394;0.017612109;-0.026055617;0.02645755;-0.06960056;0.027123533;-0.036954753;-0.05617921;0.09419665;0.061358556;-0.11291421;0.072229415;0.05129961;0.027716098;0.061005164;-0.006224087;0.058426097;-0.041072715;-0.056354832;0.027217051;0.050376818;0.09607404;0.021309031;-0.052156992;-0.043949828;0.047627836;-0.069774754;0.050796766;-0.011471883;-0.011872949;-0.011970505;0.0065108784;-0.03246147;0.045023683;0.049382657;-0.06866032;0.048866436;0.033434622;0.015313243;0.015552379;0.06342066;0.048678745;0.031159028;0.028000714;0.07051186;0.010025569;-0.09146139;0.09029511;-0.06968337;0.07183685;-0.10686621;0.0025240886;0.03148318;0.044068094;0.20369697;0.028571539;-0.0055874116;-0.025957268;0.031412505;0.021577502;-0.04476398;-0.044784695;-0.07217795;-0.033772763;0.03271065;-0.0280157;-0.05749735;-0.06377406;0.026165936;0.08417535;-0.034909993;-0.110310756;0.025122005;-0.07620346;0.04795517;0.03234045;0.05548438;-0.05899251;-0.008895425;-0.032048885;-0.0804682;0.06296028;-0.035474796;0.079029135;-0.09860725;0.11893932;-0.011235848;-0.10096215;-0.056471076;0.12057174;0.011058352;-0.034255244;0.014627068;0.1248211;-0.04089499;0.023511589;0.07379518;-0.016998088;-0.0107594365;0.056364294;0.0079832105;0.060122244;0.092862174;0.016824506;0.05424437;-0.027638238;-0.053852446;0.026138484;0.07933763;-0.020630494;-0.090389945;0.0069667846;-0.024704434;0.0015725621;-0.033571146;0.06566683;-0.032359708;-0.12723051;-0.09008876;-0.042113382;-0.06524766;0.094822295;-0.004960276;0.050511926;-0.04301874;-0.010932702;0.028827725;-0.064254716;-0.018663619;-0.099639565;0.0020302532;-0.04708541;0.1037656;-0.084772274;0.07709464;-0.025799973;-0.021320857;0.06679543;-0.08624967;-0.08522819;0.031915423;0.14995354;0.036837574;-0.0033170334;-0.044533208;-0.037490226;0.04295771;0.0042195767;0.049049415;-0.01469679;0.13014431;0.039049778;0.016981969;0.05778766;0.08051064;0.0376859;0.0039760508;-0.0035004106;-0.027626136;-0.04791724;0.00506254;0.040100396;-0.097072914;-0.0067524784;-0.061425686;-0.0076283873;0.0068627056;0.01523327;0.062218618;0.04607878;-0.04243244;0.030103711;-0.08692108;0.05040548;0.046234194;-0.044105794;0.09078506;-0.014147785;-0.10214615;-0.040210173;-0.05605136;0.08040779;-0.1502282;0.016239084;0.042714607;0.07698749;0.09431276;-0.01286476;0.04871007;-0.041482113;-0.044310212;-0.08837576;-0.033559;-0.069768906;-0.0037495685;0.012797677;0.021029329;-0.104601316;0.09201898;0.048344783;0.02161471;-0.026215069;-0.06231632;-0.048835218;-0.09044167;-0.0888421;-0.0022823573;-0.051482696;0.004160269;0.09038347;0.09365654;-0.003647052;0.036716808;0.023117201;-0.15499876;0.1495842;0.0019985766;-0.031651564;-0.0062184734;0.025836395;0.09969382;0.081340276;-0.077279344;-0.06450095;0.072961025;0.05530369;0.058659747;0.093802325;0.028589768;-0.0017912537;0.08683098;0.045879997;-0.065317966;0.07451862;0.039609693;0.061540224;-0.087342635;0.047926247;-0.06392719;-0.070161715;0.026022974;-0.026283715;-0.050245173;-0.051407624;0.1109171;0.066245675;-0.052300133;-0.0060723303;0.018498788;-0.018564109;0.08221598;-0.024483154;-0.05795197;0.011436746;0.08948694;0.0063374615;0.044395003;-0.06753771;0.063387744;-0.041203976;0.009318343;0.106482245;0.009817658;0.05083374;0.008541812;-0.12156109;-0.015681243;0.08105269;-0.046885353;-0.09799044;-0.008572307;0.06477173;-0.03913522;-0.014509923;-0.07098436;0.07809817;0.024235157;-0.010627493;-0.051790386;0.009775308;0.05759643;0.0740922;0.06659637;-0.11259259;0.023520768;-0.025728296;-0.008521807;0.040891066;-0.07275729;0.0943458;0.07454027;0.0100911;0.08399768;0.09801462;-0.05228834;-0.09068125;-0.100069486;-0.02917175;0.069219835;-0.013531162;0.09603708;0.04905875;-0.065306276;-0.06313447;0.067786895;0.053393796;0.06857032;0.09543819;-0.036805965;-0.12073016;0.07555559;0.03585813;0.062086027;0.07330231;0.0071246424;0.015426428;0.05982848;-0.04351;-0.026861422;0.07107171;0.029871099;0.005308609;0.026639313;0.04689406;0.020771168;-0.1692519;-0.019993642;0.025771813;0.07939376;-0.034260232;-0.019921767;-0.017147318;0.05844053;0.031092681;-0.014274754;-0.005554769;0.060161404;0.07253013;0.045244712;0.06942536;-0.13829648;-0.018557113;-0.039357964;-0.112589896;-0.031212583;-0.07965515;-0.020673867;-0.105587415;-0.07255096;-0.04869632;-0.057112873;-0.043962564;0.045797955;-0.04405141;-0.041109048;0.04826509;0.056754567;-0.06609863;0.0601133;-0.037936557;0.01348581;0.06857996;0.02004237;-0.08672837;-0.051207773;-0.07249776;0.07663364;0.045939233;0.034496807;0.012422437;0.017129742;-0.011209175;0.04904993;0.08884594;-0.09617983;-0.016455105;0.038444765;-0.041192774;-0.17121844;-0.051130828;0.1250897;-0.0698021;0.050720114;0.046852034;0.07901114;0.036163576;0.04083308;0.05330182;-0.11388028;0.04645923;0.036966562;0.06351273;-0.05840572;0.04845088;-0.07807088;-0.023749819;-0.07071509;0.048874024;-0.09330855;-0.006854545;-0.12148112;0.07396999;0.008988405;-0.2501729;-0.030527344;0.050047673;-0.13405555;0.024399672;-0.019678583;0.046629556;0.036412284;-0.0033931604;-0.046025183;-0.066290416;0.010277566;0.060262784;0.024271516;0.04611033;0.0645684;-0.056316853;0.020748435;-0.035778753;0.08811948;-4.9059963e-05;-0.04501128;-0.03234677;-0.007964342;0.06950499;0.053253684;0.0659652;0.01640432;0.11022167;-0.016962077;0.044045445;0.06425564;-0.039300337;-0.003950843;-0.020476263;0.07115116;0.08404963;-0.0824708;-0.07096431;0.031392165;0.0045988034;-0.03292115;0.05879997;-0.11421227;0.11321232;-0.031174453;0.029952468;-0.049433213;0.027853768;0.0338593;0.032191504;-0.03625753;-0.12357028;0.027581293;0.059520777;-0.033496786;0.010793141;-0.08128549;-0.06950214;0.03329958;0.057526514;-0.07455266;-0.015172589;-0.027538331;-0.0012264018;0.124529414;-0.15609585;-0.021771282;0.08824255;0.02508775;0.063908264;0.025694322;-0.034207124;0.019434413;0.001298492;-0.1332782;-0.07274032;-0.08069931;0.0056400495;-0.15830208;0.03996164;0.070155405;-0.13735478;-0.050613385;0.0058362465;0.081952095;0.09648091;0.11407127;-0.067079924;0.036488183;0.0014774542;0.012290846;-0.1553656;0.01787535;0.10939255;0.06818133
-0.044028673;0.048400827;-0.08196114;0.051570628;0.028255716;-0.051523622;-0.045629356;-0.08110016;0.03436718;-0.050895542;-0.08190774;0.08714839;-0.010477595;0.03582043;-0.029077567;-0.120784484;-0.12497971;0.022370564;0.061708767;-0.056241654;-0.03905419;0.020575108;0.06861408;-0.031858206;-0.008031357;0.07275317;0.14701267;-0.057075027;-0.07205682;0.012896317;-0.028626783;-0.0475619;0.05788508;0.0061246813;0.17316711;-0.05583457;0.064689085;-0.045912974;0.071939245;-0.031165455;0.09275704;-0.0145471385;-0.16922432;-0.025134277;0.009947922;0.09888815;-0.013449318;-0.008762284;-0.16168965;0.012653078;-0.07701198;0.018246531;0.050480526;0.05026437;0.13270287;0.10341245;-0.013150807;-0.07901706;-0.050165497;-0.067758314;0.10802583;-0.025998525;0.047838036;0.014213242;-0.029965926;0.013173349;-0.05165211;-0.08203486;0.07162534;0.0076909233;0.016955966;0.074402146;-0.027127659;0.072312795;-0.018405719;0.069217674;0.12002175;-0.037303828;-0.06182233;-0.008438053;0.079188906;0.041450344;0.019163834;0.11748221;0.08479929;-0.016267058;0.03640043;-0.06832586;-0.020240732;0.030021163;-0.021261645;-0.06331687;0.12769166;-0.06779438;-0.04277846;-0.07089964;0.06740743;-0.06086214;-0.11201913;0.046652857;-0.012613978;-0.03266961;-0.0059286514;0.062996395;-0.0022552656;0.08612461;0.09511271;-0.01892611;-0.057221107;-0.046006933;0.081725426;0.020551115;0.08748468;0.06473663;-0.025262289;0.03528041;-0.0672427;0.0023777753;-0.10238114;0.016924934;-0.008844476;0.017109526;-0.10904847;-0.023874829;-0.02466508;0.092892095;-0.028036589;0.014876127;-0.05434196;0.022764023;-0.028874662;0.1322657;0.005404342;-0.067823835;-0.08449586;-0.012408213;0.052608903;-0.096601695;0.08823501;0.05629738;0.053080264;-0.04621404;0.04248541;-0.017441964;-0.014957102;-0.02891097;-0.026731577;-0.0032369178;0.006696865;0.08629093;0.07672572;0.067022815;-0.0460303;0.034061637;0.048383184;-0.008909809;-0.00030889764;0.015943099;0.04884023;0.06063964;0.050416242;-0.11481397;0.08938428;-0.13110916;-0.10252293;-0.0039009736;-0.0028410025;0.052279133;-0.010481669;-0.012801946;-0.018913569;0.050818484;-0.00543191;0.0183238;0.056393947;0.056072164;0.027624616;0.034605753;0.032678563;0.060093645;-0.060091835;-0.008964557;-0.04542204;0.01987188;-0.032387942;-0.03578244;0.05301455;0.039624494;0.0017777373;-0.022264719;0.10316814;-0.037340686;0.13610634;0.014510332;-0.07913452;-0.10781728;-0.051674534;0.024894577;-0.025069917;-0.07223704;0.0537124;-0.058603063;0.07061415;-0.0025853293;-0.06618717;0.06443357;-0.04238861;-0.019319354;0.04893283;-0.10988831;0.0031246438;0.045795318;-0.09185769;-0.0019115888;-0.058360174;0.0017992626;-0.1518512;-0.026588567;0.042380292;0.07742924;-0.03660862;-0.0249026;0.012744361;0.018156748;-0.02667404;0.036332835;0.015814206;0.03735565;-0.022336842;0.122281514;-0.034713056;-0.01738094;0.026885185;0.11342273;0.013396845;0.038220875;0.008182019;0.0061471346;-0.0110443495;-0.04337742;0.010938655;0.024724487;-0.039691098;0.07907277;-0.040104814;-0.054341666;0.067492574;0.09034955;0.026724149;-0.019366017;-0.02886167;-0.085228756;0.047575053;0.033365767;0.0193159;0.0931963;0.021866338;-0.0044535887;0.0070819207;-0.04076245;0.059627447;-0.037934106;-0.013183575;0.070664294;-0.062364087;0.084677696;0.045041863;-0.0366474;-0.02450503;0.091659635;0.031195309;0.025512582;0.006916503;0.15911111;-0.07805272;-0.044120207;0.102968104;0.036407974;-0.024249695;-0.08080769;-0.11334243;-0.073900126;-0.15038443;0.026223352;-0.047062267;0.025665365;0.048437655;-0.075874574;-0.015397361;0.017705163;-0.120164335;-0.11449642;-0.052306343;0.055801544;0.03785106;-0.034509525;0.0066012884;-0.045453977;0.04689525;0.044547994;0.08084815;-0.008872761;-0.05389835;0.087750025;0.078391366;0.099899285;-0.044857875;0.012817724;0.08545142;0.011899051;0.0848407;0.06711003;0.0548637;0.069113046;-0.051721215;0.061333783;-0.045122616;-0.007989799;0.03519692;0.09089209;0.0636753;0.03892955;0.015031359;-0.09417211;0.10314277;-0.052452855;-0.085759774;-0.009109982;-0.027524266;-0.046676017;-0.011877062;0.010949983;-0.04275824;-0.043112785;0.03645703;0.104301326;0.02721948;-0.071677655;0.034562264;0.031072568;0.068822265;-0.021951037;-0.2031109;0.03758111;0.074965745;-0.020392925;0.005389017;-0.13128307;-0.021513678;0.0113817025;-0.014228666;0.028739301;-0.0066947616;0.09228707;-0.015748497;-0.07130239;0.030063732;0.03687467;0.058101434;0.009988597;-0.15435484;0.032052137;-0.08509032;-0.0376779;0.034724418;-0.05887799;-0.061891843;0.030085959;0.08258476;0.03826117;0.08365422;0.083272085;-0.0038966346;0.05422996;0.08120573;-0.031698667;0.05513137;-0.010259698;-0.003172582;-0.07724941;0.039463166;0.061023384;-0.06522386;0.059425265;-0.008122429;0.099672064;-0.19222313;0.055270117;0.046835862;0.026924847;-0.028459301;0.04712027;0.027351314;0.063488014;0.019668229;0.037850168;-0.006078651;-0.016922818;-0.13214312;0.08669961;0.015498691;0.08894427;-0.06882231;-0.119727;0.024570333;-0.08409202;-0.050892994;-0.051467378;0.020760259;0.07746632;0.04761763;0.060349543;-0.04491222;-0.0035341263;0.07043469;0.045369335;-0.008972581;0.031768512;0.01084768;0.04036634;-0.090949394;-0.006171633;-0.052763674;0.048725888;-0.06558572;0.07398834;0.040937908;-0.040680863;-0.07359313;-0.044444732;0.050394673;-0.0037108175;0.06253813;-0.047471065;-0.034522567;-0.07373166;0.06171895;-0.00013705823;0.06913217;-0.059384413;-0.04121524;-0.05461154;0.108738214;0.019209383;0.12613593;0.06306136;0.039688565;0.01890853;-0.017146131;0.10200443;-0.0885185;0.008855612;0.00032510754;0.06572933;-0.12003323;-0.15302648;0.038929887;-0.018598601;0.088775635;0.16897728;-0.057352837;0.036427274;0.0704996;-0.05514503;-0.06708088;0.046254165;0.034374587;0.026402203;-0.058374383;0.054918993;0.006706579;-0.044282403;0.045551427;0.028755806;-0.050831873;0.031568676;0.06669911;0.070335105;-0.07070751;0.066176236;-0.16594401;-0.018324396;0.09346884;-0.021747012;0.05392869;0.078040935;0.025147194;-0.0031102626;0.039942857;-0.0664534;-0.022258658;-0.03829409;0.06540602;-0.013154973;0.054053318;0.058776017;0.06518179;0.090224296;-0.023885524;-0.037105314;-0.020598792;-0.012281039;-0.022306042;-0.0044984175;0.061518546;-0.029061224;-0.043893784;0.074748054;-0.008747887;0.0711641;-0.047802098;-0.055136792;-0.010441862;-0.03453435;-0.002701755;-0.06987874;0.014630856;-0.062090266;0.002140423;0.0507413;0.109418;-0.036134668;0.1498975;0.034112204;0.05559887;0.05188278;0.07653665;0.054825652;0.10662279;0.073195666;0.02805854;-0.040877305;-0.029434202;-0.026836175;0.024382124;-0.050223786;0.012898546;-0.03614587;-0.165688;-0.1452689;0.05834781;-0.1438713;-0.022420673;-0.057034574;0.03139238;0.058526527;-0.13151748;0.14070342;0.07652958;0.051064234;0.07983253;0.050989185;0.04715957;0.009514031;0.09949974;-0.058163732;0.048814554;0.039655373;0.0078094387;0.02015276;-0.017365474;0.0013174944;-0.026032938;0.05015878;0.05185609;0.02349417;0.075614445;0.015277666;0.08925766;0.0051588975;-0.038056545;-0.05528668;-0.012522968;-0.06930787;0.023403706;-0.042438973
-0.057461847;-0.024395967;-0.026578015;-0.04037666;0.029534636;0.006705236;-0.049805325;-0.12099674;-0.033382095;-0.047854427;-0.089365706;0.035188787;0.014176338;-0.054530032;-0.034258954;-0.114254884;-0.07071774;0.00661503;0.053369515;0.04944676;-0.07535935;0.077084646;0.07709651;-0.12644032;0.025104096;-0.03137617;0.066543825;0.04929942;0.013273117;-0.025699083;0.015263879;-0.07626864;-0.03505605;0.08637196;0.08803776;0.02226403;0.057266768;-0.072723016;0.06003195;0.09612507;-0.03463269;-0.084726885;-0.08273906;-0.022705304;0.032733407;0.06962307;-0.12095365;0.039990976;-0.14235722;-0.01857169;-0.031990923;-0.015995946;-0.073306926;0.06727068;0.06910145;0.031070543;0.023699222;-0.0562368;0.009361706;0.0025930018;0.004468809;-0.067431524;0.054681025;0.08511294;0.07388992;-0.02482464;-0.02635867;0.00013592809;-0.0367413;0.092306495;0.013590481;0.08123603;0.07628157;0.0015466204;0.005657596;0.094408266;-0.047326867;0.037300505;-0.013712269;-0.036166016;0.074227795;0.049857397;0.07936937;0.089871876;0.03788434;-0.04811328;0.008073528;-0.12239487;-0.051256943;-0.07080006;0.041147213;-0.10685545;0.049777895;-0.0132922195;0.03146357;0.051111646;0.06306374;-0.08349793;-0.07734074;0.048997622;-0.043396942;-0.03278351;0.041558772;0.036819912;-0.07688818;0.06710828;-0.049271245;0.02803073;0.07156071;0.0774692;0.08736512;-0.05268267;0.06794932;0.09364428;0.037681382;-0.08858713;-0.070078306;0.0104628205;0.08522056;0.049767964;-0.008375286;0.05022775;-0.07112001;0.08876602;-0.04577867;-0.03652909;-0.03992758;0.0058488655;-0.06377723;0.012962375;0.014304075;0.021530721;0.06594912;-0.01532756;-0.03776916;0.104894884;0.019772824;-0.043698438;-0.05836753;0.0002928983;-0.02010285;0.065509655;-0.08446542;0.056764297;0.031586826;-0.07742168;-0.01659337;-0.034249753;-0.046444144;-0.05155798;-0.072631165;-0.0061028968;0.053837772;0.01601368;0.063772306;0.014109306;0.07477673;0.050047833;-0.0063497946;-0.060347933;-0.024814876;-0.04855965;0.055151757;-0.02198454;-0.08100754;0.0041371332;-0.061174955;0.04770392;0.02212899;-0.0378264;-0.0018380088;-0.015701156;-0.02427442;-0.054145552;-0.059028774;-0.05379877;-0.07871687;-0.07719409;0.036748357;0.10962009;-0.059863027;0.07316119;0.098901615;-0.03534733;0.016677642;0.06495947;-0.010490179;0.06107199;0.009992697;-0.016070005;0.1031937;0.03076549;0.10792426;0.08314968;0.023351602;0.015479622;0.013607539;0.028112443;0.022707785;-0.016898198;0.022183966;0.06274902;0.0057853204;-0.03138233;0.056253586;0.04828355;0.013028896;0.013273409;0.035912108;0.021808702;0.054292496;-0.08723371;-0.0779235;-0.0121447975;-0.019603785;-0.056905247;-0.120403826;0.033403013;0.10151652;-0.048829652;0.0023195676;0.08011374;0.058752988;-0.054212555;0.07068276;-0.0002504525;0.030795956;0.055207692;0.014036375;-0.0112046;-0.02430176;0.04121813;0.027848197;-0.016129024;0.0019157439;-0.012770538;0.050354917;0.05607282;-0.01809692;0.092038624;0.008392179;-0.02407575;-0.032506555;0.09262859;-0.03571459;-0.080944344;-0.052521884;0.059149895;0.07966185;0.0138218105;-0.017057916;-0.012280123;-0.0575841;0.007400677;-0.021822786;0.055183735;-0.03944274;-0.016852804;-0.047673643;0.04588985;0.047073487;0.08679562;0.048940297;-0.012962635;0.021255378;-0.014670658;-0.08542655;-0.080207385;0.07020432;-0.009854487;0.006964069;-0.046134677;-0.014592968;0.09288723;-0.05314542;0.07698226;0.093081735;0.03908397;-0.005532556;-0.069911815;-0.089559056;0.011794847;-0.012825582;-0.023172691;-0.034805503;-0.014276645;-0.0076551954;-0.067294106;0.092824675;-0.01486037;0.003901172;-0.07934969;0.043275908;0.049151752;-0.0141757;0.045073334;-0.026140539;-0.011078301;-0.060201462;-0.0548639;0.0132242935;-0.070793845;-0.057598945;0.08646058;-0.04888631;-0.06147532;-0.015454327;-0.045138393;0.020352615;0.06428895;0.07730835;0.04988359;-0.059217114;-0.07415899;-0.06510041;0.09917076;0.0002735566;-0.046644647;-0.07361981;0.012809133;0.011395794;-0.12375215;-0.031505495;-0.1279688;0.05852339;0.025674662;-0.12960157;0.06696684;0.00874739;0.035272863;0.018489705;-0.06373494;0.027165953;0.072953016;0.09684229;0.09998437;0.0039816336;-0.052432816;0.0018620273;-0.036709223;-0.03895275;0.037929077;-0.17400518;0.01955265;0.05248927;0.08062665;0.0053488;-0.1130551;-0.011950088;-0.04413682;0.012968167;-0.0061716465;-0.048425116;0.04391287;-0.043052427;0.06855593;0.05605185;-0.033739917;-0.03932824;0.06430812;-0.051238343;0.13161308;0.032436762;0.015102532;-0.018339705;0.04554992;0.046597265;-0.003900139;-0.05616076;0.037560068;0.085595824;0.048168067;-0.067267016;0.01315394;0.065797776;-0.059680827;-0.019437315;0.0971727;-0.05039986;-0.06129463;-0.043385565;0.029807024;-0.048207637;-0.01021932;0.06621202;-0.037225097;-0.04709322;0.06119153;-0.056526832;0.04767573;-0.04876209;0.08743726;-0.016621238;0.01736119;-0.04938404;-0.0193403;0.009799031;-0.03450227;0.020207316;-0.011851542;0.084352285;0.044974733;-0.01578166;-0.01164506;0.021624854;-0.010367859;-0.036929958;0.03551712;0.042478975;0.03350011;-0.01291239;0.04801272;0.06174852;0.012236572;0.036507964;0.1052116;0.064504325;-0.004932295;0.078655876;-0.084473476;-0.02191278;-0.007813896;-0.081166916;0.07576297;-0.11717102;-0.074051484;0.047069896;0.06646633;-0.051783536;0.063964106;0.05954304;-0.014478411;-0.047819845;0.008656973;-0.06929418;0.06519993;0.04598291;0.07918696;-0.031231802;-0.0017713512;0.027508425;0.08899592;0.069760434;-0.04115464;-0.03872462;-0.025845813;0.034089647;-0.08981678;-0.01635304;0.07136467;-0.029113691;-0.045578334;-0.09869395;-0.022528637;-0.021009656;-0.04631017;0.09142426;-0.052583877;0.0744203;0.10475345;0.022014165;-0.07976829;-0.016420389;-0.04914941;-0.05794015;0.06607403;0.04362719;-0.04536108;-0.04646296;-0.024865925;-0.100395426;0.066411555;-0.017708277;0.10824465;-0.062090192;0.04562109;-0.035970777;-0.10141292;0.030989178;0.04726341;-0.06133638;-0.043701466;-0.0010547667;-0.007389533;0.045789063;0.005353097;0.038571052;0.028226322;-0.015539369;-0.002384947;0.011951914;0.017262373;0.013446369;-0.019391563;-0.002297667;0.008566067;-0.028847449;-0.028940119;0.0732843;0.030559873;0.053519912;0.06491622;-0.036664683;-0.025151951;-0.028220447;-0.07517334;-0.057839315;0.004101921;-0.089380585;0.0701551;0.04432074;-0.00024351143;0.061336998;0.05188323;-0.010849994;0.044719383;0.060378384;-0.06458539;-0.022698572;-0.03056768;-0.011773859;0.037716255;0.13524127;-0.057044342;0.01092351;-0.051751677;-0.015808262;-0.0139413355;0.034602284;0.034741677;-0.02598803;-0.053197056;0.093517;-0.06764526;0.012327794;0.055929475;0.021839783;0.07172926;-0.098316655;-0.067489944;0.07888243;-0.038881555;0.007109985;0.029254401;0.017643746;-0.031636633;-0.12205451;0.09671159;0.01292372;-0.0067283562;-0.024209907;0.05328377;0.10880166;-0.023579415;-0.033144694;0.055077504;-0.020297866;0.042138387;0.026332738;-0.08412709;-0.035652835;-0.016014906;-0.058535907;0.07305063;-0.05503486;-0.07654574;-0.03360246;-0.055173337;0.040173493;-0.019725535;-0.045787215;-0.009299341;-0.06617091;0.06255337;-0.03205086;0.07453648
-0.068734065;0.02567963;0.03878571;0.004727889;-0.039137956;-0.061947156;-0.002041101;-0.0025846672;-0.03186568;-0.0009541758;-0.05181475;-0.064307265;0.0060548983;-0.078734875;-0.05641934;-0.022179056;-0.0071720844;-0.066124484;0.04015394;0.05988492;0.05663459;-0.010816967;0.013468595;-0.005326721;0.0041490393;-0.049931306;0.018879948;-0.07045454;-0.13950863;0.0103972545;0.050253604;-0.08098055;0.04647985;-0.020326188;-0.0029277443;-0.026351685;0.08732898;0.020381676;0.05293429;-0.056543194;-0.058729958;0.03167538;-0.12734082;0.08314903;0.015270973;0.08672343;-0.04771184;0.02396543;-0.22072777;0.0071105226;-0.0012616226;0.00778001;-0.10683416;-0.035635523;0.04184475;0.13271356;-0.0074386075;0.05870971;0.01840574;-0.012017124;-0.05971751;0.033393137;-0.028506547;-0.02250987;-0.065756954;0.025244446;0.086772315;-0.07012925;-0.04203663;0.0135052465;-0.072328545;-0.05613888;-0.03652197;-0.021993533;-0.044712003;0.04380475;0.065322794;0.023489576;0.01893056;-0.020278178;-0.032635882;0.06914423;-0.0670308;0.04657537;0.11530845;0.037659068;0.06479607;0.02094672;-0.04892708;-0.053323988;0.06131314;-0.15567367;0.14388204;-0.01861823;0.047977086;0.0534698;-0.025253521;-0.08321519;0.03196253;0.08454843;-0.047041208;0.07066418;0.06889943;-0.080342755;0.047881156;-0.026129436;-0.0065321736;0.09367868;0.051106766;-0.008580138;-0.07501461;0.031692218;-0.051093876;-0.05146441;-0.055485312;0.027804466;0.029350786;-0.101534694;-0.028184323;-0.036731627;0.057234585;0.025590561;0.039717514;-0.022786545;0.04351103;0.0684699;-0.052903052;-0.100797586;0.0046452885;-0.02628808;-0.018996593;-0.027409673;0.088615574;-0.07765863;0.07065756;0.04979192;-0.047411956;0.061322737;0.08080995;-0.039151598;-0.059218306;-0.022546686;0.010110793;-0.04590167;0.064812884;-0.019105272;0.026579583;0.010641779;-0.10921344;-0.029610775;0.020194935;-0.07772759;-0.013561363;0.07391192;0.03670241;-0.02235515;0.08532581;0.10649864;0.007429672;-0.10958655;-0.026830245;-0.15637577;0.08894383;-0.11354016;0.052109275;-0.050291285;0.043313704;0.03031033;0.054915056;0.016881097;-0.002608126;0.068211086;0.036869477;0.01584016;-0.0067116236;0.046928592;-0.003888033;-0.022401217;0.05286578;0.006868472;-0.081361234;-0.059022427;0.04799702;-0.005906069;-0.019132823;0.05120368;-0.029120581;-0.032073572;-0.052092012;0.04023592;0.052631505;0.080338985;-0.034722608;-0.049222384;0.044624988;-0.03163246;-0.07245655;-0.064202525;-0.034526557;-0.05695415;0.028365277;0.013127328;0.0085264165;0.05455864;0.10499278;-0.0049547423;-0.016922569;-0.04349565;-0.012524443;-0.09443627;0.04332961;0.05535568;-0.08169128;-0.06020674;0.09234701;0.058991812;-0.01683421;0.015057125;0.15155137;-0.0066923415;-0.003303293;0.01125983;0.0032123781;-0.06633954;0.0715963;0.015942529;-0.014697041;0.07580439;0.057337813;0.08403509;0.036410816;-0.02082113;-0.04402702;0.011921635;-0.025007367;0.07088875;0.00904954;-0.034178283;0.06525943;-0.038807906;-0.097702645;0.07160313;-0.020423302;-0.02613089;0.042728785;0.060956635;0.105910026;0.061212935;0.02625814;-0.051250197;-0.08080154;-0.060171146;0.005145986;0.07763382;0.045155667;0.024258694;0.039903503;0.03992448;0.0065320292;0.031113058;-0.06475366;-0.00018435894;-0.064393744;0.06434052;-0.03949727;-0.04359003;0.09039358;-0.07827391;-0.036203448;0.043167092;0.015749346;0.013868486;0.027110921;0.018825626;-0.08569898;0.052253507;0.017631575;0.0038115988;0.0312824;0.01763851;-0.13451165;-0.05889716;-0.122537486;0.017443582;0.003360156;0.018438974;0.030777657;0.020158943;0.029295167;-0.04605829;-0.03393032;-0.01800412;-0.015436455;-0.03094359;0.008527143;-0.014030402;-0.030529317;-0.01204379;0.07079429;0.087726526;0.020469895;-0.02602432;0.006050235;0.032378316;0.06928135;0.052316036;-0.06699138;-0.028123979;-0.031115208;-0.011142739;-0.042463314;-0.0044280486;0.06833564;-0.0719827;-0.09720523;-0.04809315;-0.0413206;-0.018762793;0.078076445;-0.0015933886;-0.047745496;-0.10799736;-0.044477407;-0.055067826;-0.043238305;0.07735698;-0.07284363;0.023099525;-0.06216901;0.026056184;0.07564659;-0.0075151194;0.046370007;0.066181;-0.04382946;0.09493951;0.09737382;0.0726075;0.12460978;0.04907282;0.06953014;0.07636558;-0.20820267;0.010024151;-0.04469107;0.062378842;-0.0318604;-0.06757107;0.073933356;0.05080878;-0.008525421;0.0026815957;0.06322968;-0.0075293765;0.014101743;0.014000145;0.018421976;-0.056639913;-0.03607181;0.019429889;-0.080223866;0.14705536;-0.0020009982;-0.020539718;-0.039391343;0.040847603;-0.028483825;-0.022294369;-0.0050982474;-0.053998508;0.20064662;0.022218417;0.045695078;-0.08218785;0.02623474;0.08822986;-0.072144926;0.024216454;0.0006123972;-0.0465239;0.045207586;0.046991583;0.06542561;0.051174052;0.08219902;0.028711602;-0.17067122;0.0142588075;-0.018402435;-0.040228035;-0.034982216;0.13117413;-0.001987233;0.04635736;0.024916217;0.014166282;0.044630397;0.040717576;-0.045174893;0.048001558;-0.00060891954;-0.003451624;-0.09094146;-0.06356421;-0.051940538;-0.07340853;-0.0485946;0.083936825;0.11105059;0.09590005;0.029498609;-0.0016890565;0.05445779;0.05927841;-0.05542361;-0.040668845;-0.02083823;0.080751255;0.0026081365;0.055204432;-0.008204144;-0.06037416;0.110104315;0.10679221;-0.16217743;-0.045287155;-0.059759013;-0.078106105;0.043638933;0.02085508;-0.03674251;0.001696162;0.019398024;0.0708294;-0.026371704;0.092749864;-0.009133768;0.050506398;0.021367706;0.015877716;0.076512784;0.01833554;0.047422796;0.04934191;-0.03638716;-0.013000774;0.023317428;0.057641286;-0.03825234;0.07289905;-0.072679915;-0.07239978;-0.110129364;0.058979075;-0.020043436;-0.13721475;0.022902478;-0.11655992;0.062457517;0.044441607;-0.06749252;-0.041841224;0.08177755;-0.057934854;-0.060195044;0.01735996;0.030115766;0.063744254;0.09013292;-0.039305396;-0.14228262;0.010686813;0.025724823;-0.023804806;0.05397726;-0.053462267;-0.032420866;-0.14036193;-0.07797573;-0.09516213;-0.011883817;0.042624477;0.07428692;-0.16155788;0.07075949;0.06604149;0.093560375;-0.01509751;-0.09199271;0.08170723;-0.014333153;0.011209762;0.036512896;0.08724484;-0.020673763;-0.03365348;0.014777579;0.10325772;0.0439339;-0.0215719;0.0034498903;0.081243515;0.038649928;-0.029752754;-0.05804519;-0.054967124;-0.07663813;0.055760123;0.07317955;0.057763975;0.017617423;0.023443146;-0.054867502;0.09180943;0.14847474;0.033315696;0.016888341;-0.0080602085;-0.059972133;0.015105202;0.057163246;0.01742302;0.059511606;-0.1048658;0.059840452;0.035801735;0.042055443;0.011537749;-0.025319647;-0.009239714;0.008888852;-0.06402616;-0.024628565;0.00060463516;0.04450507;0.047631916;-0.007785153;0.06343886;-0.17418754;-0.022278566;-0.025573036;-0.07377906;0.102355264;0.00013047768;0.028214907;-0.027803667;-0.12147208;0.0698568;0.004498927;-0.05309931;0.008060481;-0.0510788;0.03484617;-0.02702068;0.043414228;-0.05142854;0.029507201;-0.05330198;0.052589413;0.09309826;-0.04809723;-0.031579785;0.10087354;0.055953063;0.032211687;-0.08575562;0.07967933;-0.03206588;0.13328433;-0.046615772;-0.0048119193;0.079857804;0.0025682976;0.050163426;0.091570474;-0.045435444
0.029884817;-0.036202114;-0.012077866;-0.0016979695;0.026154453;0.062635146;0.03790062;-0.06090041;-0.14324777;-0.035161804;0.041040894;-0.08506408;0.03878567;-0.01437668;0.08225129;-0.18282905;0.031164074;0.09890434;0.02838801;-0.0045646504;-0.0097942185;-0.027073724;0.010248921;0.024856782;0.102360494;-0.03277768;0.08638273;-0.0071907495;-0.11844174;0.07107321;-0.0370621;-0.041736547;0.021240821;0.095991544;0.0043513575;-0.02718364;-0.078085795;-0.014398467;0.06586622;0.09812256;0.012748667;-0.05437654;-0.010149097;0.039436195;0.009856701;-0.035577178;-0.13664752;-0.015481443;-0.24654627;0.04685369;-0.022672774;-0.04049126;0.06513124;0.08388468;0.043026373;-0.02504501;0.026188636;0.029298427;0.11724065;-0.031401537;0.090693906;0.035757445;-0.06181708;-0.07980625;0.0045148185;0.05364506;0.12276998;-0.014973464;0.10356678;-0.0023154248;-0.004611666;0.07099744;0.055215705;-0.033054344;-0.02721731;-0.045855314;0.0060031097;0.12700032;0.035949897;0.104992606;-0.04029017;-0.024314791;0.021299904;-0.011246036;0.15984777;0.07254829;0.07312669;-0.10873167;0.061134525;0.014354326;0.061681718;-0.006929162;-0.007955934;-0.022748088;-0.025427362;0.078203976;0.09047614;-0.015193264;0.0036372487;0.03571341;-0.16984844;-0.013142977;0.02958842;-0.0011556195;-0.010887431;-0.017417807;-0.043609593;-0.017274933;-0.040894266;0.034024864;-0.005203241;-0.033539224;0.0028138496;-0.006107001;0.06048719;-0.07618705;0.017800387;-0.01341032;0.0005417801;-0.023572875;0.0093351;0.03117784;0.049829323;0.08833813;-0.0034428027;-0.038616993;-0.08111213;0.009968025;0.064367376;-0.014243459;-0.04775406;-0.09024991;-0.05087746;0.02585681;-0.013532567;0.010057815;0.10178622;-0.068478845;-0.044321522;0.0259339;0.006822485;-0.035519935;0.06493445;0.0023910988;0.049533855;-0.06594011;-0.07277283;-0.054694004;-0.067038305;-0.049707644;-0.043857858;0.0053941905;0.07110602;-0.010813243;0.06941507;0.005224965;0.06784233;0.08491743;-0.073862456;-0.11093534;0.019870175;-0.13472359;0.03105728;-0.077815086;0.012222468;-0.027057717;-0.0013229362;0.084659815;0.010835541;-0.044013977;0.02981472;-0.06289184;-0.102301314;-0.051290307;0.10663317;-0.042502884;-0.025236396;-0.083980784;-0.101894505;0.009963164;-0.038407505;-0.024198981;0.05675882;0.053503267;-0.007274464;0.019677345;0.038911644;0.0482854;-0.027733283;-0.006365073;0.027986014;-0.012364087;-0.0009284933;-0.051505223;-0.06513898;-0.020036943;0.06563472;0.059314895;0.05788958;-0.002410879;-0.06240787;-0.0012484883;0.02516222;-0.026157798;-0.011165038;0.04284966;-0.0064064455;0.03072095;-0.047518697;-0.0100513045;0.08073886;0.05008142;0.018505322;-0.0124144275;0.04851571;0.051717274;-0.08870984;0.026372645;0.17656875;-0.0043073273;-0.049876858;0.0008599737;-0.009935563;-0.03436968;0.109906726;-0.050573133;0.028901983;0.048452243;-0.041545153;-0.031175178;-0.053875666;-0.06195306;0.017459152;0.120936245;0.04515969;0.016996788;-0.037565973;-0.02860745;0.012227482;-0.073263995;-0.06631905;-0.06442143;0.0829161;0.0494804;-0.01462727;-0.11989343;0.011698381;0.0942025;0.10614495;-0.10379638;-0.13194506;-0.03677895;-0.025890568;0.0392155;-0.014759836;0.03981564;-0.026904989;0.008224163;-0.0502566;-0.03563902;-0.013105253;0.04900837;0.069442764;0.026595995;0.027962796;-0.029988639;-0.032282703;0.023237413;0.1190765;0.10825488;0.0392741;0.07961044;-0.021197656;0.13231997;-0.118555665;-0.09244548;0.05724099;0.06231392;0.018904451;-0.088653035;-0.11565801;-0.02345769;-0.108444236;0.0756895;-0.010072494;-0.08521875;0.026111057;0.048273377;-0.032023713;0.0062201885;-0.0042353817;-0.005162716;-0.038337845;0.006541045;-0.041057773;0.013312745;0.048630446;0.07663176;0.024883557;0.00768238;-0.0258366;-0.06854502;0.0492741;-0.014438195;-0.0014131853;-0.014513953;0.028261453;0.059981115;-0.020610351;0.020727469;-0.05751505;0.045859087;-0.06789574;0.11208735;-0.006431314;0.027900064;-0.042689882;-0.020405494;0.027599009;-0.018066747;0.012599553;-0.06650533;0.06644986;-0.023755006;0.08015435;-0.021591036;0.005811336;0.07167306;0.048656173;0.058080938;0.049897764;-0.005831564;-0.018409656;0.07866426;-0.0043941736;0.012150444;-0.033131216;0.044525046;0.07109697;0.040372334;0.030028863;0.07742879;-0.19404978;-0.002689784;0.07129266;-0.016756192;0.034920298;-0.094328955;0.06554359;0.1036051;0.01805318;0.06729479;0.02607917;0.006212491;-0.024982404;0.010292217;0.0172488;-0.03279119;-0.0714799;-0.01657385;-0.1168588;0.06219717;-0.073154554;0.02754059;0.028462349;-0.04104396;-0.07133911;0.049138676;0.021135667;-0.008042159;0.07521916;-0.012287601;0.032093532;-0.017697822;0.08736073;0.027453901;-0.034734115;0.0061941124;-0.0751106;0.03682067;-0.013207555;0.09396447;0.030130796;-0.002149601;-0.011443844;-0.044692215;-0.18701631;-0.054640982;0.012107301;0.06515346;0.018953167;0.10387902;0.03750171;0.028447775;-0.029815543;0.06598329;-0.070890605;-0.04763529;-0.053281043;-0.04138619;-0.011089832;-0.0040360745;-0.09096703;0.039727945;-0.072023116;-0.076991834;0.067239426;0.06323546;0.04505185;-0.0063281865;-0.08222549;0.0453481;-0.037276283;0.015131448;0.018821517;0.049172487;-0.043526113;-0.0419765;0.04064253;0.006768592;-0.15302879;-0.016812684;0.09321363;0.06821597;-0.1773778;0.09005678;0.034404006;-0.068065345;-0.07803963;0.032523617;0.07983278;0.055377048;-0.01107011;0.04469942;-0.036597118;0.016555455;-0.024113797;-0.016555164;0.00873545;-0.088315845;0.023393998;-0.02341143;0.056068163;0.029506246;0.05509284;-0.0074095065;-0.066013455;-0.017911043;-0.012422736;0.095808245;-0.046816032;0.017734796;-0.050690383;0.001612383;-0.040613156;-0.1542399;-0.029054638;0.04175976;0.044210844;0.14900462;-0.085101955;-0.09814446;0.047744185;0.011838907;0.015013588;0.0033331022;0.11370745;-0.070995845;0.045343023;0.031086927;-0.063242815;-0.043855086;-0.00018436696;-0.022240398;0.066989414;-0.059727002;0.030667963;-0.01245803;-0.022241106;-0.044472344;0.048747815;-0.043349434;0.030945754;-0.16946761;0.0038176775;-0.06077662;0.019765347;0.05643378;-0.017186634;0.0883115;0.07318482;-0.08162873;-0.062449753;0.0028914171;0.001278335;-0.025831645;0.10375435;-0.047130123;0.040710613;-0.023743032;0.061005272;0.036939617;-0.048242547;0.039281454;-0.055329226;0.028426833;0.030959725;0.06803777;0.06130649;-0.07480329;0.059532832;-0.031435113;0.0072268397;-0.09141919;0.00054647936;-0.07070022;0.09737735;0.0067510046;0.036987215;0.016722957;-0.015147879;0.009395634;0.0016932894;-0.09005181;0.13114573;0.034161307;0.04623147;-0.030612886;-0.07841715;0.11384646;0.03996129;-0.045868244;-0.062214144;0.06791859;-0.0066531473;0.080579184;-0.0460382;0.049543157;-0.094686754;-0.084577106;-0.02971656;0.074964106;0.079350166;-0.017447686;0.12378964;-0.007981155;-0.10401996;0.15033512;0.064107664;-0.073718145;-0.058184214;-0.019937212;0.08074844;0.056153115;0.06593674;0.11245426;0.06465154;-0.037109144;-0.076946594;-0.07838961;-0.052537948;-0.10016071;0.08069973;-0.03740458;0.061199196;0.061478443;-0.030543191;-0.042340677;0.114809096;0.017275292;0.023979805;-0.074402995;0.042493273;0.029637728;-0.054648705;0.00044351595
0.09351773;-0.050023403;0.01958992;0.079420336;-0.037111063;0.014064836;0.024831105;-0.09666257;-0.061932936;-0.05789924;-0.055873785;-0.18214577;0.029969769;0.0025090214;0.037098434;-0.058977664;-0.016211048;0.07155832;-0.015035528;-0.04744683;-0.027947724;-0.014932127;-0.0040220637;0.02527622;0.07682747;-0.036794137;0.06484791;-0.034928057;-0.10615939;-0.01753949;-0.02063133;0.012863779;0.05963973;0.026290808;0.011286722;-0.04457325;-0.055632032;-0.069440275;-0.004534232;0.06558186;0.054379977;-0.04911879;0.056775093;-0.067266434;0.06743262;0.110880345;-0.05112111;-0.04283489;-0.19763906;-0.1042279;0.005101888;0.052009247;-0.047337156;-0.045913834;0.010282687;-0.04840235;-0.056820728;0.038305275;0.094458684;-0.07452762;0.072581;-0.059694394;-0.0833233;-0.034316313;-0.006871655;0.070811026;0.10465103;-0.14152461;0.011670653;-0.017882612;0.014658887;-0.05379981;0.06959158;-0.05213549;-0.029482128;0.06214476;0.041570563;0.10295537;-0.0064296704;0.08093513;-0.018450588;0.07330608;0.084161095;0.026020832;0.08240112;0.0122614;0.05930017;-0.117577516;-0.0072877808;0.071501344;0.1023959;-0.07401692;0.046907157;0.014963166;0.063989215;0.042759098;-0.032564167;0.08637256;-0.12725559;-0.00258545;-0.06651463;0.019976487;1.4559078e-05;0.05159065;-0.014148862;-0.006581971;0.009287965;0.047942735;-0.014205266;0.01018691;-0.054879803;-0.020753974;-0.056027092;0.10598615;-0.051366836;0.016914412;-0.06924994;-0.07267561;-0.040892072;0.030464804;0.026949579;0.059366737;0.057829965;0.062293243;-0.02769795;-0.0003738682;-0.008716853;-0.08989478;0.055603493;-0.05485666;0.08565733;0.0384467;0.0411144;0.048406668;0.012127966;-0.06837675;0.093482845;-0.09199846;0.064840525;-0.049863562;0.05745686;-0.011192082;0.051082622;-0.04431515;0.041246075;-0.0786582;0.059469268;0.07471262;-0.055832654;0.06188032;-0.121324;0.0072796796;0.049602173;0.034204803;-0.047518954;0.054956425;0.018034628;0.12998228;0.06867526;-0.044637248;0.011567699;-0.117062256;0.051349882;0.031928863;-0.08339028;-0.039511334;-0.05568117;0.14691888;0.0003023437;0.020612614;0.11429898;-0.056657664;-0.059774466;-0.007925423;0.09265516;0.00711645;-0.061480664;0.029129073;-0.018008878;-0.04727649;0.018358575;0.026765939;-0.041990735;0.010243292;0.09508391;0.0963808;0.038066737;0.08276863;0.061643563;-0.061419293;0.106941834;0.031779177;-0.09374119;-0.073876455;0.013637299;0.047071278;0.029516743;0.07190898;0.008540045;0.06146538;-0.023563333;-0.036673494;0.042932995;0.0049184663;-0.023301544;-0.04438533;0.07474602;-0.057972834;-0.016399454;-0.06781025;0.0010936536;0.0032622172;-0.073397145;0.10336509;-0.045994863;-0.065133154;-0.122848086;0.025082653;0.0076446747;0.008526834;0.038165305;0.016148265;0.09562599;0.046491858;0.056471158;0.050667696;-0.045462452;-0.01444551;0.030697437;0.039617646;0.08349059;-0.003097796;0.003213296;0.1240483;0.036812555;-0.02789367;0.0428395;0.050722465;0.09657788;0.041297242;-0.08191752;0.022535553;0.06311457;0.07975988;0.029069468;-0.08701328;-0.06864752;0.0017409698;0.10732568;-0.0847876;-0.027640635;0.023567684;0.05306884;-0.04462956;-0.02568549;0.010719288;-0.07567409;0.055701323;-0.01694329;0.0059190933;0.08451425;-0.080950916;0.058223415;0.01996433;-0.09120479;0.0067605334;-0.076406814;-0.05933452;-0.016158232;0.07601109;-0.00042840364;0.05727973;-0.06640927;0.16042;-0.074218415;-0.04691865;0.09412572;0.078346126;0.05896513;-0.07056483;-0.04881876;0.055527557;-0.09474577;0.07357956;0.04769568;0.018046768;-0.036213398;-0.08769198;0.033952612;0.016633043;-0.019858304;-0.108965725;0.010946386;-0.046210308;-0.07751621;-0.02583104;0.048088748;0.08790011;-0.03544178;0.09974908;-0.025546977;-0.039778918;-0.05976752;-0.04727835;-0.002819354;-0.023946695;0.04454092;-0.093043275;-0.0008564066;-0.025185997;0.053640053;-0.06415958;-0.0851529;0.14665572;-0.08115842;0.083235465;0.0026160046;0.030446373;0.028505797;0.08342681;-0.013798387;-0.045888044;0.060845472;0.03747924;0.0713532;0.042340323;-0.122855015;0.0012493214;0.038184695;-0.05724694;-0.08243882;0.0633028;-0.04214969;0.015364131;0.013264446;0.12331737;-0.009275072;0.04720362;0.0817287;-0.0091689555;0.014422989;-0.0103258705;-0.14459814;0.052829877;-0.03895197;0.04800015;0.1628595;-0.0426768;0.049897373;-0.02156669;-0.06223369;-0.06338237;-0.009417435;-0.0145021;-0.0016283995;-0.034206726;-0.01994576;0.025349488;0.050342508;-0.019606248;-0.047238532;0.014992173;-0.0826609;-0.08402891;0.07624714;0.06611062;-0.0072277347;-0.063319884;0.035582174;0.0063958075;0.12969342;0.062124107;-0.0016182053;0.005768973;0.048237797;0.0044719214;-0.009482797;0.057886;0.068057045;0.02234318;0.02787539;0.002850998;0.080589876;0.0706835;0.0035712384;-0.009530414;-0.019248487;0.06681878;0.010587165;-0.0426823;-0.05752992;0.09137522;0.045418173;-0.028691873;0.076427996;0.020738844;-0.04299476;0.0565763;-0.015112293;-0.011334945;0.07022392;-0.01314626;-0.070265055;-0.0434073;0.03355491;-0.059019063;0.01676504;-0.032697305;0.13764676;-0.011418976;-0.06497154;0.000777498;0.08787324;0.003860914;0.074289046;-0.02748835;-0.04333631;0.07885818;-0.037104182;0.03504091;-0.09966383;0.047960483;0.053050354;-0.039608665;-0.16315176;0.06725087;0.005889371;-0.021550255;0.03899589;0.026492374;0.026015177;0.016545476;-0.055227894;0.064342506;-0.035333984;0.017290687;-0.011129617;0.04319115;-0.044246864;-0.06119145;-0.012556449;-0.008273953;0.045595277;0.06576281;0.13221326;-0.027166313;-0.0630316;0.035069063;0.11203895;-0.023426002;-0.07654367;0.04139931;0.054988567;0.036573984;0.030228868;-0.13583475;0.053032137;0.03463335;0.06897491;0.05316222;-0.05661076;-0.0035813942;0.07056275;0.010023011;-0.02493436;0.010342648;0.05659167;-0.010127993;0.04023927;-0.058653228;0.009848047;-0.016394228;-0.029506238;-0.010172004;0.048715115;-0.044972286;0.049986888;-0.12046853;-0.019803636;-0.051220674;-0.10432119;0.008834448;-0.019560581;-0.040198628;-0.0043389853;-0.0468249;0.081346475;0.067490794;-0.07099659;-0.020532485;0.06358713;-0.046514224;0.07613311;-0.017779863;-0.029169116;-0.06165339;0.0009897595;0.052151814;-0.06352084;-0.04481588;0.016229162;0.019033521;0.032360684;-0.04410929;-0.047390934;0.020449739;-0.023701925;0.02602092;-0.022502536;-0.010437079;-0.011821854;0.0592806;-0.07584186;-0.047882866;0.08955966;-0.04551231;0.011273917;0.07700485;0.014882103;0.016169474;-0.026053244;0.02355793;0.05287882;-0.088226855;0.11404913;0.07076607;0.019679233;-0.035926614;-0.08413234;0.10634931;-0.0069684153;-0.035843153;-0.072163634;-0.005534496;0.09893869;0.0015112744;0.096465744;-0.02213337;-0.06543535;-0.051757216;-0.0976254;0.026768947;0.015182123;-0.003735728;0.060127005;0.06486938;-0.107006274;0.13988301;0.13441467;-0.04745;0.034105863;0.09603501;-0.044179138;0.08752124;-0.058511864;0.11472191;0.077400684;0.076503254;-0.019882027;0.04372495;-0.016336953;-0.09714976;0.06994272;0.048857905;0.07228745;-0.062099695;-0.05020052;0.0029905573;0.09575748;0.09379231;0.065411955;0.023992773;0.018210169;-0.06041951;0.04313839;-0.027080653
0.028796544;-0.049071163;-0.048445586;0.047109205;0.037637386;-0.08454126;0.09239779;-0.07678112;-0.12373844;-0.043504644;0.037874494;-0.049488246;-0.06461064;0.078999765;0.061561108;-0.028464722;0.022598626;-0.033455912;0.029473629;-0.03259392;-0.047889564;-0.062267944;0.058408722;-0.017899917;0.06330636;0.057889916;-0.02295247;-0.040341813;-0.08211991;-0.015337688;0.065191925;0.04473731;-0.067715555;-0.020213459;-0.008866011;0.041998647;0.033136614;0.016793922;0.097797215;0.007236881;0.021876955;-0.078261636;0.038260493;0.0286525;0.05242254;-0.068709135;-0.010619984;-0.05690332;-0.18474226;-0.0879883;-0.014655005;-0.03721106;0.01899035;0.014776445;-0.025966803;0.14952536;-0.060927518;-0.06124979;-0.05643276;-0.0007838372;-0.08109241;0.061165195;0.02273421;-0.07492124;0.061112825;-0.015909174;0.0012680584;-0.15959144;-0.06897964;0.014367969;0.054748867;0.042285934;-0.04899527;0.07554072;-0.089656904;-0.041868165;-0.08192594;0.0878907;0.031289708;0.04860422;0.05071299;0.028712587;0.007205224;0.020039298;0.014325551;-0.008104915;0.06219998;-0.039615955;-0.028337536;0.025354818;-0.024024816;-0.03951382;-0.055176217;-0.0031592248;-0.064214714;0.05420903;-0.07162322;-0.053907394;-0.05526178;-0.038408455;-0.050323024;-0.044372376;0.076208085;0.009479453;-0.007377804;-0.054565433;-0.05128284;0.008059506;0.029565377;-0.02552614;0.04104803;0.07088649;0.018726397;-0.040701028;-0.023001052;0.016077258;0.024719115;0.04437265;-0.092314444;-0.055801377;-0.05456817;-0.03923098;0.090036474;-0.022396099;-0.0401038;0.039353475;0.03634121;-0.037937786;-0.061309777;-0.030063596;0.037603796;0.06939095;0.080908574;0.07537207;0.036749624;0.010295536;0.0631583;-0.029503765;-0.03957726;-0.027605595;-0.053381093;-0.04937361;0.0073227542;-0.025703892;-0.024331205;0.050327852;0.038845226;-0.013573307;-0.051093698;0.074989945;-0.103060395;-0.017706838;-0.04286605;-0.04302218;-0.00026211736;-0.020648737;0.004964566;0.08172481;-0.011916278;0.0981088;0.010805661;-0.10338478;-0.028490463;-0.11716846;-0.06748007;0.08315669;-0.045311607;0.0060076606;0.08731547;-0.020928005;0.059434798;-0.04120499;0.0318599;-0.044393897;0.027044332;0.052507993;0.00070419913;0.05150803;-0.11348701;-0.043156922;-0.09674082;0.04053538;0.057540555;-0.001725339;-0.07393496;0.017300364;-0.09996012;-0.009116674;0.07913126;-0.014564949;0.09477299;-0.05516594;-0.050401077;-0.029839702;-0.12387871;0.071330436;-0.056197695;0.06480014;0.0007237511;0.05362531;0.0073356456;0.022600638;-0.029110521;0.032895237;0.014042935;0.056560006;0.11266416;-0.07735259;-0.031044869;-0.010954699;-0.052450906;-0.09621616;0.057166614;0.06380866;-0.043845136;-0.055557504;-0.06602738;0.07218606;0.1415722;-0.056840025;0.007970586;-0.055298213;-0.040405817;0.043533184;0.010376014;-0.06575082;0.03398636;-0.009050291;-0.022987723;0.10856599;0.0700857;-0.049296714;0.0026183224;0.052498683;0.0805177;0.029086864;0.042593006;-0.026020812;0.029135378;-0.024056742;0.053417552;0.07741755;0.0027453834;0.07993773;-0.09924849;0.048660707;0.12772349;0.00017334554;-0.01694625;0.020988256;0.046041258;-0.02005003;-0.071066484;-0.000614373;0.08192467;0.016115624;0.026184298;-0.005039721;0.024521498;-0.071067415;-0.014329272;-0.032109022;0.034602456;0.042308934;-0.026682066;-0.027409172;0.042792875;-0.082197115;-0.004587627;-0.0069979876;0.07491028;-0.0045201927;0.03194159;0.10796574;-0.12004142;-0.08942189;0.07345662;0.08346886;0.020400347;-0.037459157;-0.054298345;-0.021010468;-7.8470075e-06;0.05634449;-0.013280596;-0.017830338;0.031068161;0.027105445;0.054327343;0.015155878;-0.0076522278;-0.06688659;0.06353663;0.048417754;-0.027960233;0.021234576;-0.019078493;0.07410457;0.05437664;-0.050990433;0.023041658;0.064921744;-0.03539007;0.004433775;0.05447625;0.022351302;-0.06508692;0.060374986;-0.04381503;0.05881403;0.021683063;0.06691892;-0.01357406;0.023400575;-0.034580484;0.005339867;-0.040015478;0.045337774;-0.006026147;0.013078422;0.03183679;0.076336384;-0.0042283665;-0.055494312;0.07173541;0.041651174;0.002789723;0.10879968;0.0808058;0.037308697;0.013966735;0.009142007;-0.0733057;-0.0762804;0.08157026;0.08054701;0.07162246;-0.038413305;0.102626085;0.06521103;0.03754527;0.08390466;-0.16809134;0.05799832;0.07225281;0.039864056;0.00079378975;-0.10647232;0.059481088;-0.03414203;0.003898031;-0.057711337;0.01824909;0.0045527467;-0.044469915;-0.0084336875;0.025968548;-0.033891726;-0.023727858;0.039695464;-0.14568268;0.10562849;-0.11827429;-0.032637853;-0.0025186064;0.028699255;0.064309195;0.0032242972;0.067699514;0.04340127;0.07934102;0.052580405;0.01606833;0.0034888787;0.044412114;-0.0030638042;-0.054875385;-0.030881504;0.012798739;-0.06228739;0.033547133;0.07331025;-0.04717351;-0.074919835;0.08108692;0.0042646946;0.0037974862;0.040855456;-0.07956338;0.06896327;-0.01883717;0.084022604;0.079435796;-0.02970289;0.053343482;-0.030320542;0.008094263;0.03899072;0.05172415;0.081827514;0.034539387;0.035278916;-0.11580512;-0.04828383;0.0771249;-0.001259516;-0.010689036;-0.019095585;0.070038095;0.019503566;0.014911974;0.061994296;-0.043857854;0.0801362;0.08958468;-0.05381962;-0.027615748;0.005710619;0.08660645;-0.027948568;0.010939231;-0.023692816;0.058891457;0.0131438095;-0.13406831;-0.008508074;0.03197784;0.013223451;0.015819976;-0.028143115;-0.046673983;-0.068305686;0.06643625;0.07786127;0.07993777;0.03490475;0.030825265;-0.0062878714;-0.0637434;0.06663942;0.08684979;0.0450358;-0.018466828;-0.0266429;-0.021779435;-0.07368665;-0.013804121;-0.07743084;0.055969227;-0.012616641;-0.024831772;-0.05378395;0.025626628;-0.08716124;-0.03248042;-0.091850154;-0.056968886;0.07524447;0.081112534;-0.01698005;-0.025953576;-0.059018616;0.024250213;0.037843082;-0.03568625;0.0057345787;0.024455773;-0.03745871;-0.082318656;0.07599288;-0.07604526;0.07900522;0.003585596;0.050154116;-0.056780253;0.05852367;0.009568748;-0.09859881;0.05503799;0.053066436;-0.09468085;-0.03166535;0.07443065;-0.14059909;0.055884764;0.034678962;0.069052905;0.014257295;0.061893634;0.012345751;-0.013852993;0.06591809;-0.053924594;-0.050331462;-0.00785817;-0.044593446;0.10960533;-0.033942364;-0.04029991;-0.0033179221;0.03457207;0.047778897;-0.026797531;0.028038394;0.022782478;-0.05994348;-0.04277683;-0.06274209;-0.0008527059;-0.07429506;0.07778601;0.058338504;-0.031686284;0.06442422;-0.066038996;-0.05402345;-0.040839165;-0.0751233;-0.03958021;-0.00050122966;0.017370224;-0.058382265;0.029608002;0.047331147;0.0066502374;0.07979253;0.013061943;-0.012641336;-0.07409381;0.058809087;-0.02952332;0.031223213;-0.041144952;0.029309783;0.07177483;0.10028998;0.04457063;-0.06010599;-0.12725493;-0.056327306;-0.101653494;-0.036148183;-0.03933305;-0.015187612;0.08073887;0.08406212;-0.013416929;0.12717764;0.022554131;0.03857219;0.09303991;-0.023023041;0.014808732;0.061714694;0.044086672;-0.08580677;0.059227288;-0.03564018;-0.060634118;-0.12142451;0.034155834;-0.022985777;0.012014139;-0.028859023;-0.07204963;-0.045975164;-0.07520975;-0.061786935;0.02168512;0.0112848375;0.077501245;-0.036066063;0.08009839;0.019175796;0.044545997;-0.097867645
0.082088865;-0.010893035;0.009306315;0.10111589;-0.09109361;-0.038241677;-0.06240364;-0.0024162359;-0.11652218;-0.007910102;0.037925582;-0.15437071;-0.067639716;-0.034100063;0.0648398;-0.057968665;-0.014689553;-0.066118866;0.063738674;0.05938895;-0.018213224;0.09134979;0.06318866;0.041513275;0.051176522;0.08466038;0.034135163;-0.04401916;0.0077641895;0.0305408;0.015032271;0.06816113;0.0432602;-0.008499964;0.08247064;0.07319882;0.0799198;0.07386784;-0.053381257;0.04789693;-0.07676717;-0.08777459;-0.11095753;0.039415814;-0.017848562;-0.07013441;-0.037879944;-0.07875407;-0.16233191;-0.012788967;-0.020640602;-0.009229759;0.007594807;0.06495758;-0.039791085;0.10578937;0.010403323;-0.0437938;-0.007823282;-0.016796488;0.06579033;-0.028191498;-0.071843326;0.0509969;0.0029208364;0.061859682;0.06055534;-0.08940961;-0.10176847;-0.001076282;0.050979204;0.004467929;0.00043213088;0.028979069;-0.07565283;-0.008986228;0.02414673;0.048695076;0.017876728;-0.07169285;0.025260383;0.014245278;0.09487062;-0.012608129;0.031496607;-0.04321753;-0.08583105;-0.04019104;0.0012206387;-0.04455962;0.05497012;0.07648674;0.04367798;0.10125641;-0.05846108;0.0013333822;-0.09145711;0.082878016;-0.029239083;-0.05420755;-0.075184256;-0.02733212;0.029588003;-0.016939083;0.03628954;0.028227568;-0.025144951;0.050540578;-0.041373175;0.042668592;0.06632552;-0.028448377;0.039523024;0.002728501;0.04256013;0.03114535;-0.08908267;-0.06296347;-0.074301176;0.00864172;0.048530225;0.02890633;-0.050435666;0.05331488;0.018352216;-0.032654237;-0.009988247;-0.005252985;-0.054510854;0.066803925;-0.038574606;0.12878993;-0.00013494352;-0.05921024;-0.0116722165;-0.03301868;-0.012137777;-0.06356652;-0.032342322;0.060441002;0.065665245;-0.063252375;-0.055815;0.073086426;0.023362929;-0.04270656;0.04603979;0.06606338;-0.042219244;0.0030387777;-0.07854318;0.0708034;-0.034564316;-0.030611204;0.0689996;0.00132206;-0.051374055;0.047775418;-0.007666092;0.07356218;0.004607208;-0.14051218;-0.06797564;-0.020251112;-0.07535311;0.012411361;0.046242;0.098624475;0.04679437;0.007740274;-0.021048963;0.05012926;-0.033026434;-0.040861674;0.010297213;-0.0035507742;-0.05738869;-0.061193764;-0.08789507;-0.03473799;-0.093800075;0.124161474;-0.027780326;0.044547495;0.08869703;0.008602708;-0.06973239;0.032651182;0.032963082;-0.036031567;-0.04982992;0.052241284;0.004432023;-0.06241758;-0.008278175;-0.042405028;-0.025487766;-0.04476894;-0.010023428;-0.056711435;-0.10235621;-0.012562771;-0.050183177;0.056320705;-0.00425069;0.00633082;0.070175156;-0.07367876;0.037086442;-0.00506956;0.010638977;0.061706986;-0.0453001;-0.011130246;0.015973814;-0.050527412;-0.15133826;0.11426689;0.08379962;0.07522875;0.005452172;-0.09861756;0.07959042;0.029138524;0.034958724;0.07993969;0.036644276;-0.03086782;0.089432254;-0.03907148;0.07358681;0.016410137;0.0475991;0.12080982;0.0034568582;-0.033384323;-0.028992249;0.014170116;-0.042632744;-0.036617152;0.054355007;0.039539132;-0.0048815254;-0.05322394;-0.010634874;-0.041431844;0.014552253;0.04735945;-0.049461965;0.020076293;-0.06283582;-0.12476688;-0.038630232;-0.057880398;0.027149824;-0.05884159;0.093190126;0.06037058;0.07079241;-0.045288157;0.056460742;-0.024545023;0.014688759;-0.029696338;0.03026224;0.06900563;-0.003523554;0.055242617;-0.083599515;0.08048374;-0.06573741;0.07703176;0.07904816;0.13109683;-0.003623128;-0.05775757;0.03606431;0.09473188;-0.0047257026;0.029080812;-0.041178837;-0.059908956;-0.0027858573;0.05509964;-0.0660122;0.047556642;0.10400029;-0.04063639;0.094552256;-0.058145147;0.053795215;-0.09405336;0.0925;-0.004052648;0.0042927614;0.08587243;0.06720233;0.022764025;-0.03750448;0.042349283;-0.06502734;-0.033434775;0.05565625;-0.04752702;-0.00028217025;0.057697784;-0.024356091;0.020131553;-0.050493866;0.05171042;0.06909995;-0.05210447;0.029842548;0.009626254;0.075135574;-0.07011737;0.03606542;-0.06661881;0.055379316;0.034501396;0.012963856;0.13026345;0.058733277;0.021323895;0.08013578;-0.042678;-0.033822186;-0.04433794;0.07896348;0.040502574;0.0883506;0.059444748;-0.052290708;0.039095614;0.05844131;0.004818899;-0.038097568;0.06144709;0.0038965358;-0.049000032;-0.047999818;0.08248703;-0.11486075;0.04185819;0.06872334;-0.038408596;-0.025339328;-0.04672411;-0.03749346;0.021638187;0.08485661;-0.07407266;0.018937996;-0.044651933;0.056838118;-0.00330856;-0.073836915;0.012988524;0.04366037;-0.057662047;-0.0069889566;0.031681713;-0.10325338;-0.044132575;0.013765576;0.049078632;-0.049847383;-0.012950358;0.04875087;0.048987925;0.078383066;-0.058227938;0.011126556;-0.07797984;0.045657165;-0.057903025;-0.017042879;-0.12449775;-0.041290484;0.0021032377;-0.05450052;0.025680088;-0.07940238;0.046188604;0.011293211;0.0006259595;-0.102564156;-0.049116116;0.05086069;-0.07049791;-0.064179406;0.066642955;-0.019285506;-0.06843362;0.08017438;-0.01024354;-0.07310081;-0.025213806;-0.059836786;-0.029509312;0.00622716;0.07786094;-0.02413133;0.09072198;-0.09160319;0.025422612;-0.01618998;-0.051497564;-0.0076284986;0.0057800817;-0.03382765;0.005129329;-0.03717676;0.025879094;0.050323226;-0.08449807;0.06063392;-0.024229206;0.056309953;0.06233613;0.0049276263;0.002555671;0.07964945;-0.052917928;-0.121263996;0.020308342;0.04321182;-0.0005810693;0.05095546;-0.01445101;0.04755431;0.021413231;0.031922847;-0.008918927;-0.030783145;0.0630622;0.0071881255;-0.035232816;0.010496339;-0.026152555;-0.07398267;0.024329586;-0.00079781853;-0.03436436;0.03953483;0.049465198;0.018492246;0.0056969803;0.03488017;-0.03265416;-0.048887298;0.02084756;0.021017646;0.07325173;0.09473248;-0.16351345;-0.068095095;-0.059719965;0.048058026;-0.049823817;0.049811583;-0.071823336;0.011681062;0.05545958;0.076476336;0.04456767;0.065304264;0.024416253;0.041021254;-0.050284643;-0.082687646;0.0020321363;0.04618054;0.0962425;0.044965107;0.08650486;0.02879007;-0.078089476;-0.0069237365;0.062869735;-0.12321832;0.06899042;0.03801554;-0.124415204;0.057024747;-0.0035961473;-0.033128537;0.039005324;0.05860329;-0.017923063;-0.06269731;-0.008623981;-0.02485276;0.0027509034;0.027864441;0.07414329;0.10471852;-0.05200218;0.04842056;0.05676508;-0.019482572;0.014406203;0.017862517;-0.069099784;-0.02591945;0.023863696;-0.006623381;0.013637945;-0.020817867;-0.03916126;0.06079136;0.052603725;0.05119507;0.088271916;0.03752795;0.0010927398;-0.0030393223;0.009923447;0.08282214;0.011300801;-0.0074911774;0.045068394;0.006805465;-0.09407152;-0.058411285;-0.068349;0.034331504;0.053200766;-0.10681506;-0.076960064;-0.066792086;0.08263571;0.06511228;0.04199678;0.018102372;-0.0023600508;0.02348653;0.04568527;-0.008819248;-0.097018056;0.01092287;-0.0669097;-0.033058867;-0.02634043;-0.04618642;0.13301149;0.01953771;0.12117238;0.11698825;-0.03772365;-0.040615764;-0.039179806;-0.017460527;0.06865257;0.07563303;-0.09220607;0.032967906;-0.068665415;-0.02409943;-0.048625108;-0.046795774;0.06847958;-0.0035576755;0.0083502745;-0.046873007;0.0013527628;0.068078555;0.04055392;0.04994128;0.029405257;-0.016824977;0.06594402;-0.02144083;0.007913003;0.04070379;-0.04542908
0.004764799;-0.07659285;-0.016783375;0.008989702;0.072354205;0.037712265;-0.010859881;0.056052923;-0.06522934;-0.05439906;0.06699364;-0.116783306;0.029652528;-0.054291412;-0.031860553;-0.15880659;-0.10028648;-0.030887898;-0.021590691;0.05207263;0.04270977;0.039054636;-0.029692143;-0.10552809;-0.06672591;0.0617086;0.13163988;-0.013572308;-0.06369816;0.05788872;0.061224632;0.029701825;0.07401082;0.07673202;0.13547505;0.06158045;-0.016986068;-0.059563324;0.04511599;0.029925417;-0.06305715;0.061357874;-0.04315156;0.026337266;0.08271157;-0.026359666;-0.0926603;-0.056776814;-0.086386256;0.050687175;-0.082037605;0.097025335;-0.03376278;0.07716739;-0.0016146373;0.09829499;-0.031045862;-0.013838264;-0.065497816;-0.04374761;0.018211953;-0.09038342;-0.028482776;0.06461661;0.079053424;0.0072387434;0.027344003;-0.04065835;-0.06796221;-0.01376685;-0.040518206;0.05318905;0.07918545;0.005569377;0.049105555;-0.0024973426;-0.019553453;0.016005104;0.014789348;0.02696725;-0.015463422;0.051941313;0.03243368;0.04506765;0.02413462;-0.008688377;0.033410937;-0.10510489;-0.043363675;-0.078225754;-0.00035162253;-0.07607941;0.011467021;0.06922922;0.06908525;0.005530424;0.08725401;-0.08044487;0.015789922;0.018512534;-0.08787341;0.05641817;-0.045052886;-0.017795978;-0.015277543;-0.051857688;0.06738066;0.06575998;-0.049935106;-0.036069885;0.016643805;0.06644454;-0.014719016;0.07287441;0.03752559;0.053902846;0.07590711;-0.04423829;-0.15270832;-0.042987283;0.046431556;-0.0051507703;-0.0019727496;0.026422214;-0.020236311;-0.0069628027;0.060800515;-0.06501614;-0.035898536;-0.015395359;0.035759144;0.026740868;0.051120076;0.07396217;-0.09570001;0.071437895;0.019409139;-0.032798044;-0.048336904;0.045156006;0.03524888;-0.06463173;0.01692463;-0.044074956;0.08935034;-0.006419992;0.08264462;-0.012687587;-0.104801536;-0.037177432;-0.07173814;-0.004747336;-0.03715117;0.025129525;0.013747941;0.10187672;-0.05495361;-0.005578688;0.05979438;0.04320761;0.020226913;-0.12675586;0.07379064;-0.16756742;0.01936604;-0.045686133;-0.060224783;0.07304912;0.0870088;-0.032403648;-0.13404094;-0.024776405;-0.091883615;0.010245383;-0.043115206;-0.008787018;0.04920796;0.030672338;-0.06793711;0.031619214;-0.08931388;0.09152859;-0.05049645;-0.053008575;0.051693648;-0.0023682034;0.011646294;0.032038935;0.024755951;0.05884499;0.100165844;0.06525247;-0.07470744;-0.032168273;-0.027613107;0.015857054;0.02753272;0.009334193;-0.039234444;0.0102707455;-0.0594526;-0.036509328;-0.03863694;-0.012916226;0.020401383;-0.007427193;0.056194764;0.009430572;-0.030451048;-0.0944613;-0.04376378;0.03687333;-0.06375182;-0.06569184;-0.003659875;0.016403222;-0.16044153;-0.032614794;0.045802634;0.049640913;-0.007766406;0.055022206;0.08230607;0.043831356;-0.007162441;0.011351386;-0.020841176;0.06802543;0.019670218;-0.029109718;-0.017418982;0.08358698;-0.046704873;0.10806683;0.061984796;0.029750371;-0.058397308;-0.07178051;-0.06038939;-0.05531819;-0.048589345;-0.05991018;0.06118377;-0.050821662;0.11359509;-0.00939566;0.043529037;0.03492873;-0.0673432;0.028625395;-0.014111554;-0.16123551;0.107422106;-0.07533296;-0.011326092;-0.030989856;0.049698986;0.021385873;0.052751213;0.07601937;0.008441269;-0.062374026;-0.049098596;0.076682575;0.06593848;-0.09079138;0.08026569;-0.06634338;-0.020003257;0.006462162;0.00940998;-0.05343563;0.04100742;0.03393093;-0.13939148;0.08708999;0.0070304773;0.045632627;0.00153057;-0.06324287;-0.06983915;-0.044218328;-0.033428695;0.0397528;-0.0004482566;-0.03614583;0.050899826;-0.026005462;-0.046107866;0.092325374;-0.06328632;-0.037574403;-0.027866786;0.018972976;0.07917651;0.098659016;-0.07791323;0.032961767;0.08011012;0.011235332;0.011410713;0.05063722;0.011689532;0.035165105;-0.055198815;0.033967275;-0.0057520466;0.032579593;-0.03679986;0.04786976;-0.038742546;-0.035603292;-0.07215978;0.08167034;-0.053206254;-0.05840622;-0.018927308;0.07776111;-0.077911414;0.062262516;-0.05824093;-0.039539784;-0.020938054;-0.07968851;0.011090833;-0.05643456;-0.09858137;-0.05302757;0.08537891;0.044656787;0.00998065;0.008666683;-0.05620367;0.03905592;-0.04109334;0.022999922;0.12188099;-0.016979482;0.14765637;0.03759876;-0.03470888;-0.07094515;-0.062125817;0.03358188;-0.037384514;-0.0034741915;-0.0039168918;-0.06972223;0.07709031;0.04514803;0.050477672;-0.07070317;-0.047414564;0.07283103;0.02892585;-0.06742197;-0.016616592;-0.027073603;-0.0017304048;0.057952706;-0.0974343;0.059057757;-0.05441338;-0.050747566;0.0031423054;-0.039061293;0.019747306;-0.07220347;-0.024625888;0.027862895;0.01019231;-0.0103863925;0.080837324;0.08416926;0.05278884;0.07421701;0.0657611;-0.042358935;0.00457748;0.051343076;-0.013429174;-0.039409548;0.053428277;0.032442436;0.07744866;0.0037504013;-0.08938951;0.00028944275;-0.0625166;0.026686337;0.02006049;0.055863936;-0.047655303;-0.012985563;0.04954432;0.07707019;-0.06283002;0.04145767;-0.017485505;-0.030638678;0.048619013;-0.020575045;-0.06171499;-0.00095917354;-0.079976805;0.0028357531;0.04035988;-0.06451431;-0.037067425;-0.07605735;-0.08111054;0.08728552;-0.05252857;0.07027337;-0.004310291;0.09329899;0.031225067;-0.062412698;0.0028616935;-0.013148632;0.026266873;0.048136506;0.06298768;-0.042259064;-0.18230975;0.11412738;-0.074099645;0.022074256;-0.0048048887;-0.046692815;-0.021374004;-0.0117665725;0.040104836;-0.0044485214;0.08254724;-0.073273525;0.06688943;0.038794156;-0.06618622;-0.045047835;0.081913866;0.057579063;0.079815984;0.06983579;-0.045661688;0.020042866;0.059985355;0.082064964;0.05638494;0.03491097;0.057088487;-0.058398318;-0.012018223;0.06620698;-0.00035880227;-0.113442756;0.022838484;-0.10916863;0.06029642;-0.036022954;-0.019774625;0.05598277;-0.08095908;-0.008341675;-0.0849696;0.045494337;0.06844984;-0.06342498;0.06955486;0.028709184;-0.06019145;-0.023766808;0.058436465;-0.008190425;0.048501562;0.111361176;0.029374545;0.028075496;-0.008611685;0.10502193;0.08956849;0.025791086;0.03926804;-0.021868749;-0.045242947;0.015083607;0.13426015;0.035504702;0.009106259;-0.01653855;-0.027799044;0.008085314;-0.07657826;0.010780276;0.028160064;0.022411663;-0.03344394;0.044749673;-0.014509362;-0.0025939662;-0.028494006;-0.060780168;-0.055275533;0.055951696;0.07127039;-0.068169855;0.07800166;0.016821176;-0.023521451;-0.047460563;-0.02463704;0.010239198;-0.04967467;0.08551001;0.01499505;-0.0384496;0.0961764;-0.07239834;-0.04972678;-0.10584059;0.076814905;0.065436535;-0.004477951;-0.08497191;0.022999631;0.092982486;0.022594167;-0.057810184;0.03825039;0.03196768;0.08887154;-0.05854511;-0.011590412;0.07806108;-0.04322961;0.02355974;0.055753734;0.04409462;-0.07470938;-0.024661405;-0.023186386;-0.00042658224;0.060146116;-0.021956194;-0.023866544;0.039831325;-0.0731105;0.009725968;0.02068142;0.07889999;0.04802802;0.010043328;0.07156681;-0.051249236;0.040533826;0.093076594;0.008951399;0.059543047;0.08412589;0.08761927;0.09806036;0.06777172;0.059443027;-0.06710516;0.06632324;0.06830136;0.042809237;-0.016852153;0.12610488;-0.08200185;0.019654565;-0.09450187;0.024866942;-0.03930373;0.06839883;-0.03691342
0.064057015;-0.07089342;-0.046566103;0.1109294;-0.017464517;-0.08502938;-0.00024683253;0.008613008;-0.04910731;-0.115809746;-0.011000236;-0.12395917;-0.059334606;-0.051819377;-0.071386725;-0.13453165;0.049378473;-0.041928574;0.009552444;0.043941643;0.06757544;-0.06903875;0.032447744;-0.06584686;0.064038575;-0.03971992;0.062071655;-0.049571577;-0.16509332;0.015149162;-0.06167253;0.034746476;-0.01077765;0.013587773;0.19211589;0.019201908;0.07351072;0.017282378;-0.018097438;-0.019427236;0.024478236;-0.046967346;-0.1343187;0.07301243;-0.0380743;-0.026635567;-0.06626023;0.08658931;-0.043069307;-0.06098469;-0.00033904586;-0.036020633;-0.037093565;0.10161778;0.019522764;0.18072253;0.04213697;0.039802287;0.031006925;-0.06271952;-0.051706336;0.029084409;-0.07783145;0.04257529;0.052899424;0.06417261;0.024095459;-0.09058873;-0.049525913;-0.011594509;-0.05138678;0.039051216;-0.03555119;0.08674774;-0.0788176;0.06218196;-0.042775083;0.099940784;-0.08111666;-0.07422966;-0.03682981;-0.053096425;0.07077203;0.05890155;-0.010306554;0.00048354402;-0.08048378;-0.12307938;-0.05607007;-0.011063055;0.045063812;-0.015711233;0.13626887;0.078716576;-0.037138496;-0.04003276;-0.07397048;-0.05159576;-0.035543732;-0.030628433;-0.010536039;-0.0294351;0.14402138;0.049575847;0.08601223;-0.007009295;-0.0768027;0.12395737;0.07442651;0.04752852;0.031318553;-0.027496109;0.0022176693;-0.018766906;0.056230918;0.055403832;0.070010655;-0.06740004;0.008975101;0.0051903455;0.06902038;0.0023358837;0.08590921;0.058125906;0.08750028;-0.027193341;0.02812129;0.029371547;-0.029834528;-0.0334345;0.104923666;0.16372474;-0.05140003;0.048726976;-0.07464307;-0.06902331;0.010038595;0.010424091;0.040171985;0.08158064;0.011207024;-0.101183616;0.0034230796;0.1021624;-0.042759992;0.002188488;0.03736392;-0.038778637;-0.022769386;0.035350777;0.015046735;0.008354396;0.044704724;-0.066854276;0.011972126;0.0171893;0.070258945;0.06151592;-0.044673536;0.024605868;0.039195806;-0.050603528;0.11794714;-0.03739568;-0.019484315;-0.04532394;-0.09503382;0.1236032;0.037658162;0.027048875;0.0062556383;0.017743438;-0.06855594;0.06212157;0.059028488;-0.034806136;0.01855304;0.016502501;-0.009372409;-0.041769452;-0.016099393;0.09788023;0.026155962;-0.09700691;0.050158106;0.10223192;0.046865262;0.020236202;0.028265892;-0.07423822;0.023242468;-0.06893433;-0.037705667;-0.018959235;-0.054282255;0.14978929;-0.05766851;0.030827032;0.07857735;-0.050822552;-0.07400805;-0.060984984;0.040551413;0.089697406;0.026514543;-0.05027013;0.069969;-0.07847703;-0.046043504;-0.0084569035;-0.021236284;-0.011510184;-0.1470643;-0.010091009;0.07976436;0.0070309183;0.0053448156;-0.017348709;-0.023880517;-0.050307613;0.056376025;0.012575392;-0.033053406;-0.031154899;0.029589292;0.03253328;0.050921835;0.059554297;0.0104509145;-0.00088492304;-0.041975465;0.07690561;0.05594691;-0.04481921;-0.0383347;-0.042146053;-0.05657289;0.019408043;-0.04909546;-0.00087804825;-0.055145722;0.012929618;0.032470144;0.018888745;-0.021066004;-0.06906874;0.0021460413;-0.061164856;-0.011203383;0.01655985;0.101350985;-0.12415668;-0.04004007;0.007857194;-0.029891884;0.037767958;0.00015462932;0.049555786;0.03021747;0.106382266;-0.07058724;-0.020278033;-0.051344253;0.04951397;0.13612156;0.056665376;0.093312345;-0.10018915;0.03705223;0.044154286;0.07632922;0.076849274;-0.02562173;0.104086876;-0.04169554;-0.001327252;0.02201833;0.09490764;-0.0074107074;0.045855485;-0.0755187;0.004466525;-0.009233788;0.05097288;0.053227603;-0.07433945;0.14017849;0.08143308;0.056886822;-0.028230723;0.032175705;0.038197327;-0.044977896;-0.0142114805;-0.012660215;0.014901814;-0.03331315;-0.05707727;-0.05403044;0.07194628;0.07646692;-0.03586004;-0.031588785;0.02807516;0.034653608;-0.03701802;0.052798018;-0.06202244;0.014808114;0.03060753;0.05621749;0.00027783067;-0.0069367797;0.060535453;0.09014318;-0.024398135;-0.041898157;-0.00610932;-0.013170864;-0.010603772;-0.012201112;-0.06986511;-0.0060573425;-0.094018385;-0.031337973;-0.03415141;-0.12451582;-0.01675554;0.056958538;0.043145116;-0.06956708;0.10341699;-0.05289705;-0.015293956;-0.0748041;-0.03202167;0.03310399;-0.0396002;0.039364036;-0.017324852;-0.050732087;-0.0017099691;-0.15907995;-0.06576236;0.03834086;-0.011468662;-0.09806406;-0.110833384;0.053937294;-0.0607469;0.0033633297;-0.0018945668;0.06714603;0.008024128;0.080556005;0.035535768;-0.028526964;0.025816651;0.05628157;0.084077686;0.01734343;0.15526722;-0.038228437;-0.0070433253;0.13320011;-0.051377248;0.0124346595;0.022316651;0.11243746;-0.003261428;-0.03371764;0.035187602;0.13289686;0.07833469;0.045573153;-0.04573946;0.09568763;-0.0032116037;-0.055288322;-0.028917503;0.07381652;0.06577303;0.05927107;0.036313884;0.0020375755;0.03232268;-0.07583928;-0.052531615;-0.07916752;0.06295103;-0.032696087;0.080208115;-0.056203924;0.021896012;0.016444435;0.05224288;0.05461087;-0.07727654;-0.034603782;0.014822025;0.03276509;-0.022706313;-0.072269164;-0.015099931;-0.010387579;-0.1022755;0.038047675;-0.015826257;0.065655716;-0.036878973;-0.05165415;-0.028113194;-0.03680471;0.073502086;-0.033500515;0.026443271;0.09738203;0.08498896;-0.03324325;0.019471494;-0.099794105;-0.027887281;-0.11606531;0.08067922;-0.101886705;0.08328868;0.03693171;0.022130685;-0.046092506;-0.042453054;-0.02814013;0.054048866;0.09034593;0.04705783;-0.061485086;-0.02001831;0.028319884;0.05064679;-0.0881273;0.006812012;-0.009392811;-0.027744208;0.051244557;0.07024598;0.13918252;0.024560362;0.0054742303;0.0017056677;0.057490073;0.031295177;0.06494211;-0.044705655;0.065320425;-0.06826954;-0.024298523;-0.057103466;0.052107055;-0.08232722;0.03427587;0.09258296;-0.047239702;0.03839557;-0.08610878;-0.029887004;0.034661938;0.04927393;0.08048687;-0.037326325;0.06433596;0.022374047;0.0066795526;0.009030931;0.09842355;-0.02585452;0.05163057;0.0069326963;0.03174822;-0.07814063;0.0643583;-0.012674981;-0.024624897;-0.02167827;0.010807264;-0.14128265;-0.052847523;-0.0064449324;0.019984715;-0.007582041;-0.074760474;0.07880556;0.014856805;0.031656228;0.084410906;0.07973194;0.07033411;-0.0417227;-0.03477419;-0.051800303;-0.040025096;-0.012757375;-0.023034275;-0.071610585;0.057217952;0.041494146;0.051900312;-0.09801987;0.06933396;-0.028455434;-0.053224612;0.009041108;-0.10112002;-0.021591546;0.05506205;0.053083282;0.0709927;0.08032188;-0.011093265;-0.008459502;-0.053776905;-0.030599996;-0.0010546092;-0.020204473;-0.02272139;-0.041945744;-0.049605433;0.021961812;0.010155469;0.080818824;-0.041081246;0.045160163;-0.059529178;-0.046042927;-0.07146866;0.07425602;-0.054116853;0.09060569;0.021325361;0.008372772;-0.003977762;0.045562193;-0.031916067;0.008494525;-0.05072154;0.0028678826;-0.04926788;0.023557331;-0.09830592;0.07879985;0.097347006;-0.016851729;0.07566238;-0.01052968;0.09957174;-0.045837518;-0.058394793;0.027428545;-0.042119768;0.087699234;-0.020884953;-0.047193937;0.10942326;0.0482588;-0.009492208;0.025301104;0.07450043;0.07968119;-0.01892915;0.0048226183;0.13813543;-0.013902363;0.07401381;0.01618291;0.00456973;0.039421473;-0.025884867;-0.032982595
0.06348672;-0.008244573;-0.03766078;0.052884437;-0.049443807;-0.06251701;-0.03825897;0.124593705;-0.06311251;-0.047222555;0.05847603;-0.056296315;0.033082955;0.09487874;0.05901935;0.035804093;-0.020834269;-0.0548743;-0.06188456;-0.09996755;-0.033006262;0.04891177;0.03385717;-0.036922425;-0.08431959;0.024935002;0.05712053;0.10106229;-0.017975865;0.09231241;0.015243506;0.02906243;-0.032797564;0.0017073323;0.023487365;0.08330046;0.08421459;-0.035295665;0.0921643;-0.070437714;0.028774556;-0.12401154;-0.06790223;0.079355344;-0.013864827;-0.0078068688;-0.108282655;0.073357485;-0.19713731;0.07298431;0.020992024;-0.046806872;0.14322576;0.049757782;-0.061021555;0.17034556;0.07332933;0.0029773647;-0.060545564;0.029213123;0.007242636;0.10088539;-0.03946461;-0.020501915;0.021782843;-0.0069622155;0.032615423;-0.016765516;0.061043713;-0.027689165;0.010353108;-0.004192168;-0.0348714;0.05254669;-0.10795468;-0.042010073;-0.062189773;-0.069151804;-0.016053757;-0.16359082;0.063617006;-0.06043568;-0.028295068;-0.06537843;-0.014865963;0.023629023;-0.06520354;-0.09086356;0.06441905;-0.009560263;-0.035610728;-0.03684072;0.10280692;-0.0027036685;-0.06003228;0.08321802;-0.008746855;-0.058566105;-0.0090206675;0.005571676;-0.019848473;-0.00396266;0.09154103;0.016673539;-0.009502105;-0.012393945;0.09225356;0.14318979;0.044745535;0.068766855;-0.049471334;0.020926964;-0.05176886;-0.03090758;0.016151806;-0.011429258;0.06785157;-0.043667298;-0.06834933;0.039794102;-0.08751304;0.08229056;0.16545066;-0.0333801;-0.043169636;-0.026922632;-0.027222563;-0.10251657;-0.009399672;0.07196636;0.039542865;0.13369757;-0.03802923;0.015060965;-0.020353934;-0.025779491;-0.07804061;-0.029487487;0.10851844;-0.047586784;-0.000924102;0.0040269652;-0.08515283;-0.053267855;0.05416728;-0.068139315;-0.04773483;0.045657553;-0.07367375;0.00555594;0.017728832;-0.04339907;-0.031895015;0.030222159;-0.014926801;-0.062138006;-0.12466445;0.024662131;0.05968122;-0.09645733;0.08925706;-0.008457076;0.055515468;-0.09715315;-0.06146161;0.07654711;-0.035630636;0.029152075;0.027149154;0.035146732;-0.08811373;0.03257724;-0.06644116;0.07974057;0.05296255;0.06939342;0.08627045;0.09720487;0.024119148;0.0620044;-0.05700794;0.012839302;-0.057518404;-0.025802352;0.12090147;0.024360565;0.054871432;-0.06717473;0.01498417;0.033533208;-0.06538451;0.027489182;-0.047287315;0.08862516;-0.08460273;0.006642323;0.009452217;0.022066649;0.0811198;0.04749337;0.06994139;-0.060299356;-0.07057387;0.05147308;0.045611344;0.049809046;0.13367657;-0.036394235;-0.047804248;0.02034219;0.023664868;0.031665597;-0.0989781;0.034066115;0.11550096;-0.0409639;-0.09145908;0.078260265;-0.037625596;0.08254514;-0.010219182;-0.07456199;-0.071970925;0.04798511;-0.0066824467;0.055039696;-0.026598347;-0.03939524;0.0344049;-0.042571668;0.033586264;-0.039838556;-0.031946365;-0.013768741;0.0026876293;0.085788846;0.0684637;-0.028100459;0.105445385;-0.098198496;-0.015652753;0.04346027;0.066072956;-0.038522575;-0.041824125;0.06951697;0.12280439;0.045855977;-0.09051207;-0.05055257;0.15288642;0.0064814845;-0.012316149;0.0028416642;0.086770736;-0.027951663;0.04020242;-0.045908075;0.03861184;-0.10586334;0.021095527;-0.043233592;0.045120113;0.0451126;0.057683837;-0.032485742;0.08402722;0.083083384;-0.05260197;0.03762114;0.030081395;-0.052281868;-0.020321406;0.09707349;-0.068163164;-0.014003544;-0.12918398;-0.03605919;0.03874118;0.10975764;-0.008908658;-0.034621596;-0.08089625;-0.018768784;0.0557793;0.09698791;0.10969481;0.085042596;0.045964297;-0.055470258;0.09605296;-0.01248432;0.08707522;-0.026700184;0.008476305;0.051328227;0.02906549;0.07524298;0.06655138;0.028765637;-0.067559704;0.016933111;0.031470966;0.011658618;0.14327902;0.040989377;-0.0030714408;-0.020361423;0.06446828;0.037978202;-0.0598836;0.011935204;0.0815184;-0.062312987;-0.054595307;0.081720784;0.0152476635;-0.037804745;-0.02183489;0.022700505;-0.010277641;0.12678823;-0.058357965;-0.040473364;-0.045652382;-0.091315985;-0.010066057;-0.025183044;-0.055287566;0.043063827;-0.00025140351;0.08977435;0.07628264;-0.0006790287;-0.052391104;-0.00575761;0.0789383;-0.07819096;0.103063144;0.004129094;0.12484641;0.074664265;-0.10249155;-0.030940967;-0.020794533;-0.03243506;-0.022898238;-0.014809259;-0.06919273;0.026016392;0.06301588;0.08486226;0.008124765;-0.0077219075;-0.06424499;-0.052111264;0.069577575;-0.02393017;-0.017725455;0.0526745;-0.10431869;0.037123162;-0.035647947;-0.042671863;0.0060137324;-0.030101908;-0.07198662;-0.0035099732;0.09911106;0.018895319;0.0018414579;0.036528867;0.12417129;-0.05049297;0.07246479;-0.01791467;0.06575303;0.036802385;-0.05886925;-0.079590514;-0.092912965;0.036003917;0.036139056;0.053461682;0.13290906;0.045452733;-0.054086894;-0.025276542;0.025865242;-0.012269179;-0.07260246;-0.0637108;-0.020081831;0.08465691;-0.0025836597;0.03267722;-0.006714383;-0.10280134;-0.06763002;-0.074772365;0.048396003;0.06630559;-0.051874004;0.09588578;0.027693266;-0.0053169816;0.05649173;-0.05685768;0.041508466;0.064360216;-0.0052079796;0.040218618;0.03616419;-0.04754985;0.04711781;0.008951344;-0.010035155;-0.009152259;0.01333954;0.025124377;0.005259546;0.12406035;-0.08298997;0.081700385;-0.11206368;-0.03193525;-0.038681585;-0.036539696;0.053691573;-0.0586746;-0.038718253;-0.01880629;-0.047137216;-0.060039453;-0.0020756167;-0.024181632;0.06067912;-0.027975682;0.035224725;0.09550906;0.044497136;0.06528181;0.040817745;0.009435751;0.069163926;0.01754475;-0.07409582;0.042281773;0.055089604;0.04054452;0.10957305;-0.03269363;0.037112236;0.033013824;-0.059465162;0.029944587;0.052944865;0.023885667;-0.045087315;-0.04327466;0.0029183824;-0.03273418;0.040815033;-0.090337016;-0.035726983;-0.066514455;0.041171145;0.010322378;0.0027492638;0.07020724;0.14148726;0.04285794;0.052926105;-0.015287337;0.05051576;-0.020850413;0.00997472;-0.15016;0.05321434;0.111575;0.0085225785;-0.01106156;0.042482607;-0.13683797;0.018514795;0.056130696;0.00997362;-0.022731433;-0.021006787;-0.00085889676;0.05909727;0.10269802;-0.026766514;-0.052713953;-0.060470093;0.06974095;0.017926093;0.055528075;-0.006913812;-0.054392118;0.010291863;-0.032261435;-0.043482095;-0.07128462;0.0135767;-0.087559484;0.03396545;0.017143853;0.052845664;0.09990271;-0.030078284;-0.041715696;0.0014855609;-0.011910164;-0.11616144;0.037188586;0.041834515;0.03988912;0.002880195;-0.1483433;0.018239668;-0.043061323;-0.004505257;0.019071557;0.009599722;-0.08601369;-0.01531178;-0.039393593;-0.00033936888;-0.019084862;-0.02737804;0.06858589;-0.1099624;0.025657635;-0.061756812;-0.012089482;0.024337227;0.0096953595;0.048036568;0.09052811;0.06424231;0.04369131;-0.024213698;-0.082107045;0.049902547;-0.009247849;-0.032378696;0.055809386;0.044375207;-0.089319214;-0.073343605;0.033097833;-0.052259278;0.07434359;-0.025831759;-0.043833736;-0.037050035;0.003732068;0.053127613;-0.09957362;0.03911461;0.050727434;0.061503276;0.06114172;0.018215425;-0.0122650005;-0.04331089;0.082833104;-0.008867259;-0.0144541655;-0.032007273;-0.0006591269;-0.07176521;-0.0307155;0.07869319;-0.07482053
-0.07299898;0.03277556;0.01853826;0.02872576;0.10946411;0.046010908;-0.0404033;0.026471453;-0.11252237;-0.077528656;0.010655321;-0.043365292;0.080582574;-0.05988422;0.08434499;-0.06276261;0.047802392;0.075772956;0.05777545;0.044832733;0.028817609;-0.03674867;-0.058932327;-0.06909725;-0.02628769;0.02308919;0.036030427;0.06745822;-0.080733135;-0.061435644;-0.019119713;0.08673021;-0.046408024;0.09749491;0.010005243;-0.047948223;0.059702154;0.07872331;-0.027908022;0.0019329679;0.027544238;0.02861246;-0.053007115;0.032579087;0.06721362;-0.057122838;0.003194442;-0.048306502;-0.19426908;0.0666904;0.066507354;0.09722254;0.04516498;-0.02073493;0.06216216;-0.010703733;-0.0013949561;-0.012698128;0.07664506;0.090396464;-0.007814327;0.045590423;0.016007077;0.023403281;0.058008194;-0.077551976;-0.0867924;-0.0013204474;0.03808453;-0.06301076;-0.017772717;0.035964128;-0.06424609;-0.024149196;-0.15190202;-0.030014835;0.051623847;0.09257971;-0.02533233;0.04967997;0.0076642036;0.0491191;0.06541109;0.008031605;-0.02575286;0.052368853;-0.044431172;-0.07371219;0.024131142;0.10364214;-0.0081461845;0.004096758;0.07647716;0.08364331;0.0075849164;-0.020371608;-0.010487436;0.0056783487;-0.0051165204;0.081225194;0.03188867;0.027320538;-0.012358565;-0.01690031;0.0012809234;0.047117144;-0.045404937;-0.024046665;0.054788645;0.059383884;0.043604895;0.07366319;0.00821483;0.035305146;0.03779597;-0.01589994;-0.013260035;0.073940404;-0.035704877;0.040516097;-0.023345675;-0.050461363;0.0974674;-0.050715774;0.052784543;0.0040213675;-0.02066946;-0.09851943;0.018930845;-0.012947125;0.017757807;0.10367304;0.11220401;0.023880929;0.071908064;0.053577688;0.05694518;-0.007524314;0.05972097;0.05462654;-0.02908099;0.037888955;-0.045762513;-0.06202425;-0.0084831575;-0.059674673;-0.07955617;-0.028053792;-0.0744557;0.04144341;-0.032675125;-0.019615738;0.068195924;0.041816607;-0.054409523;0.057689805;-0.045438696;-0.07689859;0.00050517736;0.054399278;0.07132527;-0.11264889;-0.058366615;-0.10481305;-0.03563483;-0.06263129;-0.022892626;0.066395976;0.03547198;-0.054791898;-0.12457558;0.104394644;-0.052213892;-0.059183214;0.029981187;-0.041696396;0.09587859;0.051253308;-0.017557831;-0.06043113;0.018492743;0.064892426;0.037473526;-0.15373397;0.058996662;-0.036612008;-0.047048766;0.006744759;-0.069271624;0.03862366;0.042167917;-0.0073300228;-0.11827995;0.049323387;-0.13296874;0.08610745;-0.0036218057;-0.07853804;0.072041236;0.014782688;0.00067806785;-0.018953755;-0.028806891;-0.048949003;0.04619309;0.084887505;0.122600436;-0.06446269;0.017321441;0.06914736;0.06798457;0.06162096;-0.053190958;0.015255214;0.086297035;-0.03247852;-0.12703711;-0.08631759;0.0025953134;-0.0024737047;0.042838655;0.04860024;-0.0028337662;-0.045195118;0.0534512;0.0069776084;-0.03315845;0.021162279;-0.015780358;0.0034672252;-0.041778658;0.050233204;0.098181285;-0.0014933983;0.069727816;-0.023091085;0.09277739;-0.046952743;0.018678319;0.031358264;0.049643442;0.055397544;-0.0028949592;0.022229012;0.064750135;0.09889118;-0.03502001;0.08237678;0.06770542;-0.0449585;0.031205785;-0.08795104;0.09200726;0.093755566;0.113732636;-0.11867217;-0.019554188;0.032668326;0.09682203;-0.06637864;0.058148216;-0.013107402;0.053414658;-0.05291491;-0.01745288;0.07955841;0.0133991195;0.0859402;0.054744754;0.06676342;0.060347117;0.061349582;0.010956071;0.08811039;-0.14478445;0.10540712;-0.052567054;0.04106701;-0.028440429;-0.01842893;0.020183813;-0.028571844;-0.027146414;0.06144849;0.059547197;0.022302063;0.09880942;0.0591843;0.07828688;-0.015429199;-0.0096425675;0.03113254;0.13528465;0.047846697;0.070638135;0.085061416;0.02173081;0.024355087;0.07470818;-0.08288481;-0.0030813399;-0.028545689;-0.047565132;0.023417572;0.019162677;-0.04540742;0.082003854;0.09463408;0.007476966;-0.001070185;-0.08091276;-0.024070386;0.08271573;0.009482149;0.081064366;0.09077369;-0.044491492;-0.047896322;0.09769963;0.07329463;-0.06320464;0.06932136;0.031808253;3.0646326e-05;-0.01157118;-0.043198947;-0.12717189;0.08511314;-0.005872295;-0.08010984;0.033818305;-0.036074232;0.04789228;-0.030362336;0.0014679572;-0.02424173;-0.017210217;0.048335288;-0.0095782885;0.0836693;0.040203586;-0.0064141434;-0.06263748;0.015034499;0.03567296;0.009809285;-0.01197418;-0.03610632;0.04909474;0.00042152725;0.019059194;-0.06787846;-0.04089392;0.040981308;-0.039315343;0.06360452;-0.0113276495;-0.04366569;0.058501493;0.017763404;-0.08475224;0.106570706;0.038245115;0.08846276;0.07630406;0.05234173;0.04186384;-0.015011406;-0.039886486;-0.060199693;-0.029547483;-0.06739828;0.116202556;0.031656686;-0.052393705;0.0058877473;0.03440323;-0.07255825;0.025104655;-0.045218237;-0.061820056;0.021677196;-0.0011812672;0.069451384;0.13005231;-0.0726971;-0.03607145;0.0042337677;0.066898614;-0.059933867;-0.03340483;0.022600407;0.04231782;-0.04890228;0.044447877;-0.037838824;0.076240614;-0.08946057;0.03981377;0.05028385;0.02421729;-0.015586715;-0.041240092;0.0031039214;0.057611;-0.010054225;0.0002638162;-0.003991887;0.042000353;0.061233383;0.056292325;-0.06314415;-0.04401071;0.064914495;0.04408091;-0.013214935;0.013673611;0.05272161;0.02116604;-0.030651275;-0.021098033;0.033085033;0.060014162;-0.010552234;-0.014874573;-0.02923895;0.07237648;-0.006018044;-0.028888095;0.04062708;-0.008400872;-0.07323959;0.020273805;0.06500387;-0.0036334496;0.09365652;-0.0773104;-0.07829291;0.061389886;0.045499325;-0.05401576;-0.0067447256;-0.03883121;0.05081472;0.025294553;-0.0004624882;-0.07268327;-0.00045281957;-0.013913654;-0.018555248;-0.004534769;-0.062528856;-0.021587983;-0.0010176576;-0.123553745;-0.08634925;0.0413154;0.0872676;0.07926802;0.00032967114;-0.063104816;0.098753;-0.07000435;0.009160982;-0.02777289;0.10725481;-0.06096392;0.04854492;0.01760798;0.05630477;0.009567121;0.054562215;0.009327473;-0.014337382;0.032110967;-7.085078e-05;0.07391222;-0.11453422;0.08769951;0.073374055;0.021792479;0.02868026;-0.046312723;-0.09589892;-0.016336804;0.04729734;0.018396482;0.06898764;0.043994907;0.06554095;0.09792438;0.12058462;0.059271015;-0.059390243;-0.035449322;0.04375239;-0.05106517;-0.045116946;0.050569516;-0.06536904;0.04098903;-0.027684374;0.055507887;-0.037706543;0.03443122;0.053684957;0.023456907;0.13899504;0.14425702;-0.048272047;0.045184433;0.007552625;0.07203386;0.0693274;-0.044450212;0.06436715;0.012033951;0.043086827;-0.07250042;-0.029525753;-0.016244778;-0.069798425;-0.016434947;-0.042977706;0.07671308;0.018375231;-0.065555245;-0.06219033;0.048438787;-0.052829448;-0.0056916317;-0.040539324;0.010463926;0.05918848;0.02499929;-0.052984543;-0.03822899;-0.0029239822;0.014510715;0.029849082;-0.022228988;-0.03272528;0.07466322;0.067104615;0.07500279;0.012686263;0.08420104;0.013015883;0.09088199;0.020371296;-0.08558838;-0.03692229;0.10107789;-0.05215318;0.025834722;-0.02581107;-0.059596248;0.0027206913;-0.007665078;-0.07045321;-0.03660923;0.07795861;0.075389445;0.04729782;0.052770436;0.083266735;-0.045236785;0.026957363;0.011516643;0.017462907;-0.048027735;0.09818289;-0.115364745;0.023171999;0.04770265;-0.07255116
0.068537466;-0.010580777;0.06146904;0.020419234;0.062074892;0.06531922;0.046626944;0.122945614;-0.102987744;-0.022090547;0.015107689;0.036824297;0.0154741;0.081541345;0.03718203;0.05370705;0.09170831;0.032739602;0.014056939;-0.005764461;-0.055287313;-0.04513675;-0.07138659;0.0038323908;0.047765825;-0.016578527;0.037238758;0.032418236;-0.05909335;0.03826327;0.07837525;0.09415688;0.026872575;-0.038874697;0.07629682;0.062622756;0.066400856;0.09794778;-0.052097473;-0.03006086;0.039010953;-0.08734221;-0.043081515;-0.03953324;-0.03848058;-0.040477857;-0.10731481;0.01698875;-0.13403143;0.085321225;0.12461578;0.00987502;0.12503475;0.058802504;-0.051382415;0.030296272;0.08420296;-0.0450692;-0.039646838;0.037301123;-0.036848627;-0.0029991623;0.061668925;0.10186608;-0.063402615;-0.069440596;-0.12762102;-0.04925705;-0.07553839;0.043283924;0.10535895;0.057189915;-0.019980544;0.06680697;-0.19441734;0.052970614;0.012447475;-0.046848234;-0.14232843;0.013976463;-0.031176774;0.08273593;0.13812073;-0.010940567;0.04347201;0.04595325;-0.034026343;-0.043319445;-0.010819518;0.092181854;-0.06868981;0.08303259;0.102377705;-0.025231196;0.067480974;0.050556965;-0.026298814;0.001897601;0.029260146;0.045909982;0.08407413;0.020175712;-0.024340434;-0.001811713;0.047968876;-0.0071991193;-0.05663874;0.017986488;0.07601681;0.06020934;-0.054052323;0.083257;0.012909704;-0.0146752745;0.059952788;0.010893299;-0.03211236;-0.10655716;-0.016103907;0.014524016;-0.045699842;0.026644737;0.09507956;0.017597688;0.06869621;0.030187784;0.11395016;-0.06666159;0.0881305;0.0019741787;0.0033386704;0.063669294;0.090907484;-0.05759164;-0.011979055;0.0811984;-0.0010003963;-0.012991787;0.075511664;0.0990776;0.065069385;0.07045936;0.015231236;0.06415183;-0.07832438;-0.048276313;-0.08066143;0.013528173;-0.030083174;0.037543915;0.02524651;-0.058884606;-0.00160865;0.12907772;-0.008012185;-0.051603153;0.014127142;-0.10172447;0.06175069;0.051504236;-0.020882728;0.026378613;-0.04128703;-0.084771246;0.024441157;0.026824411;0.012534063;-0.04370042;-0.106304556;-0.061383698;-0.051855963;0.04487889;0.080894254;-0.013711598;0.039114024;0.09496714;0.089114256;0.08995192;-0.07984946;0.03509153;-0.025393888;0.07278027;-0.027911663;-0.14617863;0.07168481;-0.0047857333;0.095761046;-0.06229558;-0.08094012;0.09113114;-0.024867387;-0.036262717;-0.17620261;0.046600852;-0.121313706;0.013757786;-0.078121044;-0.045406844;-0.014684993;-0.0916563;-0.07227042;0.056826532;0.024461595;0.045946386;-0.04580499;-0.011163907;0.024108583;-0.020897923;0.06721965;0.08632249;-0.027672568;0.022791794;-0.045755237;-0.19831675;-0.053367525;0.12296266;-0.11312548;0.07954126;0.03385173;0.021080842;0.028014176;-0.018794956;-0.016112566;0.04219071;0.05407448;-0.025222592;-0.0048879846;-0.01740913;0.06406605;0.080725275;0.06856855;-0.009707782;0.04436514;-0.08574883;-0.015805507;0.13052064;-0.011203611;-0.13106415;0.105206184;-0.12960127;0.030252323;0.007812517;0.022568325;0.071778536;-0.05332177;0.09873871;0.064625785;-0.01094754;-0.07713038;-0.034549326;0.11573147;-0.04580871;0.06633824;0.012414193;0.009904745;-0.0111532435;0.047179397;-0.009012927;0.07062358;0.0006306888;0.068740346;0.116042994;0.016894542;-0.047385264;0.0511529;0.078301564;0.08271582;0.11940892;-0.021087347;-0.040660318;0.009790562;0.03752093;0.028246835;-0.071101286;-0.0017429064;0.12776002;-0.06363277;-0.00024858222;0.043849356;0.020284148;0.14275025;0.029012056;-0.032154486;0.0062012835;-0.007989116;0.03478073;0.0666814;0.0662172;0.06471852;-0.056907993;0.09089514;-0.11085906;0.09532238;-0.06479725;0.12179608;-0.05725068;0.045375254;0.0121098105;0.031033577;0.03869038;0.017355526;0.039468255;0.048063777;0.051269498;0.14944129;-0.03868508;0.040180326;0.036138084;-0.03569819;-0.06495015;0.045415793;0.020147052;-0.014981812;-0.08907347;0.070265554;0.020658826;-0.041379973;0.10012377;0.025242586;-0.018671941;-0.062269364;0.070126005;-0.041215785;0.09398345;-0.036685195;-0.0068998737;0.034559462;0.058041945;0.021158561;0.066190384;-0.051564675;-0.0026071453;0.05939965;0.09411069;0.02316982;-0.06310309;0.06727657;-0.07029317;0.07952158;-0.07420592;0.0019961435;0.060581196;-0.08639704;-0.04465798;0.08519493;-0.07453862;-0.09660743;-0.0040210984;-0.049313188;-0.08174619;0.06813139;0.062902935;0.108866006;0.024517749;0.08712218;0.064665414;0.08510395;0.07571425;0.059470486;-0.03409187;0.014065836;0.04331295;0.035118688;0.007167938;-0.0772389;-0.07973698;0.07648755;0.022925487;0.111606725;-0.006372904;-0.07282272;0.07306172;0.043857154;-0.03937811;0.029182505;-0.054191478;0.024002286;0.051446002;-0.063958295;0.0055300607;-0.010141659;-0.09202358;0.05015201;0.009770569;0.0015793127;-0.043290824;0.014315508;-0.016781978;0.08123419;-0.018186526;0.045614325;-0.03955198;0.06550143;0.07074621;-0.10944706;-0.014370052;0.0014168808;0.0059156767;0.018829176;-0.043293964;0.040602632;0.061492294;-0.023862366;0.020778194;0.06569542;0.07863872;-0.03270266;-0.07921293;0.005814087;0.041775886;-0.003031528;-0.010601456;0.033427913;0.028327527;0.07553408;0.0762164;-0.047331702;0.036664862;-0.0019177;0.009775167;-0.024004016;-0.044344306;0.003938475;0.08283977;0.0039208326;-0.11675307;0.013965674;-0.01660513;-0.028056854;-0.05954778;-0.06114099;-0.028621623;-0.020359607;0.04502877;-0.0018859975;0.05908333;-0.07319651;-0.034908336;0.06721789;0.017804118;0.03674358;0.019542905;-0.04404666;0.04916035;-0.010486631;0.008033264;-0.11881562;0.08314263;-0.07112946;0.065159775;0.019908568;0.0688288;0.027984826;0.0572289;-0.013936857;0.007596657;0.11331938;0.13010941;0.06684934;0.031132974;-0.023274127;0.103636585;-0.046500716;-0.10155433;0.078665994;-0.041735563;0.048120536;0.089881495;-0.016943477;0.027732037;0.11547525;-0.06287071;0.020390665;0.0022659148;-0.008737509;-0.07211871;0.016304513;0.022197146;0.03023304;-0.023788521;-0.08825187;-0.005907526;-0.077616446;-0.13956098;0.052479412;-0.05498912;0.09236154;0.073993884;0.016023725;0.03010218;-0.057316177;0.12430508;0.06709177;-0.018415404;0.02357317;0.01011063;0.002035894;-0.04034934;-0.029041369;0.04159116;-0.019413544;0.062246107;-0.008687616;-0.062095083;-0.0054172953;-0.008784067;-0.06410869;0.11292754;0.13495174;-0.03772801;-0.02064481;-0.03720435;0.035353087;-0.005712528;-0.040907737;0.059805866;-0.019521996;-0.09348878;0.028388102;-0.089245975;0.093909524;0.051111992;-0.046756625;0.004387546;0.05053994;-0.014158787;0.031099908;0.10191609;-0.07521971;0.034080774;-0.03711281;-0.08037098;-0.026465109;0.037014525;-0.00045721227;-0.001907258;-0.028603015;-0.022702862;0.0049712886;0.10687016;-0.047234647;0.034832098;0.08057525;-0.006691077;0.023003148;0.05391466;-0.003684016;0.0429184;-0.024963792;-0.04777425;-0.0888005;-0.001185241;-0.035441168;-0.07312163;-0.06739431;-0.13126697;0.014181226;-0.09483757;-0.004401703;0.009279848;0.069080114;0.010415378;0.08122029;-0.046466336;-0.01760825;0.052582875;0.022583704;-0.004440015;-0.038829997;0.10804599;-0.021515748;0.09343827;-0.07232593;0.068014316;-0.0013753184;0.029762924
0.05572288;0.0057175336;0.04437313;0.053345907;-0.032701004;-0.043972984;0.021590652;0.10055565;0.043337002;0.04514782;0.0315617;0.038928855;-0.06065227;0.08828299;-0.045093615;-0.16275829;-0.11680238;-0.02196392;-0.06917069;0.08843396;0.06796384;0.08657035;-0.021879213;-0.035395153;0.0134918885;-0.071482845;0.028863803;-0.05129358;-0.015153994;-0.020296512;0.0006622153;-0.016650328;-0.049144655;0.07025296;0.10826953;0.026195586;-0.018085703;-0.026983028;0.013575055;0.029141167;0.09315927;-0.08971338;-0.061320562;0.10551467;-0.010913255;0.093791924;-0.08122488;0.07742179;-0.04855448;0.010355927;-0.0670012;-0.015781106;0.035632662;-0.05568854;0.061938766;0.058994055;0.04057472;0.006994703;0.062904745;0.077157095;-0.04058715;0.057427038;-0.013830921;-0.013417762;-0.00083931995;0.0035794333;0.022681728;-0.0050607766;-0.053724885;0.0086065335;0.054494023;-0.07489344;0.02768868;-0.040513176;-0.012528392;0.046221405;-0.047270752;0.06856197;-0.115340136;-0.04877514;0.024623029;0.0021057515;0.15333916;-0.060070753;0.057100818;-0.04151471;-0.03711339;-0.06126393;-0.06678313;0.03762067;-0.04991516;0.004762666;0.0737746;-0.013436896;0.0559016;-0.0004168978;0.019504989;0.05813288;-0.019515324;0.02922971;0.047336586;-0.06884668;0.11604163;-0.06708227;-0.033704598;-0.043628566;-0.07837545;-0.059669565;0.086506315;-0.057888348;0.002620179;0.020070596;0.005041683;0.026387708;-0.0066468557;0.047920503;0.09039725;-0.071074255;-0.021649126;-0.03348013;0.07310087;0.0033158532;0.03726454;-0.055464566;-0.059003267;-0.06638663;0.031322464;-0.13309628;0.071484536;0.049197536;0.04194589;0.0013811805;0.094921336;-0.0029525384;0.018946271;-0.017868992;0.0128525235;-0.07855644;-0.0022760665;0.07671241;0.09030811;0.06145124;0.07987851;0.007799065;0.10435431;0.094438866;0.0077293743;-0.0015593863;-0.08747211;0.060831457;-0.051478676;0.055501625;0.03907515;0.08490801;0.07543484;-0.031375986;0.069714434;0.020865254;0.011908894;0.072719894;-0.034718506;-0.16290763;-0.0070937234;-0.04875893;0.041496024;0.081058174;0.05290894;0.12013203;0.067887574;0.05347981;-0.2040776;-0.032613426;0.02907285;0.015432351;0.061794613;-0.0673891;0.036999;0.08328241;0.065149926;0.013693689;-0.043136016;0.08992808;0.10573699;0.016420366;0.1907161;0.06378673;-0.042798914;0.08619874;-0.011161218;0.07678848;-0.01063295;0.027882896;-0.082340166;0.07080192;-0.03993407;0.0852125;0.0080637485;-0.013894135;0.04415617;-0.07190986;-0.0013645993;0.04385465;0.038861096;0.044343077;0.10683482;0.031780742;0.020858184;-0.02137116;0.09443344;-0.07768412;-0.002360386;-0.05621291;-0.042589944;-0.13820718;-0.06854393;0.0019554396;-0.114332475;0.06596826;-0.04724234;0.04516767;0.009189768;0.011902252;-0.055200502;-0.004454959;0.052449476;-0.013134089;-0.023230026;0.059566446;0.051885784;0.05827635;0.0002185232;0.07150965;0.04754778;-0.012973303;0.011303386;-0.03728581;-0.025342517;0.042106867;0.040922046;0.023438279;-0.03697217;0.033378907;0.0029214013;-0.006707068;0.028241428;0.026271971;0.05635812;0.07275058;-0.04124836;-0.023519475;0.15587628;0.05334951;0.011000085;0.08317084;0.016388638;0.027366245;-0.01656576;-0.06128522;-0.008555687;0.05437305;0.06221933;0.07858846;0.0560624;0.08321311;-0.064838566;-0.0059131836;0.111225106;0.06628233;0.055863317;0.09917586;0.045099493;0.040382482;0.00052830455;0.05157862;-0.16742006;-0.057371393;0.00032693133;0.052582074;-0.083562225;-0.05043243;0.0038931873;0.03768813;-0.0013358438;-0.037116285;-0.061713044;-0.06583524;0.03531769;-0.01050803;0.080222316;-0.012582161;-0.07673144;0.05530748;0.038030054;0.06440465;-0.011810543;-0.043071415;-0.07858386;-0.0045307335;-0.032057904;0.026947685;0.09463179;0.021221165;0.08560745;0.005604173;0.01603;0.0016601533;-0.06684329;0.0074958606;0.037385646;0.13805744;0.065635666;-0.0021285934;0.0117155155;0.04488905;0.009828693;0.09233925;0.07955223;0.097164154;0.0517084;0.031085176;0.0073989863;-0.013944434;0.017195944;-0.04902672;-0.06632915;0.09182648;-0.12465105;0.052436076;0.076672204;-0.030837776;-0.04108456;-0.06931045;0.0105193;0.017696662;-0.020156443;-0.03149371;0.10254758;-0.05926943;0.075406544;-0.012558774;-0.0625552;-0.049428813;-0.05042485;-0.05568813;0.032548822;-0.068167515;-0.118969195;-0.11404116;0.00057181105;0.05206826;0.08974214;-0.002330613;-0.05651275;0.009929939;-0.024163457;-0.010219413;-0.017243925;-0.039785307;0.12593459;0.04744454;-0.100686125;0.054357976;0.049388416;0.053601827;0.07209584;0.06541891;0.0325681;0.08331627;0.12954676;0.017546874;-0.038234293;-0.022442725;0.07308903;-0.040739525;0.075453624;-0.01829177;0.05833955;-0.123610824;0.07829652;-0.015008401;0.051914755;-0.035750512;0.091903836;-0.030563148;-0.02373084;0.06162346;-0.07157403;0.042739682;0.00078770076;-0.077645294;-0.015087116;0.03194283;0.04073724;0.08021777;-0.0072962237;0.116552606;-0.06417603;-0.014898413;-0.042020693;0.06144938;-0.036599077;0.03315314;-0.119368926;-0.058660142;0.06570109;-0.04599577;-0.07490861;-0.19771107;-0.0047292835;-0.04817822;0.022214038;0.011811178;0.09247208;0.07028011;-0.031225864;0.110638194;-0.017586844;0.04689896;-0.07116746;0.0150101865;0.050773583;-0.004261257;0.07711921;-0.042452414;-0.0841651;0.021242954;-0.0062836115;-0.05184419;0.05130931;-0.021735162;0.07729456;0.040491372;-0.041986484;-0.039294768;0.023998642;-0.017067434;0.034044962;-0.041915134;0.0051149437;-0.07427267;-0.017363202;-0.018470895;-0.026681129;-0.04304246;-0.032889236;-0.07274864;-0.06401714;0.07735503;0.00016933451;-0.002353143;-0.07857195;0.069467;-0.064461365;0.023657227;-0.021655146;0.0052582803;-0.09303086;-0.05635622;0.06485871;0.09433322;0.012801165;0.03342327;-0.01384293;0.032072015;-0.06605539;0.05073822;0.09433748;-0.052189823;-0.055189736;-0.03719255;0.08541418;0.029096756;0.077978246;-0.0015870115;0.03231655;0.09156938;0.0063300068;-0.030015673;-0.07538472;0.08990545;0.012290103;0.054056525;-0.03301275;-0.1083535;-0.072457954;-0.013635752;0.14623816;-0.009670283;0.06179153;0.056131467;0.063437484;0.015816454;0.028801428;0.004414142;-0.007264125;0.06431739;0.0035857635;0.05571038;0.07560502;0.10189407;0.062478628;0.08415334;0.016469266;0.0035833218;0.06867482;0.040616076;-0.023541072;0.042963877;-0.012119946;-0.05013235;-0.010995831;0.025453461;-0.049969565;0.0973581;0.08579161;-0.014466782;-0.041814722;-0.039994698;-0.027432282;-0.048678197;0.035317264;0.038141154;0.064343765;0.0043509086;-0.017889477;-0.06565651;-0.06575093;0.035996787;-0.046616733;0.039803125;0.06249896;-0.06608231;-0.06990278;0.025068296;-0.016210496;-0.028333625;0.060385216;0.091745876;-0.042050347;0.029316595;0.055949003;-0.013009505;0.087493725;0.057557616;-0.076771304;-0.0052325535;-0.07397931;0.057398938;0.0012503677;-0.042565607;0.057229754;-0.028618118;-0.021172065;0.10333904;-0.012420551;0.033679433;0.035873726;0.09621957;0.038634293;-0.021084178;0.010704693;0.027740475;0.09494148;-0.034433395;-0.06480369;0.0154603105;-0.0070518097;-0.030587858;0.15372665;0.047713216;-0.063833095;-0.07872695;-0.058911752;-0.020426596;-0.05576011;0.023811845
0.097925775;0.018998727;0.08295356;-0.020298706;-0.04927832;0.0059368536;0.063627705;0.10758708;0.065601386;-0.037156645;-0.056148574;-0.049560264;-0.052419875;0.050574835;-0.073099434;-0.1567091;-0.08071028;0.10702074;-0.015203344;0.06896622;-0.053427275;-0.065230176;0.06916759;-0.08135793;0.087641105;0.059144747;-0.03536086;0.07675882;0.0074425666;-0.01279924;0.016313456;0.06490963;0.004346017;0.00377719;0.09372059;0.057941943;-0.06066823;-0.07363854;-0.051627517;0.02432577;0.047685362;-0.047683667;-0.014466009;0.026998553;0.04953645;0.07348845;-0.021371556;-0.035456516;-0.044247065;-0.062257145;0.0792833;0.005216824;0.10221329;0.051039513;0.013165646;0.108850405;-0.05581498;0.04552186;-0.0018333603;0.022197131;0.012689564;0.01818076;-0.011605051;-0.070458606;0.06687931;0.07678795;0.015488621;-0.0805797;-0.0093374895;0.015154849;-0.0636375;-0.062261462;0.092337966;0.04792662;-0.09411133;-0.009218015;0.01404957;0.004323282;-0.058547933;-0.045640934;-0.069318086;0.025707327;0.11222367;-0.0701392;0.052227113;0.055556465;0.0025975911;-0.123816326;-0.057943482;-0.054356173;0.029406585;0.041333538;0.07779384;-0.054361828;0.039504357;-0.041856874;0.056944937;-0.028387705;0.10341046;0.013207773;0.02592458;-0.016195158;0.081220955;-0.02462244;0.060019456;0.050318383;-0.03864481;0.011417378;-0.058855396;-0.0585656;0.02827556;-0.031678706;0.024421724;-0.08252447;-0.0072452202;0.08360516;-0.009246903;-0.009133507;0.006199145;-0.06427042;-0.08019435;-0.034049276;0.0027070958;0.07768632;-0.011802222;0.016564135;0.08362567;-0.0045090937;-0.07237615;0.07505156;0.07498673;0.028855974;0.05721243;0.034982987;-0.03543118;0.04388296;0.049907696;0.015672097;0.030758625;0.023509968;-0.0013255182;-0.010867538;-0.0607349;-0.045027032;0.02214322;-0.021554494;-0.00028242773;0.0297544;0.04299214;-0.024071898;-0.028520482;-0.040531926;0.008484195;-0.038663022;-0.04785529;0.10445927;0.018292893;-0.04843934;-0.061811503;0.031001162;0.025981942;-0.03586221;-0.065525174;-0.008686129;-0.029810447;0.03878216;0.1115894;-0.020132596;0.067779645;0.011300517;-0.10138873;0.09331834;0.03320854;0.0520855;-0.040876444;-0.03966821;0.08242696;-0.033944864;0.05047133;-0.028541984;-0.047249682;0.043240305;0.087244555;-0.06166864;0.08253102;-0.06404521;0.02391468;0.0067880633;-0.050582245;-0.0018265727;0.06488627;0.068584755;0.019504938;0.048247155;-0.10105462;0.065343045;0.079175934;0.030130457;0.0497056;-0.19992954;0.021189775;0.005008644;0.0044148914;0.0014525461;0.095780656;-0.018676667;0.11612444;-0.0599504;-0.037951138;0.031058583;-0.054955453;-0.062497646;-0.06508737;-0.12882648;-0.08655246;-0.008087612;-0.067585595;-0.0718294;-0.013565526;-0.05145302;0.030040346;-0.089026876;0.053134337;0.056797627;-0.019036358;0.09128484;-0.02404711;-0.0038671608;0.0997386;-0.046029538;0.08470332;0.015170938;0.02193757;0.006395789;0.031416733;0.049146216;-0.013914289;-0.093885586;-0.00959045;-0.08504132;0.060149357;0.022421498;0.062036574;0.049095336;-0.04491958;0.061166544;0.09702696;-0.019347148;0.065367915;-0.1001937;0.09870947;-0.06062113;-0.007822681;0.032764953;0.040447824;-0.03796995;0.048640788;0.06945696;0.040789373;0.09761812;-0.064248584;-0.039684493;0.070242755;0.12628649;-0.09813426;0.056855563;0.010000347;0.034784008;-0.08493283;0.066285476;0.016185105;-0.017385857;0.036182273;-0.0065091937;-0.095208414;-0.028460285;0.0031753634;0.0026390448;0.048796102;0.03529792;0.019829627;-0.022279335;-0.112167574;-0.034519717;-0.025848253;-0.08214222;-0.064750426;0.011651297;-0.037616573;0.06987378;-0.090910904;0.052136563;0.046041988;-0.04767682;-0.010400398;-0.05701384;-0.003628655;0.075889684;-0.0063643465;-0.005506186;0.029429955;-0.07263275;-0.0499485;-0.039684888;0.025715576;-0.021983437;-0.013098723;0.044476222;-0.06154666;0.108203;-0.061346646;-0.03729815;0.06883056;0.06644447;0.050578162;0.091281906;0.06395085;0.005129083;-0.024777016;-0.06900329;-0.07146844;0.08447029;-0.004920936;0.00867035;0.013998131;0.062583596;-0.10201349;-0.059240926;0.0678361;0.07277636;-0.06269931;-0.006321256;0.047339994;-0.082356356;0.0885069;0.07695508;0.10284681;0.061334357;0.12863767;0.056944117;-0.050313067;0.099465206;-0.007960799;-0.06386984;0.06542147;0.05535143;-0.053858425;0.026328117;0.0063842116;0.07184956;-0.004864079;-0.052700106;-0.057551697;0.0155052245;-0.0047879927;0.076632254;0.09550036;0.06801104;0.02833392;0.082025975;-0.1355955;-0.04914268;0.04079402;-0.04278261;-0.0322855;0.021358052;-0.02519839;0.04516833;0.061383616;0.007843594;-0.07023302;0.079877704;0.11595518;0.09249762;0.10600015;0.07126608;0.024827385;0.017865911;-0.0816325;-0.024111915;0.042797565;0.0110809235;0.023255106;0.046579525;-0.03312018;-0.051115688;-0.028136766;-0.046077546;0.03455302;0.016290676;0.034826376;0.11559497;0.080922455;0.05550701;0.07851208;0.008278486;-0.044698093;0.066347085;0.043329827;0.09459034;0.069574535;0.087131955;-0.15624154;0.03200491;0.064483374;0.056750257;0.061725378;-0.19280668;-0.041865434;0.05168185;0.02213444;-0.03829756;0.08920637;0.038649183;0.019542154;0.08211682;-0.005485331;0.020342004;0.07708295;0.01483257;0.06254057;0.017207686;0.09057316;-0.07054326;-0.14291619;0.08725802;0.064029254;-0.0010460508;-0.026336042;-0.08435189;0.07437272;0.024385417;0.0129071865;0.07689149;-0.0234389;0.059832133;-0.065687;0.041038617;-0.028776105;-0.040398065;0.0025056875;-0.034799326;0.069098845;-0.006458008;0.026921367;0.048366044;-0.060518656;-0.011567279;0.08253872;0.046243466;0.049469322;0.06688351;-0.01237274;0.04858739;0.04725191;0.05442885;0.0061070384;-0.0593205;0.040461514;0.053894967;-0.06886059;-0.067233585;-0.02870371;0.01331464;0.023146058;-0.031195259;-0.0051916204;-0.0665444;0.04098839;0.051421158;0.051375173;-0.055192545;-0.05957153;-0.0029566542;-0.04999892;-0.040323783;0.10301904;0.048381373;-0.089718655;0.049542435;-0.051637974;-0.0056864466;0.009908711;0.011998994;0.00074096833;0.024576824;0.11820917;-0.045982834;0.00484183;-0.060308237;0.062296063;0.055300687;-0.062335603;0.079756685;0.005078894;0.057020318;0.039815262;-0.021331728;0.0052590235;0.016936107;0.116436444;-0.036267675;0.0062663187;-0.053098485;-0.070498146;0.10058635;-0.027834369;-0.03033885;-0.020687126;-0.058861822;0.07834829;0.030909054;-0.040980775;-0.029983807;-0.044983212;-0.021237617;-0.0142753655;0.054955438;0.08499143;-0.06421985;0.02995719;-0.013283082;-0.027725847;-9.398607e-05;0.00802723;0.056888923;0.027955446;0.0044078636;-0.09007031;-0.042775054;0.049925216;-0.044940494;0.07761316;-0.031266496;0.06842219;0.012733119;0.07073558;0.081619106;-0.09520842;-0.06678466;0.11396182;-0.0479058;-0.0470214;-0.015665114;-0.04426889;0.08805548;0.007334409;0.01056111;0.10862637;0.03302796;0.0663566;-0.04873108;0.0110622775;-0.022573717;-0.05947204;0.06992779;0.033520088;0.043035522;0.027570473;0.017478678;0.023368826;0.056814045;-0.000960199;0.08016505;0.035170004;0.043147415;-0.07376339;-0.04322734;0.031260554;-0.041126907;0.05211546;0.03198753;0.008126731;0.049807474;0.026949082;0.05251127
0.0607166;0.10379348;-0.003731316;-0.056564007;0.073836885;0.079691134;0.024991019;0.02799664;0.03661222;0.023104675;-0.056042496;-0.09554056;0.07873157;0.0026132483;0.07362041;-0.123798884;-0.061911248;0.11688719;0.000700863;-0.045801427;0.07626785;-0.038658816;0.01301754;-0.16175313;-0.054993235;-0.065204926;0.039846998;0.016937906;-0.06674418;0.005693976;0.053180646;0.024532741;0.08914282;-0.0720857;0.129328;-0.025573675;-0.020654649;0.036385376;0.0785818;-0.0071857334;0.030095398;-0.016439008;-0.019692335;0.028067054;-0.0028259547;0.016777882;-0.027807888;0.011340079;0.02698608;-0.0909832;-0.127019;-0.026299661;-0.034022246;0.03948908;0.056745995;0.065076664;-0.023932585;0.07872784;0.05371856;-0.0093689915;-0.017050855;-0.038134046;-0.0021838085;-0.06933483;-0.004820368;0.07881059;0.09611457;-0.052342806;0.06239476;0.04898835;0.062989056;-0.050446216;-0.037451517;-0.040059373;-0.11187497;0.075080864;0.0778707;0.071346164;-0.017876292;0.014452551;0.015615;0.044608124;0.118008174;0.017839417;0.10518713;-0.06477618;0.040830735;-0.19371961;0.044028427;-0.05700997;0.012030187;0.057953056;0.09724743;0.107899174;-0.06554875;0.027166674;0.10440864;-0.00011224593;-0.12978041;0.022174386;0.10055383;0.018634938;0.007917319;0.06233267;-0.021940133;0.041926593;-0.009246837;-0.06273379;-0.00013617788;-0.018868735;-0.029004317;0.01530733;-0.016512139;-0.06066478;-0.022229575;-0.06762645;0.06924073;0.00872859;0.04158762;-0.022729117;-0.02204346;0.061045967;0.079366766;0.075016975;-0.04115582;-0.00955676;-0.033865534;-0.0494127;0.025077417;-0.053331565;-0.04942898;0.026147319;0.022292254;0.008442403;-0.0038824012;0.008494473;0.07761114;0.020121582;-0.065277226;0.03478419;0.0142945545;0.055814497;-0.058641355;0.06909198;0.048678182;0.010290659;0.0077694287;0.037164904;-0.104362465;-0.027567644;0.014714676;0.12042707;0.07289158;0.056963935;-0.022890184;0.008804029;0.03617757;-0.00093934045;0.057825305;0.07098924;0.03052021;-0.21532314;-0.10623665;-0.0055452054;0.013584527;0.08900518;0.019608812;0.07273926;-0.020742018;0.07452569;-0.16727798;0.05655198;-0.08064506;-0.033425853;0.1018711;-0.003185983;0.020709425;0.04393211;-0.0008655674;-0.001359177;0.06389384;0.033032134;-0.007324243;-0.017302737;0.06639694;0.07824387;-0.06012011;0.078277685;-0.057394706;0.019844046;-0.040840037;-0.06874735;0.0043220036;0.066253625;-0.02760736;0.024269702;0.09172737;0.0056692148;-0.0046379217;-0.13308693;-0.030267939;0.0071412995;-0.01923176;-0.02025368;0.024946166;0.06215924;0.16324654;-0.003654831;0.09303176;-0.0394356;0.05431535;0.025257198;0.047279313;-0.06735403;-0.08383313;-0.039660655;-0.091877595;0.06701926;-0.10263159;-0.019273642;0.05625341;-0.062568925;0.012407166;-0.058945373;-0.04840204;0.06940844;0.05071298;0.007867728;0.09894093;0.04982176;0.03978015;-0.074001275;-0.062279627;0.012344479;-0.074137464;0.0642086;0.023527239;-0.07032707;-0.0422629;0.097448744;0.091687374;0.0205552;0.007433003;-0.06059996;0.077649325;0.102068536;-0.044222686;0.07488027;-0.0149172945;-0.09169799;0.030061023;0.119645126;-0.075242825;0.06751564;0.019536655;0.053199794;-0.05656274;0.050356615;0.052637305;0.07717121;0.09767672;0.019250643;0.08475967;-0.015206265;-0.08111023;0.038016632;0.092509076;0.016991377;-0.034377974;0.13123807;-0.02288288;-0.0012125837;-0.02869539;0.112742804;-0.083549954;0.045747463;-0.0670923;-0.058105215;0.05919927;0.056558643;0.102840886;-0.008717452;-0.038079496;-0.00969911;0.015629876;0.012930361;-0.049113628;0.063525595;-0.007838431;0.03369732;-0.07290389;-0.00898507;0.058663018;0.057627536;0.08858068;-0.034857146;-0.038617577;-0.026933556;0.04593215;-0.03230044;0.043457575;0.037482776;0.07565002;-0.029523263;0.10138989;-0.010210643;-0.013136718;-0.03537414;0.00615508;0.047115583;0.09996581;0.048729688;0.0754206;0.07601679;-0.019661237;-0.0065046167;-0.043480475;-0.038321514;-0.031922393;-5.296937e-05;0.06830448;-0.029408688;-0.011612351;0.109882124;-0.030881159;0.08010269;-0.13599391;0.07230604;0.05462458;0.07292251;0.009426131;-0.08899427;0.07520389;-0.023487095;0.08935992;0.002933607;0.034189306;-0.033270113;-0.010403713;-0.055986032;-0.056561615;-0.037492465;0.057285268;0.0942789;0.05219337;-0.06568234;-0.06820321;-0.12483083;0.06282723;-0.055357058;-0.049455624;-0.034865815;0.07615717;-0.07612375;-0.0137765445;0.074741825;-0.0622857;-0.028997838;-0.04025448;-0.048546515;-0.13809192;0.03596748;0.11457543;0.021024818;0.03400782;-0.005732496;-0.018015586;-0.03734978;0.029600425;0.06835106;-0.10005137;0.020235145;0.03082628;-0.07517037;-0.03571215;-0.0065194545;0.07189176;-0.021330774;0.075145595;-0.010639164;0.02682549;-0.07767818;0.03282475;-0.07592723;-0.06087063;-0.04792574;0.03440333;-0.020131163;-0.012792968;-0.021616032;-0.02097669;0.14376248;0.082074866;-0.08524021;0.10801754;0.067534864;0.039844673;0.056360595;-0.0034894673;-0.047066443;-0.044872213;0.016312651;-0.20476222;-0.042825386;-0.0076099755;-0.07855698;-0.0005587792;-0.07800723;0.015570683;-0.02502771;0.078771435;0.11622012;0.007679257;0.02245003;-0.035381258;-0.045181036;0.07447991;-0.020942466;0.017834134;0.009061338;0.050112203;0.04128994;0.015605717;-0.0770503;-0.14014192;-0.027789919;-0.078023866;-0.070015945;-0.07517998;-0.08667838;-0.044439763;-0.008126598;0.018128056;0.03999171;-0.048979927;-0.0019210207;-0.06895294;-0.0141515015;-0.06687068;0.054323766;0.058312837;0.026139818;1.5668353e-05;-0.0062448983;0.024240186;-0.010235855;0.009784822;-0.044953663;0.035168964;-0.060618527;0.046543345;0.06396365;0.0027498663;0.009422582;0.014000973;0.009039535;0.051498767;-0.061963584;0.0013344217;0.094710566;-0.038209368;0.020005593;-0.0027434651;0.0016578465;0.0018204473;0.116563834;0.11788737;0.046644934;2.9452543e-05;0.034115907;0.015430543;-0.068235606;0.09873624;0.0009032043;-0.06687346;0.10074209;0.090061896;0.058055528;-0.039904967;0.031091804;-0.028693246;-0.0045639127;-0.004743868;-0.019426282;0.049167495;0.0448577;0.04138871;0.03373851;0.026750525;0.025835901;-0.014889088;0.034715123;-0.054144215;0.012738025;-0.0038794628;-0.08417872;0.08210508;0.022266801;-0.032891102;0.07208853;0.050436996;0.026940802;0.037778035;0.05769154;0.029716749;0.077264056;0.039903626;0.08822397;0.053255457;-0.044438273;0.021533929;0.012420953;-0.02709153;0.1022955;-0.0054852883;-0.058762174;0.012723937;-0.11406505;-0.00049924565;-0.06653351;0.07523998;-0.032711986;0.110943526;0.047023192;-0.06493653;0.05436678;0.03794619;0.03141316;0.027855016;0.031897534;0.031450823;-0.08181163;0.021482633;0.049656603;-0.0073571885;-0.032620363;-0.044226244;0.057355374;-0.09852126;-0.09241617;-0.011243996;0.021691103;-0.07350027;-0.003065958;-0.032433987;0.16929378;-0.06689438;0.048043713;-0.051738393;0.007339862;0.08917179;0.09634116;0.10928127;0.012393995;0.022252401;0.020423502;-0.022241449;-0.06918179;-0.03857779;-0.006064101;-0.04457436;0.053039134;0.021240283;-0.058730848;-0.017964466;3.220632e-05;0.03425433;-0.0522775;0.0075010387;0.02533539;0.060261447;0.008170324;0.110158;-0.056605853;-0.005501547;0.023196068
0.03442346;0.003740377;0.062290624;-0.0970941;-0.008305324;-0.017716888;-0.07096775;0.06657661;0.009998201;0.087235376;0.013484628;0.07434458;0.059542913;0.02630364;-0.023668604;-0.19173092;0.010195565;-0.045023423;0.03062524;-0.056216963;0.08046234;0.010410362;-0.08494542;-0.04097343;0.035288993;0.04133395;0.082664594;-0.0051326742;0.02825955;0.05966228;0.04732693;-0.040594865;0.043940943;0.049957883;0.08652777;0.08963006;-0.020567251;-0.05636738;-0.060420033;0.056922503;0.061638076;-0.0050738743;-0.007536014;0.06064937;-0.010971971;0.04041116;0.003231447;-0.043932203;-0.106772475;-0.081324;-0.047632575;-0.051799953;-0.0716171;-0.042113394;0.021154542;-0.0065187374;0.04928869;0.048229314;-0.07008576;0.06903591;0.07468484;-0.068121076;0.032527518;-0.017895143;0.022107344;-0.022808485;-0.05376559;0.051471084;0.025283923;-0.009924602;-0.041665982;-0.04810361;-0.049200125;-0.045245305;0.008855191;-0.025711628;0.051776744;0.07660661;-0.101845965;-0.05593679;-0.03915915;0.049775124;0.05856155;-0.0076959915;0.10484851;0.0050854683;-0.001475942;-0.11100941;0.051803567;-0.042825006;0.057838205;0.05080308;0.12070282;0.060401298;-0.054470647;-0.040301394;0.016439337;0.048320804;-0.05126552;0.023766583;-0.040808357;-0.03029383;0.10614329;-0.039495114;-0.021653626;0.09630229;0.03557465;0.005805941;-0.037712622;-0.018043568;-0.011602899;0.009083363;0.029074505;0.0062085846;0.06915387;0.046394043;-0.042200536;-0.048571993;-0.06831996;-0.08033999;-0.085422486;0.081761;0.10736143;0.073965006;-0.027126027;-0.063961774;-0.06884212;0.041824188;-0.006996951;0.010248632;0.08641834;0.15449841;-0.015210617;-0.029481396;-0.10486422;0.003335667;0.03574342;-0.0055756615;-0.015319173;-0.07756557;-0.026766345;0.07102292;0.030358784;0.002197978;0.033759125;0.05813428;-0.03968423;0.042041216;-0.06437612;-0.04684156;0.054295123;-0.04078302;0.07726047;0.01947463;0.034020662;0.0957416;0.00062160875;-0.046693593;0.07232805;0.07583754;-0.070952624;-0.19467777;-0.062231515;-0.026479175;0.047526784;0.06296742;0.034282934;0.029146584;-0.018972626;-0.04317854;-0.10383971;-0.026410969;-0.046403125;-0.024674337;-0.0043146396;-0.07617776;-0.06365697;-0.0015678679;0.077402316;-0.021964025;-0.0093632825;-0.07218505;0.07932879;-0.013691671;-0.00608088;0.07157824;-0.065936685;0.023649763;-0.06252931;0.02554247;0.03138601;0.032950096;0.040891558;0.07487521;-0.12904048;-0.028134272;0.06414457;-0.04055856;0.05369027;-0.17578365;0.07712678;0.032726657;-0.06341641;-0.08335717;0.02444107;0.037445277;0.1368219;-0.047849476;-0.05238883;0.06508698;0.06294825;0.0287637;0.012256397;-0.1181442;-0.033862658;-0.10260408;0.019701032;0.044793095;0.0016115753;0.02377138;0.06860912;-0.05899837;-0.043618195;0.03289634;0.053566936;0.04207887;0.02380462;0.014374711;0.052835066;-0.04702789;0.0053089308;0.001783925;-0.017697265;-0.06432962;0.08830157;0.07065484;-0.01405855;-0.034820467;-0.052688546;-0.06204151;0.0915831;0.024671072;0.055384237;-0.062195066;0.10154282;0.029247109;-0.07758846;-0.034935117;0.030530661;-0.027967235;-0.041320693;0.077500656;-0.022879349;0.026960727;0.103757426;-0.020103153;0.055630516;0.008900229;-0.0661419;-0.037288554;-0.062677026;-0.023825716;0.06976835;0.017406946;0.017354578;0.06437944;0.123663984;-0.072823346;0.0043217777;0.014654227;0.016679073;0.077844106;0.027632536;0.104061134;-0.11218213;-0.02554525;-0.10254611;0.0064258864;-0.056470994;-0.0040287413;0.13967735;-0.02218478;-0.07353426;-0.018157361;-0.027371617;0.07003558;-0.010454624;0.0031319181;0.050626956;0.010770684;-0.09619032;-0.03350256;-0.007222074;0.07114246;0.04729863;-0.025713386;-0.011051438;0.026739273;0.04017731;0.057232462;0.081581675;0.048150875;0.0501759;-0.072060004;0.104816526;0.062018022;-0.0333973;0.06725751;-0.05366821;0.084208414;0.103748165;-0.046982326;0.08407137;-0.068588935;0.017833712;-0.015510822;0.037860855;0.00254146;0.052413225;-0.057101656;-0.082857765;0.03682814;0.0108342245;-0.026150307;-0.06581385;-0.016833527;-0.17066564;0.041873228;0.025534384;-0.009496018;0.0798135;-0.017911265;0.1148666;0.051699363;0.07893245;-0.031412452;0.039502863;-0.002358674;0.057944786;0.017070562;-0.06600505;-0.0219567;0.0007274762;-0.004426008;-0.07650553;-0.039936252;-0.05078337;-0.089433044;0.016008621;0.038765457;-0.065542795;0.07023059;-0.034701526;-0.05657116;0.022064487;-0.016474145;0.041459452;0.0342245;0.004133245;0.019529114;-0.17543139;-0.051556453;-0.008172045;-0.017417409;0.08970169;0.018407185;0.007215945;-0.058035146;0.006723727;0.09600421;-0.05015566;-0.064687036;0.08466391;-0.043424103;0.084196016;-0.031744204;0.04715171;0.03164492;-0.057221767;-0.05756447;0.03594548;0.02509973;0.08412909;-0.011510791;-0.06010798;-0.05614951;0.027654504;0.0048283082;0.006524877;-0.062452693;0.025823161;0.089755;0.08090067;0.020586276;0.038630985;0.09253569;0.05354786;0.049191814;0.06127417;0.0638091;0.04555842;-0.06877017;-0.12894325;0.07072504;-0.036823124;-0.06082825;0.01859806;-0.12890166;-0.0060143345;0.013935613;0.03212229;-0.027775273;0.0042247744;0.03903376;0.040311974;0.111643374;0.020672929;0.028221956;-0.07570931;-0.0452586;-0.09137487;0.031546842;-0.0042336415;-0.064977534;-0.093093924;-0.024798358;0.031301722;-0.018021196;0.038883444;-0.06402004;-0.02659834;-0.00078021514;0.0525856;-0.007444704;0.028530108;0.007215411;-0.055644173;0.05321841;-0.01883985;0.05107036;-0.050143585;0.06168624;-0.034686003;0.08977587;0.092368364;0.056666687;-0.047642842;-0.0008435173;-0.017382808;-0.043695096;0.034416895;-0.055035766;0.09156549;-0.0051019834;0.01477305;-0.006122062;-0.04748513;0.0053604483;0.04912804;-0.023826031;0.06685467;0.058770083;0.044990346;-0.07840965;0.0072987657;0.07482269;0.02728094;-0.042823054;0.02500385;-0.014870442;0.09831448;-0.024140852;-0.009332355;-0.054889295;0.06205079;0.1061773;-0.055889204;-0.04925591;-0.019038703;0.06367405;-0.052889224;0.07678189;0.09885094;0.038246516;-0.055915385;-0.030100463;0.049792588;-0.002627934;0.023924494;0.018109024;0.050035115;0.07382143;-0.079783775;0.053250767;-0.042598218;-0.01495475;0.07340741;-0.075493895;0.020909643;0.0073171197;0.006592571;0.056550756;-0.025842272;0.020786185;0.013067037;-0.012225752;-0.02671904;-0.009265232;0.01862713;-0.05649983;0.0054016365;-0.054152932;-0.038896643;0.04829598;-0.08525642;0.0036762832;-0.09026931;-0.061841156;0.040740002;-0.09250762;-0.0030160919;0.06617212;-0.01699542;-0.05571591;-0.025009453;-0.054144308;0.02264398;-0.025334535;0.07906686;0.047277544;-0.016253991;0.03166593;0.055969976;0.06832531;0.05901494;0.06608117;0.07074696;0.034824733;-0.048266567;0.030681722;0.09394338;-0.06302026;0.07545033;-0.058057535;0.051827952;0.17838852;-0.023393884;0.077370085;-0.08939811;-0.06562661;-0.06951059;-0.015721653;0.042067472;-0.063411474;-0.017262151;0.015375526;0.051559955;0.025671044;-0.041283738;0.049320944;0.082328945;0.07564588;-0.053446233;0.07873006;-0.04757703;0.022154829;0.068948336;-0.017891029;0.04597328;-0.06754941;0.05671644;-0.0017152737;0.06549487;-0.010832384;0.090708226;0.12414911
0.045688707;-0.034483895;0.08373406;-0.039440252;0.052534766;0.07396398;-0.06817996;-0.002793728;0.044770345;-0.05745648;0.0035937333;-0.003932217;-0.02708492;0.055777423;0.05963924;-0.086792864;-0.09047372;0.0842584;-0.016373966;-0.045597922;-0.038836766;0.07832079;0.06370678;-0.18061292;0.057669193;0.031712502;0.039836723;0.009424978;-0.025178412;-0.016184991;0.013644534;-0.05847582;0.048705116;-0.020910036;0.18052171;0.0075064804;-0.08823136;0.026146023;0.09179977;-0.049169946;0.022696527;-0.03797956;0.05149523;0.0706742;-0.034198318;0.10319462;0.051734142;0.015228525;0.018418135;-0.035660394;-0.09632369;0.06216743;-0.1348194;-0.027800083;-0.03145654;0.09377843;0.077848025;-0.06851993;0.0029170148;0.056351792;0.11777317;-0.0070769438;0.0053830333;-0.038248967;-0.0612204;0.054638665;-0.033904593;0.06562328;0.015009482;-0.034058448;-0.056282848;-0.055736236;0.036058545;-0.042532768;0.011956896;0.04044352;-0.02353509;0.002591639;-0.17648162;0.050238512;-0.07162742;0.09320632;0.08592272;-0.03804023;-0.0065466277;0.081310034;0.026034934;-0.10498324;0.025976634;-0.04097565;-0.054624744;-0.09904389;0.030932155;0.08931265;-0.016665366;0.056313686;0.092747994;0.0727009;-0.12660319;0.034244746;-0.032797117;0.06574048;0.095010586;0.08067359;-0.0360611;0.050101493;0.032958362;-0.035828553;0.060004532;0.030947626;-0.019399233;0.06469287;0.062207956;0.054776642;-0.023712652;-0.024001162;0.017221112;-0.013506641;0.018370027;-0.010124212;-0.020203467;-0.03854813;0.005022751;-0.007838731;0.0027851074;0.0709257;0.04282874;-0.11503402;-0.001151205;0.020261893;-0.010163836;0.099557534;-0.018994283;-0.014945807;0.02847568;0.047330737;-0.07313564;-0.06367583;0.0403401;-0.07560401;-0.014365381;0.073253006;0.048349474;-0.010435685;0.034219105;0.07878446;-0.048712935;-0.01514744;-0.09161118;0.097945735;-0.058709234;-0.027901983;-0.0153390765;0.025975622;0.078223646;0.008795906;0.030264655;-0.050783083;-0.010436102;0.08250469;0.0020652302;-0.14902242;0.011431821;-0.008266442;-0.05365384;-0.057163887;-0.08395533;0.021482173;-0.06646542;-0.01124774;-0.1251451;0.024644112;0.0013307963;-0.006472245;0.04266675;-0.039413124;-0.025966385;-0.01650605;0.01899049;-0.03356907;0.05982334;-0.1206;0.03983254;-0.016336992;0.066239625;-0.025236577;-0.08430665;0.07669452;-0.031691696;0.050007943;-0.03049295;0.025566423;0.047093876;-0.044160713;-0.09419219;0.0993689;-0.047060516;-0.013984497;0.03492677;-0.1897996;-0.051336385;-0.028314846;0.008883218;0.06106077;0.026220268;-0.02304755;0.12964159;-0.0035614478;0.059646606;-0.10716823;-0.053643722;-0.045461293;0.044055544;-0.12855145;-0.027034348;-0.04573224;-0.16305137;-0.058490027;0.11759488;0.053598795;-0.03613556;0.020216662;0.076961294;0.04577247;-0.024245258;-0.062700585;0.08142752;0.02333874;-0.034597423;0.040257156;0.08027302;0.017469354;0.027994828;0.018645665;-0.06670179;0.089317925;0.07006744;0.0061916504;0.06667011;-0.027554546;0.031974126;0.07030664;0.06920968;0.068212576;0.082186654;-0.015750311;-0.030409047;-0.037455264;0.010415398;-0.07410018;0.040546574;-0.02252919;0.035593357;0.08483974;-0.006150978;0.016427254;0.012686738;-0.03603338;0.029389149;-0.021334568;-0.025367476;0.029353138;-0.07298394;0.03758614;-0.09640754;0.023658054;0.081862904;-0.043947708;-0.030628087;0.004133949;-0.06404119;-0.037176065;0.04035478;-0.005064028;-0.17120141;-0.070418626;0.053819474;-0.04844779;0.064050965;0.024196178;0.08675116;-0.05179426;-0.12624024;0.005418107;-0.027951479;0.04465298;-0.053565394;-0.019028507;7.088047e-05;0.06294308;-0.06765595;0.042811483;-0.07718119;0.05289221;0.07488474;0.020666117;0.05019428;-0.026599158;-0.041756008;0.011822219;0.040024716;0.02696629;-0.039115105;0.024392134;0.05457044;-0.061067034;-0.034303386;-0.07428972;0.0017342783;0.12861164;-0.0035967315;-0.014969319;0.049680818;-0.101058945;-0.08981625;-0.02200781;-0.062388062;0.0707697;-0.059879847;0.023670595;-0.014397426;-0.043558337;-0.013127345;-0.017518857;-0.02797793;0.089276135;-0.060686562;-0.06276653;-0.026360612;-0.011215316;0.003920702;-0.049705226;0.06857947;-0.07950491;0.02602354;-0.052529573;-0.011929242;-0.017562477;0.044506017;0.018740702;-0.031262062;0.11637242;0.066570945;-0.06417094;-0.07034621;-0.021767383;-0.12575412;-0.13654436;-0.02273376;-0.021138309;-0.01876204;0.060092703;0.021649914;0.06837367;0.008099103;0.054088194;-0.023507044;0.026763177;0.024861494;0.09687781;-0.040293496;0.01236133;0.102002025;-0.07479605;-0.004878121;-0.05680477;-0.011029655;0.052777022;-0.00135205;-0.01913942;0.114461325;-0.03621704;0.13654386;-0.015353389;-0.036803924;0.003971881;-0.01825953;0.14016534;0.076805234;0.03457572;-0.005601712;-0.018770834;0.08020952;-0.0040166304;0.052674033;-0.061712414;-0.008436073;0.06576635;0.058241475;0.08682776;0.07071923;0.046272643;0.036939237;-0.08041378;0.12779048;0.054230165;0.0011358733;0.06831767;-0.035072543;-0.0011118903;0.056409992;-0.020963052;-0.12967813;0.002464161;0.04400575;0.0024242094;0.06051463;-0.1066768;0.04373385;-0.0655618;-0.0017833742;0.06057702;0.07431117;-0.043922756;0.02424475;0.03294134;-0.039408196;0.07643133;-0.009116885;0.06852842;0.006612856;-0.059460323;0.036022883;0.0763569;-0.2004426;-0.09524235;0.06821371;-0.03133953;-0.08477231;0.027655961;-0.07568825;-0.0010253038;-0.08519133;0.07518221;0.09341213;-0.04050544;0.07932795;0.0040445756;-0.009413494;0.04129306;-0.06366951;0.0026613518;-0.060537346;-0.05571125;0.12994483;0.014355917;0.11023006;0.095061466;0.036321305;-0.040268105;0.05939394;-0.01813481;-0.017723277;-0.026723895;0.08472699;0.01718279;0.019803299;0.016879713;-0.033447612;-0.020423165;-0.0043953364;-0.08364878;0.04178756;-0.08201954;-0.028046956;0.051292703;0.109188266;0.00044911657;-0.12293339;0.068202615;0.05996216;0.03198188;-0.067480385;0.035990812;-0.017038114;0.10504385;-0.02026134;-0.030140607;-0.016728947;0.09541328;0.013053979;0.069714405;0.10016168;0.043058947;0.06337602;-0.03075335;0.104582995;0.018206252;-0.076104134;-0.009049436;-0.028414344;-0.028664956;0.062504604;-0.031792957;-0.05846844;-0.075067416;0.114614666;0.022829272;-0.006509361;0.03314945;0.04216682;-0.015199318;-0.09697382;0.03892198;-0.06596914;0.017506456;-0.013448375;0.05630433;0.08186137;-0.056582984;-0.051702723;-0.061002653;-0.012362633;-0.052942574;0.080872424;0.071271606;-0.050075233;-0.07995134;0.04470448;0.034919687;-0.020741628;0.069200866;0.04800354;0.04764581;-0.056622274;-0.06549666;-0.019972164;-0.0023431845;0.07219686;-0.02418677;0.081470065;0.04520964;-0.11065079;0.086215384;0.08049396;0.09752779;0.08999222;-0.020028887;-0.069666974;0.02989798;0.07374093;0.0113523025;-0.010666238;0.075266846;0.06775701;0.046967484;-0.06748249;0.111296386;-0.10675723;-0.021570962;-0.021573985;0.09451785;0.026833622;-0.031688526;-0.04851387;0.06993452;-0.028665556;-0.11456917;0.05170436;0.075871326;0.03560176;-0.05803682;0.0016647017;0.08870934;0.045909386;0.08466031;-0.017474703;-0.048304476;0.03821063;0.045173164;-0.026084019;0.033709086;-0.005830872;-0.06133259;0.07082944;0.001106235
0.026567206;0.06490112;0.034512278;0.0559562;0.09365626;-0.017157195;0.04829099;0.09808426;0.0072751446;0.09452277;-0.058204338;-0.06554253;-0.031303503;-0.03478479;0.08177626;-0.14310943;0.059259627;0.0012100189;-0.038490567;-0.04515596;-0.045222133;0.007151146;-0.052784678;-0.035791308;0.0724877;-0.02091088;0.09199047;0.04232912;0.018197248;-0.037675567;-0.026153563;-0.053847257;0.021262107;-0.038627718;0.13872121;-0.019199207;-0.020799922;0.0054478566;0.058214072;-0.002560909;-0.01616004;0.010687248;0.0056446004;0.017567085;-0.023128087;0.0745765;-0.11544252;0.03913106;-0.10533168;-0.10833444;-0.16659193;-0.020742532;0.0036879033;0.007413096;-0.010739581;-0.0021927655;-0.033368897;-0.029863326;0.0072394516;0.055767387;0.067166105;-0.026403012;0.06107188;-0.025982255;0.061043054;-0.039906073;0.067847274;-0.046132796;0.06521166;0.04891211;0.06789202;0.045374267;-0.017075265;-0.017245391;0.018792043;0.02675083;0.0651396;0.04671994;-0.078227565;-0.058284502;0.06935093;0.005703875;0.026650338;-0.027359433;-0.019502401;0.096106246;-0.059896562;-0.08157007;-0.06278241;-0.0346542;-0.065826796;-0.01143595;0.019857505;-0.0047377837;-0.057948742;-0.049917117;0.12966752;-0.09395072;0.0020955536;0.02830516;0.062370382;0.007950821;0.08274729;0.07479615;-0.05961004;0.01592665;0.09469903;-0.10409437;0.0075615803;-0.007980788;-0.045720212;0.009412296;-0.038929336;-0.056562748;0.052758865;-0.058906775;-0.06801966;-0.044168793;0.10189795;0.02160846;-0.06627951;0.025524465;-0.0023394348;0.004567944;-0.023958154;-0.044812784;-0.05985093;-0.065282166;-0.018654095;-0.0038913765;0.014524947;0.16106614;0.034770913;-0.03286301;0.09683817;-0.05770118;-0.045059763;-0.01562951;0.08749465;0.011575666;-0.023473997;-0.033399954;-0.03285271;0.050961193;0.0033771754;0.07359785;-0.01900824;-0.018411385;0.001099393;0.02831385;0.0026777522;0.10943155;0.0736861;0.018417558;0.046701077;-0.03864737;0.027161518;-0.1288788;0.07188454;-0.019532105;-0.00093023176;-0.17510237;0.009745066;0.00429743;0.097921714;-0.005371284;-0.0018718444;0.036191158;-0.020358685;0.00059574895;-0.074783154;0.028936915;0.048102044;0.038317252;-0.07429376;0.0138764465;0.074492514;0.03572879;-0.105523765;0.09423395;0.042470213;-0.049444824;-0.017500125;-0.06263261;-0.003771542;-0.009705385;0.040662527;-0.043389685;0.052405294;0.038919397;0.03663463;0.080563925;0.046886727;0.08202008;-0.11097395;0.019708233;0.064604744;0.016770687;-0.041123427;-0.06725817;-0.025002982;0.038250577;0.000720727;0.0712118;0.010516492;0.06177858;0.011021018;0.03276997;-0.025748027;-0.056178547;-0.068334356;0.0683882;0.07269778;-0.0194428;-0.06915196;0.004384121;-0.017181756;-0.03680537;0.12124157;0.05659434;0.049566325;-0.07161432;0.057287887;0.029479897;-0.047959644;0.050076608;0.07806528;-0.039454844;-0.0147911245;0.057765007;-0.05767166;-0.07260075;-0.00021537191;0.037786614;-0.045393683;-0.046263948;-0.00035255065;0.020311153;0.012310338;-0.06921807;0.009706113;-0.026660223;0.05799202;-0.056384426;0.09232012;0.030969031;0.05927001;0.022384651;-0.053548314;-0.09686874;-0.046155702;0.18550308;-0.012035255;0.053436644;-0.0047338344;0.010903244;0.041556135;0.039900035;0.034853134;-0.044143233;0.042911194;-0.07242523;0.013385676;-0.050662156;-0.037312776;0.060571976;0.17266198;0.040544756;-0.08937644;0.11379966;0.061994456;0.06536036;-0.06269869;0.025293542;-0.07264222;-0.07748559;-0.06035885;0.013262004;-0.016206276;0.035367742;0.07302354;0.042372715;-0.056536872;0.031837776;0.0034657747;0.06015228;0.084581956;0.052997462;0.052606672;-0.055306945;0.057644837;-0.08084647;0.02882267;-0.053296987;0.03506545;0.05098344;0.0576727;0.10299833;-0.03898767;-0.022702778;0.026382668;0.016221039;0.028756289;0.033611633;0.048791174;-0.051770676;-0.0033918768;-0.053690262;-0.042911068;0.0059489645;0.059588224;-0.0058046905;-0.0009870951;0.010367911;-0.10052384;0.055915173;-0.020510862;0.020596296;0.050938133;0.07026044;-0.0016072228;0.044347595;-0.06579909;0.11821754;0.06610897;0.049132705;-0.16645397;-0.046782643;0.018654887;0.057260238;-0.056004625;-0.015408516;-0.0060120104;-0.04419093;0.07181148;0.0016377143;0.0615457;0.029034354;0.040995244;0.031060457;0.0032752352;-0.043326337;-0.033470932;0.01927929;0.099530846;-0.06811631;-0.07762133;-0.019689085;0.058686502;0.07789862;-0.03907393;-0.052902546;0.15168552;0.0114608845;0.054158874;0.08133848;0.08890631;-0.06744236;0.085764125;0.105129085;-0.10466501;-0.062082224;0.10877972;-0.049794205;0.04333973;0.09513386;-0.055252194;-0.05066094;0.068667665;-0.059906874;0.101162;0.049327318;0.10047054;-0.012948667;-0.01619576;0.09001111;-0.01579748;0.12264988;0.0028388123;0.058642413;0.008522575;-0.06070924;0.075380586;0.07319669;-0.021501169;0.07710084;-0.017202195;0.047958154;0.0681091;0.0018610127;-0.030623684;-0.021099271;0.053573385;0.05017263;-0.0023057694;-0.050992273;0.09114572;0.0662505;0.024278522;-0.039884284;-0.024810456;0.018078111;-0.040264834;-0.07598756;0.123520195;0.04729352;0.0059949225;0.06176126;0.0040195407;0.059055768;-0.015065781;0.04561964;0.056959447;0.0010391811;0.049932472;-0.0014854602;-0.036148015;-0.021462223;-0.057457767;-0.051104866;-0.00884967;-0.06796637;-0.050553933;0.095814615;-0.0237497;0.030919343;0.020218723;0.009960282;0.0006580824;0.058586363;-0.030219726;-0.054106135;-0.025898952;0.0019011261;-0.0053352863;-0.048127487;-0.0050975177;-0.0473446;0.00058757834;0.0064664274;0.035781793;-0.05389504;-0.07917731;0.013701825;0.0487943;0.050320968;0.047058348;-0.06325941;0.00079890084;0.07027539;-0.042955954;-0.058848303;0.042346388;0.038275838;0.011287239;-0.016193353;-0.013301502;0.12648556;-0.06969346;0.0042768246;0.06716075;0.011155564;0.039866768;-0.09441993;-0.019615581;0.07709762;0.07409766;-0.03016637;-0.059388798;-0.060435563;0.054945648;-0.022742672;-0.04286665;-0.03113688;0.066757746;0.01766587;0.031423222;0.026719885;0.07025623;0.030216433;0.02298807;0.05930265;0.12722102;0.069330454;-0.044343345;-0.07069788;0.074119374;-0.038006898;0.016163306;-0.046986975;-0.06612927;0.021178313;0.07160441;0.0805911;0.07633097;0.037061352;-0.048242524;-0.023525877;-0.061634414;0.04619793;-0.043803386;0.07146533;-0.011798217;-0.077482216;0.10085952;-0.0444402;0.057160772;0.050958194;-0.06422692;-0.02068925;0.03961698;-0.04175622;-0.0019207549;0.048415534;0.008596995;0.0026931355;-0.014538539;-0.059116337;0.0947378;-0.05191953;-0.013273103;-0.021467153;-0.082524404;-0.035237;0.038616095;-0.020169666;-0.04382418;-0.016668754;-0.073127106;-0.054702476;-0.015767898;0.020146128;-0.020864176;-0.033558063;-0.049997885;-0.04271763;-0.03744725;-0.009561919;0.004987056;-0.10747452;0.011807936;0.0039151814;-0.046203412;0.04414218;0.023075145;0.11174676;-0.00092085806;0.0930877;-0.037294727;0.0026045402;0.027748065;0.020345068;-0.0009143568;-0.05381884;-0.007978046;0.08041654;0.032846045;-0.1223356;0.07963691;-0.020144543;-0.056210186;0.07751491;0.07703935;0.054251403;0.024108984;0.007583589;0.032229926;0.08689262;0.03465002;-0.058212616;-0.005005729;-0.01185266;-0.08465392;0.097665265;0.029073332;0.10027008
0.058241405;0.09057023;0.08183805;0.10193112;0.097159415;0.09033733;0.042113367;0.05361966;0.039847508;0.08684921;0.05912187;0.03294581;0.077251755;0.015707277;-0.04974097;-0.11701086;0.015936626;0.07395359;0.07297673;0.07279106;-0.017520005;0.024383062;0.0003322948;-0.02057285;0.00978067;0.060257815;-0.004807039;-0.03600866;0.021972053;0.05766459;-0.011405001;-0.00814683;-0.042061493;-0.058354497;-0.06576542;-0.07876426;0.05607502;0.06071743;-0.041846104;-0.014905693;-0.05546905;-0.028034868;0.09673588;-0.032706127;-0.035634857;0.012521918;0.047946583;0.05803115;0.041332304;-0.08152326;0.029361567;0.04915843;-0.13484178;-0.032032005;0.009895419;0.010784022;0.00078228104;0.010793131;0.023489242;-0.010467356;-0.043238617;0.0066738334;-0.014545683;0.05470852;0.02645994;-0.061940398;0.06600834;0.015138807;0.021201652;0.023387598;-0.025057752;0.028492067;0.08256764;0.062496588;-0.18790792;-0.06022335;0.07792381;-0.010649252;-0.16714635;-0.026339276;0.027318224;-0.017177565;0.10467612;-0.005523871;0.0011169745;-0.039661273;-0.019896409;0.013687969;0.08633122;0.09675415;0.058951378;-0.01078096;0.034462787;-0.01830735;0.079711266;-0.0061079613;0.038575158;-0.051328328;0.061741434;0.06865314;-0.038958523;0.016526125;-0.043278616;-0.02382821;0.00032926587;-0.0075600143;-0.040272687;-0.025234122;-0.043648954;-0.00060292135;0.06922119;-0.050695796;0.040463474;0.0057429965;-0.078245364;-0.05859368;0.06087014;-0.073346384;-0.029239725;0.003919962;-0.041321397;0.028621113;0.049125843;-0.03510237;0.060064554;0.04138236;-0.08346024;-0.025346877;-0.054514647;-0.061567575;0.006300461;-0.022931501;0.04953627;-0.05792961;0.03072834;-0.018781483;0.06037231;-0.030829975;-0.016849168;-0.01677152;0.03503837;-0.038432203;-0.00010786986;-0.056368504;-0.027649017;0.023549952;-0.022868363;0.06746302;-0.064046666;-0.01849787;0.004449565;0.041787118;0.051779818;0.005167338;0.030533096;-0.06081615;0.004893436;-0.026444653;0.04876925;-0.031888172;0.08758432;-0.16119376;-0.0903628;0.11377313;0.053274103;0.052147366;-0.047830485;-0.038584765;0.06261917;-0.031044379;-0.09961939;0.036409248;0.008429615;0.008184369;-0.024756083;0.005347111;0.13012214;0.058594126;-0.08370398;0.06785266;0.016503096;-0.045962337;-0.01776995;-0.05210993;0.1349431;-0.0391262;0.05697282;0.07130571;0.073230654;0.05223794;-0.048542522;0.034096994;-0.14828557;0.054335125;-0.11981151;0.08413275;0.053284656;0.0440966;-0.026772052;-0.03145366;0.098767094;0.07723862;0.073007524;0.011166365;0.03801711;-0.06765961;0.12669203;-0.031179441;0.022186415;-0.016842816;0.057470527;-0.03301339;0.10495279;-0.09950635;-0.032535553;-0.057876825;-0.097323395;-0.07838756;0.012219832;0.024567792;-0.08439972;-0.008359867;-0.040880803;0.056988392;-0.038386725;-0.04335203;-0.014502456;0.02056677;0.058453858;0.04132274;-0.06171547;0.07315191;0.024957286;0.08176471;0.080999956;0.032662813;0.05821955;-0.029854942;0.07450146;-0.033068765;0.030753035;0.07332976;0.06290477;0.04046454;-0.042242557;0.012066351;-0.010492302;0.09834601;-0.029122666;-0.100891784;0.054593794;0.094664656;0.087931894;0.071008146;0.11069497;0.050557565;-0.013998955;-0.014069056;-0.010743418;-0.0525603;0.021321174;0.007480598;0.039374433;-0.07583923;-0.002499618;-0.036679253;0.15968952;-0.019254178;0.06145437;0.04770948;-0.03094042;0.024013478;0.017210448;0.12277061;-0.06275262;0.085279025;0.03780683;-0.07197693;0.01767182;-0.045576602;0.13585685;0.037600562;-0.022878233;0.014623336;-0.017984789;-0.06243608;0.008437608;-0.05673221;-0.0513754;0.050611753;0.058719188;0.013365185;-0.0061689257;0.051466797;0.0753818;0.052364428;0.035804667;0.046100333;-0.054503586;0.06794043;-0.055726975;0.023455074;0.05705196;0.08567601;0.016819885;-0.05965633;0.04439187;0.07262081;0.065931626;0.0233614;-0.012006005;0.073911145;-0.0073980372;-0.07493252;0.022370584;0.0149877;0.080756165;-0.021731623;-0.059690885;-0.009467786;0.06631992;-0.053327877;-0.017134683;0.021777209;0.08745811;-0.08754711;-0.004517065;0.030673506;-0.0030466202;0.022041002;-0.012239535;-0.016518239;0.10023932;0.08438614;0.024121087;0.1002441;0.029799696;0.0679876;0.16460381;0.0040148967;-0.051835272;0.0056881933;0.061459877;0.012388315;-0.04080087;-0.0011715428;0.043712463;-0.051197954;0.06334031;-0.03696727;0.05338484;0.097595684;0.019896029;-0.08619915;0.06623776;0.012352392;0.04634629;-0.013298848;0.08649551;0.04945886;-0.08978073;0.05830441;0.12047461;0.06262958;-0.06198641;0.028499221;-0.06140906;-0.04769199;0.005097043;0.021335151;0.07845597;-0.02019526;0.09095575;0.01618413;0.043044366;-0.0042862776;-0.03378994;0.0008659977;0.019961586;0.093760006;0.06581264;0.024201209;-0.04197409;0.0241294;-0.047145367;-0.036849856;0.065055855;0.050896287;-0.06902624;-0.06834024;-0.05209043;0.089842655;0.07038912;0.015219228;0.006425041;0.07787009;-0.020130977;-0.009573281;0.027697237;0.0126546165;-0.011747029;0.022608692;-0.05695656;0.06001354;0.10644868;0.053127877;0.07114249;0.079953946;-0.13206029;-0.0238646;-0.0336344;-0.018180236;-0.048016265;0.011670385;0.032261707;0.06660861;0.020909244;0.012961877;-0.02066918;-0.0621928;0.050882205;0.06323673;-0.0765758;-0.046782427;-0.124941;-0.058671925;0.05732387;0.030135302;0.007014194;0.08126166;-0.028329762;0.046402924;0.055028588;0.026168935;0.036590025;0.040501006;0.022840975;0.04910316;0.04145913;0.06323598;0.029551905;0.057534542;-0.047323186;0.028947981;0.0073502967;0.042637225;0.009835355;0.049801227;0.090753585;0.06650616;0.10375729;0.02325599;0.02595459;0.07630876;-0.02191996;0.117554925;0.066189334;0.0022714976;-0.020992275;-0.057961497;-0.016258169;0.07234692;0.05884947;-0.019375356;-0.05164044;-0.04392172;0.009888477;0.00091762765;-0.07337968;0.019399539;0.09876333;-0.012576826;-0.06272507;0.009272641;-0.02656236;0.07459265;-0.06510978;-0.04954782;0.065768346;0.1344117;0.027651245;0.07539748;0.06380673;0.0016324006;-0.04148427;-0.013266323;-0.005926456;-0.06383582;0.09467622;0.014477083;-0.015877727;0.020804811;0.034048364;0.03867458;0.028077595;-0.031951617;0.03777742;-0.0016013877;-0.06367832;-0.0110968705;0.11461573;0.010333864;0.06389271;0.011680499;0.0106637245;0.031765383;-0.069800235;0.09523764;0.014136545;-0.013156527;0.026787069;0.065032035;0.07095421;-0.00036346648;-0.11808888;-0.068863735;0.007513238;0.039027717;-0.052691955;-0.005590325;0.041211627;-0.0012281651;-0.07380625;0.059701297;-0.04365447;-0.03631694;0.026847508;0.012817403;-0.012885203;0.060246233;-0.03604835;0.032833654;-0.020218428;0.057185587;-0.02095181;-0.05177036;0.112125404;0.051845267;-0.07439321;0.03162838;0.05095668;0.080285214;-0.047971375;0.035538364;-0.024020934;-0.05556648;0.064367965;0.016601041;-0.069310665;0.04320426;0.06333146;-0.073657334;-0.0060224375;0.07349387;0.07582658;-0.073333636;-0.043906868;-0.12973517;0.08250983;-0.019265393;-0.007938682;0.08495342;0.06889007;0.037908725;0.07982167;-0.02870333;0.07757886;0.066139914;-0.017646765;-0.02784592;0.08009415;-0.055953335;0.053502146;0.005191707;0.03187337;-0.0031715094
-0.014092748;0.102638036;0.088206135;-0.05849544;0.0014358691;-0.0012255615;0.0647667;0.030089773;0.06115609;0.09355746;-0.036832247;0.05899842;-0.06984632;0.03375418;-0.018713333;-0.10956105;0.13289918;-0.051018924;-0.06266971;-0.056179363;0.07836799;-0.07980958;-0.09230846;-0.07018654;-0.032075685;-0.060396314;-0.029236618;0.09502782;-0.041629694;-0.028651414;0.116252705;-0.015970247;-0.05003966;0.035716496;0.017782334;-0.08128557;-0.0042049005;-0.02195125;-0.06298672;-0.027982797;0.05668926;0.04435497;0.1159239;0.08121907;-0.08808753;0.021655656;-0.060291484;-0.027033698;0.035189513;0.018826293;-0.086422704;-0.065692864;-0.14584626;0.10437187;0.07389379;-0.06025673;-0.049203753;-0.01047414;-0.04229426;0.05151165;0.034362804;-0.06835344;-0.04912458;-0.009409829;0.07238812;0.023043362;0.109919645;-0.023979966;-0.03499679;0.09080294;0.062012807;-0.029982105;0.05061067;0.012785425;-0.15856571;0.05192075;0.019475266;-0.066461295;-0.12458369;0.053072724;-0.07190658;-0.02040349;0.029589694;-0.03844093;-0.007812535;0.089568324;-0.043823954;0.014121306;-0.004392645;0.019404542;0.046795327;0.023511956;-0.0015518834;0.10598025;-0.014229611;-0.017737608;0.099257365;0.046963744;-0.09131891;0.023659954;-0.017110256;0.01170977;0.058353495;0.08026209;0.02038364;-0.072446994;0.07445367;-0.06967987;-0.03819138;0.056084618;-0.055967804;0.04281635;0.0051455414;-0.0015383688;-0.05308346;0.0012338476;-0.028996987;0.085049614;0.0475536;0.030450357;-0.052513093;-0.05137172;0.117704965;-0.03979269;0.060099185;0.03720647;0.060954023;-0.011599949;-0.0084995385;0.00075771817;0.034128603;-0.056983925;-0.031604256;-0.073693424;0.057540607;-0.040470347;-0.0630769;-0.12718992;0.037922744;0.03431183;0.079165645;-0.045790866;-0.08053208;-0.05039634;0.058365155;0.027430335;-0.077546984;0.09675413;-0.029658984;0.05779244;-0.03993291;0.0020804906;0.026064547;0.09592242;0.05715781;0.029869752;-0.052996416;-0.11942281;-0.01817542;-0.06475351;-0.020777531;-0.046443325;0.066757;0.08049598;0.012203736;0.012538728;-0.0096536055;0.05945302;0.11199126;0.033421807;-0.046238884;0.046753224;0.027769215;0.08557379;0.066957965;0.05550123;0.0456429;0.048151102;-0.05447841;0.0572783;0.052832793;-0.031076599;-0.02674092;-0.09891165;0.124582104;-0.09471617;0.007534365;0.0714898;0.04598504;0.08969578;-0.11069985;0.110417955;-0.08349192;0.10132031;-0.12358438;0.09935178;0.053817973;-0.060432665;0.04144512;-0.11332267;0.010683317;-0.07162016;0.08770833;-0.018104102;0.09057184;0.0728566;0.079803735;0.00014128991;-0.07730653;0.025352081;0.017184181;-0.054598965;0.10081991;-0.17102133;-0.070869215;-0.021768047;-0.07826019;-0.15879366;0.10180659;0.008278367;0.01755838;-0.0017558415;-0.05060417;-0.040363465;-0.023057768;-0.03474515;0.061618935;0.0038558792;0.016254341;-0.032762006;0.070202954;-0.0070032403;0.08347884;-0.01741802;-0.0687982;-0.023405991;0.06548863;-0.066426046;0.08272744;-0.09867344;-0.00565826;-0.0630852;-0.06655717;-0.014541228;0.042204417;-0.05217477;-0.007768693;-0.062910706;0.0044719586;-0.047703046;-0.0023612976;0.066371396;-0.00867861;0.08651736;0.08307524;-0.0863109;0.12945546;-0.07744105;0.067377925;-0.049657103;-0.051272046;0.034394674;0.067305475;-0.06960495;-0.01606053;0.021684563;0.10910692;0.044366434;-0.058949694;-0.059885316;0.05313197;0.09094919;-0.048659492;0.12463391;-0.05038784;-0.021884916;-0.07808932;0.015982606;0.03567713;-0.02684633;0.12438582;0.04353824;-0.11835563;0.036613036;-0.063983664;0.06158073;-0.02385053;0.05291811;0.031439077;-0.05534998;-0.043493137;-0.090349175;0.050702542;-0.06936019;0.0075497944;0.060273055;-0.06438767;0.032509025;0.07526965;0.02449996;-0.025835607;0.054527912;-0.061273072;-0.047767937;-0.025927996;0.06790557;0.07847891;-0.020442605;0.023494145;0.09981198;0.056170028;0.064385585;0.049264435;0.07813983;0.063792266;0.10094277;0.018234257;-0.037123565;-0.017203106;-0.033115014;0.03695511;0.031979878;0.028440187;0.16616923;-0.066701174;0.06321099;-0.06410569;0.07047299;-0.01289682;-0.09897903;0.036717698;-0.004440938;0.03812614;-0.018576857;-0.035906926;0.029325502;-0.04084716;0.060342114;0.03240155;0.08542685;0.067754805;-0.042547897;0.0511848;-0.076080926;0.0785359;-0.059833746;-0.057122838;-0.05085526;-0.063552015;-0.024050849;0.046621423;0.08588419;0.02295708;0.06953376;-0.011636146;0.02063272;-0.07198485;0.0669343;0.061334185;-0.053170256;-0.06476201;0.027089464;0.045887247;0.056734197;-0.106392495;0.047234222;-0.06476146;-0.07658459;-0.0086137615;-0.05309164;0.003773082;-0.01678921;0.09791435;0.03525134;-0.058736417;-0.021449737;-0.048128165;0.102702454;-0.05907984;-0.03355856;-0.03246318;0.044275854;-0.0537555;-0.019997567;0.060172185;0.093015805;0.047019098;0.022267468;-0.030799614;0.03183739;-0.037484303;-0.015617202;-0.01866371;-0.08122145;-0.008628336;-0.023095332;-0.04292115;-0.015838018;-0.056578297;0.019949365;-0.040330537;0.0921151;-0.09199254;-0.004494488;0.08163627;-0.06950447;-0.062674984;0.051890034;-0.13615204;-0.05976861;-0.06541089;-0.027617006;0.052624412;-0.00930417;-0.014899963;-0.05063289;0.029688474;0.0057190247;0.009522501;0.060742963;0.15415245;0.05988787;-0.072627656;0.06795122;-0.12724042;-0.1226293;-0.047087368;0.021241423;-0.02500558;-0.06108865;-0.061829936;-0.068830356;-0.050181463;-0.044593435;0.044981107;-0.05278568;-0.023793966;0.0007895406;0.0074212784;-0.019035699;-0.00030734393;0.042829666;-0.013764046;-0.03351598;0.038075887;0.036640704;-0.0147429155;0.06781345;-0.07260349;-0.015113045;0.07137155;0.08146262;0.0624903;-0.06889545;-0.08103856;0.023374615;0.015129409;-0.052372586;0.06825089;0.052688897;0.0176274;0.011414304;-0.07372991;-0.026002277;0.07982967;0.038628694;0.00390229;0.11166396;0.029884502;-0.06171263;0.05279507;-0.008820539;0.009440802;-0.084227405;0.092207186;0.16216314;0.030709585;0.010860787;0.06000843;0.017776733;0.08182136;0.02318233;0.03375865;-0.017900137;-0.06916108;0.06452167;0.029160222;0.028631305;0.028498583;-0.01719212;0.04465364;0.08412064;-0.07131252;0.032409877;0.06956763;0.004878656;0.007288966;0.062077742;0.058091033;0.046439663;0.12437976;-0.02567203;-0.026023433;0.03634809;0.09195959;0.04687967;0.065842696;0.058869578;-0.055681314;0.031417493;0.02775467;-0.00017133642;-0.0009990176;0.07829443;-0.0932771;0.0077491356;-0.011923556;-0.011911673;-0.040921718;0.03852594;0.051150974;0.047398724;0.05866736;-0.020321807;-0.06743576;0.0036349604;-0.07058658;-0.024576852;-0.014231308;0.030763457;-0.044464886;0.008478556;-0.002234126;-0.07915016;-0.007177401;-0.05583403;-0.0016814655;0.012376941;0.05339508;-0.11874219;0.0862737;0.055352192;0.06756232;0.0056171273;0.0094561735;-0.12764241;0.08271989;-0.009001058;-0.05352871;0.036830485;-0.014558067;-0.029578615;0.03505281;0.088611335;-0.0064216447;-0.104546145;0.069322795;-0.10989839;-0.012520607;0.11668501;-0.04875435;0.027493209;-0.035614815;-0.027507698;0.022060733;-0.0288039;-0.012463172;0.096498325;0.016462414;-0.05244121;-0.028025972;0.03887314;0.004451378;-0.024135059;-0.0537648;-0.06596482
0.034794305;0.12755588;0.005244086;0.051768057;0.13453607;0.004266564;0.07169375;0.004729686;-0.017708922;0.20602636;0.026069438;-0.10672719;-0.028080558;-0.04378904;0.049513817;-0.11307195;0.13895498;0.005310855;0.083597824;-0.04840467;-0.046154115;0.06958449;-0.04621059;0.032019235;0.024171868;-0.09167918;-0.023721194;0.05578962;0.07546855;0.07379257;-0.029413788;-0.040840454;0.015425868;0.022212673;-0.06544461;-0.07457337;-0.007864146;0.07233143;-0.053250212;0.06670122;-0.05748668;0.056024186;0.18760155;0.08475953;-0.047190644;0.06644141;-0.16149631;-0.006668442;0.015173272;-0.05047989;0.043591805;0.07924959;-0.13792077;-0.009559332;-0.01623308;-0.13131915;0.055321965;0.051391248;-0.06522694;-0.030111475;-0.030719673;0.047408298;0.0019625672;0.05468281;0.05656833;0.09258222;0.035506003;-0.11811839;0.087177195;0.05961818;-0.0037216363;-0.037435167;-0.022660574;-0.04464206;-0.079531424;0.05128066;-0.086895;-0.08727005;-0.20241582;-0.07365302;0.0030731624;-0.038746767;0.040820062;0.017357793;-0.031853907;0.022651695;-0.059042387;-0.03381272;-0.019949447;0.03439887;0.047835633;-0.06504984;0.07394062;-0.040882397;-0.02129667;0.02689027;0.089021;0.04339185;-0.02620223;0.05740993;-0.015647475;-0.08378469;-0.012323269;0.10768672;0.0062011397;0.065795876;-0.020276582;0.04361042;0.016205763;-0.0020346316;0.05368432;0.00022703584;-0.06049264;-0.058416676;-0.06428384;-0.09362192;-0.044132955;0.00048299826;0.049638923;-0.060242083;0.023123685;-0.034681063;0.087267146;0.031854533;-0.0044180066;-0.018961448;0.055051755;-0.1343139;0.061573457;0.04447239;0.08503778;-0.077475846;-0.069490805;-0.07112592;-0.032299675;0.034699824;-0.0004881698;-0.018776488;-0.03548885;-0.054737285;-0.027199456;-0.0033796085;-0.047627896;-0.001534927;0.016346319;-0.07768729;-0.005586938;-0.026042085;-0.030539427;-0.07615353;-0.07574147;-0.0078730695;0.027865523;0.11043499;-0.068481535;0.024383107;0.08588903;-0.0998642;-0.0126742;0.0023316664;-0.067464896;-0.11215157;0.017815825;0.087955944;-0.11114509;-0.011751243;0.033523347;0.06554277;0.0498277;-0.025168214;0.059605725;-0.039126407;-0.0070654918;-0.060702313;-0.06924565;-0.0044589965;0.082965486;0.032457337;-0.010267697;0.019399414;0.12574123;-0.07393959;-0.051496826;-0.10853832;0.10653224;-0.105215594;0.002627971;0.0451788;-0.008794015;0.00830264;0.002227444;-0.005250921;-0.033524334;-0.04100183;0.007684358;-0.07744684;0.075731546;-0.03339755;0.031410623;-0.07406209;0.037336595;-0.013134452;0.023428658;-0.07134108;-0.0687953;0.07447553;0.023218539;0.010139561;0.0032841456;0.006789101;-0.0322041;0.058214895;0.11039524;-0.13449179;-0.067965716;-0.09619237;-0.017274592;-0.15561564;0.029159194;-0.054407105;0.021044636;0.03673131;0.073313475;-0.011299662;-0.030883366;0.066175856;-0.03471485;0.08781875;-0.044419605;0.02627267;0.06084343;0.08296791;-0.005008812;0.106157705;0.038339082;-0.06271659;0.016003583;-0.022497801;-0.044323962;-0.045199405;0.09341363;-0.00081256963;-0.059946574;-0.043082323;-0.10900638;-0.10212209;-0.043459497;-0.018871106;0.011524286;-0.07586136;-0.035407025;0.07493614;-0.035114042;-0.0913853;-0.051626578;-0.11039231;0.1407291;-0.0771826;-0.0356083;-0.03720661;0.0064267893;0.018045472;-0.00082097045;0.03179446;0.02675629;-0.030814422;0.13639233;0.057816595;0.005453985;0.016361762;-0.024336591;-0.01853325;0.042468518;-0.038529474;-0.00961128;0.10146204;-0.081253335;-0.0716292;0.034901854;-0.013986457;0.08270406;0.00099011;-0.0126815485;0.049267218;0.073834695;-0.010606042;-0.0216192;0.066502206;0.04209966;-0.06048579;-0.07559543;-0.15451278;0.029359113;0.013609068;0.06356312;-0.016296122;0.03293433;-0.054290846;0.03616473;-0.026589993;-0.0057951068;-0.0627194;0.063774236;0.020306343;0.07345801;0.064058624;-0.08175092;0.081251286;-0.025954064;-0.011472579;0.09842877;-0.0023749138;0.085473105;-0.054020744;-0.057811126;-0.018210292;0.037386004;-0.0059527666;-0.052725155;0.009551417;-0.084534176;-0.08010273;-0.06583682;0.023413459;0.02051927;0.04908952;-0.06112552;0.044978265;0.03516235;0.0643902;-0.021397877;0.074463114;-0.044144142;-0.012039777;0.0129298745;-0.050267357;-0.057057384;-0.05858621;0.03210035;-0.058591347;0.021804823;0.07370927;0.062366612;-0.03604595;0.0535437;-0.0054043634;-0.050293423;-0.08079722;0.04668272;-0.03780424;0.047268633;0.0410866;0.06282207;0.009822193;-0.027229391;0.07284053;0.06526253;0.00056088204;-0.0006702528;0.03238078;-0.095574014;-0.054044645;0.017570399;-0.047349136;-0.103215165;0.034494985;0.045988545;0.052710783;0.02868347;0.025704047;0.10520365;0.07800656;0.12771665;0.09281601;-0.02108199;0.005462564;-0.015331663;0.22224045;0.04446925;0.073679715;0.0011032866;-0.0091833435;-0.015535024;-0.06641652;-0.065045096;0.09712526;-0.0039174105;-0.033844456;-0.0139449285;0.0006874809;0.0392065;0.06914529;0.08581456;0.07359093;-0.06739541;0.0014503645;-0.040947564;0.08366304;0.004440016;-0.06508139;-0.029385291;0.09404574;-0.04060174;-0.015708856;0.06368483;-0.0963185;-0.029227369;0.13930142;0.0012564219;0.038161863;-0.020304332;-0.11031937;-0.010444903;-0.057619795;0.05625608;0.062245388;-0.005904803;-0.07993705;0.038053747;0.003528636;0.059903353;-0.051389325;0.053175665;-0.058383632;-0.116751894;-0.1028864;-0.110497035;-0.010005297;-0.06837928;0.06560967;-0.023957346;-0.012372014;0.009422199;0.05971423;0.08471333;-0.010353013;0.086633466;0.06685468;0.03202505;0.08027827;0.047617562;-0.040450975;0.000668581;-0.0040329327;-0.059611805;-0.015585506;0.021743115;0.0132137695;0.014967715;0.03398007;0.029887676;0.09459433;0.100047365;-0.061131082;0.066239685;0.07131649;-0.056504957;-0.0077706515;-0.0004932428;-0.06865447;0.05416012;0.07131266;-0.05341881;0.058932334;-0.009883184;-0.035682388;-0.02876732;-0.006134138;0.07904101;-0.07406395;0.006952591;-0.05763831;-0.02718411;0.022388281;0.07772389;0.14110023;-0.07082104;-0.10351326;0.030282572;0.043850254;-0.08745755;-0.043869056;0.07537974;-0.05246227;0.070567824;-0.042160325;0.0015046014;-0.0530029;0.1087899;0.060096685;0.07114465;0.11432118;-0.028247291;-0.025072291;-0.028027486;-0.07523226;-0.058405124;0.03199534;0.02492826;0.077088095;-0.012363458;-0.09158789;0.053320415;0.013859407;-0.036770515;0.08854267;-0.063285574;0.106731504;-0.042142615;0.042285528;-0.07378995;-0.07426513;0.10688597;-0.055861637;0.03831653;-0.04873268;-0.030255066;-0.1093392;-0.028866312;-0.08940305;-0.044449378;-0.017949658;0.04834972;0.07450708;0.038053676;0.028496992;-0.018376043;0.05300779;0.03499841;-0.018118575;-0.038118202;-0.07465562;-0.06468661;0.035316087;-0.03344644;-0.017909158;0.011084402;0.07149261;-0.04182569;-0.124704994;0.054664582;-0.05651083;0.054967243;-0.016274158;-0.0830935;0.022149585;-0.04650622;0.055626992;-0.103385575;0.06792228;-0.074095756;-0.059193816;-0.05508187;-0.07028938;-0.061344918;0.017212808;-0.059708036;-0.0787972;-0.03181399;-0.0064038895;0.054599937;-0.019141914;0.039828636;-0.01467645;0.0024817116;0.013236832;-0.03391967;0.09534714;-0.13458274;0.015987525;0.07877234;0.051335424;0.03008275;0.035349917;0.055068113;0.06590883
-0.023011649;0.08303802;-0.031493217;0.04584891;0.094673485;0.05264861;0.09583381;-0.04222701;0.122710295;0.02044928;0.0019672518;-0.082352586;0.00039729057;-0.036665317;-0.064056344;-0.18382676;0.074489966;-0.049440578;0.056269873;-0.027385931;0.046545394;-0.08459898;-0.04964525;-0.04542603;-0.02166771;0.051447175;0.045250434;0.025222719;-0.002358489;0.05369425;-0.0076640737;-0.08951302;-0.03857682;-0.018036261;-0.015454528;0.003383244;0.014420989;0.032380637;-0.0383558;0.0140937185;-0.054134257;0.087726265;-0.04105171;0.0007486209;0.056243785;0.03619663;-0.013913298;0.06612255;0.0067795375;-0.17713404;-0.08729125;-0.005246678;-0.12695266;-0.007377904;-0.037988275;-0.022143072;-0.032763068;0.03871681;-0.03241217;-0.069369055;0.019171832;-0.1031957;0.062208977;0.029188374;0.054569755;-0.06991168;0.0706799;-0.052229702;-0.029214963;0.056528457;0.045279995;0.041076384;-0.045362066;0.029268006;-0.06975414;0.032967433;0.007680529;0.07055602;-0.10095951;-0.012015592;0.05318465;-0.034216765;0.17439349;0.03588456;-0.084259674;-0.0560671;-0.009927136;-0.06551112;-0.05968599;-0.044178583;0.080025785;-0.04680034;0.019165361;0.08935015;0.053115413;-0.047463495;0.13779218;0.06435308;-0.15004373;-0.056120906;-0.004749788;0.02763555;0.078904405;0.0341512;0.004387709;0.0341583;-0.011097042;-0.024782123;-0.0153073305;0.078689046;-0.065439165;0.08314829;0.009507379;0.044829383;0.042747527;0.0003293573;-0.016390935;0.088104345;-0.027410097;0.04339864;0.084489845;-0.036694117;0.08819249;0.005363075;0.032466568;0.07484198;0.023161676;-0.02578417;-0.037183262;-0.07204486;-0.043200094;-0.0037177096;0.061466195;0.0286465;-0.02929298;-0.008758559;-0.06926008;0.027235765;0.0034617907;0.058710754;0.08913329;0.020326128;0.0075138304;-0.030211806;-0.017789625;-0.04401354;-0.07002025;-0.036183953;0.037107736;0.042349502;-0.007758295;0.04101506;0.0038167322;0.0050699734;0.017165119;-0.072348125;0.03199397;-0.071565814;-0.0021847396;-0.013415051;-0.07780497;-0.11126565;-0.09037113;0.058987707;-0.017738571;-0.026428895;-0.0822852;-0.020036789;-0.004805423;0.04608733;0.08537429;-0.05372599;0.002075054;0.0117990095;-0.014428915;0.049660116;0.03475608;-0.037470233;0.061265264;-0.03679049;0.000778068;-0.029007176;0.040483978;0.05504691;0.014576677;0.007444493;-0.07587252;0.013839103;0.051338088;0.049452946;-0.081038706;-0.060355842;-0.07386463;0.042910464;0.018266477;0.112771355;-0.03245957;-0.035377126;-0.05682591;-0.04125466;0.00868143;-0.037737485;0.0020161169;-0.06722207;-0.041834503;-0.026211586;0.039732024;0.0974272;0.033161525;-0.08131085;-0.0035829637;-0.08873763;0.030051712;-0.13783827;-0.046983495;-0.06997812;-0.12473581;-0.0640691;0.068118356;0.02676074;0.074093275;0.08819767;0.006036137;-0.0032013482;0.07043632;-0.05954078;0.010549118;0.028502876;0.093836054;-0.015482033;0.047836103;-0.0021854946;-0.03209861;0.06959627;-0.063882075;0.01201633;0.033676337;-0.033850458;-0.022668056;0.05046834;0.03042011;-0.02832729;0.029172331;0.02598042;-0.0789804;-0.07673539;0.03296771;-0.02468707;0.032768395;-0.0033744755;-0.077372916;-0.09862504;0.003843209;0.009251759;-0.053493027;-0.023865046;0.10697837;-0.024763148;-0.03977458;-0.039983884;-0.056666374;-0.018765364;0.057127018;0.086842604;-0.0047904234;-0.022449078;0.12313739;-0.029108645;0.07051126;0.037027147;-0.062333886;0.026423765;-0.048028044;0.044554085;-0.17685366;-0.0307325;-0.028766036;0.08407905;0.0025760639;0.04566609;0.08150415;-0.03483381;-0.13338745;0.000917772;-0.04160598;-0.067532144;-0.047534302;-0.036055073;0.0837867;0.036054447;-0.05689465;-0.12804434;0.017829565;-0.0134580815;0.013377049;-0.071576744;-0.0144254835;0.037296154;-0.063968964;-0.0004193134;-0.03256356;-0.07414878;-0.06495477;0.030274985;-0.051787514;-0.027531657;-0.07369912;0.074876875;-0.005638718;0.15728202;0.015852965;0.041543033;-0.06587979;0.07677151;-0.0671608;0.049386755;-0.051751107;-0.011757301;0.03126675;0.046692632;-0.07406669;-0.031205626;-0.054554403;0.09200781;-0.024065878;0.010161951;-0.07134626;0.008227051;0.03174467;-0.016248042;0.007933947;-0.025417443;-0.039868403;0.00022962848;-0.058485378;0.028471101;0.08213684;0.102924086;0.048607275;0.03848505;0.0649383;0.014998522;0.06312556;-0.023925178;-0.042722803;-0.034845144;-0.0768019;-0.12478546;0.05725227;0.0679367;0.037854683;0.074998796;0.04689709;0.07701878;-0.03524097;-0.055847734;0.06967916;-0.06294512;0.07957699;0.052842017;-0.17531952;0.005645661;0.003801757;-0.044600196;-0.108669214;0.08197993;0.06515478;-0.029936103;-0.018495213;0.087391905;0.017943732;-0.074458584;0.04628921;0.050711494;-0.0630478;0.04893109;-0.014097954;0.09173264;-0.074991085;-0.0015630615;-0.017711096;-0.011823602;0.014758433;-0.082827404;0.025828276;0.03855604;0.065569885;0.022054289;0.04149287;0.05818228;-0.088503115;0.08966244;0.07840971;-0.0029655707;-0.038729746;0.08432015;-0.0207288;0.05968129;0.018345192;0.027357394;-0.019432498;-0.05579689;-0.10994544;0.07500294;-0.06538954;-0.1709734;-0.0375443;0.11737813;0.060154952;0.09603625;0.07883008;-0.015855214;0.039989296;0.0036401558;0.012741136;-0.004648968;0.0806335;0.11942472;0.038869876;-0.05596259;0.1580358;-0.049001046;0.06214173;0.025400912;-0.15900032;-0.05374329;-0.055760432;0.00022729774;-0.032896396;-0.043960128;0.0630729;-0.07319526;-0.015498706;-0.07518228;-0.059114985;0.012717617;0.05260767;0.06742401;-0.052658394;0.052214965;-0.068580866;-0.015482875;0.11487479;0.088262066;-0.0651787;-0.024528254;0.13180625;0.011538393;-0.0430923;-0.026089277;-0.0056337765;-0.049623437;-0.067227066;0.017896025;0.0791309;0.051690046;-0.10135834;-0.07937091;0.043127116;-0.0128905885;0.03119134;0.025380839;0.01426699;-0.0031433806;0.06659733;0.053167734;-0.027777191;0.041196182;0.076584294;0.071422555;0.004079534;0.042761058;-0.06310844;-0.06262767;-0.0145690255;0.07341372;-0.032385964;0.03686998;-0.022762645;0.09091941;-0.0010264571;0.08019111;0.042638242;0.009451275;0.029872658;-0.05227176;-0.049161542;0.0045275833;-0.040007155;0.04104229;0.062351845;0.08603255;0.051795065;0.04113494;0.0013707661;-0.066196136;0.0910636;-0.017946528;0.051565662;-0.036757365;0.08148749;-0.01590626;0.10629591;-0.005185368;-0.025975779;-0.033118244;0.045296;-0.007688117;-0.071947366;0.01202235;-0.11414345;-0.018138452;-0.004813533;0.070655175;0.028994277;0.052196167;0.040544722;0.008195347;-0.04599466;-0.08478118;-0.057113934;-0.031973623;0.072553255;0.070123225;0.01783754;-0.058814973;0.06405531;0.07282774;-0.018096417;0.06103848;-0.01696914;0.010123321;-0.049755502;0.030835891;0.07446814;-0.00540099;0.04434226;0.039437156;0.006824925;-0.17194709;0.08926922;0.090766974;-0.017337732;0.0020074858;-0.025800813;-0.023011297;-0.108735986;0.11448444;-0.020860074;-0.041787274;-0.020238336;-0.042762887;0.028743662;0.007859453;-0.04265706;0.03138885;0.084669925;0.027133357;0.028335607;0.13760419;0.011061749;0.038195748;0.035376757;0.0065163635;0.03461733;-0.029986095;-0.019400751;0.06033572;-0.083679244;-0.066184044;0.05125375;0.04852594;0.05670263;0.0914237;-0.063525535;0.075490154
0.04083751;0.019281475;-0.006847432;0.101613134;-0.004790406;0.051668286;0.017244535;0.021646833;0.028529206;-0.07042138;-0.05862365;-0.06597817;0.009936301;-0.053209826;-0.01883699;-0.04776947;0.038464203;0.0647048;-0.03377199;0.033479556;-0.056187626;-0.017776145;-0.027996454;0.02146872;-0.019544916;0.037335537;0.06996016;0.0500731;-0.012514401;-0.10153598;0.017314093;-0.02422071;-0.010350464;-0.03829969;0.0607536;0.08568789;0.0025921622;-0.05337077;0.06208689;0.05170879;0.016491529;0.12043823;0.10799109;-0.053840633;0.0015863054;0.0942479;-0.08077548;-0.014417081;0.05356125;-0.1525092;-0.20773406;-0.028654685;-0.13284218;0.008640016;0.078518674;0.015532405;0.019271363;-0.07308609;0.041336104;0.0150369825;0.024721626;0.034540463;-0.04458049;-0.02168238;-0.028743833;0.049039192;0.103682935;-0.024802556;0.08901381;0.079002924;0.046680436;-0.0008087791;-0.06676113;0.07415877;0.015696293;0.009116883;-0.004256581;0.033469044;-0.10988302;0.017148554;-0.035331644;-0.058895156;0.14505677;0.035295885;-0.019320214;0.061531827;0.09446424;-0.14626142;0.047665693;0.024151117;0.054467563;-0.039685987;0.037050635;0.09731992;-0.06000554;-0.07676791;0.0838641;0.019638598;-0.13347612;-0.05080772;-0.006062218;0.04772828;-0.0035076279;0.06736792;0.02279209;0.0129128285;-0.048461583;0.0031218799;-0.07891227;0.05759651;-0.016215606;0.008278865;-0.0029741128;0.060657162;0.04655588;0.02543015;-0.033005733;0.048216905;-0.020048786;0.032389566;0.038577;-0.036492698;0.01977567;0.03469796;-0.059618097;0.034474898;0.0048328857;-0.065024264;-0.049721353;0.038651984;0.11156209;-0.119121656;-0.07074514;-0.08791062;-0.06269959;-0.061479136;-0.003264219;-0.048931375;-0.015319884;0.010197113;0.024777098;0.032874264;0.004508435;0.0023050534;0.052998096;0.016276058;-0.052793153;0.057664175;0.04426406;0.058336;-0.108309425;0.09475928;0.07408605;-0.016414104;0.006258649;0.045561846;0.014480458;-0.11197939;-0.016523728;0.039112944;0.055476137;-0.02523613;0.009532596;-0.04632149;-0.01664014;0.0027844294;-0.10183506;0.116773665;0.03209012;-0.0049717026;-0.0077772574;-0.04180053;-0.0037036217;0.02401415;0.021727704;-0.005559544;0.07471544;-0.0021619108;-0.050212633;0.06220424;0.06317797;0.019454379;-0.044449788;0.051127594;0.05335826;0.022241544;-0.008117359;0.05371941;-0.024628496;0.025007768;-0.03834213;-0.053094156;0.043046925;0.07284022;0.07880853;0.08243636;-0.007902114;0.09261103;-0.064325124;-0.04489834;-0.07989984;-0.011683514;-0.040683527;0.038024794;0.13936073;0.073957235;0.06565166;0.10925874;-0.011633321;-0.07979564;0.034716554;0.006130087;0.072976604;-0.13130988;0.0531506;-0.09221545;-0.12827568;0.041735407;0.11236342;-0.021056881;0.033397507;0.05105213;0.1322934;-0.0404172;0.0786194;-0.038755957;0.059237562;-0.0142870955;0.090258405;0.0011581945;-0.06838693;0.08395631;-0.087494396;0.016740367;0.05800194;0.022149596;-0.073148854;-0.09657294;-0.065864824;-0.041138448;-0.0829028;-0.012635153;0.074738696;0.08239024;0.021279594;-0.046959374;-0.083249785;0.066735424;0.021129811;-0.05569591;-0.17728153;0.0056342646;0.07871067;0.0104550645;0.0017980157;-0.0039927457;0.055847567;0.08350912;0.026237145;0.08859481;0.021004975;0.014872767;0.004215136;0.04548171;-0.06320603;-0.09842113;0.14495642;0.07285415;0.004994482;-0.01320621;-0.040159427;-0.023409113;-0.0038001994;0.06063415;-0.12755585;0.026260763;0.057371486;0.004159658;0.039832246;-0.046448566;0.07020917;0.031111956;-0.15631984;0.021045923;-0.06770409;0.06139557;-0.14447176;0.027965186;0.027670832;0.0051777964;-0.014655937;-0.018975677;-0.13109621;0.05039381;0.004855524;0.063703306;0.046327565;0.05009153;0.039858706;0.04823414;0.027604913;0.026920792;0.054271463;-0.02127206;-0.16127788;0.024177952;0.066498615;-0.007865114;0.09587592;0.15471736;-0.05829175;-0.043019064;0.04918633;0.09447186;-0.08830707;-0.032258827;0.077197485;-0.061656054;-0.079454064;-0.062106535;0.059453495;-0.050922245;0.06142887;0.04387372;-0.058282018;0.02673192;-0.120929174;0.057485174;-0.0013962694;-0.056255706;-0.08332107;-0.0908962;-0.058026955;-0.00881289;0.0710588;0.04684296;0.045332827;-0.01762958;0.05211858;0.06821682;-0.03446866;-0.019051122;0.13602777;-0.01182652;-0.026328221;0.045678124;-0.045637574;-0.06572216;-0.05056281;0.09327283;-0.0016193778;-0.040148083;-0.03648032;-0.045774102;-0.07671167;-0.03220414;0.041151688;-0.022813313;0.0500568;-0.032529406;-0.11650664;0.07790695;0.08698542;0.02466188;0.07171515;-0.023039019;-0.069605894;0.056129202;0.0015818394;-0.033076167;0.040144008;-0.030401012;0.050572056;0.14923362;-0.05961723;-0.037855502;0.032615755;0.18868114;0.06000465;-0.06072419;0.081180274;0.045949433;-0.008465273;0.007305374;-0.018075787;-0.03517663;-0.005377536;-0.019152243;-0.06141372;-0.017599063;0.06366086;0.11719324;0.017365023;0.0015175608;-0.0148276985;0.0060153496;-0.028825419;0.07583718;0.04093021;0.04508495;0.047031492;0.028235268;-0.19396111;-0.033478055;-0.01963304;-0.09175623;-0.032276552;0.1031492;0.012900876;0.0121435765;0.051905192;0.09011286;0.05047766;0.0080417115;0.00016539844;-0.017259615;-0.016330378;0.13576804;-0.072441;0.0643046;0.018978953;-0.06447879;0.056783438;-0.05768915;-0.11729404;-0.06255424;0.0122995945;0.035017673;-0.082212105;-0.04118346;0.033947658;-0.041957267;0.038670745;0.07895005;0.054976225;-0.071272135;-0.057198703;-0.0495582;0.06054317;-0.0071993372;0.08993215;0.0018255943;0.037275072;0.00974917;-0.024570262;-0.07470303;0.11286671;0.10035207;-0.04550621;0.014232964;0.046104584;-0.029031366;0.060272478;0.00042090268;0.081644036;-0.07798257;-0.046281114;-0.07480984;-0.07288448;-0.08380575;0.06627967;-0.056485757;0.08673036;-0.053327847;-0.03266048;-0.047543015;0.11637446;-0.07927422;0.092793554;0.039106857;-0.12124685;0.09621937;-0.0635854;0.064116575;-0.07595928;0.0035499756;0.043966085;0.04200403;0.04660382;0.00014113015;0.06948741;0.0005665695;0.08860871;-0.0070284163;0.024207838;-0.014177715;0.022231746;-0.0011881498;0.060496468;-0.003257774;-0.005230785;0.10271279;0.02132133;-0.031088762;-0.05224325;-0.015413601;-0.022170618;0.060679913;0.018232934;0.022055272;0.056925148;0.05652913;-0.005737821;-0.04530725;0.025866114;-0.16312964;0.041795757;-0.070875406;-0.0004507319;-0.009754356;-0.06007727;-0.048927154;-0.041527323;-0.06736928;0.028588293;0.083230615;0.12190678;-0.036486775;-0.0066670123;-0.064724125;0.03536843;-0.0086151585;0.019646108;0.05785258;-0.013297089;-0.037708636;0.0701227;-0.013543215;0.1335308;0.009851825;0.013535389;0.06430668;0.031672284;-0.047071606;0.018984588;-0.0070543075;-0.023043586;-0.004738915;-0.09081576;-0.023837386;-0.018868472;0.0665747;0.09565215;0.02833351;0.02884386;-0.028761752;-0.06398144;0.038153227;-0.013195753;0.041318092;0.089693785;-0.06326951;-0.046576917;0.08956092;0.07380573;-0.048132125;0.043035675;0.072094336;0.06354386;0.016836101;-0.066588804;-0.08248749;0.044605374;0.00854216;0.059381094;-0.02948324;0.06578407;0.06868223;0.022872383;-0.049177926;-0.006393652;0.031695727;-0.0076565263;-0.025162831;-0.07497396;0.069915876
-0.038847383;0.05994742;-0.090048976;0.07286244;0.010981517;-0.086431846;0.04090169;0.06271983;-0.03686162;0.0098890355;-0.038776323;-0.11864677;-0.029873982;-0.0105485255;0.073056065;-0.019484574;0.022505471;-0.08282538;0.027294464;-0.002100268;-0.014482371;0.04762823;-0.08414696;-0.01060205;-0.06329202;0.009536982;-0.098588526;0.07088172;0.0014566062;0.059528608;-0.046594784;-0.0010995397;0.024173865;0.007781594;-0.033277914;-0.045003895;-0.05450772;0.047316924;0.07139849;0.07137306;0.05577582;0.033373665;-0.10454648;-0.015957654;-0.08964571;-0.027185451;0.0008864999;0.0056576347;-0.019950915;-0.012395295;-0.2274642;-0.06717099;-0.09471605;-0.022503896;0.038127586;-0.004970182;0.044469494;-0.003537178;-0.08091529;0.04891549;0.08442414;0.018970322;0.05690742;-0.01869771;-0.028576173;0.03898797;0.14750859;-0.0068576303;0.04356501;-0.015342245;0.051108208;-0.071166344;0.0037352259;0.018773822;0.01103309;0.028433593;0.09864114;-0.03324173;0.020268591;0.011082292;0.020313254;0.062439684;0.055225883;-0.0557118;0.02088724;-0.04656932;-0.038954757;-0.068694435;-0.001407643;-0.036827177;-0.022031046;-0.06388215;0.088238366;0.0092740785;0.025112784;0.0210721;0.042178135;0.023055272;-0.17993091;-0.10222625;-0.07820463;-0.05363379;0.10372088;0.084509894;0.045325603;0.031343516;-0.035255894;0.00044184545;-0.070933454;0.04630544;0.0043105646;0.032366447;0.0163882;-0.038096767;0.055542428;0.06000347;0.04703573;0.058136024;0.07371561;-0.03598286;0.07664498;-0.051657856;0.095901646;0.00813185;-0.02987106;0.020282526;-0.017533023;-0.064558804;0.007094855;0.03901211;0.07583045;-0.057300385;-0.0025589098;-0.014978777;-0.00059346453;-0.049079206;-0.013688349;-0.058688976;0.04579918;0.08149823;-0.053426784;-0.061302785;0.018167958;-0.037331574;0.00543233;-0.03145778;0.027174026;-0.06563596;-0.01929418;0.025704574;-0.07066665;-0.05135046;0.043320674;-0.011903468;-0.051439703;-0.038881086;0.034252003;-0.09843624;-0.057506073;-0.08730288;-0.066864125;-0.04269715;0.055776756;-0.027584674;-0.041324224;-0.018882724;-0.017482672;0.011777733;-0.001642114;0.09204528;0.082871705;-0.045268577;-0.08013191;0.05254707;-0.010695984;0.06713866;0.009929263;0.007661001;0.053045243;0.088732466;0.13801202;-0.034951966;-0.0077972705;-0.015485008;-0.07956215;-0.02143984;-0.0033245326;-0.05763128;-0.018504765;-0.06814448;-0.058283318;-0.066164725;-0.06094523;0.05185564;0.0019347378;-0.010554668;0.005573127;-0.00025903716;-0.04925365;-0.09387148;0.00037085384;0.043388855;0.027749572;-0.0644082;0.08053774;-0.03438145;-0.06679429;0.02607501;0.039962877;-0.14489126;0.027158305;-0.019947322;-0.0027415396;-0.016195936;0.064608924;-0.09019052;-0.12772647;0.043932278;0.12539369;0.059047647;0.014450577;-0.00761243;0.057154704;-0.06696847;0.0019450083;0.039329875;0.06935514;0.1007457;0.009169648;0.06410369;0.07166262;-0.06253175;-0.07471897;-0.011406186;-0.08183819;0.017069696;-0.062114254;0.02822495;0.025234716;-0.022399718;-0.0539189;-0.01997632;-0.042152595;-0.05120521;0.0072343573;-0.03746233;-0.056951948;-0.086476415;-0.063232854;-0.06993354;-0.022258246;-0.027644796;0.06118293;-0.011104396;-0.005621197;-0.115226366;-0.036116395;0.027573407;0.06993135;-0.056697443;0.063998096;0.046788003;0.038833898;-0.009471763;0.062216457;-0.045590304;0.08656387;0.09238529;0.103374116;-0.058303576;0.0776687;-0.07387432;0.064050466;0.057062436;-0.16605915;-0.039316222;0.081932545;0.009847107;-0.0011252172;-0.011110729;0.071685664;0.06530321;-0.13135828;0.04579192;-0.011684253;-0.06436244;-0.069332354;0.05286875;-0.0041870344;0.03621194;-0.05147642;-0.10780995;-0.093733676;0.030562425;0.028354552;0.05198108;-0.03251565;-0.08137917;0.019520354;-0.0001795298;0.059286658;0.034644257;-0.023555432;-0.080474705;-0.063396454;0.04661053;-0.09280762;-0.005088438;-0.019803219;0.14323792;0.06946277;0.093366064;0.04674629;0.048691377;-0.012266405;-0.04284688;-0.027274279;0.07243434;0.031437118;0.014314794;0.021596698;-0.053889707;-0.007115273;0.0873347;-0.02458935;-0.0441817;-0.1551276;0.023809673;-0.05929758;0.017530767;0.061530612;-0.05498002;-0.0029778734;0.01966157;0.07778216;-0.06843413;0.020214764;0.05291241;0.004415637;0.04026003;-9.558116e-05;-0.016553039;0.14092821;-0.08937669;-0.064901575;0.03073077;-0.095780216;-0.07645927;-0.042575058;-0.013583559;0.04613835;-0.03509641;0.028725913;0.067772865;0.075517595;-0.028746508;-0.0073033203;0.07435677;0.012947317;-0.05404858;-0.08916957;-0.060659323;0.105495974;0.07494956;-0.018892411;-0.07149016;-0.026414823;-0.044863727;-0.0082502905;0.069632314;0.051284373;-0.045764048;0.05772097;0.0519531;-0.056417093;-0.039649356;-0.0505313;0.13193332;0.018831097;-0.057531226;0.076491244;0.062087912;-0.051264007;-0.009038375;0.041293133;0.028249647;-0.022744505;-0.07180671;-0.024789965;0.007955117;0.049021766;0.12612188;0.03352056;0.037669975;0.030944675;0.101993695;0.00022240574;0.017338878;-0.098002106;0.0031038735;-0.028014429;-0.033319894;-0.024462974;-0.02994903;-0.06625184;0.05400529;-0.06077071;0.13864253;-0.10416771;0.070096485;-0.05055941;0.01846801;0.038598552;0.08870687;0.04345579;0.06973905;-0.04936035;0.08197404;0.03449196;-0.005254336;0.15106477;0.122692905;-0.15564124;-0.03980634;-0.12011025;-0.13449118;-0.04289948;0.0032024763;0.06263314;-0.034709834;0.045530118;-0.002299835;0.04670417;0.00289312;-0.0710229;0.02276243;-0.017055389;-0.046124022;0.060982835;0.080308996;-0.052784353;0.0821685;0.041354828;-0.032849364;0.06707356;0.039908435;0.08090094;-0.023858754;0.003738487;-0.03601048;0.05727433;0.0013381857;-0.059653714;-0.04145271;0.09771198;-0.06925455;0.03906422;0.052021775;0.07850669;0.026201293;0.048377298;-0.076472096;0.07393637;0.045214795;-0.057808846;-0.0013183411;0.059233993;0.009536761;0.038301613;0.03968143;-0.11503911;0.01826007;0.0020327296;0.028290967;0.048676293;0.10653721;-0.045134656;-0.04556744;-0.044510983;-0.0107375095;0.0047784657;-0.016567819;0.010413922;-0.086066715;-0.0109170545;0.018029919;-0.099462;-0.009387542;0.07085804;0.054487906;0.02207076;0.11455467;-0.053288344;-0.028237872;-0.0039713765;0.043478344;0.083838955;-0.059658926;0.11623348;0.06718681;0.05605402;-0.033840217;-0.03985796;0.04556552;-0.05235857;-0.11887831;-0.00033721927;0.039331794;-0.08827687;-0.04720561;-0.108102165;-0.07686706;-0.04492547;0.071616314;-0.047913928;0.07262867;0.079707034;0.028162338;-0.0027321517;-0.040088285;-0.055630904;-0.050051436;-0.061550885;0.00870338;0.085235305;0.025950376;0.05144732;0.053066064;0.104565814;-0.06259787;0.03860523;0.029264191;-0.07537417;-0.0435195;0.070066154;0.031322096;0.063741416;-0.00020314733;-0.0695698;-0.008883222;-0.02036527;0.13132796;0.051963434;-0.056749254;-0.07439553;0.080260135;-0.12041882;0.120519504;0.044487584;-0.010744775;0.06896596;-0.020183569;0.006935831;0.023491675;-0.048427075;0.05440537;-0.050238352;-0.060909312;-0.07320613;0.03137529;0.008028961;-0.0030848056;0.093877025;-0.048562452;-0.032741725;0.006255815;-0.0017328244;0.04181828;-0.119469166;-0.034091968;0.026525991;-0.041965995;0.051711835;-0.03563778;-0.051960517;0.09830373
-0.00017527427;0.07741175;-0.011024923;0.15177199;0.11502666;0.0012318151;-0.08398727;-0.08189608;-0.014652731;0.015753621;0.010950646;-0.08583542;0.025342334;-0.07388381;0.011947764;-0.13661394;0.005977245;-0.037812743;0.0027366944;-0.034924157;0.049622666;0.066200405;0.042780247;-0.0321805;0.043558843;0.052600637;-0.11299983;-0.0063051027;0.009387379;-0.0395032;0.042972818;-0.009291339;0.080353454;0.034086887;0.13443425;-0.016186519;-0.043496475;0.031486932;0.024109477;0.005160764;0.03800154;-0.02388107;-0.068330616;-0.036700536;0.0045115026;0.08175155;0.061154347;-0.048608463;0.08241938;-0.150909;-0.07785554;-0.041958362;-0.06167305;-0.05473443;0.07267977;0.096730456;0.06070544;0.06565995;-0.12952097;0.06890316;-0.03387633;0.03792133;0.049459722;0.012447214;-0.01093741;-0.01945006;0.11167789;-0.036323834;0.017322158;-0.024449997;-0.010226099;0.04939665;-0.0827381;0.014674263;-0.022087159;-0.0036325918;-0.0069766343;-0.029731305;-0.10046503;-0.06698997;0.057531647;-0.0017656473;-0.10119441;-0.053925674;-0.0663269;-0.056068607;-0.017863948;-0.111551374;0.020824656;0.008907328;-0.053413387;-0.020120732;0.08962601;0.028195791;-0.012165361;0.010679543;0.07367804;-0.016547035;-0.18327232;0.01499309;-0.00043119575;-0.063269645;-0.0030139643;-0.014757992;-0.065901406;-0.05690535;-0.018782502;0.056622863;0.08416996;0.03941007;-0.08393023;-0.06678405;-0.017925896;-0.024523664;0.05138905;-0.096682385;-0.0050624693;-0.045226805;-0.023887945;-0.037543558;0.04372721;-0.07106881;0.05352142;0.046375;0.08797993;-0.004321106;-0.0038727238;0.036191534;-0.008584784;-0.052001644;0.10953992;0.07532978;-0.050087735;0.0680691;0.12769848;-0.013742877;-0.051861893;0.033071477;-0.04712366;-0.056914262;0.039449327;0.0727767;0.089295335;0.07476285;-0.0057847393;-0.036266927;-0.052298952;0.017514523;0.1109634;0.013597016;-0.043469746;-0.06960196;0.050451368;-0.06271633;0.048110183;-0.050632484;0.0809984;-0.047383063;0.009135594;-0.009046175;-0.065678395;-0.0001150015;0.06930427;0.06029183;-0.022058683;-0.05102179;0.025140768;0.09367255;-0.028583625;-0.056801863;0.0782652;-0.07064635;0.0072930027;0.06722578;-0.031647604;-0.09165255;0.023954114;0.054652534;0.09444548;0.016602468;0.102363974;0.022951216;-0.059613217;0.06857477;-0.010087936;-0.006690668;-0.030008737;0.04036233;-0.051696587;-0.034501784;0.025912227;-0.018912707;0.00011462424;0.069012515;0.010361618;0.025214462;0.024964925;0.09346941;0.032057043;-0.11496111;0.00521989;0.02404437;0.028794406;-0.044195794;-0.09139586;-0.036397014;-0.021373969;0.01390606;0.002416912;-0.14197436;0.003952372;-0.0338495;-0.011892932;-0.03142666;-0.008451752;-0.15399843;-0.21142784;-0.004831325;0.054324333;-0.013165841;0.05840623;0.01876643;0.086411044;0.007392091;0.0084780045;0.071922645;0.023606662;0.12995382;-0.049237583;-0.02156381;-0.08585027;0.067999154;-0.026679842;0.05597706;-0.020452425;0.016336199;0.029063934;0.049729258;-0.022763582;-0.08210265;-0.044823732;0.04094639;0.06613224;-0.048811574;0.03187409;-0.006130112;0.0025972803;-0.10610846;0.043560345;-0.08962711;-0.04905064;0.039326757;0.0036743307;0.017467579;-0.042236462;-0.028043127;0.06311025;-0.050760042;0.01788486;-0.0716557;0.061954793;0.012434118;0.050818793;0.088021465;0.041947413;-0.01243113;0.028035495;0.043599844;-0.014475777;-0.053462025;0.02473074;-0.0519032;-0.00420436;-0.016764443;-0.16426544;-0.044816453;-0.028151464;0.0020177716;-0.012589238;-0.08968679;0.091261685;-0.049806625;-0.035043433;0.045551825;0.0648292;-0.05888935;-0.05157743;0.063544504;-0.025074173;0.031204753;-0.10160623;-0.09940948;-0.14537784;0.0053120353;0.034148075;0.03846605;0.058187757;-0.06508352;0.07355284;0.023270743;-0.060787722;-0.070368245;0.0359044;-0.08516322;0.002271429;0.033604167;-0.015357763;0.07717968;-0.031137103;-0.03151062;0.0826594;-0.06943481;0.08147063;0.030665632;-0.08571857;-0.007632635;0.037332423;0.07287194;0.010967864;-0.021545384;0.026360802;0.009770425;0.019180093;0.00795915;0.03018781;-0.010291123;-0.1364687;0.071543865;0.015200951;0.02287163;-0.077146344;-0.06385093;0.03686691;-0.020293735;-0.020722454;0.015577933;-0.0459348;-0.046343394;0.046604604;0.01625794;-0.0058950814;-0.016389584;0.05875852;0.034069236;-0.03314319;0.024025168;-0.08702881;-0.026386792;0.072752066;0.069844976;0.019472057;0.04506953;0.096087456;-0.045703795;0.06344918;0.07353606;-0.051095344;0.044394117;-0.050764814;0.023709768;-0.12453979;-0.03258942;0.07246811;0.027693048;0.015091863;-0.076026894;-0.042617414;0.012828789;-0.030105025;-0.05089118;0.098356396;-0.07184975;0.052941605;0.087614216;-0.013267087;-0.0143311415;0.04210362;0.16138725;0.077707775;0.08933726;-0.04441788;0.05465004;-0.0322145;0.07485069;-0.03812758;-0.049632456;0.048661537;-0.057024296;-0.045924194;-0.00057712465;-0.076944575;0.023001568;-0.09531704;-0.065797;0.03238334;0.06792948;-0.02774695;0.017241998;0.0070844623;0.062726416;0.07678703;0.10227243;-0.09471848;0.041268706;0.037086077;0.03288617;0.07117184;0.071605906;0.017935988;-0.020897996;0.048515536;-0.06563613;-0.018099226;-0.059547883;-0.07837567;-0.03942102;-0.019479249;0.032175727;-0.055680975;-0.07234076;0.0076096104;0.13732085;-0.11782176;0.10116072;-0.010198875;0.018385177;0.004269578;0.025900222;0.076077566;0.008367821;-0.07668658;0.012168979;0.013449623;0.047493674;0.042817753;-0.047877274;-0.0008960349;0.006402063;-0.019840885;-0.006776931;0.06280245;0.059050117;0.067149065;-0.059321582;0.04466911;0.009829316;0.09967076;0.029003384;0.054963667;-0.047023524;0.11822447;0.058373053;0.0693163;-0.023876486;-0.013815868;-0.1051482;0.084275015;0.06489685;-0.009124513;-0.022309663;-0.023443202;-0.077651866;-0.01614515;-0.057118498;0.076827474;-0.06814311;-0.06451642;0.029452778;0.08476198;0.017266674;0.01831316;-0.012573117;-0.024706546;0.0632303;-0.074337944;-0.04470094;-0.003486799;-0.07302225;0.066792525;0.03388338;-0.048166886;-0.004509001;-0.033989206;0.066615805;-0.038680933;0.06658104;-0.09810291;-0.07130909;-0.05954045;-0.056661904;-0.07051407;0.030429386;0.0052074846;0.04254764;-0.039676756;0.019223293;0.0034753394;0.058021706;-0.022750366;0.038759977;-0.0199378;-0.047571752;0.09388476;0.04394533;-0.050879546;0.013333817;0.069152154;-0.0133591965;-0.043897886;0.061461218;0.052705374;0.04802287;0.06952201;-0.014292126;0.017820874;0.032035764;0.04793563;0.045834873;-0.0040355655;-0.117676586;-0.010270076;-0.006726567;-0.06519188;-0.018180797;-0.06571554;0.018996058;0.012929612;-0.033089772;0.051717125;-0.07666304;0.026044803;-0.015392511;-0.038792074;0.030645534;-0.013500065;0.01822372;-0.027814707;0.046613876;0.036891438;-0.1618272;-0.018667014;-0.012556411;0.025201164;0.027260654;-0.088285156;-0.044217408;-0.06801208;0.058606885;0.070955664;-0.037075248;0.047787104;0.06800388;0.020842856;-0.042208035;0.05479706;-0.012002388;0.068378046;-0.11860046;-0.053924505;0.010966357;-0.009509805;-0.012804941;-0.015734788;-0.05574841;0.053815667;-0.032377068;-0.05499811;0.00094443007;-0.124306396;0.006022183;0.009535885;0.029053295;0.014936585;0.08781522;-0.0024659766;0.03976598
-0.04494975;0.10122957;-0.04755426;0.15324993;-0.014582463;-0.06723796;-0.06827306;-0.08588707;-0.05482534;-0.11490823;0.047248535;-0.065170124;0.0001982513;-0.05861354;0.026006822;-0.044041403;-0.05884955;-0.02402015;-0.04750133;0.022703722;0.006416977;0.03328868;-0.06725431;-0.13259938;-0.06113719;0.073548205;-0.11189242;0.019051002;0.029973952;0.03939544;0.05808925;0.060158987;-0.009416181;-0.06256747;0.11340724;-0.0054380517;0.082790226;0.072875;0.06678078;0.07663931;-0.019658003;0.12173962;-0.08908642;0.0057810857;0.08590895;0.078074366;0.06876928;-0.011580617;0.07063199;-0.12917213;-0.17135336;-0.06499367;-0.123395026;0.06552164;-0.022745676;-0.07012554;0.029014751;0.02132759;-0.044896584;-0.023885952;0.04254532;0.062678635;-0.07494329;-0.013530986;0.03864362;0.033106823;0.12216377;-0.0014453308;-0.0067996723;0.029659295;0.04729456;0.026485577;0.00056835066;-0.017558882;0.042202994;-0.086588226;-0.012913314;-0.07156568;-0.019802392;0.0661111;0.052308403;-0.044536393;-0.085865445;0.06683241;0.0051232274;-0.011436463;-0.0099250255;-0.053959742;0.06805061;0.03337308;0.06425196;-0.020625405;-0.01936056;-0.030846907;0.05286309;0.07890919;0.116505936;0.025830032;-0.09652103;-0.02768632;0.10026093;0.040698547;0.03495406;0.068923116;-0.025265628;0.061211266;0.01014187;-0.06560018;0.0250675;-0.044666182;-0.0029857885;0.079010785;-0.057341952;0.052334506;-0.065679945;0.0054617035;-0.023711903;-0.072483905;-0.065360054;-0.046779275;-0.0187571;-0.04704249;0.059091706;0.041854613;0.03918648;0.0319242;0.081452586;-0.059565566;0.06017056;0.011445191;-0.02292436;0.08934241;-0.019864433;0.07277488;0.15034139;0.019610409;0.076764286;0.07617687;-0.014738047;-0.020984504;0.041019864;-0.015233971;-0.030709662;-0.036114637;-0.0065407935;-0.057662062;0.016257735;-0.071912326;0.09191961;0.046083424;-0.1100909;0.09428405;0.073569186;0.021289112;0.014205474;0.018164625;0.011617624;-0.07798208;-0.016639365;0.052575354;-0.03992818;-0.14109775;0.053081177;-0.0036075378;-0.079932325;-0.075796336;-0.019870035;0.11076724;0.06653408;0.031433932;-0.019821016;0.050296705;0.060439967;0.0011018119;0.035933446;0.045321938;0.016711922;0.029326297;-0.045105036;0.10389841;0.054707598;-0.054047827;0.07809265;-0.07931878;0.015924385;0.070642054;0.068281196;0.066277236;0.012196169;-0.0046055336;0.063203335;0.04279754;0.071298175;0.021101031;-0.059797004;-0.019556781;0.085478336;0.021553481;0.036531325;-0.1756949;0.0032582036;-0.0631697;-0.0407038;-0.07054705;0.01840955;0.023431024;-0.027127104;0.14953493;0.0046666358;-0.07208213;0.050703328;0.050672654;0.025843296;-0.12917247;0.060225822;-0.11465025;-0.17315324;0.04286702;0.098813705;-0.059462782;0.00097074;-0.12640092;-0.0072940867;-0.043596875;0.0021698237;0.00940393;0.022332579;0.008867249;0.11072079;0.00017689508;0.011879696;0.019943954;-0.02576772;-0.03006499;0.029288318;0.111649856;0.06285299;-0.0665577;0.03311515;-0.038956784;-0.044756703;0.05956951;-0.0033678121;0.04189104;-0.060861133;0.04592592;-0.016478494;0.0036169842;0.0848455;0.04925973;-0.011415493;0.025298465;-0.06731384;0.031795166;0.018322479;0.09502195;-0.057396058;0.030176673;0.03017461;-0.010564799;0.0052657654;0.058198437;-0.015899263;0.043000095;0.019120391;0.076226465;0.06521493;0.09324157;-0.055104565;0.041041184;-0.043477856;-0.021091726;-0.066381566;0.13602324;-0.021659844;-0.06440207;0.06706641;0.08088763;-0.045768682;0.033952884;0.038269874;-0.0010660532;-0.02753899;-0.04600399;-0.079629526;0.020037076;-0.10867665;-0.0033026077;-0.07337604;-0.064937904;-0.02442291;0.021126634;0.056100238;-0.07439582;-0.006435131;-0.08268355;0.015528385;0.028108483;0.009285848;-0.031402297;-0.04171049;0.05834247;0.0718094;-0.025512705;0.022568688;-0.015076437;0.045121647;0.08389067;-0.07145177;0.083258756;0.072548136;-0.04634149;0.065098435;0.025437512;-0.16088967;0.03566998;0.062177785;0.032128755;0.056313388;-0.077813156;0.00019803071;-0.11476017;-0.07333318;0.1389458;-0.0026849073;0.041714218;-0.0644519;0.038037457;-0.017283995;-0.10038305;-0.070636;0.031269662;-0.034441557;0.029776148;-0.07243951;-0.05824945;-0.013204478;0.07913936;-0.025314761;0.031187464;0.009104972;0.059694987;0.094770454;-0.017616624;-0.08225959;0.020188682;-0.11240777;0.0073973523;0.01730586;-0.04506216;0.05589914;0.04096323;-0.0004718325;-0.041882105;-0.028643938;0.074331485;-0.049670793;-0.059307013;-0.03598035;-0.04744946;-0.08644983;0.012209916;-0.051888123;-0.039666407;0.03253325;0.054099992;-0.01925518;-0.005692753;-0.013667337;-0.018159041;0.08385423;0.075996324;0.11578013;0.11660806;0.031231215;-0.060347416;0.032642465;0.10895643;0.047792897;0.034723707;0.08375581;-0.10395717;0.048033908;0.0010987268;-0.003869805;0.09446149;0.017201364;-0.061778467;-0.051476207;0.03270585;-0.0073023112;0.104255825;-0.010867425;-0.0018739027;0.101311095;0.109311104;0.036646042;-0.02938676;0.003359722;0.028883152;-0.0065528206;0.030204624;-0.08368759;-0.1040148;0.056356218;0.08637062;0.038528;-0.018250927;-0.09871137;-0.047761474;-0.0030071386;0.014453612;-0.058428857;-0.08883982;-0.006285732;0.0014658171;0.041138176;-0.011620707;0.07283417;-0.014781641;0.12032031;0.072361864;0.023060845;0.10014886;-0.03554606;-0.077237554;0.018258197;-0.009323455;-0.036039557;-0.014113166;0.058689665;0.020243026;0.043242935;-0.0801898;-0.073917486;-0.022623545;-0.06157704;0.056589436;0.03379997;0.09368703;0.084192395;-0.06895154;0.08728999;0.015473601;-0.015716797;-0.04482874;0.09131081;-0.074085474;0.08448597;0.09107743;0.10723106;-0.02434028;-0.03366981;0.025858995;0.05005769;-0.0556756;0.12408624;-0.046739623;0.07635063;-0.037947547;-0.050526332;-0.08565226;-0.051069967;-0.047821146;-0.048462033;0.031312816;-0.0042564343;0.07739377;-0.033789705;0.033645738;-0.09551241;-0.038820937;0.089354455;-0.0086216945;-0.056117363;-0.05905422;0.0076272096;-0.09688812;-0.05179167;0.010949325;-0.009682679;1.9789306e-05;-0.057986066;0.06967903;0.03503041;-0.08734493;-0.06059845;0.03652781;-0.0685862;-0.055583462;-0.004697675;-0.01384274;-0.012372856;0.020782758;0.037053607;0.011105903;-0.008582119;-0.034797102;0.007817682;0.029536756;0.08382211;0.0080301585;0.056090888;0.06399899;0.061210338;0.017514521;0.02610063;0.045448452;0.07153528;-0.0017261027;-0.031972155;0.016808307;-0.029002914;0.0017988586;0.05481885;0.0090414565;0.104002394;-0.0042965827;-0.06664559;-0.014826977;-0.073480606;-0.04042117;-0.116729096;-0.004753429;-0.08026689;-0.067037225;-0.029016849;-0.0641235;0.028295107;0.039228745;0.029032635;0.016922986;0.089338936;0.07256343;0.023862524;-0.05994593;0.007407197;-0.09365746;-0.11127017;-0.2310373;0.08348473;0.046322912;0.019802976;-0.060256246;-0.07277416;0.001488246;-0.18155496;0.020156823;-0.049644794;-0.027102709;0.0055736653;-0.047077656;0.0071766027;-0.07912625;-0.08672461;0.043833233;0.018851306;-0.09418198;0.01231964;0.10997313;0.072115324;0.017320126;0.09864741;-0.043765184;0.02547429;0.042363655;0.039030306;0.09375291;-0.105130866;0.017648874;0.0047711427;0.08367055;0.04675242;-0.011357383;0.018615792;-0.015927235
-0.018421125;-0.009738965;0.026073294;0.10051494;0.026206192;-0.020636456;-0.04018422;0.13249426;-0.06505691;0.038872503;0.08712138;-0.07587306;-0.07015458;0.10153377;0.01456678;-0.12975268;0.11012345;0.03672861;-0.051339515;0.06515133;0.00078868243;0.05760378;0.07839874;-0.037522417;-0.045566652;-0.07174658;-0.1353278;0.0862141;-0.03658341;0.025955688;0.050849658;-0.010904911;-0.035285152;0.022877907;-0.049039822;-0.0041103996;0.051832832;0.014836491;0.069812864;-0.06394068;-0.035326272;0.051263295;0.018833173;0.048378263;0.06188788;0.08421361;-0.13597576;0.017310433;-0.052485276;-0.14198679;-0.014557737;0.076579005;0.02581353;-0.021880517;0.0324555;0.03271208;-0.046467967;-0.021053646;-0.09791977;0.0645186;0.08290861;0.040521093;0.04832057;0.030619008;0.007257698;-0.047368355;-0.065970644;-0.14720891;-0.042295832;-0.044304032;-0.02898541;-0.024530873;0.0055436157;-0.007324317;-0.041812237;0.043608963;-0.013156604;-0.020735927;-0.0063571194;-0.033333875;0.063671015;0.005594824;0.055562075;0.031786535;0.06393549;-0.03981047;0.008573767;-0.036336362;0.066828266;-0.06927908;-0.019423828;0.026801331;-0.011705448;-0.0128246145;0.0037698564;-0.06843696;-0.063425;-0.031995118;0.0056000687;0.054384846;0.028254336;0.071553424;0.0019686033;0.021832425;-0.06332286;-0.041112747;-0.01758744;0.0017339892;0.08432575;-0.028333586;-0.060202062;0.066590175;-0.05167673;-0.004483488;-0.029773295;0.034643624;0.02846774;-0.04177642;0.029706813;0.005922145;0.012956573;0.087331295;0.0450642;0.010577987;0.04282185;-0.035476007;-0.05176276;-0.00852412;0.05038495;0.00037520053;0.058114223;0.06285007;0.038908374;0.0048003397;0.020104652;0.037831884;0.021423465;-0.021525444;0.09232383;-0.051185437;0.0072051305;-0.07697358;-0.021976642;0.061818123;0.07020607;-0.018751316;-0.14996792;0.0060255625;-0.027188743;-0.07296848;-0.08548894;-0.040688604;0.014265783;-0.027308598;0.0031258992;0.07306596;0.041783098;-0.07778446;0.030969352;0.03538474;0.049168456;-0.007239795;0.0231676;-0.011712155;-0.08667652;0.04044679;0.08823288;0.10056923;-0.026479341;0.022533253;0.008914076;-0.010099361;0.008160415;0.08423961;0.03255428;0.058593642;0.06493037;0.05947265;0.03956222;-0.0688865;-0.030707581;0.05936681;0.0058824145;-0.097369224;0.023571476;0.0333792;-0.02846748;-0.019393269;-0.03396536;0.06602974;0.048394345;0.015498451;-0.077975646;0.0050885817;0.013595742;-0.1016225;-0.04586322;0.08147303;-0.027281215;-0.08492851;-0.07665966;-0.01856602;0.035484362;-0.0030399838;-0.03591621;-0.057862327;0.045695953;0.04543845;-0.03137144;0.10380828;-0.08019958;0.022662299;-0.06889674;-0.1286745;0.028336395;-0.050201766;-0.21689837;0.04519891;0.033128597;-0.057841014;-0.023202939;-0.12679663;0.025186088;0.040313996;-0.049891945;-0.04945126;-0.030465813;-0.011609328;-0.030647341;0.008820287;-0.034927737;-0.06120066;0.0814961;-0.012364894;-0.074217625;0.07404317;0.003284173;-0.1153234;-0.010241438;-0.06481171;0.043919124;-0.07116018;0.044021055;-0.024286808;-0.09467915;0.05453414;0.022589909;-0.0025681572;0.00901403;-0.024615316;0.035779323;0.0997736;0.041690186;0.052660964;-0.07035975;-0.0010710364;0.01766302;-0.009795011;-0.08358227;-0.08257115;0.068226665;-0.062554784;0.041809388;0.009107139;-0.00025857813;0.01938243;0.029967714;-0.08221547;-0.1126898;-0.03714018;-0.03164063;-0.04842293;-0.07588091;0.03682178;-0.13769394;0.072651565;-0.015983846;-0.030160056;0.05759888;-0.040066503;-0.0075319065;0.008727567;-0.07413323;-0.09568142;0.08488353;0.026311481;0.046650622;0.052822806;0.03931183;0.06329064;-0.012382244;-0.1429824;0.048634697;-0.068817;0.035492446;-0.01839417;-0.05785022;-0.005790351;-0.011578444;0.07147234;-0.07244741;0.03581014;0.072727956;-0.073879;0.10769515;0.07473271;0.042414486;-0.0012673319;0.04858379;0.103931546;0.070808485;-0.014157754;-0.079029135;-0.06429702;-0.049949326;-0.04314524;-0.056189578;-0.029020758;0.011382517;-0.07467073;-0.065948494;-0.023349022;-0.012939935;0.045283116;-0.038813934;-0.05254347;-0.010696344;-0.0023737296;-0.06500474;0.032510936;0.07191356;-0.006250886;0.022866134;-0.0198838;0.0048803897;0.040361993;-0.0727205;-0.050424125;0.01987983;-0.06669136;-0.038069595;-0.044673543;-0.021002153;-0.0060115834;0.08149046;0.009189013;-0.027054531;0.016590603;0.0013468182;-0.03605661;-0.059678197;0.08587244;0.060354173;-0.058865823;0.04924036;0.059597686;0.028298307;-0.012777087;-0.021993926;0.06724353;-0.13801292;0.0064421752;0.0042835902;0.01718894;0.14170653;-0.08656777;-0.047776412;0.032303974;-0.0031104044;-0.042035263;0.14207678;0.057816155;0.0016534716;0.05324547;-0.05426451;0.08283127;-0.0677318;0.019510334;0.02342762;-0.05330176;-0.028733546;-0.038340785;-0.07993293;-0.0064852308;0.063043386;-0.0033814125;0.014378414;0.0042277267;-0.021165336;0.07063582;0.05709198;0.10058812;-0.06479648;-0.022818318;-0.014610402;0.07046223;-0.03340073;0.07161564;-0.037865646;0.025682941;-0.065403596;0.018670024;-0.045041267;-0.01075833;0.045388468;0.025480831;-0.08481633;0.105514266;-0.11554855;-0.076801375;-0.0029671504;-0.08398937;0.040067494;0.019792307;-0.03416582;0.036283184;0.06897426;-0.100676246;-0.048128773;0.06686821;0.018646874;-0.0012929462;-0.09945278;0.02864504;-0.12103604;0.001245674;0.062489443;-0.05765912;0.11429848;0.049659513;0.051975444;0.048521228;-0.021949396;0.030513683;-0.00018563468;0.034373406;0.08755774;0.005922195;0.023739528;0.090981744;-0.03569489;0.022295281;-0.032976408;0.0618058;-0.09905021;0.005891329;-0.11149094;0.030860802;-0.06500431;0.057816144;0.079196826;0.013124178;0.057546806;-0.059163317;0.08025315;0.019843841;0.0743814;0.09580836;0.06368221;-0.003943846;0.0055033145;0.045369532;-0.010840601;0.02550538;-0.044489965;-0.06984229;-0.020365337;-0.017675066;0.024801124;-0.09481338;0.08454545;-0.068460345;0.0909627;-0.07018411;-0.0010306032;-0.014785962;-0.051132716;-0.075209014;-0.020079643;-0.054880604;-0.05584134;0.018763231;0.025934588;-0.060411014;-0.06499919;0.042015344;-0.0050328774;0.021704523;0.04555148;-0.056783058;-0.020393264;-0.0704381;-0.0393955;-0.060828876;-0.06191981;-0.023376381;0.006732761;-0.12577665;-0.09029604;0.0161207;0.007838646;-0.024564138;0.10718951;-0.027536321;-0.061541677;-0.06491198;0.033264227;-0.017259462;-0.021049798;-0.05590184;-0.029705983;0.020625489;-0.024368381;0.035164807;0.01170817;0.015869545;0.0023780072;-0.00345836;-0.06780017;0.026256828;0.024030395;0.09776638;-0.03031438;0.11473024;-0.045864027;0.06746879;-0.054157544;0.034812257;-0.03632368;0.012706623;-0.039566956;-0.037291553;-0.0183475;-0.02231672;0.0685621;0.07136165;0.08795888;0.015371157;-0.03860301;-0.14966126;0.045354858;0.12655099;0.05223394;0.079099976;-0.0124459835;-0.015123669;-0.092517056;0.13069765;-0.034092613;0.025185881;-0.04237166;0.045325685;0.020759936;-0.07126821;0.015838608;-0.099550866;0.083301835;-0.072882526;-0.04568606;-0.07248686;0.0051736063;0.03234945;-0.024959715;-0.030945078;-0.036539912;0.043446537;0.061333027;-0.017242406;-0.13981466;0.07755541;0.08523327;-0.043888792;0.025492094;0.02695548;-0.056708552;0.0019161748
-0.0008010814;0.089583635;-0.06824339;0.09572653;0.07880341;-0.041789107;-0.073464304;-0.0050180075;-0.11656517;-0.10677495;0.055816825;-0.07376159;0.07840187;0.004283991;-0.035414033;-0.033386007;0.10668037;0.022242047;-0.016132215;0.008718223;0.012295303;0.06729341;-0.0049361;-0.07395287;-0.036308616;-0.02324522;0.025363462;-0.024342274;0.06688221;0.06636651;-0.040476684;0.009404352;-0.060445726;0.06900288;0.045917787;0.08445305;0.0011133938;0.06864539;0.010814032;0.074748695;0.053211287;0.044622205;-0.0689366;0.00240993;-0.06079984;0.06256787;-0.1078213;-0.071349844;-0.010223587;0.011257988;-0.1531908;0.06142456;-0.155165;-0.049615547;-0.07097357;0.122909546;-0.009057256;-0.070433706;-0.0012603308;0.047309697;-0.042761646;-0.07746589;0.0021890306;0.06812037;0.049817055;-0.038865678;0.05308525;-0.09020544;0.060163856;-0.021559974;0.034981094;0.06796774;0.04670816;0.027736355;-0.070946634;-0.0030952692;0.018279275;-0.021649776;-0.015528941;0.013776313;0.03363334;-0.023320405;0.029634455;0.012120711;-0.07681334;-0.05741189;0.029948516;-0.07338382;-0.044217054;-0.00491136;-0.07245729;0.012010932;0.102253474;0.06549707;-0.052685406;-0.0716683;-0.0295345;-0.054136418;-0.07747866;-0.027456185;0.042242575;0.021235684;0.007504621;0.09261391;0.015397621;0.027922237;-0.06377366;-0.020336077;0.09199635;0.08123034;-0.047443304;0.024367413;-0.0043117753;-0.0303794;-0.050778497;0.043334857;0.09700252;0.017688805;-0.060509432;0.0661818;0.053993158;0.05954958;0.05518111;0.04937623;-0.034146883;-0.018851638;0.10526591;-0.054620165;0.043750472;-0.05401251;-0.036500726;0.12144275;-0.07411112;-0.015591667;0.03221774;0.04582782;-0.00015700041;-0.10335664;0.057666447;0.0024866837;-0.029264554;0.008272944;-0.040532116;0.011594251;0.02290961;-0.029541003;-0.11214806;0.06661581;-0.030257834;-0.052911725;-0.071573414;-0.035700083;0.094498456;0.057190318;0.059804827;-0.057426646;-0.058232132;-0.011511775;-0.000920549;0.0471144;0.042060055;-0.03376882;-0.01550685;-0.10401194;-0.05855671;-0.03027491;-0.10856319;0.031550024;-0.07497432;-0.005155667;-0.013362439;-0.025271878;-0.0354532;-0.04426596;-0.053207483;0.02173556;0.04786584;-0.09747196;-0.09425928;-0.053507738;-0.080548145;0.102932855;-0.03469583;-0.102639034;0.05507792;-0.06138512;0.01052587;-0.015526783;0.050379552;0.046068814;-0.017220756;-0.075044006;-0.05774874;0.07963121;0.098125435;0.06468059;0.034127843;0.08005362;-0.06133489;0.04062657;0.029857643;0.024059445;-0.05262589;-0.067463264;-0.0130345505;0.045818135;0.0049044183;0.08741953;-0.0085848;-0.029098226;0.063019216;0.030548058;-0.06615052;0.029377447;0.020548325;-0.05083632;-0.11314471;0.04777541;0.15900582;0.013116791;0.04700787;-0.085477896;0.08208565;0.051933497;-0.06207089;-0.038741138;0.07242662;-0.01721977;-0.025162276;-0.064571224;-0.0020946593;-0.025282117;-0.07720984;-0.013597374;-0.07515599;0.055863578;0.015207055;-0.06407593;0.00878093;0.03354399;-0.10630953;0.039628595;-0.04478962;-0.046137754;-0.063727684;-0.030148502;0.029444302;0.010781409;-0.08786662;0.053798616;-0.009305037;-0.019184723;0.0461185;-0.0874306;0.0507509;-0.019417893;0.06181642;0.014243847;0.031201582;-0.077043965;-0.08318208;0.062276434;-0.039271273;-0.070411175;0.048626687;-0.03899599;-0.025604146;-0.104178585;-0.06452593;-0.025702551;-0.061033145;-0.0105888285;-0.042781126;0.101448745;-0.10213545;-0.010297418;0.0009504947;-0.04248111;-0.06350383;0.012549196;-0.060374077;-0.04102882;-0.08822163;-0.036431998;0.006626084;-0.08030098;0.08577348;-0.011015411;-0.052527625;0.060352556;-0.0063323514;0.010912056;0.0032407772;-0.031426452;0.053851865;-0.020987112;-0.059820972;-0.017815879;-0.05436982;-0.0023185844;0.0408907;0.008428803;-0.03365296;-0.05386883;-0.06439571;0.042326342;-0.07851356;-0.008893333;-0.020921726;0.005357025;0.0543781;-0.0030717955;0.06579972;0.03754855;-0.15806523;0.08301672;-0.06057838;-0.027360758;0.07492994;-0.008511826;0.03943527;-0.025823593;-0.07887729;0.09486734;-0.021176588;-0.037118696;-0.12797152;-0.039996553;-0.030017579;-0.010153777;-0.05735773;-0.051257722;0.10048678;-0.048607938;-0.00043089356;-0.01086969;-0.059627004;-0.042633433;0.10400803;0.030119848;-0.013460497;-0.04078538;0.099466845;-0.038115468;-0.06533118;0.0017818289;0.04540196;-0.09137997;0.04948867;0.041928288;0.034395594;-0.055834983;0.06016736;-0.06167232;-0.052227985;0.07751655;-0.02046799;0.06735954;0.08881711;0.06287297;-0.1574397;-0.037360266;0.112222224;0.040130008;0.09212997;0.014960446;-0.06336425;0.03507934;0.0064413524;-0.007866215;0.16308658;0.05381548;0.05359453;0.0072323955;0.0063081253;-0.015949743;0.06796418;0.089265294;0.0766411;0.07059435;0.03937841;0.0325238;0.06688368;0.06548964;-0.037162814;-0.016832769;-0.056025688;0.06628232;0.0012692655;-0.041915864;0.023669226;-0.009462928;-0.08969959;0.038315475;-0.058767527;0.079382196;-0.009448829;-0.035111867;-0.06514364;-0.077125095;-0.026734954;-0.018430242;-0.03520758;0.010608488;-0.14186023;0.042106196;-0.043558557;0.037139192;0.06347662;-0.05320872;0.04560429;-0.013983299;0.0028523689;0.0660153;-0.0019158217;-0.06421833;-0.06309264;-0.0387744;0.0055075567;0.069328554;0.12043538;0.068034604;0.012865071;-0.044072043;-0.014644347;-0.05422333;-0.025815593;0.04786494;0.029244015;0.08747257;0.044413682;0.07508604;-0.09316223;-0.017955264;0.004078787;0.011165556;-0.016136335;-0.05973509;-0.0063612335;0.07896085;0.04150399;0.059408437;0.0051912344;0.041621014;-0.07271373;-0.026764395;-0.1413441;0.081093006;0.025378885;-0.05270412;0.007244091;-0.029882818;-0.033594;-0.054627094;-0.0312734;0.113089316;0.08246999;0.0072129783;-0.030540511;0.010191472;0.06204309;0.05147311;0.05569329;0.0017901286;0.05718626;-0.18695998;0.054115087;0.006127469;0.11408275;-0.06945147;-0.07095397;-0.051180962;0.0234358;-0.038091857;0.05923504;-0.0029648896;0.05065229;0.071943104;0.00084445515;0.013362434;0.076284945;0.08301452;0.08551529;0.045572475;-0.023551997;-0.05641475;-0.09248062;-0.015451268;0.101127304;0.017976923;0.035738636;0.01984963;0.08059335;0.06097161;0.013191337;0.022991369;0.06932648;0.0020659142;-0.019535828;0.01686429;0.048179403;0.050092604;-0.028350478;-0.050321896;-0.05685622;-0.11412896;-0.10376788;-0.065215915;0.058541372;-0.06336628;0.015466649;0.025732916;0.03717314;0.011212803;-0.02984461;0.025205657;-0.081777774;0.049775973;0.038433753;-0.026991973;-0.062628455;0.048452012;-0.13565001;0.02037215;-0.05032769;0.0025096964;-0.058794875;0.051983308;-0.15023333;-0.05199242;0.05392928;-0.015246183;-0.05705055;0.042159114;0.017243886;0.02971843;-0.045526;-0.05531661;-0.07481971;-0.16940387;0.009295019;0.05823632;0.011556233;0.014949798;-0.07096551;-0.044371765;-0.04990826;0.095163494;0.11384536;0.0047013187;0.02853426;-0.063367195;0.07557224;0.008062992;-0.045564424;-0.02078464;-0.012389411;-0.03901651;-0.0057380847;0.01698703;0.060039137;-0.029164413;0.05782843;-0.05986777;0.027641192;0.016275976;0.036180034;-0.048208028;0.017961137;-0.022386331;-0.03759999;0.016491264;-0.08938872;-0.06820265;0.008263805;0.022510827
0.072922505;0.038950473;-0.049360547;-0.026349297;0.13079375;0.0080507165;0.012334954;0.018559195;-0.14075597;-0.073558755;0.030421138;-0.15444793;-0.04552509;0.086028956;0.074495435;-0.07012977;-0.0052671363;-0.09054865;0.079819106;0.038369436;-0.06318595;-0.012741565;-0.025602015;0.09468357;-0.07030161;-0.027258633;-0.092415534;0.088026375;0.09011523;-0.076495044;-0.0486083;0.022967491;-0.09374744;0.0028242855;-0.0046666195;0.073772855;-0.046485405;-0.06383767;0.028872626;0.010438836;-0.052618973;-0.001776941;0.0037131016;0.046874885;-0.046937753;-0.04115929;-0.11490112;-0.021348117;-0.026352087;-0.054606855;-0.04809893;-0.077670895;-0.15272787;-0.034364223;-0.10557486;0.072766796;0.059710324;0.04501431;-0.10581411;0.058091413;-0.067155026;0.07791227;-0.03860805;-0.03173939;-0.047482233;0.049694475;0.054035023;-0.0028385355;-0.013087627;-0.060189303;0.021082796;-0.055860694;0.023112137;-0.019716958;-0.09941665;-0.009525169;-0.0697869;0.030750135;-0.13100575;-0.10539953;0.05114572;-0.022798631;0.09919287;0.06874717;-0.051649123;0.014671073;-0.04558711;-0.015676707;0.054829597;-0.03911048;-0.07999778;0.0123817865;0.006540768;0.030593766;0.03170558;-0.049613673;-0.018145295;0.0004569584;-0.13990535;0.029026318;0.023756593;0.07751446;-0.04638201;0.08544026;0.016793687;-0.037299443;0.036123294;0.057491172;0.10419222;-0.04191418;0.01994932;-0.013659892;0.0754681;0.0670543;0.022408314;-0.08223336;-0.0347164;-0.06510511;0.076535515;0.017839784;0.016065517;-0.06417836;0.058081347;-0.06226146;0.082421176;-0.061222892;0.17180319;-0.010259548;0.024415681;0.023280663;0.054197196;0.0080662975;0.048613306;-0.066081144;0.047010027;-0.0872219;0.05493453;-0.04121737;-0.032719824;0.055487297;0.0063445964;-0.03633893;0.036483362;-0.020974591;0.022816403;-0.03952822;0.00095520663;0.06137125;-0.06482926;-0.03739909;-0.13386531;0.019736398;0.059781246;-0.06947821;0.006504093;-0.053075965;-0.05298741;0.067539975;0.08242461;0.028994579;-0.01420295;-0.0072943172;-0.036528226;0.064857066;0.034514718;-0.04045613;-0.08282523;0.07399969;-0.0031258287;-0.0132464785;0.04616958;0.046394292;0.105214365;-0.0017762686;-0.119435586;-0.036281742;-0.04122786;0.042062994;-0.081098296;-0.008602928;0.0028407527;0.048808414;-0.06260306;-0.041075632;-0.098183826;0.027335368;-0.062344786;0.013069366;0.05593497;0.06277713;-0.04219997;0.03989873;-0.13377191;0.118122846;-0.06247257;-0.08731858;-0.092130765;-0.054266132;0.036857035;0.021912117;0.050543856;-0.065112;0.038195547;0.0629316;-0.01674733;-0.07526468;-0.13576092;0.12781098;-0.060326014;-0.111932255;-0.07017718;0.062168814;-0.03304042;-0.12385007;0.024832122;0.007881999;-0.15821968;0.0029977614;0.1365292;-0.00910009;0.04909786;-0.075991586;0.01885124;0.06291965;-0.046371553;0.027657794;0.04965142;0.031110203;-0.073175855;-0.028830785;-0.021391602;-0.05883496;0.0946085;-0.016718827;-0.042384733;-0.053886134;-0.059681777;-0.044912677;0.058585767;-0.08875716;-0.031010078;0.054049723;0.052035674;-0.011112532;-0.16852914;0.013293373;-0.045655333;0.09301258;-0.060620774;0.074844055;-0.09879646;-0.04569052;-0.046693087;-0.081914395;-0.10721434;-0.036209315;0.084155075;0.027428666;0.020705102;-0.07723628;-0.08906104;-0.016377956;0.014367179;-0.08968529;-0.027015964;-0.0067172707;-0.09681371;0.09571072;-0.06312798;0.025160158;0.02765471;0.056361828;0.076574445;-0.005473173;-0.1116478;0.056276966;-0.043558184;-0.057209454;0.002978103;-0.046272416;0.07793344;-0.013004676;-0.05695934;-0.12201748;0.07449734;0.08313072;0.06279418;-0.055872597;0.010298362;0.045104146;-0.012578048;-0.042992745;0.044440344;0.040512785;-0.029687922;-0.016660836;0.025427528;0.026428375;0.065989554;-0.056770567;0.047725253;0.01199407;0.08463566;0.018184422;0.10949531;-0.025341311;0.07238576;0.08649695;-0.0157905;0.018318897;-0.081275366;0.033704408;-0.016252968;-0.028715821;-0.12971203;0.015833493;-0.016290376;0.06044834;0.043072376;0.06827821;0.049288522;0.03777229;0.0559851;0.050239287;0.050735734;-0.020279108;-0.07222145;-0.072380796;-0.019041602;-0.0054420163;0.07071312;0.058377557;0.05436079;0.06601111;-0.046329226;-0.05511933;-0.113535546;0.004101244;-0.019608302;0.03962889;0.09065693;-0.083080724;0.02560888;-0.084466;0.020642392;0.004379712;0.12806967;-0.012386739;-0.001789909;-0.04221876;0.037272025;0.06765562;0.12595338;0.05756219;0.039336693;-0.086549394;-0.015249579;0.07692639;-0.027663166;-0.012075424;-0.011111697;-0.051195715;0.06977989;-0.041745704;0.10209522;-0.009023172;0.054359455;-0.06145817;0.06610922;-0.053433202;0.06694912;0.023573833;-0.07258748;-0.0767226;0.035764795;0.07645999;-0.045308214;0.11295723;-0.048355356;0.024258487;0.007828506;-0.048966583;-0.078251295;0.036502127;-0.002968718;-0.056492995;0.13318034;0.054369062;-0.055212487;-0.08896191;-0.041581545;0.030682735;0.037652474;-0.023621662;0.033878632;0.029715128;0.09862446;0.053638685;-0.017009325;0.06388332;-0.016168047;0.10980811;-0.090395205;-0.0089191;0.043411072;0.12702937;0.041223742;0.055542964;0.034652;-0.10375219;-0.040521678;-0.045081947;-0.053834908;-0.06767994;0.022209875;-0.11589679;0.02968172;-0.092182375;0.09276143;0.051154524;0.07775051;0.0011971989;-0.116621315;-0.020410525;0.048147775;0.033272844;-0.05804816;-0.0683147;0.064191714;-0.005071207;0.032923374;-0.058553062;-0.040419325;-0.00040314355;-0.05893037;0.08945107;0.00026368088;-0.062896356;-0.05410661;-0.012186629;0.06575189;0.053400848;-0.05755405;-0.03133767;-0.15266767;-0.035332136;-0.1556363;0.047612622;0.012304119;0.11059632;0.03795512;0.02969341;0.031850416;0.03849087;-0.044549685;-0.01734977;0.1177444;0.095689595;-0.054683607;-0.06342733;0.075452864;-0.07513241;-0.022909516;0.033431545;-0.035128128;-0.16844334;0.011078171;0.027714716;-0.040192775;-0.03357248;0.016749559;0.032270715;0.062376972;-0.06292082;-0.012070457;0.060589664;0.03323676;-0.06915781;-0.054065578;-0.017076666;-0.014504617;0.04270718;0.052114584;-0.12505007;-0.018819163;0.042759553;-0.15909177;0.034326117;0.063180275;-0.0073239324;-0.027019482;0.065405644;0.035579946;-0.028824573;-0.026896786;-0.05635294;-0.09382086;-0.030148704;-0.07078192;-0.010301503;-0.09207042;-0.0041354643;0.108254485;-0.056861863;0.082754195;-0.068792544;0.016133975;0.096831925;0.09423626;0.0032834013;-0.019499978;-0.02217851;0.076488934;-0.020155054;-0.0895089;-0.069308855;-0.0537602;-0.00035523588;-0.088587806;-0.047919616;-0.056908853;-0.061411496;-0.17762122;0.017132664;-0.027966883;0.0041772136;-0.10116894;0.07207473;-0.11571102;-0.06090084;0.05490775;-0.009443444;-0.12386299;-0.04689054;0.067612186;-0.017669098;0.043012653;-0.08168349;0.0051548216;-0.14046161;-0.13100791;-0.038519215;-0.08666541;0.018411037;0.034002874;0.06736902;0.060975563;-0.033354487;0.073412314;-0.02522205;-0.034531508;0.058583207;-0.06493452;-0.07112437;0.008131072;-0.074613914;-0.078121364;-0.13055223;0.071343854;0.06504169;-0.0042708274;0.040891256;-0.034178626;0.00088751107;-0.09575959;0.05179573;0.02038693;0.08920285;-0.024577484;0.046722084;-0.01661411;-0.05631071;-0.05293274;-0.030650554;-0.0148098;0.1296288
-0.053920265;0.07901076;-0.006658961;0.07785612;0.061288867;-0.053826515;-0.0056376206;0.01052059;-0.14951712;0.06132521;0.05364647;-0.17366777;0.06550877;-0.024503943;0.01332246;-0.07687697;0.055659067;-0.10409577;-0.027749514;-0.086062305;0.027269686;-0.052046005;-0.010069227;0.07486172;-0.06783074;-0.010135925;-0.062337864;-0.04326211;0.017636256;0.0360911;0.041713487;-0.022247128;0.044045977;0.031548474;-0.098143205;0.05970378;0.09647048;-0.07575136;-0.04096906;-0.05227143;-0.079871625;0.033310816;0.07934709;0.014401291;-0.06172014;-0.06222753;-0.10667275;0.032051;-0.007104532;-0.058814622;-0.15595038;0.03172543;-0.07418432;-0.05894174;-0.12842068;0.06804688;-0.01646396;0.013511314;-0.037419707;-0.04639016;0.04355809;-0.016991228;-0.07739479;-0.04935438;-0.081662335;-0.06384432;-0.062117983;0.014786398;-0.09445096;0.050437834;0.06577498;-0.05999485;-0.07430814;-0.020403903;-0.1060915;-0.062871814;-0.15020905;0.053934015;0.059610073;-0.08795955;0.024993887;0.006791851;0.068897635;0.04862196;-0.08345843;0.031108003;0.033306427;-0.0254049;-0.03605214;0.046610642;-0.0627979;-0.02707263;0.006674642;-0.034730658;-0.07229865;-0.04233136;-0.070091315;-0.00049693004;-0.05831162;0.018258635;0.016017007;-0.043345325;0.03618977;-0.018029181;0.092233464;-0.06670421;-0.028861148;0.05112519;-0.037498023;0.054871533;-0.014057047;0.0020041387;-0.04466909;0.06860094;-0.03019204;0.0049539814;0.051085945;0.011328619;-0.020428788;-0.005975798;-0.077280305;-0.06394248;0.14868264;-0.08476664;0.053444672;-0.07628136;0.036833096;-0.051344432;-0.05630489;-0.031468935;-0.020787979;-0.019388547;0.062148347;-0.050395362;0.031302016;-0.015623498;-0.05382456;-0.006662472;0.113200486;0.051049322;0.035932522;0.022289481;0.033695027;-0.05844413;-0.02856738;0.0330049;-0.047944993;0.05258344;-0.0034977547;-0.024415977;0.04175224;-0.092715584;0.086721726;0.005196029;-0.027358206;-0.0070722266;0.095187195;0.0703442;0.011322284;-0.015233832;-0.026984153;0.06768177;0.046269875;0.013887785;-0.06270007;-0.06909661;0.03671485;0.093787275;-0.08733176;0.00951453;-0.0019798127;-0.06595831;0.07776673;-0.04758697;-0.01430742;-0.0019138068;-0.015811227;0.036355246;0.021085277;0.010548844;0.024885524;0.1054961;-0.039088335;-0.013281774;-0.04982265;-0.069575846;0.05405093;0.032188874;-0.087307364;-0.043389227;-0.012200812;-0.018294426;-0.12620088;0.037299052;0.08468245;-0.11151075;0.0018479828;0.07381822;-0.023575692;0.0041549797;0.038091585;-0.06617457;-0.068876274;-0.00866098;0.056641534;-0.092538334;-0.10522255;0.11293594;-0.08185579;-0.14723317;-0.07215007;-0.044077452;0.060714252;0.007767205;-0.035144817;-0.02831651;-0.14641076;-0.0064070695;0.17266671;0.0767421;-0.008537409;-0.068338566;-0.09919298;0.10470364;-0.0062174257;0.0078397505;-0.03876178;-0.03930165;-0.10204973;0.038929332;0.02883303;0.009193631;-0.05719231;-0.04131976;0.038128693;-0.045711916;-0.060353164;-0.047513664;-0.058876354;-0.08808906;0.049834266;-0.053256594;-0.0786215;0.072409;-0.118445806;0.04056067;0.11942639;0.049418043;-0.033242878;0.039490495;-0.08267236;-0.017141748;-0.03968074;-0.10969706;-0.04541417;-0.072698556;0.07993932;0.062810674;-0.031484548;-0.08226529;0.03730988;0.04088164;0.04849624;0.037166126;0.13459893;0.03171297;0.028724205;0.09015872;-0.013613549;-0.026218366;-0.061666492;-0.060243256;-0.022329092;-0.037948843;-0.11813316;0.13055828;-0.029886566;-0.038372606;-0.058152862;0.007135653;0.09786699;-0.019567732;-0.03102529;0.007715109;0.0290843;-0.032445543;0.0022329607;0.03615369;-0.012054967;-0.06860373;-0.01472085;-0.10484986;0.010648391;0.05681892;0.01055466;-0.0388634;0.0711765;0.058781885;0.0025480455;0.0013141916;-0.03466809;0.011415372;-0.06429837;0.012650187;0.013920274;-0.01192303;-0.06316792;-0.06076701;0.052324418;-0.03928211;-0.025434997;0.07771384;0.021025144;-0.0570723;-0.13616826;-0.05656361;-0.0635095;-0.050720032;0.04374675;-0.060608372;-0.06143702;-0.07774033;0.05223695;0.120912746;-0.088741325;-0.04046117;-0.04111021;-0.0058550383;0.009573137;0.06250949;-0.020827308;0.0620953;-0.071990885;-0.05379905;0.011828952;-0.118697084;-0.06487676;0.020144165;0.024650669;-0.070335604;-0.02423041;-0.002895151;-0.0058719823;-0.09301375;-0.04219702;0.009061379;0.106096335;-0.06080675;0.0034524952;-0.013496967;0.02331819;-0.058895282;0.061343793;0.01328822;-0.0144279795;0.059579086;-0.06701515;0.014655109;-0.015141762;0.052424017;-0.16522034;-0.12533583;-0.10800879;-0.046327572;0.0048613087;-0.021181574;0.0022514514;-0.027369043;0.105204456;-0.019027062;0.1696329;-0.0053863367;0.065076016;-0.09024907;-0.0952008;0.032353517;0.0600734;-0.021765567;-0.030005623;-0.03566138;-0.057134505;-0.0025649164;-0.032859627;-0.024442287;0.015119611;-0.06693314;-0.012184245;-0.097526334;-0.040060997;-0.0061282814;0.0057585826;0.073384814;-0.08322703;0.07274167;0.04681717;-0.039667223;-0.024893029;0.06784039;0.063178726;-0.07004713;-0.033033397;-0.02554488;-0.06662814;0.105570994;-0.060254585;0.12148285;-0.0046687475;0.03720896;0.038214885;-0.08145762;0.060074337;-0.06666211;-0.0859596;-0.07140686;-0.078751154;-0.0026124658;-0.07661214;-0.059093136;-0.025224239;0.060681604;-0.039905973;0.038822826;-0.095260575;-0.035050794;-0.02559264;-0.041561496;0.017826905;0.00040415087;0.03045741;0.06945745;-0.006498163;0.06536956;-0.09069583;-0.0140140345;0.058486298;0.043893714;0.039207637;-0.020730956;-0.061844304;-0.024586389;-0.013288724;0.06691981;-0.053234406;0.047188703;-0.01925714;-0.07404821;-0.15500334;0.0039433884;-0.0041271755;-0.0318305;0.06924347;-0.035104517;-0.028947761;0.030323038;-0.1125493;0.09180865;0.020118752;0.07781944;-0.054931432;-0.10923072;-0.02008325;-0.075046524;-0.023544624;-0.052642487;-0.04108503;-0.11203123;-0.0009935484;0.076270856;-0.033727508;0.03707106;0.012615028;-0.025793374;-0.07382144;-0.02330468;-0.059498698;0.009385494;0.058083404;0.07463529;-0.051257763;-0.09604537;0.010195451;-0.05333427;0.035497773;-0.021060474;0.0058573643;-0.07221462;-0.17339452;0.019599633;-0.02623332;0.042470835;0.0373523;-0.052929666;0.08876701;-0.07110127;0.068131246;0.012478918;-0.047997292;-0.0381071;0.0239417;0.039775345;-0.13033682;0.03514457;0.06322106;0.0048631416;0.099730514;-0.08121777;0.023701081;-0.03292319;-0.008479786;0.06521763;0.03825732;0.07538868;0.010062375;0.06712543;-0.008831008;-0.03568456;0.025223717;0.03364917;0.020812813;0.041415595;0.07507676;0.021101031;-0.14171048;0.032149304;-0.06613562;0.0673155;0.03773244;0.021516427;-0.104071006;-0.027451556;-0.07357957;-0.09280077;-0.15370901;0.009557735;-0.02378687;-0.06520378;-0.049121004;0.06676429;0.018510448;0.007936612;-0.15037304;0.086459;0.004787748;0.011822858;0.03909255;0.07464463;0.05588454;0.053547546;0.07339589;0.037957713;-0.041257158;-0.008777027;-0.0042229276;0.054114837;-0.008415043;-0.1487208;0.06335395;0.016044248;-0.003333189;-0.0036821177;0.060719907;0.009317018;0.07188201;-0.06277681;0.0076128235;0.04244659;0.047623686;0.08661974;-0.11823183;-0.065982744;0.055176325;0.04253808;-0.003926532;0.050626762;-0.05652001;0.16916151
0.099263474;-0.05148944;-0.044866316;0.13298523;0.038670275;-0.04040645;-0.08596918;-0.02707365;-0.16212532;-0.036168527;0.047935896;-0.1114595;-0.0027611656;-0.021020772;0.04177216;-0.046305835;0.01208436;0.029131383;-0.073204316;0.086215146;-0.028911686;0.032091435;0.02543784;-0.003918892;-0.062283557;0.09222903;-0.01910755;0.051902972;-0.01274819;0.04128568;-0.024341093;0.009370657;0.03856641;0.05544561;-0.03072238;-0.0028400384;0.04939123;-0.0470673;-0.053732723;-0.055206098;0.008045592;0.012226801;-0.0151353935;0.028264303;-0.07739215;0.0062125684;-0.036673516;0.0049531613;0.041070975;-0.051874712;-0.14574277;0.03978089;-0.07884504;-0.012411084;-0.0030070054;0.047634453;-0.020676363;-0.016474051;0.040188115;-0.01285786;-0.046892773;-0.061707318;0.060075108;0.008608089;0.06546943;-0.006418644;-0.04126425;0.0042331903;-0.0007638326;0.039992318;0.02826086;-0.025125902;-0.007755787;0.038703393;-0.10817706;0.06998716;-0.0057337587;-0.06252219;0.03963706;-0.030735774;0.0184093;0.02292735;0.013919462;-0.050821196;0.009278154;-0.00805452;0.05206743;-0.058225278;0.006231741;-0.059856877;0.014940234;-0.05013283;0.06156337;-0.04506791;-0.07730266;-0.020157259;-0.05847036;0.027531112;-0.014290632;0.04017788;0.06282791;-0.07255091;0.04625587;-0.03789744;-0.073794864;0.07973763;0.0062131905;-0.021809949;0.031412285;0.053411514;-0.062455803;0.06254063;0.043544017;0.035699666;-0.00547476;-0.064216964;-0.05232173;0.021829883;0.006929801;-0.0073708296;0.06459213;-0.09082271;-0.01704259;0.062080227;-0.051511936;-0.02292796;0.11042174;0.04180482;0.048139665;0.018179087;-0.01326389;0.012916224;-0.056101378;-0.037080474;-0.0025101241;-0.04102118;-0.015771342;-0.030897014;-0.014954182;-0.005429663;-0.007461139;-0.0098507;-0.04197584;-0.021549776;-0.053069893;0.0437321;-0.13659722;-0.048586138;0.030808035;-0.00782758;-0.016873581;-0.09086833;0.014972447;-0.041932873;-0.029190369;0.09104181;0.021716017;-0.005374998;-0.08078693;0.024823638;0.008370035;0.023259763;0.02574254;0.039200712;-0.014162662;0.008961276;0.010894208;0.09074904;0.073877044;-0.0041179764;-0.050636396;-0.0411274;-0.06437735;-0.026241833;-0.078937516;-0.045514837;0.02922968;-0.06485801;-0.032794643;0.03219506;-0.07893539;0.078520924;0.06717199;-0.036425926;-0.050168667;0.08454055;0.05882477;0.037225384;0.061548524;-0.02870429;-0.0035588925;-0.073799625;-0.06842767;-0.047228187;0.13283582;0.0022108352;-0.0813745;-0.030057946;-0.09393157;-0.14799799;0.056056794;-0.05411651;-0.023918537;0.066216886;0.01990893;0.043042894;-0.059484817;-0.005990895;-0.06468674;-0.13349004;-0.032732695;0.05728921;0.066161886;0.010025606;-0.013666287;-0.03223225;-0.11500815;-0.03262716;0.024645371;0.012337793;-0.057305843;-0.11068878;-0.056552943;0.037942234;-0.010464477;0.026626859;0.08054123;-0.06785908;0.037923403;0.013006933;-0.07174238;0.0694309;-0.04961699;0.004674029;-0.07878377;-0.069086485;-0.013716453;-0.09363671;0.046886463;0.033302147;-0.062161606;0.022597345;-0.08321078;-0.03269249;-0.090479486;-0.0035165306;-0.0008342743;0.01829248;0.042175435;0.037565857;0.023088522;-0.04771084;0.013067488;0.0082117235;-0.030692756;-0.075130895;0.043022316;0.062363964;-0.043080956;-0.11534042;0.06649831;0.084015824;-0.06530391;-0.013721845;-0.016719295;0.020971961;-0.10405233;-0.016617013;0.0161708;-0.019935941;0.07255054;0.040470727;-0.023435725;0.0927078;-0.15398496;0.03953169;-0.038705975;-0.072383955;-0.08055765;0.016018605;-0.015702834;-0.03280028;-0.1017992;0.019072523;0.021732049;-0.0070001674;0.057265863;0.07108917;-0.06746478;0.061744757;-0.09067895;0.03831167;-0.08591073;0.018643001;-0.03626554;-0.04878005;-0.058114138;0.04190953;-0.08301095;0.0329291;-0.064819135;-0.054611936;0.04634834;-0.06943972;-0.06882321;-0.015147542;-0.10230115;-0.04114349;-0.04291991;0.051163547;-0.023445122;0.05186858;-0.07169071;-0.0033387858;-0.04036209;-0.034746837;0.056592066;0.07209945;0.034900907;-0.055501282;0.053266037;-0.018492227;0.04912302;0.06426298;-0.031145848;0.00906655;-0.048478696;0.051268674;0.055287525;-0.0824351;0.02826288;-0.061868038;-0.06989773;0.09191236;-0.06544887;0.0072399657;0.026870305;-0.025102735;0.074981;-0.04029626;-0.0823318;0.006293484;0.07310022;-0.08767668;0.038892124;0.0018790448;-0.0096588135;-0.05457225;-0.04428632;-0.07649521;-0.07882536;-0.01219117;0.07079817;0.018518401;0.05028733;0.0066533186;-0.08592386;0.08242921;0.019914383;-0.03156933;-0.061262332;-0.021513224;7.1698334e-05;-0.07108345;0.063661344;-0.07184267;-0.05655036;0.0011707452;0.01914121;-0.08765813;0.007216005;0.083976485;-0.093560666;-0.01289276;-0.07361891;0.0500876;0.04776331;-0.052880026;0.062916845;0.06397704;0.025493415;0.04242923;0.03911475;-0.10024124;-0.03191838;-0.0053406204;0.05632771;-0.056633916;-0.04951851;0.014853274;-0.04496741;0.0906959;-0.08099331;0.02455368;-0.06806998;0.076267555;0.017425759;0.076863356;0.025527483;0.0014565977;-0.0658401;-0.006495261;0.002341358;-0.030736726;-0.045050167;0.019676952;-0.047830034;0.0055274866;-0.0007891831;0.039954368;0.06393502;-0.026066408;0.047941018;0.025309758;0.0612835;-0.008749665;0.077253334;-0.12606466;-0.044600204;-0.06206807;-0.081515744;0.14074059;-0.05107261;0.064203344;0.012285629;0.0036458;0.011125172;0.033684943;0.07410202;0.045016788;-0.053183336;0.021023178;0.018683797;0.01634558;-0.07014205;-0.029482055;0.02909232;0.045480162;-0.011820528;0.028015822;0.0042780545;-0.02296738;0.007572935;0.005325771;-0.043533757;-0.0003980028;-0.09415036;0.037848845;0.008068247;-0.06725513;0.047931414;0.057871316;0.09429808;-0.023395773;-0.097119644;-0.08248597;0.060742572;0.012735878;-0.045931555;-0.0892494;0.026443206;-0.025599074;-0.089806505;0.08971752;0.05108538;-0.049730882;0.022843996;0.009459312;0.08930656;-0.026704714;0.00650909;0.029356765;-0.030963121;0.0042741676;0.009554593;0.03477103;0.0059071057;0.08134631;0.050875127;-0.08844926;0.02382785;0.06803085;-0.047836784;-0.09303724;-0.0021087765;0.045036156;0.019286504;-0.053628;0.00284558;0.074199975;-0.06770772;-0.01676663;0.020752113;0.053905696;0.012932494;0.07734962;-0.059657246;0.08170086;-0.03152445;0.020598799;-0.074750766;0.053506963;0.03476156;0.037901767;-0.06627171;0.039300732;-0.055832937;0.058061156;0.10645296;0.03713422;-0.042478036;0.059756767;0.030139783;0.023621695;0.05737719;-0.013417776;-0.07587539;0.037840083;0.031711027;0.025101509;-0.014328729;0.04532991;-0.11291244;0.032083463;-0.088813394;0.03728045;0.039903816;-0.011000298;0.00059667544;0.03838057;-0.03297822;0.065720074;-0.10169695;-0.03279499;-0.020960271;-0.020076865;0.083179496;-0.07553621;-0.04691763;-0.16743296;-0.06069662;-0.008484404;0.07037573;0.053347252;-0.0044566984;-0.014975609;-0.12786323;0.10998533;0.12016846;-0.014514092;-0.01584561;-0.059710428;0.030248865;0.060495198;-0.020103198;-0.04719081;-0.06600148;-0.021433996;0.04588103;0.066759825;-0.017698538;-0.059533816;0.10219247;0.054172225;-0.05053981;-0.017145826;0.028326545;-0.02419917;-0.014106865;0.014815201;0.056349546;0.04476652;0.027329648;0.008727381;-0.080081664;0.089401
-0.004546176;0.051077105;-0.024968522;0.11760862;-0.028970543;-0.056407876;-0.04071924;0.031948235;-0.082775176;0.011966812;0.09929982;-0.010726744;0.054325886;-0.017617315;0.03172889;-0.14245449;-0.018455535;-0.005471758;-0.06100707;-0.023828523;-0.06155668;-0.013861516;-0.05832886;0.122872844;0.02627844;0.030899456;-0.06055727;0.06705741;0.017393934;-0.030419044;-0.050067667;0.049602646;-0.02075894;-0.037312392;-0.016022148;0.067395456;-0.06568704;0.05180636;0.021356821;-0.019473836;0.041393038;0.13096678;-0.035629034;-0.025156165;0.053557403;-0.042627178;-0.018643973;-0.06446413;-0.054367766;-0.025014205;-0.07755866;-0.06964946;-0.14986283;-0.02301805;0.025041254;0.12574582;0.012539515;0.019003255;0.04255965;-0.061403822;-0.04774777;-0.002253727;0.06686554;0.025754414;0.04083483;0.08264457;0.11796749;0.0469606;0.025990754;0.030441664;-0.070180334;0.063552506;0.04755449;0.0056902263;-0.004586139;-0.051912274;0.011447957;0.064676955;-0.03303285;-0.09905276;-0.10029694;-0.06190707;0.09754283;-0.017405286;-0.11042398;0.024087837;-0.07585743;-0.19877362;0.020360494;-0.05493292;0.011616556;-0.13543355;0.09041693;0.02875034;0.058690533;-0.09375776;0.035757057;-0.041210033;-0.12221302;-0.004692092;0.0078017307;-0.0016769094;-0.011091145;-0.0057243565;-0.025809193;-0.00067805266;-0.039799698;0.074819535;0.067224085;-0.004398558;-0.06156006;-0.003849397;-0.016032904;-0.00060528866;-0.07798041;-0.037732836;-0.0245413;0.022735395;-0.11345403;-0.02744263;0.058927145;0.0055613806;0.032235805;0.042212386;0.07003013;-0.087500796;0.07155593;0.04105527;-0.039186314;-0.06053715;0.0718977;0.08461392;0.07187116;-0.003854265;-0.11158652;-0.019236661;-0.07946521;-0.02631298;0.020813372;0.027635712;0.07418116;0.06317983;0.027076945;0.05648007;-0.08529064;0.05320268;0.0038399172;-0.031055156;-0.05219978;0.06871441;-0.051809918;-0.0819967;-0.02655836;-0.007052745;-0.029152222;-0.016789941;0.0054165106;-0.024366667;-0.058558263;-0.08995096;-0.031155866;-0.1033038;-0.066252455;0.016857589;-0.17256412;0.035522185;-0.094936274;0.024994906;-0.009189197;0.08852309;-0.12873681;0.061996017;-0.00036500138;0.05380446;0.011365358;-0.07069898;-0.009625466;0.004634972;-0.094713494;-0.05213231;-0.09366463;0.16011377;0.059288796;-0.044279315;0.023709234;0.04068783;-0.09543898;-0.06371643;-0.09876375;0.061552424;0.04876517;0.02785763;-0.005723392;-0.048712756;-0.027477555;0.07029191;-0.030740296;0.10288208;-0.033415724;-0.17043315;0.065040074;-0.08161004;0.05823632;-0.060269833;-0.043060187;0.05932536;0.061818823;-0.04486723;0.06200983;-0.05078727;0.056788526;0.048468422;0.051822245;-0.090958916;0.029410888;-0.11751834;-0.1526315;-0.041148487;0.05030897;-0.028146507;-0.030144917;-0.008241072;0.049131792;0.07337444;-0.030989159;0.03669716;-0.042348858;0.076329395;0.038388748;-0.0658945;0.009510907;0.00020822111;-0.0049204812;-0.032383833;-0.019792916;0.053256422;0.03587359;0.035927083;-0.018716475;0.059803322;0.034306657;-0.04338774;-0.069599845;0.02493992;-0.022943597;0.065389834;0.037461855;0.074945845;-0.0066585136;-0.025731713;0.052273612;-0.08281307;0.04223141;-0.056427706;0.025769405;-0.049206913;-0.048165973;-0.038110342;0.0053626196;-0.0917791;-0.00655563;0.07627516;-0.0576647;0.0095842155;0.06693456;-0.01422317;-0.066197276;-0.059966862;0.06322044;-0.059352525;0.08946463;-0.0138416905;0.020223912;0.09512252;-0.075476125;-0.041086093;0.034138896;-0.08023673;0.03909635;-0.10052462;0.028276382;0.037851587;-0.124760635;-0.07627388;0.092978925;-0.030771328;-0.0585843;0.024955614;0.030640999;-0.0024602069;-0.10210657;-0.08681175;-0.10813635;0.0012401593;-0.060296904;0.07891735;0.0830093;-0.007835661;0.039747566;0.04238471;-0.031114945;0.05619097;-0.053417377;-0.052680116;0.06772929;-0.024986146;0.050867964;-0.060700662;0.02734045;-0.074447684;-0.023705434;0.065057725;-0.044060867;0.069226846;-0.10899603;-0.0817664;0.064702116;-0.040521476;-0.021753902;0.06305755;0.06420375;0.016357444;0.07135582;0.10464334;-0.042205818;0.057028893;-0.16128819;-0.019205738;0.007927522;0.04281229;0.0634372;-0.072671324;-0.060411975;0.08516251;0.02341187;-0.08740277;-0.056224193;0.021058444;0.112949744;-0.07688514;0.014714686;-0.0007836027;-0.03168931;-0.052129686;-0.07398377;-0.0046324176;0.107131705;-0.10351568;-0.06923069;0.028918711;-0.02961681;0.07223657;-0.0023049314;0.033270698;0.034175802;-0.067256495;-0.073426776;0.02390878;0.033640917;-0.019876441;-0.05850858;-0.035015892;-0.10059654;-0.04563482;0.013789192;0.02634179;-0.06934539;-0.016044429;0.07486475;-0.066539854;0.06087737;0.0044130124;0.09689857;0.07020949;0.031469;0.012787736;0.039763678;0.006008426;0.03393639;0.056750085;-0.076987185;-0.07183215;-0.002196563;0.026964275;-0.047094766;0.019565813;0.0065613394;0.055503443;-0.004469146;0.024042558;0.019074105;0.0056919544;0.048524328;-0.009601838;-0.08687723;0.0023189373;0.028633429;0.048495073;0.041613854;0.065293945;-0.029149057;-0.0059731435;-0.058183752;-0.011013522;-0.1705546;0.046393704;0.0031841043;-0.027213838;-0.08404038;-0.08990993;0.03611442;-0.003710987;0.021674369;-0.07103826;0.009062974;-0.044324312;-0.03025019;-0.024422871;-0.053590477;0.09427965;-0.024821507;0.052876584;0.024687363;0.04034834;-0.07255919;-0.044683922;-0.020770794;0.010740413;0.1055683;0.079508476;0.038588442;0.068967834;0.037732035;0.004092886;-0.012070967;0.005280186;0.05144303;0.037317038;-0.046014503;-0.056810156;0.010737094;-0.023512715;-0.06187474;0.06652277;-0.047532503;0.021576226;-0.060679797;0.082422554;-0.0631002;-0.072066635;0.0004079566;0.017157247;0.02000257;-0.06807846;0.007293502;0.0014864933;0.034065302;-0.013449344;0.045900956;-0.073255755;0.04169459;0.05826089;-0.059854228;0.06889021;0.07152908;-0.026747052;0.1119999;0.08302963;-0.019605417;0.066566214;-0.070376575;0.06930823;0.035825957;-0.043050233;0.078737624;-0.07592528;-0.07475161;0.037904162;0.0773214;0.013253405;-0.06497786;-0.048124723;-0.06814117;-0.08242186;-0.01572117;0.044365685;-0.09330855;-0.01608664;0.06921909;0.0027113133;-0.020293603;-0.06272434;-0.010897877;-0.06954888;0.028462645;0.021871839;0.0142536145;0.08522222;-0.049726114;-0.08462249;0.018271657;-0.057495076;0.029131582;-0.10751244;-0.05328369;0.03464144;-0.0014991607;0.022091454;0.10192924;-0.038964447;-0.078535154;0.033381216;0.018847002;-0.04186824;-0.024417413;-0.084018216;-0.016355248;-0.006622659;-0.019466862;-0.0017691415;0.055262078;-0.0594833;-0.094989456;0.111959375;0.01206098;0.011109501;0.0058729765;0.00677266;0.024931386;0.035835464;-0.0637069;0.047383863;-0.12196231;-0.02562866;-0.03074609;-0.015915256;-0.044110145;-0.06933573;-0.091519155;-0.044676844;-0.09902952;0.14230803;-0.06444542;0.0066882665;0.059648927;0.06441284;0.032286875;0.019047197;-0.00419869;-0.08231464;-0.08653137;0.009413135;0.010947518;0.04451759;0.052408945;0.017475203;0.057043325;-0.040972337;-0.02237713;0.03392746;-0.021254094;-0.041545093;0.07593759;-0.08474666;-0.028552681;-0.0023088255;0.01951578;-0.0642914;0.038021468;-0.08014106;0.0027604743;-0.045893583;0.024651406;0.036838353;0.029280778;0.054783203
-0.069647335;0.016263211;-0.0703136;0.06462651;-0.046590466;-0.0011958271;0.042568523;0.0067069614;-0.13268256;-0.019721981;0.09378544;-0.017528733;0.036630295;0.082848;0.016689552;-0.12030029;-0.12535805;0.038088806;-0.045289014;0.056249883;-0.018392202;-0.02199086;-0.057536025;0.16434513;0.084497854;-0.012089813;-0.029481806;-0.061569225;0.10597777;-0.03377865;0.057848938;0.06437624;0.036351107;-0.04371453;0.052396756;-0.052347846;0.06003039;0.0124027785;-0.008636584;-0.010270631;0.020751132;0.039429583;-0.029709818;-0.014832527;-0.019977793;-0.014398357;-0.12884186;-0.070547745;0.03745695;-0.10097683;-0.10874744;-0.05055411;-0.0444072;0.04933472;-0.0019731857;0.05104177;-0.052087165;0.053102102;-0.013675078;-0.054458894;0.05213671;-0.0380349;0.0068590804;-0.077918895;0.0053211404;-0.018999657;0.119083904;0.03465703;0.0395198;-0.04667325;-0.014145243;0.08666585;0.0571711;0.058954142;-0.084907085;0.067389384;-0.028065339;0.024577592;0.1060138;0.0041327947;0.01975987;0.06770829;0.020893283;0.041397348;-0.08363429;0.00013604926;-0.022458794;-0.1343618;-0.027666843;-0.015597246;-0.05266346;0.021934042;0.09839264;0.084748626;-0.07651534;0.0014162405;0.021984937;0.043191746;-0.10377582;-0.016288755;0.07297556;-0.012324232;0.11632417;0.08187976;-0.014627956;-0.00074914424;-0.08333223;0.06424293;-0.0335486;-0.0417253;0.0043391343;0.026246602;0.014332258;0.06496764;-0.062465414;-0.042011388;-0.06187285;-0.0750393;0.008066571;-0.038384266;-0.039080083;0.021304647;0.1279151;-0.073079824;-0.010552454;0.066078715;0.06434629;-0.0703827;-0.03361896;-0.06871158;0.05443872;0.02037894;-0.01895754;0.06607803;-0.1481705;-0.02288622;-0.016485522;-0.047728207;-0.033262406;-0.020111805;-0.03724228;-0.022732133;-0.06817038;0.0064166337;-0.0085971095;-0.08006858;-0.07242827;0.072844565;0.09320149;-0.062450886;-0.11490661;0.042304683;0.01380415;-0.00080748554;-0.076223105;-0.047610413;-0.08671069;0.06564844;0.055206798;0.0011482021;-0.0009946164;0.03012163;0.016758787;0.08277816;-0.14600503;-0.030534659;-0.054598514;0.12093068;-0.07443544;0.05741887;-0.13757071;-0.0826435;0.015689824;-0.04968052;-0.011732716;-0.007078144;0.07787742;-0.000438546;-0.11525269;-0.06222349;-0.035017356;0.01180654;-0.06135558;0.04309906;0.017727131;0.063977234;-0.03028362;-0.010330176;0.06637095;-0.008177485;0.0056176293;0.058856353;0.009214586;0.0074437554;-0.020864006;0.09788652;0.038708393;0.06889764;-0.07192006;-0.011648685;-0.08666858;0.077513605;-0.023279786;0.009924668;0.018221378;0.051527936;-0.058256682;-0.08767569;0.022146882;-0.09924255;-0.08150563;0.0037435882;-0.077903025;-0.035718683;-0.0067423503;-0.12037641;-0.09917329;0.10606282;0.13606039;-0.033449244;-0.09000114;-0.06258044;-0.066647366;0.02516246;0.0616582;0.008398405;-0.05592213;-0.010698876;-0.042559806;-0.0141111165;-0.023441123;0.02503883;-0.07069533;0.016353449;-0.015522848;-0.074844494;-0.07765437;-0.035206523;-0.027802384;-0.009732384;0.0041203834;0.019283814;0.032737583;-0.019711487;0.056272924;0.069745995;-0.011202983;0.03628251;-0.06958411;0.03189914;0.016611353;-0.010070945;-0.022319548;0.046427354;-0.09286409;-0.120536365;-0.007891365;-0.076686144;-0.08961296;-0.070171654;-0.054524027;0.049896844;0.021354787;-0.08391314;0.06230567;0.028800685;-0.045718282;0.043097075;-0.04281156;-0.025635194;-0.04344238;0.012590734;0.02951819;0.13355006;-0.050310798;-0.004588508;0.06890509;-0.015640907;-0.058838114;-0.10665455;0.06680565;0.0044431067;-0.053949613;-0.03258756;0.04365424;-0.071079604;0.0877683;-0.06609428;-7.193326e-05;0.0798258;-0.039737634;-0.05465961;-0.020911383;-0.03234211;-0.08594345;-0.031188818;0.032940827;0.020419445;-0.042033736;-0.007422759;0.02182042;0.07109464;-0.07475395;0.026915444;0.13688682;-0.014599364;-0.057202127;-0.009210815;-0.081161834;0.032328725;-0.03262625;-0.055935517;0.048705384;-0.052570786;-0.080875084;0.063918166;0.06846053;0.014555857;-0.05029485;0.034653526;-0.0027822808;-0.035032637;0.07907095;0.078029275;-0.060594626;-0.053844612;-0.03609045;-0.018445257;-0.058492802;-0.025509367;-0.042763405;-0.06862221;-0.023336396;-0.017625738;-0.01783049;-0.058297344;0.023014639;-0.034545537;0.073846705;-0.07124959;-0.0066475305;0.053426005;0.093906134;0.04972326;0.07714951;0.04439258;0.10297546;-0.10061802;0.002259433;-0.004810528;0.03560529;-0.037561808;0.021083577;0.051354222;0.053827368;0.00694461;0.0078093526;0.053239234;-0.05688092;-0.06375695;-0.15512687;-0.111324266;-0.07673485;-0.010080883;0.08854387;-0.07819758;-0.02336549;-0.01730421;0.044343997;0.046972796;0.010862483;-0.026844934;-0.015788615;-0.06245425;0.03722518;0.058590606;-0.09494799;-0.040865794;0.009906653;-0.0037276084;-0.039787002;-0.07094298;-0.070926875;-0.04903426;0.007616442;0.06560315;0.07698713;-0.08666572;0.044376608;0.06416761;0.027332911;0.07861978;-0.04117831;0.009822844;0.014947925;-0.018367294;0.036246732;0.00766177;0.044883303;-0.022507194;0.017167918;-0.0120166745;0.0034078823;0.010329969;-0.14307404;-0.07827162;0.03948774;0.05994417;-0.039391957;0.033649933;0.039494373;-0.10022763;-0.040810265;-0.04890408;0.07783815;0.013564926;-0.008528914;-0.04836134;0.062133383;0.0632133;0.050671756;0.14712106;-0.00041246068;-0.071775354;-0.024129476;-0.03850981;0.0045862338;0.054738864;0.12766695;-0.0027425226;0.056930896;-0.037989978;-0.06676489;0.04418163;-0.02373892;0.02039634;0.026804533;-0.078125894;-0.061033864;0.13146792;0.0057013384;0.051494088;-0.057364915;0.075464554;-0.007773069;0.0023954601;-0.07653644;0.07762037;-0.066310555;0.029099109;-0.03977965;0.065215886;0.090138815;0.06378866;-0.11582324;-0.0750241;-0.008253508;0.07048611;-0.053833317;-0.0867312;0.050823607;0.052579332;0.0053966977;0.10875643;0.0025348018;-0.1087761;0.094764836;0.012601875;0.07916028;0.044032548;0.056868326;-0.013799953;0.07448859;0.022939784;-0.014139664;0.02387282;-0.0032042295;0.121585876;-0.00058486237;0.08717619;0.008836254;-0.05918202;-0.0040433984;-0.039463054;-0.0743819;-0.0017153955;0.007922841;-0.0365594;-0.03856052;0.02073599;0.081568345;0.0727265;-0.040923722;0.08456233;0.056227755;-0.03914842;-0.0044950936;0.050355047;0.031600785;-0.053821657;0.102512464;-0.037807036;0.08801701;-0.09880362;0.07155082;0.037705403;0.031486075;-0.011048598;-0.0053444137;-0.053278316;0.0063691125;-0.036544163;0.023408387;0.011859961;-0.03310832;-0.037351493;-0.07767258;-0.01057644;0.014735838;-0.028711768;0.03045357;-0.036677774;-0.10041987;0.028428216;0.04578137;-0.031521898;-0.07269168;0.06511959;-0.07657658;0.057128243;-0.07101998;0.07309722;-0.11047127;0.05280607;-0.030038632;-0.059245214;0.07302334;0.019635415;0.016606154;-0.15345109;0.0030781939;0.09877131;0.08173144;0.050131902;0.021779578;0.08858379;-0.13048586;0.10754973;0.060503166;-0.07658361;0.052674253;-0.037898913;-0.06215957;0.010404592;0.029581178;-0.046991967;-0.008435711;0.015869536;0.03543892;-0.05813191;-0.07985879;0.017484725;-0.033886693;-0.021818846;0.05477752;-0.05585656;0.06276844;0.07845633;0.028697459;-0.042688973;0.083134644;-0.063143335;-0.07092413;-0.03082041;-0.07454249;0.026251959
-0.04273326;0.043279618;-0.07255191;0.046901822;-0.122259766;-0.10262419;0.03104186;0.035731446;-0.04701563;-0.095409974;0.004972397;0.024817169;0.039141178;-0.0061390297;0.029373607;-0.10897417;-0.021963598;0.023488108;0.07790201;-0.006156213;-0.10642029;-0.08554444;0.06416339;0.06933293;-0.0328675;0.0020464791;0.04385592;-0.00023847987;-0.0013431945;0.05778526;0.060823806;-0.029325377;0.07581829;0.018692493;0.051697657;0.059670847;-0.03021405;0.06279885;-0.02081111;-0.024622418;-0.028635057;0.06389471;0.03206854;-0.07718013;0.03882156;-0.043161307;0.084047295;-0.023744266;-0.031868774;-0.15633558;-0.063180685;0.054277964;-0.078482226;-0.07739239;0.06452942;-0.068305105;-0.058187384;-0.014389129;0.12167196;-0.03889765;0.07454865;-0.034466382;0.040720332;-0.070708886;-0.0025733148;0.037422866;0.0038661424;-0.051911768;0.0073968186;-0.036203172;0.028280687;0.049343206;-0.07541088;0.04193798;-0.088422075;0.019259745;-0.07296764;-0.03183193;0.194458;-0.059695672;0.05783817;-0.051460337;0.04247361;0.007852909;-0.012668973;-0.06091002;0.06994653;-0.19223861;0.009743423;-0.06331338;0.038094353;0.04420123;0.017381778;-0.008050316;0.06500041;-0.04407912;0.014703503;-0.014633221;-0.13473086;0.020410892;0.0628783;0.0039016462;0.02849225;0.008298721;-0.048982367;0.052577928;0.011628527;-0.079018526;-0.0037390823;-0.011261835;-0.05797407;-0.06484685;-0.013368692;-0.032300152;0.030533137;-0.001511455;0.057685215;-0.072803915;-0.037571505;0.041477293;0.028534995;0.05722899;-0.072220124;0.08647289;-0.05652911;0.023258891;-0.0034581122;-0.021656811;-0.047569115;-0.017574575;-0.021568127;0.0061403993;0.031522535;0.031572536;-0.156246;-0.005958149;-0.016657662;0.07399617;-0.023651628;0.06461086;-0.046150316;0.027509274;0.09740478;-0.011887695;0.0025517298;-0.050845634;0.09804316;-0.015466554;0.17435814;0.03824475;-0.026571747;-0.11005135;0.023226095;-0.05533858;-0.03434242;0.067138;0.071137846;0.10681983;0.06231938;0.07569359;-0.0012134525;-0.094923116;0.038471404;-0.036216725;-0.15216729;-0.0054570404;-0.03363003;0.151613;0.03286165;-0.025755016;-0.16678111;0.04666582;0.0200592;-0.00509334;0.0099311955;-0.018888842;-0.05762795;-0.0047752773;0.03947554;0.05725136;-0.14870782;0.0043438366;-0.03427272;-0.019309813;0.12270228;0.04609146;0.018466173;-0.012125119;0.032540724;0.07630142;0.018308481;0.008548641;-0.0061573056;-0.02987314;0.038281687;0.09834949;0.025922965;-0.015375423;-0.04864932;-0.122753404;-0.012646142;0.03319608;-0.06774248;0.05213867;0.041948065;-0.071831875;0.0032173125;-0.03816988;0.0006291036;-0.0041264216;0.08808172;-0.027557932;-0.036587458;0.00036451247;0.029088635;-0.19307359;-0.22952957;-0.053721618;0.050414994;-0.08547157;0.01035484;-0.08389142;0.04836919;-0.07500634;-0.060130917;0.08166936;-0.059097238;-0.10406418;-0.03128273;-0.007524224;-0.03600028;0.07729453;-0.001393311;0.094208226;-4.1194744e-06;0.005586018;0.023256946;-0.004583247;0.04003667;0.045974158;-0.002747344;0.04896907;-0.050354075;-0.016190195;0.059288267;0.015610935;0.077353634;0.02708146;0.056574482;0.056685288;0.008750365;-0.087288715;-0.02719438;0.046902508;-0.026584765;0.01998869;0.06269316;-0.058179814;-0.08029815;-0.009040392;-0.073795676;-0.09027136;0.018150486;-0.00818345;0.05831527;-0.050186142;0.061751634;-0.024847511;-0.007371315;-0.05349364;0.03210647;0.08172352;-0.08449176;0.022392558;-0.008926227;0.03626339;0.120549686;0.048857138;-0.09547337;-0.06243427;-0.024119062;0.0058120447;-0.120388255;0.06163928;-0.06252057;-0.015181764;-0.038276844;0.007843441;-0.066229045;0.05391342;-0.066817336;-0.041333396;-0.039126385;-0.09681702;0.01491855;-0.03654555;0.014506815;-0.026412293;-0.012737098;0.07790928;0.056058094;-0.003628766;0.015503317;-0.044564903;0.10180363;-0.040546034;0.033081375;-0.026651843;-0.039593183;-0.081739254;-0.009871334;-0.008591788;-0.027223181;-0.00020420359;-0.06949571;0.021453073;0.03922847;-0.016077144;-0.025138564;0.062689155;-0.023776827;-0.06016302;0.08506142;0.040653963;-0.004868748;-0.022351837;-0.24744435;0.048128705;-0.011446912;-0.04600941;-0.0496012;-0.09910989;0.02467238;-0.046449233;-0.033763897;0.04443195;-0.0887748;0.084578745;0.0021506264;-0.043778546;-0.08677188;0.07683402;-0.032024942;0.034453977;0.030448869;-0.03630793;0.25572565;-0.1377063;-0.034094255;-0.0060144053;-0.07329495;0.02823655;0.054376747;-0.00010186102;-0.05670802;0.04019795;0.010315817;-0.043578044;-0.092836365;-0.049626302;-0.17924005;-0.046593454;0.005930606;-0.08240095;0.12563214;-0.04518132;0.06509206;-0.05866624;0.0073426873;0.0012615945;0.059848033;-0.011152031;-0.025830707;0.036257036;0.04953136;-0.007647007;-0.014262397;-0.012277569;-0.0011434915;0.0060027353;-0.053143606;-0.010278574;0.039826147;-0.06984912;0.011495213;0.038795557;0.05480399;-0.07648414;-0.002025141;0.045024935;0.047539197;0.08853176;0.05514882;-0.06553878;-0.025428606;0.119330265;0.012011737;0.06579292;-0.047621377;-0.0373707;0.035915367;0.018421598;-0.06023179;-0.028119652;-0.03431548;-0.088416494;-0.053526003;-0.045833036;0.07592228;-0.042785976;0.03978242;0.018278217;0.037910793;0.08481756;-0.004705499;-0.04832378;-0.04543542;0.031625643;-0.06498712;-0.04979572;-0.06192671;-0.060350113;0.043461584;0.020824779;-0.12602717;0.05911301;-0.035275597;0.023393704;-0.043595675;0.017100435;0.04656486;-0.0076675224;-0.037265178;-0.0847601;0.010431791;0.00229331;-0.07257262;-0.024826644;0.059813697;0.1116432;0.031032609;0.028838046;-0.06362041;0.0518908;-0.018702107;-0.07162773;-0.048177566;0.0116344;-0.034313835;-0.05497834;0.00023477263;-0.043748852;0.049411602;-0.07970267;0.06670542;0.093420565;0.034669127;-0.050074957;0.036256686;0.018646332;0.039710063;0.017236814;-0.08486169;0.09069645;0.06514712;-0.041218136;0.11204123;-0.019050928;0.0070157144;-0.00471676;-0.052244212;0.0832971;-0.046172462;-0.00015499024;-0.013010805;0.085438006;-0.055535346;0.083044775;-0.010312378;-0.02424054;0.057037264;-0.06437118;-0.03096413;0.1252463;0.021874899;0.022131423;-0.010657878;0.012552236;0.08605204;0.0016962942;0.072607845;-0.06493765;0.024216495;0.04482484;-0.028995242;0.0025099944;0.07842467;0.14127411;0.018784726;-0.0031398034;0.011561089;0.058504287;-0.068955794;-0.025308393;-0.081410274;0.035981033;-0.0861108;-0.1062126;-0.012999406;-0.072798505;-0.08355962;-0.058802452;0.08455855;-0.0061198454;-0.010771729;-0.06621832;0.00825238;0.012847295;-0.014299572;0.024600318;-0.06579144;0.020661458;0.021275638;-0.061136506;-0.05996147;-0.044363108;-0.015199347;-0.01291268;-0.09963683;-0.017990638;0.0008329303;0.03533002;-0.060783766;0.08709658;0.018416408;-0.053316116;0.0420909;-0.00851813;-0.016400388;-0.2099254;0.07512221;0.07127311;0.08045852;-0.039415814;0.09191971;0.05234495;-0.124307945;0.16413109;-0.01052509;0.055446275;-0.08759364;-0.040127352;-0.00012458234;0.016030548;0.05043171;0.015242158;-0.06044201;0.07434305;-0.07447719;0.051132374;-0.053719185;0.019212509;-0.031066522;0.039274063;-0.021105537;-0.0029228083;-0.09814125;0.04296776;-0.01750323;0.05891765;0.047056377;0.08556501;0.04581638;-0.058604926;0.010211511;0.08646927
0.10381418;0.09862324;0.08144292;-0.003445434;-0.12038742;0.06102619;-0.011680604;0.08237166;-0.09560027;0.1080724;0.034917243;-0.010241787;-0.013834317;0.06479386;-0.034643196;0.02519196;-0.09052048;0.0101366285;0.010572071;0.08794865;-0.037785552;-0.08669581;-0.05615136;-0.04740288;-0.027297767;0.0780934;-0.0028984153;0.0696867;0.06817125;-0.04366424;0.0018369892;-0.0008520266;0.054268774;0.0050392556;-0.120645545;-0.030841636;-0.016919173;0.077921495;-0.049156148;0.007041961;0.07635779;-0.05593802;0.022493742;-0.03503217;-0.020821005;0.0035006935;-0.0544437;0.05607343;-0.10634692;-0.013404397;0.0026806225;0.034944445;-0.073330514;-0.004771122;-0.030373398;0.04683033;0.027660538;0.0034595663;0.12009043;-0.017241348;0.02645468;-0.08596373;-0.032619473;-0.004778639;0.0803392;-0.0011360397;0.010528197;-0.005107591;-0.050266083;-0.061042868;-0.0002199411;0.0095183505;0.0808038;-0.073259816;-0.16602072;-0.01531736;-0.021696087;0.011393639;0.13211137;-0.1364391;-0.012568551;0.101107076;-0.00530481;0.06344709;-0.027305834;0.09497762;0.05464325;-0.23527524;0.023542343;0.015951445;0.061130997;0.043450262;0.092452615;-0.02381867;-0.052003384;-0.011485584;-0.019810155;-0.03657182;-0.08839868;0.009511489;0.05624139;-0.017392429;0.023082722;-0.04445764;-0.05626445;0.0053648883;-0.053577375;-0.05886011;-0.082063824;-0.009601488;0.07752577;0.057375345;0.018166607;0.08985772;0.045276485;0.051351696;0.054096546;-0.041423976;-0.035590135;-0.002763886;0.027807696;0.045546576;0.06938568;0.015885262;-0.042376455;0.06417341;-0.034352217;0.032521717;-0.078429334;0.04882059;0.06023261;0.007613471;0.05093421;0.07769397;-0.080220304;-0.0623596;-0.047385395;0.025710715;-0.030063165;0.0035713345;0.030773548;-0.07955424;0.0040519307;0.089297414;0.005056083;-0.023820516;-0.10019997;-0.0126631865;0.1563374;-0.05899709;-0.042880163;-0.117566;-0.020548068;0.03906099;0.000485725;0.05242136;-0.013697539;0.01860593;-0.03408662;0.0010898229;-0.060256336;0.027113345;-0.02037879;0.048267223;-0.20627673;0.019311417;0.07524474;0.04049058;-0.05865719;0.017407184;-0.16711906;-0.03050973;-0.02200456;0.06178302;-0.05843718;-0.0361879;-0.012696616;0.07119832;0.060955506;0.07789055;-0.1400616;0.098808214;-0.030458387;0.0033997074;0.12706484;-0.02305369;-0.01105465;-0.045308474;0.030449495;-0.005334791;-0.011844226;-0.061551277;-0.14497524;0.024859892;0.028760707;0.034786962;-0.017556205;0.018353408;-0.01665092;-0.19014868;-0.02249023;0.040800586;-0.0066618985;-0.06781763;-0.08223126;0.04809513;-0.041946992;-0.11567752;0.049805764;0.0020391387;0.024620906;0.057186488;0.022160335;0.08522758;0.043046597;-0.06066484;-0.25006598;0.049780242;0.015739623;0.071240835;0.06011113;-0.11424475;0.035726044;0.080199085;0.010190178;0.014175464;0.011238111;-0.068929;-0.03342902;-0.03753531;-0.10479387;-0.031955283;0.061225735;0.085601166;-0.029854035;-0.059905678;-0.011969048;0.095718116;0.013036358;0.023935039;0.104607195;-0.06016564;-0.022148432;-0.07741196;-0.014408836;0.075972274;-0.012517545;0.048971914;-0.06767181;0.099661775;-0.0320658;-0.016704336;0.058171805;0.047216132;0.057747494;-0.0025211663;-0.009209588;0.0029252402;-0.031565227;-0.059401836;-0.05897841;-0.08371052;0.026582612;0.04235628;-0.03657501;-0.006645783;0.046755567;-0.07972311;0.04412534;0.003517391;-0.0037423852;0.030845756;-0.014579033;0.13011582;-0.096868984;0.010326562;-0.06976842;0.024739979;0.024455598;-0.055032555;0.027419409;0.054825205;-0.0715317;-0.087409504;-0.023878954;-0.04977984;0.002298412;-0.06860608;-0.043280274;0.04156213;-0.009232766;0.06985479;0.037842065;-0.03817642;0.033549022;-0.028574603;-0.04758421;0.01910891;-0.03853639;0.025524423;0.0029587038;-0.04796639;0.012207148;0.05932065;0.079620205;-0.0557586;-0.028299922;-0.059399705;0.077157184;-0.06549764;-0.04437039;-0.009503869;0.03880582;0.034044806;-0.12177303;0.030598566;0.057984207;-0.027134143;-0.02397288;-0.03356341;-0.08871425;0.13120255;0.0072833067;0.10334205;-0.0073025175;0.055246875;-0.120868176;0.025670307;-0.095346585;0.0042340057;-0.007240377;-0.08073652;0.076625235;-0.00788477;0.036092833;0.031694148;-0.003670422;0.087971315;-0.05175895;0.036572672;-0.012021005;-0.00023791865;0.07181132;0.042549454;0.020903913;0.012953241;0.16639195;0.013921077;-0.06775838;-0.05401132;0.036865287;-0.012135854;-0.05417866;0.065352425;-0.036148842;0.05781408;0.052293655;0.032757483;-0.049101442;-0.031817347;-0.095557235;0.015809951;0.03157257;0.03388735;0.05185357;-0.03991513;-0.06658308;-0.012512624;0.07014659;-0.00033274668;-0.033511657;-0.022751875;0.10771352;0.011956757;-0.040327102;-0.046824776;-0.04144745;-0.12121115;-0.025752747;0.017889094;0.08467914;-0.044410802;-0.03104586;0.063468866;0.00051519275;-0.04916279;0.036539715;0.02888037;-0.07244843;-0.012497741;-0.029392932;0.10128929;-0.017897034;-0.055840496;0.0028047904;-0.01777311;-0.0782253;0.05678978;-0.06331369;0.051584743;0.022101842;-0.009181443;-0.13828957;0.0068368986;-0.12000509;0.044634398;0.028301146;-0.1248336;-0.0445903;0.07557247;0.047529012;0.03712304;0.03262021;0.0025676452;-0.06690361;-0.08356368;0.08769963;-0.04719179;0.06313163;-0.043475587;-0.017028706;0.09266987;-0.061477724;-0.03961264;-0.03336564;-0.068236984;0.041973315;0.053341087;0.11187311;-0.01710647;0.040592015;0.055502042;-0.012154672;-0.042105854;-0.007445574;0.00029063065;0.057559278;-0.0576945;0.06494821;-0.039885625;-0.07690191;0.024431372;-0.033293467;0.037419353;-0.06213673;-0.058989316;-0.082932875;0.099404104;0.06188773;-0.042563874;-0.016059041;0.0335617;0.08377538;-0.047402687;0.049673196;0.11366981;0.0176469;0.1039937;-0.08013761;0.009682943;0.014481716;-0.03522219;0.07018284;0.09122195;-0.04089701;-0.1621975;0.057530954;-0.0003258299;-0.007836782;-0.07693831;-0.06294943;-0.040413786;-0.029962108;-0.036898475;0.02846012;-0.031950917;0.020193875;0.12203889;0.06737111;-0.012046677;-0.1337824;0.023051595;0.07348755;0.0504378;-0.013189917;0.034156278;-0.028348168;-0.0060245823;0.09497363;-0.040648926;0.028976334;0.035637513;0.055351514;-0.050483968;-0.041076593;0.008750862;-0.0010170662;0.0732646;0.057539023;-0.04935485;-0.0070162956;0.008272114;0.05183204;-0.05689807;0.08177803;0.087137714;0.03478859;-0.058863617;0.13190302;0.017965168;-0.017506106;-0.05829334;-0.025085766;-0.01904913;0.049103744;0.08833785;-0.035951093;0.11436457;0.07785061;-0.0009839333;0.014991775;-0.0025516958;0.056359693;0.0038383694;-0.0034846717;0.037129015;0.055693448;0.027777063;-0.06877819;-0.025307165;0.06917821;-0.048319306;-0.0895338;-0.0626513;0.032790583;0.005212475;-0.06515111;0.019305266;-0.07090426;-0.11334266;-0.042013083;0.028989632;-0.0061552804;-0.057903558;-0.03947018;0.037280466;0.033224277;-0.0140214935;0.07176929;-0.07444643;-0.08962051;0.034970198;0.07353208;-0.02668043;0.09079193;0.10508741;0.100901745;-0.039751854;0.007792289;0.04119432;-0.0612762;-0.00552093;0.017212022;0.06338859;0.065806285;0.059729755;-0.0007537706;-0.03766239;0.03184075;-0.08328229;0.004453242;-0.030867446;0.014584287;-0.034615446;-0.042279687;-0.005412874
0.06929172;0.025893077;0.06858042;0.0946417;-0.055664457;0.036217257;-0.039746504;-0.044414084;-0.0556252;-0.0658482;-0.04639242;-0.06960784;0.00392823;0.053145703;-0.0663052;-0.14658633;-0.11991305;-0.05068023;-0.06374987;-0.023280554;0.010939831;0.007462141;-0.06377408;-0.022739626;-0.04639693;0.09552117;0.02969166;-0.067599624;0.021695606;-0.03951463;0.024830509;-0.08966692;0.07221811;-0.022735907;0.047251604;0.06094511;-0.069904104;-0.008646933;-0.042969204;0.037041936;-0.043093614;0.13565044;0.022776896;0.0007806579;0.00062092644;-0.028421072;0.019187575;-0.0029261585;-0.053949222;-0.04163446;-0.18672691;0.10298521;-0.09849305;-0.09003713;0.016706906;-0.10604679;0.06514312;0.065349676;0.12446432;-0.06285435;0.0020106535;-0.09645966;-0.006796003;0.006837636;0.056607127;-0.0018698849;0.016412452;0.12964864;0.032664437;-0.015010365;-0.041217964;-0.072206646;-0.044138044;-0.016498158;0.005856771;0.019980157;0.0025836346;0.053370923;0.077820875;0.08089713;-0.026107788;-0.019496286;0.022451475;-0.0056549446;0.080068156;0.0077633;0.01749636;-0.19772603;0.040091746;-0.0298666;-0.06380354;-0.118220516;0.15325145;0.019352887;-0.028193038;-0.06599883;0.08682161;0.030278554;-0.04246138;-0.04154303;0.045733217;0.059344154;0.05146553;0.03723183;-0.029032603;0.034580816;0.051158927;-0.09084137;-0.06633712;0.045494597;0.0732281;0.019481318;-0.06853004;0.035644192;0.036562815;-0.040350486;-0.03208295;0.04332471;-0.025323667;-0.024213169;-0.03740675;-0.10449759;0.028229363;0.096494295;-0.043734208;-0.046004567;0.0003780073;0.02108151;-0.007922322;0.006706117;0.052485082;0.095347;0.02119567;-0.007128289;-0.034093585;0.01327423;0.017238116;0.041425772;0.02996887;0.05832561;-0.040278412;0.01481743;-0.03960612;-0.038077816;0.046496674;-0.051134292;0.038060356;-0.029132526;0.117200844;-0.0276073;0.020697463;0.072408155;-0.090962954;-0.1060845;0.07275786;0.09064038;0.115410514;0.018787531;-0.025698576;0.014916085;0.01627987;-0.0008164343;-0.13466673;-0.05780662;-0.15055865;-0.04389995;-0.005550922;0.029791778;-0.0026385784;0.003133881;-0.23028275;-0.06422136;-0.08454619;0.04287277;0.057575967;-0.04925637;-0.016728103;-0.042185705;0.03432098;-0.03688532;-0.09757219;0.029482054;0.054183606;0.046244014;0.082915194;0.053566426;-0.01989699;-0.035243288;0.05517797;-0.041299887;-0.016576683;0.006548143;-0.055270143;-0.040458027;0.095930554;0.17101978;-0.031023728;0.08043001;-0.06903668;-0.20986107;-0.07046795;-0.032245167;-0.048152335;-0.014720873;-0.005947086;-0.06656615;0.05005434;-0.10078786;0.08927358;-0.054878727;-0.063124284;-0.0638838;-0.09519326;0.023984155;-0.0420455;-0.19049843;-0.21834806;-0.07593547;-0.09188917;-0.04071906;-0.06153938;-0.017558536;0.097339295;-0.07098636;-0.05307847;-0.014507066;-0.08105099;-0.005916072;0.10933739;-0.04908299;0.060488746;-0.025633685;-0.037667576;0.008372087;0.066102184;0.024816168;0.009259523;0.00084707234;-0.0569088;0.015954621;0.06067876;0.0042969254;0.06550829;-0.04299555;0.022533782;0.07312583;0.038875636;0.01737642;0.078493364;-0.010540589;-0.053267177;-0.040019512;0.0065499684;0.02869548;0.007743928;0.07821359;-0.034249306;-0.016926944;-0.07244823;0.007417925;0.054427743;-0.0007500062;0.032575928;0.09242317;0.014730057;-0.05800208;0.12004736;-0.08868464;-0.021297168;0.11988441;-0.015556167;-0.03707523;-0.08510661;0.155637;-0.13812283;-0.04102659;-0.010560169;0.059874427;-0.030346455;-0.020207511;0.08500893;0.0038603665;-0.08595471;0.06659522;0.0546969;-0.05737707;-0.107053466;0.00033525965;0.017821746;0.08242865;-0.04232482;0.14739294;-0.14923422;-0.017498402;-0.082190834;-0.047815725;-0.059265886;-0.069011584;-0.019349456;-0.0061831553;0.034180645;-0.04523432;-0.10525783;0.0375492;0.10223325;-0.05588482;0.05858403;-0.07878924;-0.032175805;0.044968195;-0.1069168;-0.005317219;0.02874447;-0.055566363;-0.07832569;-0.04053972;-0.029217945;0.081717804;0.068834014;0.051561706;-0.048407096;-0.0091276625;0.02831961;0.05534762;0.04693349;-0.025320424;-0.17222615;0.08156619;-0.030541921;-0.10213397;-0.06199261;-0.052164916;0.060074065;-0.059159532;0.067141056;0.15508728;-0.013736745;0.043967575;-0.024472972;0.034005407;0.039079662;-0.03312067;0.017259907;-0.037128292;-0.069438905;0.05602541;0.16170062;-0.08882435;0.046482984;0.044461492;-0.0040973276;0.041818257;0.012833731;-0.061148774;-0.07102656;0.030317605;-0.025127295;-0.036562756;0.017494833;-0.050241753;-0.2026603;0.02419076;0.14106205;-0.00011514947;0.15154625;0.029801905;0.026105987;-0.031562187;0.01144453;0.02059222;0.0031773678;0.026105525;0.019645585;0.0287531;0.10315434;-0.065411516;-0.008543383;-0.05568647;-0.025894789;-0.0063202567;0.009630113;-0.019874405;0.010275569;-0.04312923;0.039134573;-0.026944408;0.04941944;0.06474041;-0.058888674;-0.000612683;0.027344253;0.047822196;0.08501724;-0.08461724;-0.04968753;0.12687337;0.011218048;-0.04283265;-0.07008761;0.007702322;-0.0014023844;0.012762854;-0.15122794;0.04648207;-0.0075835786;-0.009566276;0.03921317;-0.02176916;0.042707436;0.01071924;0.02788026;-0.07449446;0.04670755;0.09911272;-0.043312863;-0.06121551;-0.05970409;-0.013498074;0.00034929425;-0.049606167;-0.047343597;0.010401069;0.04427233;-0.057826977;0.01892348;-0.09991091;0.06516194;-0.07331727;-0.006039904;0.02482051;0.012118847;-0.035111107;0.057338867;-0.07703092;-0.06136091;-0.09234309;0.014803472;0.07056261;-0.030254774;-0.02034619;0.03752884;-0.041399647;-0.04919474;-0.03696099;-0.05549597;-0.029825998;-0.05668763;-0.0052439636;0.03273978;0.06543875;0.0146834105;0.096074134;0.04106492;-0.057882592;-0.048020877;0.032006875;0.08246934;-0.010161353;-0.022424432;-0.028113455;0.007206352;-0.056281507;0.032322545;0.054143205;-0.035110272;-0.10020159;0.14606594;-0.043972112;-0.0064522554;-0.009319318;-0.09855701;0.1031778;0.045637973;-0.028261805;0.006174632;-0.0019956129;0.024705967;0.14896801;-0.050144996;0.07561305;0.038176797;0.074140616;0.08836455;0.08934314;-0.066995814;-0.084179;0.09481254;-0.05996561;0.07830704;-0.063776724;0.0841947;-0.10907962;0.026144609;-0.02490625;0.027960544;0.06890631;-0.02443226;-0.022226127;0.08544463;0.09389569;0.004812309;-0.011827297;0.05053157;-0.0054675583;0.08560124;-0.049829036;0.0061944663;-0.07364945;-0.024471965;-0.010506272;-0.032587904;0.023115942;-0.009106295;-0.021222074;0.092019916;0.045484375;0.06768332;0.03564133;0.024078822;0.07675966;0.027488424;-0.016687851;0.02141443;-0.048663195;-0.062669985;0.04861425;-0.018345794;-0.07268071;-0.09389748;0.024379708;0.04234075;-0.027379228;-0.04723825;-0.030563911;0.072424784;0.033984948;-0.051698282;0.037297998;0.03149264;-0.12876892;0.01009687;0.14553487;0.029556697;-0.077590846;0.06959057;0.06676259;-0.039449826;0.14364523;0.03915539;-0.05918093;0.033160504;-0.059806157;0.052953873;0.04208162;-0.05784061;0.14731345;-0.037724353;-0.050152507;-0.01832172;0.06269563;0.0840996;0.029259253;0.14095587;-0.06202212;0.0050984966;0.03911294;-0.09048161;-0.07004614;-0.032742374;-0.069892794;-0.010411213;-0.010316389;-0.027515654;-0.018979732;-0.030318826;0.011576083
0.040890027;-0.060780834;-0.0056402455;0.055472612;-0.0431021;0.037295725;-0.055594333;0.0056784884;-0.12603943;0.13390906;-0.03442797;-0.07374073;-0.07830074;0.028571364;-0.06495014;-0.0014317546;-0.038336504;-0.08673745;0.0849736;0.054854125;0.059762467;0.06277775;0.063848354;0.0958768;0.068071485;0.01109432;-0.049656145;-0.0657373;0.104069725;0.060027145;0.06372003;0.01876887;0.03904634;0.061496995;-0.14773425;-0.0015633404;-0.028883293;0.014623002;-0.017439613;-0.007324962;0.054664634;-0.0030467499;0.12443116;-0.036768563;0.04981959;-0.0062955907;-0.07002534;0.02577899;-0.15807283;-0.061743308;0.015573399;0.009037214;-0.0004927656;-0.041080814;0.012578948;-0.089485615;0.058284182;-0.032681238;0.15295757;0.041272745;-0.021904597;-0.050396215;0.05351994;0.011173836;0.0014829184;-0.024745319;0.025259793;-0.047453146;-0.09512149;0.024830302;0.019907253;-0.038088247;-0.047135208;0.03631915;-0.22218087;0.0012687674;-0.07318844;0.062472817;0.07558468;-0.08686898;-0.021616174;-0.013994734;0.061108686;-0.021882756;0.054867703;-0.025122663;0.032279596;-0.12928197;-0.044723954;-0.0397104;-0.024489082;0.08333318;-0.043755654;0.02186368;0.027315313;-0.020726921;-0.0659255;0.0896518;0.08213903;0.022191873;0.07399058;-0.026296047;0.06985987;0.08394619;0.060804807;-0.048009455;0.07255407;-0.14547783;0.0352527;-0.040896416;-0.020829264;-0.0032767702;0.031791594;0.08776186;0.041029964;0.058198597;0.045177687;-0.05152918;-0.030970987;0.06385969;0.05850375;0.04201649;0.025359564;0.050445955;-0.046513423;-0.078398034;0.04153834;0.031895585;0.021583749;-0.0015511547;-0.0121307755;-0.017945385;-0.028566536;-0.005996448;-0.04085541;0.06836166;0.017672751;-0.0008351846;0.05951538;0.018727416;0.033037562;0.02742658;-0.07046552;0.07547336;-0.018916763;-0.03798837;0.056304332;0.06442303;0.054415226;-0.07398646;0.04132082;-0.14582431;-0.08313118;-0.0014662285;0.08237652;-0.053865556;0.021355083;-0.036425397;0.01140275;0.122759365;0.07227124;-0.07737231;-0.115780644;0.015470475;-0.04836752;0.011954409;0.00276675;-0.0063192034;0.041717064;0.021415783;-0.055283938;-0.0010232131;-0.06758634;0.07112298;0.021894157;0.01968363;-0.03762954;-0.07293019;-0.053685304;-0.035724428;-0.090846606;0.10429922;0.063489355;-0.07269372;0.093469225;0.06159593;-0.01679929;0.063361995;0.050706454;0.051118977;0.042866994;-0.066004366;-0.14746828;-0.04721816;0.080218494;-0.039824225;-0.03172743;-0.071364075;0.015834663;-0.087669015;-0.07157619;-0.029106617;0.032904923;0.032398842;-0.09474002;0.044337638;0.050238926;0.04438177;-0.0391584;0.016115118;0.005502722;0.034812402;0.04327023;0.09477769;-0.051930048;-0.101365075;-0.12268668;-0.058664612;0.041512612;0.0032979317;-0.0047952584;-0.116862915;-0.10592468;-0.056729704;-0.10310465;0.032607257;-0.052486654;-0.036190033;-0.027210237;-0.05209335;-0.050030082;-0.082929656;0.015823072;0.06250273;0.007391734;-0.02261764;0.029205633;0.019201055;-0.055689193;0.033867184;0.09721868;0.049027428;-0.010124174;-0.00952244;-0.04626849;-0.07289774;-0.07299644;0.06182699;-0.06499688;0.0036516192;0.03807084;-0.04828833;-0.014328894;-0.0062918263;-0.02660267;0.022043755;-0.03773184;-0.06605525;0.010577518;-0.08145455;0.01635419;0.019140601;-0.005980258;-0.075074024;-0.041597307;0.03190976;-0.041926704;-0.08360246;0.028104944;-0.075830065;0.035922952;-0.022918459;0.012349988;-0.04007413;-0.09333591;-0.00999878;0.027813321;0.046566814;0.040340774;-0.06944483;0.09015562;-0.07964284;0.025711747;0.0075028944;0.0527811;0.05958647;0.0007700676;-0.019613838;0.07737155;0.018260619;0.0651375;0.024631893;0.009629534;-0.00014779648;0.079608396;-0.006333258;0.0024053098;-0.04338689;-0.009230938;-0.006590591;0.055035606;-0.046924762;-0.07497982;-0.087188564;0.16481222;0.0068161166;0.06399176;-0.029580563;0.06837703;-0.106408775;0.027043726;0.05655238;-0.008864927;0.01262449;0.034691475;-0.072066;-0.04528463;0.04332411;0.004144097;-0.06214915;-0.076312914;-0.0460364;-0.007464129;0.06694733;-0.076737754;-0.008801379;-0.17597875;-0.04537401;-0.030543216;-0.0067172237;-0.04750862;0.027100386;0.11690545;0.05720607;-0.05740211;-0.039958104;-0.034632564;-0.030591886;-0.03084076;0.054162495;0.019023536;-0.059292845;0.04121724;-0.0021974526;0.02834845;0.015527699;0.057497635;-0.037317865;-0.042848356;-0.024405712;0.013465869;0.025781797;-0.004819484;-0.010329228;-0.05662826;-0.033756964;0.031918753;0.03747715;-0.028994022;0.027899446;-0.18609507;-0.1091349;-0.03940617;-0.07209218;0.11855084;0.014764553;0.015703706;0.017320588;-0.06323711;0.05292117;0.09970912;0.013002223;-0.06955954;-0.036154296;-0.016161965;-0.038918763;0.013789305;0.015159262;0.008098678;-0.0583846;0.029753504;0.048570022;0.048956253;-0.071582906;0.013155253;0.059226345;0.10819567;-0.03328325;0.08555914;-0.037751798;-0.01380027;0.065868914;-0.051443554;0.041221026;-0.027682712;-0.02017619;0.03217691;-0.060453594;0.018427353;-0.012485502;0.021085074;0.00753268;0.01955068;-0.008848722;0.113291696;0.09694611;0.047588132;-0.010417049;0.0033213745;0.05281663;0.024413833;-0.016390685;-0.073153146;-0.04331697;-0.022293014;0.04571013;0.016141748;-0.0707054;0.016524903;0.05700823;0.005511004;-0.08431241;-0.12390569;-0.036843702;0.07002814;-0.055204;-0.07190234;-0.0672429;-0.11101294;-0.047544137;-0.0069940807;-0.054488715;-0.033075605;0.017883144;-0.035997245;-0.045496237;-0.090426974;0.013392443;0.004704673;0.032063182;0.08029748;0.07706848;-0.08423394;0.08829679;-0.034921788;-0.026012573;-0.08050858;0.0022802865;0.034700688;0.02890597;0.051466826;0.032238115;0.002667772;0.034125727;-0.06104258;-0.005496473;0.025703905;0.17097881;0.013033274;-0.05788428;0.019381851;0.046573464;0.02321958;-0.053925965;0.054638017;-0.058340106;-0.018251896;0.023102332;-0.03377845;-0.07365636;-0.047366217;0.056619227;0.044051994;-0.06728816;0.062298443;0.079420805;0.040343113;0.014686258;0.03276469;-0.01833252;-0.01467129;-0.06468294;-0.1033456;-0.08983421;-0.03365944;-0.09200101;0.04158882;-0.052948672;-0.041239865;0.019892626;0.06700661;-0.05944876;-0.0064861374;0.034819186;0.05714672;-0.0083663585;-0.08382221;-0.03639877;0.08253133;-0.021943308;0.007507491;0.030369662;-0.013206871;-0.056280278;-0.034611464;0.13450189;0.046627283;-0.036049183;0.14358726;0.09730848;-0.015559566;0.025610564;-0.008197911;-0.0033302587;-0.04598577;0.060058586;-0.0579772;0.053952362;0.03620769;0.104815796;-0.06404103;-0.020763405;0.10519591;0.005541338;-0.058586396;-0.07178722;0.004315362;-0.019231629;-0.06657205;0.04462124;-0.07283773;-0.0041243793;-0.09640383;0.01282891;0.050420705;0.0135315005;0.014176427;0.08761091;0.09619386;-0.07987761;-0.036979757;0.028622692;0.013409751;-0.042173557;0.0605587;-0.0148129705;-0.074907795;0.019568158;0.011541197;-0.072616644;-0.1347682;0.033336934;-0.0750169;-0.017408261;0.0033166474;-0.06305108;0.035725046;-0.05109813;0.02757884;0.016940992;0.04489473;0.030220104;-0.083435245;-0.03530546;0.009635956;0.0354654;-0.00803239;-0.040304955;0.017040528;0.037283376;0.070042074;-0.049028356;0.027605958;-0.02241705;-0.086372554;0.1299707
0.07083453;0.05694109;-0.03189525;-0.049694274;-0.014880902;0.055574257;-0.010479208;0.014524078;-0.05474696;0.11432874;0.035738587;-0.08053559;0.06264058;-0.089530125;0.032233723;-0.06287463;-0.06737685;0.003575736;-0.021278158;0.018356722;0.020159712;-0.08081937;0.0034226696;-0.09492566;0.026556445;-0.057378173;-0.05043585;0.08476428;0.13801827;0.07139406;0.07611586;-0.04927741;-0.01827696;0.0037112578;-0.13753779;0.07543931;0.05111159;-0.010709745;0.005770855;-0.0750858;0.052913662;-0.024877865;-0.021693405;-0.027906254;0.004620555;0.087900735;-0.030809103;0.0037087752;-0.064311944;0.04452012;0.09210081;-0.016068868;-0.04236952;-0.08470788;0.010137814;-0.056310184;0.065084025;-0.035033625;0.03786572;0.059870314;0.009730179;-0.08761425;0.010882469;-0.01593998;-0.064954184;-0.06368514;-0.064741716;-0.09007315;-0.014521933;-0.00824865;-0.011901023;0.022002248;-0.055961117;-0.0021679578;-0.08554652;-0.008949016;-0.018753119;0.03152925;0.11825184;-0.16676873;-0.0793447;-0.05694874;0.04614896;-0.016846808;0.091030724;-0.06773709;0.03733222;-0.10455332;0.07170197;0.016782988;-0.06618715;0.026791308;-0.06462897;0.1012965;0.07677689;-0.028005617;-0.071665585;-0.026937604;0.034851328;0.074311934;0.08069616;0.0047504464;0.06752936;0.02429121;0.061582334;0.03911093;-0.08515105;-0.16077489;-0.0769721;-0.050002594;-0.021752784;0.005413736;0.006542902;-0.062485196;0.03846154;-0.032071594;-0.042301357;-0.09988821;0.004886108;0.04987902;0.006370376;0.072652;0.06704357;0.019211333;0.042572543;-0.0032699422;0.037270725;0.056183223;-0.008811178;0.054335814;-0.02141609;0.14711712;0.034282763;0.037181184;-0.04983986;0.07608554;-0.0003357104;-0.019194543;0.048714686;-0.07837343;-0.06059047;0.04159465;-0.07803726;0.029531693;0.030728968;-0.07891731;-0.07252543;-0.07071452;0.058255754;0.05946799;-0.023024762;-0.015386982;-0.009230441;-0.062119998;-0.071819484;-0.04205134;0.054025196;0.085024476;0.02935874;0.006311657;0.071726635;0.04735544;-0.078736536;0.11182103;-0.20241013;-0.0003976573;0.124168254;0.0796891;-0.11270876;-0.077012986;-0.20711105;0.0778971;0.055098433;0.0428051;-0.036290046;-0.014769091;0.028567584;0.07480874;-0.05176255;-0.016918465;-0.09924027;0.086970404;0.030462058;0.060719885;0.066837095;0.041963283;-0.049432233;-0.03276113;-0.013421483;0.070311956;-0.059854373;-0.06459036;-0.13386613;0.001979029;0.12922285;-0.033103902;-0.04875792;-0.04910096;-0.044046972;-0.16827434;0.07282467;0.062961206;-0.022348603;0.040647943;0.025371714;-0.010848614;-0.00891484;-0.00023581431;0.022681855;-0.03225899;0.0154075045;-0.086727336;-0.035478465;0.0024330106;-0.058360327;-0.073502265;-0.21402398;-0.07644933;-0.00129584;-0.041745864;-0.07083676;-0.112194635;-0.038354196;0.0034143163;0.005764863;0.079432376;-0.096583925;0.087660775;0.0030584726;0.044053156;-0.09954812;0.005596807;0.017339684;-0.06793468;0.029132597;0.03409481;0.03114391;0.060620848;-0.05627772;0.016234362;0.15045193;-0.046699002;-0.020522708;0.058373757;-0.046411227;-0.0038998579;-0.02370185;0.058347944;0.0003124496;0.12555456;0.115781754;0.02136186;-0.02441876;0.0498837;-0.019227505;0.00737812;0.045979913;0.05871987;-0.0044314708;-0.09140311;-0.062308427;0.030959709;-0.010516883;-0.034581434;-0.08443482;-0.059122693;0.059784155;0.020147074;-0.07222433;-0.02659583;0.00016323426;0.018462861;0.011256269;-0.03201411;-0.06294637;-0.042497747;-0.048632078;0.060348667;0.019248204;-0.08749558;-0.041865036;-0.063144766;-0.0825472;-0.05313961;-0.063507885;0.03471011;0.010824891;0.008091905;-0.052723102;0.06955469;0.028535472;0.058193006;-0.07386582;0.054624327;0.07645252;0.016849175;0.07712586;-0.085557096;0.03273425;0.024164677;-0.030306684;0.00838176;-0.072765626;0.014203097;0.10193243;-0.004793306;0.033379976;-0.03102648;-0.05694875;-0.07011009;0.03317665;0.0342444;0.035133824;-0.029210186;0.03238147;0.0451725;-0.037115566;-0.06025048;0.052567758;0.03951676;0.04767276;0.059982475;0.043704774;0.059927348;-0.029843062;0.028534569;-0.06475994;0.024759375;0.056086674;-0.087976;0.05101891;-0.04312576;0.0055570486;-0.055558242;0.073587336;-0.046883155;-0.10215212;0.059874404;0.025810692;-0.06468661;-0.06522987;0.05360478;0.07215907;0.012062911;-0.015750727;0.033190716;0.09363417;-0.010841159;0.03660109;-0.09308569;-0.07781806;0.005752486;0.008277605;0.048064034;0.0020023386;0.041281015;-0.02055436;0.010364214;0.032742675;0.0052487585;-0.14512056;-0.06652448;0.046067756;0.050598007;0.042495977;0.028227614;0.0262775;-0.033236332;0.050755978;-0.05510957;0.05217865;0.044759933;-0.012689091;-0.15248266;-0.07816068;-0.02979949;0.040960062;-0.054787196;0.008082806;-0.09673879;0.05847374;0.046877485;0.0495365;0.05585012;-0.04857612;-0.029235441;-0.03267054;-0.057997216;0.078693666;0.021221;0.047198225;0.05607398;-0.039515793;-0.058829885;-0.09200625;0.02680706;-0.061203543;0.003513146;0.07629219;0.06599943;-0.07629176;-0.053126514;0.016287971;-0.050799724;0.09721853;0.10086727;-0.022482907;-0.069071054;0.017774519;0.04299176;-0.0063389023;-0.07678139;-0.018697731;0.0034655007;-0.0060819304;-0.07145897;0.06477475;0.036329936;-0.06240771;0.05375981;-0.086091846;-0.0315539;-0.097987905;-0.026027933;-0.02446245;-0.14803177;-0.021581281;0.032723546;-0.07347129;0.033887707;0.009238309;-0.044240776;-0.062107217;-0.025810754;-0.034716263;-0.08756331;-0.019125536;0.049169905;0.0039137956;0.12399059;-0.01051676;-0.071205035;0.027208498;0.0014265019;-0.07899588;0.04774364;-0.11794578;0.08762467;-0.017185936;0.07435423;0.09742964;0.06607943;0.007295701;-0.0134727;-0.09972093;-0.019787176;0.060057912;0.123086065;0.04584466;-0.050398912;-0.06509758;0.09718172;-0.043850012;0.09806794;0.00336793;-0.14584996;-0.04923965;0.0013489978;-0.014367541;0.016640099;-0.010762329;-0.066019036;-0.09785601;-0.008782562;-0.07935257;0.079331905;-0.06459452;0.08255761;0.06576752;0.05050574;-0.07894763;-0.036913227;0.011197007;-0.073187;-0.07140502;0.01614304;-0.07689451;-0.007339345;0.06098184;0.015304612;0.07155785;0.050085552;0.069782734;-0.061513994;-0.064991556;-0.054463714;0.018771486;0.03262962;0.03684635;0.07383123;-0.043984715;0.014547477;0.048127815;-0.045142137;0.030247286;0.05801979;-0.010083436;-0.054146986;0.023853417;-0.015701916;0.10403695;0.024976822;0.1049883;-0.06503321;0.0044890293;0.0210055;-0.0017338111;0.10584151;-0.030262504;0.055646688;0.01405281;-0.030019443;0.059753705;-0.035597183;0.036760993;-0.034411695;0.00051777926;-0.03750936;0.03012278;-0.02023757;-0.07920504;-0.037182022;-0.068090014;0.029052064;-0.07909368;0.0036251247;-0.058818385;-0.030331027;-0.07131309;-0.08469662;-0.0425341;0.01695558;0.034383256;0.019815454;-0.011706731;0.10908552;0.011392098;0.061101623;-0.045912072;-0.018090287;-0.04881824;-0.0076703103;-0.044128746;0.024937056;-0.049698614;-0.06288489;-0.034701586;-0.1656033;-0.062366437;0.075084135;-0.07089439;0.047178436;-0.08026029;0.012848453;-0.07262829;-0.02348038;-0.027382083;-0.052281328;-0.15455222;-0.062810905;0.09616567;-4.891032e-05;-0.028346397;-0.07349813;-0.044792388;0.199361
-0.04620005;0.05069851;0.05364076;-0.11542132;0.06410779;0.032382943;-0.005307766;-0.054951247;-0.11943206;-0.0017959577;0.07949081;0.022127904;0.07756153;0.025960442;0.05266926;-0.09213407;-0.042798836;-0.076393776;0.08340429;-0.0022618107;0.021367392;-0.062369246;-0.07815734;0.1091948;0.008120764;0.06960637;-0.1328598;0.0027644054;0.18746226;-0.04763854;0.0585699;0.03774093;-0.091733545;0.093592204;-0.029948454;0.042013552;-0.014700168;0.042085152;0.063516624;0.014267191;0.083067186;0.04146471;0.0974548;0.024649916;-0.100101575;-0.021081703;-0.11284865;0.019763408;-0.102330774;-0.06590071;-0.00810721;0.034128264;0.10144069;-0.031562824;-0.05899723;0.036839597;0.06350583;0.06586311;0.115815565;0.071798116;0.0088953925;-0.06707972;-0.033595808;0.103181936;-0.017464373;0.03462946;-0.04975282;-0.1214786;-0.049400497;-0.045270856;0.012108188;-0.014657342;0.06963314;0.024308441;-0.12951851;-0.0987629;-0.103936024;-0.06843773;0.07016682;-0.15052372;0.014120779;0.068960115;-0.0043229233;-0.078315236;0.0725261;0.039390136;-0.0065906337;-0.12651949;-0.038939275;0.07255573;-0.0196998;0.10837562;-0.06301205;0.0410891;0.06254736;0.015615093;-0.05605612;-0.03954883;0.048459817;0.056744378;-0.0018194332;0.036816344;0.059053272;0.053957734;0.04830263;0.0029607115;-0.074306466;-0.10939581;0.050283946;-0.0065527884;0.036707427;-0.041546285;-0.008847838;0.058270004;-0.0359674;0.038007535;0.050201744;-0.07229085;0.11001702;0.061586972;0.0054846737;-0.035687756;-0.052390195;-0.05238;0.065750085;-0.08994673;0.13658267;-0.073704496;0.039917007;0.091869585;-0.003784809;0.059813235;-0.10446047;-0.028810004;0.009674076;0.044140745;-0.08430262;-0.08266711;-0.016893158;-0.034096535;0.009586695;0.07404852;-0.041742504;0.06702598;-0.0013121829;-0.012226094;-0.12927057;0.06388407;0.11582107;-0.08552338;-0.096161224;-0.10627229;-0.032308724;-0.06690869;0.075426824;-0.0056586806;0.014695767;0.036467783;0.018970026;0.07331498;0.06197729;0.03913088;0.01512433;0.16888978;-0.2074002;-0.057658285;0.08902493;0.04759297;-0.017303891;0.036392108;-0.053167943;-0.01472272;-0.083448164;0.024027724;0.013020642;0.016780745;-0.037867073;0.060707364;-0.04113039;0.057447337;0.027113449;-0.064565524;0.0030326296;-0.009695752;0.09750544;0.051393904;0.009145176;-0.061263237;0.041391335;-0.009938782;-0.015306783;0.050525952;-0.17927675;0.019083027;-0.012042329;-0.107123554;-0.05699921;-0.06163972;0.0074285995;-0.22591604;-0.024615038;-0.06942875;-0.022432735;0.07900725;-0.090061225;0.007743871;-0.0089518335;0.08525538;-0.058036663;0.09815333;-0.07510552;0.06294191;-0.020613825;-0.04207933;0.029716045;-0.2221856;-0.11304534;0.009943985;-0.027888786;0.032492794;-0.0411172;-0.14280306;-0.055156205;-0.011183306;-0.0050647357;0.042863213;0.037245736;0.07241025;-0.07000306;-0.0034516559;0.009443982;-0.035065085;0.0058480417;-0.019625816;-0.042223994;0.097653575;-0.0650327;-0.035881735;-0.035104852;0.031805336;0.09966381;-0.061036542;-0.10173518;-0.040674187;-0.01394852;-0.057396386;0.08726639;0.071641214;-0.03384792;0.060954846;0.08487148;0.08189044;-0.00072976365;-0.08665595;0.062398605;-0.08601957;-0.0076028;0.028695395;0.01870098;0.024594963;0.054253317;-0.028394243;-0.074309684;-0.009293419;0.01567812;0.012354281;0.10044542;-0.03706906;-0.08572714;0.012822758;0.04256279;0.057809528;0.06990945;-9.553972e-05;0.02429787;-0.020195063;-0.08402391;-0.09865377;0.030505603;-0.040016808;-0.0035488438;-0.009239543;-0.008527943;0.016557403;-0.03529572;0.04968333;-0.019711291;-0.042025607;-0.05249628;-0.1057473;-0.047602825;0.0015054197;-0.05633709;0.0554743;-0.011969251;0.06997243;0.08660995;-0.08173366;-0.02379682;-0.062398095;-0.06422059;-0.027854254;0.021191824;-0.033937033;0.1184589;0.06209338;0.020759275;0.029126449;-0.07781781;0.017207377;0.044570558;0.010771832;-0.051827155;-0.11207789;0.044898905;-0.00380508;0.07872673;0.04145604;0.03063032;-0.08666412;0.054338712;-0.06878193;0.016879885;0.16349299;0.03545883;0.009384393;-0.18828544;0.0144138085;0.002194132;0.059689116;-0.03026642;0.035484325;-0.010924693;0.01966029;0.055831276;0.018295351;-0.044510897;-0.07439917;0.024045914;-0.054174654;0.11175082;-0.042489376;-0.014161232;-0.016873488;0.024042748;-0.030254137;0.01015394;-0.096079;-0.03595277;0.038973894;0.042427573;-0.019384244;0.016822426;0.032807138;0.051023386;0.07243023;-0.03288002;0.009706889;-0.09505373;-0.020561961;-0.18899305;-0.12645265;0.028734878;-0.03551961;0.101834066;0.017867716;-0.042425923;0.04414418;0.0029749137;0.00351502;0.07478267;0.04767892;-0.08561997;-0.14668103;-0.065185875;0.046072926;-0.013826182;0.09115588;0.0064341915;-0.13952443;-0.038162928;-0.012418839;-0.0015699088;0.06462263;-0.06338249;0.019846799;0.048317395;0.047507916;-0.012133167;-0.07072065;-0.065883026;-0.042272866;-0.0099530425;0.07102504;-0.10628149;-0.07146292;0.08454607;0.039887823;0.12902491;0.028011326;0.01786986;-0.04645364;-0.11107915;-0.09027246;0.07468199;0.122147754;0.036757737;-0.024810122;0.055357646;0.047620438;-0.02755723;-0.094112374;0.05556203;0.057900857;0.035250556;0.017231034;0.061390273;0.026900815;-0.0030889576;0.028576097;0.019093663;0.0051110764;-0.025474537;-0.080674164;0.013853095;-0.06328063;-0.08408366;-0.011929471;-0.08996929;0.071593486;-0.014654542;-0.051306948;-0.081701174;-0.057741813;0.04202094;0.019350732;-0.019860022;-0.021459972;-0.057229538;-0.006661114;-0.04097105;0.06421601;0.014553538;0.0010854814;-0.032141436;-0.012410455;-0.07927568;0.0069330647;-0.044143993;0.0068301763;-0.0016705848;-0.06628728;0.10881619;0.013735695;-0.019749809;-0.047193386;0.09028661;0.101698786;0.0017370206;0.02103577;-0.01653218;0.06988136;-0.00023425577;0.014645616;-0.02963108;-0.07624594;0.015858896;0.072873026;0.020229192;0.00547098;0.062214117;-0.024799341;-0.05508249;-0.03982044;0.083840765;0.040544417;-0.05340178;0.06822782;-0.08530852;0.068138294;-0.09527241;0.048421882;0.030008277;0.019598855;-0.062229384;0.06916613;0.009371171;-0.054729696;0.058999207;0.018858416;0.056334417;0.053854562;0.049205713;-0.029034996;0.021582738;-0.039775416;-0.098246865;-0.0033602244;0.022372773;0.029728353;0.03921214;0.06072481;0.06805445;-0.03823189;0.011406704;0.10299277;0.008609403;-0.023397602;0.07392895;0.020798944;0.0324366;0.038283613;0.02411688;-0.06125658;0.031788323;-0.014585112;-0.04912472;0.09096206;0.04362197;0.07614104;0.029401466;-0.06567923;0.037850816;0.04701194;-0.075894654;-0.0757078;-0.061682023;0.008308535;-0.13664876;-0.10525714;0.021501143;-0.05598662;0.046055853;0.04224975;0.017530981;0.08876759;-0.050851725;-0.03230982;-0.049353514;0.017572034;-0.14029397;0.01769898;0.013735053;-0.08148933;-0.10964776;0.009440993;-0.0785227;0.110238135;-0.040576153;0.07982293;-0.072487675;0.07779831;0.030281676;-0.0057525323;0.040577646;0.025924457;-0.1137488;-0.03374581;-0.03572424;-0.0010493427;0.07618111;-0.005964959;0.0028819155;-0.028709482;0.033307027;0.05983964;-0.046551693;0.04285698;-0.099543415;-0.024192892;0.04076571;0.024464395;0.0393132;-0.02559849;0.056882102;0.14206138
0.0040620817;0.011154157;-0.051248584;-0.09522556;0.0073126093;0.033547178;-0.039312504;-0.030741556;0.0029379115;0.06029545;-0.034326825;0.01418054;-0.056064166;-0.0036185929;0.041177444;-0.0045533516;-0.016706347;-0.14052428;-0.013673759;-0.0032356605;-0.02572225;-0.057770476;-0.028853694;-0.02071086;-0.09051364;0.035597503;-0.021015298;-0.016544081;0.15704754;0.06403993;0.05460175;-0.045087878;-0.058952834;-0.06453532;0.050845925;-0.04620195;0.060755387;0.025787765;0.0508681;-0.06557174;0.010496875;0.018164545;0.0033835403;0.043702703;-0.14113845;-0.041127224;-0.04040032;-0.047647428;-0.09506786;-0.04993338;0.033506017;-0.03481586;0.006148189;-0.011369009;0.03644786;0.013513611;0.007694853;-0.05155593;0.07604695;0.06943268;-0.07550795;0.053740084;0.08510053;0.006578284;-0.03326969;-0.102239884;0.023356019;-0.09937132;0.06588394;0.065524146;0.081699;0.10243835;0.047429405;-0.040061735;-0.10724615;-0.057922028;0.015098229;-0.10473342;-0.024216183;-0.031150922;-0.07939452;-0.0767431;0.003530189;0.07632549;-0.05782884;0.015482603;0.06240295;-0.105336316;0.06988252;-0.034551788;-0.013377533;0.06155816;-0.045335904;0.069299065;-0.06958088;0.06053265;0.013107395;0.06878555;-0.03399395;-0.014902285;0.053563327;0.02867245;0.013709158;0.0046567908;-0.00083327;0.052918363;-0.06036549;-0.05777648;0.024564395;0.0135119585;-0.0013029837;0.025001401;-0.030192293;-0.090079345;-0.03793623;-0.04458752;-0.026833294;0.021189556;0.012311043;-0.00086269196;-0.03919701;0.08262507;-0.029570905;-0.07499558;0.042906087;-0.06670384;0.037645984;0.025532585;0.0027422612;0.071076445;0.06457081;0.06683592;-0.08555434;-0.02209294;0.0404725;0.056926977;0.026400305;-0.060808722;-0.038618386;0.04813387;-0.028189903;-0.05851905;0.026638195;0.006489407;-0.0646185;-0.052514076;-0.15404618;-0.051198713;0.07483086;0.036459457;-0.01157042;-0.03665131;0.032219496;-0.034798425;0.031540297;0.050663307;0.023155391;-0.03656377;0.08493892;0.023268666;-0.07412479;-0.057788756;-0.013318466;0.033046257;-0.0938295;0.05913105;-0.030613534;-0.0027233693;-0.10020042;0.060174912;0.015940236;0.02612002;0.0056585185;0.004564604;-0.09687633;0.036705375;0.001206574;0.029008145;0.037811644;0.03505362;0.039417427;-0.11113866;-0.07596989;0.025108788;0.100505516;-0.06839249;-0.0636894;0.014202412;-0.023683378;-0.067472026;0.013959917;0.038938567;-0.08984201;0.09616545;-0.037599932;-0.09234073;0.003007245;-0.06640056;-0.06814489;-0.09100729;0.078404;0.02383774;-0.0523965;-0.04821803;-0.09979079;0.009409819;0.03875288;0.116030194;-0.051137168;0.06226417;0.04703041;0.038844284;0.015527106;0.07658607;-0.028000887;-0.19905461;-0.17844754;0.036214683;0.05608059;0.016404657;-0.054980632;-0.08911198;-0.050850544;-0.02454369;-0.0075461427;-0.08562493;-0.08881096;0.03783881;0.079253495;-0.023416262;-0.055022553;0.030095315;0.020179914;-0.013626054;-0.008113495;0.11672086;-0.038393077;-0.034476433;-0.05714007;0.030017456;0.063135184;-0.062661186;0.026815852;-0.06549156;-0.0055726985;0.07223763;-0.017853977;0.011716664;0.036116723;0.009101021;-0.016496258;0.0313153;-0.010747885;-0.026282558;-0.08866469;-0.0015593405;0.01954101;0.002096861;-0.10871731;-0.026820712;-0.043332823;0.10959731;0.027189309;-0.070186004;0.09118271;0.067770034;0.07186093;0.029011741;-0.08680702;-0.07198357;0.013807143;-0.049964473;0.07443296;0.024604015;-0.019165123;0.049350977;-0.054306746;0.041760992;0.024041813;-0.06203069;0.061272155;0.04215844;-0.069071084;0.018258035;-0.029653918;0.011178455;0.059988752;-0.06433095;-0.07988325;-0.07194812;0.058255393;-0.01873079;-0.028956397;-0.062812805;0.09074749;0.05988352;-0.0040678927;0.01454616;-0.043259233;-0.10391254;-0.08232102;-0.028774263;0.030798826;0.03284275;0.14486527;-0.08807168;0.083723;-0.028355261;-0.0011901632;-0.018723097;0.0037712015;0.07174725;0.006211422;-0.1442018;0.07782644;-0.0030785848;-0.004583073;0.041501;0.072993;0.046448972;0.044085376;0.014174894;-0.00027626523;0.12206321;0.07470963;-0.02203069;-0.20608015;-0.03446313;-0.05812045;-0.081638105;0.009727008;-0.001853969;0.024132732;0.024514733;0.022402965;-0.07663578;-0.02973132;-0.04195873;-0.04365088;-0.04246881;0.047994524;-0.03643252;0.06693255;-0.02949564;0.0033575636;0.032848425;0.02470669;-0.043205373;-0.04289928;-0.028567268;0.013088259;-0.04393294;0.02259976;-0.062333778;0.029919669;-0.0015208448;0.06975865;0.043594066;0.05306371;0.028009417;-0.059762213;0.0076675196;-0.011814152;0.08254461;0.08268137;0.0057529313;0.041323766;-0.045529854;0.10067001;0.069378264;0.1307068;-0.006160782;0.0073444163;-0.088962555;-0.119949885;-0.022960622;-0.090939306;0.08927976;0.06225708;-0.14985403;-0.0111002;0.02033695;0.054109626;0.08269039;-0.04494847;-0.08432237;-0.060412817;-0.022447653;0.1126115;0.07020979;0.0783556;-0.010402471;-0.056041464;0.09151551;-0.12324013;0.076386385;0.06948684;0.036463767;-0.0048704837;0.067389235;-0.043656576;-0.024318649;-0.10948688;-0.06065247;0.047346022;0.061759524;-0.016104866;0.077163786;0.023676014;-0.049445845;-0.07742028;0.00013464435;0.005321147;-0.0009795867;-0.008505991;-0.11188418;-0.018271172;0.08990875;-0.017401664;-0.0043912656;0.06315117;0.04675798;-0.07319086;-0.010917058;-0.04482959;-0.089469284;0.035929676;0.03733326;-0.0029519198;-0.019312274;-0.023535477;-0.04988144;-0.042011146;0.06271365;-0.03683395;0.008079344;0.07831852;0.05658149;-0.05064624;0.1434072;0.054347105;-0.035238035;0.06826717;-0.030709129;0.05643598;-0.062222004;-0.05475941;0.05192572;-0.008991716;-0.030933263;0.10325147;-0.035277665;0.10685899;-0.05839432;0.008220459;0.01123102;-0.02754311;0.16741313;0.002737295;-0.07808334;0.03241835;0.05670303;-0.003273514;0.08177312;0.042517442;-0.16813725;-0.0039176024;-0.0034443254;0.03750557;0.028206075;0.032544494;0.04149919;-0.07640456;-0.00883531;0.08387608;-0.03626182;0.04062986;-0.047322165;-0.07055018;0.015960447;-0.1337633;0.0011954267;-0.07366699;-0.09175942;-0.012849863;-0.020065371;0.085010186;0.029533086;0.0596523;-0.0438699;-0.033594523;-0.049133707;0.07580492;-0.065512605;-0.08072024;0.09056614;0.051916104;0.01788506;-0.10189198;-0.06175136;-0.0115820905;0.029481765;-0.014425382;-0.0364298;0.016583111;0.113694124;0.00865326;0.015295596;0.0124109695;-0.006180941;0.02678962;-0.023987759;0.121352054;-0.03812454;-0.028508235;0.03508703;0.015821775;0.057115708;-0.09139296;0.06763099;-0.043905176;0.07038007;0.0020654646;-0.08359624;-0.06372571;-0.034251694;-0.104448065;0.07138061;0.0452499;-0.12050609;-0.0027866627;-0.032622673;-0.12331609;-0.095836066;0.013312342;-0.019828724;-0.008506244;-0.02111922;0.030778252;-0.094769746;-0.1560178;-0.034413733;0.007568635;-0.015731664;0.041157965;0.13182904;-0.01183178;-0.017120896;-0.093905665;0.048683587;-0.055738255;0.045821205;-0.07984259;-0.08839444;0.03519825;0.032020237;0.011439959;-0.18800597;0.1089361;-0.013168463;-0.058946393;-0.013174297;-0.04341264;0.05917123;0.0533282;-0.021860005;0.09747112;0.0857234;-0.12662901;-0.06174909;0.01877561;0.008671038;-0.03926961;0.030009748;-0.050211858;0.118391186
0.0017174898;0.036819138;0.00074430235;0.030512407;0.0578306;0.0023389375;-0.0043911827;-0.102644354;-0.0048077093;0.09264137;0.102358535;-0.07477288;0.034508936;0.0010733696;0.022268467;-0.07215506;-0.10166739;-0.10895015;-0.01769758;0.07605855;-0.04385207;0.039589245;0.084840745;0.10700049;-0.07284361;-0.057897888;-0.076310344;-0.0547496;0.14973448;-0.07089146;0.029051663;-0.034982797;0.0026185967;0.06843799;0.058505207;-0.07063463;-0.03656629;-0.061934594;-0.037854526;0.04910924;-0.07955326;0.11624107;-0.0008252944;0.07532304;-0.12729326;-0.054630008;-0.04388565;0.029572153;0.01835094;-0.09766102;-0.010320771;0.08738374;-0.11783472;0.041694876;-0.08339851;-0.011052813;-0.046570726;0.039896343;0.07121855;-0.025301147;-0.08504462;-0.054820485;0.009951008;-0.00078636897;-0.0024333713;-0.051333424;0.13452631;-0.03692075;0.01443249;0.044700954;-0.024267431;0.0942549;0.0065775486;-0.027901871;-0.026293447;0.044921532;0.032339644;0.025243877;0.14657177;-0.021418707;0.030913383;-0.06857579;-0.03372781;-0.050090834;0.01854952;-0.05955755;-0.029826393;-0.053408567;-0.046945922;-0.06365637;-0.004871764;0.05518023;-0.025340222;0.052063335;0.03086913;0.050292253;-0.039287414;0.035051834;-0.10253157;0.023235006;-0.017311744;0.05979985;-0.0042932197;0.020100197;-0.073964454;0.009437498;-0.04109192;-0.0051710987;-0.015347688;0.025148116;0.03464027;0.0747391;0.016143024;-0.0800217;3.895838e-05;0.04318849;0.032657143;0.012637324;0.08105202;0.036725912;0.043368235;0.047224;0.07267638;0.0186173;-0.07967729;-0.060218837;0.032563664;0.093266964;0.03193265;-0.009867027;0.051114097;0.10565995;-0.090603985;-0.066704445;0.04550298;0.05464741;0.03266265;-0.04219757;0.020067798;-0.05935277;-0.016448436;-0.01841033;0.081190065;0.07516251;-0.082311384;0.07775932;-0.123300225;0.07066056;-0.010206029;-0.022699768;-0.0016445854;-0.10299768;0.0047418517;-0.1194668;0.07145555;-0.020685568;0.035630427;0.048062474;0.027477324;0.16124927;0.04990586;0.030681053;0.10312227;0.04929699;-0.06067619;-0.02850128;-0.03657163;0.07214765;-0.015302261;-0.03268568;-0.03371331;-0.061875034;-0.09724879;-0.059138317;-0.0409286;0.05145696;0.060404748;-0.052692503;-0.06654036;-0.048281446;0.09970901;-0.11784646;0.014930544;-0.030581433;0.073349;-0.08474887;0.07347558;-0.06927517;0.03551843;0.050548784;0.044732004;-0.039634246;-0.15191837;-0.06366716;0.020050844;-0.07870837;-0.048869397;-0.07128909;0.083641425;-0.15041862;-0.07900012;0.036210213;0.050276566;-0.06586976;0.029999124;-0.039113283;-0.03066943;0.14151785;-0.00042504058;0.02266729;0.020275943;0.07804564;0.12104793;0.04529844;0.026965227;-0.06449654;-0.20208184;0.003219457;0.075352184;-0.06964961;-0.08453499;-0.005154247;-0.022921044;-0.036977332;0.05579748;-0.050005723;-0.010790783;0.041185405;0.055434972;-0.04482998;-0.022579975;0.049834885;-0.021928145;-0.1347122;0.053579014;0.04699862;0.05537478;0.09649411;0.024047662;0.0033207294;-0.011969561;0.016303306;-0.07779004;0.06615493;0.012249715;-0.009680758;-0.057003498;0.007527231;0.005434075;0.002551147;0.024884094;-0.024012594;-0.062179737;-0.0013847778;-0.050920222;-0.049355205;0.0026241438;0.053989038;0.017537398;-0.030107971;-0.0033868654;0.009512633;-0.05600715;-0.14798103;0.07834546;0.050419495;0.13215213;-0.08799824;0.05296797;-0.0387111;-0.0733032;0.09177262;-0.00940139;0.051072795;-0.11425107;-0.021145914;-0.0810123;0.066187575;-0.009300057;-0.103542976;-0.009853353;0.0077448618;-0.045917846;-0.09714113;0.011250636;0.07612418;-0.073882096;-0.06729775;-0.008431228;-0.046667725;-0.08804144;0.12635334;-0.108287245;0.080849856;-0.0173431;-0.046101518;0.08858625;-0.073428996;0.064452045;0.015477609;-0.0816736;0.11761623;0.021305937;0.04925025;0.08282435;0.067958444;-0.004168879;0.05234752;-0.07296078;-0.07855595;0.038046714;-0.008618633;-0.003089533;-0.15927231;0.10420025;-0.014504603;-0.068268225;-0.014689732;-0.063442625;0.029415939;-0.03397231;-0.038878538;-0.07365557;0.010600913;-0.010795962;0.0038573835;-0.21909371;0.03204825;-0.017290106;-0.059627872;0.043788407;0.032170422;0.06854009;-0.046996146;-0.011508746;0.00367548;-0.12264557;-0.07023754;-0.057987146;0.048247654;0.030370042;-0.05698778;-0.031318285;0.029514806;0.030464532;0.027415004;0.053552896;-0.020412743;-0.046595193;-0.011620881;0.06791085;-0.051200822;0.07604711;0.018682215;0.074686855;0.047054656;0.07586366;-0.03877162;0.03428521;-0.01579832;-0.1461722;-0.023381649;-0.058425512;-0.06562197;0.08310264;-0.062161382;0.065118365;-0.025706872;0.00199843;0.026167238;0.060620245;0.07752705;0.14401203;-0.07048729;0.06940797;0.0271182;-0.0127137285;0.051240627;0.07599322;-0.04266078;-0.027821746;0.03262519;-0.04252473;0.019898225;-0.054088384;-0.0771189;-0.1885108;-0.03407839;0.051172957;-0.006842083;-0.013542385;0.11913513;-0.0049928324;0.068635106;0.060011722;0.05186329;-0.07378688;-0.08651834;0.08348049;-0.06471937;-0.052640595;-0.053394355;0.009685191;0.024668118;-0.00953649;0.113894716;0.04052659;0.09247233;-0.04586131;0.017619321;0.069333516;-0.013703414;-0.08339983;0.004007397;-0.0389564;-0.018714195;0.014667633;0.10046346;0.04055332;0.08376784;-0.07596492;-0.03915699;-0.06075087;-0.036285877;0.053839833;-0.0025810448;0.043389037;-0.01852843;-0.07998711;-0.038499866;-0.02487829;-0.05803284;0.05035758;-0.033011038;0.043608893;-0.04137803;0.013741951;-0.021807313;0.044194914;0.06985472;-0.035173632;-0.015271249;0.05130359;0.07705599;0.08360005;-0.004258214;-0.087975785;0.059576154;0.043371912;0.06654851;-0.047946237;0.00858694;0.022102116;-0.0063342815;-0.059105925;0.049869757;0.065613635;0.08089923;-0.061357584;-0.017446415;-0.0717202;-0.06544835;-0.03765121;0.03499508;-0.024649205;-0.009248299;0.073635295;0.12893525;0.03270713;-0.08073768;-0.03899036;0.010620764;0.04389818;-0.06532222;-0.029559864;0.04789067;0.026931567;0.07718434;0.05938319;-0.016047101;-0.07552188;0.043873634;-0.049635265;-0.0056805518;-0.040978618;-0.01973306;0.059070125;0.02483132;-0.030125605;0.09165338;0.0055825925;-0.076985784;0.028661504;-0.013915568;-0.08759372;-0.029690959;-0.04043217;-0.07243442;0.019151395;0.07007465;-0.021825993;-0.059017677;0.076252244;-0.12042568;-0.04105872;0.06369562;0.03459971;0.015700053;-0.033113636;0.004855617;0.08854047;-0.072208285;0.0458757;-0.014271157;0.013301742;-0.03388698;-0.059738662;0.044409864;-0.035190806;0.03634055;0.04681181;-0.024430452;-0.09257909;-0.070282266;-0.024297984;-0.00779392;0.004935293;0.043035425;-0.01832468;-0.0989745;0.06928349;-0.043622974;-0.077432774;0.06432308;-0.055416983;-0.07082099;-0.014481355;0.08089074;-0.014164855;-0.023142636;-0.12505314;0.094042644;0.014228889;-0.019093927;0.01041498;-0.013059286;-0.20656778;0.110646755;-0.10945852;0.0012880142;-0.07389799;-0.004283619;-0.050057236;-0.049185045;-0.02455962;0.015104801;-0.052106798;-0.078552574;0.06009312;0.09282165;-0.056471277;0.07089279;0.0368244;0.03915062;0.047943976;0.07332723;0.07644677;-0.009076635;-0.14443633;0.00011266979;0.08695672;0.0069409334;-0.0048089316;-0.007876017;-0.035681225;0.2038627
0.01281399;0.11590257;0.010963696;0.0868224;-0.050350364;-0.06524738;-0.005373034;-0.034619294;-0.06427479;0.015474628;0.10248894;-0.00021619702;0.06867403;-0.04743209;0.07912483;0.012176902;-0.0054984475;-0.042877536;0.07490115;0.057821095;-0.034919232;-0.069284335;0.055985015;0.036506772;0.05090463;-0.07850682;-0.16466212;0.0760515;0.07854872;-0.054090988;-0.05891924;-0.025624894;0.013147827;-0.063439116;0.05067935;-0.025710281;-0.007996712;0.059596613;-0.04702609;0.05392622;-0.017080305;0.05436015;-0.0141178025;0.07627732;-0.06587018;0.014697121;0.00069875666;-0.04568827;0.0020179965;-0.027234938;0.08968994;-0.07236661;0.066580854;-0.072161645;0.011889654;-0.015712332;0.10852751;0.07962551;0.060784634;0.023518713;0.02896036;0.06674549;-0.0114574265;0.060032025;0.04700387;-0.0191037;0.11149968;-0.0010470294;0.06496224;-0.012357839;0.021478713;0.04934801;-0.02445823;-0.06689227;-0.17400213;-0.034628198;-0.0020352302;0.054874208;0.09880294;0.04377358;-0.014554604;-0.051951606;0.04557253;-0.03607073;-0.05483143;-0.054749466;0.07972525;-0.08457944;0.08696809;-0.0490566;0.038562052;0.028564502;0.091694325;0.097137675;-0.04420221;-0.07655169;-0.020946182;0.012653338;0.04305721;0.023785662;-0.018169764;0.056462184;0.00047038263;0.03369816;0.058236707;-0.079801455;-0.06494239;0.08455152;-0.0020226836;-0.015785353;-0.051765706;0.0033651828;0.05855274;0.052285805;0.036553215;0.020084755;0.05689825;0.0012702906;-0.03904987;0.014561609;0.0029305047;0.032245968;0.014622071;-0.06083657;-0.036286987;-0.039414544;0.083036035;0.08981842;0.05646865;-0.05170762;0.00909248;0.026438378;-0.012403315;0.025742307;0.1055533;0.047919355;-0.090352744;-0.05791611;0.052361578;0.044873305;-0.0031860394;-0.028925443;0.014792467;-0.07070317;0.0049434756;-0.0879515;-0.059072226;-0.0064152554;0.084454484;0.0016460693;-0.07879774;0.06468562;0.051127367;-0.06133093;0.0754704;-0.068985544;0.038391847;0.053701423;-0.037960093;0.030348752;-0.003191457;-6.584835e-05;0.033342194;0.14426406;-0.16578288;-0.014153947;0.054179557;0.035211742;-0.11480323;-0.032281168;-0.024046093;0.056893986;-0.018503854;-0.019161409;0.004414567;0.07689598;-0.0438896;-0.063911006;0.064424254;-0.05902547;0.01173599;-0.02657993;0.008348092;-0.03303324;0.0166947;0.071623564;0.051195573;-0.01780185;-0.070055865;0.016682109;0.034220483;0.06893229;-0.09636387;-0.0033006596;0.021998392;-0.04528749;-0.06300668;0.0071770046;-0.036451556;-0.10218713;-0.021741783;0.065056585;-0.039971653;-0.04226057;0.0026182584;-0.052457377;0.08481595;0.15331718;-0.08305206;0.07794192;-0.027472861;0.04787594;0.02169726;0.08801098;-0.061709415;-0.06247385;-0.18123282;0.023776934;0.17029671;0.081655554;0.040803798;-0.025324345;0.0362959;0.07573861;-0.011861154;-0.08902055;0.0020187018;0.14807531;-0.015717862;-0.07233949;0.064779565;0.051652797;-0.045749255;-0.0122394655;0.060631968;0.052973207;-0.071692646;0.04085016;-0.04908877;-0.06612172;-0.02323697;0.05008133;0.015042445;0.051894095;-0.01492157;-0.0005560103;-0.010408742;0.030454475;0.029616313;0.005421523;-0.026432369;0.033078197;0.008368732;-0.08528696;-0.014693635;-0.053684454;0.054846264;-0.05637676;-0.050390545;-0.017163418;-0.06411909;0.06667567;0.0063186474;-0.07928343;-0.0066963686;-0.03247202;0.0009345081;0.011809617;0.082844645;0.04986638;0.02031829;0.0936103;-0.0065134787;0.03895068;0.0033483892;0.10454597;-0.03705846;0.06552668;-0.06571879;-0.0068910667;-0.036996666;-0.0058736685;-0.07543917;-0.030410621;0.006733896;0.034272835;-0.13000834;0.0133599015;0.043580562;-0.036942367;-0.015469312;0.020081675;-0.029705485;0.026962852;0.08604634;-0.06661407;0.001855981;-0.028499408;-0.030248927;0.06953061;-0.05682331;0.032745365;0.095190965;0.033690833;0.0106337825;-0.038460337;0.057695474;-0.0042530005;-0.046781987;-0.019566884;0.05772907;-0.061163153;0.054878682;-0.037802223;0.0545662;-0.047858182;-0.04248142;0.019086696;0.040553965;-1.4967663e-05;0.040205754;-0.11022889;0.037456922;0.08894264;-0.029886229;-0.028737845;-0.15692721;-0.05377945;0.044800453;-0.0017511502;0.100885466;0.04638562;0.035892103;-0.010538743;0.054951116;0.041863106;-0.05346624;-0.07481253;0.018352022;0.056690224;0.12846409;-0.06110581;-0.035783026;-0.041014478;-0.042429075;-0.07436779;-0.014812452;-0.09317761;0.011243109;-0.08792799;0.0013472164;0.015359208;0.13744257;-0.008527341;-0.00447107;-0.04999753;-0.06414559;0.07890151;0.028839333;0.069362074;-0.11395447;-0.027090399;-0.05666835;0.03967124;0.14945495;-0.07662924;0.05209772;0.011378726;-0.08447088;-0.06994975;0.15181644;0.024154993;0.033316717;-0.12784187;-0.037456747;-0.0425005;0.03723817;0.015861299;0.058425557;-0.0039631473;-0.018254869;-0.036859296;-0.035698146;-0.0802377;-0.052900586;-0.032753177;-0.1982609;-0.07613364;-0.04278977;-0.010074154;0.08070286;0.032723933;0.0432207;-0.056604397;0.028350476;0.04073113;-0.0039698165;-0.02440681;-0.040354427;-0.075249664;-0.011062854;-0.028421983;-0.009922144;0.0706177;0.09614748;0.15954874;-0.03603306;0.03352235;-0.027694443;-0.07553727;0.014596622;-0.053973168;0.06948956;-0.03670769;0.034816828;-0.09848192;-0.04128994;0.14862746;-0.061284762;0.05503607;0.038059194;-0.07221038;-0.062139906;0.08805906;0.053977218;-0.037487637;0.06110974;0.05265555;0.052012805;0.0371323;-0.041906733;0.077291995;0.033409152;-0.05199879;0.065973066;0.049898613;0.034733023;0.041047547;-0.008490837;0.0018937705;-0.034484535;0.0003228841;-0.03996095;0.06606105;-0.058113568;0.011874293;-0.011019373;0.053217195;0.005020718;0.025011603;0.02377658;0.012869719;-0.0129359495;-0.009061716;-0.11844832;-0.032976914;0.011933715;0.15714875;0.042053893;0.043693542;-0.032486934;-0.08220778;0.03127869;-0.0266836;0.08505918;-0.15456939;0.030264925;0.116713166;0.07908885;0.005752385;0.074695386;-0.08219712;-0.0743773;-0.05859855;-0.035142142;0.090294056;-0.0075159925;0.09552992;-0.007098231;0.091127194;-0.031759437;-0.024871795;-0.108717665;-0.10352572;0.07918172;0.014956666;0.06747396;-0.06336207;-0.014025975;0.092407584;0.052205443;-0.044919565;-0.010686218;0.006728526;0.014641081;0.054858427;-0.05236619;-0.008451735;0.017685995;-0.055476896;0.013889615;-0.07377182;0.07528643;-0.022667902;-0.040964503;0.029605392;-0.03580565;0.05983962;0.04379999;0.05256056;0.059958324;-0.041207585;0.006996793;0.069774516;-0.09606556;-0.020597883;-0.090381265;0.13738357;0.006355608;0.01730108;-0.048662383;0.08895225;-0.022541229;0.033095583;0.029779186;-0.0339184;-0.059541557;-0.0393795;-0.058039643;-0.049387008;0.009652562;-0.027307676;-0.057368435;0.0014760554;0.040180985;-0.0016734706;0.029825991;0.024198802;0.04183357;-0.16784689;-0.045147784;0.099751204;-0.00036752765;-0.053334627;0.057760607;-0.055969242;-0.13055074;-0.00081383425;-0.062916584;-0.039124306;-0.10257361;0.025005164;-0.03784471;-0.018631963;-0.036718003;0.07526291;0.0012055917;-0.14353116;-0.035801;0.059892047;-0.032454018;-0.033757567;-0.059692398;-0.0648797;-0.007675266;0.06288827;-0.05358208;0.024694482;-0.03770029;0.06568335;0.023383602;-0.007892619;-0.028631546;-0.03319198;0.05935355;0.10685141
-0.052436177;0.010548855;-0.05612011;0.010198586;0.08272952;0.07493844;0.013655848;-0.11920706;-0.0713949;0.1414881;0.1098819;-0.05253406;0.076254606;-0.05915625;0.05988746;0.008184758;0.056537427;-0.0236196;0.036536917;-0.070276305;0.052994475;-0.038879786;-0.0659599;0.13578367;-0.10513225;-0.0037219326;-0.040284876;0.08436454;0.24782626;-0.065353826;-0.029600896;0.09136413;-0.05380159;-0.025155893;-0.06151384;0.04963486;0.09432481;-0.0580914;-0.03752903;0.05503632;-0.111465156;0.035415825;0.007612452;0.043217197;0.007312759;-0.081843644;-0.17530784;0.006804032;-0.068822294;0.07177791;-0.037627913;-0.069812186;0.069584355;-0.0032671895;-0.14383002;-0.021064017;0.025163379;0.014775195;-0.024662025;-0.06638722;-0.10445635;0.049379773;0.042423025;0.08683492;-0.021679625;-0.00048512456;0.10822845;0.051030237;0.064670034;-0.039551556;0.038816668;-0.040883414;-0.048319463;-0.013081525;-0.08818236;-0.06088503;0.0046429643;-0.0002913502;0.10452806;-0.009068663;-0.03801602;-0.07434828;-0.09550329;-0.09152841;-0.0012341974;0.0182714;-0.051719088;-0.023295375;0.0917391;0.0015397471;-0.052570052;-0.07843335;-0.084715806;-0.016891541;-0.06253428;0.074552305;-0.006584209;-0.069278665;0.030366657;-0.024708068;-0.084901884;-0.09354012;0.09410052;-0.024390597;0.010184181;-0.05186136;-0.014901587;0.07844731;0.010964106;0.07326242;-0.024242466;0.051621582;0.06034529;-0.079482265;-0.018178912;-0.020813776;0.046918966;-0.012077869;0.026208578;0.07507499;-0.048994962;0.07233954;-0.0010662393;-0.052879527;-0.07701341;0.009952355;0.043463115;-0.08600639;-0.027846092;0.03911363;-0.048981845;-0.07656788;-0.08243509;-0.06644466;0.11264861;-0.07185289;-0.05628246;-0.092504516;0.0041632354;0.06262202;0.052206345;0.08321209;-0.07280834;0.0746276;-0.08898744;0.05058534;-0.039908953;0.024134899;-0.014011262;-0.07335394;-0.024225874;-0.088545114;0.05665546;-0.0043852334;-0.060647544;-0.100292996;0.0008195819;-0.054356128;0.037377216;0.038281564;-0.03591095;0.017950319;-0.03582233;0.10808548;-0.0828153;-0.013499268;0.0432109;0.024189878;-0.09972247;-0.07350212;0.08239274;-0.050445154;-0.1032682;-0.03227492;-0.08984984;-0.064787045;0.0078141065;0.00030911606;0.017290361;0.011902239;0.057239547;0.00152131;-0.0062802467;-0.10970772;0.0701097;-0.039103158;0.078755476;-0.099849515;-0.028431423;0.010190955;0.012984124;-0.07655989;-0.11005059;0.022801777;0.10624738;0.07693316;-0.08385941;0.02743881;0.0625562;-0.009766139;0.04408961;-0.019481236;0.010121604;-0.006850957;0.06801111;-0.055026643;0.077900715;0.12549596;0.008065959;-0.015991006;-0.07278141;-0.057750802;0.11002483;0.10440808;-0.004920491;-0.081667036;-0.16842392;0.063532785;0.21335849;-0.059568163;-0.024251504;-0.052571803;-0.043952312;-0.030579092;-0.08098647;0.007627667;-0.0050417962;0.13127531;-0.050345406;-0.039144535;0.049153566;-0.018404646;-0.0046504973;-0.0060001058;0.038406063;0.016196432;0.026407681;-0.09403971;-0.003850605;-0.019764623;0.10288365;-0.069613405;0.04861397;-0.017340189;-0.062857606;-0.024869112;0.10806646;-0.07524455;-0.08762559;0.12752613;0.01069988;0.006754342;-0.055762105;0.0022367297;-0.034816172;-0.071242124;0.027302254;-0.050711397;0.012443368;0.05896087;-0.04974788;-0.01268905;-0.09069418;-0.13633767;0.011077123;0.053697113;0.14617448;0.043651376;-0.008731388;-0.068753645;-0.08340444;-0.029429507;-0.0058865184;-0.028792236;-0.022174329;0.10877163;-0.06675412;0.04142192;0.002660706;-0.0063871183;0.007989014;0.017871862;0.05352058;-0.089351445;-0.031101769;-0.051173087;-0.09193931;0.088796735;-0.01884587;-0.06005174;0.040969774;0.069424726;-0.07395081;-0.019009417;0.065380745;-0.018152658;0.11817957;-0.018198779;-0.006473079;-0.08459938;-0.041563608;0.01749522;0.060205624;0.024484564;0.05360919;-0.025971899;0.053019453;0.05589136;-0.044962082;0.00886275;0.06121835;0.0762198;-0.020909443;-0.11883269;0.10345121;-0.006416235;0.08978319;-0.057838533;0.08834272;0.06378653;0.047468614;-0.0976983;-0.062094808;-0.07695454;-0.02986393;-0.026245104;-0.13273871;-0.09479319;-0.04810862;0.002875788;0.007935635;0.04269786;0.0018171697;0.088048816;-0.045748293;-0.11294442;-0.12438429;-0.04123744;0.05838671;0.027290938;0.08659228;0.04722145;-0.019409353;-0.03431707;0.07159364;0.0723066;0.0009158046;-0.059239503;0.00011435878;0.012939594;-0.01530807;-0.06434344;0.10077907;-0.061429333;0.014729559;-0.020300267;0.0579949;-0.061956454;-0.0074054617;-0.04262893;-0.13051404;-0.11785034;-0.041389924;0.060169462;0.069212824;0.011636746;-0.020894788;0.0517807;-0.13342117;0.0056864833;0.087386854;0.028274845;0.033641886;-0.081782624;0.040363643;-0.06965888;-0.026812814;0.13844323;-0.058613595;-0.101697534;0.067383066;-0.094855234;0.035525355;0.028323082;-0.060666203;0.03384972;-0.08041201;0.048824612;0.07898074;0.04758838;0.05292132;0.04103287;-0.06500553;-0.01544646;-0.07871055;0.020635031;0.017903168;0.03879581;0.07635302;0.074530005;-0.0020474228;-0.015170206;-0.05300768;0.038354244;0.015448725;0.0854392;0.066159174;0.14212069;-0.06994295;0.045807786;0.00073158275;-0.12517965;-0.08473903;-0.037793703;0.063138284;0.03173014;-0.057059105;0.05041052;0.043719508;0.050023604;0.08675201;-0.0025356188;-0.14616525;0.060526814;0.05805374;-0.08037968;-0.04682515;0.029153962;0.107751034;-0.02895451;0.030328855;0.017204931;-0.0046522;-0.06188086;0.04267346;0.0924336;-0.040109247;-0.07982628;-0.050165605;0.042502295;-0.08572079;-0.07677422;-0.025607016;0.08411146;-0.017936107;0.047416247;-0.0022498518;0.0866827;-0.04787576;-0.04227969;0.108418055;0.047854926;0.10998677;0.013388281;-0.021715004;0.044504035;0.15299052;0.1028786;0.03133947;0.008481344;0.008413633;0.044493858;0.020874603;-0.025228674;0.0220872;-0.14346796;-0.04225256;0.13217968;0.049328312;-0.02956484;0.019327672;-0.0050213835;-0.09141288;-0.14135033;-0.014289633;0.00046660012;-0.04972102;-0.021907652;0.041944217;0.009414491;0.037438508;0.09289365;-0.07155231;-0.12868065;0.07364733;0.023634229;-0.071690425;-0.021266107;0.08455185;-0.034398682;0.09425865;-0.033768702;-0.020399135;0.008144513;-0.06021238;0.053770907;-0.061133027;-0.044312317;-0.05213343;-0.086928844;-0.008516357;0.029109381;0.10375555;-0.15364541;-0.0017331075;0.10056738;-0.031104244;0.1461182;0.055395532;-0.022701966;-0.03501002;0.08255293;0.08498286;0.032598425;-0.07567538;0.08000766;0.018880224;0.0799811;-0.02353196;-0.0636072;0.023841629;-0.0077124294;-0.15566629;-0.13222463;0.035942785;-0.011850753;-0.0361675;-0.06001182;-0.0014844611;0.0020448847;-0.06175038;0.043687448;-0.06295697;-0.05933306;-0.100189514;0.008380785;0.03980156;0.009396206;0.17106783;-0.028867237;-0.088137224;0.11938188;-0.06836814;-0.09846497;0.04605872;0.003330471;-0.09167928;0.010013018;-0.12368267;-0.052175246;-0.12835328;-0.04583399;-0.055497847;-0.02511829;0.04515919;0.003381836;0.038590815;-0.10961583;-0.025241518;0.05957483;-0.06406072;-0.012646157;-0.05752979;0.033217695;-0.0184729;0.03934099;0.016981425;0.12478747;-0.14949782;0.03341062;0.0775816;0.05908164;-0.079562545;-0.031742215;-0.0154429795;0.24548307
-0.054801818;-0.022830678;0.026003083;0.2016391;-0.12548125;0.038291343;-0.07734528;-0.101180986;-0.3931739;0.100188;-0.011821662;-0.06552376;-0.018396882;-0.04976634;-0.016425107;0.02122732;0.19039574;-0.019141242;0.030313304;-0.022496335;0.0060647367;0.06271755;-0.03526165;-0.27904093;0.07494099;0.019445984;-0.0012766159;0.048611835;0.034959193;-0.007217258;0.07135592;0.010775316;-0.021627724;-0.071375065;-0.10079921;-0.036809057;-0.038720883;0.0016495339;-0.0366231;0.09867662;-0.05949547;0.06141798;0.10298926;0.0014342307;0.076721035;-0.16408391;-0.16320409;-0.01758719;0.028312683;-0.28338662;-0.12448078;0.016049078;-0.28624415;-0.0024417476;0.36571944;-0.13831955;-0.042102918;-0.072461404;-0.20957859;-0.0171874;-0.014100916;-0.13437355;-0.059817065;0.0057928646;0.06984594;0.15150803;-0.28710166;0.21544743;0.06390664;0.08675892;-0.068785734;-0.007818248;-0.05291257;0.09552039;0.0705613;-0.0014000905;0.030869277;0.022359548;0.0015282561;0.4503601;0.042641584;0.01697227;-0.34892166;-0.09291788;0.00482341;0.0723506;0.037773177;0.06674041;-0.033090826;0.021705493;0.078121714;0.086951666;0.16601299;-0.12582445;0.005150667;0.03176595;0.12607896;0.06225914;-0.0527364;0.035649735;0.06293537;-0.038997427;-0.031542845;0.040328223;0.04668035;0.05537817;0.010064715;0.00656187;-0.10718039;-0.03876979;0.0056988834;-0.03221901;-0.03654473;-0.022045765;-0.04944827;0.0344206;0.12934929;0.090931475;0.030070234;0.04505978;-0.039931048;0.060368806;-0.061918445;-0.049271446;-0.019516014;0.062209934;-0.0816602;0.20355798;0.04089849;-0.10978936;-0.09525444;-0.28412262;-0.17657293;0.09099456;-0.07390343;-0.027990084;0.08397181;-0.017684195;-0.045813456;-0.05158525;-0.08380462;-0.08019414;0.10804369;-0.0017208107;0.0038459937;0.11038976;-0.030065302;0.039506298;0.081612326;0.09816348;0.20095888;-0.092485994;-0.065472215;-0.02403267;-0.0619562;0.03739376;0.07224124;-0.016044717;0.01831502;0.116862245;-0.01412905;0.044074424;-0.010094211;0.054192033;0.06885881;0.02799991;0.06877352;0.11011796;0.16835125;0.042499773;0.14521642;-0.076067954;0.07888518;-0.056843925;0.13862142;-0.00016956464;0.04847913;-0.060609303;0.16705593;0.004667852;-0.1454544;0.05473924;-0.012058376;-0.10702065;-0.26003858;-0.07742211;-0.0324998;0.08810399;0.012148594;0.016389653;0.13619226;0.0663726;0.1808181;0.03617367;0.13601713;0.19051403;-0.037445653;0.0075735846;-0.0029150976;0.08636444;0.06619156;0.084192716;0.03518409;0.06108836;-0.08835619;0.0838427;0.10432667;0.102224976;0.003602221;0.010119221;0.095173694;0.030702667;0.04786702;-0.015178824;-0.04339757;0.09338273;0.033892967;-0.14124519;0.2830736;-0.07529847;0.04727981;-0.15966797;0.09429816;-0.064107336;0.09661043;0.0012286013;0.0028711504;-0.05633478;0.031569175;-0.02168412;-0.06684043;0.013554719;-0.039626837;0.0104587255;0.01875713;-0.09294976;-0.028220164;-0.021329654;0.07658525;0.139834;-0.072972715;0.020689787;0.09484296;0.023881214;0.07168162;-0.13367124;-0.08524928;-0.05539169;0.11084871;-0.0009157678;-0.17025189;0.18710458;0.12509872;0.051207844;0.052320935;-0.27494067;-0.017069599;0.074181706;0.050288606;0.2621212;-0.03839245;-0.11219343;0.04074916;0.06347126;0.0008928488;-0.06590596;-0.079584256;-0.018851759;0.1183246;0.12647621;-0.051828038;0.024889754;-0.090595804;0.08427982;0.0069811954;-0.031076161;-0.14400087;0.09196073;-0.046176776;0.07239199;0.104430765;0.0081714075;-0.025174983;0.012057603;0.02756364;0.008154186;-0.34331402;0.033864547;-0.021606354;0.018404476;-0.095345885;0.10992047;0.045683004;0.01367085;-0.11217016;0.030435275;0.0955293;-0.015550884;0.008934757;0.024194064;-0.0810591;-0.0504134;-0.1073753;0.009190403;-0.3324959;0.058644246;-0.04786237;-0.072526015;0.08821053;-0.07598907;-0.0011994138;0.043937095;-0.053166106;0.1127716;0.11099785;0.08520157;-0.05459046;0.016872868;-0.0075782076;-0.024785928;0.07476838;0.038555652;0.045338485;0.02549679;-0.049276575;0.0533832;-0.044441767;0.032036323;0.011742506;0.03510219;-0.08937214;-0.08610727;-0.069403395;-0.066922165;0.05267496;-0.1291938;0.1334125;-0.042647716;0.15963426;0.18496192;-0.09937572;0.082831345;-0.1223066;0.06605197;-0.027891397;0.07522213;-0.16030404;-0.05829742;-0.043189876;0.10928104;-0.028478852;-0.031555843;-0.0024890294;0.027915612;-0.0066870097;-0.058484983;0.040006652;-0.06111573;0.014819089;-0.00080698397;-0.0058997218;-0.12503976;-0.069314554;0.034364697;0.1834353;0.032421723;0.032623373;0.042316545;-0.14017045;0.08764813;0.18237385;-0.06551297;-0.12670448;0.43824917;0.058525562;0.0067616324;0.12386625;0.2909684;-0.0076451744;0.35234013;-0.0030754895;0.04095415;0.08515803;-0.028636774;-0.06255275;-0.05690659;-0.08221138;0.08094688;0.0823503;0.104084894;0.06796812;0.0615694;0.03255207;0.06257048;-0.146483;0.014081889;-0.0022106096;0.11845312;-0.04075262;0.09388822;-0.07980819;0.061508678;0.112415135;0.010523312;-0.0476829;-0.13517849;0.08864664;0.16322313;0.2805936;-0.057777405;-0.034922045;-0.14292987;-0.047351867;-0.10891995;0.01016402;0.051286448;-0.023662902;-0.36971012;0.025923228;-0.02683235;-0.072026454;-0.029613344;-0.01237262;0.0017241401;0.07258374;-0.012483435;0.071360044;0.06777416;-0.037087783;-0.05747908;0.058367115;0.021783574;-0.0552192;0.034231532;0.031355616;0.025415892;-0.03884715;0.039629523;0.093016684;0.17569079;0.078004934;-0.01560695;-0.003517428;0.03431462;0.112311326;0.119461104;0.28286484;-0.02562798;-0.009878549;0.08339696;-0.111351594;-0.09028225;0.001988498;-0.058958966;-0.015440432;-0.36971122;-0.09826232;0.1438853;0.026030876;-0.0066542733;-0.007985307;-0.095150925;0.071782365;0.027455704;0.04683282;0.13101664;-0.0026953018;-0.07935748;0.089398205;0.069690004;-0.081374794;0.05317232;-0.0054076076;-0.034201257;0.045457825;-0.013959665;-0.06286682;0.12408487;0.040849734;-0.068405665;-0.18765436;0.02235636;0.09775907;0.07250913;0.022173272;0.010601227;-0.1537816;-0.027206924;0.07279097;-0.044480145;-0.024684252;0.04328851;0.15520471;-0.010389013;0.041831233;-0.014914297;0.0028078652;-0.055677675;-0.008977971;0.029415142;0.029126821;-0.019725049;-0.04451295;0.18707728;0.0939484;-0.030064816;0.023595138;-0.13282104;-0.16431935;0.03269871;0.027520487;0.014152855;-0.103132606;-0.042986404;-0.07098816;0.031376075;-0.0486155;-0.13906547;0.015938932;-0.092019655;0.00068057695;-0.017772265;-0.054226693;-0.49145126;0.09568587;0.080159955;0.07810682;-0.04981778;0.21002258;0.003516326;0.107820146;-0.046638615;0.18013063;0.029865837;0.0930126;0.021814343;0.02188775;0.01146937;-0.14505012;-0.2770623;0.26862526;0.31191966;0.053005904;-0.022445763;0.0645933;-0.2017177;-0.091749236;0.06408902;-0.1636119;0.08701055;-0.06410273;0.102947645;0.10819132;0.053106178;0.0002773075;0.15327366;-0.13088326;0.16629402;0.052619882;-0.273038;0.03583576;0.025187144;-0.009149878;0.041566346;-0.00086730125;-0.037302084;-0.022574672;-0.102612354;-0.109647;-0.14833668;-0.0685358;0.009194502;0.13352023;-0.103255965;-0.103204764;0.08397512
-0.09436025;0.072813675;0.011241046;0.10512596;0.019041656;0.000423866;0.038563207;0.103781156;-0.11165227;-0.30115557;0.04237899;-0.2098274;0.03737232;-0.0017790854;0.094067276;0.054756153;0.021980517;-0.025287809;0.00350972;0.037033547;0.0120224655;0.039533824;0.068066575;-0.2595078;-0.0960993;0.013567456;0.047229845;0.01594382;-0.44522738;0.028397366;0.0023529846;0.06387596;0.07541893;0.0028573298;-0.09911032;0.06653519;0.044089325;-0.02817601;-0.022180967;-0.027342578;0.016359055;-0.06271456;-0.024139538;0.013460392;-0.082512364;0.09794398;-0.2277108;0.020320766;0.061239813;0.059484698;0.04415285;0.01066735;-0.040521484;-0.021900438;0.25335538;-0.05169055;0.053093165;0.032049127;-0.20425107;-0.015558852;-0.03103181;0.026454357;-0.06957568;-0.016921006;-0.015936717;0.059385344;-0.17824581;0.026141476;0.01926432;-0.08102088;0.06311687;-0.02969222;-0.005976088;-0.0364779;0.10362757;-0.015058489;0.2730302;0.124215;0.16171624;0.1901959;-0.0909482;-0.03334801;-0.16497394;-0.14594981;-0.19658604;0.0024363678;0.046997935;0.0125208385;0.06452781;0.044652324;0.040445484;0.11997937;-0.0031521835;-0.04221993;0.108491;-0.02524576;0.0024785001;-0.0017696935;0.17441837;-0.04278276;0.19946603;0.06776925;0.07495262;0.076229386;-0.038491577;-0.03238511;-0.0059660184;0.025332602;0.03216066;0.0128201125;0.041593887;-0.09680573;-0.06482898;0.03302667;-0.0358672;-0.0441766;0.037582275;-0.050169945;-0.057777368;-0.08843799;-0.08231972;-0.01152772;-0.005093165;0.010111253;0.05324701;0.08463414;0.029202597;-0.036151174;0.057809748;0.06621176;-0.0055243317;-0.027343871;-0.017003765;0.018710375;-0.0059331707;-0.04400158;0.026814321;-0.080187775;-0.0011988117;-0.04803494;0.005357555;0.04203227;0.07184556;0.05894772;-0.13558044;-0.06992087;0.040220633;-0.009187242;0.09387804;-0.045965213;0.13514985;-0.05187328;0.032900367;0.0829418;-0.04108986;-0.11156191;-0.06320981;0.023874098;-0.01726168;-0.012126074;0.065931164;0.08270108;0.009775503;-0.23683038;0.12586935;0.00442536;0.10486231;0.09841131;0.035335243;-0.0072649634;0.031042984;0.060004618;0.12545945;0.06443727;-0.053471535;0.057025854;0.059537906;-0.029633382;0.0011403994;-0.08612429;-0.15167604;0.17228441;0.030042142;-0.079965785;-0.05029051;-0.1030965;0.026861459;-0.037880838;0.0115501275;-0.04722223;0.069340214;0.0036678598;0.050950337;-0.010558537;0.037546627;0.15912855;0.058475822;0.05226706;-0.0061691967;0.0050469507;0.07487021;0.041789982;-0.025360338;0.012519258;0.009435495;0.043208066;0.048022848;-0.029813806;0.021260642;0.19546753;0.00029110405;-0.05082526;-0.28701597;-0.035273407;0.00025896262;0.017542148;0.023688866;-0.09791584;-0.11747085;0.005079611;0.049465194;-0.002852591;0.14853734;0.05038934;-0.0075576305;0.023843829;-0.063798286;0.08138558;0.06881203;-0.006139194;-0.071142815;-0.07052179;0.056233242;0.050981406;0.041422267;-0.047038797;0.044487774;0.04341615;-0.044885706;-0.19339286;-0.13322772;-0.06387303;0.009179833;0.031236703;0.037125893;-0.12215923;-0.09818073;-0.01583928;-0.07744048;-0.025507744;-0.0993323;-0.018697673;0.08105965;0.015390443;-0.050573014;-0.2862249;0.049223974;-0.040591005;0.046478137;-0.037967645;0.020131538;-0.043624774;-0.04150549;-0.039057985;-0.101014815;0.00046992383;0.09658288;-0.018168109;0.04589632;0.020270249;0.06422256;-0.02440246;0.063990094;0.029480372;0.045383006;0.070194885;-0.09408209;0.03485526;0.07201036;0.03935004;0.11602173;0.058316372;-0.10512334;0.058111884;-0.027434276;-0.0362629;-0.050185084;0.017699512;-0.09064165;0.11198024;-0.053378798;0.03131724;0.27416888;-0.010367262;-0.0059240884;0.04078773;-0.063203566;-0.06698631;-0.078056335;-0.123390205;0.0408678;0.014811683;0.03103135;-0.0664255;0.0141963465;0.012560806;-0.03112134;-0.013437121;0.0079769455;0.24597055;0.10233018;0.05024778;0.022974377;0.06291477;0.077596396;0.013874654;0.057853673;-0.046930525;0.0069787716;0.053671297;-0.033673257;0.06851043;0.026895002;0.11814964;-0.0558159;0.033748835;0.114789516;-0.08391643;0.048964813;-0.004971595;0.038926408;0.100462675;-0.09793579;0.09219525;-0.050488822;-0.082479164;-0.01840583;-0.0550261;0.11881377;0.1100231;-0.075783916;0.034003302;0.05228107;-0.0071945;0.032288224;-0.057259753;-0.022488436;-0.049535975;0.034618;-0.07725089;-0.07010993;-0.06296656;0.10017798;0.023066174;0.038703352;-0.068557724;-0.010016609;0.09735301;0.059291225;0.05885906;0.01883126;-0.083955705;0.0031611319;0.03648346;0.07774835;-0.0862189;-0.080780506;0.031343665;-0.08756922;0.015763327;-0.023177845;-0.0147809675;-0.1755023;0.1578189;-0.09247939;0.067049645;-0.039705243;0.19790909;-0.0695651;0.12126572;-0.07184544;0.05042016;-0.07678927;0.03838512;-0.058369577;-0.04881325;0.17150834;0.027074633;0.068947904;-0.07731114;-0.0027136612;0.08096852;-0.03656462;0.018395588;-0.16527188;0.053471435;-0.015298526;-0.00069385197;-0.1831823;-0.038787518;-0.08553792;0.01997288;0.016593065;0.010862327;-0.093141966;-0.19392544;0.038538836;0.074830234;0.0336538;0.0039132033;-0.08205815;0.004002461;-0.07072664;-0.055184145;-0.07214159;-0.08207791;0.0139089925;-0.08607649;0.0031012148;-0.010351901;-0.0374876;0.04844214;0.17873201;-0.016155917;0.033408195;-0.051154096;-0.03404205;0.042395726;0.25301874;0.033853006;0.01284422;-0.0015278466;-0.07521755;0.05707585;-0.036425132;-0.026546495;0.030635519;0.013450316;-0.04926092;0.041472778;-0.10539645;0.025146492;-0.016264614;-0.020295251;-0.097994186;-0.061532408;0.11501492;0.015189675;-0.066046916;0.02767948;0.0664209;-0.008880894;-0.104739785;0.041461423;0.025412748;-0.031869214;-0.06066863;-0.29163903;-0.095853664;-0.057016306;0.048808612;-0.11100796;0.0046141427;0.03021042;0.01863206;-0.08324335;-0.10491655;0.007558532;-0.040047966;-0.03935821;-0.07425824;-0.01815797;-0.0814091;-0.22156084;0.06259183;0.12602954;0.009795346;-0.10123833;0.0107115;0.011589942;-0.11551264;-0.013795453;0.09943744;-0.1539593;-0.039016716;-0.0025291091;-0.048056602;-0.018712781;-0.021471722;-0.035057224;-0.11026462;0.0891565;0.050906602;-0.056829307;-0.005741187;0.034271356;-0.020911898;-0.072438575;-0.026814751;-0.079242304;-0.06540708;-0.040937047;-0.12285552;-0.056558248;-0.0762462;-0.10862895;0.043037374;0.036082905;-0.021674745;0.0803613;-0.07448816;0.056973875;-0.009249258;-0.03464072;-0.008754487;0.0141259795;-0.18559416;-0.21588701;0.043024223;0.12130089;0.03155604;0.00060213334;0.12206453;-0.29434142;0.019665731;-0.034288235;-0.05878071;-0.04788453;0.18957196;-0.06559441;0.050015472;0.0917937;-0.10187907;-0.02717203;-0.07921596;-0.102491595;0.052627746;-0.030941252;-0.32074016;-0.050727066;0.12052915;0.17464878;0.051313464;0.045149796;0.10156792;0.03103691;0.20870319;-0.013271296;0.070068754;0.058577497;-0.01940119;-0.06856923;0.014848888;-0.007642585;-0.009749737;0.10014479;-0.0046025887;0.051495165;0.06490588;0.089568295;0.061684594;-0.0014706461;0.023673542;0.023078894;0.06296861;-0.028067214;-0.068077974;0.052373353;-0.18605916;-0.001295792;-0.009140849;0.035882816;0.04705466;0.040690098;0.03146102;-0.3707531
0.031087687;-0.07163414;0.025902307;-0.06667876;-0.08894748;0.023111172;-0.030164793;0.011357682;-0.032563116;-0.07002794;-0.03385862;-0.26438463;-0.016669402;-0.079046525;0.01778862;-0.07671806;-0.010895293;0.028419228;0.06762417;0.0974566;0.007041322;0.09217755;0.010963893;-0.23943834;-0.023753174;0.006175163;0.012279105;-0.080825575;-0.17498954;-0.08926639;0.08017071;-0.1113529;0.0030228232;-0.078538105;-0.104755975;0.06629262;-0.081505425;0.026847394;-0.037385542;-0.026081095;0.0059189983;0.08424807;-0.17242792;-0.02751109;-0.070693694;-0.021868316;-0.23716746;0.021174695;0.031247307;-0.009318283;-0.06991382;0.081151225;-0.26370475;-0.05682852;0.1712119;0.018240636;-0.0066560553;0.06040921;0.0381759;0.08670014;-0.07700548;-0.0301483;0.01325109;-0.027428888;-0.045403842;0.077984296;0.04320194;0.02257997;-0.00952683;0.051129982;-0.06393159;-0.07071794;-0.010701912;-0.048602633;-0.01429006;0.074298814;0.10490149;0.047385138;0.12779592;0.052866343;0.02467129;0.049424984;-0.20146891;0.015286006;-0.026525695;-0.058156703;0.011294417;-0.032341003;0.0349176;-0.0099956915;0.03917092;0.0956135;0.18145458;-0.03722445;-0.08119441;-0.0028223079;-0.08064497;0.010865004;-0.040677484;0.0023681554;0.05081722;-0.014239371;0.01753518;-0.038322806;0.07039698;0.012589898;-0.058548827;0.09797801;-0.116242476;-0.015369882;0.08355473;0.010809087;0.07832616;0.048928823;-0.095693186;-0.03117478;-0.013995426;-0.029125517;-0.0066928472;-0.07137744;-0.02822054;0.08739324;0.061387002;0.10016765;-0.060544997;0.0062127607;-0.12223892;-0.024389755;-0.06462557;0.05546898;-0.044297438;0.01712668;-0.019399349;-0.07983033;0.0013665934;0.10684198;0.07084797;-0.058541533;-0.010384951;0.032242637;0.067652635;-0.032563396;0.067019485;-0.0027166423;0.034285367;0.0023651805;-0.096390635;-0.020101907;0.052641004;0.059322406;-0.024242286;-0.044031866;-0.01360065;0.085557036;0.07513129;0.025554096;-0.0073833405;0.03037155;-0.08086258;0.07759897;-0.057483256;-0.032204643;0.027407588;-0.059209146;0.11928208;0.01768189;-0.124628276;0.10835694;0.054215092;-0.017772125;0.15108871;-0.056915548;-0.0178749;0.08555076;0.024611052;0.01933081;0.09207912;0.07254348;-0.107270524;0.08612061;-0.13973358;-0.06405039;-0.013944091;-0.062666245;-0.06854567;-0.06908632;-0.0048557264;-0.024222095;-0.047929443;-0.0028072468;0.09266245;0.035896562;0.07512767;-0.030147113;0.05089481;0.07120533;-0.03207003;-0.0467863;-0.07380927;-0.03148839;0.015039682;-0.04956537;0.05028694;0.04120944;-0.0704895;-0.013505718;0.2020206;-0.020589357;0.036787175;0.090579666;0.066682145;-0.04552072;-0.16525872;0.17726895;0.021489011;0.0475657;0.013756664;-0.021239145;-0.07195548;-0.087582104;0.015555817;-0.060587768;0.10391133;-0.07801893;-0.06701891;0.007359363;0.03685759;-0.02786454;-0.011542097;-0.024919234;-0.021312743;-0.012196914;-0.046399444;0.08231727;0.018400514;-0.052629314;0.00092809903;-0.056779064;0.0738872;0.022896945;-0.21277073;-0.078210264;-0.06505168;-0.053521555;0.16885054;0.0011097653;-0.15757468;-0.08859477;-0.06710938;0.041109007;-0.098799184;-0.05062556;-0.048635848;-0.08999224;0.07233162;-0.13176419;0.038944267;0.072231725;0.038428836;0.058554977;-0.00942002;0.06970436;0.033966854;-0.15429391;-0.085092284;-0.052212734;0.07812828;-0.042114597;0.12658356;0.1325605;-0.00030149682;0.05650248;-0.036308806;0.008167683;0.026075106;0.019045802;-0.030706707;-0.042835347;-0.100854345;-0.008201055;0.032269992;0.039453104;-0.038614467;-0.055420235;-0.0014277684;0.013468259;0.008865127;-0.11095906;0.045567255;-0.0061615873;-0.08974105;0.121608876;-0.010894205;0.057222385;-0.12245591;-0.049562674;0.04483846;0.009029558;0.028390959;0.043536555;0.036798123;-0.10171277;-0.030856792;0.05011106;0.027906658;0.00076258974;-0.124437995;-0.004321121;0.052632194;0.17632347;0.047231022;0.017091999;-0.028710822;-0.058601957;-0.038065985;-0.019985748;0.06987447;0.043092135;-0.04783231;-0.10104277;0.016853023;-0.092252135;0.020597043;0.105972335;-0.010795792;-0.053570688;0.033344742;-0.0727194;0.016611347;0.060835946;0.058262967;-0.012073851;-0.051225387;-0.07293569;0.053807482;0.01451913;-0.0044835834;0.029263014;0.051900335;0.031081427;0.015250202;-0.023832401;0.045696642;0.054895118;0.021097947;0.068329155;-0.068725586;-0.013508257;0.0061924323;0.0061852587;0.004865961;0.031245016;0.15158264;-0.053203747;-0.075389534;0.019752868;0.031909063;0.07692654;0.04135668;-0.022635443;-0.0031661226;0.03793973;0.08519881;-0.07855894;0.13781622;-0.027291687;0.06682379;0.05787733;0.027783195;-0.04130128;-0.06945152;-0.0070595494;-0.056462485;0.12335332;-0.039814465;0.058865875;0.061994363;0.1881139;0.03440753;-0.000695636;0.09334788;-0.03679822;0.03344171;0.02219338;0.037518665;-0.06823153;0.058813497;0.0020438186;0.0024300744;0.096362464;0.014248895;0.07418452;0.014125659;0.057452608;-0.176001;0.08725766;0.00587463;0.06624078;-0.13789898;-0.045293;0.078785226;-0.009591834;-0.03462128;0.012375514;-0.18508703;-0.1790356;-0.022758055;0.16149183;-0.01106843;0.027263712;0.01828384;0.10651858;0.010413017;-0.025382109;-0.041605663;-0.0049383654;0.04894996;0.029285656;-0.084483735;-0.09489105;0.0050384114;-0.0054880683;0.14325063;-0.04513756;0.03603908;-0.08326956;0.013319302;-0.070164606;0.17329107;0.05389766;0.044600397;0.07660074;0.08861031;0.010521343;-0.0033749403;-0.0377577;0.044579722;-0.0143627785;0.05471313;0.115217395;0.018102163;-0.041541655;-0.016762163;-0.025647897;0.010466891;0.038844213;0.06722526;0.018621288;0.06114769;-0.01628643;0.052189995;-0.01593618;-0.070147805;-0.0025543477;0.0849885;-0.07644827;0.08550264;-0.09917155;0.04393287;0.057765868;-0.02250139;0.002281955;-0.0034626261;-0.020839175;0.091074914;0.10397216;-0.05198515;-0.12901288;0.019421829;-0.01218095;-0.07561618;0.06812268;0.07547114;-0.10857343;-0.026569009;0.12547989;0.015037133;0.073021755;-0.09410237;-0.060748473;0.07050874;-0.028283877;0.16376235;-0.021528563;0.064695664;-0.012574623;0.17601319;0.009811998;-0.008630719;0.0030913053;-0.093951315;-0.007104278;-0.016040534;-0.03386071;0.008786677;-0.02590931;0.053675625;-0.22783151;0.03896955;-0.0152337765;0.032512236;-0.06570221;0.07538551;-0.014443014;0.024515025;-0.29580986;-0.025990328;-0.11902706;-0.1702465;0.02883234;-0.20095962;0.0230505;-0.033845052;0.010668431;-0.011396392;0.0846224;-0.09793076;0.018818088;0.0026750816;-0.12008691;-0.1003203;-0.029352624;0.05419111;-0.17757857;0.06290153;0.07953116;0.06852925;-0.048988152;-0.030719928;0.021178469;-0.0220926;0.052579414;0.049140267;0.08667011;-0.038459286;0.031982884;0.018747276;0.100602075;-0.12386712;-0.13616657;-0.04669042;0.050539974;-0.019776369;-0.025056696;0.14898089;0.011608791;0.18731037;0.013690617;-0.13965432;0.08137286;-0.04497534;-0.005840038;0.04185746;-0.012444176;-0.026638916;0.1038111;-0.1265221;0.033101548;-0.045562476;-0.022673527;0.06892767;0.060214933;-0.049719244;0.041108616;0.04369925;0.02659005;-0.04333585;0.037709642;-0.024569046;-0.081893906;-0.04961282;0.069343574;0.057429273;-0.05202368;-0.036517944;-0.22347881
0.04219024;-0.029232854;-0.020946294;-0.12836838;-0.085914545;0.042064533;-0.057283036;0.13428125;0.07488269;-0.16527875;-0.028359558;-0.029107787;-0.036500104;-0.02449851;-0.070335075;0.051868428;-0.1325138;0.06763422;-0.062361546;0.047958627;0.02814034;0.04881801;0.07932938;-0.25450343;0.08875331;-0.012726842;0.071707614;0.025534471;-0.33167055;0.05638122;0.13427825;0.08501571;0.008846267;0.062270097;0.09990896;-0.065372236;0.052710302;-0.04140716;0.05578297;0.050450254;0.0063021514;0.0058968975;-0.08409867;-0.087529644;0.010315728;0.060137246;-0.22727114;0.041884694;-0.03232144;-0.02766223;0.3492885;0.042378142;0.16391562;-0.041248273;0.09173177;0.011598741;-0.0032251666;-0.0813354;-0.09934547;0.020316869;-0.033877987;0.06273898;0.002200456;-0.02066921;-0.061750624;-0.01497282;-0.09891961;-0.22679332;-0.055360634;-0.008094537;0.060253084;0.07457519;0.017916242;0.07556289;0.068408825;-0.02675656;0.20560803;-0.019498924;0.06026413;0.0293613;0.047466815;-0.025707332;-0.09197377;0.077159405;-0.037355218;-0.014323551;-0.01967746;-0.14511831;0.020800957;-0.027341686;0.046260867;0.3355523;0.04058873;-0.018098617;-0.0684751;0.064957984;-0.13688262;0.09004599;0.25967497;-0.069811925;0.1735209;0.08137121;0.08699114;-0.0257892;0.013469175;-0.07211152;0.016369695;0.057521958;-0.08521309;-0.06949562;0.1039106;0.046564177;-0.013094116;-0.059400145;0.030645525;0.07036539;0.026777381;-0.06866889;0.0016127579;0.05327173;-0.01245463;0.014072672;-0.049790964;-0.04965;-0.041364897;0.014558735;-0.17893197;-0.10773024;-0.079202056;-0.01989005;0.06030243;0.25132623;-0.02093007;-0.03337322;0.005861131;0.034642722;0.001041424;0.1116012;-0.045720153;-0.082698256;0.057073656;-0.03799367;0.103747785;0.07746731;0.07336446;0.010775662;0.039681315;-0.034592316;0.021305755;-0.0590586;-0.082949825;0.01617118;0.0012239288;0.21839829;0.022657782;0.078208;0.0871867;0.08638058;0.10178383;-0.025091749;-0.033613063;0.07895275;0.07110058;-0.28982067;-0.046158876;0.07260004;0.07460542;0.084985055;0.040674925;0.022526622;-0.02094084;0.037751567;-0.030944021;-0.0020199798;0.048276395;0.07277511;0.050499905;0.037507985;-0.11229202;-0.026700333;-0.3117919;0.03014703;-0.043433942;-0.005675073;-0.07956325;-0.025137283;0.081654884;-0.024729336;-0.009432446;-0.048638247;0.07197872;0.06322096;0.111430265;0.014185297;-0.209978;0.038492072;0.083677955;-0.07960667;0.010048964;0.0320896;-0.01570731;0.061654083;-0.05902905;-0.05962098;-0.2700074;0.0717666;0.13528629;0.076843895;0.08410883;0.4457661;0.03673133;-0.062301543;-0.24432111;0.20075087;-0.04828382;0.06685911;-0.12878262;-0.15022536;-0.2589818;-0.033740513;-0.02808513;-0.2731176;-0.09630839;-0.051732715;0.01936028;-0.02415249;-0.0023526482;0.08743864;0.051390193;0.03162864;-0.04368735;-0.007828004;-0.021135451;0.08423419;0.075947426;-0.063801765;0.097366996;0.10495251;-0.094013296;0.014054909;-0.04053955;0.085283265;-0.019765057;-0.07560256;0.011031666;-0.027764635;-0.11502286;-0.060148418;0.017269857;-0.0032465265;-0.05845672;-0.12051986;0.0606757;-0.010827788;0.051715698;-0.11625177;-0.11029218;0.064994015;-0.058633424;-0.11014381;0.020789588;0.0684783;-0.021301957;-0.030336691;-0.11548834;0.065191336;0.16358522;-0.002082066;-0.0034991738;-0.009791349;-0.025758285;0.0054026935;-0.025321592;0.02106991;0.019786289;-0.0054163067;0.016337564;-0.045078993;0.006891048;-0.050894246;-0.10440495;-0.014192699;-0.068608925;-0.011231678;-0.037553586;0.034453772;0.09013986;0.07310409;-0.0447636;0.09061444;-0.0023651405;-0.0017180134;0.22807422;0.054345027;0.07613545;-0.03578206;-0.010909429;-0.067768574;-0.006078809;-0.006755126;0.03567269;-0.02841289;-0.045000046;0.045637295;0.24376225;-0.038178273;0.07492412;0.07840947;-0.053208593;0.050919853;0.15699935;-0.0453767;-0.060720883;-0.049323104;0.110679;-0.023299716;-0.011506113;0.0026313788;-0.009609538;-0.00065153645;-0.0043146997;0.047544878;0.028807644;0.040639844;0.02168216;0.06969548;-0.031357758;-0.038610548;0.046466902;-0.022067014;-0.084591106;0.008806064;-0.04671923;0.023406448;0.059595514;-0.026044207;-0.13402794;0.08443063;0.020950709;0.011737204;0.06619713;0.03899858;0.13362437;-0.049858134;-0.04269674;0.027658693;0.07585494;-0.07623235;0.039248653;0.054324206;0.06569633;0.015695935;0.022023913;-0.03126219;0.027940502;0.029436192;0.048164785;0.013264019;-0.088176236;0.0059996205;-0.015315281;0.026251888;-0.025379919;0.021194924;0.20469081;-0.02900062;0.074945904;-0.015936948;0.023896735;-0.095404066;-0.20357226;0.056313373;-0.26061648;0.029713493;-0.056141343;-0.022250742;-0.07491792;0.0065163258;-0.022150783;0.0843907;0.0009409288;0.045161657;-0.039048005;-0.012247484;-0.040988997;-0.10605717;-0.04796277;-0.05407161;-0.027428843;-0.015640724;0.0249295;0.0924793;-0.0015976654;-0.063293815;-0.20339702;-0.010559258;-0.009812752;-0.017239083;-0.12340468;-0.08246539;-0.0049232705;0.034381736;0.058926053;0.2572326;0.03263172;0.06411151;0.033158563;-0.033303797;0.032085154;0.00024023122;0.07235215;-0.029546414;0.021247841;-0.043189827;-0.04238551;0.12540464;-0.048745576;-0.087663144;-0.033756386;0.0061551835;-0.09002255;-0.005563661;-0.029974783;0.036649402;0.047272783;0.02163922;-0.009843627;0.010965961;0.13825677;-0.06919864;-0.028303761;0.044452153;-0.039105985;-0.029473744;-0.04165288;0.0010597635;-0.007205435;0.027723769;-0.0045857728;-0.025710654;-0.037234843;-0.004323744;0.031850006;0.05051565;-0.0678166;0.05596916;0.12388061;0.03155887;0.028322428;-0.04330761;0.06724232;-0.038777363;-0.063043594;-0.023985889;0.09946053;-0.06521464;0.085577056;-0.045715906;0.020550147;0.061434645;0.057626657;-0.06263256;-0.03548426;0.03325353;0.06672655;-0.039931756;0.012792011;-0.11509199;-0.035776187;-0.10433311;0.16394736;0.063780524;0.031474575;-0.018389957;0.053432282;-0.05688807;0.10541714;0.15281732;-0.0050812177;0.0047514257;-0.16078463;-0.037435323;0.046634626;-0.019961542;-0.017635569;0.019202312;0.052638385;0.0016928766;0.039696887;0.041167207;-0.13345279;-0.025514532;0.054504387;0.09307052;0.015270227;-0.061207872;0.054493323;0.004613807;-0.098516434;-0.00023617022;0.085217096;-0.00046983594;-0.08066424;-0.027640888;0.025383234;0.024494525;-0.07713996;0.021374881;-0.13250506;0.05561783;-0.014365064;0.08537732;0.06002621;-0.001999104;0.041147437;-0.017810881;-0.10900228;0.0042592133;0.05117317;-0.017366646;0.035432678;-0.0486304;0.060756553;0.07174912;-0.06559735;0.052499693;-0.0046715382;0.030438332;0.06065225;-0.054305125;0.037406888;-0.040789183;0.14036928;-0.014339749;-0.038642958;-0.060559787;-0.063409775;0.0126219;-0.24850188;-0.101910844;-0.010306471;0.077308565;0.015118274;-0.036579363;-0.08719211;0.032139726;0.11254208;0.048499078;0.13192078;-0.032229997;-0.00867281;-0.026976744;-0.08893564;0.006086906;-0.040822126;0.04780614;-0.029974593;-0.13111143;0.016973838;0.05614889;-0.049825285;-0.05649477;-0.060541395;0.011743294;-0.028368609;-0.0023306375;0.013650465;0.058545325;-0.15762849;0.08468202;0.05089514;0.07039618;-0.021130351;0.034367837;0.06937513;-0.16065271
-0.019524524;0.0016543599;-0.07091027;-0.14785127;0.041132778;0.025387373;0.055414315;-0.016466351;-0.014488985;0.10304261;-0.022440115;-0.10975675;-0.0539069;-0.106668085;0.041737907;0.019284546;0.017743714;0.06488703;-0.052761167;0.016968014;-0.08097054;0.0062218793;0.10423723;-0.16759653;-0.0556649;0.053014886;0.07270944;-0.021453366;-0.20736963;0.023606773;0.097767085;0.071832255;0.05748895;0.022898916;0.22376716;0.09271578;0.029887319;0.037016567;-0.052975826;0.052908946;-0.1474039;0.07785825;0.014389999;0.042109407;-0.003422647;0.09991059;-0.11051458;-0.038598422;-0.021113943;0.030392306;0.099038735;-0.031351298;0.10104481;-0.06744461;0.05338821;0.073718764;-0.0023605842;-0.026048174;-0.07903339;0.0278351;0.03386868;-0.0029973905;0.0011646781;-0.039526276;0.080970846;0.0062854034;0.031216606;-0.041960575;0.122079626;-0.041538265;-0.034658566;-0.021131217;-0.010042668;-0.006951628;0.010123256;0.040477663;0.14883466;0.05589013;0.05626914;0.15969473;0.023559129;0.09427893;-0.06646548;-0.0652597;0.06390098;-0.045075726;0.0009246246;-0.12217177;-0.03164849;-0.0782878;0.037677404;0.165748;0.18063597;0.009852837;0.022129828;-0.016936585;0.019830722;0.09400493;0.17081079;0.0040501547;-0.1464597;0.006081934;0.027073195;-0.07935231;-0.010326794;0.004376361;0.09520938;0.10297589;0.0625058;0.003530783;-0.007649897;-0.09464617;-0.0578875;-0.05907187;0.025885083;-0.016439954;0.014919468;-0.054905493;0.041442893;-0.010513976;0.10354213;0.10900782;-0.07185343;0.010651182;0.003935488;-0.078631185;-0.1530884;-0.09273838;-0.044680316;-0.07276841;-0.034506705;-0.035182394;-0.12121634;-0.027347628;0.05949975;-0.05266153;-0.07756339;0.01431391;-0.10409208;-0.041337784;0.048762646;-0.08846544;0.10204402;-0.013135461;-0.041871447;0.023440035;-0.16495152;-0.068950236;0.028676778;0.047421936;-0.2705093;0.01587717;-0.034717772;0.15688132;-0.07061155;0.097125955;0.028429372;-0.037413403;0.057846356;-0.057814155;0.024047768;0.079400904;-0.014044051;-0.18540566;-0.01941194;0.06654233;-0.0013162569;0.11476294;-0.14413293;0.005450564;-0.0249941;0.035836384;-0.08534554;0.021414792;-0.007810418;-0.03227485;-0.08347704;-0.01458305;-0.10268577;0.030077295;-0.1923886;-0.0862445;0.0040358664;-0.08790526;-0.1243776;-0.0020837835;0.02920133;-0.009922576;0.041627068;-0.124425806;0.040162474;-0.07110537;0.018254504;-0.061615348;0.004200104;0.11817601;-0.07619943;0.0002052858;-0.048139427;0.10605359;0.022248466;-0.04168283;0.01403436;-0.014220209;-0.063699014;-0.037132822;0.0913129;0.060654797;-0.03286681;0.17390895;0.08491621;-0.07150048;-0.112276174;0.20088507;-0.043499548;-0.014715749;0.020814301;-0.008316265;-0.14097081;0.06732915;-0.07450116;0.031033227;0.16424468;-0.054977916;0.048139364;-0.040537313;-0.10703295;0.085295245;-0.003473142;-0.085950494;-0.015450633;-0.028365199;-0.06683663;0.09131656;-0.0094794575;0.071621135;-0.06492218;0.06260643;0.066618085;0.112434946;-0.076969154;-0.044063106;0.0017548609;-0.07077266;0.12522803;-0.051028423;-0.008695827;0.030370748;0.026847852;0.040595215;-0.089719325;0.008560451;-0.08442849;-0.056490097;0.0070391246;-0.20818073;-0.016189074;-0.077865094;-0.035424106;0.044821374;-0.058346458;0.06796668;-0.036462143;-0.14118327;-0.119649515;-0.027405018;0.06375132;0.11079826;0.08569945;0.035741117;0.06305266;-0.032801766;-0.06468892;0.049263056;0.021084018;0.13222288;-0.0069300127;-0.080281936;0.07715266;-0.06698175;-0.009928199;0.040042993;0.009081682;-0.063707456;-0.07389003;-0.02586364;0.026761547;-0.053406674;-0.029609188;-0.052031264;-0.04967769;0.17697628;0.14419866;0.017323546;0.029885797;0.11029944;0.077460006;-0.00917916;-0.053888574;0.059068587;-0.011125239;-0.06734516;-0.024824517;0.01141204;0.11935539;-0.09022541;0.069044426;0.016153429;-0.080783516;0.012107362;-0.043966852;0.09491971;0.02203538;-0.03518761;0.11856092;0.060242172;-0.045200646;-0.02667446;0.06704471;-0.0056512556;0.08208575;0.0070749596;0.06824778;-0.08759672;-0.066867776;0.004478658;-0.016837664;-0.015106845;-0.0059502902;-0.07176959;0.05127151;-0.101855546;-0.21034169;0.021990225;0.002612007;0.052770864;-0.08304918;-0.07965296;0.12723744;-0.02922999;0.07519386;-0.049029548;0.021121642;0.029830508;-0.052635014;0.04153817;-0.16624033;0.0067443787;-0.026359973;-0.052840047;0.02247135;0.021290505;0.06890132;-0.001858793;-0.016073141;-0.030299764;-0.051786553;-0.069182955;0.019322563;-0.06345249;0.00027539497;-0.024322914;-0.06690015;-0.06976824;0.12739947;-0.009004329;-0.054775476;-0.0016030053;-0.11004594;0.056096513;-0.026909234;0.056492664;-0.1596772;0.17687166;-0.07805606;0.090583734;0.07766065;0.19558762;0.06974007;-0.033880122;0.07095149;-0.07979362;-0.026079169;-0.05306495;0.029553004;0.07819578;-0.10484036;0.080791526;-0.040718976;-0.03899253;-0.060315095;0.115706585;0.034697607;0.022789016;-0.07055168;0.09206691;0.019829348;-0.013064818;-0.030091934;-0.05492924;0.006785028;-0.0037924044;-0.028107377;0.13008422;0.05513015;0.040226005;-0.07972467;0.1753024;-0.15519181;0.09428714;0.095918834;-0.08457936;0.03375443;0.14525169;-0.06801612;0.028927341;-0.03199942;0.08878469;0.038687404;0.020732844;-0.032307245;0.1132601;0.10105084;-0.0062661297;0.0856777;-0.09370307;-0.06309635;0.023298906;0.0042057736;0.0132895205;-0.022296134;0.095183074;0.057995748;0.061004702;-0.019502267;-0.012364652;-0.038042035;0.050092094;-0.002333755;0.08092127;0.017130392;-0.022146894;-0.030178497;0.10733451;0.05590311;0.07322761;-0.005978795;-0.05531706;0.017910102;0.04087947;0.13554634;0.12666896;0.022187337;-0.047458153;0.07318508;-0.06377502;0.15737599;-0.14219682;-0.04242353;-0.022584949;0.01784208;-0.09762417;-0.05174292;0.08358736;-0.044873204;0.077567115;0.029812569;0.010127042;0.098122224;-0.06605447;-0.053975716;0.06099581;0.07953536;-0.1842713;0.055926505;0.0288786;-0.07796516;0.11596288;-0.04123746;0.043916777;0.059719402;0.010921499;-0.00038678045;0.015998606;-0.051726792;0.015543112;-0.024520103;-0.08588852;0.021678539;-0.027131347;0.013510734;-0.090471305;-0.019102864;0.037239067;0.03988362;-0.0448801;-0.020271584;0.053778213;-0.043803632;0.021765117;-0.14806183;-0.012230531;-0.10806976;-0.17978512;-0.042272285;-0.111996755;0.0028777875;-0.10423794;-0.11432656;0.02352712;-0.059312332;0.08114521;0.062399708;0.055976428;0.09779201;-0.0012445556;-0.0033581937;-0.0009229759;0.074837655;-0.15021698;-0.103334986;-0.008931378;-0.20737655;0.22149566;0.013461404;-0.0036476576;0.075556956;0.016139789;0.03399934;-0.09104239;-0.019362926;-0.06319341;0.015697671;0.026739944;0.03193211;-0.09618037;-0.008782471;-0.0622555;-0.099982694;-0.089543365;0.014175521;0.13158521;-0.060443453;0.092112966;0.018889926;-0.021573022;0.04054484;-0.022814665;-0.12610433;-0.009626022;-0.075365424;-0.008308546;-0.06877361;-0.030697739;-0.02025451;0.18507016;-0.08741748;-0.022665687;-0.017893542;0.22484434;-0.034035012;-0.078083105;-0.089183554;0.024836827;0.040395003;-0.029745616;-0.036995944;-0.062165912;-0.33531383;0.00790105;0.10970706;-0.029015325;0.04507487;0.011208025;-0.036748838;-0.08966796
-0.011620313;-0.09612652;-0.07546741;-0.06352746;0.05742408;0.070287384;0.04806473;-0.02037565;0.028028442;0.030997334;-0.03604373;0.087837346;0.08345854;0.063261814;0.02284373;-0.0688967;-0.12325477;-0.0036514848;0.0045641013;-0.051925354;-0.012414627;-0.049746316;0.0076169386;-0.17544983;0.00044474885;0.04070648;-0.024783244;-0.058745544;-0.123322226;-0.054423053;0.033564463;-0.06959123;-0.034696907;0.046448674;0.17904769;0.03816918;0.009202563;-0.0242705;0.028818514;-0.09809589;-0.017931232;0.034224186;0.048048384;-0.10300757;-0.048388567;0.10704264;-0.15988666;0.03190033;0.05023959;0.13479476;0.20756127;0.06347051;0.28633994;0.019689186;0.12535788;-0.05891258;0.014314909;0.08281606;-0.075563006;-0.02000516;-0.100223206;0.030731611;0.053996578;0.066742964;-0.06621048;0.00063380075;0.018236171;-0.02245602;0.023514822;0.013122885;0.08319121;-0.008051707;0.072800934;-0.09986526;0.0925681;0.06326424;0.05000967;-0.04714456;0.08681072;0.00082158187;0.019561512;0.060527593;-0.0077947737;-0.04120906;0.044298884;-0.08904417;-0.0014636401;0.014801339;-0.09159974;0.004631888;0.057280537;0.06292532;-0.020482352;-0.09766703;0.025904275;0.04226488;0.07262791;0.023248347;0.16832383;-0.09067401;-0.06903917;-0.005832604;-0.018208612;-0.04660417;-0.05820655;0.085795544;0.068028174;0.106681444;0.052254975;0.07189906;-0.028870372;0.026918769;0.026340973;-0.096534;0.033734083;0.057364296;-0.041477565;-0.13741595;0.19349958;-0.060660094;0.09787051;-0.024433704;0.021732809;-0.018288359;-0.022985775;0.011593406;0.1395483;-0.28653964;-0.0036766105;0.0004826485;0.08258372;-0.041907143;-0.04043913;0.012723913;0.15506203;-0.12467753;-0.03731738;0.009516369;-0.0067457585;0.06480108;0.07778383;-0.069018446;0.033872984;-0.019961007;-0.0732078;-0.042277075;-0.15758069;0.020267483;-0.0016816866;-0.10991553;-0.2335686;-0.07785465;-0.02590349;0.035289574;0.00048676238;-0.06451828;-0.015520382;0.014420275;-0.053571023;-0.15478945;-0.04385457;0.03855391;0.04930566;-0.18541643;0.05051342;-0.043030772;0.08455154;0.022483148;-0.07378957;0.039941225;0.13143854;-0.048455123;0.092780925;0.065441236;0.049691387;0.040492684;-0.04948502;-0.09095343;-0.19558719;-0.036744304;-0.17802165;-0.07613753;0.06499415;-0.06230977;-0.1255369;0.014464714;-0.1028252;-0.004850929;0.024714334;-0.06236576;-0.021777626;0.07573905;0.12396627;0.043730043;-0.07198604;-0.14664397;-0.03857987;-0.04874852;0.068222545;0.07379177;-0.015585581;-0.07990663;-0.08079304;-0.065129414;-0.023798482;0.036720287;0.057454802;0.22221424;0.07189629;0.030837156;-0.030082302;0.049973648;-0.10913953;0.12726907;-0.046244916;0.028849427;0.003211317;-0.09593538;-0.2550535;0.04607775;-0.025253871;0.14127992;-0.008737486;0.06969493;-0.049985576;0.06446723;0.03109247;0.13134702;0.045504842;-0.10677299;0.041226722;-0.013931445;-0.11884573;0.08007206;-0.0777975;-0.030005034;-0.08625237;-0.008955613;-0.026414113;0.03760632;-0.027277272;-0.07804541;-0.09603822;0.100574486;0.0898453;-0.056968473;0.064715475;0.044571355;0.024195293;0.033195786;-0.13269098;-0.19922127;-0.07337541;-0.013226008;-0.10171546;-0.1888996;-0.035721123;0.0744851;-0.039293718;0.12225906;-0.030908743;0.055803485;0.053320777;0.067784466;-0.03582233;-0.012079251;-0.05339172;0.008455162;0.059265472;-0.11831484;-0.0016569595;-0.03181343;0.010951152;0.06009091;-0.033852853;0.00011342358;0.02378342;0.05666993;-0.04832895;-0.115551725;-0.024367483;0.032576077;-0.06040506;-0.07076873;0.0037644887;0.060795058;-0.17704414;0.04057072;0.048992153;0.023344815;0.073796615;0.18620637;0.01767839;-0.057824485;-0.07674696;0.019122452;-0.032122158;-0.006631765;0.04840661;-0.0580329;0.06576451;0.03317379;0.06483489;-0.020938074;0.0729701;0.0019975728;0.04355572;-0.033200376;0.024849769;-0.037152577;0.058507033;-0.027035642;-0.053771324;-0.04264974;0.08766374;-0.04362903;-0.020908212;-0.048529085;-0.012179621;0.03333163;0.039496053;-0.07861887;-0.07141334;0.04498238;0.06014223;0.006239591;0.011784751;-0.08082219;-0.036425285;-0.08988118;-0.0051912437;0.05287005;-0.26436827;0.06596063;-0.027213814;-0.026982695;-0.08608727;0.050136473;0.12814909;-0.06417055;0.10920974;-0.07933963;0.16783506;0.029623263;-0.10422442;0.063145585;-0.15282245;-0.024848904;-0.03553196;0.0574145;0.073615566;0.04117084;0.030116808;-0.06514205;-0.079580076;0.06944186;-0.024984872;-0.08411656;0.03174702;-0.050212283;-0.047120396;-0.02403645;0.048934728;0.08294481;0.07988862;0.03694836;0.0498205;-0.08127761;-0.20762081;0.03186761;-0.24972568;-0.02272492;-0.023497846;0.18257298;-0.11531946;0.007843257;0.036703173;0.09189174;-0.054664843;-0.021969996;0.07116595;-0.0038313197;0.10681384;-0.046186946;-0.06176806;-0.01053606;-0.010240488;-0.04670757;0.02090888;0.0050618504;-0.052625887;0.10633254;0.046505865;0.0101903835;0.07275377;-0.052970305;-0.0071103214;0.11992431;-0.03515909;0.026096078;-0.04169194;-0.02350345;-0.09091153;0.1293802;0.104178876;0.28562832;-0.06916858;0.029369969;-0.17795087;0.013687398;0.051134493;-0.09407767;-0.041627686;-0.018139297;-0.057666574;-0.10097259;-0.0099389395;0.15219213;0.07450598;-0.09226708;0.10036812;0.11015495;0.11648927;-0.09569411;0.027470376;-0.039991666;0.03343145;-0.0030740444;0.05736903;-0.019994806;-0.0078117833;0.004276322;0.07625262;-0.06441942;0.056429084;-0.021029891;-0.036988813;-0.08342755;-0.034078483;-0.09778927;-0.056814346;-0.07592125;0.030750064;-0.079500854;0.10939784;-0.028694512;0.018934028;-0.05105153;-0.09512001;0.12753525;0.08415605;-0.027354434;-0.04278268;-0.06106333;0.110882595;0.10817668;0.01364943;-0.089694224;0.029070282;-0.16676572;-0.008910515;-0.06844511;-0.07954783;0.07516756;-0.066099465;0.12717353;0.12263804;0.02193436;-0.08101184;0.06122998;-0.15425108;-0.013460414;0.0008423811;-0.164283;0.009242442;0.07211603;-0.05907762;-0.014579765;0.01273933;0.038610496;-0.012391005;-0.03874839;-0.07451267;0.058991145;-0.029644957;0.031962942;-0.12270083;-0.080043584;0.0033414455;-0.02944578;0.035216525;-0.032509003;-0.051376782;0.004908664;-0.008525685;0.02444765;-0.0135582555;0.112765335;-0.0637275;0.08141062;-0.13796435;-0.0005118947;-0.088417105;-0.1757946;-0.044828583;-0.0033983737;-0.0696841;0.035527892;0.14403589;-0.032454062;0.05904421;0.06084147;-0.08239619;-0.026056832;0.059969638;0.05684192;0.07237924;-0.1619433;0.025517771;-0.1608509;0.019024195;0.037500765;-0.19407618;0.21276069;0.035513267;-0.01649868;-0.06705459;0.06521174;-0.051637296;-0.0324757;0.050119363;-0.05840457;-0.04215394;-0.039783858;-0.0116330525;0.0756621;0.060785394;0.030605588;-0.12455132;0.06491031;-0.03640353;0.17330976;-0.042757433;-0.0063017756;0.083054334;0.08779276;-0.033787772;0.023373086;-0.10866242;-0.028122727;0.019900521;-0.0634256;-0.023794916;0.016135668;0.058553346;0.2712265;0.0037804022;-0.027694995;0.03263428;0.063704;-0.09938591;0.07071165;-0.120758265;-0.05391547;-0.0326309;-0.037713308;0.062077;-0.020515203;-0.1643177;0.046305373;-0.06390804;0.044675745;-0.08164974;-0.027842918;0.018290851;-0.076286614
-0.02068657;-0.08836796;-0.07930071;-0.015444862;0.07102077;0.06842743;0.08852603;0.058896452;0.18017851;-0.002771191;-0.029906828;-0.06353545;0.01845872;0.08242233;-0.03474771;-0.06142673;-0.024886454;-0.03992192;0.027694942;0.056617744;0.024465792;0.030277045;0.055306457;-0.03818971;-0.014745601;-0.06559645;-0.00091363216;0.008986844;-0.02290475;-0.009762988;-0.006210199;-0.010241603;0.060085647;-0.07463299;0.16133967;0.09000085;0.01603501;0.047559712;0.05124961;-0.07199289;0.01231952;-0.025207354;-0.044767614;-0.0018338899;-0.092381544;0.074239224;-0.1743383;-0.08516762;0.06830995;0.14353019;0.041412644;-0.073212825;-0.09754629;0.034638435;0.17997277;0.120681316;0.095074974;-0.035060182;-0.02086402;0.07670502;0.03355739;-0.07424555;-0.029618895;-0.031241825;-0.00426482;-0.09288248;0.13203607;0.11016685;0.074712254;-0.09426962;-0.013833113;0.054236997;0.014560184;-0.018781766;0.011966191;0.08110479;0.095987484;0.05125384;0.1152576;0.055472143;0.069283485;0.011676419;-0.026840528;-0.0106419185;0.20829493;0.07886005;0.08151224;0.047250424;0.014110238;0.08401768;-0.050267443;-0.10607469;0.18576051;-0.091081694;0.021682315;0.07158376;-0.00017086527;-0.12305895;0.03108194;-0.016993701;0.0073127043;-0.04874888;-0.14462;0.027708694;0.063418835;-0.04673894;0.02813144;0.061884794;0.06305299;0.06459123;0.024206769;0.0054327883;0.03214229;-0.04260806;0.005419066;-0.08094254;0.009337481;-0.12556149;0.062595434;-0.029546158;-0.020865444;-0.08190122;0.052422557;-0.02397916;0.016080784;-0.088985555;0.17827378;-0.16865323;0.049330898;0.089235805;0.0009992265;-0.14712209;0.019605516;-0.03382708;0.1443;-0.0058112512;0.04330058;-0.12134896;-0.027891569;-0.059387047;0.05331747;0.037932526;-0.041933816;-0.019638194;0.06280782;-0.0018167347;-0.21593606;-0.011350954;-0.03344948;-0.00346453;-0.061069068;0.13819656;0.014595975;-0.056328632;0.087556414;0.0553049;-0.08462498;-0.081530325;-0.023879832;-0.08659315;-0.049245358;-0.012475911;0.09531686;0.047248557;-0.03429108;-0.06261329;-0.13525216;-0.014948266;-0.024457028;0.069387525;0.008161265;0.012382839;0.17310695;-0.01330544;0.08621506;-0.04968265;-0.007047644;-0.055798605;-0.09473597;-0.09917046;-0.11782795;0.020507453;0.04939337;-0.075315006;-0.15171012;0.04034543;0.034013133;-0.07228816;-0.05809717;0.028559752;-0.074913755;-0.099465795;-0.055954702;0.0891554;-0.006824688;-0.13185477;-0.04013729;-0.04773291;0.005270131;0.041961476;0.05162104;-0.08638921;-0.046827484;0.017708667;-0.02578627;0.048768386;0.04412749;0.09562683;-0.07813366;-0.19349705;-0.059000283;-0.00020366581;-0.23104213;0.044091888;0.097816736;0.058941167;-0.04400232;0.08912941;-0.3224838;0.053230993;0.044837713;0.058508947;0.035086825;-0.030581756;-0.010322042;-0.036721498;-0.022144517;0.08834883;-0.08269423;-0.049734667;0.062838584;0.09225975;-0.012693215;-0.07783886;-0.02598077;0.037380416;-0.038010925;-0.09506204;-0.02177862;0.026392128;0.016192844;-0.044103235;-0.05114188;0.058771726;0.10003456;0.07467336;0.07146066;-0.030942922;-0.032404132;-0.018533643;-0.20653275;-0.40175116;-0.004707318;-0.092055134;-0.036228694;-0.2439492;-0.024636505;-0.07784858;-0.09816209;0.11470629;0.0166892;0.06576098;0.010390073;-0.13769202;-0.045487337;-0.0090873325;0.025420707;0.134999;0.024588348;-0.05027328;0.03937015;-0.067132674;0.04528688;0.030892644;-0.0013200043;0.0066364035;0.045965403;-0.018432379;-0.03660833;-0.008668127;0.0137360515;0.00030730985;0.0037076827;0.075737834;-0.04479081;0.00942209;-0.07266066;-0.011039623;-0.053109456;-0.048582923;-0.055335354;0.2265351;-0.1713551;-0.060560558;0.04683704;-0.04957044;-0.10768171;0.022834264;0.02508242;-0.049098354;-0.07998338;0.021644225;-0.011534591;-0.011107593;-0.13690485;-0.04697101;-0.002692534;0.017841907;0.043240007;0.08874452;0.051489975;0.019936332;0.0056932205;-0.1809632;-0.03663182;-0.038772047;0.080115505;-0.11327384;-0.016634615;0.046107236;-0.066204675;-0.25043508;-0.018504873;0.094602935;-0.010202423;0.016914487;-0.042601712;0.042554487;-0.020005643;-0.051617354;-0.033929557;0.065419905;-0.23003659;0.039602842;-0.050331634;0.029687848;0.02285625;-0.079874754;0.12706615;-0.05499526;0.033886157;-0.04525498;0.01150326;0.007488261;-0.053291023;-0.002601095;-0.22024496;-0.022642693;0.00083769637;0.07611883;-0.042803254;0.016298478;-0.08028151;0.052346434;0.049122676;-0.011223715;0.06176483;0.05845193;-0.05603071;-0.023006823;0.007436409;0.03302178;0.13187657;0.06363965;0.14300938;0.037548304;-0.0139148;-0.09065018;-0.15303268;0.03527822;-0.296699;-0.074430816;0.027710205;-0.007269977;-0.04792968;-0.055355564;-0.06921488;-0.036930747;0.08083434;-0.14752637;-0.008238489;-0.016569583;0.08264745;-0.025481401;0.06597395;0.018066145;0.012689681;-0.012234965;-0.051179208;-0.06280033;-0.035619847;0.11366977;0.01657937;0.018892152;-0.17572685;0.06262403;0.004365244;0.08953144;-0.002684304;0.040363565;-0.0068452787;0.033729814;-0.031451218;0.20053214;-0.09737631;0.16384141;-0.027342996;0.03510572;-0.21804239;0.10016133;-0.041995298;0.023921775;-0.028260773;0.1231601;-0.084249444;0.02026304;0.038940337;0.15991367;0.076560296;-0.06067279;0.13306752;0.008225074;0.18597893;0.038804363;0.015683936;-0.09638765;-0.005899116;0.038102128;-0.057209443;-0.07988454;-0.021591552;-0.04106472;0.045877464;0.070082895;0.023291973;0.00014558509;0.016176676;-0.051240645;0.07439736;-0.088008456;-0.062242307;0.04342919;-0.09389474;-0.019249111;0.11137087;-0.018897032;-0.051174812;-0.105213456;-0.08867513;0.10913254;0.17956007;-0.09152883;0.031627942;-0.06299673;0.17874058;0.04248587;0.0143968165;-0.15482122;0.00078359916;0.0552191;-0.04138293;0.025850777;0.042664956;0.01506378;-0.07967449;0.0027697936;0.2648043;-0.010759808;-0.20921454;0.037710667;-0.25943846;0.041024957;-0.000868759;-0.060067732;0.0027703422;0.00069610844;-0.07896693;0.08243626;0.034734856;0.015553999;0.09008342;0.0713693;0.051468894;-0.10182383;0.076327704;-0.03334526;-0.031558063;0.064730264;-0.03208664;0.11075646;-0.0011459497;-0.022011757;-0.080901645;-0.053632975;-0.10045747;-0.05749612;0.0703749;0.044185907;0.045708627;0.10186563;-0.06477962;-0.074843034;-0.17913035;-0.037112232;0.051815495;-0.1692594;0.01925777;0.087903455;0.1340677;-0.004245493;0.061830398;0.06732651;0.03693765;0.04335732;0.14381886;0.058754377;-0.066492;-0.19154285;0.06874756;-0.093954846;-0.050925393;0.019484384;-0.057159875;0.028153757;0.011263493;-0.018413322;0.082894266;-0.0018027555;0.06207819;0.021039007;0.027903644;-0.005215262;0.0038483609;0.06448451;0.0006127407;0.07172113;-0.10157259;0.018749332;-0.02432485;0.15258636;0.0023768502;0.116154015;0.025221579;-0.080705784;0.0050227083;0.07362837;0.079692245;-0.04261812;-0.062361203;-0.05169668;-0.07689821;-0.028122606;-0.05547153;0.091591924;0.0012174962;0.2733968;-0.08989084;-0.130886;-0.03685009;0.15311895;-0.00877318;0.01796039;-0.12783408;-0.07108939;0.053623907;0.024952982;-0.03915874;0.009810536;-0.1490538;-0.018486427;-0.006664975;0.0021733807;-0.012450903;0.02103186;0.05157637;0.039815567
-0.042826008;0.03654887;-0.1256213;0.004289876;0.054621417;-0.075256795;-0.023960313;-0.033910792;0.08338168;0.09438097;0.054727416;-0.047384072;-0.0101737995;0.0036091509;-0.06759396;0.03925999;0.026462927;0.08810683;-0.081262864;-0.024714716;-0.033992577;0.016582843;-0.055577796;-0.02285148;-0.035476137;-0.004752936;-0.04296024;0.01958517;0.22686107;-0.002716847;0.032529183;-0.0596485;-0.0005125041;0.053215757;0.040391997;-0.04212384;0.0052973195;0.051925927;0.029730849;0.008230432;-0.118270844;0.03992069;0.14507325;0.057539694;-0.029196773;-0.036806546;0.010250375;0.06388085;-0.0073837307;0.010360795;-0.074910976;-0.08234401;0.102654874;0.0010224113;0.10060712;-0.052757353;0.047387406;0.05651515;-0.12541445;-0.07375895;-0.00075616036;0.030651433;0.07877236;0.015326526;0.038207937;-0.048974067;0.03413312;-0.034758214;-0.087200105;0.05415875;0.08858009;-0.018959427;0.009837031;-0.016668057;0.06487483;-0.07792391;-0.22357643;-0.122826375;-0.03777429;-0.09065585;0.052447446;0.043167632;-0.122716025;-0.03990961;0.16913263;-0.050645776;0.008622562;0.10839259;-0.087919556;-0.04811353;-0.05966704;0.023697952;0.06742034;0.044747032;-0.028050134;0.015603877;0.0023116171;-0.10941467;0.09155605;-0.026405813;-0.010150509;-0.05514754;-0.13672304;-0.043587416;0.104907684;-0.05900199;-0.05400424;-0.014382506;0.0083550345;0.08520282;0.040494245;0.016908577;-0.035939552;-0.09761434;-0.06351765;0.01133734;-0.09082616;-0.056537777;0.2151782;-0.044312168;-0.065073594;-0.07566792;-0.048576713;0.031440977;0.044025827;0.009160751;0.1799413;-0.09313706;-0.019830817;0.047026128;0.046302672;-0.1008022;-0.1460862;0.033844616;0.104874745;-0.083308615;0.074242614;-0.22061588;0.046328485;0.07464079;-0.05195451;0.07609484;-0.1007319;0.042199906;-0.023033718;0.009450742;-0.198577;-0.076261885;-0.15080197;0.06925818;-0.15595172;0.06093463;0.062143847;-0.080469996;-0.04072044;-0.08527729;-0.1332017;-0.1074332;-0.016232442;-0.0997871;-0.077199824;0.007707032;0.18692523;0.15628624;0.03735779;-0.021307945;0.0017531859;-0.047032297;-0.014367368;0.02141696;0.16083662;0.023446191;0.16370496;0.00071349373;0.08521047;0.021068145;-0.103755996;-0.043257102;-0.12891805;0.033675063;0.07385288;-0.11780898;0.08905861;0.06575091;-0.13067529;-0.024288252;-0.00033970218;0.032474943;-0.008211843;0.054409627;-0.10093808;0.030622205;-0.021780936;-0.024224896;-0.011268745;0.03504355;0.037014764;-0.0024046954;-0.03784693;0.10230047;-0.08816849;0.022114836;-0.086575694;-0.033612292;-0.0958517;-0.062678665;-0.023644738;0.04815499;0.06238749;-0.084811874;-0.031214966;0.05949934;0.03952993;0.041617345;0.056277633;0.12225102;0.09464998;0.02718452;-0.31692702;0.048679657;0.03829452;-0.09040925;-0.034799077;0.09003511;0.0073408727;-0.03736937;0.09310899;0.049535796;0.07881249;0.075314865;0.04789497;-0.052811377;-0.0934415;-0.00042556226;0.047156498;-0.042952955;-0.017212274;-0.1574556;0.10954347;0.009015704;0.10046904;-0.00016625873;0.027739173;0.07949002;0.07191463;0.21432976;-0.06432758;-0.023101136;-0.037689097;0.12107931;0.024269544;-0.25938672;-0.11753235;0.014927205;-0.041584745;-0.058508396;0.06497767;0.0076339813;0.019143624;0.019252557;-0.013133011;0.057950955;0.03739076;0.031472556;-0.047901623;-0.0188114;-0.30552056;0.18097298;0.024545174;0.03583741;0.033750303;-0.08230827;0.065584354;-0.034839176;0.08639386;0.024090698;0.01564723;0.030485943;0.05610002;-0.01723338;0.10875641;-0.006288979;0.02054954;0.019527512;-0.03927448;0.03239804;-0.13198625;0.01954142;0.063386984;-0.009118325;-0.013512725;0.1279851;-0.13285;0.005924419;0.07242393;-0.017332394;0.042479232;-0.05028903;0.03967452;0.082677126;0.025350273;-0.03595261;0.02787567;0.011038931;-0.19587809;0.036759302;-0.08841555;0.02981237;-0.07541828;-0.2045063;-0.05686617;-0.04290095;0.013777802;-0.11865867;0.16310295;-0.08461564;-0.052260727;-0.0896098;0.08806928;0.052572273;-0.052817702;-0.13043535;-0.03826823;0.020462165;0.0689914;0.038808476;0.092038654;-0.053825594;-0.019684859;-0.0031305896;0.0011927539;0.04889803;-0.23898654;0.066265024;-0.09329342;-0.11897326;-0.049743436;0.013109878;0.1352707;0.059219927;-0.016560288;-0.015858084;-0.17348875;-0.014561918;0.049603764;0.054979976;-0.27221712;-0.027777506;0.04433114;-0.003126656;-0.019348098;0.012125923;-0.0717372;-0.03088713;0.043383565;0.014522375;-0.047838215;0.06101868;0.043721654;0.061017003;0.039179914;-0.039126627;-0.046975654;0.054930747;0.071670495;-0.06786309;-0.008086974;-0.07336594;-0.10295313;0.008180838;-0.3152065;-0.043326333;0.12575482;-0.14727195;0.05196706;-0.0252527;0.052054778;0.02434578;-0.09310606;-0.05671933;0.010708082;-0.06566777;-0.04241088;-0.09377898;0.082949124;-0.05679893;0.051117256;0.05600478;0.06104479;0.0407256;0.09147509;-0.0007593108;-0.07508036;-0.07869026;-0.016682887;-0.069675244;0.019153053;0.037264124;0.15256557;-0.061219405;-0.015937215;0.06815648;0.0061867624;0.19888182;0.09646161;0.24679309;0.03461361;0.025694355;-0.17876193;0.011878397;-0.09736318;-0.09851644;0.018046483;-0.075944945;0.033964634;-0.0003116599;0.001462735;0.11354811;0.023774361;0.075675435;-0.02291892;0.05065953;-0.108962275;0.0698788;0.14354691;-0.17378867;0.030740086;0.02443729;0.0366149;0.05132501;-0.02534385;-0.05815289;-0.025023809;0.026353974;-0.009496674;0.0034628646;0.017651496;-0.020515898;-0.006398071;-0.02772354;0.068085864;0.033216484;-0.007431407;0.080042206;0.047235876;-0.03226632;0.039291218;0.00027835532;-0.09942064;0.02774478;-0.027131133;0.04717287;0.13658445;-0.040681154;0.16289666;-0.13936768;0.012461092;0.02198765;0.050918512;0.09099372;-0.0022467251;-0.022984602;0.056306034;-0.10013094;-0.02627813;0.18855587;0.105846286;0.018296354;-0.0976133;0.0057408367;-0.19169307;-0.051934734;-0.007985504;-0.045863222;-0.0052638967;-0.0975102;-0.07707329;0.0094258385;0.05539457;0.057983078;-0.123871036;0.059672054;-0.03841177;-0.033195995;-0.05133265;-0.07920671;0.008798611;-0.0405084;-0.06221083;-0.034482032;-0.0704727;-0.040225636;0.079317;-0.060077805;0.0031869232;-0.06859149;0.051327202;-0.094300695;-0.044680834;0.00038324218;-0.219347;0.050231967;-0.07683775;-0.03614745;0.07051265;-0.028631845;0.015711976;-0.0015192056;0.22205894;0.009339569;0.08067375;-0.0482533;0.050982248;0.020267176;0.065248445;-0.06567751;0.022895826;-0.100019775;-0.08260241;-0.22922558;0.03405902;0.0032831107;0.023292996;-0.028960295;0.0035669478;-0.09087882;0.051599428;0.068390794;0.058952115;0.094179116;-0.012486699;-0.014998487;-0.10119036;-0.0400763;-0.02306568;-0.035060816;-0.051431116;-0.018329786;0.09529138;0.16859671;0.08962977;-0.027838197;0.045463346;-0.02850158;-0.080364436;0.032661863;0.082310125;0.03530354;-0.15633129;0.027050996;-0.047665033;0.013571722;-0.037691545;0.030042857;-0.011495789;0.056175884;-0.029160017;0.044096284;-0.0066101607;0.034766417;0.026806341;0.03931605;-0.15483184;-0.009514185;-0.015516961;0.076094754;0.035589315;0.07943147;-0.00276156;0.022625638;-0.07133894;-0.073544495;0.021187581;-0.024822606;-0.059741654;0.18467966
0.051003832;-0.13554485;0.033340275;0.14784293;-0.13204962;0.04207084;-0.049738068;-0.05634444;0.049687885;0.08197275;0.018856557;0.09267483;-0.084854126;-0.08460524;-0.080170535;-0.0137125505;-0.20954025;0.03305179;0.024243338;-0.0002784505;0.01902509;-0.07106183;-0.0683827;-0.225675;0.07328299;0.05481117;-0.10874939;0.06378975;0.06321709;-0.02744916;-0.041070938;-0.08506535;-0.042831447;-0.020834895;0.11158976;0.02770618;0.03816823;-0.015107437;0.08667478;0.04119887;-0.03788916;-0.10872754;0.06371588;-0.033940457;0.08073694;0.094542846;-0.018988999;-0.0053543486;-0.062052693;-0.13188949;0.08315924;0.08172195;0.1078909;0.028234277;0.16007866;-0.12133024;0.024184665;-0.028491778;-0.05937601;-0.06422432;0.028497688;0.04829509;0.026388448;0.03485439;-0.012105457;-0.048342958;0.047679834;-0.16584195;-0.13689359;0.05005641;-0.00090268743;-0.026987344;0.0147129195;0.05074384;0.024851244;-0.08615658;-0.07411122;0.000513409;0.04065366;-0.24279357;-0.05971604;-0.017633094;0.008546462;-0.01689634;0.13898353;-0.012658962;0.03605197;0.06743129;0.019729236;-0.07460114;0.03765719;0.102498084;0.12403056;-0.0593706;0.010733697;-0.0033230342;0.06318722;-0.062834494;0.08859678;0.020827362;-0.21356003;-0.037612405;-0.07953802;-0.13588147;-0.07907231;-0.006462371;-0.06571039;-0.12155738;0.051319815;-0.020582743;-0.047379024;-0.12028553;0.021783037;0.13918252;-0.12583508;0.09492683;-0.10230077;-0.1294457;0.085707724;0.016318928;0.004134485;-0.021074727;-0.08605874;0.018797329;0.028822703;-0.022635745;0.02936615;0.00085516064;-0.03210117;0.063745156;0.022002487;-0.23350729;0.034201052;-0.028752137;-0.046661768;0.020390728;0.040889118;-0.11432152;0.023952456;0.03702478;-0.09637972;0.01182028;-0.09109354;-0.06705115;0.009686168;-0.051547997;0.09292404;-0.014126311;-0.14021161;0.08701225;-0.11399413;0.10194226;-0.11084175;-0.10228819;-0.05408132;-0.08099529;0.014921852;-0.06589388;-0.06992084;-0.005807264;-0.025471462;-0.061402764;0.026415082;-0.13944386;0.09063272;-0.016371705;0.0545147;0.116700575;0.0133354105;0.037541028;-0.14286703;0.022112606;0.09772433;-0.07502672;-0.04457556;-0.101758674;-0.12045204;0.005863775;-0.017301729;0.06106391;-0.12008293;-0.0792194;0.0720228;-0.0028881726;-0.13516802;0.03800058;0.026916372;0.06321802;0.07197233;0.038604956;0.009011249;-0.0229817;-0.16890623;-0.08259837;-0.17688885;0.004429112;0.019298837;0.032753758;-0.060099747;0.09879273;0.038555756;0.074811526;0.02314343;0.00747132;-0.17683822;-0.094037406;-0.047927774;0.011633503;-0.0668935;0.055245753;0.047228858;-0.034213316;-0.31244555;0.13575606;0.035117008;0.13927354;-0.02938315;-0.02619905;-0.620176;-0.032439988;0.07604596;0.07144437;-0.03703344;0.07508976;0.055840075;-0.03481709;0.06300784;-0.047065444;0.042705223;0.09058496;-0.056011762;-0.06519528;0.0014068412;0.007218215;0.021960143;0.04495377;0.013909261;-0.03572121;-0.022409253;0.10597806;0.067071855;0.054379445;0.025028512;-0.037656046;0.030375924;-0.018370932;-0.08202672;0.07523525;0.004640073;0.062253993;-0.081346475;-0.3293523;-0.020029282;0.048045203;0.046254545;0.23077478;-0.025164802;0.017038293;0.047169674;0.0504905;0.034100585;-0.12131824;-0.007930949;0.11724194;-0.24930695;-0.082645774;-0.0526771;0.022209896;-0.084670655;-0.15279567;-0.0013421887;0.047359645;-0.088559315;0.08992279;-0.056598503;-0.13559811;0.13973098;-0.08320172;0.050931796;0.030577334;-0.21269888;-0.08301004;-0.10450568;-0.022814404;0.02883067;0.0039265133;-0.20886497;-0.0051569655;0.043324687;-0.006181523;0.030907467;0.119113475;0.074792944;-0.03546349;0.017959898;-0.008949652;0.081099726;0.05591916;0.06209324;0.06992094;0.050781008;0.019333104;-0.054679457;-0.064964265;-0.09983688;0.07398067;0.0544656;-0.025067369;0.067354076;0.07930805;-0.11747212;-0.075184226;-0.04111112;0.07919108;-0.0556347;0.060489446;0.018470557;-0.113833375;0.018270535;-0.085560076;-0.054847695;-0.0027357687;-0.01064072;0.0633516;0.0834483;0.02001188;-0.026523056;0.10127253;-0.036786348;0.054844093;-0.032138705;0.09447154;-0.13266873;-0.11169308;0.013000461;0.047365177;0.018120198;0.048212793;0.0571831;0.15106656;-0.055670384;0.060261905;-0.14231147;-0.019287921;0.0612538;-0.04933423;-0.16337697;0.019880317;-0.025904926;0.0713763;-0.039814763;-0.023030778;-0.08478646;0.07500538;-0.049599826;-0.005739492;-0.07159173;-0.070944056;-0.09266286;-0.05812945;-0.09706572;-0.011519827;0.054478798;-0.075977616;0.18072532;-0.06567179;-0.073458634;0.15689231;-0.26082745;0.050753385;-0.46672723;0.014653845;0.17248392;-0.09832235;0.102003634;-0.066065036;-0.06614539;-0.23604362;-0.049042523;0.054873113;-0.00077665504;0.07986828;-0.024980403;0.015467559;0.047139585;0.046802353;0.090312496;-0.074731536;-0.075560056;0.07902256;-0.06448186;0.12493637;-0.12499321;0.043528117;0.1036362;0.10313068;0.06143232;-0.08909599;0.080776855;0.04495497;0.013829405;-0.056965727;-0.05352671;-0.0017694203;0.028104985;0.102847494;0.025564838;-0.07955988;-0.14135045;-0.066782884;-0.08319639;0.04481901;-0.007929083;-0.030057603;0.09619879;0.10451419;0.00029996433;-0.06188583;-0.06466529;-0.036491226;-0.09270746;-0.16957122;-0.2638671;0.08662611;-0.10510077;0.01790093;0.031248104;-0.016621817;-0.059205838;0.0019939588;0.09478393;0.015288146;0.052705374;0.023324437;-0.00769308;-0.04772309;-0.050518885;-0.07288213;-0.05460151;-0.19072571;0.0059646755;-0.002810958;0.04616569;0.009097851;0.12029639;0.027135111;0.20979437;-0.09119336;0.08670927;-0.12905294;-0.1058213;0.020226145;-0.03163475;0.0192424;0.15110031;-0.06035102;-0.17603385;0.055522107;-0.03642784;0.033908736;-0.021236;0.037452653;0.050129574;-0.10591509;0.019262506;0.09223104;0.14563935;0.06548993;-0.3892456;-0.01928978;-0.058560908;0.032760896;-0.056641866;0.1662213;-0.11188241;-0.028102135;0.0187864;0.14794528;-0.02076561;0.0703966;0.13470756;0.016128011;0.0847918;-0.02373401;0.013692943;-0.0062831226;-0.025068814;0.026979897;0.040441375;-0.06148;0.025153065;0.0805661;0.045363016;0.052405942;0.0744064;0.03255431;0.09468478;0.030591806;-0.06384395;0.07136375;-0.007213256;-0.010025495;-0.17389376;0.00090708747;-0.01550622;-0.10219569;-0.024171;-0.11954538;0.18459357;-0.02654135;0.030978123;-0.052164253;-0.11635225;-0.13539548;-0.03793066;-0.012844048;0.24443957;0.13786441;-0.06987767;-0.2238301;0.05022041;-0.03873325;0.11782553;0.02599796;-0.055452228;0.024128327;0.055198796;0.005638334;0.2358156;0.027429787;0.068651736;0.07786607;0.01645967;-0.040159732;0.08163158;0.0037576505;-0.0399869;-0.01322388;-0.006291146;-0.0122775035;0.040007025;-0.05654683;-0.100626834;-0.053904355;-0.04368136;-0.2413217;-0.06486031;0.13373372;0.02474264;0.03990147;-0.045605563;0.030040761;0.11924798;-0.07750544;-0.046380524;-0.086160064;-0.023023816;0.0043950365;-0.021453435;-0.08260246;-0.03002662;0.030131686;-0.049595065;0.038954988;-0.058265198;0.006902989;-0.026714424;-0.029932935;0.18985593;0.018740818;0.044313308;-0.069923624;-0.03234304;0.026630534;0.029277176;-0.052233085
-0.1074657;0.022321079;-0.044615928;0.03971928;-0.01758463;0.029175274;-0.055655874;-0.01565079;0.09990107;-0.17909849;0.024554014;-0.078973845;-0.07868685;0.0354005;-0.01721559;0.099234745;0.04103284;-0.03660064;0.061164577;-0.11825706;0.0806633;0.064579;-0.07481133;0.07617264;-0.07024206;0.046465404;0.103446856;-0.03578403;0.03693566;0.035512723;0.04325978;0.033880956;-0.115457654;0.0015347997;0.047840696;-0.05240728;-0.054537818;0.03768661;-0.040249594;0.06071097;-0.014894614;-0.092988305;0.023398917;0.0951294;-0.07555662;0.004130881;-0.07038061;-0.02713864;-0.031500522;-0.015589134;-0.08103759;-0.05722111;0.06789775;0.016734928;0.17001571;-0.021898646;0.011177705;0.08213582;-0.030264186;-0.038602166;0.06695934;0.112386696;0.044816896;0.024677254;-0.08013011;-0.07856453;0.08659089;-0.024628682;0.023475768;0.0050867987;0.0356855;-0.042667117;0.004352304;0.026878355;-0.021771813;-0.023937782;0.059981234;-0.030780377;0.0321623;-0.122337274;0.05739347;0.007187989;-0.22366656;-0.043896142;0.043541525;0.10706835;0.04852821;0.12643893;0.0070994366;-0.0167725;0.012764609;-0.0903048;0.18986607;0.05039821;-0.063331775;-0.061780095;-0.012432873;-0.06653704;0.13357472;-0.061275575;-0.053513534;0.04444918;-0.041725975;-0.068887785;0.03180068;-0.009799867;-0.03841682;-0.01929521;-0.067220785;-0.052109666;-0.026045099;-0.042388882;-0.07185158;-0.02395207;0.010092808;-0.05640383;0.054689687;-0.1783014;0.10983454;0.0154289715;-0.13310206;-0.060494557;0.0024672723;-0.11036574;0.034179978;0.049874935;0.085300684;-0.12346928;0.0010643245;-0.057866246;-0.03661664;-0.0111601725;0.025062026;-0.03867762;0.11531611;0.02328102;0.031197537;-0.32002613;0.043603793;-0.007220454;0.044402678;0.030298144;-0.067654975;-0.048795514;-0.055014886;-0.053195816;-0.13746363;0.07273933;-0.33842093;0.025236031;-0.06376042;0.153027;-0.05893125;0.032420047;-0.08537135;0.066795945;0.05591447;-0.11923453;-0.07737844;-0.024735378;-0.01623172;-0.022677813;-0.042527102;-0.1488989;0.11402164;0.044496562;0.055326335;0.046476465;-0.071883954;-0.037036486;0.03702403;0.06375189;0.19596949;0.027919462;-0.09212505;0.03981689;0.01117036;0.009498202;-0.02352849;-0.03364108;0.050822698;0.064213686;-0.07795277;-0.09631514;-0.047331546;-0.09076551;0.048716333;0.014823493;0.040905725;0.061244324;0.024141807;0.050197788;-0.12752545;0.017420145;0.016150597;0.05113311;-0.02486863;0.04035227;-0.073534094;0.022298591;0.013562519;0.04488958;0.041769348;0.016881062;-0.14203073;-0.07629327;0.10267449;0.015673928;-0.005373967;-0.05823489;-0.0919446;0.044621073;-0.10807814;0.081599645;0.05139887;0.11694254;0.13283476;-0.07175109;-0.29035935;0.080981955;-0.0011336533;0.06957135;-0.17833582;-0.06996504;0.0038714083;-0.07140743;-0.013955937;-0.076083586;0.028958993;0.07821183;-0.079587094;0.041602228;0.030331615;-0.107982665;-0.06950785;-0.02918456;0.031019857;-0.0916799;0.03576191;-0.056814298;0.08179402;0.03182476;-0.070890285;-0.015843684;0.06563372;0.09641674;-0.035946056;-0.012843124;-0.018373638;-0.023762144;0.12049948;-0.26953232;0.07964287;-0.026294816;0.0784205;0.01273624;0.04040537;0.0121549815;0.03000418;-0.16130689;0.051737;-0.06889811;-0.0021098668;0.066097416;-0.10013184;0.0044698627;0.0019594904;0.11247152;0.063376375;0.061074503;0.017422425;0.05332037;-0.033305373;0.011266247;0.033551306;-0.006622058;0.012765633;-0.020738501;-0.02662271;0.096527725;0.011070868;-0.039908685;0.05964889;0.029652787;-0.046312306;-0.026242321;-0.05041747;0.040283002;-0.013934958;-0.05838851;0.10284533;0.08320259;-0.07431758;-0.0076374863;0.07813647;-0.041776594;-0.060207233;0.016873522;0.010745937;0.1292705;-0.018266883;0.008768461;-0.00501196;-0.091571584;-0.09206754;-0.07270108;0.026575606;-0.043331306;-0.035783798;-0.026825637;0.018440044;-0.02040995;-0.073688895;-0.22158612;0.12764847;-0.06824574;-0.053463258;-0.040425356;-0.022398865;0.049373303;0.017238922;0.03212053;-0.041637603;0.09018094;0.015277412;-0.07831579;0.07558826;-0.021744736;-0.07246967;-0.017848847;0.058553524;0.073139854;0.021511052;0.02603916;-0.01747887;0.1021937;0.019706195;-0.082021475;0.21010916;0.16080461;-0.008040354;-0.026586168;-0.14250694;-0.12894997;-0.014054326;-0.08431556;-0.2566553;-0.036676466;0.018478269;0.06374886;0.0028283647;-0.10070768;-0.12283969;-0.0367943;0.05473901;0.003183568;0.017190723;0.021541769;0.12587343;-0.024284175;0.10177635;0.12171692;-0.13308924;-0.041826524;0.15894955;0.04474441;0.03779439;0.0012313562;-0.15912335;-0.11009181;-0.34476295;0.02619452;0.07671298;-0.058287717;-0.019587139;0.08374106;-0.012222747;-0.023381067;-0.05959209;0.032491893;0.0007506717;-0.053220402;0.07766231;0.026842669;-0.03504302;0.052753747;0.020862756;-0.089654796;-0.034177046;0.031140322;-0.043766323;-0.037181895;0.03843819;-0.08656193;-0.23974708;0.06998708;0.041082554;-0.10392357;0.028083865;-0.039379545;-0.02234113;0.05213181;0.0025779428;-0.03305604;-0.06599871;-0.012389127;0.04313533;0.041001674;0.032153755;0.054970592;-0.17484818;-0.006962435;-0.04817411;-0.067875765;0.060281046;0.034795936;-0.051612906;0.07723328;0.011618509;0.01585362;-0.10001576;-0.12823531;-0.03851698;-0.009030224;-0.033712164;-0.14204875;-0.01751019;-0.048635367;-0.0009445234;0.026593002;-0.08699585;-0.02636205;-0.08172646;0.047273893;-0.004301756;-0.061020333;-0.010651081;0.0155493;-0.048450205;-0.15062986;0.06846511;-0.019186392;-0.076636694;0.054180436;-0.010801254;-0.07406366;0.21258344;-0.0051978067;-0.009538491;-0.11345269;-0.03999377;-0.11161803;0.004874773;0.05890705;0.1338153;-0.18760672;-0.09463185;-0.07491109;0.013368255;-0.036835093;0.0026639337;0.115325525;0.080121174;-0.09144764;0.002096972;-0.076852165;0.30418196;0.06798815;-0.105482556;0.04449172;-0.23435588;-0.07007691;0.05712639;0.09979492;0.0102717085;0.018832052;0.059108492;-0.06377519;-0.022640083;0.11783729;-0.09588573;0.028437773;-0.07257571;0.11475908;-0.03137621;-0.012428693;-0.043743797;-0.030767974;-0.112928376;0.024443101;-0.044605907;0.035583057;0.0025470958;0.07016918;0.056306865;0.05113985;-0.031030092;-0.06567992;0.0875468;0.037783735;-0.015249919;0.03319716;-0.07768232;-0.119514994;-0.07996434;-0.112385795;-0.011210678;0.05506778;0.105731696;-0.040395323;0.009618979;-0.064748876;-0.02848931;-0.073868334;-0.061234087;-0.074959174;-0.056571353;-0.01923789;-0.043032967;-0.3028981;0.06082833;0.044660464;0.1728724;-0.07599471;0.025068859;0.02271222;-0.078093;0.034181066;0.123896696;0.10127716;-0.020781728;-0.061263196;0.011857448;-0.07461396;-0.030727435;0.016775612;-5.6974837e-05;-0.0072568688;0.07340265;0.12841667;0.1633655;-0.15079811;0.013281565;0.095062464;-0.09626972;0.11294615;0.051204998;-0.0075090104;-0.02021606;0.02226439;-0.1148414;0.0440742;0.09937187;-0.06794346;-0.017945616;0.09517872;0.02329689;-0.21178605;-0.030253196;0.0045231353;-0.005496321;-0.06868233;-0.11466852;-0.017125923;-0.005215264;0.03170012;0.09145286;-0.036709826;0.05138231;0.03587385;-0.06465798;0.049141884;-0.036745913;0.097255096;0.052921604;-0.12306121
0.080114886;-0.026547272;0.07031985;0.10681808;-0.106770866;-0.04380182;-0.069987305;0.038810074;0.0018609151;-0.0015660325;-0.07435043;0.05040436;-0.021757312;0.10989424;-0.06625462;0.014751093;-0.2486155;-0.090446144;-0.0436822;0.0292161;-0.031960014;-0.08918901;0.042806868;-0.07347226;-0.014435712;0.003776251;0.0029686757;0.07071159;-0.009127635;0.0060549504;-0.10821171;0.020974312;0.050634257;0.06429715;-0.10351999;-0.009094123;-0.112665355;0.0031515083;-0.052279733;0.009978761;-0.025101997;-0.054831866;-0.15196595;0.03567588;0.14324239;0.03978725;-0.05881482;0.0026984615;-0.033864297;0.16574599;0.21652606;0.03527892;0.09136034;0.03876094;0.22822149;-0.16260721;-0.02934725;-0.0744477;0.029439691;-0.009934148;0.023932727;-0.001373508;-0.099535786;-0.037072293;-0.007516431;0.08269692;-0.07224209;0.043340553;0.041321833;-0.00019321326;-0.12317319;-0.067513555;0.012399825;0.06081831;-0.12376074;-0.07174027;0.10506663;0.075142965;0.03449286;0.02358194;-0.084786154;0.0037732397;-0.097444035;0.075840235;0.13364834;-0.046558667;-0.09713669;0.015144599;0.00194967;-0.024025185;-0.06908926;0.020647911;0.015101583;0.02606029;-0.09170406;-0.048556674;0.024926053;0.019318648;0.23211722;0.0168421;-0.0059144916;-0.09441781;0.05301853;0.0017472786;-0.011343998;-0.079664335;0.04844081;-0.030115878;-0.099905334;-0.03599642;-0.074542254;-0.120532386;0.064215966;0.059538078;0.026345724;-0.041763518;0.06806555;-0.059294622;0.016359605;-0.0764038;0.053045847;-0.012453441;-0.058102164;0.003059745;-0.02334864;-0.08407839;0.17171076;0.03106976;0.015538437;-0.072791286;-0.012463764;-0.18658492;0.041376792;0.0472285;0.012930325;0.08400208;-0.071798384;-0.17774697;0.0640852;0.008485643;-0.10857094;0.027275952;0.031676296;-0.042751074;0.102980375;0.06574044;-0.09433316;-0.07085464;-0.19067621;0.06567059;0.10749744;-0.014511701;0.022474773;0.061572857;0.019573942;0.11774315;-0.0014872773;-0.15461521;-0.047041427;0.11083276;-0.0013990791;0.06613955;-0.03713469;-0.18757528;0.03477679;-0.0036133463;-0.02179911;0.042845786;-0.03264436;-0.053250257;-0.16093223;-0.016915407;0.083042406;0.011661898;0.018809956;-0.06869964;0.16541563;0.0913267;0.11906928;-0.0009050735;-0.06835804;0.120249584;-0.058877677;-0.128481;0.0051957956;0.01695101;0.091304325;0.056231778;-0.041105393;0.021578377;0.078683734;-0.054150656;-0.20608361;-0.10283395;0.09559859;0.032219343;0.08844461;0.07505233;-0.031557642;0.20543721;-0.017263243;-0.058833078;-0.010832559;-0.057743866;-0.06644805;-0.08852206;0.14020778;0.046085596;-0.043198805;0.04029935;0.07770991;0.061349712;-0.16395111;0.013562003;-0.083402306;0.07772112;-0.01563307;-0.104757465;-0.3248313;-0.074614696;-0.02658557;-0.042293523;-0.04501262;-0.033190943;0.06034;-0.047494616;-0.021253467;0.05899061;-0.027626257;0.063990034;-0.0074250973;-0.0024000388;-0.039827734;-0.008093715;-0.009386959;0.03445402;0.0048570624;-0.0870227;-0.10229162;0.07775471;0.13007937;-0.038583472;0.021566208;0.042142037;0.107076965;-0.06973971;0.064370155;-0.081583686;-0.080033764;0.040870793;0.09127136;-0.29386964;-0.0017241854;0.06700054;0.006168159;0.115879245;-0.10850895;-0.07268614;-0.08328875;0.009829949;0.049551304;0.059429355;-0.0790354;0.06688001;-0.06187866;-0.08078394;0.03932294;0.067945056;-0.0056540403;-0.024418246;-0.0458425;-0.017133918;0.013625364;0.06855341;0.0441009;-0.012426735;0.011803427;-0.000983027;-0.073470056;-0.0885114;-0.10776793;0.028263995;-0.06597675;0.047401045;0.07381843;0.06302057;-0.13002008;0.04533134;-0.085503526;-0.04724964;0.033559047;0.11360445;0.067282;0.051808808;0.012030056;-0.01664793;0.06310591;0.002190001;-0.08122769;-0.01236318;-0.07783197;-0.052376047;-0.036316086;-0.07686825;-0.07696095;0.06222184;-0.087607004;0.08619423;-0.071853615;0.10021399;0.008295633;0.019493118;0.041384786;-0.1066208;0.034538902;-0.013055794;0.03063757;-0.03225401;-0.039240036;0.042235374;-0.06684982;0.20127477;0.049804453;0.0140136825;0.06361554;-0.080328114;0.08388093;-0.040673543;-0.067930065;-0.055268344;0.053388115;0.056627706;0.20248571;0.023481585;-0.0010066113;0.0013662644;0.034978714;0.025763942;0.09000563;0.08496595;-0.07692371;-0.09422303;0.04117193;0.0154501395;-0.0016503845;0.0007017046;-0.11330901;-0.08393022;-0.034069445;0.07942026;0.00077178475;0.012835332;-0.098714486;-0.020526754;-0.015021363;-0.021528238;0.06920862;-0.06827104;0.014938907;-0.0034170263;-0.06660594;0.12331855;-0.10476756;0.055440176;0.21658362;-0.07161587;0.04681673;0.10106599;-0.119711615;-0.0205677;-0.2582831;0.006757693;0.026826369;-0.030360317;-0.01840812;-0.022545401;-0.04713284;-0.11406977;-0.0017925603;0.094872616;-0.015933838;-0.09642998;-0.022285067;0.016664073;-0.031601977;-0.0028912497;-0.004408266;0.040385168;-0.024567442;-0.041188497;-0.06323476;0.023520062;-0.061758816;0.007773595;-0.13387445;-0.050888103;-0.06199038;0.06109614;-0.08388583;-0.050347105;0.059290927;-0.058034036;-0.04142121;-0.08598963;-0.12727341;0.046749342;-0.050331004;-0.106315315;0.047555607;-0.08976752;-0.050318725;0.11734191;0.038460147;-0.009102027;0.00970662;0.07092296;0.039796736;0.012402546;0.027614849;-0.02441185;-0.12614557;0.035490707;-0.0991165;0.0036252101;-0.01121683;-0.094726935;-0.036760464;0.012923843;0.10403959;0.055616908;-0.020550257;-0.019785222;-0.0742693;0.06881776;-0.020541394;-0.0032599776;-0.034759775;0.012656744;0.07536325;-0.114480965;0.05325038;-0.11208376;-0.06285115;-0.13524604;-0.068993114;0.021530751;0.1782106;-0.116989635;0.09632377;-0.11322668;-0.009224513;0.07747143;0.025706675;0.028991181;0.028398337;0.106152885;-0.14943223;-0.11732181;0.0859322;0.08286198;-0.03728869;0.060248006;0.059715845;-0.089434676;-0.09089351;-0.13015765;0.3001589;0.038957544;-0.1973813;0.054532804;-0.119844176;-0.012825457;0.03622385;-0.060146358;0.057266753;0.04577141;0.04296373;-0.03398521;-0.03927912;0.14622624;0.055603843;-0.060809247;0.008455913;0.12950824;0.07925073;-0.03353306;0.11856252;0.028093457;-0.044300146;0.08703406;-0.061889287;-0.032926317;-0.046909824;0.028768435;-0.0023026355;-0.040898368;0.03118781;-0.040743586;0.0012757849;-0.059862807;0.121885635;0.031271536;-0.11262578;0.07090353;-0.11362259;-0.030986419;0.013090403;-0.0024389112;0.20095408;-0.03688829;0.026938898;-0.012432719;0.040777847;-0.11039722;-0.10437664;-0.016946508;0.06300501;0.014350683;0.014927747;-0.13533773;0.01170705;-0.025433376;0.08900886;0.14820702;-0.013018591;-0.0039279615;-0.098818436;-0.09475331;0.24692208;0.07046668;-0.033013556;-0.06698634;0.010247269;0.04592911;-0.05988119;0.006012156;-0.066992536;-0.045922082;0.039658662;0.16709128;0.24177107;-0.07439457;-0.09885458;0.040238637;-0.08323737;0.07448663;0.11244691;0.049848266;0.18463616;-0.033636477;0.017033966;-0.06351297;0.017311014;0.001569131;-0.024680644;-0.010784528;0.036489595;-0.10359835;-0.08920957;0.018723885;0.04976686;-0.122058876;-0.14869711;-0.0430956;-0.0008355236;-0.022230836;0.04968345;0.029585937;0.2372896;-0.10319324;-0.07286882;-0.12812933;0.0777908;-0.025968729;-0.030627865;0.0058150613
0.046820678;-0.001723711;0.07363887;-0.08467902;0.009534062;-0.008667223;-0.06208525;0.0075748386;0.14215468;0.01871648;-0.037060503;-0.07620598;-0.06600792;-0.08181816;-0.03101497;0.06544391;-0.22388774;-0.051547486;-0.046582364;-0.047191028;-0.011209724;0.0026977994;-0.08886642;0.094846286;-0.0720875;0.01761074;-0.015911996;0.04719863;0.11735928;-0.05935216;-0.028901845;0.041710127;0.013410189;-0.04465051;-0.010307898;-0.070727594;0.014738212;0.019656297;-0.075589396;0.049249392;-0.03945956;0.01950524;-0.11372229;0.031796597;0.10997512;0.068773635;0.042591266;0.056898933;0.054929715;0.047829445;0.053612772;-0.046835247;0.12436398;0.061739735;0.19254;0.01400911;-0.040882885;0.08876245;-0.16339953;0.06319678;0.019390639;0.06773081;-0.005718496;0.005739095;0.058673017;0.04177305;-0.1065259;-0.013566485;0.042884555;0.08335156;0.065130174;-0.024001285;-0.10352089;0.079388954;0.09063924;0.04938763;0.0882965;-0.04858842;-0.3087461;-0.023411712;-0.034878902;-0.02277654;-0.22085683;0.012049086;0.031596098;-0.06395408;-0.0037754728;0.042975187;-0.09271561;0.06326284;-0.07066786;0.098544754;0.006425172;-0.036337916;0.021153303;0.054142036;0.13405102;0.06528774;-0.08194167;0.06817292;0.0913872;0.033905175;0.06172658;0.0006709223;-0.0026007707;0.044446453;-0.06850644;0.09527067;-0.026988916;0.051616993;-0.07395438;0.03657563;-0.02268339;0.057823796;0.07907447;-0.006704325;0.07891661;0.10440647;0.20802611;0.012257854;-0.009529899;0.03881244;0.07105651;0.031385563;-0.058818053;0.087244704;0.24202381;-0.039633255;0.018668396;-0.0154073145;-0.07212195;0.05101192;0.14095137;0.024656456;-0.031239359;-0.016367037;-0.03301041;0.026282456;0.07055193;0.07053545;-0.025049666;-0.035546284;0.10362174;-0.07362606;0.09582098;0.052413695;-0.10627559;-0.07113705;-0.15048037;0.07994948;0.24719359;0.029968183;0.040238578;-0.013682954;-0.057484735;0.09030803;0.06559592;-0.12190619;0.06468411;-0.074726604;-0.015407901;-0.002284967;-0.050180838;-0.07268063;0.18462402;-0.076437436;0.16454786;0.045163184;-0.07693046;0.052474022;-0.12681518;0.05212915;0.15950592;-0.07828808;0.007300793;0.030099351;0.001323383;0.101856045;0.24306186;0.0004498045;0.045997277;-0.006880322;-0.05129279;-0.054474134;-0.03641704;-0.022073943;-0.059658095;0.0428079;0.06469022;0.06868402;0.072338425;-0.027896427;0.002395117;0.006264546;-0.027018338;-0.031382006;-0.029112788;0.021633007;0.062069636;0.07019312;-0.05077052;0.032015048;0.023244487;0.068981394;-0.21373875;-0.06685083;0.0881191;0.011917936;0.048832245;0.14328992;-0.08176615;-0.0059085037;-0.046450518;-0.09110072;-0.052842773;0.20862243;-0.041857593;0.15099609;-0.1915557;-0.09440045;-0.07933421;-0.25101328;-0.16362162;0.03701935;-0.040648855;-0.031864043;-0.0851437;0.041642405;0.05467557;-0.00014999248;-0.068913214;0.040451176;0.07477443;-0.11276382;-0.017149508;0.09310584;-0.06064561;-0.09012278;-0.0493657;-0.070875585;0.27093253;-0.013396678;0.04524728;0.0053165583;0.14134514;0.06481249;0.13786969;-0.00018221521;-0.0848211;-0.02064539;0.23036519;-0.16693297;-0.004650286;-0.0014836345;0.03843228;0.18087724;-0.012547475;-0.049835857;0.050592575;-0.28255817;0.064813554;0.021167662;-0.06932942;0.036845542;-0.1338056;0.10096442;-0.043742456;0.023550406;-0.016673373;0.09890927;-0.062107336;-0.07718623;0.049458347;-0.051504344;-0.0036087504;0.0048010307;-0.105250806;0.05985054;0.00897453;-0.050266843;-0.11251737;-0.0048519224;0.04845369;0.0018374686;0.016414504;0.0032505265;0.07385285;-0.061180916;-0.00025295521;-0.050882842;0.0664823;0.08882621;-0.11801408;0.012768868;-0.057656392;-0.030679384;-0.043757915;0.046620175;0.03389562;-0.024159981;-0.024733633;0.00042813178;0.084806554;0.05934337;0.20127846;0.045953147;0.032253817;0.06377566;0.072440416;0.21781115;0.044997424;-0.038779423;0.10157527;-0.21185355;0.09238723;-0.06368061;0.0024958435;-0.057409428;0.053115956;0.035591956;0.041827176;0.16033165;-0.0619335;0.06746428;-0.0636895;-0.02646463;-0.055076964;0.015087162;0.05354024;0.05779608;-0.05808592;-0.029787801;0.0043929704;0.022744415;-0.026313206;-0.025815418;0.11149328;0.022218494;0.08350997;-0.0022616405;-0.057099033;0.06338936;0.046198737;-0.1019354;0.084460795;-0.03035402;-0.057976518;0.043314636;-0.082751006;0.04235416;-0.03937631;-0.026266895;-0.05431441;0.017803228;-0.05051596;0.03355513;0.038075797;-0.026217727;0.031176254;-0.027808404;-0.15015419;0.12959912;-0.0011167233;0.07940735;-0.07139657;-0.044516474;0.07367379;-0.028777398;-0.050522864;0.022080008;-0.10647856;-0.014943627;-0.15430947;-0.11515858;-0.06873339;-0.015026727;-0.024876157;0.022293635;0.0563777;0.16022304;-0.033128154;0.0021698081;0.005100073;0.057589993;-0.02304236;0.06019004;-0.020049253;0.0028868348;-0.03995513;0.0102472445;0.013059951;-0.061734773;0.0061052674;0.049003147;-0.06254093;-0.065671794;-0.044992283;-0.05017328;-0.058290772;-0.09251268;0.04410197;-0.042176083;0.15273862;0.024838274;-0.04259269;0.14173037;0.049903404;-0.10630135;-0.032045055;0.019179624;0.043592714;-0.03461407;0.0014509152;-0.087989524;-0.039391905;0.017739346;-0.055024337;0.054643337;-0.034230374;0.054167792;0.05035645;0.23179325;-0.09289109;-0.03266976;0.059487265;-0.23488809;0.058640305;-0.050397832;-0.01470432;-0.012797328;-0.020485006;0.04778688;0.049046326;-0.034606688;0.033198237;0.024236688;0.03923026;-0.0073764077;0.059453774;-0.18757194;0.051067073;-0.06295445;-0.05860752;-0.087155536;-0.12184925;-0.0038203346;0.062232997;-0.2605962;0.08377157;0.048865575;-0.05789243;0.019852048;0.10233031;-0.027845034;0.176195;0.2254006;-0.00967332;0.012571927;0.0706678;0.053351335;0.027269743;0.023106322;-0.028913008;-0.09670294;-0.06170269;-0.11131937;0.06488208;-0.0056587528;-0.17886548;-0.008586455;-0.085182965;0.042915862;0.03522317;0.10287126;-0.03026992;-0.10415581;0.08873253;-0.0418422;-0.0795466;0.059887595;-0.008962175;0.06500141;0.065089524;0.00029447197;-0.023201857;-0.043736562;-0.03564253;0.074735075;0.017958507;-0.006523801;-0.09401651;-0.043174114;-0.09388747;0.008131667;0.024875814;-0.021507844;0.04295414;-0.007632151;-0.07351163;0.028988661;0.14553073;0.06331889;0.067739815;0.06812767;-0.024433734;0.11979644;0.0380395;0.0044265273;0.16626556;-0.04166052;0.17141391;-0.03585478;0.083767235;0.0054074363;0.025813784;-0.044866163;-0.15652187;-0.075566284;0.0662724;-0.17124522;0.062363055;0.09980384;0.14423618;-0.025355468;0.05268485;-0.045383617;-0.05885614;0.04680055;0.15737511;-0.075642146;0.058857746;-0.047080982;0.19473955;-0.04758662;0.04932017;-0.062482834;0.07461887;-0.094030835;-0.056967854;-0.039869465;0.16630268;-0.13519582;-0.09834372;0.09112441;-0.06871253;0.17332724;-0.19873038;-0.013252578;0.07376138;-0.049448367;-0.022773454;0.091305085;0.055233285;0.0013193632;0.02717155;0.16564497;0.040779423;-0.115932964;-0.035603993;0.09206561;-0.070962146;-0.03982191;-0.3536274;0.02389998;-0.06902354;-0.07446675;0.04968018;-0.020205636;-0.113448694;-0.027125794;-0.07165223;0.027412305;0.016989626;-0.056857545;0.07621119;-0.02433866
0.047855638;0.046766117;0.039286736;0.04414668;-0.17453285;-0.09690008;0.051630914;-0.13617918;-0.036017798;0.12515005;0.022605836;-0.06034485;0.10807975;0.020360488;-0.015434736;0.058136888;0.03717897;0.08738657;-0.08382687;0.020786455;0.031577725;-0.055102523;0.045899976;0.10806736;0.008548246;0.027811924;0.12847574;-0.05821644;0.25989515;0.06969118;-0.05439001;0.09086686;-0.09547979;-0.031940125;-0.1948041;-0.09356074;-0.02559706;0.03359609;-0.04019124;-0.043185446;-0.04675782;-0.0010866933;0.104235284;-0.09513901;0.110198334;-0.1047056;0.009811666;0.093662426;-0.0061403536;0.023638003;0.0624619;0.046960104;-0.14369248;0.038776096;0.18955344;-0.15469469;-0.07838049;0.039578695;0.057076994;0.018131576;0.051678695;-0.019322148;-0.06614058;-0.0865868;-0.0420487;0.06619035;0.14112517;0.14352968;0.05644432;-0.055665273;-0.0566125;-0.05010476;0.036096197;0.044339836;-0.063274294;-0.023321379;0.06368522;-0.024981556;-0.078751996;0.1561945;-0.028438533;0.01616079;0.07904503;0.012412795;0.026486292;-0.013602002;-0.007393596;0.08644795;0.023462703;0.0434945;0.025351781;0.10039503;0.10561529;-0.04448894;-0.07888247;-0.055397928;0.04077596;-0.046097174;-0.10453693;0.015345121;-0.20643683;0.11160834;0.09289354;0.021002684;0.03372734;0.06359051;0.051680055;-0.10135941;0.1033218;0.018457448;0.03888532;-0.019245895;0.008593739;-0.048783902;-0.092056125;0.12595128;0.01876727;0.13872834;0.17133327;0.0402952;0.0002102136;-0.018067196;-0.039796375;-0.05124187;-0.07136228;0.044511687;-0.10530661;0.032421023;-0.016804103;0.06519067;-0.01227575;-0.32748592;-0.0064714598;0.044884864;-0.027813574;0.03826937;0.06994875;-0.12315125;-0.052103985;-0.036088727;-0.083025895;0.08135347;-0.029740673;0.020185187;0.07247533;0.014158823;-0.14534496;0.06029433;-0.061909206;0.091764;0.23107441;0.014957979;0.041416243;-0.047970172;0.06774979;0.010468983;-0.045908254;-0.012971589;0.092764296;-0.08342034;0.10572132;0.015039518;-0.0022896063;0.11253766;0.20249996;-0.053388882;-0.11266567;-0.0198041;0.027606027;0.10421473;0.20007934;0.04206253;0.029100195;0.00043423063;0.0692413;0.10267211;-0.0044881427;0.016335044;0.20231529;-0.027541466;0.25840428;0.055764697;0.048519373;-0.08776603;-0.1318904;0.0023669964;-0.06455309;-0.017958011;0.0041651772;0.08817669;0.066986166;0.067153245;-0.1190868;-0.06919934;0.017973041;0.090132795;-0.060318142;-0.046951752;-0.02357929;0.19767818;0.073792174;-0.056285035;0.033359244;0.029826902;0.24238224;0.03321316;0.08628226;0.16101515;-0.06673258;0.12582718;-0.026029235;0.049277697;0.2480086;-0.104009874;0.034490824;0.16273478;-0.010153375;-5.7781886e-05;0.1205446;0.043130208;-0.073294304;0.19642796;0.14681843;0.038952727;0.02175816;0.080391936;-0.067719236;-0.038644943;0.022208717;-0.012191582;0.077139474;-0.06520578;0.031670284;-0.104213074;0.038380906;-0.061672922;0.056680314;-0.074417844;-0.022918535;-0.10600321;0.0026150506;0.11461419;0.042804155;0.025575569;0.10494049;-0.16794313;-0.11881073;0.060746413;0.026839936;-0.026635675;0.013115633;-0.13218598;-0.014543325;-0.023728317;-0.007915735;0.019823097;0.052925624;0.05811099;-0.014407842;-0.01329751;-0.04554331;-0.13305387;-0.023370663;-0.050108712;0.10036794;-0.0043085814;0.07656532;-0.08302628;0.15527798;0.0609951;-0.03368822;-0.019940214;0.06466702;0.100905746;-0.04269198;0.04975819;0.16481121;-0.060879096;-0.007798401;-0.02618398;0.022835562;0.01429802;-0.12003528;0.004103012;-0.02380275;0.036899414;-0.312295;-0.100974396;0.061617006;0.07274889;0.03965418;0.0856651;-0.07297071;-0.044605386;-0.0130101275;-0.029692488;-0.0034352324;0.009459507;0.029802712;0.033899873;0.014884993;0.11437749;-0.050541297;0.027338326;-0.409174;0.08590125;0.06419908;-0.04917812;-0.0030932042;0.028424954;-0.065176375;-0.046811596;-0.0005217988;-0.11762635;0.19490404;0.04899743;-0.0682738;-0.042966664;-0.04325537;0.073984034;-0.021548185;-0.12273534;-0.022328813;0.030810252;0.014109498;0.026206866;0.029404694;-0.06797899;-0.026205862;0.0149290385;0.044684496;0.0722911;0.23593765;0.0111701405;-0.031281125;0.05767125;0.11532134;-0.03247388;0.009359382;-0.010029176;-0.009544078;0.037504204;0.003889096;-0.06389238;0.032569986;-0.040854994;-0.11102314;0.008756595;-0.048753213;-0.003753726;0.037299458;0.05099432;0.0111196;-0.099671274;-0.07402129;-0.07591769;-0.058773745;-0.0111453105;-0.008452291;0.059158314;-0.14813972;0.047658462;0.014238431;-0.06960537;-0.023604525;-0.0021866732;-0.016937919;-0.037585545;-0.3591332;0.016763844;0.016885355;0.057921525;-0.1334778;0.18043028;0.15605678;-0.033233594;0.030919999;0.25736207;0.052701414;0.1066569;-0.05136269;0.07259133;-0.02032269;0.060057424;-0.094776854;0.043722495;0.030253226;-0.07388684;-0.0036989874;-0.063156314;-0.013672775;0.083226554;0.0044404105;-0.09264285;0.097281955;0.017991563;-0.021267604;-0.020999102;0.1114104;-0.026865363;-0.08038125;0.057252433;0.05729517;-0.050884727;-0.019690942;0.118533306;-0.028815834;0.21120748;0.02339735;0.02212216;-0.073882416;-0.026802946;0.0752655;0.056452703;0.024593677;-0.12722553;0.0625832;0.16117826;-0.0011462856;-0.06779437;0.027471125;-0.07406908;0.20695567;0.012357817;0.011421291;-0.11041765;0.033690736;0.06564036;0.005712919;0.026807921;0.0026009914;-0.041157145;0.0041762;0.035630014;-0.07695516;0.03460725;-0.014539458;-0.016387755;0.054995075;-0.02395856;-0.08431952;-0.013610806;0.019103825;-0.006028562;0.03373168;0.0606587;-0.1019939;0.08638207;0.04276105;0.12590058;-0.020954367;0.09074506;0.0034377219;-0.020760072;-0.20153548;-0.008254968;0.118922725;0.08529324;-0.067989536;-0.037655603;0.06325886;-0.03644604;0.024670837;0.1468426;-0.061791524;0.04420509;0.08940104;0.0034078285;0.11245113;0.063583344;-0.30898595;-0.012368517;0.05368797;0.04332736;0.02204072;-0.063677534;0.09418001;0.041823346;0.0595511;-0.035619065;0.13652654;-0.040622115;0.00014733493;0.05883622;-0.03719834;0.03173815;-0.003081892;0.021694193;-0.0017552378;-0.071661815;-0.038255032;0.06554505;0.05766353;-0.056959424;0.01891143;-0.0009961718;-0.10091659;0.061933655;0.10681401;-0.105134286;0.049446683;0.06364229;0.22287703;0.07006522;0.055971473;0.09511928;-0.054310165;-0.015750723;0.0030750304;-0.028957775;-0.19060259;0.055749934;0.053410124;-0.11106345;-0.047182444;0.079717584;0.08007023;-0.022930846;-0.08168268;-0.007583272;0.07365852;-0.046057995;-0.13454865;-0.037096348;-0.02373936;0.102498986;-0.0018431183;-0.06781832;0.042105097;0.14617985;-0.09077391;0.003883705;0.04031003;0.037189808;-0.08632206;0.010500499;-0.0069695823;0.034731366;0.23869868;0.040119804;-0.094323635;0.21337165;0.025987893;0.07721575;0.06090607;-0.2995339;-0.05904856;0.003678247;0.053623166;-0.08114885;0.03804727;0.054112896;0.008909105;0.04000008;-0.05066141;0.17971791;-0.00513324;0.036696535;0.048625898;0.029851079;0.0349571;-0.046882186;0.1180845;-0.022794431;-0.023633102;-0.022777228;-0.06391568;0.020963889;0.16697705;-0.014793303;-0.072040915;-0.0034357517;-0.11599366;0.0017283754;-0.06854105;0.2995139
-0.12502904;-0.039718065;0.078863315;-0.17620887;-0.061479647;-0.057234727;-0.017134381;0.008459286;-0.09923506;0.21556613;-0.037484538;-0.065495476;0.10082178;-0.014764614;-0.04546691;0.12015403;-0.01138339;0.065254055;0.04898369;-0.009870568;0.124483906;0.0977306;-0.07820352;0.079755165;0.010519759;0.051613912;-0.11101378;0.017220113;0.24032006;0.06270736;-0.04965008;0.025490442;-0.007818533;0.12587366;-0.05395987;-0.023453673;0.01194973;-0.036515497;-0.025642062;-0.001225835;0.024398768;0.060054075;0.16379426;-0.06353996;-0.032696787;-0.08025603;0.1457868;0.08053302;-0.05526614;0.063317664;0.1695524;-0.01718572;0.017905772;0.023070367;0.11665512;-0.011227009;-0.04785212;-0.091772296;-0.21541244;0.030367082;0.029583558;-0.010809635;0.023873033;-0.0057585654;0.07900708;0.0136268055;-0.3448411;0.2842508;-0.056273177;0.009697128;-0.01032595;0.063014925;-0.076103956;0.04142928;-0.0042268885;-0.11248272;-0.11544584;-0.0071856715;-0.2804478;-0.118494086;-0.10274096;0.0056784386;-0.0042038113;0.06692977;-0.029407743;-0.00094026735;-0.07478153;-0.0529047;0.031533577;0.11251663;-0.015774656;0.028987914;0.036345147;-0.031871784;0.0810103;-0.004963228;0.04621605;0.015317908;-0.036746047;0.09139838;0.01144704;0.042059187;-0.11070084;0.060255624;0.030136153;0.035444405;-0.007157112;-0.028352315;0.0880841;0.06118226;0.030761966;0.10353592;-0.015509459;0.05961921;0.056750752;-0.002144863;0.036300927;-0.005388246;0.1498296;-0.117508754;0.011282918;0.06089664;0.078521706;0.02347465;0.0975165;-0.05833233;-0.045773268;0.13082764;0.04613486;0.05488506;-0.029995808;-0.13564855;0.026543744;-0.0008235634;0.014130673;-0.031016951;-0.011907405;0.04813189;0.006278345;0.060874566;0.08339927;-0.023550062;-0.06287243;0.050099716;-0.040255535;-0.089492545;-0.11453544;-0.051047906;0.0697691;-0.027954208;0.034392145;0.015673757;-0.014934205;0.15406337;0.087237164;-0.026824556;0.04351171;-0.044724476;-0.043741725;-0.07546198;0.010861412;0.058999598;-0.010245165;0.07771873;0.14941455;-0.017368305;0.103821434;0.045750864;-0.013184398;-0.060650896;0.047480486;-0.077850066;0.070394754;-0.010945929;-0.008175316;0.069262266;-0.0017736674;0.06815978;0.16465175;-0.022261001;0.2182038;0.080866285;-0.08222205;-0.17939527;-0.015049391;-0.018553736;0.008133112;-0.0021259994;-0.051358964;-0.05957567;-0.07886376;-0.018028023;-0.20028964;-0.04617756;-0.053446043;-0.13640095;-0.046059176;-0.056351993;-0.02235828;0.02395662;0.07791958;-0.066582166;0.11170306;0.08058905;-0.094760716;0.028731246;-0.019053813;0.008872109;0.023510946;0.1342226;0.077849336;0.019467177;0.19908652;-0.17131452;0.032104846;-0.018602343;0.033189423;-0.020526338;0.10448058;0.031076431;-0.062112812;-0.09780451;-0.12748723;0.09516316;-0.14484693;-0.0012613102;0.035875313;0.04376096;0.019349672;-0.042655643;0.029833267;-0.011027049;0.10924381;-0.16335317;0.02903897;-0.0011169699;0.08991458;0.042401053;0.045782298;-0.06766945;0.11016331;0.019809468;-0.05788424;0.0020896865;0.008518538;-0.10912307;-0.0016409149;-0.043520972;0.002179372;0.07359236;0.16625641;0.07333441;0.0058058947;-0.04595341;-0.043933224;0.079472594;0.016712006;0.08819612;-0.06332362;-0.19269273;-0.091557786;0.009111919;-0.10920491;-0.025352415;-0.045992088;0.021091118;0.07578003;0.13667569;0.023948152;0.044940304;-0.07420198;0.0403357;0.082296155;0.053635847;0.13690124;-0.07728777;-0.06904043;-0.03450992;0.14003903;0.020720812;0.13175818;-0.031260423;0.02225667;-0.009802179;0.055038497;0.031066325;-0.095041566;0.08966476;-0.09267314;-0.035189174;-0.019999662;0.055089317;0.07873248;0.04218484;-0.0017247207;-0.005521632;0.061592836;0.039466053;-0.06311526;-0.037363805;-0.026020093;0.030838376;0.006030606;0.04607295;-0.19696313;-0.017236874;0.031371407;0.03110281;0.00990794;-0.10350973;-0.021254009;-0.05078015;-0.008117854;-0.07154243;0.16921812;-0.08617003;0.00038831765;-0.040372822;-0.034487445;0.0019778216;-0.01719022;-0.003760541;-0.021596482;0.066529356;-0.03884108;-0.05986532;0.0037371858;-6.194592e-05;0.06530942;0.08986631;0.09650911;-0.052163478;0.18077677;0.04051693;0.06422865;-0.08568507;0.046396956;-0.024615513;0.12840489;-0.056239758;0.09511525;-0.01702166;0.09271454;0.0047644572;0.050644986;-0.049756985;0.014908138;-0.041787393;-0.058077667;-0.124822825;-0.04111529;0.053469583;0.019056376;0.028371323;-0.030349849;0.018136771;0.028284643;0.042825535;-0.074798435;-0.01196694;-0.16673596;-0.14401823;-0.16232294;0.1232012;0.014234309;-0.0012680959;0.019880924;-0.05372974;-0.22966781;-0.057571102;0.051510155;-0.039847307;-0.20168689;-0.026197888;0.030937504;0.08798041;-0.025610251;0.20990796;0.03337506;-0.13530593;0.02015266;0.07680397;-0.1408904;0.09547242;0.0849613;-0.09132663;0.049097486;-0.025202276;-0.029100478;-0.0381015;-0.058268324;0.040281042;0.051825628;9.822556e-05;0.124685995;0.020686062;-0.004375429;-0.06471714;0.15621442;0.027565269;-0.13780159;0.008739527;0.09189102;-0.011932863;0.08314081;0.124068186;0.058261774;0.10611153;0.09153071;-0.16940737;-0.021216767;-0.00851973;0.030449828;-0.00796266;0.0850099;-0.0831647;0.06829952;-0.009299015;-0.058602117;0.0057157637;0.09064406;0.02002002;0.0141586065;-0.059801787;0.048966136;0.022645772;-0.033361055;-0.013343523;0.07799781;-0.042109016;0.04967936;0.00489222;-0.03934939;0.067277156;0.042774815;-0.0044690114;0.04210737;-0.007567983;-0.034525007;0.03892635;-0.08979866;-0.09147661;-0.1605573;-0.0021683082;-0.17088635;-0.027428642;0.010747534;-0.018608782;0.0011761357;0.032283768;0.09786598;0.030226393;0.12600808;0.055508204;-0.003650903;0.04925302;0.09572722;0.16506241;-0.120855354;-0.0010229932;0.089488074;0.122877315;-0.06261164;-0.022965278;0.010399433;-0.18469845;-0.024670511;0.014690179;0.08368919;-0.08053433;-0.08273822;-0.07627528;0.0047841473;-0.015117304;0.06376282;0.00019065413;0.03931201;-0.001974918;0.010674471;-0.047268502;-0.13433157;-0.020299958;0.023106873;0.21275473;0.04728576;-0.0064160787;-0.04887547;-0.07697625;0.08224747;-0.021970492;0.028499682;0.040875297;0.02911755;0.06468955;0.008357806;0.05008336;-0.026343033;-0.07909456;-0.051706165;-0.05641861;-0.024940617;0.0018536125;0.2113357;0.10004876;0.09077841;0.2465691;-0.026144281;0.10914197;0.09989842;0.12318926;0.0067316885;-0.024074016;0.081772625;0.114193305;-0.04191336;-0.026295057;-0.036853228;-0.09547774;-0.07738716;0.11122761;0.09179555;-0.031018613;-0.03950081;0.007828572;-0.036972925;0.08318607;-0.014040575;-0.028377939;0.04805191;-0.04477561;-0.10469004;0.052833058;0.11106285;-0.09927993;-0.017005421;0.0058963485;0.030814553;-0.009461377;-0.016453873;-0.003770586;-0.047839813;-0.03177873;0.06344523;-0.028771332;-0.09810569;-0.09430817;-0.059285007;0.07023446;-0.013152791;0.022602618;-0.10956794;-0.04773528;-0.019105377;-0.02408542;-0.041437805;0.057334207;0.0020936849;0.12370104;0.011081834;-0.023754535;0.033767097;0.018769026;0.086598836;-0.036373056;0.01335632;0.041033432;0.019655706;0.08144679;-0.06896541;0.046217103;0.0022106073;0.032901756;-0.02634669;-0.0068138014;-0.04488284;0.18186082
0.052651387;-0.08020584;-0.02503451;-0.2536515;0.045386307;0.07248619;-0.0498541;-0.08296422;-0.03095851;0.16149312;0.01350309;0.075682476;0.033757452;0.09980075;-0.04307657;0.100285396;0.025598312;-0.076696105;0.06666019;-0.013910213;0.0797519;-0.022755709;-0.019810695;0.06890809;-0.0006296832;-0.022905778;-0.036890626;-0.081846476;0.13818263;0.052547872;-0.058770154;0.056876723;0.036741365;-0.048208702;0.034499727;-0.09704182;0.04009938;-0.03188597;0.012933431;0.015581178;0.11537157;0.04394544;0.10923242;-0.05963307;-0.09996567;-0.058323443;0.13929886;-0.053744722;0.08758595;0.08950336;0.13908875;-0.054789744;0.06930219;0.02290718;0.024826987;-0.010836164;-0.078794904;-0.07525671;-0.14561519;0.030693976;0.03229021;0.02321975;-0.054930598;-0.06042269;0.038155973;-0.02284948;-0.37306327;0.18937625;0.07510405;-0.09078529;-0.069691695;0.016754666;-0.007801974;-0.046314724;-0.12815526;0.017485492;0.095882624;-0.14836146;-0.18142375;0.05811601;-0.0019222429;-0.042350754;0.08723224;0.0082801925;-0.09028286;0.0046444833;0.03144828;-0.059812352;0.033796523;-0.06430155;-0.027560333;-0.21862094;0.09654986;-0.021455051;0.06707411;0.074996546;0.06005223;-0.05543962;-0.010208066;-0.07080339;-0.080636516;0.014107321;-0.07812225;-0.021185469;-0.020706072;0.03880622;-0.037224576;0.0132927075;0.030424261;-0.046716593;-0.008371113;-0.037860077;-0.05085473;-0.07018388;0.12269736;-0.03783943;0.010315639;0.11884254;0.068181686;-0.002605626;-0.0033905043;0.038741928;0.0010562723;-0.018202467;-0.07728626;0.0315848;0.034379095;0.02644215;0.02327966;0.036062714;0.013277532;0.09078366;0.035887834;0.07234376;0.07383365;-0.0928495;-0.06538316;0.03868276;-0.024075167;-0.049669027;0.008825637;0.06612136;0.03433895;0.046346333;-0.062355988;-0.052333586;-0.062016025;0.026870204;0.061792348;-0.07321397;0.083914585;-0.033620458;-0.05654233;0.034878306;-0.028413827;-0.122393966;-0.069274835;-0.022753956;-0.08674596;0.057452973;-0.019296277;0.099132314;0.0134306755;0.12818378;0.17649356;0.03141275;-0.07374467;0.08316236;-0.0845543;0.02962246;0.18668984;0.010364662;-0.13581255;-0.06057453;-0.0967073;0.04209867;-0.00048148178;0.052329257;0.059237536;-0.09550642;0.17725551;-0.04518839;-0.07301226;-0.2626004;0.11490473;-0.04017197;-0.0005670991;-0.016833989;-0.059569836;0.028659085;-0.07773749;0.027754402;-0.25668728;0.06059328;0.15667143;0.0018705514;0.017344901;0.1360476;-0.023934843;-0.06618954;0.06113569;0.021793686;-0.011567945;0.028367776;-0.08570538;-0.0058628256;0.14248073;0.011043527;-0.012883532;-0.25659835;-0.037651125;0.1050616;0.2643542;-0.18291314;-0.00983207;0.14245404;-0.05198748;0.024522692;0.12871449;-0.05466877;0.03334771;0.03924793;0.017049924;0.022701826;-0.06122888;0.0071016722;-0.0444891;0.036730744;0.030457547;0.014405865;0.09054177;-0.027322585;0.02168759;-0.19633543;0.10281769;-0.015662398;-0.082682274;0.07716003;-0.02993961;-0.104454696;-0.019495375;-0.017534476;0.08642649;-0.024306627;0.061036203;0.00033638615;0.07931957;-0.0057189395;0.07665374;0.023932084;-0.0058920817;0.062159155;0.04951158;-0.03946492;-0.073627114;-0.066827886;0.01641055;0.11300219;0.11909153;-0.1492135;0.031141447;0.0040028077;0.08030731;-0.053148188;0.10309206;0.072170675;0.2311874;0.13540943;-0.098564774;0.018990926;0.030493842;-0.02330509;-0.013625739;0.05115052;0.13502982;0.015996637;-0.04924276;-0.021655845;0.042307504;0.06993078;0.0124554625;-0.0037243776;-0.091480955;-0.0641346;0.073639765;0.019409427;0.048653323;0.049976867;0.040545326;-0.037554998;-0.05901297;-0.13390698;-0.16478725;-0.034170717;-0.06035348;0.0138502205;0.16988027;-0.056938797;0.01092222;-0.1081646;-0.065941945;-0.017992359;0.07180172;0.005550606;-0.1589664;-0.060713753;-0.031662043;0.035446566;-0.011342233;0.22549894;-0.029186528;0.0019767736;-0.04978751;-0.04867967;0.189509;-0.02254357;-0.027373109;0.10020546;-0.036016643;-0.058520354;0.0134217795;-0.0959883;0.07244309;-0.12959102;-0.042667177;0.006214941;-0.09003367;-0.02952377;-0.051105488;-0.06759579;-0.0759;0.0024955224;0.110594854;0.008752849;0.07355025;-0.085616715;0.1465104;0.057144344;-0.055474993;-0.0057103545;0.052820034;-0.08235029;0.04130793;0.033738412;0.04948117;0.0023772938;-0.061556954;-0.0062703285;0.026365409;0.018470142;-0.09364532;-0.057005458;-0.08235147;-0.028930845;-0.01878575;-0.028087659;0.039219175;-0.063457;-0.023158202;0.061891798;-0.03427386;-0.15899429;0.12947762;0.011104526;0.15506366;-0.031067843;-0.036809962;-0.007588577;-0.027809452;0.054098494;0.08354909;-0.023764377;-0.059391264;0.08512937;-0.016264139;-0.07872987;-0.00065230054;0.10023664;-0.040240686;-0.057193045;0.022080753;0.0075103836;-4.942564e-05;-0.052109867;0.061001234;-0.015443169;0.012799091;0.039340902;0.032692555;-0.011601723;0.031217683;0.06803088;0.05302845;0.022645593;-0.02040586;0.078749016;-0.030933859;0.012677489;0.085407;-0.02304244;-0.08179196;-0.017232213;0.010967587;-0.076261185;0.08812383;0.09328394;0.06723175;0.22415577;0.124992296;-0.113347694;0.045950163;-0.013662292;0.029063325;-0.045572296;-0.003210862;-0.01834662;-0.019402653;-0.0956638;0.07933411;0.004298675;-0.031866495;-0.03584063;0.024270212;-0.08901297;0.08267292;0.06351589;-0.011562565;0.03373056;-0.1253559;-0.023374215;0.023732157;-0.046890818;-0.0031965992;-0.024764962;0.04530251;0.02209265;0.02011536;0.040490665;-0.03241426;-0.11809393;0.0011866086;0.0033947888;-0.1386652;0.08336007;-0.09017449;-0.075175755;-0.10851248;-0.051413894;-0.07872114;-0.039937947;-0.019610938;-0.02930981;0.07281589;0.041407656;-0.111495145;0.06532627;-0.031098912;0.05575321;-0.046091374;-0.10795978;-0.0015932237;0.0857875;-0.033014897;0.034026515;0.029378094;-0.11585774;0.09912716;0.019801952;0.020691128;0.034098558;-0.06063882;0.0713577;-0.06663681;-0.09938011;-0.040073846;0.16390336;-0.11909203;-0.045641083;0.011658518;0.0321588;-0.021696785;0.07954963;0.0939882;0.10915532;-0.05433003;0.065121405;-0.12176063;0.04841795;0.08805738;-0.0069920346;0.095941335;0.019434791;0.06836495;0.04449023;-0.0630201;-0.03410544;-0.052632228;-0.19982246;0.032370664;0.03507447;0.14999583;0.024549276;0.21792282;0.052628513;-0.04217761;0.12542202;-0.004892455;0.059412304;-0.030318296;0.03857926;-0.09043771;0.07610156;0.0136032;0.017218072;-0.017238425;-0.06956669;0.014856505;0.005296203;-0.00047685776;-0.026510675;0.013096021;0.09699413;-0.1555735;0.06681128;0.11424475;0.08728344;-0.06409298;0.0015785908;-0.038699426;-0.06483825;0.034889884;0.043169215;-0.07137329;0.025279868;0.027637571;0.0073588896;-0.07197651;-0.011354783;0.05119277;0.028298678;-0.07403008;-0.12126068;0.0830858;-0.040630877;0.025649045;-0.18199462;0.008672845;-0.045292236;0.021527553;-0.002303371;-0.12133874;-0.036791615;-0.074906334;0.0028191071;0.043845803;-0.002053322;-0.056586634;0.26534823;0.04464172;0.049424246;0.005575773;-0.017616915;-0.021226835;-0.035232622;0.02352092;-0.07954299;0.04472852;-0.08391676;-0.22164564;0.04591286;-0.019892033;0.04805312;0.08248264;0.07106911;0.06822408;0.076720044
0.04278851;-0.024907038;0.022552542;-0.13881597;-0.21797602;0.04092944;0.100655586;-0.19894347;0.024519501;-0.080388814;-0.08124411;0.103773125;0.036037184;-0.040472016;0.044056788;0.07431603;-0.041496567;-0.032855093;-0.0034306822;-0.020597465;0.05456945;-0.007339591;0.08571404;0.021313235;0.014253268;0.04090471;0.1384913;-0.038611554;0.031082217;-0.04369337;-0.014887745;-0.020376088;0.06493272;0.008606661;0.13805741;0.023285784;-0.089414716;0.07842093;-0.04927697;0.03314051;-0.022687359;0.03212578;-0.018953191;0.056206677;-0.0894861;-0.025210978;0.1180265;0.06920815;0.1700747;0.069725126;-0.05400514;-0.029691745;-0.024128295;0.041694634;0.0051406403;0.16589089;0.039831072;-0.017651461;-0.08655304;0.086872;0.013863449;-0.072771974;-0.0534137;0.055136442;-0.020771712;-0.0041260235;-0.1266873;0.13690268;0.061840583;-0.038432807;-0.010608956;-0.05718658;-0.013782906;0.033052117;0.114934735;0.11913725;0.10075608;-0.08215582;-0.0036719944;0.00044620392;0.002319913;-0.0382347;0.084061734;-0.04467338;0.1433607;-0.022253886;0.062468275;-0.023503823;0.045868576;-0.07087974;0.0800636;-0.37145466;0.042749606;0.0130938785;0.0039772936;0.0016283757;0.03973828;0.097477116;-0.19982141;0.05788448;-0.10338781;0.026951745;-0.15309843;-0.041571353;0.045427263;-0.018864954;0.06702217;-0.03591086;-0.0716696;0.0007350834;0.039921597;0.04089767;0.010537704;0.0024329177;-0.08287267;-0.0840756;0.090328634;0.13147847;0.13090773;0.022116676;0.04390093;-0.018553685;0.085317664;-0.060444083;-0.074511625;-0.036328338;0.09362639;0.23387386;-0.02717631;-0.03188932;-0.10438164;-0.073746815;0.0032429171;0.08007644;-0.017495561;-0.029554019;-0.004173251;0.13125387;0.05836779;-0.029631214;0.022294557;0.050502047;0.065121695;-0.0139490375;0.009011094;0.05268086;-0.1262499;0.011609949;0.08799503;-0.020539278;0.13598374;0.06337147;0.05716243;-0.08403167;-0.031055296;-0.013772514;-0.030892532;0.06438103;0.060986888;0.16331612;0.0060334816;0.031255934;-0.013638941;0.124229334;0.13323173;-0.049992234;-0.056799833;0.060005486;-0.015041466;0.0015941672;0.023923106;-0.04399489;-0.03250706;0.045661975;-0.025471915;0.040139418;0.05100579;-0.058834817;0.1308774;-0.0017353575;0.18781161;-0.07144365;-0.026096487;-0.09076683;0.08337996;0.01115567;-0.05536397;-0.008065073;0.029697469;-0.07648522;0.043701667;-0.03183581;-0.07527895;-0.11377369;-0.09665035;-0.1087143;0.05711016;0.015835151;0.033772107;-0.10276359;-0.08601765;0.05305012;0.070841424;-0.062083032;0.10797976;0.004463713;0.15685704;-0.07429649;-0.012721692;-0.34215382;0.07301637;-0.08720252;0.24560758;-0.09752308;-0.06369223;0.11605823;-0.07190573;0.06962523;0.055518597;-0.03464487;0.082026996;0.09914989;0.11683137;-0.07478011;0.0064958096;-0.04629995;0.077335946;-0.034428593;0.019448712;-0.04940829;-0.056116544;0.114603914;0.009364201;-0.16018698;0.0670339;-0.03265976;-0.028849997;0.04069502;-0.08443196;0.1658964;-0.14611056;-0.02172691;-0.032159645;-0.072941326;-0.042360723;0.09856644;-0.018668763;-0.030710405;-0.050173547;0.04550972;-0.04936297;-0.17818713;0.002739027;-0.03951837;-0.045277033;0.046903897;-0.097094774;-0.029042328;0.030779246;-0.080705404;0.0046885023;0.030250045;-0.0097798705;-0.19092551;0.04058384;-0.06665997;0.13199522;0.0025990186;-0.009957711;0.04416519;0.009083367;-0.021415181;0.012216987;0.010301014;-0.009269915;0.030688046;-0.22899409;0.030327711;-0.0054013794;-0.07298786;-0.23492092;0.057993535;-0.0009232419;0.043323103;-0.06774981;-0.062318083;0.038462028;-0.09151584;0.06716638;0.074761145;-0.0804154;0.054876763;-0.4221487;0.064328186;-0.087556295;0.0010193302;-0.027072951;-0.008493962;0.008045482;-0.07444529;-0.032560773;0.03566806;-0.086332105;0.0027266822;-0.4360006;-0.0173953;0.04708181;0.007373715;-0.013527035;0.18866038;0.028463552;0.019732628;0.045927987;-0.18503183;0.2317878;-0.03286828;-0.032587692;-0.027655177;-0.0674949;0.0737261;0.040612847;-0.17654534;0.00855464;-0.1111104;0.001663805;0.028611114;-0.10102705;-0.022316847;-0.033578157;-5.3538162e-05;-0.041551806;-0.025429888;0.032771297;0.048469253;0.02190043;-0.06837956;0.07571924;0.08464998;0.08480175;0.036996823;0.0010658728;0.026274052;0.080226585;0.03503511;-0.050773162;-0.00082232524;0.01101371;-0.020681923;0.08749236;0.069025174;0.07621372;-0.043961734;-0.13456976;0.042026885;0.017831203;0.063030645;0.02928696;-0.04575217;0.05310397;-0.008507538;-0.1393233;-0.054914273;-0.0047177593;-0.037161205;0.0774566;0.066286154;-0.076516494;-0.046452414;-0.005101246;0.042431056;0.035624523;0.04075119;0.059038844;0.038990535;-0.109592095;0.040659785;0.04263284;0.1840537;0.03623275;-0.07950076;-0.054898217;-0.070872225;0.054191772;0.055955313;-0.07347812;0.008669385;-0.05476232;0.027684383;0.033690915;0.008815656;0.0029567555;0.088274784;0.05982129;0.0346278;-0.04041943;0.026890293;0.048696138;0.044628624;-0.06280759;-0.01966042;0.044821016;0.04769904;-0.013736601;-0.090292156;0.15152977;0.026390623;0.008173774;0.1326429;0.0046187625;0.0037032336;0.009487286;0.0724045;-0.04559857;0.025630904;-0.053168498;0.059057135;-0.024227556;0.06844504;0.02471301;-0.046200685;-0.14733067;-0.09633369;0.03307216;0.00408041;0.02389249;0.073566616;-0.03719102;-0.06903834;-0.06937567;0.05389834;0.057794195;0.04163125;0.037210878;-0.018450486;-0.05062541;-0.054868482;-0.026675628;0.02883441;-0.031804122;-0.07191947;0.002058237;0.058486175;0.012780866;-0.011801286;0.12536755;-0.03681415;0.01942557;-0.06635421;-0.0674662;-0.068449035;-0.19785687;0.10895256;-0.07737429;-0.07813096;0.039787676;0.09897345;0.024115056;-0.04217883;-0.03431357;-0.14442165;-0.0036772264;-0.01770065;-0.079948865;0.09005085;0.059222855;0.014028541;0.017615285;-0.079481065;-0.04220992;-0.042887002;-0.2608392;0.07115165;0.02596779;-0.00023615411;-0.0073873913;0.17145431;-0.10496965;0.061513014;-0.08124964;0.04629475;0.18064733;-0.0012082753;-0.0026975104;0.0846182;-0.0034352501;0.013592161;-0.027287364;0.059907395;0.0546125;0.036844138;-0.07037637;0.022007275;-0.06086276;0.032442432;0.02822443;0.019527836;0.08634427;-0.13626945;0.00087145163;-0.014258967;0.08638072;-0.05530089;0.1442107;-0.014582343;-0.005915385;0.0040228525;-0.0183325;-0.04423312;0.013820315;0.038003918;0.038666513;0.003198166;-0.12659702;-0.12566474;-0.009688344;0.026290784;0.015745543;0.013080089;0.02689833;0.12701201;-0.0019088467;0.018078718;-0.082012065;0.10651646;-0.028399935;-0.035115577;0.07245372;0.045219112;-0.0126767615;-0.039437037;0.06712554;0.026526587;0.13660127;-0.029496891;0.073686965;0.03436171;0.027760914;0.030572828;0.1716938;-0.018494839;0.021628201;-0.3005792;-0.014541823;0.0046081957;-0.030069426;-0.09061925;-0.099449255;0.040614836;-0.022648327;-0.04246274;0.095026545;0.0007051198;0.072464906;0.0018892655;0.047145925;0.038349923;0.017056407;-0.04794652;-0.012633746;0.24174182;-0.062316503;0.044549327;-0.039733447;0.042309433;0.04756939;-0.053788498;-0.02762343;-0.07329248;-0.19941531;0.023462402;-0.01660619;-0.01952858;0.13040815;-0.056841437;0.08905185;0.018400254
0.011426693;-0.012408967;0.06772366;-0.09553857;-0.15785527;0.028853552;-0.024882937;-0.18118069;0.14395803;-0.10228754;0.004056755;0.14910445;-0.00437797;0.08316629;-0.0022337846;0.07007077;-0.017978042;-0.16108038;0.020871326;-0.005636096;-0.049812388;-0.0030550563;-0.078730136;0.039864797;-0.054980397;0.0066447533;-0.012865989;0.06352976;0.24937057;-0.029710224;-0.06876711;0.058814637;-0.0029892058;-0.04040811;-0.024525005;-0.022648664;-0.03721505;-0.018142402;0.0062670913;-0.108926155;0.12556967;-0.07941573;-0.0016637313;0.006448912;-0.0062122834;-0.04382301;-0.0072547547;-0.09784873;0.021161398;0.07093311;-0.3420186;0.033836648;-0.22571874;-0.019891554;-0.12704739;0.14998448;-0.044954985;0.01960363;0.08841523;-0.06418532;0.0572107;0.064260475;-0.022926187;-0.0072598886;-0.06268297;-0.038075406;-0.15324128;0.030001773;-0.039992947;0.00031845464;-0.05931857;-0.025773931;0.019604374;0.061035678;0.021293558;-0.06119126;-0.056189988;0.071834005;-0.2028624;0.030491203;-0.092327215;0.06841084;0.04081885;-0.048328668;-0.009052293;-0.005750844;0.06433704;0.10852814;0.06096672;-0.038399067;-0.08218074;-0.25965664;-0.12839715;-0.03255805;0.10027275;0.081193805;-0.024351448;-0.055453625;-0.13967863;0.008014656;0.1103249;-0.09064183;-0.07890389;-0.08825665;-0.00057667826;-0.07214088;0.08050794;0.11048635;0.039269302;-0.026573448;0.005751459;-0.02725819;-0.041611947;0.0068873656;-0.11708363;-0.04905999;-0.026257593;0.19296363;0.18803723;0.047361568;0.00585212;0.11314692;0.15317176;-0.07367951;-0.00076073396;0.021454982;-0.06166218;0.08248931;-0.002318154;0.01603435;0.076531395;-0.1382734;0.095314965;0.047856726;0.043584213;0.037827995;0.03717809;-0.06461577;0.077765174;0.05298516;-0.08033542;0.036944225;0.05034111;0.050010543;0.01280559;0.01214232;-0.19826211;-0.043587137;-0.16704337;0.0123010045;0.052579354;0.013237487;0.04332151;0.050142616;0.12452899;0.018498868;-0.11322014;-0.09338322;-0.0045052404;0.06906601;0.0012130269;0.17823;0.044504445;0.14492308;0.1284941;0.063725054;0.13824722;-0.013084813;-0.058756433;-0.018698022;0.15065362;-0.040233042;0.107261084;0.005313056;-0.04952092;-0.0504134;0.020472951;-0.024174044;0.06261326;0.018398408;0.18709676;-0.09965129;0.0033716753;0.016749697;-0.06815323;0.0065082815;0.005827183;0.03379399;0.06367694;-0.010504628;-0.017308248;0.050009128;-0.12501217;-0.057346426;0.006281433;0.042237267;0.028519515;-2.6157231e-05;0.03090028;0.082580425;0.049235288;0.034852296;0.0022727312;0.04577523;0.09311932;-0.048110176;0.073484264;0.02223988;-0.028623102;-0.30118975;-0.09209072;-0.06743065;0.23693292;-0.14966907;0.0011958644;0.06766419;-0.056090683;0.21375403;0.042875774;-0.026305748;-0.015242035;0.063217126;-0.013182569;0.11874414;0.016032754;-0.004814515;-0.054137044;-0.067469746;-0.096082546;-0.04022175;-0.021423472;-0.010585695;-0.0767621;-0.109301165;-0.037911117;-0.055481803;-0.004604197;0.050480653;-0.010903587;-0.07723064;-0.18464012;0.00024175574;0.039151493;-0.049918395;0.027690709;0.112744674;-0.07352028;0.0009739593;0.019090991;0.09410166;-0.18531905;-0.0923778;-0.048423894;0.0517987;0.06980527;0.07021913;-0.05464048;-0.040974658;0.041716464;-0.07723882;-0.042555656;-0.052712522;0.050275516;-0.1643177;0.21519035;0.007157384;0.12811111;0.00052403903;0.062871486;-0.012340996;0.00984971;0.037657563;0.04164025;0.030912485;0.15254733;-0.026421545;-0.09090575;0.035588566;0.015100859;-0.017357297;-0.036894333;0.08625795;-0.00063613395;-0.0348824;0.054620728;-0.022084326;-0.018145787;0.0033056713;-0.02335859;-0.073018014;-0.02966526;0.040055748;-0.25927344;-0.011315056;-0.088690855;0.041214425;0.022035766;-0.04714758;-0.07174654;-0.036071513;0.05467904;-0.051492974;-0.06116508;0.056282844;-0.23965828;-0.08807831;0.0041625584;-0.058574155;-0.06129113;-0.014835617;0.00050833565;-0.009305117;0.08191517;-0.07417926;0.37759566;-0.034498867;0.056840733;0.025497478;-0.0049687526;-0.026951948;0.025817346;-0.063528106;0.048354056;-0.1001958;-0.06980148;-0.04646722;-0.017139936;0.10058875;-0.08407838;0.0042797956;-0.033630688;-0.038532306;-0.03740503;0.028348312;-0.08333796;-0.09214877;-0.03648089;-0.07957535;0.14324439;-0.029483808;-0.07637121;0.016932342;0.016089102;-0.051763702;-0.026661659;0.046223868;0.09833283;0.049242493;-0.03212653;-0.12397661;0.029163027;0.044056926;-0.007410307;-0.09087701;-0.004768063;0.069663234;0.0016561442;0.06405071;0.039045207;-0.013209231;0.042713318;0.017433183;-0.015044441;0.028147599;-0.055900533;0.065963544;-0.041470006;-0.040698964;-0.025187464;0.059240043;0.017692935;0.02916309;0.25612724;0.0423325;-0.024828067;-0.069181725;0.06749546;0.04041215;0.05266811;-0.024000416;0.06329938;-0.08253645;0.020339618;-0.03234627;-0.033202846;-0.0021333431;-0.083345406;-0.048603445;-0.019127252;-0.14087744;-0.00914272;0.020535765;0.13814159;0.0023567334;-0.08140489;-0.06798397;0.02374729;-0.009263374;-0.14787145;-0.060618043;0.030937057;0.04698764;0.18012956;-0.09933518;0.10275725;0.024167368;0.0056849667;0.26869857;-0.021721184;0.03496425;-0.0016334249;0.051257037;0.019881409;0.004464537;-0.08054569;0.11894122;-0.045454808;0.0856343;-0.039403662;-0.04811221;-0.15672557;-0.056568936;-0.1653778;-0.04479204;0.18387227;-0.03810802;-0.067990445;0.04141716;0.020141883;0.07633815;-0.030161532;-0.026022153;-0.0506487;-0.091283716;-0.05171038;-0.0051531903;0.042827982;0.010086063;-0.003273951;0.034525204;-0.023698222;0.02107231;-0.050524995;-0.10509042;-0.04299982;0.022328146;-0.015956063;0.08096254;-0.0899137;-0.13576172;-0.17682019;-0.004365886;0.062407535;-0.00013041227;-0.13170801;0.04160532;-0.050447218;0.10886105;-0.03213816;-0.042715035;-0.036733493;-0.014057693;-0.021374434;-0.06766754;-0.04239427;-0.015373613;0.11791617;-0.0047104494;0.030298207;-0.038404174;-0.2569801;-0.010157263;0.017010333;0.008165888;-0.042223938;0.08302526;0.02843155;0.111166514;0.059653256;0.014093878;0.112530254;-0.037745275;-0.009422226;0.10677418;-0.043564055;0.078142785;-0.046561103;0.011560611;-0.0537496;0.082097076;-0.062480044;0.001915453;0.04402463;-0.03716607;0.037471026;0.08653297;0.02491162;-0.10978565;-0.017835172;-0.009018046;0.0853145;-0.04865982;0.09514969;0.06444293;-0.033440545;0.031412397;0.032189883;-0.10504576;-0.055395532;0.03914548;-0.05142128;0.02742898;-0.027924266;-0.022444556;0.104143605;-0.025846686;-0.021760484;-0.044359617;0.07879298;0.08002675;-0.065775745;-0.056434814;-0.12414938;0.03050619;-0.030768594;-0.04749276;-0.0018912068;0.0029300915;-0.0066669164;-0.08653518;-0.09769681;0.0072228145;-0.025804395;0.031146653;-0.015723081;0.026670273;0.02511972;-0.061125156;-0.0791823;-0.038725305;-0.12645638;-0.19780602;0.003471213;0.03237224;0.023904465;-0.09904245;-0.10697833;0.013794327;0.03183513;0.06163237;0.06715097;-0.033688836;-0.08078008;0.039757274;-0.028457351;-0.17707509;0.04983284;-0.09022192;-0.012888683;-0.0024869225;-0.04060788;-0.02637475;-0.007657099;-0.040530384;0.047246993;-0.049224302;0.066723;0.03923034;0.040188074;0.07748383;0.024271943;0.029246883;-0.025338123;0.01301797;0.092186145;0.10062278
0.038173012;-0.046799507;0.009666519;-0.0938017;-0.14163075;0.042662248;-0.011655588;-0.13753055;-0.053313386;-0.12542409;0.03040405;0.18057162;-0.0230118;-0.09353464;0.09247307;0.22669242;-0.041614965;-0.13001764;-0.0590742;0.04999757;-0.006802062;-0.04662448;0.0049195774;-0.050437972;0.04286381;-0.07583361;-0.07521541;-0.031043107;0.13115813;-0.07191923;-0.002931926;0.038988587;0.04504736;-0.01094681;-0.0910061;-0.031797975;0.02532487;-0.09166884;-0.0044077164;-0.07220957;-0.13003936;-0.06218091;-0.14387591;-0.04024044;-0.114627734;-0.07674131;0.10721093;-0.025302576;-0.14850074;0.06612819;-0.19326043;0.01053877;-0.14568065;-0.007627912;-0.031132886;-0.010121745;0.03613162;-0.033271108;-0.11554781;0.063662246;-0.12966888;-0.018281206;0.004992415;0.052288283;-0.033249956;-0.030085696;-0.122908704;-0.01156748;-0.04439446;0.10256924;0.052870143;-0.020222666;0.050297838;-0.09483821;-0.2073703;-0.07045793;-0.07960536;-0.065280914;0.053160924;-0.08240255;-0.071899146;-0.020419976;0.06776123;0.03748365;0.043219227;0.077693194;0.04612171;0.070353165;-0.056852743;-0.06957507;-0.06652965;-0.29001266;0.022855634;0.036347885;-0.07412532;-0.059903126;0.018158006;0.033896457;-0.16308367;0.036825377;-0.24566036;-0.01951707;-0.05793995;-0.08150085;-0.023965254;-0.08209823;0.038108643;0.112607084;-0.041169852;-0.086342126;-0.06069954;-0.10466688;0.01871765;-0.046254296;-0.033115417;0.059124593;-0.07920533;-0.12145073;0.14957924;0.06061921;-0.06587309;-0.043868795;-0.05913306;-0.03555977;0.022777267;0.119452454;-0.0286367;0.047846373;0.014154365;0.037847508;-0.0065506096;-0.01941354;-0.113343015;-0.07910657;0.068500556;-0.0197473;-0.0100375805;-0.052724324;0.09317434;0.0073290523;0.020512978;-0.0708049;-0.09110199;0.012996833;-0.06327489;0.024831355;0.05638595;-0.051081773;-0.12927258;-0.08724363;-0.04321279;-0.0077083386;-0.09936231;0.018938804;-0.0031088353;-0.07223564;-0.07291473;0.07229217;0.040334586;0.041957248;0.022078156;0.13455355;-0.02869963;0.20326893;0.052118137;0.08955646;-0.06703135;0.043703865;0.016523452;-0.029679881;0.20920171;0.057520602;-0.096917965;0.057785753;0.012790943;-0.08638541;0.044342775;-0.08158836;-0.0031427483;0.055305846;0.09592531;-0.08140096;0.054862488;-0.14903596;-0.03273157;0.0071157455;0.0022861497;-0.050633926;-0.011191923;0.029301036;-0.07365802;-0.028058171;-0.09338464;-0.053237695;-0.03013926;0.10415402;-0.02760957;-0.02852753;0.056254145;0.10759244;-0.11603229;-0.0043263678;-0.0022857683;0.043434333;-0.04042405;-0.04676716;0.12791531;0.13615605;-0.07011026;-0.33385214;-0.021552112;-0.056913763;0.11138942;-0.026303764;-0.0529795;0.1593915;0.09231728;0.099517725;0.051381633;-0.054501608;0.050457943;-0.07807435;-0.10982418;0.0903058;-0.06033376;0.05080704;-0.017991716;-0.011953466;0.015099058;-0.055643015;0.009608549;0.054722425;-0.09787053;0.050999515;0.07244232;0.065571636;0.0009130558;0.01833333;-0.043352857;-0.13900138;-0.1793262;0.04501765;-0.06019056;-0.09377866;-0.12912823;0.08935276;-0.04205918;-0.043036725;0.037651535;0.22202657;-0.1082685;-0.10588068;-0.039085757;-0.0085360855;-0.03061169;0.048903007;-0.112263165;0.03888835;0.10213867;0.13507073;0.039744105;0.0028921927;0.03026519;-0.038301256;-0.030998314;-0.03840994;-0.024692174;0.0091183195;-0.08571965;0.036201064;0.0028718878;-0.028100375;-0.0012470653;0.07390581;0.2219301;-0.032194838;-0.06865849;0.036635622;-0.047631964;0.03481125;-0.03648166;-0.056722417;-0.059052907;0.037972264;-0.061774123;-0.045959786;0.052115113;-0.010912652;0.055518515;-0.06520664;-0.030775862;-0.1653712;-0.28703007;-0.009625871;-0.090283774;0.0067816232;0.04422035;0.008673413;-0.048573308;0.05077568;0.07662268;0.06994892;-0.07413728;0.013413157;-0.1679092;0.0029295376;0.03320861;0.05843924;-0.005877842;-0.018328674;-0.12797555;-0.079460986;-0.06410306;-0.03881971;0.34138638;0.048350014;-0.049333215;0.04373507;0.07012903;-0.078202456;0.013380868;-0.15243363;0.036741577;-0.090300485;0.03886715;0.017775599;0.12983453;0.004529851;-0.06866783;0.0046300236;0.05052585;0.05882359;0.085791156;-0.017740322;0.041580424;-0.059820354;-0.024497598;-0.04818712;0.1088697;-0.034254365;-0.052824322;0.0684947;-0.13391113;0.104257725;-0.002753997;0.004912775;0.16198783;-0.03814423;0.030832052;-0.026712695;0.0010199485;0.044821665;-0.120100304;0.0814582;0.054643147;-0.06757688;-0.08542392;-0.07484293;0.019675909;-0.039647426;0.08863998;-0.040786266;-0.1657431;0.0071867104;0.060485695;0.008123552;0.035518024;0.013348092;-0.07962093;-0.04617172;0.10441178;-0.060793158;0.11400184;-0.005381949;-0.080022916;-0.059231427;-0.01210412;-0.07856711;-0.030946307;0.027776904;0.079175666;-0.074743845;0.038309067;0.00910897;0.01803255;-0.020635422;-0.16227405;0.06170279;-0.04745424;-0.0024340588;0.010116693;-0.031438056;0.015952125;-0.047539186;-0.08410549;0.012154452;0.0034871234;0.060357183;-0.016025167;0.08604332;-0.004602704;-0.053805456;0.19096637;0.0018027265;0.017413557;0.058614217;-0.014746456;0.19114046;0.059627116;-0.0340068;0.026367953;-0.08917081;-0.085744485;-0.047974423;-0.024154777;0.08693705;-0.09231332;-0.107391484;0.02096885;0.06693536;-0.08966219;-0.15391082;-0.18236896;-0.005766423;0.18330441;-0.064229995;0.10311015;-0.038409356;-0.047302976;-0.04940975;-0.057096384;-0.01177741;0.06816504;0.07772515;0.005815139;0.024954483;0.07066016;0.015310073;-0.00052458333;0.045310114;-0.006684969;-0.031128407;0.040021513;-0.023842258;-0.09556785;-0.037598085;0.013035061;0.04145866;0.025616676;-0.0057580117;-0.078130625;-0.06753375;-0.03713019;-0.053636685;-0.036962334;0.03379858;-0.13455205;0.0723949;0.03797027;-0.040424336;-0.058715932;0.033031132;0.05779392;0.09641035;-0.011707169;-0.018760987;-0.14108694;-0.01259093;0.12417285;-0.056158952;-0.17887262;0.075992934;-0.12905642;-0.044155482;0.030745503;-0.025892949;-0.073310144;0.06468856;-0.005390412;-0.07107908;0.14037065;-0.029222861;-0.022406973;0.004922588;0.03385833;-0.07866409;0.027184559;-0.027450716;0.00027966383;-0.07049635;0.07840408;-0.098068714;0.018387679;-0.0039878;-0.06807294;-0.0011870945;0.021518422;-0.051858395;-0.03907993;0.059950013;0.13590102;0.016859803;-0.00013177002;0.047206834;0.048806243;0.050551202;-0.0127064735;-0.16413057;-0.10351924;0.09646569;-0.19973657;-0.050243277;-0.010470292;0.027869934;-0.06452219;-0.023872519;-0.017171288;0.15240918;0.041161712;0.17130336;0.021524373;-0.04652598;0.026263937;0.1832097;-0.03863914;0.044594195;-0.076665804;-0.0018367409;-0.021717085;0.010648631;0.01752394;-0.0028395238;-0.1921917;0.059567455;-0.099392965;0.027118323;0.04584529;0.07978261;0.079361595;0.11176839;-0.09563589;-0.032023095;0.07491357;-0.011541355;-0.077090435;-0.2582865;-0.07627857;0.03918108;-0.015136622;0.062473703;0.0073998854;-0.0081393635;-0.035951395;-0.018424157;-0.025549298;-0.18348853;-0.036948346;-0.07085813;0.03644662;-0.0038469683;0.048774567;0.009751285;0.04929382;-0.024845399;-0.03727402;-0.018613081;-0.09671124;-0.027477376;0.06586954;0.07592306;-0.06304263;-0.049912155;0.10642379;-0.07725512;-0.040938087;0.09881668
0.012626671;-0.044944428;-0.11088969;-0.047310624;-0.14593564;0.03289445;0.042505927;-0.06247332;0.05983093;-0.25316834;-0.03588485;0.10297852;-0.050381754;-0.024063975;-0.0792175;0.24889351;0.023608193;-0.04079573;0.074947484;-0.07002333;-0.06483859;-0.008487181;0.035831716;-0.022554804;0.057316244;-0.07069547;-0.10083469;-0.11688133;0.057445463;0.03670629;-0.08666926;-0.030688053;-0.026834354;-0.04010925;-0.1683336;-6.7655536e-05;0.05514601;-0.08467335;0.02226116;0.012955912;-0.07991399;-0.00557538;-0.27737105;-0.09480307;0.016989863;-0.17502593;0.07514931;0.064804904;0.068915285;0.07706744;-0.22274382;0.00637093;-0.1982882;0.0054307347;-0.28280184;-0.09040463;0.04637875;0.0312537;0.104943864;-0.023627657;-0.016051326;0.08340416;0.005019715;-0.06943596;-0.010233562;0.025402047;-0.2189672;0.064325586;-0.078150555;-0.06929402;0.042796433;-0.031440753;0.026842812;-0.084289834;-0.052407913;-0.08471451;0.07378556;-0.07571371;0.10304572;-0.122165054;0.0018448501;-0.10808518;-0.056927096;0.03458166;-0.016602334;-0.05425614;-0.055019103;0.06993386;-0.072220296;-0.0038721894;0.027850648;-0.18319587;-0.1850036;-0.12730694;0.002956494;0.051913895;-0.070806794;0.021138748;-0.13660383;-0.028638555;-0.09719462;0.020883607;-0.03848442;-0.109288536;-0.036736347;0.004841283;0.089529745;-0.008413743;0.023677139;-0.0023238386;-0.033649456;-0.014499499;-0.0015353453;-0.0048523536;0.061819255;0.0056108483;-0.104928106;-0.116996825;0.17859702;-0.092675574;-0.0916771;0.09334587;0.075675376;0.028993472;0.065695144;-0.036639847;-0.13456793;0.1273696;-0.015515272;-0.06946088;-0.0025704496;-0.11744207;-0.09279008;-0.047488485;-0.08885098;0.018919343;-0.02999546;0.10214238;-0.040862866;0.095136695;0.008391562;0.050020263;-0.00064202823;-0.0948797;-0.08508565;0.052087747;0.083162956;-0.0028368526;0.042187598;-0.10946909;-0.10607734;0.12318891;-0.100509435;0.061657645;0.081220664;-0.04150328;0.051260825;0.023938894;0.052403618;0.082144715;-0.06273523;0.23210616;0.004653686;-0.008532274;0.07679414;0.049295135;0.049348686;-0.06477502;-0.05050348;-0.054844394;0.24811418;0.078313835;0.1024477;-0.1048607;-0.11000009;-0.089137256;-0.094722025;-0.033122443;0.062094975;0.0010131611;-0.18314272;0.059201512;-0.021058142;0.091819234;0.09560376;-0.0919793;0.02543421;-0.09556592;0.019147044;0.08522315;-0.10315306;0.022987358;0.013166325;-0.12259702;-0.06010566;-0.017791754;0.0071836594;0.0019023984;-0.027928682;0.16278626;0.016806385;0.05087035;-0.008124833;0.034413796;-0.12930049;0.0355192;0.062016033;0.07737598;-0.059933215;-0.1643971;0.05110442;0.044090834;0.0605969;0.030798268;0.08597864;0.16052543;-0.12026368;0.0112316655;0.12322349;-0.05265356;0.008805242;-0.049764298;-0.05235113;0.028147569;-0.0832936;-0.007297064;-0.0907705;-0.11809079;0.029030474;0.036146943;-0.042082977;-0.08556082;-0.043921724;0.068969324;-0.09235819;0.020276695;-0.0040494814;-0.053153798;0.07399124;-0.17105639;0.017026318;-0.04200374;0.006139319;-0.07430753;-0.18348789;0.088325225;-0.009403541;-0.049539834;-0.07012037;0.12826844;-0.11954965;0.051205125;-0.034979198;0.023526777;0.010319882;0.024180263;-0.060081445;-0.1098676;-0.047532637;0.019279059;0.044096943;-0.061849695;-0.029974781;-0.07632925;0.04694464;0.010499162;0.004956362;0.18309052;-0.16478689;-0.1685414;-0.03292737;0.01587767;-0.04634932;0.060602978;0.26266107;-0.0052567166;-0.08564283;-0.091148965;-0.028163979;0.1075559;-0.039874922;0.045506563;-0.026723472;0.030547066;-0.0757578;0.092887565;0.1364046;-0.07152683;-0.10306487;0.013223588;0.03271154;-0.28943202;-0.13378868;-0.045727603;-0.11743765;0.021996306;-0.08529552;0.0007543176;0.01941701;0.0050669913;0.0034493827;0.013717026;-0.0010119085;0.014441697;-0.0017779394;-0.08961604;-0.018836824;-0.057268083;0.06466134;-0.11082896;-0.050269764;-0.06648452;0.0030973628;0.009703221;0.33069357;-0.0034316478;0.025289325;-0.038316064;0.01632662;-0.029506505;-0.035244226;-0.19638512;-0.08835997;0.015871603;0.038125027;-0.017967125;0.17577806;-0.010389209;-0.0050118477;0.055024587;0.027728481;-0.06141224;0.10184236;-0.038750187;0.011105597;-0.04931425;0.03437083;-0.06366527;-0.20845085;0.0062367036;0.035600167;-0.076858364;0.067961976;0.11071367;-0.033922143;-0.057210874;0.18002829;-0.07582313;0.046137813;0.066884145;-0.090885036;0.06376722;-0.09482504;-0.030764617;-0.062794335;-0.06185481;0.053479586;-0.052706808;0.10080487;-0.004429493;0.13767521;0.1023653;-0.09181069;0.035792906;0.053597115;0.047291987;-0.033110023;0.042377837;-0.07672358;0.014243353;0.22860251;-0.08609178;0.11234295;-0.10191976;0.094716884;0.07414606;-0.040712688;0.07506587;0.0083978325;-0.00777027;-0.07391542;-0.033248033;-0.08693484;-0.045907535;-0.0021989136;0.10035206;-0.020497138;-0.10022139;0.07532493;-0.06200116;0.010505627;-0.000856244;-0.13103646;-0.05153607;0.119544074;-0.07473103;-0.02604468;-0.059735358;-0.03636996;-0.034225766;-0.021954276;-0.05473147;0.26249078;0.029178856;0.15678287;0.02864152;-0.02394274;0.0670479;0.07750387;-0.045379154;-0.0017351353;-0.07728819;-0.10397688;-0.07799737;-0.05926304;0.051191807;0.06707568;0.10252261;0.032391533;-0.06783197;-0.059222143;-0.18791394;-0.20241939;0.024048913;0.2519615;0.073827736;-0.033280503;-0.023121461;-0.06693728;-0.09467311;-0.087158464;0.03596607;0.05489264;0.05117929;0.05243634;0.042708494;-0.011622714;-0.11563295;0.0041934187;-0.021400673;0.0007716818;0.032381408;-0.06486562;-0.03417356;-0.08584479;0.034223597;0.14472982;-0.08375613;-0.06358398;-0.13368586;-0.106514886;-0.06503244;-0.09515103;-0.026998382;-0.11357504;-0.037794366;-0.15626596;0.09895104;0.04241447;-0.029563135;-0.034621198;-0.08227003;0.005175274;-0.036252115;0.05968376;0.06345383;-0.2778919;0.043120544;-0.0137802195;0.025929863;0.10511041;-0.09529457;-0.04312066;0.047619157;0.0082087265;-0.10472974;0.006288628;0.08700632;0.07152499;-0.18831885;-0.10095762;-0.088665195;-0.22578363;0.04113882;-0.055794448;0.054157957;0.11710913;0.022199815;-0.11881153;-0.09363768;0.021813858;0.066534586;-0.0482656;0.0583502;0.06813782;-0.05274259;-0.0340128;-0.007254187;-0.0027390786;-0.02136637;0.101160996;-0.06826399;0.031088864;0.053823125;-0.08140801;0.037035976;0.036887173;-0.07208483;-0.0003726024;0.09498948;0.14249904;-0.0598272;0.15387109;0.025138238;0.065894276;-0.006662178;-0.04252882;0.047556393;0.07814399;0.038038015;0.033810243;0.045952093;0.16228072;0.09217425;0.06749049;-0.08928166;-0.017083371;-0.06556257;0.13175996;-0.0703666;-0.05958839;-0.02475979;-0.061856695;0.024711361;-0.1144215;-0.035606377;-0.054457385;-0.05161752;-0.25371963;-0.102793105;0.002263289;-0.042529415;-0.07519438;-0.045758672;-0.022681134;-0.2801191;0.019915797;-0.041347254;-0.07479542;-0.029117117;-0.02095855;0.009774796;0.0125307655;0.031706885;-0.03458652;-0.2635926;0.04259936;0.095849976;0.063736714;-0.06612718;0.040617388;0.10107229;0.0812354;0.01730957;-0.09027189;-0.043515347;-0.083201215;-0.05483207;-0.066769995;0.05368854;-0.04232143;0.045766402;0.1536125;0.012173822;-0.023106433;-0.035870392
-0.041895416;-0.07565633;-0.0057208077;-0.12060658;-0.05602343;0.048046213;0.054636475;0.066523805;0.04380007;-0.37975377;-0.057141427;0.056531608;0.03373249;-0.0079073105;0.1035024;0.17251354;-0.16559386;-0.057302047;0.013141654;0.011811316;0.017520875;0.05183813;0.053178303;-0.027264189;0.043285992;-0.04819145;0.026421506;-0.07200902;-0.067192;-0.055260032;-0.056901377;0.07820864;-0.062366594;-0.029762134;0.0025354456;0.06212459;0.036508422;0.018387536;-0.083444916;0.09106501;0.07287518;-0.0378691;-0.4684365;-0.0120832985;-0.06886111;-0.005791038;0.046571072;-0.06197143;-0.0022793773;-0.08260199;-0.11713102;0.045506917;-0.13639162;0.011211555;-0.08786746;0.14345786;-0.039934557;-0.0090935;0.1466553;-0.022595402;-0.0503307;0.12937957;0.05820867;0.015665142;-0.062897585;0.03544988;-0.15683375;0.099744245;-0.041218188;-0.05565492;-0.110255696;0.03849468;0.017125756;-0.06327405;-0.10068683;0.0009603296;0.28060633;0.011360882;-0.05055841;-0.091307424;-0.015654728;0.008412171;-0.030653361;-0.012310307;0.043778453;0.07552472;-0.032586195;0.08683885;0.026713558;0.0048065796;0.036168296;-0.3291011;0.02521113;-0.017312223;0.059872985;-0.03341792;0.032832168;-0.10909998;-0.21233848;-0.09172552;0.05364185;-0.007712313;0.0012476218;-0.031068703;0.06718341;-0.02001285;-0.004076381;0.10918528;-0.105801105;-0.13918497;-0.0128662735;-0.027269706;-0.020813355;-0.049356107;0.0049959803;-0.0049542096;-0.066570856;-0.19246963;0.09523994;0.027919997;0.022721037;-0.002726259;0.14745726;0.05308165;0.0447016;-0.023506839;-0.1686835;0.03287868;0.002350744;-0.0048846626;0.039705172;0.037754804;0.0064206338;-0.06850694;0.043524653;-0.025007077;-0.035659622;0.15199502;-0.036242455;0.01491162;0.03151153;0.0059688557;0.00089756283;-0.058973175;0.027522974;-0.0150163295;-0.11708988;-0.0042888443;-0.01602674;0.07751842;0.01680267;0.07263215;-0.09234059;0.0022302314;0.04965855;-0.075943425;0.030799292;0.049291033;0.02336683;0.17231688;-0.018847417;0.23702683;0.076309584;-0.10725605;-0.04778498;-0.02276717;-0.01519236;0.073099665;0.059194777;-0.04618651;0.123119645;-0.05268505;-0.031694997;-0.0055218646;-0.07179487;-0.025472924;-0.020549629;-0.09077523;-0.0667543;0.07839228;-0.25567445;0.058341287;0.04704336;0.016291227;0.120910995;-0.07852821;-0.014032694;-0.06803945;0.037400752;-0.08121887;-0.032081153;-0.05986257;0.022261454;0.029950844;-0.0852042;0.15208694;-0.039259177;-0.08334137;0.05005089;0.042996615;0.020154266;-0.051071923;-0.0066128913;-0.049831074;-0.036872197;0.07578399;0.15312292;-0.0429825;-0.036426283;-0.4147603;-0.04333613;-0.057027638;-0.0056744977;-0.046198692;-0.021107733;-0.0045583495;-0.06963173;0.084305376;0.14340577;-0.037763476;-0.0933263;-0.031015312;-0.06966267;-0.07020948;0.017587615;0.013535113;-0.052562356;-0.12696928;0.07461809;-0.07285893;0.072966;0.0045910454;-0.034171894;0.08647235;-0.029743427;0.020318445;0.07211688;-0.12982559;0.026648743;-0.11340515;-0.12168663;-0.067778334;0.009233056;0.043746296;0.0018321512;0.116938695;0.02061228;0.00602221;0.08220671;0.14626688;-0.07883035;0.011761692;0.027258217;0.022759773;0.05079096;0.064828984;-0.006450503;0.04412922;0.01200222;0.015583394;-0.0029410427;-0.04579217;-0.048185293;-0.17841636;0.13469316;0.021263286;0.1443463;0.20648144;-0.052934;0.022199998;0.05657033;-0.0063188695;-0.01421126;-0.033308826;0.16245246;0.02423083;-0.2494599;-0.08221109;0.016661294;-0.041650403;-0.16528761;-0.055647925;-0.03694853;-0.002163407;0.015465751;-0.007615055;0.22897138;-0.07483001;0.01717208;-0.033537105;0.02018381;-0.013273733;-0.35077485;-0.017295146;-0.08618345;0.026992027;0.02871258;-0.031201864;0.045318257;0.028386392;-0.014516815;-0.035412084;-0.11062425;0.052040048;-0.06782863;-0.0034035828;0.025594404;-0.043838162;0.029905466;0.00070409424;-0.062400404;0.02742989;-0.08431701;-0.019296957;0.1932325;0.06741628;-0.0672451;-0.025282493;-0.059970323;0.032854307;0.007768114;-0.012363489;-0.04343557;-0.15617083;0.03433362;-0.026532285;0.09883834;-0.0065267524;0.064202085;-0.062606856;-0.055433266;-0.041120615;0.1839523;-0.032625128;-0.06866386;0.061832994;0.018593887;0.008556364;0.020586;0.010259741;0.03628542;-0.024900924;-0.05200778;-0.03266659;-0.056148462;0.043172047;-0.043010503;0.015508404;0.003890868;0.0675215;0.03568925;0.03627007;0.017813984;-0.027614983;0.06912558;-0.035458203;0.06292646;0.059546288;0.042334005;0.042837888;0.12882239;-0.070545666;-0.21219993;0.010514167;0.1036821;-0.05160466;0.00771844;-0.048652064;0.13127397;-0.023872854;0.07694962;0.02059803;0.06385266;-0.19577768;0.0013649416;-0.019862354;-0.07925166;-0.07831312;-0.043256354;0.031054089;0.028903106;-0.07982453;-0.012410765;-0.042987175;0.037752625;-0.023582568;-0.18543461;0.04353818;0.04126067;0.010257114;0.08408377;0.09359601;0.008360453;0.0031462586;0.019042421;0.0018887055;-0.047395926;0.021871109;-0.07032943;-0.036317308;0.043763705;-0.08385548;0.22494152;0.029547434;0.107062384;-0.2089387;-0.07055613;-0.02687207;-0.040979095;0.064781055;0.055901535;0.03498947;-0.039536253;-0.047565386;0.09986054;0.053954918;-0.053443167;0.049892217;-0.07351557;-0.04455735;-0.09730723;-0.03468686;0.028331026;0.060224045;0.2916279;0.001500433;0.018755414;-0.0056672352;0.04148987;-0.026065951;0.0533378;-0.075754635;-0.014664665;-0.10344933;0.10903394;-0.034298625;-0.051933676;0.050901853;0.010758669;-0.030105792;-0.041498657;-0.022190753;-0.0562028;-0.15586352;0.059744883;0.0072233817;0.082688324;0.07203281;0.015372753;-0.02753672;-0.063783176;-0.067893215;-0.17535797;-0.062694475;0.04507316;0.22539045;-0.16074602;0.018020676;-0.0690968;0.1151708;-0.04438977;-0.06764284;-0.026884453;-0.022324702;-0.010955186;0.13091469;-0.16924718;0.04718114;0.09419199;-0.03546646;0.06942981;0.023302298;-0.033401705;-0.069332145;-0.08650819;-0.07990345;-0.0775627;0.13110696;-0.057021216;0.023149077;-0.07889762;-0.079486005;-0.09676525;0.06293787;0.03794681;0.061166607;0.2508221;-0.0644558;-0.14587107;-0.085149296;-0.05166963;0.04683593;-0.0016034412;-0.057524238;-0.05954746;0.0405846;0.047856204;-0.13029686;0.0497332;-0.074374534;0.03999357;-0.05206446;-0.021257108;-0.082792506;0.03490076;-0.08660411;-0.07644696;-0.14255054;-0.15924065;-0.08715841;0.21752946;0.093388855;0.11891557;-0.051537942;-0.048389528;0.054900475;-0.1054724;0.11222175;0.053719323;0.15013377;-0.10957118;-0.0023826077;0.12534423;0.09466548;0.049956504;-0.09443792;-0.05215535;0.028798562;0.004129763;0.07924667;0.03585041;-0.030570919;0.010868922;-0.0718777;-0.078792244;-0.02594744;0.008366652;0.041183226;-0.2119765;-0.21530344;0.0077204322;-0.06036518;-0.033279695;0.019864187;-0.069452964;-0.024243355;-0.11240404;0.015402289;-0.044044398;0.040320985;-0.014021492;-0.017290551;0.02205001;-0.012352174;-0.004732353;-0.066411175;-0.008608315;0.031396795;0.017359437;-0.045736954;-0.051439326;0.036989477;-0.013430072;-0.027601352;-0.068508215;0.043432683;0.014228204;-0.016719297;-0.08493265;0.024766222;-0.08106758;-0.026153073;0.10977051;-0.04270459;0.09718496;-0.11427763
0.016841128;-0.02018394;0.038444128;0.02077959;0.32121053;-0.013135237;-0.07968346;0.047430385;-0.1342456;-0.16446555;0.02246144;0.07046361;0.054418683;0.10523103;-0.008218359;0.18302472;0.0006243011;0.0640163;-0.01970474;-0.02784886;0.036760192;-0.04978201;0.0077441568;0.0024377466;-0.08647585;-0.04277653;-0.20137934;0.070764594;-0.090492226;0.06590254;0.053430073;0.08597079;-0.04566722;0.09272637;-0.23739205;-0.035308994;0.11378177;0.07431984;-0.054757707;-0.023981117;0.027989343;-0.08593558;-0.32257378;0.08522761;0.0372631;-0.009848032;0.06989382;0.03806194;-0.08859726;0.08908504;0.12701885;0.022571577;0.14226829;0.0016572106;-0.016180566;0.058307327;-0.032639187;0.060291838;0.12056157;-0.046716575;0.0033609162;0.15752098;0.054650564;0.14334185;-0.0887482;0.008123981;-0.1509417;-0.06422199;-0.07843999;-0.09324129;0.050882112;0.061895866;0.016247762;0.052386362;-0.10776928;-0.026868466;0.07945193;-0.056811634;0.06757149;0.011183809;0.031450164;-0.09635922;-0.06951367;-0.15794657;0.024276214;0.02335231;0.08001391;0.039698135;-0.023755029;0.11326579;-0.07244793;-0.104923606;-0.22195333;-0.0035065794;-0.03082961;0.033807263;-0.028369019;0.020941367;0.221551;-0.08041877;-0.06504484;0.005070876;-0.056538396;0.0765047;0.06955049;-0.10245615;-0.08422131;0.16649632;0.07052317;0.07685857;-0.07353586;0.0027296434;0.06098217;-0.042367753;0.016663926;-0.06707819;0.00011398116;-0.127123;0.07186067;-0.0667966;-0.011032737;-0.012357732;0.084771544;0.016182652;-0.011426135;-0.028577635;0.010426942;0.038983114;-0.0146512985;0.038150348;0.14982025;-0.12800194;-0.10676216;0.058356624;0.24706958;0.0049683903;-0.058331344;0.104048;-0.05093055;-0.04949555;-0.02469381;-0.060816165;-0.036942653;0.039091364;-0.09240721;-0.05137327;-0.11885315;0.04119852;-0.08761219;-0.0034177308;-0.104679786;0.07777219;0.091677204;0.042218626;-0.04861854;-0.043845814;-0.08297579;-0.10138594;-0.04417194;0.12961222;0.049211107;0.1992465;-0.008780926;-0.19074827;0.089505434;-0.048727773;0.15481515;-0.07923153;-0.06046668;0.0500787;0.18392856;-0.02612432;-0.047749557;0.009246017;-0.11210283;-0.048849605;0.052651864;0.08804264;-0.118181266;-0.04136684;0.008099857;-0.020003164;0.020841371;-0.020135699;0.15628552;-0.118073806;0.08954482;-0.0754788;-0.029065706;0.045343805;-0.08242265;0.017687576;-0.0035017491;0.024486056;-0.21983592;0.107243136;0.058566533;-0.097937755;0.039078917;0.024855617;-0.06970928;-0.0031641973;-0.0068364195;-0.012106493;-0.04659671;-0.0022178846;0.11060972;0.21050324;0.029214073;-0.12049419;-0.043914102;0.032684516;-0.10164192;-0.017686313;0.021909958;0.12989645;-0.109779276;0.040535316;-0.0028552462;0.053185556;-0.02676606;-0.17900771;0.08015489;-0.03125661;-0.078717686;0.066386685;0.032916658;0.07899475;-0.048846528;-0.08868883;-0.027489409;-0.042763155;0.03170886;0.102958806;-0.090941325;0.017916126;-0.025248209;-0.09812481;-0.022785157;-0.07507732;-0.05003723;0.025636794;-0.08246593;0.08756711;-0.076717064;0.011060818;0.16576655;0.016499909;-0.012727509;0.18447837;0.04781432;0.09786578;-0.043085083;-0.028993575;-0.024232123;-0.008992252;0.031041058;-0.10849477;-0.07208052;-0.12564167;0.00068137;0.0393205;-0.04508973;-0.0044731046;0.15387675;-0.054155383;-0.0024391634;0.30511528;-0.13277759;-0.013068284;-0.028253162;0.041712224;0.055340894;-0.08206568;0.30027327;0.08120603;-0.09616102;-0.02464079;0.056178916;0.07895229;-0.03811729;-0.06440935;0.09140972;-0.05702876;0.05888193;0.07376073;-0.008895026;0.008253538;0.024099695;-0.0051826616;0.12998404;0.006415456;-0.1568329;-0.031255927;0.13328217;-0.05890209;-0.06000044;-0.00364824;0.04282347;-0.060957808;-0.030953681;0.02156931;0.06760178;-0.056323823;-0.16849257;0.05362941;0.05451096;0.028989526;-0.07870654;0.05237387;-0.057698295;0.013949237;0.03344035;-0.08445118;0.08770214;0.05553932;-0.056691073;0.048771333;-0.0057235933;-0.06517752;0.017570632;0.005294917;-0.011292149;-0.22386374;0.010932249;0.027878135;0.24751557;0.01355503;0.101756826;-0.027720014;0.070166804;0.024518;-0.00035434525;0.038932618;-0.12912367;-0.08636083;0.0104725;0.02600578;-0.00033880907;0.06956692;0.060569767;0.014116944;-0.1579451;-0.028120961;0.104432434;-0.011445252;-0.025349528;-0.022962945;-0.05897252;-0.09485968;-0.08108705;0.04902237;-0.01856379;-0.020026173;-0.025071744;0.050044708;-0.03520677;0.015410962;-0.04267148;0.07278983;0.00036890706;-0.1688752;-0.16038139;0.06406373;0.09289237;-0.044038836;0.021649249;-0.059136286;0.15654294;0.054743618;0.018270439;0.039890707;-0.10244038;-0.21728756;-0.040060837;-0.060856473;0.0135103585;0.08664265;0.002369536;-0.05702536;-0.10610427;-0.081708364;0.000527112;0.022247713;0.012260817;-0.042455178;-0.0966595;-0.0022065297;-0.0135662155;-0.15058425;0.01570676;0.013631808;-0.075755715;-0.0040262723;0.06099414;-0.12048691;0.09138344;-0.030618887;-0.11420107;-0.067039624;-0.023667995;0.061347038;0.29282537;0.017085532;0.07432561;0.0076242927;-0.022425545;0.108271554;-0.13727885;0.041571494;0.036449905;-0.0469092;-0.0069466145;-0.05656047;0.055925433;-0.02799799;-0.013108867;-0.10925296;0.105381064;0.06599914;0.2797386;0.003639724;0.13053681;0.033539016;0.1784399;-0.17254531;0.07806521;0.008991627;0.21318015;0.06963317;-0.016390739;-0.01618806;0.055680357;-0.04501456;-0.07996481;-0.012162951;0.009105207;0.01599701;0.054209605;-0.043723427;-0.04707174;0.0406552;-0.06260712;-0.06692958;-0.029594662;-0.068880886;-0.054248266;0.039542764;-0.035844665;0.10019755;0.08672395;0.12515444;-0.011083884;0.07981739;0.05938087;0.15573528;-0.009367005;0.103156;-0.065676205;-0.15700124;0.0392122;-0.014275423;-0.0851649;-0.036242507;0.05137466;-0.02804585;-0.25739878;-0.02827589;0.17942156;0.022995923;-0.024369834;-0.081918396;-0.063766286;-0.15562044;0.08425016;-0.104088455;-0.026626464;-0.06172113;-0.030650167;0.013550124;-0.15230717;0.015538924;0.03403924;0.10071999;0.012999538;-0.03845231;0.13831832;0.034757078;0.0064552743;0.064869374;-0.08191719;-0.012719054;-0.03404443;0.022270977;0.022946509;0.036737364;-0.11136205;-0.0010510851;-0.12177461;-0.082254484;-0.08954008;0.05795078;-0.07937739;-0.12713912;-0.062294442;0.03539236;0.03874642;0.14961177;-0.075864784;-0.038662884;0.13474719;-0.031870615;0.0043850136;0.0758945;-0.041858613;0.049317148;-0.06645973;-0.023689821;-0.09399544;0.1560975;-0.01364945;-0.051188804;0.0025658458;0.022089561;-0.04002203;-0.063841484;-0.002583933;0.08283947;-0.18270037;0.0103984475;-0.0854767;-0.009983452;-0.05634956;-0.15035787;-0.08816426;0.04209995;-0.007230639;-0.06336886;-0.25631142;0.024858862;-0.10442923;-0.004545829;-0.040697314;-0.0033052943;0.0036034235;-0.0934408;-0.09749501;-0.0067875627;0.15750231;-0.0266204;-0.040046636;-0.06775607;0.039390963;0.009874199;-0.06337889;-0.12899847;0.0300608;-0.14524755;-0.011108143;-0.16123104;0.01191313;-0.063697524;0.00799056;0.014242053;-0.06840428;0.06924963;0.0431737;0.056131557;-0.12683004;0.06588114;0.0013484497;0.0149477795;0.12360688;0.09077756;-0.040265407;-0.08169836
0.028232696;-0.13952006;0.20116068;0.095521174;0.15270664;-0.03169028;-0.057214543;0.15631768;-0.17167777;-0.09542492;-0.04984646;0.17465234;-0.08624976;-0.055212673;0.03245369;0.11169703;0.102431454;0.02341187;-0.055533808;-0.02934866;0.06222909;0.028163433;0.0007220426;-0.19369876;0.019199124;-0.009552513;-0.20383802;-0.012495365;-0.29276913;-0.07222227;-0.047175925;-0.09005957;-0.07473603;-0.06831301;-0.25986233;0.017867548;-0.13161819;-0.015960949;0.055128273;0.010997276;-0.03168699;-0.14257497;-0.37658644;0.023706092;-0.036253054;0.09268539;0.23025756;0.017477369;-0.16734912;-0.036394645;-0.14533402;-0.09902574;-0.10538119;-0.03478225;0.025988318;-0.0017626506;-0.0053553255;0.06334016;0.2471615;-0.02789464;-0.085417256;0.07508854;-0.09793197;-0.06709767;0.09711485;0.106967665;-0.31756845;0.15476444;-0.030391147;0.010717342;-0.0035704619;0.0173178;0.034988087;-0.016103165;-0.2180762;0.0830949;-0.11339113;-0.079769336;0.19309656;-0.12137083;0.040829558;-0.0039239554;0.26873752;0.11301762;0.16077948;0.055614404;-0.039848138;0.059194963;-0.097077474;0.005529789;-0.08180638;-0.050741475;-0.018256761;-0.007816111;0.06041365;-0.09406927;0.04706552;-0.0070204297;0.07393313;-0.07686249;0.171854;-0.009692101;0.10223792;0.0031215071;-0.02703256;0.014111374;0.008522272;0.20743252;-0.13574682;-0.000904363;0.08845066;0.05597559;-0.009958172;0.11509624;0.06752511;-0.004323181;0.112984926;0.015572126;-0.13685882;0.010925714;-0.018118195;0.06027983;-0.011666699;-0.034452047;-0.0053809253;-0.0024162407;-0.10338489;0.19879508;-0.07411166;-0.1192582;-0.14305684;0.05741531;-0.029604075;0.052348115;0.032571662;0.005586382;0.05614877;0.15984386;-0.0720278;-0.07021829;0.022743674;0.009959535;-0.13938752;0.008580479;-0.067835264;0.01665742;0.12860496;0.024933662;0.13822146;0.032657046;0.19256324;0.12878266;0.042784147;0.22795407;-0.100517236;-0.054633014;-0.12809059;0.063620396;-0.087596186;0.17357208;0.09656983;0.08384439;-0.13711539;-0.30448163;-0.07304444;-0.026008504;0.0593421;-0.005282737;-0.02163809;-0.07018563;0.059746027;-0.054437652;-0.042723544;-0.0402768;0.08418284;0.029270737;-0.022914257;0.10074492;-0.10461048;0.005895398;-0.035166107;0.066490114;0.06514325;-0.15942977;0.31767306;0.07044465;0.0022088112;-0.007225936;-0.012230349;0.021573965;-0.10460642;0.042138964;-0.35775116;0.010630059;-0.11060689;0.13206574;-0.020264417;0.0025655217;-0.12615144;-0.0017008927;0.049548183;-0.065365516;0.033262473;-0.001640625;-0.23412253;-0.039556522;0.11890308;-0.0824175;0.063263744;0.011462075;0.07030874;-0.030163197;-0.32118177;0.11764065;-0.0356993;0.008683703;-0.17268138;0.027933914;-0.20464519;0.0411583;-0.029147249;-0.20881082;-0.009933253;-0.0055474928;-0.068436354;-0.052197415;0.013818388;-0.14260001;-0.052449632;0.075366564;0.008650835;0.071221456;0.0054089874;0.18982157;-0.016350122;-0.15840107;0.09637851;-0.004965263;0.026790746;-0.12537088;-0.18825765;0.0040953304;-0.035679918;0.013186627;0.029622657;-0.11830321;0.010416751;-0.054586526;-0.012081936;0.18109536;0.053701278;-0.034797948;-0.053502142;-0.01631826;-0.115771905;0.022750514;0.0058514667;-0.066039816;-0.09499496;-0.06553795;-0.09535389;0.041493792;0.0066774264;0.039623104;0.049285684;0.00922285;0.030149342;-0.08720022;-0.13817705;-0.069220684;0.051408924;0.023172876;-0.03138551;-0.055940785;0.12555633;0.045217298;-0.15727104;0.0005595437;-0.06056414;-0.0298983;-0.0351903;-0.09088215;0.04257327;-0.09042939;-0.030418457;-0.023583626;0.1324506;0.03199413;0.071731396;-0.055479925;-0.024278738;0.08148154;-0.11937706;0.011278698;0.030361053;-0.030642895;-0.06755998;-0.0030858952;-0.006405959;0.026487125;0.10018211;0.0045916066;0.03908413;-0.021016145;-0.18214424;0.052997965;-0.099850796;0.015082045;0.062829524;0.082492515;0.04680173;-0.01633254;-0.0897886;0.01938207;0.015131037;0.029733667;0.008848941;0.060451314;0.021070918;-0.022318913;-0.06259425;0.08736956;-0.007919961;-0.12029745;-0.026853634;-0.009311314;0.12890902;0.069664165;-0.046772484;-3.215878e-05;-0.030017797;-0.01934268;0.25260848;-0.049625844;-0.0011681839;0.02502969;-0.035207633;0.11820534;0.050140444;0.024435425;-0.047570948;-0.09128428;0.015551535;0.049566675;-0.05653746;-0.11921678;0.03982717;-0.034310378;0.023208369;-0.043030676;-0.0610545;-0.035769172;-0.11119738;0.06703066;0.008552161;0.09685805;-0.041249704;-0.062041737;-0.06704328;-0.07734331;-0.037335537;0.14714544;-0.037591815;-0.058943126;0.14664964;0.0046845754;-0.06732625;-0.04622001;0.11762332;-0.04722114;-0.20668748;0.039919347;-0.041284878;-0.029585833;0.008695505;0.0060916133;0.07294196;0.03724434;0.012613231;-0.034736868;0.02081715;0.023826072;-0.0012471981;0.04621386;-0.046416402;-0.055072475;-0.040794972;-0.08907758;0.056448154;-0.11548788;-0.02577068;0.044231717;-0.0064631137;0.014748492;0.07243158;0.05219531;-0.025998823;-0.13399382;-0.014050628;-0.011918921;-0.041820373;-0.057318874;0.107649684;-0.05079857;-0.08252727;-0.2268159;-0.0028752973;0.0027845993;0.05310478;0.044733927;0.06604115;0.03368023;0.05135109;0.19438218;0.04487547;0.0017364981;0.07444139;-0.06426885;-0.096702285;-0.011531086;0.038469493;0.0789916;0.06237934;0.0063524335;0.14438267;-0.14561085;0.12197999;0.021859052;0.19746782;0.029962203;-0.012296365;-0.008712564;-0.027905917;-0.14302601;0.06621795;0.010923913;-0.03854628;0.051571485;0.062834956;-0.09863755;-0.05345398;0.057414167;-0.022591276;0.018347507;-0.030053062;-0.050431833;-0.15985747;0.10987815;-0.0048613017;0.013621646;-0.009860864;0.058057435;-0.008714766;-0.025882322;0.096139826;0.285534;-0.17145747;0.021697357;0.057870813;-0.03386539;0.049807303;0.039512902;0.06393682;-0.14495432;-0.05272592;-0.074386165;-0.23326713;0.0018895379;0.01216883;-0.04598198;0.19962952;-0.017178617;0.080487214;0.00043955303;-0.10367726;-0.070561126;0.04409774;-0.083131306;0.038062766;-0.056313924;-0.21520828;0.01071835;-0.09907442;-0.044350073;0.002497262;0.066840164;0.034823585;0.010876128;0.0011415952;-0.090361364;-0.082957976;-0.0042834464;-0.08166789;0.043279886;-0.07137346;0.023167051;-0.14415176;0.014721146;-0.11639057;-0.00812852;0.1109746;-0.018002473;0.0038580396;0.08019122;0.017787024;-0.2054363;0.022543358;-0.01386136;-0.13143887;-0.09128574;0.016256789;-0.014235015;-0.070566915;0.07326035;-0.15997998;0.05439982;0.019298976;-0.09807471;-0.0027479664;0.24928471;0.023357477;0.012738575;0.08899782;0.01432675;-0.04469747;0.049749408;0.046363063;-0.0008265401;-0.26512778;-0.006027726;0.00618039;0.087013245;0.1408127;-0.08222465;-0.007146463;-0.012424274;-0.02819571;-0.050595246;-0.3044056;-0.048708286;0.018183144;-0.047844484;-0.110212766;0.034055397;-0.080689035;0.048560064;0.040166143;0.089782715;0.28034756;0.009337096;0.04885641;0.058516834;0.096064545;-0.025473587;0.0385337;0.05187957;0.07483097;-0.21401252;-0.060403872;-0.27740034;0.02687102;0.019802233;-0.08993612;0.008790453;-0.060704015;0.08674408;-0.05436408;-0.085082114;-0.053841934;-0.02718556;0.033320386;-0.0039501595;0.17086339;0.037057627;-0.08545763;-0.29042664
0.02902324;0.0009737228;0.031672254;0.08364687;0.24786223;-0.0052566947;0.09092105;-0.089546435;-0.06509541;-0.21917498;-0.025448965;0.07806243;-0.09529955;0.060072485;-0.0490613;0.1811515;0.12032028;0.08763305;-0.03619769;-0.0014516605;-0.06944946;-0.061438162;0.06419544;0.01408194;-0.07306798;-0.013719921;-0.012218827;-0.12200144;-0.18827254;-0.026036132;-0.04951631;-0.010969047;-0.021364203;-0.057717007;-0.13308513;-0.077577196;0.026715538;0.01170494;-0.021360232;0.036404587;-0.017920991;0.05198073;-0.35142285;-0.07377557;0.042716097;-0.0011880195;-0.09914455;0.037372727;0.028822452;0.049795624;-0.22401407;0.049424555;-0.18009563;-0.053763717;0.046164475;0.09468372;-0.06314032;-0.07286828;0.0011542974;0.050825015;-0.05227197;-0.10276794;-0.014088092;0.02236715;0.06396094;0.034643367;-0.05043453;0.08246023;0.08675752;0.027067516;0.04844523;-0.057599097;-0.07132156;-0.06562481;-0.03975054;-0.054512784;-0.27415806;-0.0228321;0.13968597;0.13953978;0.057415657;0.027773818;-0.071509;-0.0026504495;-0.06840595;-0.060369086;-0.028001502;-0.03614429;-0.0998351;-0.006099028;-0.041905344;-0.25435776;-0.06692957;0.018883102;0.013881574;0.006252948;-0.0568094;0.028040316;-0.1963347;0.06609125;-0.16058862;-0.015858527;0.03662499;0.03233716;-0.0611069;0.0056079393;-0.0024789432;0.19875434;-0.017410573;-0.045758717;-0.013461033;0.022238433;-0.038682498;0.08638229;0.102617994;-0.022119533;-0.026950013;0.17863551;-0.042291086;0.0011443206;-0.09518555;-0.05020293;0.04851566;-0.029498916;-0.07356015;0.029850587;-0.11600713;0.016074765;0.07357102;-0.091681994;0.05397816;0.14100632;0.009847865;0.050282255;0.156312;0.014604355;-0.08120158;0.11318972;0.004630821;-0.043832924;-0.028467009;0.062525004;-0.05623746;-0.058806844;0.018405529;0.017180754;-0.01355996;-0.08985601;0.09107394;0.049719516;0.13079564;-0.100345775;0.03245342;-0.09974692;-0.010166792;0.0015721684;0.09091945;-0.10026783;0.028250972;0.05713851;0.052984674;0.16566308;-0.07898349;-0.15076323;0.027320951;0.07569065;-0.013030927;-0.057185672;-0.04724517;-0.059561938;0.15106367;-0.011849208;0.072713494;-0.025382334;0.06511818;-0.025905248;-0.057130605;-0.016102497;-0.12774755;-0.07963162;0.20853661;0.064520285;-0.08751216;-0.057979014;0.27566198;-0.07452477;0.01711641;-0.051923882;0.028733585;-0.10323741;-0.0063602473;-0.004201241;0.07406802;0.058797415;0.08971824;0.07490842;0.008213201;-0.015864009;0.0019479813;0.008556328;-0.10576142;0.03091542;0.01996112;0.03379353;-0.05017187;-0.076241136;0.1391119;0.0054478757;0.0078696;-0.31516725;0.03687418;0.031177642;-0.2745036;0.09750217;0.069355965;0.0040118545;-0.041741915;0.03262422;-0.15832976;0.08972427;-0.05238915;0.14891449;0.08474336;-0.05738722;-0.063975215;-0.07750358;0.06828194;0.08786426;0.06333392;0.048820365;-0.039745294;0.054876566;0.096267834;0.17081119;0.04589876;0.040247474;0.029931815;-0.03564002;-0.059959285;0.07235471;-0.059014965;-0.0610041;-0.045455337;0.022096168;0.07555523;0.009006417;0.071230315;0.024427777;-0.03664214;0.13729805;-0.0019742555;-0.08039026;0.05649158;0.08310609;-0.061020765;0.0043095415;-0.015911965;-0.084863134;-0.07751302;0.06065871;-0.018460065;0.08469816;0.0017755668;0.11443978;0.06491483;0.060898975;-0.088301174;0.09362652;0.25468042;-0.03552236;0.0025742333;-0.02031295;0.053748146;-0.03894211;0.12714535;0.075617895;-0.113689296;0.04691288;-0.058874097;-0.027037367;0.031797417;0.08655507;-0.06709419;-0.09206879;0.032778654;0.042467166;0.03698329;0.05961406;-0.094409436;0.013613451;-0.05283674;0.32071185;-0.34780383;0.021213394;0.103193894;-0.019924598;-0.061693083;0.04784195;0.029037962;0.06856403;-0.04668363;-0.029438974;0.04651334;0.0016943037;-0.11862689;-0.008955771;0.022132853;-0.073057055;-0.027108459;0.10241534;0.1027525;0.07782185;-0.048634157;0.0018484916;0.1255333;-8.278123e-05;0.033131864;-0.0062669553;0.050576713;0.018498546;-0.008218294;-0.101625554;0.05712747;-0.2885934;0.01819834;-0.033597235;0.100238614;-0.013679474;-0.033546224;0.023117488;0.0058229365;-0.035253625;0.18388195;-0.08701313;0.028174236;0.14589785;0.08531931;0.03511266;0.079151675;-0.020676399;-0.06235933;-0.04984777;-0.04081595;-0.025039094;-0.0885548;-0.08959466;-0.03940003;0.043863423;-0.011820715;0.01902391;-0.093040995;-0.088083886;0.032152105;-0.03193499;0.05251452;0.031329684;-0.086547725;0.06308023;0.00030182768;-0.009180924;-0.018509777;0.011625023;0.006163113;0.019857023;0.21034202;0.0662238;0.035136927;0.01999684;0.057208035;-0.024566328;-0.08307862;0.042034067;0.069629475;-0.04831973;-0.108954445;-0.047941092;-0.014941422;-0.003034598;0.0012504321;0.09413548;-0.063075334;-0.0061564036;0.08138146;0.011370884;0.019188456;0.013983449;-0.08145158;-0.029559992;-0.061757196;-0.09102982;-0.051832125;-0.0475878;0.01834171;-0.028975377;0.014953083;-0.047396008;-0.009798223;0.03282159;-0.02640589;-0.0014527193;-0.10983161;0.10307624;0.18748638;-0.019938553;0.12944178;-0.07463046;-0.085074596;0.041113142;0.08248367;0.026559656;-0.069265656;-0.013746047;0.066470236;0.1457106;-0.07649263;-0.095916;-0.07961872;-0.10159679;0.015615308;0.018787514;0.181354;0.04822974;0.2297336;-0.07348213;0.0686361;0.012167581;-0.0028508303;-0.025024923;0.026564362;0.0570098;-0.019252546;0.06263714;-0.05905922;-0.048266485;0.059792303;-0.08334446;-0.08706627;-0.04553707;-0.08220339;0.010769891;0.0791263;0.034972735;0.04216812;0.0703957;0.048406802;0.091794506;-0.07009591;-0.042243633;-0.060336888;-0.048127994;0.23411389;0.06578235;-0.0056621023;0.012198865;0.029059734;0.06959819;0.070534766;-0.094918095;0.058594096;-0.12946625;-0.031304173;0.110197626;0.042704422;0.09295828;0.06767781;0.10606681;0.057900384;-0.08785431;0.014619806;0.106009655;0.09288876;-0.07399484;0.10481972;-0.010566047;0.063039675;-0.038840376;0.048682988;0.014758528;0.013424262;0.04704543;-0.02364262;-0.012219863;0.07829339;-0.08236674;0.01787959;0.0138476165;0.1987124;0.03212373;0.06753371;-0.040278032;-0.09267427;-0.08528601;-0.13244213;-0.017887192;-0.091239594;-0.053094324;-0.054794118;-0.078015916;0.07232715;0.022721106;0.12034475;-0.020016557;0.1663961;0.040547702;0.050557807;-0.20533395;0.05010605;0.085683726;-0.28821015;-0.09500165;0.037240505;-0.046143252;0.009415462;0.042667378;-0.08605875;-0.0482096;-0.0076720063;-0.05742099;-0.07742604;0.05460581;-0.08491249;0.028975;0.0077285245;-0.119487666;-0.09531301;-0.04183704;-0.007959247;-0.0359858;-0.055152696;-0.03820557;0.028262263;0.030388538;0.15254939;0.051072173;0.07278676;-0.06526182;-0.07073498;0.006193;-0.16568053;-0.078104414;-0.00033250375;0.16176465;-0.015766015;-0.014574354;-0.05516561;0.20842537;-0.011348215;0.08400148;0.020039821;-0.036824618;-0.024809614;0.051587064;-0.0015501836;0.008352462;-0.07749293;0.11732695;-0.1314795;-0.057470683;-0.033840027;-0.017671252;-0.028773215;-0.093943015;0.14264585;-0.009619456;0.059083104;-0.015520696;0.02835335;0.07587421;-0.1755971;-0.056368038;0.04142328;-0.06146256;0.12595655;0.03314049;-0.050906118;-0.1698448
0.056402486;0.0436905;-0.029114123;0.10040535;0.27527866;-0.10046243;-0.048356812;-0.05490539;-0.27871084;0.039168898;-0.056405786;-0.019464761;0.08722396;0.019529847;0.011886128;0.22863992;0.083553545;0.107898235;0.06646756;-0.07536025;0.02182088;-0.001076499;-0.084112;0.058275346;0.018684272;-0.013714783;-0.14849935;0.049248748;0.011163988;0.0006749435;0.016981943;-0.034428924;-0.07400513;0.076461226;-0.097640954;-0.0090132905;0.13275644;-0.090670146;0.003204034;0.0655271;0.030762596;-0.06341835;-0.21391156;-0.04778257;0.05792832;0.06538994;0.06355876;-0.080104664;-0.0065906863;-0.10850508;-0.06772428;-0.0019736835;0.15554583;-0.025065962;0.017458498;0.19562592;-0.06425062;-0.0008562707;0.030530673;-0.054814167;-0.02449755;-0.037749592;0.02730329;0.1121222;0.0053064907;-0.09112645;-0.057135843;-0.019870795;-0.022450145;-0.04192744;0.033535577;0.05398506;0.026592085;0.005491696;0.15106358;-0.05937053;-0.37295353;-0.16120423;0.15308012;0.025894636;0.06823964;-0.07913826;-0.22533864;-0.03649148;-0.032246377;0.028258352;-0.040489305;-0.07473275;0.066586845;0.06779318;-0.038536917;-0.0945586;-0.15787965;-0.033834253;-0.06054764;0.054636348;0.04992305;0.10319816;0.16045448;0.02361943;-0.0020127078;-0.056596328;-0.023099978;0.04772459;0.031338885;-0.051701922;0.013680802;-0.04596236;-0.023461318;-0.013328652;-0.020996217;0.08161349;0.0056675645;-0.023991466;0.030478789;-0.013612345;-0.021465853;-0.11769097;0.056010734;0.019966852;-0.12090569;0.003998763;-0.01547329;-0.03838406;-0.021989062;-0.030467434;0.033404678;-0.038059026;0.06572073;0.03203501;-0.015582323;0.22893481;-0.041779134;-0.027849792;0.19693276;-0.021487445;0.023336625;0.26909825;-0.04845388;-0.09502029;0.0013559338;0.025997866;0.10297012;0.031360187;0.05318601;0.0050597484;0.119734846;0.06375274;0.23314768;0.00030278822;-0.08445652;-0.28138906;-0.08576494;-0.0718895;-0.056702178;-0.04746293;-0.07644737;-0.14397664;0.05482907;-0.100692004;-0.046185605;0.1358385;-0.017902412;0.08996962;-0.14540352;-0.05923271;0.16110602;0.05963482;0.027500734;-0.008571724;0.0039316188;-0.03491339;0.021025963;-0.03588983;0.024405528;0.056169078;-0.020766271;-0.08185601;-0.071429804;0.06047342;0.22044323;0.017119355;-0.071873076;-0.13544151;0.14812422;-0.036482137;0.0043100007;0.041382145;-0.08487266;-0.02309924;-0.0054107904;-0.08412347;-0.012807314;-0.037898973;-0.2064766;-0.16356333;0.032691214;-0.06521522;0.036144976;-0.13576996;0.020442784;0.039647568;-0.013546927;-0.07223248;-0.03737245;-0.030754846;0.011520495;0.20044984;-0.07496953;-0.081172645;-0.010173886;0.0120737655;-0.065486915;0.21786955;0.010377691;-0.16829091;0.022557843;0.15159942;-0.029938525;0.04853183;0.019515174;0.112506896;-0.0839917;0.017611492;-0.06645603;-0.06503221;0.09670131;0.043124568;-0.08167067;-0.010155368;-0.020283913;-0.05402207;0.10523257;0.082750596;-0.08856409;0.15137842;-0.04730221;0.044861335;-0.044488214;-0.054532416;0.09574989;-0.021935213;-0.022221765;-0.013366423;0.095091194;-0.048917614;-0.017902521;-0.10420706;-0.082852975;0.12093235;-0.01958452;0.14801759;-0.105126835;-0.06662126;-0.10614519;0.08015129;-0.07305067;0.029672552;-0.03283631;-0.010082516;-0.052921683;0.057860956;0.005878416;0.036584917;-0.086275384;0.06976237;-0.25898892;0.12287579;0.060110502;-0.004654241;0.03369793;-0.065764606;0.043328736;-0.083801664;0.19274503;0.07469313;-0.1509235;0.03799411;0.034117196;0.067462936;0.10596485;0.037112985;0.03207172;-0.1352706;0.016026936;0.008221041;-0.010628935;0.07700175;-0.025761858;-0.13484488;0.11488577;0.14347708;-0.19275394;0.07091863;-0.009067379;0.10490128;0.041958228;0.04801737;-0.07507912;-0.08787205;0.015306453;-0.03293122;0.15347192;0.04373093;-0.0810173;0.058466442;0.090440154;0.0898615;-0.08022626;-0.030743623;0.04384738;-0.011130652;0.108526886;0.018072626;0.1840328;-0.030347584;0.045623757;0.09332339;-0.045758173;-0.052542187;-0.029247785;0.03010345;-0.0886359;-0.08697836;-0.04651235;-0.0670942;0.033587024;-0.0074596265;0.028902084;0.046699267;-0.010924183;0.008877072;0.20867687;-0.038340356;0.025109818;0.0754565;-0.2129983;0.029845398;-0.015126982;-0.09321555;-0.0014371785;-0.1107332;0.031340905;-0.016874393;0.038311113;0.053671613;0.008047634;0.0008973007;-0.043680366;-0.011703618;-0.03874018;0.0054952214;0.097873054;0.016083773;0.02789048;-0.026544679;-0.021985477;0.031682715;-0.14388408;0.03705511;0.07712803;-0.098222226;-0.16396964;0.017536523;0.13960962;-0.030394074;0.0720118;0.033190977;-0.012209333;-0.0029372044;-0.12685737;-0.045884516;0.057466276;-0.035331756;0.013241811;-0.017899994;-0.030280361;0.16109964;-0.0075501753;0.022046389;-0.041712042;-0.10017528;-0.028512606;-0.050950635;0.05187299;0.05603857;-0.050535236;-0.009255088;0.02162832;-0.095526576;-0.022334788;-0.008610144;-0.020603282;-0.040789355;0.10381364;0.032950334;0.05795451;-0.041797835;-0.07059403;0.04243391;-0.13947755;0.13377266;0.2117202;-0.13697943;0.119542524;-0.02665903;-0.08443148;0.02043798;-0.10398364;0.012053463;0.048172988;-0.07965018;-0.09107143;-0.008833776;-0.010266756;-0.15090981;0.021535175;-0.16848195;-0.033724014;-0.035538726;0.09022941;0.053375445;0.17834029;0.005765881;0.12299792;0.1324109;-0.08769126;-0.024885358;-0.010659911;-0.010234383;0.033471577;-0.01987499;-0.06529138;0.111817196;-0.025847632;0.003623574;-0.028033359;-0.007927278;0.0009410075;0.006583337;0.04124685;-0.06789119;0.06683292;-0.021753004;0.1211387;0.013764651;-0.26691163;-0.100922786;-0.08257809;-0.014881521;0.17579171;0.06277624;0.04703435;0.056630455;0.25098345;0.031886004;0.1463269;0.043696776;-0.06950158;-0.17743164;0.022385776;0.037481207;0.0135704735;-0.057983957;-0.053105608;0.07633504;-0.1619977;0.053195015;-0.033445038;-0.05505882;0.020149512;-0.011993734;-0.053034414;0.123552755;-0.036829084;0.0844572;-0.06315029;-0.061894733;-0.037790496;0.08489288;0.052306954;-0.020185526;-0.046983387;-0.038285673;0.084256336;-0.03523078;0.07098913;-0.08590584;0.028120767;0.029997326;0.018071603;0.0023661654;-0.00022117548;-0.036278218;-0.0571214;0.051627032;-0.1265803;-0.03617507;-0.08369833;-0.081200436;-0.04155809;-0.018897288;0.14118889;-0.016745323;-0.010810171;0.0646258;-0.015020722;0.15354422;-0.018248726;0.06687409;0.14813493;0.021045104;0.03794819;0.107645236;-0.2995373;-0.06875366;0.0036414894;-0.03147116;0.0034111259;-0.006956355;-0.037317723;-0.075971805;0.022017911;-0.093675286;-0.012733712;-0.1059606;0.031254876;-0.03368733;-0.21611732;0.008033311;-0.08426767;0.013190605;0.22509246;-0.04578839;-0.08364422;-0.072888896;0.021611217;-0.029555105;-0.17786397;-0.07598488;0.051820677;-0.020490479;-0.043695025;-0.06997722;0.012728045;0.16357528;-0.1879972;-0.08298126;-0.07617068;-0.06514264;-0.081824444;-0.08663554;-0.070771806;-0.086510174;0.02647637;0.10813832;0.030135995;-0.014171895;0.024687653;-0.18601486;0.051089488;0.07388475;-0.122596025;0.044270176;0.062368758;0.009394383;0.017213404;-0.0040748315;-0.114791304;0.03572765;0.050718952;-0.014284095;0.12866315;-0.07397675;0.008257928;0.071521886
-0.010290695;0.043957986;0.06118166;0.03923443;0.13906328;0.06325785;0.05566848;0.13042681;-0.07761658;-0.26286298;-0.018329646;0.13811034;0.02508952;-0.11147846;-0.02154784;0.14014663;0.013157834;-0.023251483;-0.0631241;0.012863104;-0.0049562273;-9.7436554e-05;-0.076009855;-0.1784513;0.011687375;-0.028547933;-0.12125525;0.018949337;-0.13921852;-0.017283063;-0.02684816;0.036791798;0.024681425;-0.050825782;-0.0006489622;0.06429035;0.070359;0.0633336;-0.05289367;-0.05771754;0.06475103;0.039607704;-0.26746535;-0.0097697;0.063926235;-0.042875156;0.15566671;-0.051033534;0.006074726;0.0053504365;0.19154893;-0.08192573;0.13952665;-0.056606375;-0.120712444;0.18223062;-0.010461693;-0.022715764;0.13356625;-0.037736632;0.06223203;-0.0311847;-0.046739712;0.115942456;-0.038511865;-0.080732204;-0.02031475;0.052244958;-0.016257865;0.049395844;0.10619309;-0.01452502;-0.014027787;-0.06952126;-0.045668583;-0.060092904;-0.11276436;-0.15080577;0.14310823;-0.069235444;-0.05932659;-0.025889961;-0.0053668316;-0.025443427;0.06814241;0.02856273;-0.037635233;-0.085142866;0.07967778;0.061104193;0.037639033;0.027167864;-0.23561095;0.032905534;-0.041700248;-0.07248202;-0.017619641;0.029575197;0.11235513;0.06713226;0.22350705;-0.042869437;-0.08187502;-0.017552229;-0.04518131;-0.004409166;-0.036033604;0.038803414;-0.058067188;0.06924019;-0.08569804;0.047661766;-0.02589557;0.032050744;-0.03052984;0.064067945;0.048925456;-0.02990655;-0.056384448;0.059971396;0.05806185;0.037258174;0.025806483;0.029454088;0.06480678;-0.066158034;0.054737307;0.1771174;-0.05148687;0.07566299;0.07345008;0.24490981;-0.054802027;0.028746257;0.059842557;-0.021018151;-0.06914325;0.23949385;-0.010638765;-0.026044874;0.06821301;0.036073532;-0.053518236;-0.08616674;-0.0693589;-0.01353636;0.026073195;-0.006408429;0.14460379;-0.12445295;0.14638585;0.009798014;0.016921386;0.00021526398;0.023627687;-0.067798205;-0.13037911;-0.06508357;-0.03280997;-0.052225534;0.0068847695;0.14385693;-0.009728788;-0.19371663;-0.040437948;0.023677325;0.20008552;-0.0439248;0.030531766;-0.06472087;0.041643314;0.050729323;0.16887145;0.059642233;-0.12647538;0.0032011657;-0.08586908;0.072138324;0.04597928;-0.05220134;0.053700686;-0.12564187;-0.022521526;-0.060595132;0.078572504;0.0098492075;0.033449385;-0.042575125;0.017619103;0.055721708;-0.117357075;-0.0024277808;-0.100864485;0.03089628;-0.09422076;-0.141544;0.049118776;0.0022858095;0.022076773;-0.22564335;0.030501582;-0.0042658965;0.08392051;-0.009049721;-0.02609834;-0.054225232;0.006618933;-0.14907241;0.08402123;-0.010732305;-0.09172019;0.07609934;-0.24095471;0.11490454;-0.014651058;-0.0011788578;-0.11343602;0.07852983;-0.06747823;-0.08071689;0.01684438;-0.02008602;0.029302765;-0.0035174754;0.032780763;-0.022630049;-0.006902774;0.03729266;0.026747301;-0.08158789;0.038914286;-0.033392202;0.09720194;-0.09070931;0.032113563;0.13080062;0.057396065;0.083367;-0.06986526;0.029978082;-0.026844827;0.09183682;0.06413813;-0.0049656024;-0.10734169;0.13438214;0.080521226;-0.0038149469;0.005939774;0.108844094;0.015098528;0.06603325;0.06643927;-0.013323167;0.022019777;0.19598608;0.026176669;-0.041399747;-0.10848611;-0.16609158;0.014279284;-0.0057349936;-0.015149983;0.072691895;-0.09977024;-0.009731029;-0.14764391;0.12079483;-0.04239818;-0.16594632;-0.07071684;-0.039910585;-0.018123632;0.07961977;0.037343588;-0.11851788;-0.076508485;-0.099376805;0.023255102;-0.04968554;-0.044631533;0.03641428;-0.06687719;0.029686918;0.050954837;0.07751871;0.17529988;0.06442633;-0.037564542;0.06258049;0.028065672;-0.08776582;0.06979275;-0.03352337;0.07183795;-0.031673707;0.056647852;-0.030251542;-0.009008647;-0.02275387;0.0011323097;-0.025517253;-0.0383689;-0.02933574;-0.018056437;-0.0010732124;0.05193733;-0.019412704;-0.0173856;0.07585967;-0.05728285;-0.021430595;0.021057755;-0.11544758;0.05527343;-0.07521468;0.052159514;-0.039667618;-0.037811838;-0.033360172;0.07705964;0.16782409;0.040372558;0.0050538653;0.03060875;0.029424105;0.10949463;-0.06452282;0.038068388;0.013271158;-0.064105086;0.011151705;0.18420821;0.015965132;-0.09195937;0.050918553;-0.026142143;0.010107886;-0.24951467;-0.12410775;0.04682298;0.0055848756;0.07776979;-0.04127964;0.0075081037;0.058719464;0.052258775;-0.06353457;-0.047397245;0.044075523;0.048187334;0.0050153406;0.0031867346;-0.034971017;-0.10442264;-0.06132184;0.04104422;-0.035374176;-0.097509354;-0.06804416;-0.08270978;-0.05216785;-0.121796496;0.06548582;0.13366108;-0.0816836;-0.030483892;0.06750029;0.07433832;0.0032131232;-0.111467734;-0.046274263;-0.0014015454;-0.02343404;-0.06748181;-0.029597545;-0.099938266;0.14045417;-0.008742948;-0.13505094;-0.0057347133;-0.13255326;0.005621732;-0.06267009;-0.031272285;-0.07780678;0.13357966;0.05203206;-0.034758236;-0.051606335;-0.049447343;0.052669074;-0.05921487;-0.016273355;0.13648668;-0.0020244909;0.0736407;-0.086427994;-0.22209713;0.050899625;0.0005789511;-0.00866165;0.099744536;-0.08441056;-0.014071747;-0.19338557;0.06675994;-0.016160121;0.08680815;-0.07224122;-0.029145936;0.12662253;-0.04651108;0.026296964;0.07420918;0.026433075;0.0046367887;-0.096362025;-0.04465939;-0.076604664;0.04086272;-0.024515124;-0.010212512;-0.07895385;0.14689857;0.13745426;-0.027143281;0.032607745;0.010351815;-0.05735894;-0.07557085;0.009406061;-0.00204932;0.14509903;0.04000204;0.048837736;-0.036531575;-0.058164407;0.09509094;0.033903453;0.008326553;-0.051597416;0.0639592;0.029897325;0.056683466;0.016400233;-0.038569734;0.05296229;0.0038123426;0.06176421;0.070834234;-0.072818436;-0.05373158;0.073644765;0.20524423;0.13596857;0.18160406;0.07128085;-0.043491937;-0.033192076;0.021879384;0.006116675;-0.0034516964;-0.08299909;0.03769267;-0.20966378;-0.053690504;0.078241095;0.023824262;0.05431747;0.028756155;-0.06912812;-0.1004782;0.19136979;-0.06446162;0.066285506;0.02199708;-0.079130664;-0.03658381;0.020075928;0.07084669;-0.07166973;0.07371147;-0.020454122;0.07674456;0.04118064;0.09840829;0.09356492;-0.056525156;0.013770663;-0.02017262;-0.004525288;-0.078479856;-0.020873861;-0.059970878;0.027850926;-0.04178274;-0.03739891;0.038325842;-0.07186511;-0.020444695;-0.011908622;0.02008997;0.08096031;-0.014726522;-0.23092341;0.05256386;0.034770872;0.08209284;0.04462335;0.06711788;-0.05244454;0.033160653;0.1385538;-0.050251633;-0.051761746;0.09134753;0.044252604;-0.06020276;0.10529973;0.004465095;-0.03217918;-0.05030063;-0.045895696;-0.039352555;-0.02957208;0.011464324;0.0058294283;-0.0029753393;-0.043372165;0.043717787;-0.08615942;0.14407584;0.048032958;-0.0670591;0.06815814;0.0069095907;0.055487003;-0.30489498;0.033218157;-0.105221845;0.013705358;-0.018795416;0.023178807;-0.10887044;0.2655006;0.06561095;0.0005035683;-0.13978906;0.017387342;0.095831245;-0.010373275;-0.0067737293;-0.070579074;-0.0035514997;-0.05930668;0.08101507;-0.058382407;0.00066106603;0.031625472;0.0021855317;0.031874947;-0.041044354;0.05678662;-0.017435428;-0.06185692;0.021913713;0.10535143;-0.023243206;0.06677734;0.114104636;0.040187705;0.23595344;-0.06692417;0.0834195;-0.21651453
-0.0027031405;0.086064644;-0.0736643;0.0038447068;0.1837963;-0.0832729;0.031416204;0.016565284;0.29171145;-0.51420915;0.06563934;-0.09489845;0.053738024;-0.055107206;0.07885277;0.0406902;0.09258563;0.013667268;-0.033312242;0.058168475;0.016880764;-0.06505343;0.06488222;-0.07292163;0.07058669;-0.0027832137;0.084953055;0.109855644;-0.037357;0.04372668;0.06303248;-0.018940514;0.06290899;-0.06758945;-0.019197034;-0.07067848;0.019939912;-0.087919064;0.040667668;-0.058190085;-0.063235566;-0.068059765;-0.3873217;0.0068815257;0.015174616;-0.057987012;-0.01041509;-0.014999538;-0.017417062;0.038342994;-0.028143384;-0.0431856;-0.06508638;0.032554753;-0.15938048;0.055689745;-0.005570276;-0.035039693;0.08784783;-0.0510817;-0.055707823;0.044352774;0.019445905;0.100666426;0.0004868854;-0.0295805;0.051547132;0.0060436134;-0.012630891;0.021230336;0.042892586;0.050950747;0.0032841335;0.05340862;-0.010958904;-0.037021838;-0.09599987;-0.061479483;0.22348516;-0.05591012;0.033074815;0.03435915;-0.067705564;-0.11442695;0.14978583;-0.036653046;0.02177089;-0.05103988;0.103684135;-0.0032826387;0.08262207;-0.06627949;0.022870468;0.095750496;-0.06762833;-0.02027016;-0.027568214;-0.124311216;-0.229303;0.021474348;0.22850567;-0.040501967;-0.02146326;-0.012902524;0.07281157;0.06499173;0.048121728;0.028292328;0.05933926;0.10596267;-0.02069719;-0.005995662;-0.008685258;-0.04854765;0.028490018;0.0361215;-0.05718995;-0.043001585;0.027759042;0.019198464;-0.042713713;-0.043010116;0.17363639;-0.009863787;-0.032975134;0.065862395;-0.11313368;0.0396431;0.047532123;0.057413824;0.056636233;0.048973747;-0.08270652;0.017326362;-0.032546926;0.1222714;0.00463759;0.116035186;-0.0090511795;-0.043110702;-0.03395382;-0.0121051725;-0.07930026;-0.044079885;0.09290257;0.06649579;0.07687609;0.036344256;0.13199455;-0.022291189;0.03889298;0.14454637;0.05539748;-0.027835414;-0.07660628;0.011686496;-0.12427424;-0.055164877;0.053897675;-0.024185356;-0.0882972;0.0804772;-0.010738936;-0.05343763;0.02308118;-0.0042403555;0.069034226;0.013526795;0.12789805;-0.043859724;0.096084855;0.07498708;0.15064307;0.064811796;0.09344081;0.045617346;0.012303366;-0.08338144;-0.038435187;-0.076685846;0.12935616;-0.24822403;0.049531713;0.07966887;-0.13168088;-0.058378007;0.026218584;-0.03261194;0.00016974892;0.013703296;-0.08158815;-0.015386591;-0.06910253;0.04733292;-0.12492936;-0.074659154;0.04813434;0.019202579;0.039262004;-0.041227218;0.022798646;-0.07377478;-0.003557239;-0.036988292;0.16050304;0.0072978153;0.04704228;-0.10593009;-0.015272327;0.0076435865;-0.059302017;-0.07391083;-0.034421865;0.21261191;0.015818126;0.026349349;-0.06966609;-0.11967995;-0.19028723;0.061929118;-0.0049201497;0.07089757;-0.04855056;0.10619828;0.029619226;0.034665916;0.03974131;-0.03531967;-0.098807745;0.06810077;0.08289394;0.012793938;-0.069301546;-0.044233587;0.057651564;0.13051899;-0.08848116;0.010908973;0.0646431;0.066353;-0.059030533;-0.03475325;-0.037614442;0.099093355;-0.005924081;0.05558906;0.029013159;0.0673009;-0.029627858;-0.001837092;-0.015869161;-0.096719794;0.028375184;-0.0035969361;-0.06403821;0.01425408;-0.010102102;-0.08551121;-0.030467773;0.008229814;0.052585013;-0.011964772;-0.071203165;-0.12675695;-0.13615087;0.09086319;-0.07209478;0.17057022;-0.04287826;0.032573797;-0.09477669;-0.061018396;0.10248757;0.035533316;0.14148517;-0.015978295;0.04687753;-0.06140026;-0.009514526;-0.054046888;0.2789492;-0.06436104;-0.0018453747;0.042526115;-0.06455453;-0.0053735184;0.15973227;-0.014769013;-0.025172964;0.026928656;-0.0038924501;-0.008635545;0.101562254;-0.06481824;0.048553217;0.030486675;-0.00093579036;-0.07644131;-0.0007362557;0.009884538;-0.085690744;0.06385256;0.10559827;-0.028849764;-0.21996556;-0.03501788;0.084022105;-0.032072507;-0.022948345;-0.09032826;-0.016653787;0.04457344;0.044805788;-0.007345514;0.06988694;0.0064144665;-0.07227943;0.106093936;0.0062009464;-0.022663478;-0.08399447;0.07460713;-0.07257137;0.19721045;0.0034049468;0.064094424;-0.028716395;-0.06272243;-0.025510376;-0.04799503;0.009758796;0.06774164;0.0043937135;-0.056518;0.043882452;0.09161246;-0.081908844;0.0068521937;-0.13317049;-0.056225266;0.099117525;0.03010929;-0.056390926;-0.057655342;-0.008093881;-0.019899264;-0.008587286;-0.019401662;-0.018704925;0.020785833;-0.024581723;-0.042466503;0.07329061;-0.013033209;0.05223274;-0.026890542;-0.078889735;0.032129645;0.08858378;-0.059366077;-0.05429045;0.10450139;-0.13463855;-0.057851855;0.18811807;0.010713002;0.080540515;-0.0085940985;-0.043425657;-0.07005307;-0.19165322;-0.013322283;0.15051271;0.051218968;-0.030872717;-0.05821103;0.053104013;0.1686905;-0.037992388;-0.065951735;-0.056502886;0.0032643755;0.037322313;-0.047398716;-0.004224681;0.06642919;0.10069444;-0.00117688;0.0314017;0.056673814;-0.01510906;0.0886405;-0.068386175;0.0378766;0.19954257;0.012693511;-0.03384528;-0.0010668025;-0.08358723;0.027255502;0.040421028;-0.032365657;0.065252125;-0.07357468;-0.026477905;-0.17616989;-0.03143914;0.07087637;0.010856078;-0.026481736;-0.1079655;0.016693369;0.022028513;-0.13163862;0.014590323;-0.019084092;-0.0027255635;0.1213854;0.08971058;-0.0011267754;0.07882828;-0.12073749;-0.10291695;-0.04603961;0.018485742;0.10970002;-0.003349938;-0.05270506;0.051255923;-0.032367516;-0.035619788;-0.03630268;-0.0011802944;0.10462227;-0.0022600328;0.03298563;0.01729737;0.0023147734;0.011121753;0.2169515;-0.02880415;0.06659292;0.12003115;0.111823194;0.08571582;0.012636587;-0.0712258;0.051077083;0.0548607;0.06795437;-0.03611871;-0.028873088;0.060403787;0.013483103;0.19457099;0.088812694;0.15972967;-0.13199274;0.008125423;-0.046764497;-0.07599243;0.06305552;-0.06344277;-0.012735574;-0.02637801;-0.07688276;0.14026643;-0.03307816;0.025222564;0.034766;-0.07030691;-0.01250593;0.0048359344;0.03157893;-0.051724423;-0.08240493;-0.0749116;-0.14297391;0.022597075;-0.013243655;0.017226258;0.03493235;0.036781106;0.11548191;-0.06463892;-0.009325877;-0.010575057;0.050294574;0.043537844;0.06385785;-0.08226693;0.15404168;0.047408793;-0.05008166;-0.07391824;0.030353015;0.08167906;-0.009222393;-0.0006028058;0.047177088;-0.040175073;-0.052936137;0.21195747;0.020514438;0.07542205;-0.37152123;0.07502295;0.08396226;-0.12021311;-0.07113113;-0.086040474;0.031662017;-0.053495064;0.0477501;-0.012109178;-0.044174172;0.08083174;0.07977285;-0.061631627;-0.038077593;0.06965655;0.008694051;-0.09591684;-0.059433084;-0.03365252;0.031242;0.062142134;-0.017878778;-0.030764598;0.09131552;0.02975052;0.013144533;0.09783652;-0.003886438;0.044703;0.03595572;0.033535622;-0.006216025;-0.23277597;0.032219443;0.026587335;0.07493455;0.020807892;-0.011932252;0.011214371;0.034097698;-0.07076167;-0.031961855;-0.16909607;-0.029335903;0.14578977;0.01803152;-0.08078084;0.0171478;-0.021292923;-0.014387677;-0.014809545;0.023897633;-0.0010969691;0.18787433;-0.06298199;-0.052321304;0.20264944;-0.071184225;-0.022660535;0.013795236;0.09224936;-0.029206194;0.13756655;-0.044619206;-0.05149815;0.06843356;0.19670102;0.09070734;-0.06073919;-0.0625977
-0.09344314;0.0969221;0.040253375;0.033572085;0.13955908;-0.045498572;-0.017887112;0.04228144;0.13522436;-0.23892276;-0.009871173;-0.11505215;-0.015020974;0.024254953;-0.04310218;0.20802495;0.08010232;0.089185216;0.038620643;-0.04471976;0.070795506;0.034844577;-0.025275463;-0.29646447;-0.04033019;0.05163187;0.14223176;0.054867692;-0.08611126;-0.053264398;-0.05104586;-0.03632282;-0.07431176;0.08952792;0.055008415;-0.03147968;-0.0055141263;-0.031144695;0.030105256;-0.026571441;-0.022568444;0.037289258;-0.19482288;-0.023461288;0.11411754;-0.06512096;0.067038275;-0.061146148;-0.0024196333;-0.14310242;0.1080528;-0.018535296;0.13897957;0.05617132;-0.07422381;0.011411403;0.049306624;-0.0416409;0.11654915;-0.012937612;0.006013984;-0.04533027;0.037410956;0.008987322;-0.01892759;0.013928189;0.09162376;-0.25222805;-0.012312142;-0.013000746;0.12285102;-0.021950027;-0.11755225;0.025000876;-0.07516071;0.048999038;-0.19500977;0.06996907;0.087020256;-0.07641287;-0.023967614;0.014613931;0.06496275;0.013084534;-0.053750757;-0.011653531;-0.05329316;-0.0006112876;0.017780863;0.0008514908;0.0009916944;0.20405766;-0.17215775;0.08589289;0.12175212;0.0397708;-0.0022995;-0.11058803;-0.094810404;-0.035765875;0.12953451;0.0017408276;-0.04923437;0.081634074;0.061437666;-0.030741459;0.043853782;0.098365575;0.016228363;0.13656788;0.050957374;0.046209365;0.020096218;0.03809728;0.004437197;0.049376905;-0.10004451;0.007744148;-0.053811092;-0.047394525;-0.035568062;-0.056624074;0.04780523;-0.0043187086;-0.033705078;-0.06854967;0.023618804;-0.028978236;-0.010385364;0.0880912;0.1531159;0.038340755;-0.0065090945;-0.030793129;0.15638769;-0.024161091;-0.08158966;0.014848263;-0.0644264;0.047060397;-0.009615646;0.0128849065;-0.06510841;0.01489038;-0.05150861;0.03615428;0.16871583;-0.014776199;0.008984252;-0.010219642;-0.12615587;-0.03882917;-0.043959692;0.016331272;-0.06648421;-0.033728693;0.054028753;0.015914483;-0.020755641;-0.03513271;0.0028747343;0.14146431;-0.024975926;-0.1590862;0.07355116;0.021229869;0.10933091;-0.0758831;0.1262093;-0.003731591;-0.08395158;0.012001573;0.15663053;0.05538501;0.036034048;-0.06463747;-0.024669485;0.04456794;-0.018882507;-0.0738008;0.17314339;-0.09041775;-0.06282089;0.017171517;0.09399695;0.11442286;0.0022404557;-0.0016768691;0.0010672588;0.080635145;-0.05450108;-0.061139878;0.0016031405;0.02313574;-0.16242562;-0.058427766;-0.025818057;0.06009174;0.04642573;0.042639896;-0.05583944;0.020671178;-0.028813388;-0.051412966;0.035688516;0.040180556;-0.08041821;-0.011709825;-0.040231477;0.26149797;-0.011255513;0.07190893;-0.11609133;-0.039800193;0.033266593;0.12139017;0.03911693;-0.038536794;-0.22105603;0.06408441;-0.026525352;-0.017720886;-0.099486135;0.04738269;0.10461551;0.063615814;0.08116949;0.10894923;-0.019454153;-0.031914525;-0.07038684;-0.060375854;-0.014301761;-0.011304715;-0.01992708;0.10608554;0.020026576;0.031956047;-0.06770164;0.034731623;0.08469289;0.0044940393;-0.008979551;-0.04096454;0.0006570046;0.10858355;0.09378298;0.0032211093;-0.0020018548;0.06802119;0.04453394;0.21125853;-0.095343;0.01773001;-0.00027256453;0.02926549;0.031352524;-0.009041253;0.04252663;-0.101393215;-0.09631412;-0.013686846;-0.037053373;0.023902863;-0.15948002;0.05648029;-0.26385134;0.19452685;-0.07641854;-0.13670807;-0.10349846;0.101510376;-0.036184177;-0.05341717;0.07240092;-0.10437529;-0.031960182;0.005567216;0.032758202;0.07938992;0.1448979;-0.057656582;0.044129048;-0.07260449;-0.031411644;-0.034127496;0.12295221;0.032546386;-0.02193805;0.036679972;-0.006822779;-0.20167224;0.21231873;0.06668188;0.03553515;0.011629579;-0.044229917;0.09039534;0.028379377;0.027666356;0.028532198;-0.06382134;0.07184313;-0.0033430066;-0.1619268;0.009040752;0.10772921;0.016137082;-5.199665e-05;-0.077311784;0.10502986;0.036137134;0.12118861;0.12572062;0.0843786;-0.063658886;0.05234641;0.0016969119;0.059539158;0.09750924;0.0065271533;0.17545022;-0.00852876;0.15242869;-0.0338774;-0.014868334;0.16222565;0.07197312;0.08218436;-0.052869037;-0.036530767;0.089756675;0.1670805;-0.058702145;-0.064028665;0.10147799;0.08305679;-0.058053825;-0.30297706;-0.108138114;0.034837462;-0.041432966;-0.123662084;-0.10198507;0.11778795;0.012611365;0.067922615;-0.006557379;0.07254934;-0.09231322;0.039392106;-0.0215258;0.011310884;-0.054531686;0.010562371;0.016819093;0.05335105;-0.0038167404;0.064917244;0.080633454;-0.0422225;0.0272604;-0.12932234;0.011510756;0.050091837;0.08490783;0.024374586;-0.053002857;0.10400406;-0.082019486;-0.30190554;0.05654939;-0.09446542;-0.10084223;0.064808786;0.04440161;-0.092014596;0.06583659;-0.05494247;-0.10553334;-0.08387874;0.08612994;-0.043666795;0.041161794;0.1257294;-0.010688269;0.005349692;0.03583659;-0.015637595;0.06958193;0.077951826;-0.027805079;-0.009643986;0.04616596;0.14805603;-0.05272533;0.04026497;-0.06657354;-0.13168828;-0.044383842;0.045086034;0.14478964;0.09957622;-0.08173822;0.060829997;-0.009101025;0.06357413;0.12164309;-0.018718353;-0.0029969746;0.008646108;-0.024767168;-0.05535318;-0.07829377;0.026900766;-0.12258901;0.07257775;-0.06484443;0.06295422;0.009246127;0.050763234;-0.03630438;-0.08219228;0.044276636;0.04230513;-0.0039332095;0.0057245516;0.052070886;0.005817383;0.034621365;-0.03141149;-0.046739917;-0.02269934;0.06870632;-0.13328217;-0.03654215;0.016860075;0.018858623;-0.027679205;-0.066644765;0.0076677296;-0.035821658;-0.07170908;-0.044714842;-0.008570816;-0.015298198;-0.110038415;-0.014058844;0.021506593;-0.095495835;0.15433063;-0.03798009;0.027187161;-0.037339345;-0.094816655;0.024427954;0.057519007;0.012349161;-0.029300371;0.16998166;0.020420842;0.10006697;-0.086551696;0.058008987;0.062863424;-0.17739311;-0.10281953;0.10940799;-0.2590095;-0.056961846;0.06755467;0.03422567;-0.05771688;0.12089734;0.032022905;-0.11467555;0.09025912;-0.11770534;-0.038835246;-0.11296276;-0.0647949;-0.041980926;-0.06999817;0.07985789;-0.052109372;0.014851463;-0.04435645;-0.0015502227;-0.062108938;0.120246045;0.06288205;0.054599244;0.036813993;-0.03727219;-0.023977665;-0.03684673;0.08101382;0.08090395;0.015302091;-0.0011333728;-0.02187119;-0.053050496;0.04678902;0.011681832;-0.043761488;-0.05808782;0.07042255;0.02690832;-0.063072614;-0.03913431;0.08307321;-0.06819213;0.089135915;0.17355597;-0.03643908;-0.042395048;-0.09158974;-0.025162436;-0.07325863;0.08698619;0.07831617;-0.035416678;0.0663784;-0.12408093;0.082593895;0.052986283;-0.10594293;0.024589976;-0.18702638;-0.044126257;-0.069832705;-0.05495416;-0.006592929;-0.017190143;0.012560817;-0.03284769;-0.004989398;0.048213128;-0.23231368;0.06035259;-0.23511998;0.011051459;0.036233794;-0.053947978;-0.06974254;0.02303362;0.06606057;-0.03851028;0.050067335;0.032504804;-0.02126694;0.06452301;0.0002964639;0.012616493;-0.048543;-0.09181222;0.04655453;0.040648796;-0.012125611;-0.06998485;0.044381168;-0.05959899;0.081855446;0.047257338;-0.034928102;0.048622478;0.030583942;0.111497864;0.15391229;0.10224093;-0.071069926;0.059344698;0.045146402;0.086947635;0.039395597;-0.08888345
-0.10873366;0.04368288;0.051459245;-0.17804208;0.091824815;-0.023112735;-0.030613054;0.12043469;0.033728845;-0.08868739;-0.040924214;0.051140107;-0.025323093;-0.000519718;-0.040957384;0.17348817;0.12481775;-0.00886972;-0.002220485;-0.043260854;-0.04190905;-0.040143646;-0.018046146;-0.28692827;0.043544125;-0.08196397;0.1373937;-0.032092866;-0.24952324;0.0769484;0.11496985;-0.121407785;-0.06065357;-0.028016241;-0.13102385;-0.054236684;0.15372972;0.06926388;0.0045409272;-0.056897875;0.025222944;-0.0030187936;-0.10181959;0.047294077;0.008572476;-0.019938046;0.26160666;-0.054126035;0.098298445;-0.14797793;0.022783482;-0.06284069;-0.15076192;0.05174997;-0.25928703;0.091366656;-0.029697152;-0.03149854;0.1431833;0.029562134;-0.0077016493;0.041929096;0.010820142;0.042745467;-0.04687676;-0.18580766;0.21238542;-0.15205023;-0.009704512;-0.057758454;0.086952604;0.12603521;-0.023045355;0.06774851;0.06412399;0.01651065;-0.0033496898;-0.01986482;-0.10743357;-0.11999067;-0.019430261;0.059287228;-0.044896834;0.07121648;0.08816145;0.10174033;-0.017447622;0.1398436;-0.061783377;0.023147613;-0.05644418;-0.06091016;-0.15808782;0.07726521;0.05896042;-0.09647567;0.03274939;-0.049580038;-0.101507716;0.08181139;0.058505498;0.0051747425;-0.14067005;-0.07431225;-0.043740008;-0.07850501;-0.03072541;0.08337068;0.022510149;0.081249714;0.016750107;0.0158763;-0.013041426;-0.04870318;-0.1042638;-0.059482727;-0.025160933;-0.049310442;-0.090309486;-0.013162422;0.04435197;-0.07200856;0.1670287;0.0046672462;0.109772414;-0.022127299;-0.13587147;0.07490886;0.014601337;-0.029579785;0.07025315;-0.1110953;0.09699732;0.10213409;0.20650916;0.012790707;0.07625601;0.08920509;-0.025089156;-0.05903531;-0.011518058;-0.063438065;0.0319721;-0.07449747;0.025785673;-0.056999333;0.005817513;0.04301628;-0.060677927;-0.0007570816;-0.0131581435;0.039567966;0.06496462;0.03772958;0.022033582;-0.04936905;0.09197319;0.010413407;-0.045207344;-0.008558827;0.021973131;0.08683391;0.06693657;-0.28825727;-0.010232563;-0.07979394;0.019133113;0.07737126;-0.0982489;-0.04755364;-0.04377183;-0.00792836;0.22221015;-0.090360165;-0.093847916;0.04819822;-0.043566987;-0.01301316;0.09777931;-0.019855937;-0.17902423;-0.16508695;-0.070305556;-0.0056270994;-0.05170333;-0.0334903;-0.059419524;-0.06731962;-0.048170485;0.039887264;0.03776834;0.0067766206;-0.032206696;-0.018479176;0.008232185;-0.19209334;-0.035284992;-0.056770116;-0.007991761;0.010159339;-0.007999837;-0.03879833;-0.0018435058;0.0022091472;0.105045885;-0.00927151;-0.2488569;-0.123336725;-0.02105702;-0.030478332;-0.037642457;0.037003275;-0.20947656;-0.022179238;0.1096385;-0.003876127;0.097701564;0.076597124;-0.27794427;-0.057419326;0.028058538;0.08113656;-0.061519943;-0.020571262;0.08179692;0.038618397;0.032374352;-0.038496844;-0.035503898;0.032609925;0.0223449;-0.006759169;-0.0044282787;0.024394471;0.046190545;0.04675542;-0.01164776;-0.0010075097;-0.04198854;0.10317778;0.19487987;0.114908464;0.025486777;-0.02287553;-0.06408035;0.24690367;-0.043374304;0.048686936;0.10781261;0.046896666;0.08790849;0.013532924;-0.024682563;-0.026810937;0.025126912;0.17362154;0.045975883;-0.08714458;0.024689041;0.02544584;-0.048120808;0.048080787;0.010135379;-0.01719181;-0.18877883;0.08041589;-0.17153572;0.34786347;0.049645104;0.044700224;-0.026957845;-0.02625572;-0.0033013383;0.031598665;0.17755224;-0.051502854;0.016482443;-0.077018306;-0.050904002;0.13542502;0.1282873;0.029280912;0.035009928;0.041628517;0.07278448;0.06981973;0.11091584;0.09707509;-0.046833534;-0.10277514;-0.057182807;-0.08443065;-0.04733896;0.020756219;0.0964361;-0.051423367;0.022551904;0.02317039;-0.015578692;-0.0805807;0.026982935;-0.09455765;0.013649451;-0.0013443206;-0.11830876;-0.07144195;-0.062673956;-0.018315304;0.055751983;-0.14796257;0.099018715;-0.061562162;-0.076658234;0.12558444;0.14068444;0.013286027;0.022444483;-0.081792876;-0.0091454685;0.058394976;0.07269868;0.05488463;-0.01895978;0.09499007;-0.02615285;0.029587097;0.10398776;0.08023301;0.08562578;0.08165721;0.030447908;0.14023015;0.07633077;0.028389737;0.036511924;0.09336444;0.060373235;0.033685308;-0.38262287;-0.050783765;0.015313674;0.07716585;-0.104629025;-0.10242774;0.06420114;-0.0629165;0.014422924;0.040514104;0.023706252;-0.078336105;-0.0065247132;0.02050719;-0.026178868;0.08360623;-0.009251239;-0.022012549;0.031679906;0.026118437;0.021262288;0.078637056;0.1020191;-0.06005401;-0.09167662;-0.04377526;0.02583176;0.09288094;-0.023805592;-0.05181142;-0.035347313;0.0013571766;-0.291542;-0.014716157;-0.033445414;0.004804601;0.05472902;0.034163907;-0.05373718;-0.024320744;0.07929555;-0.13361236;0.04268247;0.0413316;-0.085008815;-0.055375494;0.033740368;0.026363678;0.084412456;0.07461833;0.007876751;-0.01896201;0.043213245;0.066202134;-0.054799825;0.05678469;0.14399503;-0.0865858;-0.021953914;-0.016980316;-0.039321605;0.0614587;0.044276297;0.014835621;0.09889659;0.09895175;0.071466416;0.096326955;-0.038628336;0.043749064;0.06581593;0.020613737;0.019091932;-0.029752886;0.06988859;-0.051796187;-0.0601352;0.0153598115;-0.028061315;0.056319747;-0.050732113;-0.021777073;0.17517725;0.025934769;-0.12440252;0.07324631;0.05721434;0.13565315;-0.033999864;0.0434966;0.047784768;0.018086713;0.07038408;-0.025761502;0.017906552;-0.03327336;-0.0702133;0.027166696;0.074573286;0.036999434;-0.0437135;-0.0658247;-0.045910403;0.010519184;-0.07465592;0.03200014;-0.053994257;0.038104076;-0.00024878228;-0.0890932;-0.039622303;-0.062330678;0.10249499;-0.044660196;0.020978441;0.092493355;0.005136948;-0.06236359;0.03420135;-0.10286048;0.07075373;0.10553471;0.045201484;0.039395537;0.06456101;0.092248805;-0.043447535;-0.0343288;-0.0011753544;0.08445266;-0.14585035;-0.0072007743;0.11471093;0.01888759;-0.08347126;0.20541339;0.054386634;-0.10033096;0.058223896;-0.045095626;0.068202995;-0.07874302;0.095529675;0.07364203;-0.07147647;0.12828915;0.08382376;0.0039568166;0.09407073;-0.05508653;0.059952818;0.070941105;0.114095934;0.18175791;-0.025005277;0.07413806;-0.051191352;0.036604803;-0.036593325;0.074361876;0.019183427;0.080096856;0.09859175;0.025067093;-0.019041896;0.0965314;-0.08773448;-0.012200771;-0.09143374;0.041856714;-0.034870584;0.01639203;0.12866937;0.0075591016;0.10046174;0.17259255;0.049671493;-0.089520596;0.060465056;0.06676139;0.05440229;0.062573984;0.08376458;0.02157955;0.014913967;0.08845078;-0.019713229;-0.027126277;-0.012564411;0.10134133;0.042639352;0.070405446;-0.054052882;-0.053380862;0.22765282;-0.060034838;0.06335973;-0.068901606;-0.067215845;-0.039041247;-0.02917212;-0.08353665;-0.16179086;-0.035525177;0.005224423;0.02303584;0.0073027797;-0.12595175;0.09336478;-0.04061412;-0.096931994;-0.05465266;-0.027904818;0.04768418;-0.06869066;-0.09266508;0.06865595;-0.006834514;0.025807507;0.1324042;0.077851295;-0.053242896;-0.0027136963;-0.02056442;0.04987644;-0.017510632;-0.057832565;0.025261143;-0.01863585;0.105891675;0.105895646;0.12336737;-0.008052359;0.055690303;-0.02185129;-0.005030364;0.042270128;-0.16187218
0.06779049;0.05329492;-0.11011313;-0.015994215;0.08452546;0.04104772;0.07165783;-0.04212313;0.1965305;-0.21096209;0.03589666;-0.046061546;-0.05506524;0.019095445;-0.087643005;0.096096694;0.22057135;-0.07043355;0.013294196;-6.566868e-05;0.045604058;0.01602399;0.047875367;-0.06702701;0.08950458;-0.01383996;-0.018364867;0.05742473;-0.09056435;-0.02019993;0.019442845;-0.014911573;0.062043346;-0.05984518;-0.038230583;-0.04046907;-0.056207042;-0.103183836;-0.0059723346;0.09255714;0.00024846295;0.08291625;-0.15648352;-0.035723567;-0.011778399;-0.060717154;0.11698417;0.0076044654;0.12562338;-0.081219226;0.012358266;0.08329918;-0.18089272;-0.058678757;-0.19970809;-0.06594522;0.07301857;-0.040953998;0.25489005;0.05512962;-0.06060156;-0.08862959;0.04673399;0.060434055;-0.028269777;-0.02462652;0.30977318;0.074689925;0.1197405;0.11012181;-0.021524671;-0.026274715;0.010887503;-0.064455174;0.0930563;0.032405965;0.02074386;0.07668926;-0.06900342;0.15210712;-0.07100144;0.12706678;0.036550503;0.038447205;0.13559674;-0.06671322;-0.0059123803;0.024642482;-0.052478295;0.032083683;0.0023603947;-0.18486796;-0.036480956;0.0005865178;-0.052305803;0.005676349;0.105874635;0.059179667;-0.16321565;-0.05707271;0.13071908;0.042881064;0.04063725;0.020177918;-0.015337821;0.038528327;0.028462492;-0.07336153;0.04219923;-0.03806749;-0.02564558;0.028138943;0.0039962847;-0.039957173;-0.008466228;0.006216568;-0.006702064;0.023244346;-0.006920951;0.024737692;0.03779866;-0.15286411;0.049782075;-0.03624696;0.018505115;-0.023749614;0.013591991;-0.071255;0.03158483;-0.076785386;0.11038938;-0.20804922;0.019855084;0.018489158;0.12205836;-0.008957293;-0.049091067;0.14567706;-0.054146346;-0.07315424;0.051978834;0.001626019;0.08156958;-0.03694864;0.03480387;-0.0070623034;-0.1973351;-0.01410144;0.12515517;0.0037883352;-0.04236263;0.012378339;-0.08012164;-0.20770316;0.05438577;-0.0056276782;0.10300766;0.085066944;0.014458255;-0.07217624;-0.0585429;0.005912046;-0.06882528;-0.110606186;0.04143669;0.047601633;-0.055904146;0.11269953;-0.0035992807;-0.024044963;-0.06820346;-0.003988017;0.16486453;0.03856213;-0.00602495;0.015877524;0.032830223;-0.03851987;0.08591139;0.0657927;0.12359328;-0.11418286;0.08993762;0.1496445;-0.07464663;0.11799534;-0.08914388;0.11526551;0.09312264;0.010224191;0.058419704;-0.001018226;0.008787472;0.002508569;0.18374105;0.16048656;0.07383056;-0.03271587;0.07329914;0.027641162;0.024320198;0.07065345;-0.06179418;0.05816654;0.21996813;0.07325558;-0.033601988;-0.020767454;-0.057358064;-0.05378199;0.07793163;-0.07121975;-0.020454932;0.013050159;0.049407717;-0.012164736;0.14717987;0.08462433;-0.103011176;0.0129056275;0.010947969;0.17459166;0.18671529;-0.097244;0.10007416;0.062662505;0.031111544;0.07147797;0.03884106;0.09487089;0.0755614;-0.0043536504;-0.009412553;-0.0644632;0.008400678;0.032710742;-0.055732835;-0.057740163;-0.0113517605;0.003252426;0.013542584;-0.06549772;-0.08725981;0.082136884;0.016294198;0.051048122;0.01676693;-0.030963609;0.007992311;-0.011884563;-0.014586666;-0.041160062;-0.06839653;-0.10451577;0.058068216;0.042956445;-0.078623496;-0.0011932483;0.07485089;0.24401978;-0.07674846;-0.025824444;0.0564801;-0.048814096;-0.03624644;-0.08276757;-0.048407286;0.13657361;0.04564477;-0.04007963;-0.03106598;-0.040451813;-0.05641964;-0.0022406664;0.06234848;0.0004044835;0.006883691;-0.03416738;0.06460556;0.06960596;0.20203471;-0.045657966;-0.09817693;-0.05542546;-0.07111975;-0.011568548;0.031528458;0.007493577;0.06192816;0.08664983;0.041381445;0.0031978786;-0.18673173;-0.045443233;0.0014727282;0.029475529;-0.09558843;-0.09553506;-0.07394011;0.06685564;-0.0104858335;0.033149797;-0.074611254;0.061833076;-0.21320744;0.08082331;-0.08631821;0.019301843;0.0051109656;-0.09419005;-0.022001235;-0.007245041;-0.046934023;-0.07964008;0.10702821;0.02828649;-0.019496964;0.017675415;-0.031298447;0.022213416;0.014955699;-0.07297007;-0.023524825;0.15969528;0.052541636;0.106940076;0.12359919;0.026156448;-0.058828685;-0.056440648;-0.030066608;-0.014336785;-0.11203252;0.0498149;0.079777844;0.11752315;0.11815171;0.04461074;-0.20250678;0.006365934;0.1155034;0.08228307;-0.015141722;0.08653997;-0.07704751;0.045425206;0.1003648;-0.029352212;0.0037127617;0.11382893;0.09626582;-0.008840024;0.07603089;-0.027041664;0.05325067;0.01336967;-0.042101476;0.03165144;0.014752403;-0.07752393;0.14971559;0.005386494;0.04788353;0.0061101024;-0.07288123;0.08131243;-0.049946673;-0.0794826;-0.026294874;0.018812584;-0.20433752;-0.046273008;0.14991817;-0.023181263;0.138851;0.07051544;0.0485595;-0.022267189;-0.048174854;0.1383716;0.031730402;0.03143834;-0.019040732;0.020275116;0.09667976;0.0608008;0.021671621;0.03587104;0.008478498;-0.039245747;0.025477652;0.14470884;0.03664868;-0.026193004;0.074805446;0.011181542;-0.09108218;0.049632814;-0.11888086;-0.014890425;0.0641014;0.027473062;0.0993043;0.10306797;-0.14199255;0.035775468;-0.015982352;-9.4020885e-05;-0.057664737;0.053818;0.04135325;-0.044407725;-0.058797937;-0.0065991688;-0.03838703;-0.044739846;0.053809915;0.29359588;0.027042681;-0.042119782;0.15065674;-0.09009075;-0.12021531;-0.005021132;0.0727004;0.045766383;-0.058434047;0.025194794;-0.12261195;-0.08981489;0.024535598;-0.033704776;0.03531468;-0.08069581;-0.02954992;-0.052250005;0.023046274;0.019483393;-0.06891303;0.124588795;0.015137027;0.04570818;0.074333884;0.081330806;0.07571685;-0.029357335;-0.15908876;0.056674547;0.04501941;0.089688405;0.056187008;-0.100155585;-0.055475198;-0.024099309;0.11459829;-0.10380557;0.13983513;-0.14845148;0.009651961;0.05693696;0.025336869;-0.036228072;0.024947971;0.031203786;-0.08583569;0.117827326;0.18901429;0.023197979;-0.09048118;-0.049223393;-0.15045623;0.060102418;-0.0022665355;0.045472972;-0.035486467;-0.04336961;-0.0295112;-0.038432125;-0.022393825;-0.02123816;0.27075523;-0.046998672;-0.06562948;0.0068386225;-0.04663098;-0.016217185;0.08661225;-0.013772043;-0.01933501;-0.013969624;-0.014018913;0.03549494;-0.01747851;0.0030521317;0.016699584;-0.07992352;0.04263716;0.0791572;0.11573052;0.054088186;0.038455468;0.08394647;0.04996086;0.010176814;0.0742224;-0.15775526;0.05513866;0.08136077;0.027674101;0.03939027;-0.05234347;-0.06923716;0.026067633;0.062049065;0.031379994;0.06742237;-0.0860327;0.09746596;-0.029686159;-0.040128913;-0.036966376;0.06343352;-0.21439089;-0.04911401;0.00785728;0.0075057107;0.027740011;-0.091145016;-0.102113396;0.02234462;0.002972477;0.06950099;0.18881416;0.07938083;0.022656256;-0.037558634;-0.022044098;-0.012745152;0.010981781;0.038380593;-0.049609695;-0.10742291;0.08341574;0.05685362;0.14624321;-0.15034439;0.16565652;0.0031160535;-0.25713426;-0.013798039;0.16919838;-0.064523034;0.055572882;0.090672985;0.10760158;0.1258721;-0.02255648;0.080516264;-0.053824246;0.22734906;0.019861072;-0.08930433;0.22093333;-0.009030712;0.08688568;0.031830955;-0.07954807;0.085666075;0.19901715;-0.03697657;0.04680188;-0.07323261;0.08027784;0.0013205515;-0.0047410564;-0.17236711
0.03896983;0.061921112;0.015452531;-0.014569908;0.078600675;-0.010255813;0.04643739;0.08416364;0.01642426;0.13698143;0.082971625;-0.17467149;0.10587906;-0.038535025;0.009210566;0.09013402;0.15412833;-0.13314314;0.044954088;-0.054415647;-0.032486215;-0.048934065;0.055446703;0.02140265;-0.028198997;-0.012677379;-0.091474876;0.047511052;-0.19228166;-0.040255755;-0.071166694;-0.0091598;-0.036895912;0.0648648;-0.029856201;-0.040537216;-0.06770878;0.07545565;0.043174464;-0.08147425;0.020190576;0.09978122;0.01134962;-0.03503104;-0.04567419;0.007535044;0.06196322;0.06516913;0.13186567;0.043776736;0.118480064;-0.011357784;-0.020352975;0.001332616;-0.2087438;-0.031302072;-0.032198887;-0.04384994;-0.04451244;-0.043200757;-0.10967325;0.03738187;0.06579349;0.069616385;0.040803812;0.12225115;-0.05341752;-0.020402595;0.06437095;-0.014820429;0.02638428;-0.018474063;0.016245576;-0.09026003;0.06526441;0.08611136;0.075270414;0.032455347;0.061453555;0.07334919;0.03494309;-0.10647674;0.034766838;0.030899161;-0.09576744;-0.012575704;0.016176362;0.030407475;-0.027061183;0.02790491;0.058850102;0.17812243;-0.18519716;0.07663613;-0.05351783;-0.03745924;0.043430716;-0.043985892;0.042985737;0.033938386;0.16632102;0.067543045;0.15419595;0.107056506;0.10285131;0.062319923;0.02433956;0.020451283;0.073817626;0.13736056;-0.06902326;0.08102631;0.09655834;-0.029188326;0.040562574;-0.035793934;0.025826897;-0.019727776;0.0049919165;-0.022673048;0.0822531;0.010132576;0.032697167;0.009691483;0.06914969;-0.014036234;-0.006131809;0.06636309;0.09429598;-0.012483481;0.11736642;-0.19579928;-0.047761276;-0.024259947;0.08290749;-0.03355771;-0.014024259;0.114827305;-0.021733962;0.086684555;0.06423831;-0.02867958;-0.024742171;0.063962;-0.034474157;-0.015140143;-0.19665012;0.05047125;0.018067515;0.0652307;-0.15473092;-0.11000081;-0.002716409;-0.025998965;0.027025957;0.0723197;-0.05378172;0.09944738;-0.088174924;-0.03009631;0.03577558;0.0102382265;-0.058854125;-0.08441778;-0.13316447;0.003217965;-0.012315926;0.0041654184;0.055833478;0.044926547;-0.032737795;-0.043176025;0.2686699;-0.08332424;-0.026832752;0.06695484;0.076884836;0.033129938;-0.017590608;0.042650796;0.28258538;-0.23505436;-0.022414362;-0.062158395;0.019432645;0.04420406;-0.08593573;-0.090572126;-0.01347145;-0.0150485635;-0.008627454;-0.049298715;-0.09706781;0.011632288;0.12013507;0.0047271424;-0.07227552;-0.006136336;-0.036551826;-0.007846034;0.034662973;-0.06827859;0.06615547;-0.058270127;0.014328083;-0.09590084;-0.18218622;-0.036921788;0.0057018115;0.15589328;0.027778469;0.01188709;-0.03042247;0.09563144;-0.025917117;-0.10585741;0.12991163;-0.04710966;-0.1848335;-0.04616866;-0.017809536;0.13796626;0.016674805;-0.011292521;-0.011032992;0.065567955;-0.024279758;0.03951612;-0.0851731;-0.10044474;0.018004747;-0.011892371;0.07721789;0.0030210556;-0.067542255;0.03682268;0.047187474;-0.07824279;0.03691703;0.070239365;0.12366853;0.034930643;-0.0345545;0.047339804;-0.012064087;0.17577228;-0.03641581;-0.07326045;-0.009363062;0.12361967;0.03492987;0.11971124;-0.05594379;-0.030821504;-0.08474926;0.076616645;0.107438326;0.023367498;0.061123967;0.15410022;0.06077999;0.06467249;0.027930297;0.03114648;0.07890121;-0.06622591;0.05283012;0.24326392;0.0022193184;-0.10909791;0.021509742;-0.005260263;-0.038088754;0.013270494;0.10915795;0.05394474;-0.055841744;0.00014232524;0.09781134;0.10896095;0.13901652;0.11514177;-0.039807357;0.018602094;-0.046263307;0.030556524;-0.010257952;0.017632622;-0.021436768;-0.030437088;-0.06426025;-0.117010474;0.13143735;0.03247359;0.063776635;0.03263857;-0.025713934;0.052558225;0.06427448;-0.07978143;0.0061963266;0.096736684;0.064753056;-0.051591884;-0.029333603;-0.0012932566;-0.08131181;0.033014406;-0.04135943;-0.019791014;-0.022147352;-0.049947254;0.04414207;0.075169705;0.14243536;-0.06192577;-0.0049482877;-0.008976547;-0.047422156;-0.09755138;0.0024237926;0.046307813;0.047300197;0.07216807;-0.041082755;-0.08069845;0.067682296;-0.002563121;-0.037567522;-0.02921635;0.0022477172;0.01675955;-0.0007710508;0.0230114;-0.111140445;-0.19366114;-0.13801108;0.019967142;-0.1924233;-0.045758095;0.047570653;-0.04514051;0.19740735;0.01734014;-0.014391195;0.053377673;0.047606632;-0.059414282;-0.047916844;0.018080171;-0.0022659954;0.024180455;0.04017744;-0.07097372;-0.008892145;-0.07117099;-0.038739067;-0.02690361;0.0067205797;0.0025779952;0.19744228;-0.08581841;-0.10044665;-0.027841503;-0.11194076;-0.014475715;-0.06194443;-0.040534552;-0.011483893;0.054921113;-0.17424159;0.02562845;0.04095474;0.022376843;-0.0747711;-0.032417793;-0.05274916;0.026614923;0.0034464172;0.043236136;-0.047645032;0.010253009;-0.050867125;0.05920855;0.11575081;-0.006792562;0.2106723;0.04644758;-0.07647629;0.009870308;-0.03884755;0.088494875;-0.08419884;-0.0780905;-0.02406194;0.036818326;0.062056724;0.092904955;0.13378453;0.07358932;-0.0077984924;0.09159062;0.11790884;0.10765043;-0.04406387;-0.056932572;-0.031027472;0.0320208;-0.09697141;0.043211825;0.06475271;0.029281195;0.043735255;-0.081946485;0.04945402;-0.12892678;-0.016611716;0.15648575;0.06895907;-0.025471197;0.12470647;-0.12054922;-0.13460918;-0.086665474;0.1219607;0.06770974;0.049734436;0.044390492;-0.115906835;0.011049653;0.04581142;-0.027801946;-0.06841837;0.07648298;0.036707807;0.060305413;0.06994613;-0.010578735;0.007572761;0.08151954;0.013500889;0.054062583;0.07250285;0.20866905;-0.12912025;-0.0398292;-0.2783644;0.090743385;-0.061138302;0.1006005;0.17847322;-0.076246366;0.074531026;0.005833186;0.1254309;-0.02049785;0.14140265;0.0325893;-0.0437124;-0.030219167;-0.03231861;0.02636166;0.034477707;-0.031368956;0.051718332;0.17421755;0.052313995;-0.039570153;-0.13433656;-0.0026564472;0.022655977;-0.024898367;0.057633076;-0.044210885;-0.016010396;0.032542218;-0.08811181;-0.15084481;0.048021737;-0.029359039;0.17089073;0.037819274;-0.04391565;0.056958936;0.0340488;0.019286003;-0.20900935;-0.07220863;0.07790761;-0.028839186;-0.011497527;0.11195402;-0.0444318;0.049210902;0.023900745;0.0055723623;-0.07479221;0.040120192;-0.0905895;-0.035992198;0.02373664;-0.025849916;0.020439524;-0.071411125;-0.06493645;0.07546408;0.086915314;0.13857478;0.111810416;0.10131385;0.04291941;-0.020485492;0.08737033;0.02048881;-0.00023969359;0.028598823;-0.060610153;0.11473322;0.06971021;-0.091240734;-0.052964028;0.038549405;-0.2429242;0.12420664;0.0055792388;0.03166963;-0.02855382;0.0011020699;-0.22349322;-0.09230342;-0.06416321;-0.028125532;0.06458273;-0.0089572;-0.06634263;0.017712457;0.027859345;0.0034801883;0.05444985;0.11946958;-0.14076023;-0.08527996;0.0032981378;-0.07642001;0.0959365;-0.131252;0.11864581;0.07026799;-0.29582345;0.0134943975;0.14796764;-0.0002539601;0.049285457;-0.057706837;-0.04846436;-0.034448694;0.071142614;0.14838429;0.027680239;0.0954302;0.018631406;-0.055186495;0.13956414;0.022282429;0.06892738;-0.00690981;0.037790477;0.10615246;-0.066076346;-0.047174077;0.00960167;0.09245277;0.12082529;-0.0020285978;-0.012952048;-0.14489248
-0.02813977;0.0076157367;-0.032996293;-0.047769748;-0.008024552;-0.066131815;-0.033617627;0.010138076;0.08283853;0.067306556;0.09021059;0.12780082;-0.031185737;0.04215511;0.059025835;0.09471199;0.07465157;0.08453243;-0.080956064;-0.0039470354;-0.05676355;0.030398931;-0.08225699;-0.04901864;-0.009417734;-0.06684496;-0.10611886;0.028084718;-0.05891369;0.051953737;-0.04531764;0.015005119;0.038915493;0.06949033;-0.11928987;0.015976442;-0.020324592;0.07417375;0.08983254;0.05894127;0.064176485;0.06504042;0.062048145;0.026707573;-0.02208244;0.04725616;0.13463347;0.06660404;0.12679939;0.011825291;0.12920249;0.014642066;-0.014802821;-0.053914256;-0.19491895;-0.21539128;0.09535139;0.011843583;-0.09354881;0.036133535;-0.12736224;-0.021474874;-0.07081352;-0.06035637;0.042322777;0.07478798;-0.07389212;-0.11038015;-0.06509163;0.01953393;-0.093266465;0.10657645;0.012265428;-0.029563278;-0.019102072;0.018217891;0.22981344;-0.03804389;0.05280475;0.08158524;0.065240756;-0.07721862;0.22473156;0.042038634;0.022490216;0.054619167;-0.034092642;0.1284656;-0.061642;0.05201649;-0.013911063;0.146445;-0.0905336;-0.0318904;0.00740824;-0.0852197;-0.050543893;0.22408228;-0.051534526;-0.087190054;0.085278556;-0.009812578;0.20036587;0.08668495;-0.06548634;-0.07196526;-0.07055761;-0.13169663;-0.08539543;-0.05235155;0.027695378;0.078018375;-0.060184944;0.10464169;0.037967574;-0.048430208;0.0014038276;0.09634116;-0.034133032;0.074133925;0.06474844;-0.052289404;-0.09811086;0.08665808;0.0016966319;-0.05756845;0.0448525;0.077416636;0.0058688326;0.040504802;-0.07369834;-0.10311579;-0.0013924303;-0.043953426;-0.0075197383;-0.08488341;-0.02945476;0.020105889;0.05757768;-0.017736454;-0.059826277;-0.04120733;0.10883254;0.059936535;-0.047901083;-0.040110797;-0.05888039;0.0787609;0.16614638;0.018006518;0.017253708;0.08662046;-0.03840329;-0.030950349;-0.033941004;0.076143794;-0.0328407;0.031348452;0.05931013;0.042692635;-0.015659094;0.10892695;-0.0060441135;-0.14698035;0.08310506;0.04172638;0.09004753;0.026858006;0.081297696;-0.044343334;0.06274544;-0.02925135;0.10124117;-0.06603612;-0.11384344;0.01928486;-0.067993134;-0.063933;-0.0048071984;0.072280444;0.021545373;-0.08934179;0.051053196;-0.037095416;-0.09813328;-0.031398773;-0.06357121;0.021396006;0.006249715;-0.05611728;-0.007212283;0.06877841;0.013279733;0.07996818;0.21126254;-0.015967509;-0.007345346;-0.038807925;0.02787255;-0.00834981;0.047355354;-0.024845123;0.071081586;-0.005781033;0.08492478;0.047395263;-0.19896755;-0.059960507;0.050942212;0.13318543;-0.055207632;-0.017076422;-0.17128661;0.13316083;-0.02587761;-0.020567808;0.1267396;-0.14581408;-0.31645125;-0.028852267;0.038270015;0.1315954;0.06822214;-0.064420305;-0.08283964;-0.03942793;-0.00891442;-0.13498405;-0.049176876;-0.044730026;0.05422461;-0.054041922;0.029261116;0.046520088;-0.052979346;-0.07784415;0.0792799;-0.005119481;0.04962949;0.039590046;0.057297334;-0.05909018;0.034032073;-0.07459809;-0.107480526;0.05913464;0.02783365;-0.018980067;0.069115296;0.09600819;-0.0038278901;-0.032961678;0.10652428;0.07619177;-0.097480275;-0.0027068225;0.042240415;-0.021421224;-0.0025907846;0.14187185;0.06383858;-0.04420573;-0.041918732;-0.019796303;0.011726513;-0.02050391;0.041350555;0.08563311;-0.12512526;-0.06643872;0.0750668;0.07340073;0.032051243;0.045085933;0.09608506;-0.06407287;0.012314505;0.068918854;-0.017580533;0.11398938;-0.07941507;0.017429378;-0.110476136;0.046703085;0.0849791;-0.060185224;-0.15928309;0.09540136;-0.08111638;-0.0309347;-0.05877099;0.016507305;0.036297772;-0.060878295;0.054019604;-0.0509008;0.015873658;0.02804831;0.064178966;-0.03722087;0.013893411;0.02503544;0.07955013;0.049090624;-0.11817502;0.03819112;0.061862774;-0.06809465;-0.033589512;0.032402065;-0.026400933;-0.058911975;-0.075909026;0.20722762;0.112396546;0.062975526;0.05337519;0.038968995;0.0340758;-0.093457446;0.06830574;0.064735144;0.07934829;0.13547209;0.057284772;-0.04749476;0.110546164;-0.07453779;0.019618407;0.05765027;0.026422149;-0.008604235;0.11738155;-0.040958248;0.0623835;-0.037947804;-0.042482913;-0.035928868;-0.2283737;0.026851887;-0.0104849525;-0.011522287;0.19694373;0.09882932;-0.03992557;0.0067946897;0.12653857;-0.106515676;-0.0257759;0.119993225;-0.026480416;-0.062775776;-0.06027414;0.06052895;0.08018453;-0.0076430305;0.06692915;0.0034833634;0.025323953;-0.04900564;0.14658804;0.0370441;0.105080485;0.008227206;0.0006446741;-0.07556471;-0.049513254;0.107369624;-0.051751018;-0.035567284;-0.2930433;0.054389436;0.17210294;-0.07242466;-0.07418006;-0.004764421;0.09187511;-0.30367732;-0.055143837;0.12868896;0.04910521;0.05603193;0.03587071;0.0105763;0.10332715;0.030905338;0.23731647;-0.038334202;-0.09412966;0.06541942;0.013946597;0.024475073;-0.057748187;0.06221104;-0.024972206;0.012084128;0.059412442;0.13841653;0.039557543;0.019575056;0.08649943;0.031738352;-0.0016563091;0.103268206;-0.010820421;-0.08305782;0.05215201;-0.008039848;-0.06443164;-0.006042166;0.14212292;0.10856157;0.03608121;0.031475034;-0.08234739;0.0020357699;-0.03229952;0.13879631;-0.070496894;0.07753161;-0.004364229;-0.16706401;0.0019197444;0.035451233;-0.01832478;0.24011637;-0.014431348;0.08065016;-0.09137826;-0.058476303;-0.03759417;0.012088134;0.025521174;0.081017986;0.014319411;-0.038463023;0.05512869;0.04733536;-0.032368504;-0.09943804;-0.03893907;0.0053519597;0.07936895;0.109345965;-0.094509594;0.024265401;0.027565954;0.17426372;-0.020311877;0.02960089;0.014638904;0.106496006;-0.028921789;-0.008477492;-0.09598806;-0.05392441;-0.022295661;0.07846464;0.014241068;-0.13801953;-0.01191678;-0.002693348;0.049804833;0.07802349;0.07452204;0.22650896;0.07480932;-0.04207945;-0.18264377;0.050227642;0.014884524;0.017565375;-0.014727081;-0.084444575;0.037961956;0.14088961;-0.03021812;0.16905123;0.03414719;-0.0005440191;0.080326885;0.029299755;0.10400016;0.10905785;0.072863154;-0.062196985;-0.24447842;-0.07181081;0.020136556;0.031041048;-0.029571477;0.093699634;0.007630171;0.017957643;0.05288331;-0.01724982;0.017974632;0.03454406;-0.062155392;0.011795125;0.06918253;-0.046199773;0.05428497;-0.06453775;0.088066265;0.122105464;-0.035226576;0.096038744;0.08719664;-0.02820773;-0.07930029;0.025437377;-0.008937959;0.103221655;-0.02922815;-0.040679246;0.093631886;0.0998393;0.025065817;0.10359316;-0.04517591;0.01834676;-0.19824117;0.28204906;0.040371936;0.051367216;0.13382077;-0.00019943723;-0.08103079;0.01616769;-0.05881776;0.08266987;0.0026742117;-0.019570542;0.05205203;0.05300951;0.050560296;0.013750569;0.14113279;0.06620346;-0.11140365;0.014665572;0.02656312;-0.010550706;0.055825233;-0.004878103;0.18258277;0.07447283;-0.19504225;0.07676077;0.084772855;0.013900766;-0.06565552;0.022027299;-0.0019464109;-0.19969058;0.16211513;0.16137232;0.016366785;0.11504876;-0.0935651;0.09097077;0.152002;0.014988903;-0.049216717;0.011559273;0.034975216;0.056628495;0.044643234;0.006313287;-0.07225047;-0.05460958;-0.021074967;0.068022855;-0.06369608;-0.17511745
0.13543232;-0.05832827;0.031643186;-0.1343006;0.031041026;-0.018538026;2.3760243e-05;0.028755121;0.08410531;0.087870084;-0.05033973;0.16610378;-0.030023094;-0.0072618327;0.06841195;-0.011601262;0.004225733;0.04679234;-0.040068086;0.04104988;-0.046738982;0.07952222;-0.03237947;-0.019028606;-0.066948965;-0.02865229;-0.18580161;0.07601904;-0.054067247;-0.048613597;-0.04850202;-0.02040455;0.021359889;0.044248383;-0.00081978645;0.044061404;-0.06162238;0.00022517599;0.03143533;0.079823986;-0.0067215944;0.020206023;0.040336013;-0.041932747;-0.02833341;0.020608312;0.09009207;-0.06112785;-0.009155783;-0.15976952;0.20164043;0.03504469;0.1600882;-0.04204207;-0.0307169;-0.38328758;0.066724844;0.023797695;-0.17456289;-0.039864182;-0.112600945;-0.065682605;-0.058800064;0.06252028;0.08353514;0.08205836;-0.23435614;-0.13796842;-0.12766998;-0.068214834;-0.10723099;-0.043734454;-0.02738593;0.019052053;-0.07235764;-0.017434418;0.16164377;-0.050192703;-0.17547196;0.026360754;-0.043526344;-0.18083835;0.20192415;0.015517464;0.043399647;0.04003399;0.019399125;-0.007824283;0.031274397;0.019710315;0.003740306;0.33750358;-0.13658224;0.039596207;0.008895394;0.029256206;0.0008165782;0.07679522;0.11036367;0.0017453597;0.17971198;0.085029304;0.28490052;-0.08520995;-0.0038082043;-0.074804954;0.020193812;-0.23149869;-0.0770676;0.0053395773;0.007175967;-0.0027792426;0.035459485;0.04665205;-0.06381729;0.027091067;0.05330106;0.10800968;-0.1168226;-0.049857058;-0.0025208937;0.09326307;-0.35867408;0.023527976;-0.01278164;0.022110073;0.044564094;-0.0039942944;-0.098648824;-0.09530329;0.0070059295;-0.061512172;-0.049551927;-0.05574999;-0.15026298;0.05913703;-0.027111469;-0.0470419;0.004018969;0.0013032065;-0.048908222;0.045135517;-0.09197588;0.030441184;-0.021975834;0.008575569;-0.11685667;-0.014601141;0.041966926;-0.06655731;0.030497568;0.09870709;-0.012931895;-0.029834297;0.010516581;0.10324018;-0.011105472;0.119956054;-0.052042566;0.20155707;0.10075187;0.09675431;-0.09265493;-0.15346475;-0.14679179;-0.045278426;0.07874527;0.041405354;0.018316807;-0.058065165;-0.07751533;-0.08805241;-0.02184909;-0.056426283;-0.16468632;-0.09606216;0.031956516;-0.045908183;0.12555696;-0.03704204;0.11119124;0.019199649;-0.041384816;-0.16991755;0.053681787;-0.024403676;-0.04933339;-0.027925998;-0.06371118;-0.06943248;-0.018910283;-0.03678181;0.04398448;0.021260343;0.16722664;-0.07344391;0.051395107;0.10656616;-0.07619559;-0.09262384;-0.045528576;-0.023721548;-0.10623174;0.0038752172;-0.24959052;0.009619211;-0.28642872;-0.04288958;0.036936067;0.31210718;0.08327206;-0.064886294;-0.09747287;0.01762341;0.1024784;-0.1502068;0.16154937;-0.29261568;-0.37754524;0.019562714;0.041958872;-0.13383889;0.077359326;0.0020393322;-0.07385348;0.02391303;-0.020806985;-0.14327759;0.04806032;0.033952862;-0.05523363;0.09129711;0.025790535;0.03054042;0.051117793;-0.060862236;-0.06913109;0.033055823;-0.06070212;-0.05891408;0.154679;-0.013287899;-0.03059061;-0.014254148;-0.0853606;-0.03743513;-0.052630488;-0.05462922;0.015291189;0.10819664;0.05060491;0.10663388;0.013775408;-0.020654155;-0.13031536;0.13204989;-0.02793463;0.040419143;-0.04795692;-0.123475805;-0.034470975;-0.07656405;0.02915194;0.066575006;-0.11787549;-0.074674286;0.06003286;-0.1647487;-0.10149111;-0.0117327925;0.074697815;-0.04709983;-0.006044036;0.0007437649;0.07720057;-0.067977235;-0.04735495;0.04283994;0.044424478;0.09045421;-0.12659661;-0.016901722;-0.04680171;0.11393854;0.0044091926;0.03378093;-0.19821583;-0.046079822;-0.0049390444;-0.01680395;0.028117139;-0.038886946;0.29522395;0.01899039;0.010505643;-0.06409885;0.064680934;-0.014856406;0.038819008;0.08262613;-0.01002978;-0.05342937;-0.04672621;-0.0055878395;0.12377979;0.050634746;-0.042614568;-0.034969177;0.01804166;0.03628029;-0.011404015;-0.022189666;0.053653244;0.15887475;0.07438336;0.03277408;-0.04145762;0.028965648;-0.04378761;0.0040150126;0.037530225;0.15882891;0.07857406;0.05138828;0.05296687;0.030824138;0.09541426;-0.02448792;0.0031923002;0.043400392;0.066055626;-0.0064958776;0.042825997;-0.07855764;0.07340921;-0.12272317;-0.053253736;0.048447005;0.024335185;0.016664192;-0.10361895;-0.07934628;0.20315535;0.06107086;-0.07758961;0.027026663;0.04638686;-0.042247117;0.0982183;0.00086781307;0.010096655;0.045626365;-0.099435546;0.10004536;0.0853884;-0.009221711;0.09724188;-0.04097774;-0.046994265;-0.035148375;0.09548377;-0.08494531;0.11106771;-0.078653105;0.10193854;-0.10397576;0.018693736;0.097200535;0.017669085;0.028171722;-0.26678595;0.04507087;0.14738834;0.055339687;-0.0529532;-0.067317374;-0.035036467;-0.20214248;0.013851853;-0.034317203;0.06410738;0.06312025;0.0700213;-0.063435815;-0.0064989515;0.009292052;0.14918537;0.014288168;0.05298366;0.12011776;-0.045730572;0.10084027;-0.074276075;0.07376924;0.08099082;0.06426617;-0.11880486;0.06381165;-0.007493431;-0.006776181;0.06887447;-0.055886243;-0.025252586;-0.055656597;0.0072537265;-0.010923342;-0.017928952;-0.0899361;-0.016299453;-0.12988149;0.10888487;0.13834788;0.04508689;-0.097159885;0.016022999;0.018234823;-0.016952135;-0.055692624;-0.093398884;-0.031462844;0.086612225;-0.23143083;-0.19380738;-0.09228969;0.0990275;0.23332448;0.035424702;-0.0062591066;-0.014799151;0.004331514;-0.036941428;0.07742679;-0.01021465;-0.07275804;0.022681873;0.008883572;-0.028417693;-0.06253936;-0.0007830773;-0.06953536;0.028344076;0.021362036;-0.003085222;-0.048983186;-0.010971296;-0.026844643;0.025968991;0.0061461986;-0.056959715;-0.0961105;0.013087738;0.14595842;0.081027456;0.037883654;0.019235425;-0.069241576;-0.083975784;0.26738143;-0.028650308;-0.11479927;-0.012632055;-0.027569817;-0.07626049;-0.095563665;0.055888146;-0.010945267;0.031547625;-0.039459333;-0.2645594;0.09598941;0.2584492;0.038786065;0.08083166;-0.031147262;0.059302494;0.06723356;0.016086876;0.17832378;-0.06261026;0.06691878;-0.09623277;0.05422304;0.0412258;0.18550818;-0.061720997;0.01835166;-0.22953784;-0.034027886;-0.085877754;0.055675168;0.025903393;0.046544336;-0.0223249;-0.08604927;0.053361338;-0.014977452;-0.0015483098;-0.09477808;-0.08645895;0.016299296;0.110667735;0.04975774;-0.17659132;0.09882098;0.033964604;0.20666803;-0.042180393;-0.023879783;0.037315603;-0.05819676;0.06565393;0.02742126;-0.07929069;-0.0423565;-0.12737124;0.04688054;0.0040917536;0.00654829;0.06712117;-0.02698968;-0.06317547;0.024901405;-0.24576989;0.16124664;-0.07840179;0.0022928219;-0.055438913;-0.0028879452;-0.00069496233;0.04173539;0.008834508;0.061415575;-0.08484209;-0.023998654;0.10451414;0.06567763;0.096204914;0.11487134;0.08151716;0.031039406;-0.09695312;-0.110558085;0.039263017;0.03143166;-0.067931615;-0.23392715;0.035771508;0.051139347;-0.025832178;-0.051279176;0.007970373;0.0017324443;-0.070580356;-0.087736905;0.06309447;-0.1997886;0.07542949;0.03904629;0.025448851;-0.17214209;-0.028283482;0.024676234;0.13752808;0.0420225;-0.007887279;-0.010909811;-0.0732163;-0.11110163;-0.19542952;-0.018456351;-0.0096994825;-0.09086788;0.068168156;-0.07726307;0.032534886;-0.0049931784
0.08696265;-0.02483832;-0.033091757;-0.2427691;0.1028769;0.039727967;-0.052774858;0.07803423;0.14806037;-0.11799297;0.14041135;0.1427158;0.00050456886;0.08467465;-0.07116252;0.05227747;0.15381706;-0.1527742;-0.027967045;0.027562913;-0.01841737;0.07095126;0.049411096;0.03479537;0.04437927;0.035925318;-0.14719196;-0.021931196;0.01918081;0.06664345;-0.039028596;0.06305518;-0.022859503;-0.048749533;0.007845184;-0.04422422;0.04554188;0.003137949;0.09810412;-0.081132054;0.059829157;-0.08948788;0.021301992;0.09060757;-0.14842398;-0.12964095;0.121005885;-0.06569247;0.049681995;0.020462232;0.17294678;-0.063888386;-0.03674839;0.073581554;-0.34159794;-0.18450183;0.10378407;-0.1135807;-0.3157246;-0.04383966;-0.024751429;0.15511812;0.07613468;0.0006034534;-0.04249717;0.0660446;-0.037039742;-0.023149583;-0.050391085;-0.06746861;0.019843174;0.08972013;-0.006197535;0.00046677853;0.12267684;-0.08370067;0.08274732;0.004252613;-0.0029167105;-0.15911159;-0.013681352;-0.13854367;0.10317103;-0.0017698138;-0.18277697;0.13594688;-0.048486248;0.20897073;0.085010596;0.027487595;-0.013867461;0.10326639;0.036001034;0.06135238;-0.008588284;-0.07148426;-0.07796228;-0.019176697;0.08832144;0.0037384417;0.19492824;-0.069295034;0.058825783;0.026068699;-0.03559014;-0.05493274;0.06236048;-0.02400791;-0.008915107;0.029370667;0.02720791;0.064020686;-0.06659218;-0.11338162;0.06766097;0.011041028;-0.036617562;0.061427787;0.048439924;0.0043761265;-0.037368577;0.090633094;-0.036691986;-0.03852343;0.044905167;0.091250375;0.10073027;-0.021946082;0.051250286;0.08154786;0.06850672;0.12850402;-0.11826397;-0.06310617;-0.06083078;-0.041888017;0.01451351;-0.1082725;0.036647923;0.09261669;0.023832696;0.022845788;0.018464752;-0.045964036;-0.1391872;-0.018682247;-0.14111006;0.049623657;-0.06927309;-0.020717034;-0.056611024;0.0071413834;0.032567408;-0.053622916;0.062053025;-0.010818084;0.019500555;0.06933793;0.048981145;0.11030759;0.024209635;0.13221282;0.09805152;-0.07583803;-0.07950425;0.047321673;0.024831379;-0.06818801;-0.14076218;-0.06506677;-0.036867347;-0.0072700153;0.052762058;0.023313645;-0.060066536;0.0020749767;0.014037361;0.03189483;0.04542307;0.030408574;0.13776542;-0.2065314;0.082972765;-0.03416926;-0.024870949;-0.06318672;0.08980131;0.03619468;-0.041014254;0.08901713;0.046184503;0.052281547;0.06282645;0.037903447;0.095596366;0.0020106942;0.058625042;-0.053298697;0.010473814;-0.0054640276;-0.040550325;0.006991801;-0.06673306;-0.026209008;-0.10784921;-0.09189468;-0.1331557;-0.15055868;-0.02186006;0.21910277;-0.03442241;-0.04157316;0.0048672925;0.08456212;0.051865004;-0.073036596;0.25123686;-0.08582211;-0.22146022;-0.015116494;-0.042755146;-0.013779288;-0.046812806;0.093735345;0.031821817;0.027050104;0.072280295;0.05089005;-0.0052191764;-0.09622786;0.0119848875;0.018223356;0.0058015925;-0.13143668;0.06787747;0.020278811;-0.057498697;0.028167717;0.039478865;-0.0020045058;0.077542186;-0.061906185;-0.08189157;0.029104836;-0.15984847;0.06142767;0.09113456;-0.06592672;0.012703956;0.08177818;0.037681974;0.1118953;0.013964856;-0.013073533;-0.06828719;-0.11841992;-0.020644536;0.007604681;-0.11181461;-0.08152659;0.014249352;-0.007454941;-0.07897416;-0.04050063;-0.063704394;0.06578263;-0.06183241;0.10306126;-0.15431966;0.006674843;-0.08925892;0.025864407;-0.03209203;0.0681067;0.012355539;0.11777889;-0.19710314;-0.005278635;-0.04917607;0.16282222;-0.0359821;0.009243706;-0.0023508782;-0.032905705;0.091752514;-0.04941048;0.045322068;0.00527806;0.011176532;0.03672831;-0.057098836;-0.045739193;0.21261704;0.015716188;0.016855204;-0.00025581903;-0.025963103;0.047998343;-0.06415439;-0.037189778;0.006627041;0.11409035;-0.012811944;0.030343637;0.039161146;0.07599615;-0.051984053;-0.014274711;-0.04676764;-0.06307488;0.047767203;-0.047948327;0.044197474;-0.13642728;0.017857678;0.041341163;0.024848357;-0.029284662;-0.059477013;-0.038392246;-0.0027611824;-0.019364309;-0.019855712;0.004716355;-0.01917389;-0.06303969;0.12893634;-0.007935688;0.001988921;0.08098276;-0.049048807;0.07968906;-0.08966651;0.04635504;-0.09470746;-0.22483791;-0.13199537;-0.042460773;-0.080509014;0.026273727;0.01629467;-0.068547495;-0.08274688;-0.012998704;-0.041974314;0.010565823;-0.13545269;-0.048564777;0.053737625;-0.049302038;-0.040045783;0.008899622;0.093790464;0.023620851;0.02519098;-0.07742052;-0.01069861;-0.045770753;0.09775705;0.07509495;0.14939223;-0.028316932;-0.105100505;-0.02356601;0.051282264;0.0011496687;0.05271078;0.009189803;0.055396028;-0.021373702;-0.14708415;-0.024110077;0.050020844;-0.22782877;-0.10205772;-0.06327826;0.056126826;-0.13427559;0.07878747;-0.078545004;-0.044308662;-0.06497792;-0.05474603;0.039469544;0.0059012356;-0.07432959;0.12720972;-0.014827045;0.10133757;0.0053114155;0.049950358;0.052470542;-0.005758417;-0.0069852355;0.022390252;0.05248416;0.026992518;-0.060718894;-0.0580142;0.08348831;0.006316803;-0.023733083;0.033955906;-0.04880215;-0.025909828;-0.13990915;-0.028044429;0.0050742505;0.044143412;-0.06487006;-0.009084313;0.1295219;-0.024346134;-0.023675274;-0.021531986;0.02856348;-0.068561174;-0.025374642;0.05080954;0.07544238;0.04610869;-0.15240678;-0.25998282;0.034417838;0.10545751;0.09806001;0.030898692;-0.0001568138;-0.2073995;0.07163208;-0.042704236;-0.007730849;0.022374652;0.095616184;0.025447942;0.016755285;-0.0025656987;0.037377134;-0.027605936;0.16103332;0.056213398;-0.023899589;0.033416294;-0.035373606;-0.11834861;-0.04434958;0.05565531;-0.08731778;-0.10495382;-0.059494495;0.008011324;-0.12932636;0.0053352327;0.13345581;-0.083893344;0.011692227;0.1603282;0.055417355;-0.034740895;0.0031861307;-0.012711021;0.10179651;-0.06427643;-0.00078725023;-0.039289966;-0.013818551;-0.015876526;0.008014102;-0.08528408;0.017028501;0.11724785;-0.09355664;-0.058576625;-0.10181899;-0.039440334;0.0068513877;-0.12746362;0.11225922;0.06598681;-0.0397632;-0.011113225;0.042019717;-0.029448537;0.090757295;-0.009991053;0.0479371;-0.17514485;-0.00753523;-0.07064599;-0.017635608;-0.0883112;0.06389969;0.1042763;-0.062414948;-0.020094879;0.07455646;-0.016079493;-0.14868195;0.04447783;0.06264345;0.072357;0.043874003;-0.1050934;-0.03047417;0.06661464;0.056442846;0.008440144;0.0072542923;-0.047637068;0.08396797;0.019561615;-0.007686976;-0.0275538;0.06473042;-0.09661797;-0.046723325;0.08645118;-0.035790563;-0.013525933;-0.08864803;-0.043507837;0.015311071;-0.27930993;0.07393352;-0.063977845;0.016701678;-0.001282183;0.0073855696;0.07887142;-0.08856855;0.07422974;0.003153357;0.021300592;-0.0745795;0.043035872;-0.070583805;0.08541974;-0.06650157;0.112770125;0.049110726;-0.11865766;-0.17879185;-0.018651083;-0.0079737725;-0.07487118;-0.11701879;0.22548531;-0.009385566;-0.3661351;0.008798198;0.036595643;0.022677181;-0.10031772;0.03427206;0.01281448;-0.2366786;-0.019212328;-0.010238773;-0.012216027;-0.093956515;-0.08145806;0.08620748;-0.04278362;0.029964838;0.066718444;-0.022156393;-0.025190432;0.1007719;-0.23330675;-0.006986766;0.022642521;-0.07589229;-0.07501726;-0.057217803;0.11878639;0.12534872
0.010241902;0.020584263;-0.03338671;-0.15953736;0.093364455;0.033779092;0.024104942;0.053161398;0.17971964;-0.08076914;-0.02471066;0.24165556;-0.01060177;0.04079685;0.028067557;0.050907176;0.07481037;-0.02231632;0.02274896;0.009764143;0.00017669803;-0.048954543;-0.0015290956;-0.03678492;-0.052626934;0.018571543;0.0721099;-0.04119837;-0.106158406;-0.015151989;0.05666992;-0.07018704;-0.042642653;-0.07114212;0.24888197;0.0772985;-0.039020352;-0.08370142;-0.040034864;-0.006422743;0.08199186;0.045370813;-0.14741723;0.0903028;0.091513366;0.04919195;0.021076936;0.062714614;0.16899;-0.019913625;0.08599187;0.06367108;-0.06953476;0.014834947;-0.13016641;-0.18322359;-0.06250502;0.02940295;-0.13219604;-0.08028391;0.06470917;-0.01930661;0.09075372;0.078711264;-0.026958415;-0.0014457172;0.12719701;0.055165414;-0.01638025;-0.06943303;0.0047766073;0.048678786;0.06149419;-0.0037111915;0.16922961;-0.006020204;0.19282107;-0.010099248;0.17037246;0.017169021;0.04955321;-0.06332924;-0.0372037;0.025453748;0.031782538;-0.07230895;-0.019671861;-0.014888284;0.019363863;0.019204283;-0.0056935376;0.014912735;0.008341866;0.08504659;0.036030155;0.026755108;0.11547331;-0.08464493;0.047189392;-0.069404155;-0.06528652;0.03733201;0.120622806;-0.13010071;-0.082120225;0.0011129606;-0.020590935;-0.06403005;0.007879911;0.015740247;0.04237051;0.08330765;0.06742437;-0.12173987;-0.038028337;0.005002609;-0.031067489;0.042970676;-0.094285175;0.046391927;0.02164146;-0.030058973;-0.21100129;-0.011762214;-0.104052626;0.024132987;-0.0032059683;0.012986157;-0.028569348;-0.04835345;-0.054490507;-0.2526172;0.08097828;-0.06746695;0.06666063;0.07375176;0.04140286;0.0492053;-0.033577815;-0.047846448;0.016305115;-0.05528783;-0.07435758;0.07165638;-0.048010558;0.05139219;-0.11734003;0.10417082;0.0091996165;-0.061957285;0.034808714;0.07721488;-0.06933591;0.10960571;0.08980235;0.08502063;-0.0897535;0.029614707;-0.056975864;0.06722119;0.013756703;-0.051732186;-0.016741438;-0.15076217;-0.08038538;0.051139396;-0.03702748;0.14132023;0.086264834;0.014121596;-0.1616979;0.077160485;-0.06232804;-0.04207174;-0.10702766;0.012814488;0.004662364;-0.0431633;0.15761015;0.005208836;0.08250754;-0.020492416;-0.018048737;0.015562138;0.025789332;0.10670046;-0.0407969;0.087109275;-0.027651142;-0.10629369;0.021218246;-0.015851531;0.20590863;-0.019990128;0.22459361;0.08051837;-0.06409831;0.038997184;0.036203172;-0.11708108;-0.002826507;-0.03397336;-0.08686842;0.053688634;0.14404805;0.07625953;-0.111740604;-0.1305878;0.09595698;0.0034141724;0.0026648827;0.018785495;-0.18406878;-0.002586007;0.03229623;-0.14668202;0.11238984;-0.14882465;-0.36136457;-0.022306053;-0.003472684;0.04974175;0.09244172;0.00012420084;-0.06559799;0.032766864;-0.020240761;0.03765089;0.091259554;-0.02469892;-0.047371976;-0.03763528;-0.0360543;-0.16222972;-0.061669774;0.06763407;-0.07242317;-0.0439371;0.0629944;0.06370412;-0.046661865;-0.062555164;0.023537388;-0.06159529;0.007686991;-0.13748142;0.02724962;-0.08160123;-0.04283679;-0.05411588;-0.048614632;0.0066621155;0.080385976;0.060206402;0.0048112846;-0.12139735;-0.112277456;-0.020460846;0.074423015;-0.033093367;0.015821107;0.024500538;0.050226167;-0.08312568;-0.07539988;0.048238322;0.015666068;0.087819815;0.09020166;-0.049428407;0.08282345;-0.0818965;0.003624397;0.13812649;-0.05558401;0.051663514;-0.052414518;-0.0078011667;-0.05645958;-0.044535577;-0.24018754;0.022755163;-0.089121096;0.029833196;-0.05930978;-0.035869516;0.0038194195;-0.041105032;-0.022801453;0.0033264;-0.12614867;0.10315245;0.11396326;-0.07084587;0.09502901;-0.0023819217;-0.047128476;-0.04568576;0.07578137;0.017453777;0.08918972;0.019518789;0.015512356;-0.049156427;-0.045237053;0.055074114;-0.058572;-0.028076638;0.10315246;0.10187206;-0.070610866;0.1183316;0.034950495;-0.19287442;-0.004756917;0.039708078;0.024449734;0.0762896;-0.0602557;0.015308716;0.022852572;-0.04210688;0.051405113;-0.044504043;0.029910205;-0.01744468;0.008473891;-0.05952454;-0.038885213;-0.0033702415;-0.018676288;-0.04908578;-0.11699152;-0.09004964;0.076351285;-0.009178804;0.09043349;-0.06435754;-0.03258899;0.117444694;0.112884626;-0.06587173;0.022320991;0.09227106;-0.06683371;0.053820346;-0.24185924;-0.031885736;0.019041682;-0.08329029;-0.019739367;-0.0880752;0.029081432;0.024125447;-0.05788559;-0.06777933;0.001130207;0.0015490843;-0.038097568;0.016615545;-0.017170886;0.035338685;-0.039335415;-0.054981764;0.093780324;-0.049897335;-0.015866036;0.08534031;0.027917776;0.010741428;-0.16413917;-0.039540306;0.05893201;-0.12177256;-0.024732789;-0.0046559963;-0.071363874;-0.07526437;0.028641146;0.11187519;-0.062964596;0.031969327;0.02810634;-0.080046624;-0.05571372;-0.053292297;0.19301906;-0.009350762;0.062447693;0.12384624;0.035985548;0.08719021;-0.021970637;-0.017230183;-0.07101492;0.052627794;-0.0042282874;-0.023800509;-0.15887402;-0.03059827;-0.006514795;0.04265915;0.052889146;0.04635433;-0.1311705;-0.16993183;-0.02931355;-0.11480101;0.030291859;-0.08998749;0.057572067;0.09993606;-0.024755012;-0.039035775;0.072739206;0.09041961;0.060642093;-0.073522866;0.036208555;-0.046343036;0.068953365;-0.20673235;0.028032834;-0.065057285;-0.08828076;0.13994955;0.056028962;-0.087581076;-0.1933793;-0.030627187;-0.047948472;-0.027468009;0.02204549;-0.07384479;0.026053263;0.05527608;-0.054365255;0.0072235903;-0.07843413;0.050836843;-0.026968278;0.007252616;0.067366466;-0.029423581;0.13140167;0.004618318;0.1230789;-0.027798912;-0.06245538;0.083873056;0.15951665;0.024178132;-0.07093387;-0.00028147054;-0.028115818;0.048694633;-0.055837415;-0.15311602;-0.08995739;-0.03457546;0.04255638;0.03217271;0.02108176;-0.015394012;-0.012977755;-0.000591146;0.09224775;0.015550201;-0.06848302;0.058620166;0.16312435;-0.0034460698;0.010229954;-0.11270262;-0.039302662;0.009417597;0.008608859;0.1678384;-0.048231177;-0.011201486;0.07076914;-0.032187007;0.059483264;0.20628479;-0.036925472;0.037244983;0.08126345;0.06913052;0.047288854;-0.068855055;0.0046878383;-0.040604133;-0.029265579;0.0083175665;-0.07704057;-0.0038463913;0.0041945837;0.060626533;-0.021394357;0.0017299821;0.11972762;0.093348734;0.032984428;-0.012288621;-0.076235436;0.0011153566;-0.02509925;0.12768902;-0.13125646;0.0063152807;-0.17890616;-0.07037452;-0.10127543;0.017537106;0.076600775;-0.003653699;0.08987716;-0.014048048;-0.04247744;-0.04259335;0.052692592;-0.051602863;-0.14310664;0.13763735;0.08544947;0.039402656;-0.0921341;-0.055037178;0.11173658;0.07940449;0.051477145;0.05006469;-0.13008437;0.049024932;0.049475767;-0.050947025;-0.024794774;-0.0035915629;-0.04595162;0.04518466;0.08682938;-0.031172486;0.02647262;0.0431449;0.079908885;-0.2751097;0.13936783;0.0347643;-0.036361452;0.02764796;0.12021996;-0.056445528;0.093811505;0.04795258;-0.02688334;-0.067987405;0.06470838;0.1394725;0.0142364595;0.013949828;-0.024579484;-0.05647909;0.060106546;-0.049499422;0.066932574;0.0950572;-0.067480996;0.049106948;-0.16892949;-0.11740714;-0.0846437;-0.0612437;0.016230118;0.020246252;-0.08755669;-0.03629492
-0.037872855;0.044556193;-0.0077781496;-0.27081418;0.0635592;0.0779781;-0.05488885;-0.077055566;0.1689338;-0.07728271;0.10534398;0.18354;-0.110184476;-0.03282266;0.034329988;0.08112396;0.073017195;-0.015038985;-0.060506325;-0.0077369353;-0.03331327;-0.052290265;0.10068518;0.0630081;-0.022483721;-0.011309184;0.10782059;0.031686217;0.02540236;0.0077581583;0.059438862;-0.0019655663;0.03278862;-0.066797756;0.13981761;0.045122486;0.03726382;-0.041269;0.04630805;-0.01171453;-0.0050155804;0.06300814;-0.06708424;0.020931289;-0.043780997;-0.0072754626;0.029813003;0.043679148;-0.046682425;0.10206904;-0.018184612;-0.06749568;-0.22378992;0.012127207;-0.027310463;-0.3302358;-0.025063932;0.022768678;-0.07368718;-0.043075264;0.023512742;0.0011770402;-0.014325561;0.02660599;-0.09747863;-0.08962978;0.21311621;0.12286073;0.07205866;-0.029515885;-0.02908438;-0.001791771;0.064999476;-0.009994401;0.05581475;0.083519116;0.04119138;0.13528904;-0.027137155;-0.004571185;-0.060014594;0.075441174;0.063779466;0.05269035;-0.06857926;0.051095866;0.01797111;0.1508331;0.08089549;0.06539185;0.053354945;-0.17788397;0.10545008;-0.01800199;-0.005816714;0.0407783;0.0333611;0.072519116;0.061707992;0.062703654;0.013376136;0.05228061;0.052024204;0.021762984;-0.053246208;0.03329638;-0.031631745;-0.035078533;0.009165779;0.031293582;-0.07267994;-0.023155991;-0.046916552;-0.0033636233;-0.027029455;-0.0088033285;0.07121362;0.014741658;0.12926885;0.0078778;0.03538604;0.017045576;-0.04540938;0.0418503;0.060591973;0.00565266;0.007252207;0.06027561;-0.054958683;0.009120606;-0.05272612;-0.29738608;0.010749107;-0.016476037;0.0026208742;-0.033022016;0.038260125;0.035289988;0.0335157;0.00745965;0.0797919;-0.022731021;0.06366132;-0.080955245;0.02242112;0.092715286;-0.09600585;0.030894907;-0.030734137;-0.006308038;-0.07945522;0.08049882;-0.037477367;-0.051503662;0.051382463;0.06046763;0.05263567;0.085224696;-0.05071563;-0.12821129;-0.021023808;0.046656605;0.0068547833;0.005761462;0.09992671;-0.08125451;-0.09719827;0.037118685;0.0122283315;0.023065234;0.003232258;0.055751;-0.08316223;-0.017128663;0.13418257;-0.03825188;-0.034890395;0.07006193;0.16817681;-0.048135076;0.00077894586;-0.20190243;0.03362961;-0.028187964;-0.024865061;0.052628264;0.04856738;0.049627203;-0.016553247;-0.104231216;0.058744762;-0.01321247;0.11710586;0.011958219;0.22225933;-0.049074214;-0.08436188;0.10018342;-0.07936845;0.02842873;-0.06089371;-0.07091111;-0.06326722;-0.03455763;0.107423425;0.06565551;-0.15570267;0.07771023;0.020767143;-0.10037892;-0.048329048;0.007921987;-0.06991926;0.030980133;-0.07565813;0.14483808;0.067177586;-0.078218654;-0.19178349;0.042003483;-0.0019899649;0.08963844;0.058480956;-0.07231012;-0.014929071;-0.0039276984;-0.03768921;0.054844614;-0.0136334;-0.00649604;0.027623128;-0.029148998;0.024881836;-0.15345359;-0.014961469;-0.028392807;0.0061806957;-0.016125305;0.0800056;0.0336935;0.05166024;0.012733554;0.02597209;0.05137443;0.15035264;0.047595378;-0.08915902;-0.0020411946;0.036322236;0.003398458;0.07913851;0.09557081;0.080014594;0.09297218;0.12867056;-0.25538757;0.03398627;0.041062374;0.024181383;0.12429983;-0.027133247;0.014538872;0.064791925;-0.020875117;-0.0058520013;0.012726558;0.039011575;0.058095858;0.12111998;0.13854548;0.07334887;0.019417223;-0.04207092;0.07846089;0.096541494;0.15388583;0.10348633;0.028084828;-0.012903921;0.014537488;-0.012572022;-0.037453543;-0.10297602;0.0048123114;-0.043671392;0.04914551;-0.01662397;-0.03994411;-0.037555806;0.020548252;0.030641785;0.15532252;-0.12600926;0.08605355;0.047565784;-0.03177797;-0.052181505;0.034125086;-0.088064685;-0.13558672;0.060990408;0.061047837;-0.027499799;0.022040589;-0.23176463;-0.04620079;-0.06705779;-0.049311288;0.0590244;-0.026527682;-0.040758826;0.07202345;-0.045011032;-0.1862735;-0.124569304;0.01932299;-0.0007757485;0.05639772;-0.051989295;-0.043951508;0.005188058;-0.24964574;0.005673705;-0.17629811;0.07532994;0.0826886;-0.022680184;0.013573272;-0.06394211;0.014822113;-0.003691275;-0.048072387;0.026391285;0.0036553573;-0.044056088;0.0527273;0.0042012213;-0.074619286;-0.17006594;-0.090761125;0.06032744;0.11879949;-0.08536496;0.03821761;0.01312668;-0.027651457;-0.049981527;-0.018270774;0.07341123;-0.045298293;0.027239082;-0.0040604104;0.006162617;-0.041102655;-0.05413959;0.080407366;-0.00080922176;0.0667313;0.03516575;-0.025514215;0.05835411;0.1329974;0.09068445;-0.0075093484;0.08880823;0.04691662;-0.064756244;-0.05974479;-0.059901226;-0.02520716;-0.100503705;-0.07850347;-0.021759043;0.02695977;0.06976009;0.0139288;0.042646676;-0.016120402;-0.02362662;0.0038346287;-0.06503504;-0.031191366;-0.028942892;0.0020068598;0.0805843;-0.025426405;0.115219906;0.016791627;-0.039971724;-0.04105822;0.0042506806;-0.022896532;0.05606315;0.06229809;-0.042252686;0.023427138;-0.02233291;0.05883526;-0.04027328;0.075120516;0.0040994063;-0.031736974;0.07472701;-0.055235732;-0.0151056945;0.13981466;-0.08027722;0.0021236609;0.086323924;-0.055149943;-0.1480598;-0.049553234;0.04025046;0.079845466;-0.02118529;0.08226028;-0.02087519;-0.06391319;0.02191195;-0.026881985;0.0059260293;-0.16810192;0.044158906;-0.036279857;0.03808365;0.010336418;-0.046965912;-0.07820722;-0.15305185;0.027868593;0.103044525;0.075457;-0.0061870073;0.0025659634;-0.054912746;0.028483247;-0.026648615;-0.017740497;-0.024461674;0.03401448;-0.014013131;-0.015784644;0.05820332;0.047218394;0.12183688;0.085555606;0.12895037;-0.013652952;0.08210416;-0.07315979;0.030233836;-0.018942822;-0.006101233;-0.016047003;-0.14052063;-0.09611274;0.014199302;0.05199615;0.048646446;0.022414723;-0.009751034;-0.042375028;-0.053271294;-0.054039333;0.08796247;0.083971456;0.07461199;0.06802754;0.036122885;0.11642196;0.05711173;0.045715984;-0.03990865;-0.14046448;-0.01643942;0.072342694;0.06685683;0.10594267;-0.045098167;-0.0028590038;0.21581274;-0.03680559;0.04019356;0.14810568;0.029908763;0.028250147;0.08285046;0.0488835;-0.090457246;-0.04480366;-0.0057722586;-0.008571041;-0.04541303;0.017099673;0.0024409995;0.08025315;0.030139383;0.008183347;-0.008882147;-0.0450228;0.11085633;-0.07604486;0.0017340215;0.086160846;-0.014018442;0.0034638548;0.014665482;-0.021054097;0.022959068;-0.04276853;-0.11952782;-0.03634723;-0.05964481;0.008603962;0.124904655;-0.05627945;0.06479146;0.10196864;-0.032676883;-0.021725172;-0.09008951;-0.06926383;-0.17103674;-0.0032452187;0.10105746;0.0035608097;0.08453107;-0.066862576;0.09557558;-0.01204479;-0.01525217;-0.08981494;-0.1500299;-0.013148569;-0.058630165;0.058754932;0.046342637;0.010842635;0.031446017;0.13634513;0.16147682;0.021585308;0.05363177;0.047492158;0.05964487;-0.30614033;0.02231284;-0.007203867;-0.042998277;0.052655175;0.016357733;0.03606601;0.07840279;-0.033623308;-0.00789033;0.13031214;0.008514349;-0.03370268;-0.022270005;0.08635395;0.038672846;-0.0150187705;0.0088299345;-0.08673243;0.022808341;0.088961154;0.055339903;-0.070363924;-0.058969144;0.013960574;-0.061987076;0.025677733;-0.08772576;-0.05645527;-0.012513228;0.034800917
-0.03312225;-0.0643798;0.07823609;-0.1862862;0.128538;0.004528309;0.017533937;0.048502013;-0.03987553;0.031968568;-0.0020789101;0.12210748;0.0028045268;0.023642153;-0.07129979;0.08920079;0.2025394;-0.04904538;-0.050184987;-0.0043682423;-0.043546107;0.05839154;0.05219851;-0.032338694;0.06809385;0.06325594;0.0454488;0.009220672;0.13449043;0.032621272;-0.07270733;0.12661844;0.009455567;-0.038270213;0.115466535;-0.022709357;0.06569697;-0.04848839;-0.0017161062;0.054639205;0.016654018;-0.010716683;0.07836359;0.064124376;-0.018785866;0.04046376;0.053723056;-0.05413044;-0.049723372;0.13279366;0.11461765;0.06624072;0.10743441;-0.064012185;0.07781619;-0.18971573;0.034770623;0.016288962;0.061106488;0.01828324;0.05952353;0.102265924;-0.021824839;0.04339496;0.01187521;-0.063814744;0.025179746;-0.042933676;0.013649486;-0.055652313;-0.018991655;-0.028799703;0.06682568;-0.075776994;0.016432388;0.015224589;-0.062557675;0.047568034;0.10229486;0.03064431;0.019398345;0.11626466;-0.14155316;-0.097796924;0.015359289;0.09732327;0.074062966;0.0048073246;0.015624444;0.03191398;0.0035572888;0.024884839;0.035130665;-0.021196958;0.06177385;0.06198883;-0.008432598;-0.07959921;0.1109623;0.08444346;-0.0032721933;0.050022732;0.10218533;0.05496612;-0.030761745;0.06223461;0.046710465;0.022922795;-0.016445188;0.022848327;-0.030770702;0.01452675;-0.049763415;0.05647584;0.042831574;-0.032975666;0.04073682;0.03822432;0.15301181;-0.045624223;-0.005985296;-0.0026258326;-0.031778935;-0.044724166;-0.013987499;-0.03409383;0.03436668;-0.05598887;-0.03727898;-0.06262995;-0.0059980853;-0.2286244;0.05080708;0.06534234;0.1598413;-0.046748802;0.030317388;-0.106473155;-0.021142649;-0.027365496;0.08220784;0.042253774;0.13361935;-0.030440455;0.037778076;-0.04408744;-0.10441304;0.04519481;0.00048397592;0.018431893;-0.08053369;-0.013190811;0.05861976;-0.016432634;-0.0022294214;0.05486587;-0.04522123;0.055176795;0.05788569;-0.12276517;0.04474873;-0.034276754;-0.009776532;0.03955352;0.056291003;0.050275464;-0.007981128;-0.028623953;-0.12197717;0.007701296;0.051152565;-0.025581483;0.062918805;0.03544627;0.045483522;0.0029480606;0.11210975;0.019461807;0.04254488;-0.11980756;0.120460704;-0.036132816;-0.0059166444;0.035132118;-0.13158193;0.102237925;0.10854199;-0.115899704;-0.05895601;0.038423743;-0.011474422;-0.0689154;-0.008117872;0.05349586;0.0018383634;-0.14925608;-0.05690233;0.13315584;-0.035616565;0.08176421;-0.06463915;0.050766878;-0.0021785947;0.06119621;-0.10137064;0.048775416;-0.124277875;0.1400672;0.009291768;-0.06460356;-0.013034736;-0.050444968;0.08400495;0.049638584;0.02610722;0.014765967;0.14905766;-0.01023774;-0.10268896;0.013316619;0.043642275;0.022070631;-0.053154323;0.08304039;-0.053132996;-0.10307075;-0.059517264;0.08752287;-0.08722684;-0.00999557;0.07107918;0.037378043;-0.0035561514;-0.2130483;0.06598102;0.006912235;0.073806316;0.09453483;-0.050726775;0.05054278;0.090898626;0.04485212;0.08315424;-0.0006031548;-0.021387845;0.08786206;0.028078996;0.02338152;0.019449724;0.060536567;-0.052386288;0.21326187;-0.070919864;0.05342979;0.14035778;-0.17229125;0.027342727;0.018380959;-0.00818515;-0.08900746;0.028047008;0.07261898;0.059744444;-0.010522053;-0.010617306;-0.0051373467;-0.07724652;0.019719355;0.001987449;-0.012382563;-0.01588606;0.07121013;-0.008166868;0.0086276345;0.035278704;0.08977508;-0.02341026;0.025334632;-0.01687838;0.010370033;0.08994371;-0.02063781;0.051797424;0.045338582;-0.05049548;0.0074538463;0.029457966;-0.037381023;0.10906143;-0.020955017;-0.01657104;-0.013063046;0.102378234;0.03704935;-0.022077275;0.07314432;0.0830168;-0.00017650033;-0.019587683;-0.0794669;-0.04994396;0.012843849;-0.0005226236;-0.018237218;-0.22952795;-0.08449038;-0.017752083;0.10030052;-0.021309823;0.041055363;-0.04133039;-0.017785212;-0.07191115;-0.26754037;-0.049480047;0.06472228;0.06390928;0.015880704;0.02104563;-0.010199278;-0.03928108;-0.17224935;0.04384915;0.001842961;-0.024911528;-0.013809041;0.057420563;-0.099742524;0.064248644;-0.008832571;-0.09429777;0.047676153;-0.084516704;0.054762088;-0.017704714;0.0378777;-0.06287669;-0.061706617;-0.039476138;0.017032327;-0.096747495;-0.02442954;0.064977035;-0.071641624;-0.028264003;0.027456468;-0.030727422;-0.002235336;-0.08701905;-0.08674878;0.01808585;-0.02670775;0.07044022;-0.065026276;-0.047068015;-0.01912071;-0.04011006;0.02732432;0.06421774;0.046997968;0.08274173;0.06846208;-0.118113354;-0.04079139;-0.027793549;0.0048902626;-0.06328931;-0.05669526;-0.030704057;-0.0022703537;-0.121739216;0.049682815;0.0021847615;0.030344905;0.10971029;-0.013774909;0.01564737;0.0032340072;-0.056920454;0.1068595;-0.005057924;0.0050850306;-0.014437882;0.062120248;-0.07006633;0.06552074;0.034023438;-0.042935017;0.010512625;-0.0025106564;-0.051447816;-0.02962517;0.06688045;-0.025653552;-0.056231838;-0.050737634;0.086657025;0.060450204;-0.046791196;0.002689673;0.046245668;-0.0063330047;-0.007891221;-0.018953282;0.05194429;0.08359473;0.030289076;0.041617315;0.079987936;0.044439547;-0.0649904;0.0967663;-0.051250268;0.03178866;0.045482527;0.041405562;-0.027864004;0.05984615;0.047522627;-0.0066336687;0.062317822;-0.17986968;0.08387615;0.009538542;0.08172037;-0.12884498;0.034854814;0.013124247;-0.05217555;-0.004185023;0.094027914;-0.013634736;-0.10003634;0.04947875;0.03880585;-0.029095307;-0.041114505;0.08442186;0.060920376;0.12508327;0.022284582;0.000121385936;0.072610185;0.13600864;0.013353592;0.04976686;0.0825483;-0.07346022;0.09156916;0.08172707;-0.027617782;0.015580644;0.033903085;0.013570006;-0.19030863;-0.016479542;0.003084663;0.09132767;-0.017672766;0.09899699;0.05367283;0.083932586;-0.047256593;0.06759529;0.017381394;-0.010391427;0.07802993;-0.050974496;0.08493527;0.057773743;0.1843798;-0.04947058;0.052192282;-0.15007381;0.027915658;-0.054549217;0.06988196;0.11362295;0.017087812;-0.01220045;0.084707625;-0.03523789;0.028075805;0.1772571;0.06541542;-0.028345635;-0.032678727;-0.027469616;0.035532143;0.056430954;0.060506273;-0.06903625;-0.067856364;-0.016853975;-0.052876905;0.039118063;-0.00046667556;-0.0071125557;0.011943085;-0.037537135;0.21433209;0.03701667;-0.04752314;-0.010626496;0.03920017;0.06871888;-0.061435208;0.06831079;-0.019408135;-0.015852893;-0.0221973;0.048874427;-0.012272646;-0.044449266;-0.006718451;0.032848652;-0.057444554;-0.024579495;0.022784254;-0.00853186;-0.073188975;-0.03142117;0.0062586833;-0.0028777018;0.04257655;-0.0755769;0.09434591;0.041109774;0.024205204;-0.04363562;0.02383307;-0.010773629;-0.08592531;-0.08550017;-0.004411029;-0.08092307;0.040999334;-0.005445271;-0.025345817;0.047749635;0.17569704;0.15537876;0.02764943;0.09373006;0.0672713;-0.3038326;0.09453631;0.045964357;-0.2407122;0.08407785;-0.13475296;-0.0892063;0.054419946;-0.021075837;-0.0019157256;0.11734935;-0.15669179;-0.085011706;0.014142124;-0.024539681;0.030961491;0.027795976;-0.0669927;0.04348194;-0.01787651;0.09101503;0.0886285;0.032195758;-0.052301202;0.09033913;0.06746805;-0.020139415;0.05539506;0.043234505;0.0026635628;0.17290343
-0.007106843;0.061003298;-0.06144427;-0.118242756;0.012937143;0.022810943;0.04891371;-0.012532597;-0.11096339;0.08817208;0.043125935;0.059264693;0.06635889;0.04868897;0.103122436;0.06745657;0.03551015;-0.0126351295;0.04332088;0.0012148124;-0.0027748118;0.077802815;-0.01432702;-0.05273604;-0.0011193533;-0.0111387735;-0.0042520678;0.0992113;0.1495829;0.020095713;0.06658387;0.103319205;-0.06418307;0.055218596;0.0031998877;-0.07004086;-0.0090555465;-0.032919955;-0.07400818;-0.02705494;0.034049414;-0.07848864;0.078321494;-0.05289518;0.10528683;-0.0313074;0.16757327;-0.10085969;-0.007530426;0.02887832;0.17562161;0.014051841;0.070410706;-0.042691633;-0.06922937;-0.1913327;-0.0023331481;-0.07355476;0.15754806;0.011297839;-0.04155017;-0.012709475;-0.03626609;-0.0477932;-0.056992628;0.069562;-0.10263716;-0.26302445;-0.12613429;0.027613945;0.04422017;-0.093863;-0.021091599;-0.00068652886;-0.01075075;0.008069168;-0.020743094;0.10168116;0.0566335;-0.012033334;-0.010487322;0.03004451;-0.083781525;0.05541007;-0.0940296;-0.045744035;0.024359168;0.013207111;-0.020899976;-0.04574199;-0.07880076;0.12557855;0.117029905;-0.1252126;-0.022574333;0.10146361;-0.06376596;0.077787474;0.0476637;-0.018035153;0.054492887;-0.047060292;0.054544754;0.012403192;0.0031903915;-0.05195133;0.0048270654;-0.1788073;-0.08566119;-0.078461975;0.06248735;-0.026214622;-0.05922195;0.12655824;0.10053542;0.08644564;-0.026076455;-0.0022210246;0.1439846;0.060076296;0.07441873;0.027070262;-0.14957269;0.04030295;0.07276336;0.03992937;-0.16810945;-0.033458427;0.075723566;-0.0043747057;-0.08699439;-0.08036949;0.04356961;0.014036456;0.1010702;0.072978616;-0.018821618;0.036397785;0.022585796;-0.038639523;-0.04086976;0.023074193;-0.027155984;-0.016323214;-0.06206473;0.021301689;0.023583688;-0.054094862;0.11891801;-0.009328894;0.04054156;-0.05843999;0.027336253;0.027565503;-0.031666864;0.05427702;0.08600891;0.02231089;0.017308624;0.06882777;-0.033207137;0.062134504;0.098174356;0.06282667;-0.020364499;0.04774393;0.02622569;0.10348137;-0.026576685;-0.07488522;0.093376964;0.016945103;-0.00973508;-0.001678552;0.11421322;0.016862791;-0.0077817114;0.115984514;0.15296331;-0.05782596;0.04938699;0.0019361763;-0.022249682;0.096334115;0.004557286;0.077659525;-0.021779008;-0.04618564;0.023358513;0.07400065;-0.014917411;0.0958467;-0.029268067;0.011291574;0.03179978;-0.1492761;-0.042207483;-0.06944232;0.047121506;0.097750746;0.09360291;0.0067025996;0.07332371;0.07664545;-0.1985683;0.027713941;-0.20054898;0.012530768;-0.00055957277;0.18055946;0.0022625506;0.063693725;0.119452454;0.042179633;-0.01945596;-0.024133662;0.07370024;-0.03486737;-0.13413416;-0.055765614;0.030203156;-0.18910371;-0.098602;0.06207205;0.07882917;-0.067551285;0.009096555;-0.049735263;-0.041257385;0.06810833;-0.049973994;-0.03138231;0.05651012;-0.13278422;0.08614348;-0.0046647293;0.04294035;-0.011750258;0.04922938;-0.0040108347;0.120776236;0.07473496;0.059950184;-0.010294942;-0.018600198;0.21082212;-0.09964995;0.08263738;-0.07105137;-0.07571294;-0.10546344;0.33811963;-0.06150963;0.003355163;-0.01946084;0.04478652;-0.063891396;-0.07314977;0.025488727;-0.3590734;-0.027637077;0.05306855;0.054509297;0.17566952;-0.032365862;-0.012395676;-0.13434818;0.055783287;-0.06246489;0.024042724;-0.06955114;0.09140629;0.11207794;0.04155352;0.09132577;-0.04123778;-0.04416225;0.023178745;0.011257286;-0.06522338;0.13614345;-0.05512584;-0.087868206;0.013763097;0.06127565;-0.0265744;-0.1321115;0.0022845296;-0.06785447;0.038950387;-0.068195246;-0.10381804;0.06930098;0.0025022987;-0.06161246;0.0002867772;0.06640645;0.07544138;0.06225445;-0.058395952;0.057367273;-0.058788907;0.036100704;0.018737763;-0.00680746;-0.02689906;-0.029173935;0.09058278;-0.019569393;0.0093444;-0.0030040299;0.023611078;0.015539096;-0.047478933;-0.19098864;-0.028079093;-0.07716407;0.052691173;0.056577913;-0.023970935;0.011620461;-0.20175508;-0.036492825;-0.019985437;-0.032385442;0.049222585;0.111937776;0.08067489;0.048062716;0.06264302;0.013055077;-0.0059771826;-0.06736729;-0.024806142;-0.060077637;0.18930177;0.017722223;-0.0022332408;-0.08047842;-0.05635986;-0.07601691;0.046482522;-0.12235479;-0.081392884;0.019084219;0.02152136;-0.01199523;0.041936133;-0.019598583;-0.087025106;0.05601139;0.014582715;-0.043825645;0.034549005;0.0049837213;-0.0370956;-0.015371205;0.06072652;0.025010549;0.023454333;0.09944915;0.12060302;-0.1265297;0.056331586;-0.14152656;-0.08529885;-0.05592507;-0.08290747;0.016166922;-0.06356551;-0.006806319;0.0126204295;-0.062236056;-0.0406773;0.04151516;0.015222467;-0.044081826;0.12502475;-0.03384249;0.013679972;-0.036162596;0.045438364;-0.01590193;0.005714668;0.03836149;-0.012933847;0.15519981;-0.02961205;-0.035025302;0.055215906;0.07153742;0.1086898;0.0042289686;-0.0059513883;0.019081032;-0.024199199;0.02694548;-0.08102726;0.07453616;-0.04716348;0.0698509;-0.10920369;0.114238985;0.016221434;0.03715516;0.08775178;0.017434483;0.033554256;-0.03484101;0.106510505;0.087660655;-0.065935805;0.010996664;0.113524504;-0.045249484;-0.049735557;-0.055641044;-0.14738157;-0.010760839;0.10666781;-0.011896961;-0.025957605;0.15962957;-0.019342588;-0.024445377;-0.24954395;0.041981623;-0.0132681355;-0.08902173;0.066228114;0.047928244;0.035264473;0.0026971132;0.0095038265;-0.061198965;0.090878285;0.0230835;-0.051078774;0.007165596;0.098392166;0.011095065;0.0067469995;-0.031939328;-0.009467984;0.14402469;0.05000296;0.05750141;0.05341987;0.026738074;0.05445194;-0.07737152;-0.08639887;-0.033153787;0.100091;-0.14930849;-0.106845915;-0.07468474;0.27084714;-0.028111797;0.05763225;0.05770012;-0.040419955;0.061406102;0.02548536;-0.025430262;-0.22513287;-0.11356619;-0.05759776;-0.0033521333;-0.105003275;0.25070542;-0.09717757;-0.055067364;-0.114882834;0.09864239;-0.20734623;-0.04244312;0.010580943;-0.009536483;-0.119464315;-0.21541914;-0.069246724;-0.13821079;0.12949964;0.040347904;0.10659564;0.091395386;0.08067864;0.0733971;-0.046343803;-0.017925344;0.028984223;0.03635485;-0.053255104;0.024668097;-0.021425234;0.02878422;0.11415124;-0.058273174;-0.041706502;-0.010986589;-0.032816693;-0.11877463;0.020446112;0.034838423;0.24156472;-0.045318272;-0.013537428;-0.0686334;-0.036519594;0.015146697;0.022528712;-0.0073545654;-0.080584824;-0.0368774;0.020960063;-0.054034296;0.057929277;-0.0008309396;0.013173707;0.015650349;0.0654778;-0.038758792;0.013459096;-0.04470934;-0.06196203;0.11267426;-0.025659965;0.13592903;0.010675732;-0.03367204;-0.011118284;0.010665825;-0.08097049;-0.0059937006;0.04092626;0.01628797;-0.06427072;-0.043130945;-0.093342565;-0.09607494;0.05872553;-0.057832383;-0.06352526;0.07408978;-0.22594973;0.022827866;0.0049039517;-0.022125013;-0.06801559;0.03649053;-0.030614153;0.0012352514;0.033134658;0.009441352;-0.065917544;-0.036665574;-0.34082434;0.039802667;-0.15778328;-0.042471197;0.08855194;-0.050867952;-0.0031126102;-0.074236564;0.0031526037;-0.019064521;-0.026887016;0.015942788;-0.017483408;-0.011034376;0.08354888;-0.13921946;0.03310602;0.061080888;0.030970357
-0.06776898;0.058263846;0.025349613;-0.1694747;0.14083846;-0.017480135;-0.032184504;-0.17044026;-0.0069726417;-0.028306613;-0.060814325;0.093023345;-0.0103706615;0.0972965;0.016226705;-0.028170483;0.1629626;0.0247281;0.07138853;0.05143384;0.0971187;-0.062830836;0.020837089;-0.111224696;0.041155726;-0.008561456;0.10716787;0.051960133;0.1446404;-0.018660687;0.0795392;-0.0080302805;0.04121679;0.07059424;-0.06737513;0.024316892;-0.016953133;0.050759364;-0.046962988;0.020891;0.11277238;-0.017691197;0.11337893;0.003696107;0.013717243;0.052728888;-0.0014136494;-0.08004209;0.021111734;-0.02947207;-0.060261123;0.05810335;-0.0259574;0.068250634;0.093283184;-0.2775338;-0.050570652;-0.027543463;0.13661814;-0.01713282;0.036175016;-0.023670102;-0.039830405;-0.06329948;-0.014086463;0.041307244;-0.044177987;-0.039237518;-0.064583555;0.0062416843;-0.08808002;0.032941703;-0.092061386;-0.07113815;0.10703374;0.0041992613;-0.015291067;-0.045686472;0.08086451;0.041090976;-0.0524323;0.006380697;-0.06393003;-0.045688797;-0.12683447;-0.06885308;-0.04414445;-0.014246314;0.012926516;-0.06942847;-0.023402996;0.12483494;0.11474879;-0.037351895;-0.0077791484;0.035997495;-0.06612054;-0.021005614;-0.04035347;-0.039637774;-0.059437606;-0.08179302;0.03590793;0.011401845;-0.005712088;0.029078439;0.061814085;-0.14278254;0.043583583;0.021471564;-0.039333288;-0.09194862;0.035676192;-0.019394966;-0.027678428;-0.0031302497;0.062030286;-0.0870319;0.072869904;0.056052193;-0.010374161;-0.040775053;-0.101274796;0.041216537;-0.026704827;-0.075635344;0.003419049;-0.08301747;0.071332686;-0.016313136;-0.03624611;-0.28644505;0.111787;-0.047655337;0.22764787;-0.03940361;0.0016369557;0.093043275;-0.015022445;0.027312612;0.018705461;-0.03146087;-0.006453989;-0.013934811;-0.0012774793;-0.004887208;-0.004983515;0.04139043;0.020481983;-0.14224847;0.086620204;-0.049068313;-0.037519854;0.09646764;-0.045144375;0.022783354;0.08584243;0.09947566;0.028624883;0.041864984;-0.058212496;-0.029295508;0.004945401;0.03155677;-0.23689857;0.06292766;0.005443114;-0.021749955;-0.013034922;-0.022569764;0.13029341;-0.039502494;0.09934375;0.03811855;-0.030670755;-0.04037258;0.08009615;-0.0037190774;0.07672983;-0.055449158;0.09480319;-0.008521431;-0.07378442;0.05246945;0.02373081;0.07355193;0.09838975;-0.011759585;-0.032439142;-0.007831566;-0.049652282;-0.017957862;0.031231847;-0.03999675;0.08839947;-0.18090238;0.015515596;-0.05108961;-0.05490236;-0.085409805;0.058727536;-0.032166984;-0.012678237;-0.083520584;-0.17604195;0.028063685;-0.21744929;0.09942686;0.03907606;-0.04655316;0.05815307;-0.020536024;0.13429122;-0.12470703;-0.023430943;-0.20603472;-0.016565103;-0.10557378;-0.060361814;-0.045043096;-0.060976025;-0.2180739;0.03167383;-0.010243131;0.07892467;0.030384868;0.03842249;-0.015354312;-0.045606103;0.015156997;-0.045523327;-0.006963654;0.07780627;-0.11926509;-0.00899767;0.018749278;-0.04104107;-0.102098145;0.06042421;-0.018061005;0.20879915;0.031616077;0.044024233;0.08643322;0.0012380508;-0.041041974;-0.04224792;-0.017045418;-0.030864855;-0.12581655;-0.20728885;0.15714644;-0.020740468;-0.033090133;0.04193571;-0.050371416;0.072320536;-0.057922423;-0.04077132;-0.28765413;0.043869197;-0.039618425;0.01617918;0.10158052;-0.20201689;0.09545053;-0.07771723;-0.010812071;-0.13670586;-0.059901338;-0.012469475;0.042771004;-0.025825564;0.082150966;-0.022824062;-0.13766465;0.053552613;0.059437532;0.10115515;-0.03179242;0.2776895;-0.038636684;-0.06038666;-0.056246337;-0.004049401;-0.015315889;-0.27714768;-0.044762384;-0.08764422;-0.0018615446;0.020337852;-0.15249553;0.08279137;-0.032247603;0.08533153;0.031730596;-0.0745115;0.05641969;0.06622767;-0.033687837;-0.05528955;-0.055015437;-0.03623281;-0.06207398;-0.15652402;0.091350466;0.013545639;0.009185656;-0.01801745;-0.14525905;0.03826292;-0.030901572;0.065076895;-0.10454422;-0.12664814;-0.05326301;0.023494259;-0.06971504;0.080949605;-0.04939203;-0.023303244;-0.18516392;-0.006074998;-0.0055895452;-0.061148655;-0.016816309;0.06652712;-0.05976913;0.068087175;-0.0137081845;0.049432673;-0.0920212;-0.025485348;-0.05812944;0.029567502;0.08311049;0.12321918;0.08584671;0.0046711;-0.08135949;-0.0006296548;-0.038020212;-0.10782678;0.076496564;0.10713272;0.07503028;0.05377994;-0.046181392;-0.06586206;0.02710961;-0.09703203;0.050398123;0.06093521;0.018304583;-0.007050958;-0.05795996;-0.03951925;0.09658282;0.042622603;-0.064651005;0.14515868;-0.14308347;-0.11375045;-0.05905733;-0.0335743;0.08317919;-0.038499493;0.07035287;-0.19578017;-0.04679771;0.032302175;-0.04485286;-0.2641718;-0.058218144;-0.049261097;-0.04967042;0.08507446;0.08942573;0.007865922;-0.07237127;0.014260779;0.037537396;0.04157943;-0.0073671816;0.0059851306;-0.09416296;0.15967362;0.007878426;0.088961825;0.045625743;-0.02961057;0.07975523;-0.03556609;0.03556178;0.094541945;-0.03223204;-0.062346138;-0.08585263;-0.053628385;-0.057848185;-0.04690785;-0.057433583;-0.031397726;-0.022346096;-0.0064401;0.2246207;0.04719228;0.09660311;0.09842207;0.021206409;0.11742271;0.060906507;0.048559446;0.020558553;0.0038971559;0.048915677;-0.08276664;-0.1637154;-0.008737183;0.06221502;0.21097778;0.019648178;0.24338442;0.04954172;-0.03319272;-0.27718535;0.017705316;-0.023195779;-0.11852272;0.058469303;-0.013887006;-0.012280429;-0.03505985;-0.03529107;-0.041269157;-0.055147044;-0.010931379;0.057374977;-0.047103953;0.089073285;0.057534073;-0.057531353;-0.05447508;-0.027423307;-0.059029017;-0.008863759;-0.05754834;0.014913293;-0.005445841;0.039498333;-0.0055790185;0.047340635;-0.037728813;-0.043646507;-0.050183542;-0.022669658;0.03456649;0.11967265;0.031157345;0.007538769;-0.06518918;-0.038707837;0.008897549;-0.025310375;-0.036595207;-0.16524254;-0.13818811;0.059698623;-0.08042881;0.05934631;0.009405485;0.00795739;-0.03088575;-0.068174355;0.030146364;-0.16615318;-0.057728533;0.20185739;-0.053350486;-0.0633079;-0.24878979;-0.010485;0.010734161;-0.04370052;-0.06414767;0.07642415;-0.0020890501;0.043174658;0.033101916;-0.039766032;-0.042240288;0.05913841;0.020823788;0.022342123;-0.046256177;-0.05549962;0.018801894;0.089876376;-0.11629119;-0.06635646;-0.0104711605;-0.050962545;-0.13309523;-0.029886378;0.020300927;0.18335606;0.07580818;-0.045654166;0.056426257;-0.03203026;0.16948374;-0.05605317;0.018982187;-0.07898585;-0.03588382;-0.02980752;-0.0726133;-0.023378646;-0.0059856903;0.042077556;0.02842555;0.021645928;0.1205708;-0.061117556;0.0011506032;0.07169974;0.0909576;-0.04442439;0.07980366;-0.022207724;0.0021415069;-0.081008516;-0.13787937;0.036480628;-0.060118888;-0.021505833;-0.08826189;-0.025310809;-0.22919223;0.031886175;-0.1358131;-0.01469261;0.016954152;-0.07583758;0.0314522;0.067193374;-0.012775943;0.022978473;-0.049858302;-0.08186758;0.08324387;-0.04009285;-0.006567464;0.045179553;0.026454594;-0.00076141645;-0.07033363;-0.17487219;0.061208777;-0.18617916;-0.061683044;0.021237595;0.08938636;0.011728564;-0.049624044;0.030487219;-0.044399846;-0.045750663;-0.14611673;0.03666444;0.03503017;0.069634885;0.021927755;0.029583346;-0.025723355;0.19369495
-0.028647115;0.052935075;0.06437991;-0.15410694;0.11597807;-0.06242879;0.00968999;-0.24559817;0.1398342;-0.1690517;-0.098198906;-0.037037954;0.044759165;-0.057911023;-0.014863781;0.006968607;0.09884207;0.11038772;-0.021359041;-0.079801746;-0.03621529;0.020066392;-0.0007009666;-0.1014133;-0.050142985;-0.055408105;0.1670267;-0.07751103;0.016218424;0.0036154336;0.04449599;-0.092798635;-0.020480955;-0.1095191;0.0046896706;0.061731927;-0.042779967;0.0354311;-0.05000624;-0.02237243;-0.038078133;0.02021145;-0.050220963;0.02865279;-0.012298267;-0.04996052;0.054947026;0.062290445;0.10134027;-0.10333534;-0.3812464;-0.050494984;-0.11491916;-0.0642006;-0.024545008;-0.10761301;-0.119329125;0.09280156;-0.01047782;-0.079880506;-0.004866292;-0.09860383;-0.05013207;0.0008458234;0.057110943;-0.030539028;0.04432081;0.03207254;0.040058233;0.0438314;0.041319627;-0.08109732;0.03334549;0.0095396815;0.19261132;0.041222762;-0.007929679;0.029269453;-0.091014564;0.13655137;0.04083212;0.06635347;0.040663723;0.042611435;0.00643345;-0.06912629;-0.06770365;0.16375297;-0.033723813;0.0063998895;-0.032475878;-0.21241264;0.018032376;-0.0013702293;0.058443427;0.01741115;-0.048567627;-0.061105993;-0.2031606;0.02291886;-0.15112211;-0.01867403;-0.15393096;-0.06539338;0.037405938;0.052098107;0.01611467;-0.111276165;-0.012173094;0.0071030343;0.053330157;-0.05498533;-0.015529837;-0.096015915;-0.11893978;0.032956798;-0.016220424;0.1944738;0.25134677;-0.06755929;-0.017848365;-0.046272013;0.019492516;-0.00645234;-0.08100101;0.08628127;-0.12956148;0.05329748;-0.08355937;-0.040072095;0.063950546;-0.11943145;-0.05356082;-0.054438442;0.21357082;-0.045697507;0.06705691;0.034534503;0.05299643;0.033499587;-0.06016649;-0.022177123;0.07302774;0.005737562;-0.030563978;-0.039293572;0.057322513;-0.101175115;0.10879051;-0.0034341589;0.023468344;-0.058734912;0.020665416;-0.16752295;-0.11746275;0.028457817;0.121692464;0.09057673;0.044670835;0.03655609;-0.056319032;0.0253609;0.015768101;0.09110514;-0.13173126;-0.08776366;0.0549652;0.07065466;0.06875632;-0.02279286;0.11545665;0.05914826;0.1424879;0.0028901235;-0.08395935;-0.017165137;-0.07691494;-0.05467453;-0.016466033;0.019119402;0.022712192;0.12367003;-0.05850133;0.097471155;-0.039458953;0.033808626;0.039459527;0.08098945;0.01919231;-0.0738972;0.03373787;0.05415197;0.16851227;-0.052246764;0.14286111;0.032692917;-0.011252184;-0.11260275;0.08495702;-0.045812342;9.424539e-06;-0.04314486;0.050160088;-0.08276549;0.17197143;-0.09015174;-0.22918771;0.12475291;-0.005409619;-0.36408302;-0.012143857;-0.04604449;0.08311577;-0.03684254;-0.05408617;-0.0773308;0.055507418;0.030327724;0.03287146;0.029586088;0.049632825;-0.006615377;-0.008384253;0.015159201;0.01865728;-0.07288955;-0.032881755;0.0764268;-0.051570956;0.007903042;0.0017064065;0.037426498;-0.0097157955;0.119229056;-0.08769492;0.017376862;0.03633413;0.0059992485;-0.08880594;0.035646457;0.06704355;0.016681317;-0.07333124;0.1091587;0.060347047;0.10293943;-0.024331428;0.044844624;0.08848523;-0.021127762;-0.30692658;-0.08953838;-0.024401136;0.010241477;-0.049876235;0.070243746;-0.0302268;0.07029805;-0.0061961813;-0.22212148;0.08282321;-0.0033606817;-0.077181004;0.013007343;-0.1178654;-0.034245934;-0.06554164;0.014942059;0.12806128;0.12297599;-0.054083012;-0.07292978;0.03472152;0.14915313;-0.06122732;-0.04786429;0.15436202;0.056596667;0.008860333;-0.05300527;0.24143636;-0.044742957;-0.07426462;-0.1148188;-0.07145046;-0.042995565;-0.05054391;0.02500076;0.06400564;0.018153135;0.016403943;-0.069786094;-0.40203992;0.014842191;-0.103151165;-0.020891687;-0.027275998;0.086012505;-0.07773172;0.002744207;0.07979637;-0.068789035;0.07234921;-0.07312029;-0.3232052;0.006368925;-0.03320551;-0.015240483;-0.042760737;-0.117584094;0.053972434;-0.03481999;-0.081767105;0.024740018;-0.089968495;0.025941145;0.06084314;0.029736174;0.06311521;0.07105244;-0.047130696;-0.47096628;0.00088000484;0.11179771;0.030293422;-0.027643256;0.025386095;0.0018154243;0.044805497;0.05296432;-0.032312285;0.0417199;-0.13534366;-0.024656957;0.064551726;0.027260153;0.04430051;-0.0471974;-0.07594028;-0.033857558;-0.10314988;0.00079030474;0.011663888;0.07324096;0.08188848;0.064298876;0.09432459;-0.14265423;-0.03472392;0.03811893;0.060071044;-0.009201731;0.08377949;-0.009701468;0.010683453;0.02007335;-0.04467082;-0.02001943;-0.00548073;-0.06032167;0.054497227;-0.070239685;-0.045293674;-0.033049785;-0.16707915;-0.037849758;0.067790635;-0.06611007;-0.10096954;0.0829187;0.06629212;0.0465456;-0.2417117;-0.01737951;-0.031061253;0.040192522;0.07197357;0.21297216;-0.00022946906;-0.09110425;-0.05372727;0.06084166;-0.010896705;-0.09195493;-0.062304657;-0.03143625;-0.09884064;-0.03709376;0.025356384;0.009370599;-0.01816473;0.13316289;-0.017421125;-0.048633654;-0.044514284;0.115240455;-0.059019778;0.09560363;-0.13391526;0.036418255;0.012092235;-0.018040486;0.04529687;0.085777305;0.08012429;0.21574926;-0.084133014;0.25020203;0.033794463;-0.02830184;-0.074496396;0.022423694;0.053705033;0.071790196;-0.0126164565;-0.1210538;-0.056563314;0.09397495;0.02947103;0.035759345;0.06442851;0.064695425;0.15084194;-0.024367567;-0.04668639;-0.20412703;-0.020708913;0.028690275;-0.09182225;-0.05983026;0.044424005;0.015258163;5.0840776e-05;-0.0794098;0.0451799;-0.015949689;-0.0011542329;-0.030295592;0.01920466;-0.03315807;0.0066406587;0.038296122;-0.047790688;-0.065560564;0.035299808;-0.039454535;0.016772531;-0.072874986;-0.02504983;-0.046395894;0.11753615;0.031379644;-0.002921076;-0.039245266;0.0627444;-0.09756564;0.057878464;-0.015438913;0.06794001;0.08491429;0.032943852;-0.039512288;-0.012963327;0.06990078;-0.10628572;-0.13140635;0.115450054;-0.02200612;0.07359255;-0.07716353;-0.2703893;-0.049137518;0.10390541;0.025190016;0.026392128;-0.055152647;-0.05272967;0.09346321;0.036696736;-0.15273808;-0.115621224;-0.008695436;-0.08427048;-0.10917932;0.062499367;-0.08204623;-0.050303377;0.005519746;-0.10007087;-0.06386676;0.0032745777;-0.08874831;0.0037864977;-0.0035483614;0.081502855;0.038162135;-0.09734644;0.0047178515;0.079837665;-0.020218952;-0.099499635;-0.06585147;0.009592306;-0.032241736;-0.124123365;0.05478413;-0.030339723;-0.018046508;-0.13945808;-0.005031924;-0.001621852;0.0006485697;-0.14340392;-0.025263812;0.20386225;0.00076177664;-0.009546533;-0.06337345;0.04093618;0.16794084;-0.09362897;-0.07359231;-0.11218975;-0.092321016;0.07574346;0.025885057;-0.053898223;-0.008061956;0.037143882;-0.0073807784;0.05758625;-0.05421633;0.069157846;0.049444754;0.035802502;0.038557254;-0.048641525;5.850738e-05;-0.084044516;-0.16519086;0.07426821;-0.15592168;0.071901895;0.00068169105;0.04605214;0.07525731;-0.10704157;0.004418821;-0.0065712975;0.03914739;0.025426729;-0.04030323;-0.09630676;-0.060389787;0.010900524;-0.0134243285;-0.09506122;-0.09406562;-0.05845286;0.0013253021;0.02445825;0.029250747;0.06700084;-0.01893469;0.0077745956;-0.06665539;-0.059876677;-0.0155623155;0.019276125;-0.049576994;0.03478157;-0.026274892;-0.011609473;0.047576346;0.03553074;0.10598958
-0.06346643;0.026378257;-0.07315068;-0.06977782;0.11429614;-0.018422045;-0.029173555;-0.23586643;0.09312565;-0.0013428186;-0.015062474;0.083889075;0.010953257;0.010164539;0.060174864;0.034436464;0.12207819;0.048049163;-0.011166466;-0.08772368;-0.01672959;-0.068169996;0.055873804;0.04941113;0.03223004;-0.010971856;0.026466554;-0.06289958;0.14808172;0.07682599;0.019126777;-0.052986585;0.06335339;0.06487648;0.0369856;-0.017124912;-0.090761155;-0.029080477;-0.010303466;-0.0028529123;-0.055584557;-0.011932387;0.00056312827;-0.019079529;0.020113638;-0.0031785285;0.084822804;0.00061090814;0.048823107;-0.14358969;-0.21353471;-0.009150243;0.015071905;0.052181397;-0.0899083;-0.080473974;-0.017511558;-0.04758913;-0.05321569;0.073278405;-0.07354081;-0.052696284;-0.035420507;-0.05101651;0.031115646;0.009159906;0.048937555;-0.09597661;-0.05652807;-0.08195731;-0.08522977;0.018088246;-0.06762749;-0.010474305;0.09724717;0.05371058;-0.04508977;-0.095708065;-0.09449306;-0.191375;0.011811253;-0.06439876;-0.032209132;-0.045411605;-0.06784806;-0.10261844;-0.08495545;-0.055246945;-0.029723577;-0.026401116;0.046113066;-0.11460197;-0.08291782;0.09110697;0.017503444;-0.08178271;-0.08277328;-0.0059041325;0.007861369;-0.029293986;-0.16378228;0.04472247;0.0010272621;-0.01361074;-0.049522452;0.023876172;-0.051805355;0.025966099;-0.018245861;-0.15271936;0.045044914;-0.07849247;0.012898109;-0.01106474;-0.07576695;0.013332206;-0.07786588;-0.14368346;0.19436604;0.058508143;0.011616015;-0.003432792;-0.24144435;0.0006140224;0.019146068;-0.010242501;0.011967238;-0.036544148;-0.040501755;0.0619581;-0.0971875;0.00729571;-0.007358716;-0.051394973;0.04421365;-0.028334131;-0.07672645;0.024200732;-0.08689016;0.016995035;-0.009870608;-0.0048705805;-0.003163572;0.025420327;0.07794175;0.022253029;0.1625198;-0.06414045;0.11420054;-0.0666052;0.15338157;-0.035948638;0.09328491;-0.15880157;-0.06735138;0.08611189;-0.0045310534;0.06432934;0.09216243;-0.008111309;0.0015759453;-0.10971047;-0.07990042;0.15127012;0.027064597;0.040838532;0.120022155;0.070684604;0.013224293;0.08786586;0.12477242;0.0497287;-0.011948191;-0.014804475;-0.08385633;-0.053668953;-0.0063470565;-0.04341963;0.0610128;-0.019336052;0.16513322;0.012377821;-0.045019515;0.16777393;-0.024938013;-0.002534283;0.0038944748;0.04513291;0.03805085;0.072763234;0.061280716;0.052629374;0.23152065;-0.05037955;-0.005078582;-0.0711237;0.022752361;-0.039139386;0.05985921;0.0023890173;-0.014449509;0.0020612616;0.078006685;0.06636713;-0.18061285;0.029536422;-0.15761127;0.023616707;0.04181569;-0.1994823;0.011719879;0.10011589;0.10839091;0.06071196;-0.0696294;-0.009948705;0.16979438;0.1748664;0.096345276;0.08309244;0.009149944;-0.10174868;-0.03647537;-0.05471648;0.01603289;-0.09216458;0.027497659;-0.032393135;-0.078543626;-0.020288154;0.034992535;0.026990999;-0.0028237847;0.03689985;-0.055796556;-0.09853604;-0.0642712;0.10648757;-0.045401495;0.0839861;0.024000324;0.020095833;-0.030794289;-0.07243457;-0.11740657;0.04479643;-0.0027846282;-0.066330664;0.09417441;-0.04350607;-0.26851982;0.07115974;-0.07567444;-0.068026066;0.016791865;0.07572282;0.018226108;0.002473635;0.059159163;-0.18763338;0.038600944;0.05685954;-0.054472823;0.07808783;-0.054310367;0.05946557;-0.036964007;-0.20505552;-0.10882164;-0.0023629812;0.051432826;0.01843274;0.033147886;-8.518051e-05;0.0081251655;0.00015977648;0.13629897;-0.06726474;-0.055643052;-0.010535384;0.128388;-0.05148287;-0.025050623;0.03115174;-0.03847448;0.04207773;-0.20031509;0.032574907;0.033711262;0.009037545;0.03220123;-0.047337167;-0.3150526;0.010092235;-0.009254764;-0.05695887;-0.098341346;-0.045952957;-0.0573519;0.0047013424;-0.05211178;-0.04929208;0.03752471;-0.03624355;0.030662935;-0.064726;-0.043064144;0.07325216;0.039038833;-0.04703231;0.22939762;0.023358759;0.020576954;-0.006772433;-0.17740373;-0.018246176;-0.008271302;-0.009266173;-0.06452854;-0.0709966;0.0052935733;-0.13518602;0.0046229702;0.16586961;0.002844137;-0.04365194;0.04915692;-0.06234601;-0.011794912;0.017011682;0.058811888;0.0052294363;0.02357694;0.030227792;0.044411924;-0.011263577;-0.11508179;-0.01225138;-0.16349326;-0.08485808;-0.06954067;-0.0065953615;-0.044126164;0.05686358;-0.035464045;-0.08267337;-0.012969935;-0.028125571;-0.019236656;0.03583435;-0.014174709;-0.020942174;0.008091836;0.029697744;-0.008211932;0.039413493;0.034829874;-0.04256026;-0.088690676;0.040272504;0.13102724;0.092565455;-0.039121248;-0.057475448;-0.20673437;0.027932506;0.06861383;0.08739875;-0.15050024;-0.044402417;0.03807206;-0.0025722992;0.0041517713;-0.21187967;0.062291503;0.06258225;-0.030757017;0.084775314;-0.06631037;-0.104260534;-0.016534721;0.029411178;0.002724881;-0.014108006;-0.11355674;0.033332907;-0.07148729;0.057963382;-0.08544236;0.0069700293;-0.020377845;0.06117289;-0.066935636;0.06792614;0.01488903;0.06834509;0.03903609;-0.121464014;-0.14853938;0.003914396;0.012296066;-0.050387863;-0.07482493;-0.0011383308;0.0165278;0.23347473;0.04422079;0.15304723;0.082256064;-0.001647491;0.024441294;0.030299468;-0.005080504;-0.034877915;0.040977895;-0.05826963;0.037406504;-0.045927458;-0.040736493;0.039140537;-0.11043946;0.25744343;-0.07237206;0.052477624;0.038158193;-0.25521386;-0.035496064;0.08566311;0.0031305922;-0.07827289;0.03352877;0.060029652;-0.058415573;0.07622091;0.05227813;-0.07368897;0.057250977;-0.057154547;0.009730875;-0.008144573;0.018080756;0.022858543;0.012078222;-0.04886972;-0.01883671;0.049023192;0.12777941;-0.0493982;0.08256021;-0.08468036;0.11530226;-0.1047124;0.00035309224;0.002857096;-0.0767649;0.011594356;-0.012743655;-0.051230513;-0.030508015;0.091344595;-0.08600369;-0.088742964;0.056532368;-0.0014294521;0.013994375;-0.1892617;0.051641766;-0.10357493;-0.10539574;-0.03210672;-0.13410541;-0.048682027;0.028244963;0.07581433;0.048578262;-0.07654442;-0.03419422;0.12559694;0.037530705;-0.019969875;-0.13626066;-0.035873886;0.045745302;0.059322335;-0.036334336;-0.01164612;-0.1443273;-0.051842917;0.06720913;0.007177194;0.03327334;-0.14583424;-0.03471636;-0.07996772;0.022305239;-0.027277196;-0.06958776;-0.03213435;-0.06481327;-0.06050534;-0.063708454;0.056526937;-0.012815135;0.04919045;0.042084046;0.0296945;0.044142656;-0.052578963;-0.062215492;-0.048037417;0.04312052;0.044238888;-0.11004996;-0.022691;0.032302517;0.047868617;0.004319684;-0.07342582;0.037659034;-0.0322663;-0.050854716;0.045081705;0.0310014;-0.009425986;0.04265279;-0.024625579;-0.051661506;0.045267943;0.1461763;-0.0014393079;-0.046354003;-0.06824144;0.062990956;0.075894915;0.04511437;0.043873705;-0.041120317;0.064612724;-0.1715389;-0.040256977;-0.07256741;-0.16842397;-0.09478547;0.06423053;-0.061212447;0.2810132;-0.2034494;0.12238826;-0.113796696;0.03890285;0.044338517;-0.0111353025;0.009081231;-0.09618832;-0.023568092;0.0066604693;0.079530805;-0.1566791;-0.08425053;-0.09877144;0.012720952;0.1022762;-0.120901614;0.009014483;0.05702421;-0.10424784;0.012442327;-0.08704461;-0.012310323;0.0031034157;-0.06909571;-0.03604063;0.07450013;-0.08291264;-0.029783988;0.08043571
0.0751805;-0.008347869;-0.058532726;0.0675414;0.21366234;0.0135435155;-0.032563053;-0.11050986;0.15682077;-0.0740195;-0.0014949722;0.03678821;-0.06790808;-0.051058162;-0.016140554;-0.1270967;0.155098;0.033232905;-0.03102003;0.037170608;-0.03999464;0.040126137;0.015171313;0.017592208;-0.0012162499;-0.047339372;0.09285485;0.03873252;-0.0010683676;-0.07920485;0.021425985;-0.0031662523;-0.023878304;-0.0070948973;-0.005504214;0.03549545;-0.13482378;0.018671684;-0.025947718;-0.09675074;-0.062750146;-0.026478363;-0.21476817;-0.07008661;0.06369326;-0.013408113;-0.03935971;0.056261588;-0.003860418;-0.016059192;-0.3344176;-0.07728289;-0.18136115;-0.00955344;-0.061987445;-0.2755951;0.015481364;0.054921027;-0.07579885;-0.019582987;0.041747823;-0.09354094;0.04243726;0.042340692;0.027713947;-0.0010537853;0.03707059;-0.05215642;-0.042011276;0.027359584;-0.106423706;-0.0062507293;-0.07832704;0.010392458;0.21293707;0.06709888;0.026451819;0.020000758;-0.032094344;0.0001996969;0.077847235;0.08645908;-0.13566127;-0.065187655;0.05023292;-0.10608239;-0.059132703;-0.04583374;-0.015091915;-0.036566272;0.09910156;-0.18988258;0.03694471;-0.032867603;0.007339483;-0.10681069;-0.016288877;0.005490068;0.0171426;-0.11308389;-0.09037091;0.01921243;0.082454965;0.055225488;-0.0663348;-0.041627243;-0.0033272086;-0.070943505;-0.01719535;0.0049369335;-0.029123047;-0.059681863;0.025443703;0.02472289;0.02441228;0.041542817;-0.06579511;-0.13582034;0.012183118;-0.059338115;0.052702256;0.064843774;-0.18724269;0.073545635;-0.0019262191;-0.02222022;-0.09211608;0.073870435;-0.06106805;-0.09054503;-0.10196983;-0.15018345;-0.068182275;-0.0034554673;0.07963337;-0.05978641;0.0699265;-0.065419294;-0.016308686;-0.05342127;0.011517243;-0.027876223;-0.057459712;0.054435607;-0.006552549;-0.0024783695;0.015768731;0.064183466;-0.027564982;-0.03194306;0.21991223;0.096461184;0.029412363;-0.056805387;-0.08131562;-0.05282839;-0.08024306;0.069623426;-0.101312965;0.026822323;0.059315376;-0.08983447;0.008024587;-0.0062545245;-0.13326512;-0.041890208;-0.020632975;0.061122756;0.07750376;0.060429845;0.21845448;-0.04839071;-0.003417522;0.017147403;0.111820415;-0.06329382;0.0334127;0.0018688024;0.043131296;0.014156673;0.017379211;-0.031215616;0.088041;0.18379563;-0.050593846;0.07921792;0.00728324;0.04686967;-0.0053991023;-0.1075842;0.021207396;-0.05805392;0.16163062;0.061934855;0.026774716;0.14003037;0.06369383;0.07022658;0.048420608;0.032092627;-0.11913128;0.07756541;-0.077400796;-0.017201645;-0.1401241;0.0670182;-0.028697208;0.046818376;-0.06934056;-0.1742817;0.015711991;-0.077619;-0.05369567;0.1282522;-0.05346169;-0.17764615;-0.036011565;0.0155451745;0.03677942;-0.033643283;0.05935617;0.03605139;-0.04945751;-0.06028857;-0.029832143;0.024800453;-0.0905926;0.072543494;0.06889043;0.068537384;-0.030724958;-0.091913685;0.036247242;-0.040544707;0.045588516;-0.045141973;-0.048560653;-0.03702334;0.07297429;0.045262408;-0.08666155;-0.024608733;-0.029575378;-0.034177087;-0.004545017;-0.20683429;-0.08623166;-0.006490418;-0.09126264;-0.16378678;-0.32813933;0.10377809;0.08744907;-0.060298137;0.02791588;-0.026748978;0.031537388;-0.084177285;-0.032290425;-0.2442772;0.015857752;0.032217246;0.012848777;0.047121454;-0.06870407;0.09981864;0.029924568;-0.05529573;0.0026941104;-0.02579699;0.06690478;-0.048012063;-0.09443911;0.06162141;0.004093459;-0.19768853;-0.0061917906;-0.03469558;-0.027657472;-0.031933907;0.062039748;0.032921597;-0.060889482;0.09359359;0.02289322;-0.02429464;-0.3064274;-0.04887224;0.07598672;0.1419299;-0.041182566;-0.122428484;-0.11095933;-0.03509981;0.01612523;-0.0018861423;-0.07360741;-0.04478243;0.013130766;0.11951341;-0.08323354;-0.07016976;-0.038821712;0.065062605;0.010941824;-0.070559934;0.025557423;-0.047232017;0.014267668;0.016384397;0.018633315;0.029793698;-0.03452727;-0.1252309;-0.21407193;-0.033600125;0.071974024;0.094630115;-0.07656397;0.07302511;0.004375723;-0.23973723;0.022417042;0.14286298;-0.06183107;0.079742275;0.099470854;0.03305976;-0.003298241;-0.011224212;0.007909768;-0.040428456;-0.06584248;-0.069826454;-0.031853385;-0.021709863;0.005885129;0.0011723796;0.008201205;-0.023165327;-0.07984356;-0.041734114;0.10848552;-0.09277112;-0.045366745;0.033373065;0.003986395;-0.17262188;0.05864147;-0.011522608;0.062166203;-0.048316397;0.024625393;0.014398783;0.008173876;-0.08582213;0.05478272;-0.06494844;-0.19576083;-0.0826454;0.023498587;-0.0086879255;-0.1999162;0.060881924;-0.03434811;-0.013735105;0.077376075;0.032044794;-0.1345591;-0.069293536;0.1826253;-0.058592945;0.015732102;-0.16197667;0.06348355;0.05113854;-0.055669386;0.00068858196;0.03525107;0.14997414;-0.014303947;-0.0017729423;-0.004637115;0.03383783;-0.056690577;-0.060913082;0.04979005;0.09414941;0.0256639;0.03248982;0.09482168;0.12469681;-0.059300415;-0.046298157;-0.010803715;0.15070626;-0.035310037;0.021731509;-0.26663306;-0.046410166;0.15837501;0.02748309;-0.060841955;-0.0011426962;-0.23827735;-0.013175177;-0.066299334;0.1295347;-0.08961514;0.01803079;0.019237135;0.027981725;-0.03715543;-0.12665547;-0.029896524;0.05870913;0.07354521;0.06275051;-0.10125471;-0.04587535;0.067528546;0.18690929;-0.023387;-0.05663593;-0.14577873;-0.060112506;-0.033842925;0.0073807174;-0.10995252;-0.07020763;-0.098406084;0.063962355;0.009897732;-0.0070733693;-0.0438921;-0.02749891;-0.03163309;0.012339245;-0.0694927;-0.03161303;-0.07496691;0.042982273;0.042302527;-0.06112806;-0.105698235;-0.028723756;0.15353787;-0.04234282;0.012354342;-0.07826737;0.099585816;0.01761938;-0.08448853;-0.050130222;0.010613618;0.014185229;-0.08699649;-0.22050372;0.039948042;0.10557767;-0.10122896;-0.00031874338;-0.08441176;0.07227155;-0.045077942;-0.10954011;0.11846772;0.017633181;-0.14758445;0.097223185;-0.15481274;0.049909838;-0.0011193979;0.13678332;-0.031893;0.048064888;0.07467729;-0.10300394;0.026429126;0.049505994;0.09896627;-0.062804915;0.09226076;0.059635956;0.06403946;0.056324977;-0.030932412;-0.09010169;-0.026927795;0.022416024;-0.08337744;-0.064933166;-0.050257877;-0.07913128;-0.080592915;-0.063520774;0.026340041;0.13950863;0.06626593;-0.027152602;-0.011470739;0.080724016;-0.059884544;-0.027038468;-0.07733057;-0.15074502;0.020652026;-0.092466444;-0.09633995;0.029593725;-0.08611152;0.010968918;-0.14005038;-0.013613713;0.055424105;-0.046508536;-0.041684933;0.087689966;-0.05103444;-0.10202906;0.019241108;-0.051074013;0.1705118;-0.002140673;-0.08570938;0.07317473;0.03849083;-0.055895887;0.18423015;0.074713774;0.043093607;0.077220276;-0.08750532;0.09951288;-0.007388253;-0.06717319;-0.055716205;0.0399635;-0.032180313;-0.09343368;0.02540569;-0.18918915;-0.010222803;-0.02765048;0.030338189;-0.022533605;-0.06067218;0.119212285;-0.16596936;-0.0707028;0.003951189;0.07390567;-0.013116669;0.066880204;-0.013151674;0.02804962;0.061906975;-0.0849599;0.07738723;0.11116679;-0.003043239;-0.06983885;-0.019291;0.120594285;-0.08139878;-0.11378697;-0.0518287;-0.043280423;0.08309967;-0.121240675;-0.08878658;-0.026742503;0.077176474;-0.043061413;-0.046360523;-0.053698074
-0.05184302;-0.025272895;-0.05736154;-0.037070792;0.15079974;-0.08083151;0.01699427;-0.19253296;-0.059765443;-0.073982395;-0.07044235;0.033618934;0.031168867;-0.043248046;-0.059102487;0.076237865;0.19358201;0.041662086;-0.055161417;0.0018012506;0.009683526;0.017247409;0.05974396;-0.026004361;0.05144002;0.039380126;-0.016713833;0.043188836;-0.04744838;0.015957156;0.08521566;-0.021395033;0.083181046;-0.060183123;0.07082275;-0.005138366;-0.05985361;0.006261363;-0.0018569463;-0.028360197;-0.091529615;0.02389165;-0.11247683;0.01515963;0.022758402;0.03957997;0.06930227;-0.021805571;-0.004207735;-0.07178875;-0.20023668;0.013241395;0.10603722;0.061852377;-0.03155411;-0.21618123;0.013162586;-0.0068856543;-0.110006;-0.030817283;-0.004723266;-0.10801992;0.0769861;-0.031413376;-0.061875246;-0.059032846;0.093269646;-0.018804155;-0.0937153;0.015337425;0.060886018;0.06041101;0.00076554605;0.042266183;-0.006810966;-0.0016507838;0.042447243;0.041688062;0.059628293;-0.26473507;0.0149968695;-0.04791386;-0.07426895;0.049686216;-0.023967493;0.07774939;-0.031143133;0.07825511;-0.0706128;0.047912546;0.014095808;-0.15315816;-0.14080215;0.014095819;0.02936892;-0.04700027;0.008386499;-0.010277451;0.024074415;0.011896707;-0.12402512;0.0105471425;-0.035937574;0.033327386;-0.023910802;0.04320128;0.0065270625;0.043237768;-0.02644696;-0.0021717348;0.0065249344;0.03725398;-0.044741616;-0.019909624;-0.051008806;0.056178663;-0.050332144;-0.20909439;0.0146735115;-0.074731804;-0.01911741;-0.010917505;-0.11276272;-0.00242542;0.011520574;0.0015343039;0.0067506256;0.045980792;-0.04889539;0.039105996;-0.041643422;-0.010519146;-0.0065738303;0.051561136;0.10314526;-0.0035012704;0.06352395;0.04377982;-0.062957525;0.059171375;-0.07629924;0.039400194;-0.038996875;0.049732234;0.060558766;-0.0620973;0.10868882;-0.01201986;0.10712579;0.07969559;-0.016777739;0.06815881;-0.050530806;-0.16726018;0.035193708;0.06735036;0.019104974;0.07524663;-0.028541902;-0.039989937;-0.02531842;-0.030884122;-0.03799139;-0.023694467;-0.0034939165;0.022498142;0.0048087095;0.075082116;0.06729333;0.05154853;0.14909434;-0.023265805;0.1038237;0.00637397;0.13174656;0.05572805;-0.06358332;-0.11168159;-0.045857154;-0.016552271;-0.050062053;-0.14195843;-0.03993536;0.12930621;-0.2242872;-0.00860268;-0.05448899;-0.012545714;-0.07376155;0.019695796;0.11116774;0.039971124;0.07881882;0.07069081;-0.049418718;0.04066255;0.059674777;-0.005800764;-0.06768461;0.06293837;-0.0050586704;-0.07509187;-0.07422982;0.048797958;-0.23912883;0.00082282483;-0.13396123;0.13876133;0.034395278;-0.11990678;-0.0015004484;-0.03078182;-0.02944653;0.13604729;-0.008057786;-0.021555202;0.13477705;-0.012207848;0.09244316;-0.024827445;-0.02399456;-0.009317548;-0.082701884;-0.05639419;0.06310061;0.023612015;0.046022527;0.08225223;-0.02043175;0.01729567;-0.036129832;-0.0064712423;-0.07208157;-0.10796778;-0.09668278;-0.07091594;-0.016202893;0.06453727;-0.034033198;0.0425085;-0.06801932;-0.014308506;0.022081027;0.029498367;-0.02975355;-0.15920897;-0.06885956;-0.028032377;0.014798643;-0.11941151;-0.31753525;0.0661799;0.06259332;-0.04389919;-0.050963905;0.05541155;-0.090080224;0.0030559357;0.05615312;-0.26750514;-0.050286748;-0.052651294;0.0037635446;-0.118191145;-0.1588504;-0.02943861;-0.12027011;0.04807875;0.04384835;-0.03621807;-0.026583571;0.038715903;0.04897277;0.12479491;-0.02453017;-0.016899573;0.010004775;-0.022166476;-0.006558029;-0.024944533;-0.021393914;0.052108802;-0.07348068;0.035866015;0.0060150456;0.020104198;-0.2800546;0.0058776936;0.061598185;0.05631833;-0.08359478;-0.12686788;-0.17743902;-0.039788317;-0.0032783323;0.02329906;-0.002498189;0.0024343776;-0.0416143;0.023599535;-0.04414172;-0.0660775;-0.049018715;0.113287605;0.040730827;-0.003091705;0.048611026;0.015833978;0.0575517;-0.25715467;0.02994854;0.05788876;0.032913286;-0.1231587;-0.20855077;-0.04217743;-0.007480597;0.008039402;0.093743116;0.0037840526;0.04794467;-0.16520092;-0.011941606;0.08815179;0.007952854;0.017379157;0.13712013;0.1057824;0.007802751;-0.0903036;0.06926809;0.06846593;-0.18039057;0.051674552;-0.060363118;-0.042654805;-0.12551014;0.063298576;0.056446433;-0.053737573;0.10000913;0.09309731;0.011914536;-0.015245874;-0.027338646;0.010833992;0.23743613;0.003595218;0.038026765;0.009123142;-0.018807946;0.06879954;0.102645986;-0.020555474;-0.07156414;0.056334354;-0.03173489;-0.0717696;-0.12766962;0.089491315;0.048392165;0.03326845;-0.07538813;-0.033445504;0.00878674;-0.06467401;0.036540013;0.062166035;-0.23035286;0.015140177;0.19092022;0.067069456;0.18972129;-0.052500185;-0.014570599;0.03171068;-0.050917856;0.07552725;0.037558686;0.074087106;0.021963095;0.04862052;-0.08887822;0.013467379;0.045680378;0.011821846;0.08459089;0.009776494;0.0023589283;0.017908003;-0.011431351;0.063628964;0.052216884;-0.02517186;-0.038409036;0.112428136;0.007949298;-0.02769166;-0.13101184;0.009524654;0.09937818;0.056352265;0.05273153;-0.013358449;0.048129644;0.19661011;0.07506677;0.23780413;-0.109826446;0.07094559;-0.04035395;-0.04485524;-0.02091103;-0.027205234;0.015365228;-0.0790156;0.071955375;-0.16582513;-0.029907577;0.07905257;0.086397834;0.0534133;-0.06821815;-0.013521501;0.03477585;-0.07527157;-0.06512289;-0.040693738;-0.1653901;-0.052250583;-0.05691638;-0.091172636;0.0036653767;-0.031417213;-0.06833371;0.028524637;0.08163834;-0.058539238;0.06356251;0.006833679;-0.07299541;0.002220034;0.1097692;-0.08114221;0.05443031;-0.03893272;0.13005292;0.038783923;0.034938503;-0.04189276;0.07299483;-0.09380401;-0.058128353;0.00076092314;0.06456454;-0.2029027;-0.0077859582;0.024640083;0.053408414;0.030541686;0.018169945;-0.017722396;0.05122355;0.08419921;0.010540688;-0.2353602;-0.092551045;-0.043187756;-0.019560296;-0.031493846;-0.15011713;0.038897377;0.011628343;0.12612987;-0.06585798;-0.029429205;0.03619686;-0.021011397;-0.025774684;-0.04149964;0.08874983;0.057750035;-0.07500549;0.06635648;-0.030583704;0.018491061;0.031329677;0.023353552;-0.013912289;0.027155086;0.010072837;-0.09761223;0.072796166;0.008165903;0.019716486;-0.04634747;0.047528148;0.121142;0.099511646;0.025429415;-0.15818253;-0.03066438;-0.08388566;0.09990763;0.026543155;-0.09756742;-0.0019086571;-0.012106521;-0.06376017;0.03134896;-0.068721816;-0.053783722;0.015389555;-0.074662074;0.06424369;-0.040149413;-0.040739052;-0.02616918;0.065890536;0.080501586;0.06760663;-0.016469095;-0.02514359;0.033076975;-0.029025663;0.04647926;-0.044237643;-0.060285263;0.12577622;0.0007360132;0.0048190374;0.08331108;0.13506095;0.009063803;-0.008609649;0.057668086;-0.033465285;-0.019249573;-0.03155726;-0.035875108;0.042865932;0.0060586412;-0.05730318;-0.016029274;-0.059005164;-0.054118372;-0.037359502;0.02904503;-0.108630575;-0.024235291;-0.08390186;0.067627095;0.02729723;0.031849664;-0.023331936;0.08979497;0.03554968;-0.14203481;0.025243312;-0.1950998;0.0105760675;-0.02540139;-0.18438599;-0.017078912;-0.08877345;-0.023231823;0.062579;0.04948644;-0.07546814;0.048800997;0.08766589;0.043749094;-0.00826758;-0.004160898;0.05063807;-0.16539428
-0.04688638;0.022811672;-0.04090857;-0.044003274;0.31820637;0.040667128;0.021866255;0.03787477;-0.15603964;-0.18930301;0.012503787;0.050910126;0.053857636;0.111491546;0.007848074;0.0892725;0.23784184;-0.03213774;0.104182325;-0.030305415;0.0046188934;0.07046758;-0.026709227;0.08052749;0.01936843;-0.035309806;-0.005569949;-0.013777616;-0.13141957;0.065261185;0.096963055;-0.0078481;-0.06750321;0.058603097;-0.0016689026;0.012423569;-0.023621928;-0.03198895;-0.042218458;0.05210535;0.10543237;-0.040983878;0.014533649;0.0359725;-0.033750396;0.01637243;0.054413762;-0.08162373;-0.11592162;0.01807936;-0.06157204;0.01117508;0.15095712;-0.023714453;0.053912207;-0.07563934;0.04212965;-0.049904626;-0.15625076;0.037202638;0.007875191;0.053557955;-0.07099308;0.05799316;-0.03879181;-0.12568657;-0.061723888;-0.023137366;-3.6646936e-05;0.085841686;0.0006168;0.016758628;0.058757026;-0.024486564;-0.09828502;-0.054946207;0.0054613035;0.08966971;-0.046596993;-0.27565145;0.034799315;0.027850864;-0.037803635;0.023442;-0.040272176;-0.001330216;-0.069387116;-0.026993362;0.054477952;0.07930059;-0.05701947;-0.049754646;-0.0137096;0.02988361;-0.04510354;0.031942558;-0.1577187;-0.11512155;0.024791952;0.033510774;-0.03270456;-0.05572777;-0.1210415;0.025078276;0.053012233;-0.062385947;-0.027274536;0.11946695;0.11220465;0.003246724;0.0200669;-0.047294784;-0.010562758;-0.013903463;0.09391081;-0.11542818;-0.06050852;-0.12429722;0.09492484;-0.0017880244;-0.024110649;-0.018084459;0.0030199604;-0.03556885;-0.028041968;0.0109362295;-0.057157412;0.06527456;0.008607156;0.052513987;-0.043995157;-0.14353378;0.04444613;0.09946291;0.21142368;0.033305004;-0.085779935;0.0035355298;-0.033103686;-0.0147935245;0.07681492;0.04782364;-0.040023096;-0.005141511;0.08909804;0.045660753;0.077880755;0.039667312;0.07756065;-0.028878277;-0.02132259;-0.08979445;0.054328214;-0.003369109;-0.051999595;0.0011827725;-0.0452533;-0.018117538;0.036137953;-0.1423056;-0.013294815;0.037529565;0.08681194;-0.1336603;-0.079323046;-0.06621075;-0.08820435;-0.05207647;-0.09989174;-0.01903852;0.27451834;-0.030558087;0.05930172;0.027694488;0.09305897;0.05048445;0.04300999;0.03656197;0.10180744;0.009091624;0.056837752;-0.23342496;0.040371966;-0.15561067;-0.26910257;-0.030761847;-0.059756283;-0.065868124;0.043832812;-0.079582624;0.01678196;0.09989459;0.11714599;0.00826952;-0.086630076;-0.26213968;0.026216257;0.006031117;0.052584883;0.2220221;0.058156364;0.05602285;-0.023544377;0.016149888;-0.21891971;0.0039472994;-0.32871693;0.08890999;-0.013231879;-0.104337476;0.037453882;-0.014530938;-0.10614173;0.10132449;0.11530709;0.11195539;-0.01457599;0.09667664;0.13078366;-0.017043466;-0.092015505;0.020226073;-0.055917542;0.01766972;0.078734845;0.033942994;-0.023449933;0.11778999;-0.06206097;0.03350598;-0.020746905;0.004707204;-0.05109285;-0.10477322;0.057052735;0.10003851;0.056379877;0.10267665;-0.0038697454;-0.01468534;0.013858815;0.0119048515;-0.084200405;-0.0060616643;-0.08486096;-0.08744838;-0.0058738943;0.10619022;-0.010868237;0.043690108;-0.14638978;0.07602721;0.11490421;0.05070002;0.043553215;0.06926999;0.033070225;0.005553773;-0.08248726;-0.21234667;0.03961147;0.0527684;0.028610818;-0.12867722;0.050080273;0.053446133;0.10632185;0.054984797;-0.015902689;-0.032801326;-0.06396902;0.049332272;-0.03678122;0.09122708;0.14512867;0.049204245;-0.021436354;0.101992965;-0.00128195;0.031939436;0.17416981;-0.008428686;-0.06042235;0.095100135;0.032084193;0.015576114;-0.13151218;-0.015001547;-0.054315317;-0.07521916;0.09116511;-0.1847341;-0.03584882;0.0090269325;0.0422973;0.042326435;-0.039995134;0.081739224;0.06785014;0.06165905;0.0024740628;0.0764286;0.09392399;0.024429405;0.062757805;0.01175946;0.0046785004;-0.019552156;0.04744485;-0.14569639;0.033428602;0.052208807;-0.008751775;-0.16529551;-0.03866561;-0.08216112;-0.051545504;0.042278063;-0.007834556;-0.006450871;-0.025180573;-0.14689608;-0.05351277;-0.06261783;0.028021857;-0.020539714;0.021858092;0.06715571;0.067698896;-0.027837895;0.0066933115;0.0005998689;-0.19711903;0.031712234;-3.5120232e-05;-0.170041;-0.08826261;0.054658324;-0.052375976;0.026252508;0.118525185;0.08671443;-0.07727813;-0.16853939;-0.015679147;-0.013633909;0.09669474;-0.027924238;0.017091105;-0.09196368;-0.0035030562;-0.022741301;0.014544177;0.046204045;0.025608031;-0.0017321636;0.04238202;0.028114093;0.08372247;-0.014917186;0.12405723;-0.037556756;-0.2029805;0.02516006;-0.0614435;0.02480794;0.026650568;-0.069807105;-0.004368925;-0.030625071;0.10512646;0.039992508;-0.0016092975;-0.06733085;-0.065784685;0.08116058;-0.069560565;0.14163338;0.08601615;-0.1536489;0.026258236;-0.031958956;-0.009202317;0.020435598;0.0040961886;0.078522615;0.0037735533;-0.049332988;-0.031740744;0.0050057056;-0.031120235;-0.0023776903;0.059456486;-0.04440851;-0.004390662;0.075948805;-0.014071847;-0.056802154;0.017531961;-0.013393884;-0.011598464;0.059119597;0.051284004;0.11138919;0.02895848;0.07171158;0.09281547;0.16732518;0.13275675;0.013118809;-0.098380625;-0.07765261;0.033041596;-0.096667774;-0.072078414;0.06026818;0.052164707;-0.014793691;0.05865723;0.03301426;0.18230724;-0.055060815;-0.22309381;0.11754235;-0.05243177;-0.2090338;-0.05100567;-0.068404816;-0.13134141;0.07668795;0.014413964;0.05744224;0.017055226;0.03682185;-0.08015919;0.10066876;-0.044550203;-0.05642135;0.046417605;-0.069018885;0.06296965;0.018138234;-0.10601669;0.13191819;-0.10650896;0.0015680434;0.16944088;-0.06318777;0.030729106;0.053218596;0.15699224;-0.08710019;0.026157804;0.01790805;0.009829707;-0.11659959;0.00052503345;0.048348185;-0.0835375;-0.060339835;0.0023724462;0.025611926;0.038802702;-0.12918214;0.101418614;-0.22970355;-0.09036661;0.058880296;0.08763891;-0.06863522;0.10073275;-0.0073827133;-0.036969654;0.07759184;-0.0514377;-0.04851675;0.02421798;0.028643936;0.03380176;0.02251205;0.029967682;0.08490352;0.028279237;-0.11515844;-0.036456943;-0.08834257;-0.18443522;-0.04002737;0.043111697;0.026970077;0.009813031;0.043575242;0.04917927;0.020599615;0.100134745;0.088080056;0.08272432;0.06975035;-0.029122313;0.10682105;-0.26527232;0.066470295;0.0014747777;-0.019025045;0.019765714;-0.11491822;-0.060128577;0.12431933;0.05504515;-0.031519488;-0.014345976;-0.025149494;-0.03922822;0.0034934836;-0.027023226;-0.0021056666;-0.045095146;0.021741092;0.04704868;0.006940488;-0.007358836;0.10814978;0.115061894;-0.040416688;-0.056895263;-0.06833138;0.0011896023;0.11182172;0.23244204;0.003230932;0.014192729;0.06402095;0.05540046;0.024033826;-0.0019257109;-0.072514325;0.07238544;-0.025749393;-0.047872562;-0.105905406;-0.08090859;0.032285873;-0.0739473;0.07649843;-0.02751637;-0.09115455;-0.09903011;-0.0432426;-0.015665298;0.007572604;-0.11889775;-0.0734458;0.0019637982;0.010406604;-0.053724848;-0.23115465;-0.08435766;-0.097739674;-0.013087999;0.037196044;-0.016253538;-0.033170063;-0.20540181;-0.05634497;0.04529318;0.01896827;0.017445005;0.08891169;-0.070850424;0.024035195;0.101785615;-0.024105445;-0.20070285;0.06221431;-0.04708894;-0.13849162
-0.1398488;-0.09042654;0.10861567;0.08320531;0.20179859;-0.051398195;0.0108403275;0.0015444111;-0.20198214;-0.040350545;0.02989247;0.14048544;-0.07955185;0.102014445;-0.04904096;0.012214996;0.15817308;-0.12181813;-0.048711166;-0.0008515467;-0.066552415;-0.086803935;-0.040796384;0.020078171;0.03149417;0.06830413;0.0046005077;-0.07892383;-0.3255659;-0.056226596;0.040144097;0.0017375969;-0.013518565;-0.021768445;0.019961812;0.03707713;0.106568046;0.05680052;0.08293074;0.00407826;0.036222868;-0.06030951;-0.123352826;0.017293967;-0.026281526;0.0025705213;0.07988654;0.0700795;-0.07648923;0.07559396;0.21747585;0.013407589;0.16871244;-0.0031439806;0.0183036;-0.15465812;0.033425637;0.028761877;0.00031752404;0.047556747;0.08930907;0.07604664;0.017287664;0.028137617;0.07448271;-0.09657835;0.04832624;0.10489654;-0.005016328;0.095449746;0.06563911;-0.03749829;0.021759095;0.064676784;-0.14731847;0.034729593;-0.13560069;0.16600265;0.11229709;-0.17112915;-0.036768056;0.029142568;0.091365084;-0.04339186;-0.1700455;0.038622383;-0.045724057;0.030326512;-0.0032596663;-0.037079684;0.06746054;-0.09501535;-0.011963294;0.007888213;-0.030347997;0.009708811;-0.13714969;0.011382907;0.08546508;-0.004970199;-0.15916273;0.023051938;0.046718076;-0.061369028;0.034964863;0.051949203;-0.05540671;0.07984539;0.119573295;0.005073358;0.013992702;0.06772097;0.028087636;0.0726722;0.025881743;0.014252986;-0.016798666;-0.013017058;-0.017475951;-0.021178331;0.080333084;0.015040933;-0.069239475;-0.08459032;0.006287663;0.079958275;0.024560127;-0.02146767;0.09008121;0.050774246;0.10185328;-0.33075634;-0.07074951;0.03212229;0.09437545;0.07516103;0.00018785305;0.059086934;-0.023717025;0.06377398;-0.025016213;-0.057813644;0.049891688;-0.0636305;0.076930985;0.010765211;0.12221262;-0.05383147;0.079685606;0.072182864;0.11128488;-0.14494638;-0.055541307;0.00137464;0.04195526;0.045304317;-0.09183755;0.043147463;-0.11508623;-0.12118776;-0.017392175;-0.027914906;0.02959365;-0.23389696;-0.056570183;0.0014436906;-0.007369253;0.032615494;-0.089307204;-0.044944882;0.03104813;0.0032957823;0.02431323;-0.03507896;0.05537786;-0.034111056;-0.017415553;0.0077196504;0.11566263;0.08716831;-0.029275876;0.04441549;-0.006926843;-0.10598352;-0.07804011;-0.042113323;-0.07745015;0.0076851468;-0.0078113344;-0.10844549;-2.684753e-05;0.072405085;-0.09343038;0.03167703;-0.07165136;-0.14001346;-0.062976904;0.09087416;-0.054106258;0.18548952;-0.041750167;0.064160615;-0.03085832;-0.035226688;-0.016682904;-0.037339434;-0.039025623;-0.11744032;0.0027936467;-0.11649561;-0.038786683;-0.09055816;-0.17380947;0.026814822;0.004184096;0.068459585;0.00053473475;-0.045483466;-0.014930364;0.06998133;0.051904917;0.07917031;-0.0058689252;-0.06993301;-0.016634636;0.04254049;0.06856691;-0.0191831;-0.0067463703;-0.056705646;0.024044527;0.005951045;0.05924232;-0.014076424;0.046717532;0.09228611;0.035029814;0.18534812;-0.040636152;0.13201433;0.004819368;-0.009079068;0.09359449;-0.013323911;0.09666267;-0.17467713;0.011894005;0.045805413;-0.015704349;-0.01719312;-0.07315636;-0.070007324;0.1330862;0.05514026;-0.07093496;0.1071055;0.02834293;-0.017785745;0.044904865;0.018106278;-0.04914684;-0.027936112;0.029989026;0.017299755;0.052003603;-0.08095706;-0.05283336;0.24366747;0.20267244;-0.09793692;0.03090572;-0.03935086;-0.09261711;0.015641715;0.09382494;-0.01200471;0.119963415;-0.04630925;-0.034004595;0.075419426;0.09531936;-0.025004756;-0.12489018;0.10831139;0.049976744;-0.021758547;-0.06192187;0.031785678;-0.07262859;0.057291403;-0.066615105;-0.061224148;-0.049502216;-0.0018757967;0.15504768;-0.061417658;0.09265145;-0.06249311;-0.045979902;-0.019411134;0.07876872;-0.0027493504;0.065550245;-0.008925506;-0.120112844;-0.04086646;0.0018613738;-0.06948618;-0.07704483;-0.12752593;-0.1120428;-0.04204124;-0.038620632;0.016418487;0.022923417;-0.005005715;0.04471909;-0.08391965;-0.016154375;0.081788756;-0.052826233;-0.054835837;0.01671413;-0.08939836;-0.020170731;-0.023610743;0.03869001;0.006584907;-0.053980947;0.050998364;-0.0031074227;-0.034973647;-0.10902906;0.069193974;-0.024739696;-0.08274176;0.0016634124;-0.08468027;-0.0006054002;-0.039033744;0.056895234;0.034596022;-0.045384325;-0.04695431;0.085720606;-0.028773457;0.2206266;-0.047107078;-0.00037380046;0.07355707;-0.05687188;0.013821688;-0.015297881;-0.06501803;0.029783204;0.02670386;-0.07230182;-0.05008239;0.030205566;-0.078214884;0.03469121;0.092712425;-0.14077389;-0.0010576972;0.15132648;0.028480925;0.02336929;0.032845907;-0.04000079;-0.036990352;0.10090709;-0.0016025929;0.15742765;-0.043813545;-0.040877204;0.04467863;-0.015013815;-0.05520676;-0.07150647;-0.09887789;-0.03247615;-0.00082339847;0.101114325;-0.045230668;0.10224423;0.017604088;0.09111305;0.002821618;-0.046401203;0.023419533;0.017764058;0.015969321;0.025464412;-0.06217817;0.012396806;0.0060163727;-0.049943667;0.03880237;-0.09049293;-0.03797539;0.005780064;0.04078811;0.16376278;0.04216211;0.007931877;0.018778557;0.08060003;0.13780946;0.1213908;0.06525424;-0.041850697;0.053298526;-0.05864067;0.045140307;-0.044733517;0.10378049;-0.07016663;-0.030001473;0.06313369;-0.077771865;0.17573857;-0.06464016;-0.15532362;0.024346862;0.09002089;-0.0561282;-0.05410435;0.0082354555;-0.15809827;0.07589302;0.013219824;0.01590594;0.08278785;-0.03464839;0.035557948;0.07702656;-0.01092242;-0.0016904435;0.023146447;-0.01407435;0.017147336;-0.06547633;-0.020651216;0.104744345;0.009381139;0.0557842;0.073959105;0.03870665;-0.048811655;-0.022870418;0.2082521;0.09876659;-0.035210162;-0.007156398;0.0063658943;-0.11121534;-0.03916572;-0.24168092;0.08846821;0.012045826;-0.013293184;0.0006634667;0.03589131;-0.09235033;0.019909853;0.021369869;0.038653016;-0.07129896;-0.08831093;0.031269655;-0.028109232;0.017993035;-0.04638439;0.06656265;-0.061101247;0.14162439;0.10564527;0.0059128096;0.037434258;0.091498494;0.13825096;-0.027294055;-0.038686294;-0.086766064;-0.02885082;-0.06993575;-0.0596087;-0.031089347;-0.038578674;0.07035717;-0.017427163;0.06277665;-0.14525066;0.07147416;0.072343975;-0.03650143;-0.04088302;0.1555863;0.04543417;0.031576693;-0.09823397;-0.08424524;0.06791552;0.028427018;0.06921586;-0.09238928;-0.06220976;0.08365876;0.00891717;0.026821543;-0.12585035;0.04543999;0.041645914;-0.05049522;0.026224744;0.021608405;-0.00046951245;0.06524432;-0.0110667655;0.006335408;0.030860338;0.0073359506;0.16879229;0.13814028;-0.017864764;0.022183314;0.011867317;-0.008647622;0.06549226;0.001122258;0.06595322;0.066547014;0.052295957;0.06268088;0.04668277;-0.063194156;-0.046806037;-0.05026487;0.18728061;-0.017975522;0.12439241;0.14075649;-0.043280125;0.01780344;0.17328162;-0.27362484;0.055779845;0.11634512;0.094611615;0.0062181894;-0.051966887;0.0053772074;-0.08155354;0.029377166;-0.008799738;-0.07542318;0.0700449;0.12571275;0.049725965;0.20097929;0.01247383;-0.008195243;0.025257234;0.020885723;0.0013806426;0.060787946;-0.077502765;-0.026670912;0.19889891;0.079694845;0.07744089;-0.060011145;-0.086523175;-0.041587148;-0.0075763487;-0.30334446
0.05361309;-0.066034794;0.03964055;0.26728627;0.14087376;0.037124578;-0.03828407;-0.111682795;-0.20706491;0.005534969;-0.024087196;0.036694035;-0.10756783;0.025101082;-0.08199505;-0.013009381;0.08465156;0.08096899;-0.012613634;0.07468708;-0.030045677;0.027790343;-0.07468889;-0.09425458;-0.05999128;0.07207955;0.030831402;-0.022208761;-0.38520244;-0.07325599;-0.015246499;0.032770522;-0.035424903;-0.06261096;-0.007711419;-0.007917214;-0.0758348;0.013095247;0.044069536;-0.065460965;0.018446367;0.09548464;-0.13736372;-0.02517587;-0.003276343;0.0134628;0.02018626;0.03070796;-0.024539081;0.019527523;0.05417875;0.04700773;0.21669379;0.042942796;-0.061630197;-0.22152114;-0.057379123;-0.033377565;0.08468785;-0.013890444;0.009009252;-0.0070481305;-0.068376735;-0.0101231355;0.0088585485;0.07278167;0.0327137;-0.06676418;0.07867372;-0.07119681;0.019714009;0.059314776;0.053370178;0.021834774;-0.09406373;-0.046523105;-0.07273236;0.07201744;-0.062941745;-0.15704188;-0.041317914;-0.06081683;0.18885064;-0.028974367;0.07764247;-0.06678397;0.08213356;-0.04295618;-0.0976406;0.020897223;-0.012270158;0.04359802;-0.006754613;0.006135152;-0.033062894;0.053305034;-0.10916231;0.043665707;0.015242255;-0.020877846;-0.01901013;-0.061977345;-0.033223853;0.02726958;-0.041135944;-0.014351659;-0.100658506;0.05494859;0.11258465;0.07678624;0.024717072;-0.06781744;0.0073472406;0.075735226;0.006565422;-0.0678238;0.018455252;0.08768279;0.04122248;-0.00090173;0.12106275;0.036279686;-0.05816019;-0.013256416;-0.07449719;0.032609876;-0.00625077;0.041140985;-0.033892713;-0.0035749678;-0.022571338;-0.38899115;0.13563485;-0.10238679;0.10881717;0.021260649;-0.02941246;0.010404653;-0.008673328;-0.02920427;0.08321361;-0.088965155;-0.08983441;-0.048197914;-0.00033066716;-0.05859018;0.2059214;0.08537282;0.060551293;-0.07118595;0.028160302;-0.09716626;-0.075741515;0.056639683;-0.00020491952;-0.0069139604;0.078669384;0.12832011;0.004998699;-0.123601966;0.09379174;0.034225795;-0.0013595886;-0.24553014;-0.14697719;0.04180043;0.11503804;0.092796996;-0.09089759;0.036780465;0.01417665;0.03214244;-0.019226301;0.010479921;-0.015636686;0.06161009;-0.068235196;-0.047159266;0.041722745;0.020739093;-0.019765189;0.1104103;0.008386232;0.011321235;0.020771356;-0.04920453;-0.08066215;0.07767924;-0.043952268;-0.061875373;-0.027747687;-0.045634452;-0.08189675;0.052072857;0.013398973;-0.25762725;-0.05510863;0.056145962;0.02907109;0.05439665;0.032427788;-0.012991545;0.0028434282;-0.07101559;-0.08092114;0.06422795;-0.083856516;0.023133827;-0.008632712;-0.025333766;-0.037027147;-0.03972179;-0.39827073;0.09454868;-0.018308384;0.011694548;-0.23856193;-0.123183094;-0.26731822;-0.029832996;0.043024436;-0.044295996;-0.11781569;-0.06063827;0.03558835;0.07027044;-0.02136041;0.078307316;0.023465447;-6.636664e-05;-0.074365795;0.07197285;-0.06547108;0.11368439;0.026738679;0.04539646;-0.025120905;0.10055143;-0.037041996;0.24650607;0.026331581;-0.044829085;0.069941856;-0.04843659;-0.01918542;-0.18225594;0.022955587;0.023448363;0.08785365;0.081357695;-0.07633355;-0.024913784;-0.06521361;-0.014133845;0.017671425;0.094080076;0.0056299227;0.070503496;-0.053703107;-0.067438915;0.034949336;-0.0495948;0.05326164;0.24153295;-0.0027658865;0.01903946;-0.08088515;0.108782634;0.0790051;-0.039907735;0.025124256;-0.017675268;-0.02057464;-0.005124178;0.037646055;0.0016679052;0.13665678;-0.030844297;-0.029251281;-0.12814808;-0.018320149;0.011662434;-0.07946204;0.09003104;-0.0022193817;0.00021874768;-0.15412162;-0.06639437;0.034531094;-0.08550631;0.026294867;-0.109415196;-0.07920058;0.010373015;0.104598105;-0.04582802;-0.07989515;-0.08838426;0.08057068;-0.018957388;-0.06219795;-0.039813027;0.03372387;-0.090794355;-0.21305242;-0.011054748;0.0633956;-0.097453915;0.007917109;-0.046176843;-0.08175995;-0.067823075;-0.04506666;0.21524872;-0.15191992;0.058539093;-0.020992955;-0.025144745;-0.041877102;-0.016073717;-0.07085236;-0.06270992;-0.0681205;-0.021099456;0.047473468;0.016710622;-0.05106182;0.05481649;0.03516648;-0.01472348;-0.04406151;-0.046484135;-0.07028718;-0.07542244;0.025493577;0.041919276;0.08321947;-0.028239649;0.14424111;-0.05675573;0.02690615;-0.07287458;0.0155930305;0.10052993;-0.043724664;-0.087505;0.17883073;-0.01466525;0.04049354;-0.076099895;0.07176834;-0.1012469;-0.017918479;0.07147957;-0.015072312;0.013709166;-0.023020986;-0.055257723;-0.07623546;0.019782672;-0.010467779;0.026903704;-0.044591468;-0.0053548585;0.08900908;-0.054425303;0.018269207;0.031552393;-0.17052364;0.09918052;-0.21566871;-0.053778086;0.035132904;-0.005906669;0.056150366;0.006536325;0.03841343;-0.14130701;-0.05705291;-0.0046459897;0.032425735;0.14065266;-0.015694408;0.0044161323;-0.031678014;-0.013112072;0.031708643;0.020971352;-0.015035369;0.029038845;-0.030606989;0.0753486;0.05125216;0.063394636;0.03440438;0.02634182;0.012996283;-0.05021311;-0.022129437;0.037818056;0.00075595384;0.036285624;0.03527377;0.03539165;-0.0037639723;0.07300617;-0.03289215;0.097421564;0.053069778;-0.041023895;-0.016383022;0.04775243;0.010264114;0.100826055;-0.058888033;0.026193177;-0.057401143;-0.057613943;-0.010091952;-0.054437343;0.22590576;0.008014374;0.011695767;0.03493016;-0.046607308;0.009315989;-0.024091719;-0.020935532;0.023717446;-0.0062470045;-0.017871141;-0.115987465;-0.035794638;-0.050354354;0.05396165;-0.0113558415;0.061864648;0.015186541;-0.07712613;0.014038284;0.001574883;0.04180411;0.076854564;-0.049571;-0.07941314;-0.07449202;0.06608035;0.035646632;0.0325101;0.10135903;0.15643765;0.12772192;-0.028757859;0.07463742;0.17229168;0.15630113;-0.0032368388;-0.19441651;0.08078005;0.045537382;-0.034777727;0.005824794;-0.05422841;-0.065736234;-0.009621456;-0.00036848043;-0.20730305;0.06878118;0.024685314;0.06320195;0.0011428051;-0.0064123697;0.040896922;0.088694274;-0.012010564;0.08031129;0.060384534;0.12881614;-0.04640828;0.075281285;-0.026071323;0.045557126;-0.078112744;0.10055531;-0.004240472;-0.07752345;-0.08918637;0.09482306;0.054279275;-0.032758303;0.17097466;-0.11536269;-0.09139842;0.019940158;-0.043578345;-0.029533785;-0.012586226;0.13077718;0.009370125;0.035769157;0.00375299;-0.0147306;0.06669849;0.089199446;-0.10612345;0.02883863;0.034771387;0.013124813;-0.044890665;-0.101939976;0.08871921;0.050579075;-0.08944051;0.053426396;-0.11546191;0.089700304;0.20925741;-0.0074235634;0.038461845;0.11736157;-0.0049574957;-0.05372765;0.18762219;0.061364565;0.08174483;-0.035979845;-0.031834967;0.0024827851;0.13129811;0.03555029;-0.040039092;0.039907143;0.14643562;-0.0019994667;0.053402837;0.069959655;-0.015425474;-0.011682448;0.04924695;-0.17658962;-0.052866925;0.06417939;0.0128327785;-0.0006232536;0.03921418;-0.27722055;-0.10685483;0.0702301;0.27675653;0.050084613;0.07930153;-0.00926308;-0.050772425;0.012548895;0.10763806;-0.040705692;-0.007311637;0.06671429;-0.052293032;0.06599295;0.048959997;-0.09274752;-0.06383361;0.027612908;0.018495811;-0.07780973;-0.0054127914;0.018220257;0.20068379;-0.05868316;0.08982085;-0.017600657;-0.005869073;0.06925431;-0.05100503;-0.26780605
0.0146987755;0.018804036;0.11322342;0.13395487;0.0035700384;0.05879033;0.048811864;0.07632034;-0.28218162;0.046699975;0.05226848;0.16878787;-0.029365433;0.057039242;0.0081593655;-0.037471272;-0.072908096;-0.11593627;-0.059648044;0.016454488;-0.05883748;-0.07540107;0.011129509;0.04329432;-0.07518827;-0.00453538;-0.12097214;-0.06255658;-0.105150536;-0.05192442;-0.034119356;-0.012398791;-0.07380201;0.025204577;-0.072805725;-0.03882683;0.10054324;-0.057098765;-0.0024061576;-0.014337024;0.042253513;-0.06407366;0.10271436;0.025975203;-0.0841619;-0.082514994;0.03884845;-0.104252964;0.03959744;-0.07369705;0.20002279;0.02872523;0.2501255;-0.08426312;0.018925907;0.054377228;0.08278138;-0.021558747;0.13579984;-0.01579914;-0.045763135;0.061503924;-0.01386015;0.0028247053;-0.05853256;-0.014180838;-0.07505672;-0.06385343;0.08689182;-0.010780585;0.032883428;-0.029579287;0.047010012;-0.036840934;-0.16967764;-0.059560157;-0.19481704;-0.0587009;0.026302496;-0.114690445;-0.015068085;0.0045063533;0.17878076;0.056724858;0.04803923;0.0057655396;0.05038573;-0.19052227;0.03424124;0.06570694;-0.040030878;0.19660887;0.17606561;0.05540513;0.03492148;0.073169395;-0.10467044;0.07161605;-0.021767175;0.050787695;0.10293224;-0.03385121;0.06178978;-0.040967166;0.060320415;-0.06463428;0.06791976;0.14243971;0.05226626;0.00078384107;-0.040456958;0.02601325;-0.030724367;0.04801126;0.08346488;-0.095893644;0.008524422;0.2122376;-0.011594624;0.017094286;-0.0071614003;0.06781864;-0.011216495;-0.024657687;-0.00023741469;0.028285991;0.1398134;-0.018491581;0.1030943;0.0640307;-0.00065169885;-0.023445208;-0.010528622;0.013398718;-0.048859768;0.028011594;0.035607804;0.10326716;-0.032386854;-0.055628028;0.061433375;-0.058872018;-0.08869184;0.0536704;-0.048823714;-0.010441328;0.13093106;-0.019369869;0.089264825;-0.04114479;0.050377887;-0.2034443;0.044107173;0.04345034;-0.01341198;-0.0715568;0.03663611;-0.0071953177;0.026505277;-0.08864229;0.033174258;0.12329583;-0.027127648;-0.19603172;-0.034930643;-0.034561723;0.14861225;0.047617376;-0.14108653;-0.03991694;-0.031632856;-0.038445108;0.0006772629;-0.05760194;-0.021533241;-0.054850876;0.031813666;0.03468101;0.14384407;-0.017641895;-0.17024606;0.05852496;-0.0675051;-0.060714964;-0.15508093;0.0496359;0.017365059;-0.037602104;0.006445728;-0.004584925;-0.10705917;0.087208465;-0.13247247;-0.054829337;0.07488992;-0.30632156;-0.10195299;-0.018866211;-0.073973514;0.12717725;0.030259358;0.059057545;0.0241042;0.023741744;-0.12305949;-0.069739945;-0.14368287;0.021846179;0.0501344;0.14544171;-0.0040759128;0.009254146;-0.2326713;0.12788168;-0.033953868;-0.16244623;-0.05841042;-0.047656994;-0.15220897;-0.09148822;0.037043635;0.021057282;-0.255963;-0.04935805;-0.13525636;0.0072508026;-0.00494691;0.009787764;-0.05335727;0.046152018;0.022852246;-0.033752196;0.048019275;0.13865653;-0.013153249;0.038892843;0.012389034;0.014593705;0.020967107;0.073896;0.034417007;0.025429433;-0.047976043;-0.08538146;-0.04865813;0.040720854;0.11194932;0.11910557;-0.04497822;-0.039771106;0.16501999;-0.070501216;0.060955424;0.016588597;-0.07801305;0.18040134;-0.052980654;0.039858922;-0.01251187;-0.08074117;-0.024131447;0.014014534;-0.0028896343;0.1393626;0.052467465;-0.013543516;-0.04762162;-0.0062721944;-0.14903998;0.07211007;0.0011253941;-0.07292424;0.01747913;0.071793795;-0.0046704346;0.09321512;-0.016787656;0.059432745;-0.0018305534;-0.14417197;0.038611602;0.01780333;-0.06227612;-0.009897311;-0.070561364;0.05673898;0.09816326;0.012853931;-0.012360869;-0.06913411;0.033759777;-0.17119639;0.09229475;-0.050085183;0.10740242;-0.02668022;0.026742537;-0.07062738;0.07856148;-0.0622268;0.04206725;0.029354045;0.07470338;0.044693474;-0.088954605;0.038694784;0.0028614933;0.019155663;0.030489644;-0.22310872;0.012475615;0.014910207;0.103805386;0.09080741;-0.21307518;-0.06830631;0.025710726;-0.06525159;0.040465966;-0.034033015;0.045202736;0.21002097;0.06960716;-0.092654176;0.012453486;-0.009256338;-0.07082292;0.05882819;-0.058300134;0.031650294;-0.035812356;-0.08348186;-0.1290738;0.052657366;-0.04652279;0.005714764;0.06899191;-0.06691525;-0.024269465;-0.13193302;0.020295465;0.036472972;0.12998149;0.052482035;-0.052221477;-0.08603244;0.07661811;0.04241463;-0.08868867;-0.06674482;0.07043391;-0.060029723;0.0091836965;-0.013810897;-0.080344826;0.012961205;0.0148037765;-0.05809462;0.089349374;0.032457493;-0.07393148;-0.033899434;-0.13697673;-0.07178847;0.027565137;0.07157403;-0.05514552;0.039336644;0.1529326;-0.02132353;-0.042502213;-0.09826981;-0.15114239;-0.048857726;-0.0182505;-0.02115712;0.04398527;-0.14288858;0.017966412;-0.16673063;0.015104613;0.08119989;0.0076459683;0.02469682;-0.04574927;-0.020452337;0.010204825;0.040709924;0.05587953;-0.0035302471;0.022857983;0.0056398283;0.114919625;0.067281455;-0.16552633;0.06040304;0.11450457;-0.11162857;0.19920868;-0.056566775;-0.13926578;-0.020474466;0.02809054;0.07645292;-0.08666631;0.040945318;0.06654025;-0.116184;0.04620126;-0.06762086;-0.0040525594;-0.02369503;0.05210836;0.16472602;0.012941308;0.03711249;-0.06586802;-0.2724808;-0.030316798;-0.06987002;0.15300938;0.09416282;-0.13186687;-0.033280488;-0.02223288;-0.024570344;0.01319118;0.0077998154;0.107671596;0.0015916359;-0.0071986727;-0.045955762;-0.06146506;-0.0386388;0.0106617175;-0.042628363;-0.045078713;0.012272254;0.0623381;-0.056479145;-0.037603583;-0.004104354;-0.059759684;0.0077532134;-0.10632378;-0.03233275;0.022233767;0.057185467;0.040225916;-0.0023637747;0.14838749;-0.069924854;0.121705;0.03259525;0.041235905;0.09519765;0.018329544;-0.0781406;-0.047356434;0.010722457;0.09509313;0.06467954;-0.06473524;-0.0026075768;-0.038151205;-0.09244476;-0.15120171;0.039509587;0.17455032;-0.10520186;0.20416473;0.0072482196;-0.08503377;0.08798922;-0.0747044;0.07135537;-0.060645893;-0.11723932;0.098850474;-0.037054647;-0.09975019;0.09941612;-0.02688195;-0.116755694;-0.029117173;0.042069092;-0.16495094;0.010340195;0.0071707587;0.015394549;0.093190394;-0.070727475;-0.032507595;-0.03019504;0.03809525;-0.010008601;-0.059085187;-0.105465375;0.034648184;0.07833682;-0.18374856;-0.02991416;0.019987788;0.07022772;0.006445383;-0.17926991;-0.000986491;0.13711491;0.058829255;0.084103286;0.086656936;-0.04248252;0.053675357;0.10047848;-0.042880192;-0.050659157;-0.050137557;0.027730023;0.049987648;0.10017461;-0.029155005;0.0020756347;0.13434882;0.06919304;-0.04884777;-0.038034115;-0.09132043;0.060828157;-0.031467646;-0.1415214;0.038086217;0.052188646;0.29477865;-0.092685394;0.03809446;-0.023538895;0.014756564;-0.09334258;0.07844735;-0.057029024;-0.15676315;-0.13697113;0.026210615;-0.080306225;-0.10033311;0.040405642;-0.024196139;0.10129269;0.15771769;-0.011221323;-0.057023074;0.07334532;-0.06921808;-0.05835852;-0.03264486;-0.02502844;-0.074363954;-0.010250303;0.018075977;-0.2998733;-0.070661046;0.013439818;-0.28309757;-0.05248693;0.02803381;0.017992198;0.025346274;0.020516098;-0.059726547;0.051366247;0.018178647;-0.009341001;0.13226536;-0.0657445;0.04376876;-0.17088239
0.028153809;-0.03224493;0.017822927;0.011045469;-0.12938175;0.04880487;-0.039309144;-0.019913984;-0.14530733;0.06530156;0.044138934;0.22645159;0.0018403523;-0.02811038;-0.040860593;-0.0076460293;-0.15572508;-0.11348113;0.042304356;-0.07825173;0.00077418226;0.08313938;-0.0154541265;0.1842367;0.016173085;-0.008348991;-0.10807248;0.051269706;-0.25937152;0.0897972;0.04163576;0.10666227;-0.044457376;0.08333886;-0.110794015;-0.027878912;-0.008373149;0.048759345;-0.071041755;-0.012736861;0.06954093;-0.062362295;0.0501894;0.004787495;-0.0016414295;0.037492167;0.21216452;0.03427678;-0.15518257;0.066046625;0.15424587;-0.044621155;0.12225022;0.01671911;-0.0573008;0.03163502;0.035641234;-0.041204944;0.009825981;-0.008987773;0.06594634;0.030414898;0.045499913;-0.025884634;0.03552143;-0.03519232;-0.040669657;-0.046855416;-0.09095356;0.07713936;0.02123359;-0.07131616;0.022279494;-0.04530218;-0.092802085;0.024433147;-0.12865596;-0.12478351;0.050322633;-0.21719153;-0.030008778;0.02340979;0.18134782;-0.061277367;0.11114227;-0.04411653;0.050687607;-0.12400991;-0.05616439;-0.057680845;-0.06666192;0.1896527;0.2216831;-0.02164004;0.032810543;-0.012831418;-0.17028561;-0.077701904;-0.0026123058;0.03028565;0.052295342;0.0247025;0.029595777;0.053262338;0.040806215;0.016444864;0.009960253;-0.00029645936;-0.05408149;-0.032670528;0.1030893;-0.008099072;-0.010061272;-0.0069473106;0.08519536;0.07544076;-0.058145173;5.0129383e-06;-0.135901;-0.044368964;0.0065168994;-0.012762954;0.07024075;0.018746363;0.09181166;-0.06508057;0.21289626;-0.039361965;0.026867714;0.031983957;-0.09927966;-0.06110496;0.12333075;-0.027751762;-0.15572026;-0.025573239;-0.029208943;0.07499833;0.01179447;0.038698167;0.047336042;0.108710706;0.027886167;-0.07219568;-0.057942897;-0.026296135;0.0029707802;-0.060435295;0.08858175;-0.09572746;0.09800485;-0.18568325;-0.008598573;-0.053879436;-0.009897155;-0.069621414;-0.11144456;-0.0013118054;0.02559704;0.05827645;-0.04878169;0.121288404;0.031310674;-0.29981855;-0.12671775;-0.069552265;0.039498027;0.014086952;0.0035458247;-0.043186888;-0.1739659;-0.08186024;-0.123099044;0.05826589;-0.07945126;0.0717906;0.07095033;0.12011606;0.09202188;0.07907246;-0.32375833;-0.053898036;0.06470978;-0.12415186;-0.074434854;0.0779992;-0.0075781774;0.023612205;-0.084433794;0.012165457;-0.12700929;-0.032690477;-0.063677855;0.07370061;0.03592867;-0.3581314;0.028669028;-0.051568776;0.031099066;-0.028604798;0.03565066;-0.04917084;-0.030764228;0.029147789;-0.19252847;-0.10123245;-0.16303273;-0.097797275;-0.07153316;0.09088706;0.012303164;-0.062193103;-0.2393322;0.13841878;0.0034751361;-0.11105303;-0.16464324;0.13931178;-0.19474979;0.049634296;-0.06297279;-0.01594684;-0.12634829;-0.043202538;-0.021841459;0.024989944;-0.06886002;0.006036129;-0.001303117;-0.07561539;0.04142598;-0.096219;-0.015911357;-0.11261432;-0.0943404;0.06838338;0.048141498;0.0813148;-0.03861233;0.1623249;-0.001733404;0.033983078;-0.019961156;0.030104475;-0.006667989;0.06439384;0.14566703;0.049152527;-0.043099876;0.08314057;0.08748113;-0.20302837;-0.077686064;0.04311201;0.04928422;0.22670728;0.0017614188;0.013347257;-0.049404163;-0.20914064;-0.08754851;-0.042651113;0.018431183;0.089005746;0.030408131;-0.0071079847;-0.003864497;-0.27434915;-0.08228267;-0.032857656;-0.053109862;0.0070429845;-0.0015864286;0.041491073;0.12412086;0.08543426;-0.1270538;0.013751272;0.091282845;0.0062759225;-0.20224664;0.03412304;-0.08834938;0.04407895;-0.029463623;-0.01144883;0.015117666;0.042056393;0.03165556;-0.007573008;-0.031580016;-0.048329026;0.07718509;0.04894974;-0.057785776;-0.057556372;0.023107957;-0.05126523;-0.0722312;0.03352686;-0.073632784;0.082806095;-0.071442105;0.035060152;-0.069964096;0.060549796;0.02139733;-0.010891811;0.05829604;-0.23571733;0.11083569;-0.11837057;0.108665705;-0.04530471;-0.12022854;0.043819193;0.067479454;-0.085236505;0.029052416;0.015939942;-0.015206049;0.23507981;0.043183286;0.043948866;0.07156809;-0.083227485;-0.07317516;0.022108274;-0.0039866604;-0.07175663;-0.043809734;-0.077527456;-0.14116834;0.04882311;0.009936585;-0.04983381;-0.056319643;-0.011235276;0.03897348;-0.063515276;-0.058015235;0.022023376;-0.10199281;-0.11774364;0.08117779;0.020775652;0.061353736;-0.02866636;-0.08739211;-0.05143477;0.05154817;0.04405922;-0.046218116;0.054989636;-0.039532933;-0.0073706685;0.026243845;0.10258716;0.09263172;-0.01168917;-0.1206212;-0.052257027;-0.16714568;0.07239604;0.064140625;0.043920185;-0.07475961;-0.020809773;0.027447864;0.0643205;-0.013343779;0.041007068;0.024577282;0.03842321;-0.039538935;0.0034298713;-0.084990464;-0.16880785;0.049219176;-0.049319495;-0.046916854;-0.02563965;-0.06290369;0.07143132;-0.010416713;0.0048152595;0.051168043;-0.100667186;0.07806051;-0.0006501572;-0.03078357;-0.057267625;0.06683977;0.029306117;-0.1564383;0.033385284;-0.015348126;-0.06060622;0.16368632;-0.024930082;-0.083620936;-0.05486894;0.1353986;0.09491459;-0.06414361;-0.09692302;0.06663768;-0.050634522;0.021322297;-0.021432951;-0.012626086;0.011019409;0.028364142;0.03194113;-0.044458307;-0.019230828;0.008141669;-0.24490742;0.027567504;-0.03517032;0.046917766;0.16637914;-0.11304163;-0.08445448;0.11383902;0.06765244;-0.05312743;0.044127475;0.13690856;0.007839769;-0.031786054;0.051962342;0.039139178;-0.09498263;-0.015274025;0.06795349;0.054083824;-0.09503078;-0.019799918;0.033449184;0.005764519;-0.08262267;-0.042232987;-0.028194094;0.066379495;0.051579554;0.20871995;-0.050478656;-0.07434802;0.10222843;-0.049436014;-0.1472265;0.095611304;0.10630985;0.07651473;-0.06999054;0.0062954435;-0.09081688;-0.07057959;-0.004113363;-0.042610884;0.07213917;-0.033747826;-0.0104914615;0.009552248;-0.0423967;-0.121503495;-0.034121122;0.1351842;-0.04167819;0.108618595;0.023739006;0.044105116;0.17204694;0.04755524;0.07216328;0.001302592;-0.032454267;-0.038432732;0.0072342064;-0.14610618;0.06644215;-0.11577523;-0.07937994;0.04377912;-0.035324723;-0.10625645;0.02603834;-0.032862123;0.097970806;0.09749929;-0.13113184;0.04561124;-0.0027020848;0.027886333;0.035682235;0.043755073;0.023603193;-0.026423384;-0.0024861349;-0.20528598;-0.040825747;-0.067102805;0.095338374;0.014987198;0.060219176;-0.07763841;0.08439276;0.02814278;0.02632356;0.13562432;0.01721399;-0.06011496;0.02890151;-0.10290596;-0.0005553881;0.0745138;0.058387823;-0.10333876;0.067869015;-0.026014276;0.050054356;0.16329533;-0.08991126;0.037476487;-0.055861644;-0.057597864;0.09204111;0.12796935;-0.05166487;-0.009027398;-0.05938537;0.34450394;0.025604075;0.042396504;0.042155296;0.036617365;-0.07018812;0.1693016;0.07603719;0.0023946024;-0.13445312;0.02806674;-0.008906682;-0.111769654;-0.009451648;0.012304061;-0.055291325;-0.00737808;0.053664427;-0.056687836;0.016924009;0.05327164;-0.07005486;-0.056341834;-0.040550333;-0.051354483;0.05508641;-0.05615262;-0.3179659;0.079171486;0.006069214;-0.165332;-0.06881379;0.0321849;0.016831445;-0.003976767;-0.017977504;-0.010928297;0.09082611;0.050724935;-0.037028622;0.040050667;0.07009883;0.050044917;-0.12264461
-0.09627561;0.087760225;-0.03717222;0.012206231;0.10797051;-0.023966745;-0.028928177;-0.020639127;-0.0870791;-0.17388164;0.020534499;-0.17107958;0.087602764;0.036080383;0.023826439;0.09457275;-0.05108;-0.0642693;-0.024705622;0.0076042283;0.0080325715;0.027616473;0.0042499662;0.22874786;0.0024200846;-0.024917616;0.07691575;0.013846264;-0.25234747;0.07566834;-0.122381665;0.020613575;0.059474297;-0.05670166;0.048716992;-0.06114469;-0.0050282856;0.00035653904;-0.0090826005;0.0036928477;0.021293681;0.081354916;-0.2732066;0.069301106;-0.0032452447;-0.07712562;-0.153833;-0.009323404;-0.07382448;0.038415868;-0.16072798;0.041377164;0.06971507;-0.03365457;-0.06108356;0.20732959;0.059934907;0.05930707;-0.098360255;0.07671603;-0.033908334;0.013634363;0.06795313;-0.02087521;-0.025358643;-0.076300345;0.031862743;0.049277406;0.010095298;0.036141533;-0.018121963;-0.04041682;-0.042350713;0.0022161007;-0.0034795129;-0.036636773;-0.18205151;0.07863893;0.020402897;-0.13833031;-0.06630503;-0.038412936;0.22874245;0.022178922;-0.04340397;0.048086446;0.02797349;-0.26231077;0.066687465;0.003750749;-0.040824395;-0.059548836;0.20839082;0.028525777;-0.0005689086;0.06275387;-0.032281827;0.0041703586;-0.19593836;-0.023218358;-0.012341084;0.06453178;0.03084357;0.0061502047;-0.021876797;0.0024488016;0.011015707;-0.009872564;-0.07253764;-0.07441796;0.027347174;0.10095679;0.067771874;-0.05393161;-0.06936227;-0.07569769;0.06464341;0.17868146;-0.072028555;0.06811411;-0.0112573;-0.02442712;-0.045868926;-0.013764405;-0.003509382;0.022545105;0.038813896;-0.09113235;-0.036077995;0.04115021;0.04278308;-0.06952571;-0.013278536;-0.053403415;0.06745067;0.051941648;-0.053720325;0.06237226;0.07098239;0.00820956;-0.058226336;-0.07966291;0.06105677;-0.030296924;0.004803335;-0.058110785;-0.07965417;-0.033573233;-0.023104481;-0.009665503;-0.107089505;-0.040963646;-0.03510137;-0.008996747;0.046072267;-0.078358375;0.009294508;0.07374318;0.033406302;-0.10275112;-0.071374856;0.09975833;-0.021252558;-0.2239907;-0.07278047;-0.015332324;0.12326481;0.07799331;-0.03737561;-0.053953413;0.025580991;-0.07230385;-0.10483439;-0.055423673;0.02863749;0.008386996;-0.07376424;-0.03592533;0.071631454;-0.10887355;-0.03000927;-0.040408853;-0.057937346;-0.049009778;-0.097209685;-0.04685059;0.06505893;0.053208586;-0.03308173;-0.010658078;0.078749776;-0.076127;0.025745405;-0.029347764;0.07472827;-0.22876585;0.04849583;-0.0053184116;0.0021879505;0.06317896;0.027972568;0.04690732;-0.06028713;0.025138967;-0.11719481;-0.0059648845;-0.10902999;0.079632826;-0.031190146;-0.067666575;-0.0068640644;0.06106834;-0.34901297;0.16715303;-0.040002577;0.009312869;-0.20098005;0.23239434;-0.13302921;0.06853933;0.025624806;0.13879018;-0.054843593;-0.028730588;-0.011029564;-0.077322945;0.002123939;0.015324048;-0.07406151;0.026396334;0.0113366265;-0.0037979046;0.06932255;-0.012615126;-0.0014825192;0.060190286;-0.027854992;0.04495047;0.07510335;0.05090141;-0.26734567;-0.035416074;0.09720668;-0.08367058;0.16266999;0.031836092;0.011655804;-0.05397061;-0.050678324;0.117324896;-0.09655053;-0.1645204;-0.10717435;-0.07383574;0.03246833;0.04319007;-0.07686319;-0.04921024;0.11979526;-0.06591908;0.06160575;-0.07976484;0.0417247;-0.08911031;0.117294274;0.023529904;-0.12130813;-0.098095804;-0.036316663;-0.034085177;0.02712129;0.044870082;-0.079551;0.02573027;0.08013385;-0.04844411;0.08109264;0.0413051;-0.00049755437;-0.17477;-0.09098053;-0.09092261;-0.058163647;0.05599454;0.012193988;0.02296706;0.106380105;0.07246958;0.008128407;-0.064913556;-0.05993307;0.06977271;-0.091165245;-0.056898598;-0.06234151;-0.05929223;0.013940844;0.073812515;0.06790458;-0.047708314;0.0015263568;0.08221039;0.015633985;-0.03346125;-0.14002575;-0.061790075;0.054964103;0.06464778;0.05477117;-0.27714357;-0.05362467;0.027988443;0.021205563;-0.12218729;-0.13495687;0.045784637;-0.02766633;-0.015618548;-0.001899076;-0.058775634;0.006413301;-0.0025783987;-0.0718122;0.04439983;0.06193588;-0.003203407;-0.084282435;-0.08112818;0.010528761;-0.054548673;-0.0511293;0.0037719668;-0.15662536;0.028889773;-0.012845161;-0.036610924;0.027145114;-0.07195324;-0.04819841;-0.009835767;0.027960408;0.05882542;-0.17020708;-0.009037181;0.010836688;-0.004165858;-0.12193999;0.03230516;-0.06811448;-0.08484592;-0.042177074;0.08852785;0.046773132;-0.053789567;0.037868705;0.0047537824;0.06676636;0.067384005;0.06716663;-0.045528237;-0.1709106;0.04107394;-0.2236528;-0.051260494;0.036523033;0.043961182;-0.017916044;0.041824546;-0.0553214;0.059805967;-0.033471502;-0.04361715;-0.060135726;-0.021049166;-0.014428722;-0.07008358;-0.0074329074;0.043887764;-0.06832951;-0.065010786;0.06688893;0.04366409;-0.022739377;0.0033664957;0.009607194;-0.060941216;-0.04991146;-0.05812917;-0.06346336;0.002718313;0.029683176;0.072058395;-0.0051195365;-0.0030435794;-0.13162038;0.075615525;-0.0052149217;0.039317135;-0.0124745425;-0.002504625;0.065972514;-0.021892052;0.092642315;-0.14802907;-0.09353744;-0.096154176;-0.06370847;-0.012161787;0.04017226;-0.06687365;0.034403685;0.05099358;0.07802357;0.062278695;-0.02412382;-0.031022025;0.058718838;-0.21633375;-0.01197306;0.042876206;-0.103505395;0.22981234;-0.018069675;-0.034263864;0.069677144;0.104768924;-0.0054774615;-0.07513165;0.08091761;-0.05923533;0.03744383;0.0515427;-0.053437684;0.0034150584;0.053743064;-0.053085078;-0.0886637;0.0031033198;-0.04815762;0.0965683;-0.063490875;-0.00084942504;0.06866708;-0.06674619;0.10454375;0.055958703;-0.0032473858;-0.04081136;-0.037333354;0.016962077;-0.11424797;-0.11640942;-0.023679195;-0.061679196;0.100483574;-0.13929023;-0.078710094;-0.07185281;-0.0022354391;0.1325154;-0.07553346;-0.058750838;0.026303874;-0.02569617;-0.05063721;-0.099060684;0.026868403;0.045750607;0.1807149;0.01254647;-0.12896527;-0.06479357;-0.013812461;0.019441701;0.0813812;-0.09830893;-0.104254514;-0.12555598;-0.016280234;-0.032631595;0.023079852;0.014860645;-0.16390207;-0.10436563;0.050376642;-0.05498354;-0.20013833;0.06223148;-0.053823654;-0.069874436;0.08722839;-0.07772721;0.07159825;0.038242623;0.057058666;-0.028846994;-0.0015839749;-0.043869417;0.03522577;-0.020559546;-0.22630963;0.07552129;0.06564895;0.07588434;0.05166227;-0.2127717;-0.107508495;0.10840503;0.03325495;0.05996591;0.057465278;-0.032532245;0.06845869;-0.028088149;0.040662285;-0.03915047;-0.031062247;-0.047074888;0.045877423;-0.114130005;0.046760812;-0.023014385;0.025405789;-0.18744878;0.011262014;0.077803314;-0.007570207;0.013592762;-0.08669283;0.044860106;-0.05160099;-0.11525772;0.15769856;-0.06443864;0.06684575;0.055804987;-0.01949607;0.01576663;-0.1552654;0.10224251;0.055319857;-0.06959815;0.086379476;-0.044362135;0.025265176;0.005516267;-0.01954298;0.041085385;-0.16350661;0.011228212;0.07874265;-0.0044573233;-0.13566665;0.044820108;-0.0006094192;-0.060883872;-0.04344448;0.06547707;0.008255612;-0.14274888;-0.016035335;0.08032213;-0.1291581;-0.047427215;-0.09077527;-0.09273019;0.05939257;-0.043739174;-0.08764256;-0.100802675;-0.07316154;-0.028999722;0.003906561;-0.0039783474;-0.05368771;-0.11889557
0.032832302;-0.025242219;-0.087300204;0.16582213;0.01173797;0.008861995;0.06189025;-0.15918303;-0.059097335;-0.3127343;0.004561557;-0.08627647;0.0006789677;-0.0060573807;0.026787259;-0.020288598;-0.12740181;-0.13677771;-0.0035784943;0.0051159016;0.062473223;-0.019792626;-0.020195516;0.1382209;0.012546418;-0.022917563;0.14022669;-0.03445058;0.028254481;-0.03992403;-0.015174945;0.0222886;0.11276584;0.030806564;0.1236003;-0.040486727;0.085726485;-0.10030584;-0.038408946;0.047336407;-0.108893566;0.05222402;-0.35538003;-0.050504442;-0.052660186;-0.070043065;0.04606178;-0.011071805;-0.09227599;0.072457016;-0.15807346;0.049712293;-0.024264392;0.016890598;-0.07444582;0.1755682;-0.08278014;0.019036306;0.009949494;0.009520004;-0.015430506;-0.04938542;-0.0022821957;-0.04518863;0.041931745;-0.09130539;0.12988487;0.08998117;0.008464638;-0.015017897;-0.048982143;0.030378355;-0.018595478;0.073651895;-0.15741143;-0.016257502;-0.04051751;0.119803645;0.16071124;-0.059471697;-0.001668932;0.046805616;0.055086482;0.04670568;-0.014806007;-0.05386058;-0.04466814;-0.22506526;0.08332394;-0.097684085;-0.033039033;-0.031052738;0.04669975;-0.039840054;-0.084534965;0.007857284;0.06112439;0.08861693;-0.2615776;0.008172134;0.07441294;-0.0345214;0.16918297;-0.07170633;0.010277636;0.0767016;0.0330937;-0.028286455;0.013987636;-0.025758576;-0.015002726;0.011517624;0.09047088;0.0019737144;0.02993179;-0.0024635366;0.019022739;0.13766854;-0.050236613;0.015870154;-0.022997538;-0.16096388;0.008851461;0.054306086;0.030818561;0.08493833;0.096943215;-0.047609538;0.028642632;0.017199537;-0.06576214;-0.009336604;-0.016950691;-0.012336388;0.06606271;-0.043468345;0.07539583;-0.023800723;0.079988755;0.05420871;-0.024459047;-0.04529501;0.10905399;0.07022474;0.061173365;0.037261404;0.015871981;0.0023576482;-0.009349723;0.02933544;-0.006144808;-0.031744614;-0.0827157;-0.08054806;-0.010729621;0.060367115;0.004863525;-0.0069360044;0.029057443;-0.070161305;-0.07349387;-0.042084947;-0.0081012705;0.0047100233;-0.02867371;0.0120404605;-0.053810924;0.02448625;-0.012838326;0.110543065;-0.009797119;-0.027168533;-0.08925936;0.054045886;0.003434328;0.0038213981;-0.022316856;-0.06117281;-0.029813666;0.054548606;-0.11761167;-0.031146005;-0.018046224;-0.068045266;-0.22753774;0.09686326;0.004530738;0.07078312;0.07462192;0.0076606083;0.08436056;-0.0018913533;-0.05955763;-0.06252209;0.21528304;-0.100118995;-0.042442977;0.12825772;0.07318175;0.01462196;-0.0023720372;-0.005084737;-0.024866536;-0.075548284;0.053738285;0.027504265;-0.061477195;0.072769955;0.009840173;-0.03692828;0.082715794;-0.009184179;-0.21269767;-0.063207276;-0.0897054;0.011012183;-0.18161416;0.13434224;-0.079690374;-0.057324916;0.03392189;0.07525629;0.02832103;-0.04303043;-0.069192715;-0.068145916;-0.04770973;0.0704383;-0.031349216;0.06983745;0.032985814;0.0784683;-0.07251148;0.010945994;0.040028833;-0.0050304877;0.050063018;0.03708135;0.06405452;0.021869386;-0.21830305;0.033216607;0.074458696;0.039434884;0.03844129;-0.020578554;-0.030234322;-0.0025422769;-0.08547752;-0.040675752;-0.09966919;-0.22432885;0.06704481;0.043374334;0.11525012;0.09502941;0.010934515;-0.017798714;0.004977428;0.14391474;0.08461755;0.03140594;0.01702247;-0.0048359428;0.054425634;-0.036750577;0.040194996;-0.16824287;0.024010729;0.07173176;-0.050576843;0.059178364;-0.06922731;0.064960174;0.04057074;-0.038336504;0.0784752;-0.015260649;-0.06386301;-0.011113469;-0.13467753;-0.042032182;-0.07531973;0.068658896;-0.0018573197;-0.039890077;-0.060770724;-0.07336637;0.027133027;0.015150821;-0.057967443;0.03183244;0.015384757;0.022923712;0.009676322;0.101992086;0.014779962;-0.05902977;-0.071905866;-0.061531126;0.053461604;0.0937403;0.07074299;-0.05055139;-0.17232105;-0.07497425;-0.05694369;-0.020867305;-0.021292798;-0.11196029;-0.14109415;0.0014764115;-0.022677572;-0.0036097695;-0.08507194;0.058744095;-0.095513366;-0.014335154;-0.038455617;-0.019946594;0.0071794163;-0.079029344;0.011939368;-0.04208047;0.027048968;0.0032824483;-0.13697152;-0.074636735;0.05442972;0.03594472;-0.016305603;-0.048599165;-0.102543704;-0.06170161;0.048536573;-0.1143254;-0.07067621;0.005807938;-0.10278964;0.064058505;-0.047471534;-0.016865892;0.003990217;-0.042480726;-0.07921635;0.022857623;0.057754513;-0.054232594;-0.028318232;0.04682038;0.06557283;-0.07050168;-0.026364246;0.012751977;-0.06070098;0.0038606662;-0.07113265;-0.027121017;-0.0319566;0.04027969;-0.07492372;-0.0074139144;-0.13100353;-0.012490809;0.091363944;-0.08319137;0.012903427;0.041089598;-0.06495544;0.08466589;0.046573486;-0.027529273;0.12319704;0.067127176;-0.026958637;-0.09327392;0.021049839;-0.19974813;-0.009300406;0.035117965;-0.05260907;0.07189459;-0.0059661125;0.046728984;-0.015266676;-0.011837471;0.008719066;0.042281967;-0.00831009;0.12647188;-0.022050869;0.102872685;0.004731659;-0.070129015;-0.06206212;0.09630999;-0.061825812;0.0053586066;0.11129051;0.07359921;0.03322647;-0.0844012;0.0147261685;-0.16895123;-0.19179778;0.076266155;0.04147426;-0.029588936;0.07432229;-0.030458897;-0.015231921;-0.04234333;0.10532143;0.04071892;0.101992905;-0.041631967;0.08915821;-0.0022775866;-0.07145338;-0.060191747;-0.17213072;0.15128762;-0.14438665;0.043421213;0.023257652;0.13481273;-0.013475583;0.049596272;0.19777234;-0.077401236;0.07647995;-0.020633461;0.051138643;-0.032289263;0.028279532;0.013206095;0.012131076;0.017175062;-0.04515886;-0.02820236;-0.06066718;-0.048327867;0.06373114;-0.120250784;-0.038380682;0.06355846;-0.063031234;0.0377743;-0.0050919293;0.029247036;-0.10349572;-0.03187132;-0.076824136;0.024145447;0.06985235;-0.2537636;0.07776183;0.11215835;-0.01855647;-0.04869165;-0.025013998;-0.044796;-0.00065485254;-0.025641905;-0.0030251313;0.0006168736;0.036841035;-0.015766859;0.16236809;0.07874499;-0.2585184;-0.041462474;0.0016599527;0.07127346;-0.08117946;-0.068320505;-0.0009045657;-0.012322882;-0.060655665;0.049444858;0.18844561;-0.09301403;-0.028914306;-0.13502716;0.008311039;0.003676617;-0.2777036;-0.07207031;-0.09613316;-0.05420384;0.011757922;-0.08216262;0.1089204;0.040175907;0.06729676;0.005903459;0.1228422;0.08340439;0.009664924;-0.0022170672;-0.27019012;0.0051672095;0.09688957;0.12675501;-0.00961388;-0.16642335;0.0825978;0.025672914;0.11406415;0.05634164;0.021498261;0.0027628478;-0.0017773097;0.061034236;0.008980994;0.041935194;0.0036574265;0.11768651;0.059394587;-0.077801734;-0.0408806;-0.08552428;-0.033632226;-0.045743562;0.06548649;0.03680476;0.055894908;-0.05946152;0.08253924;-0.0012780314;0.041942947;-0.09117736;-0.006046327;-0.0652554;0.04305234;0.07193254;-0.07146721;0.044044126;-0.09669341;0.09236636;0.079336435;0.13825636;0.045173813;0.03996995;0.1411218;0.056624427;-0.031173848;0.09312119;-0.14784944;0.046771076;-0.026166122;0.023337638;0.051365003;0.0026736213;0.07078207;-0.04274101;0.0050620376;0.12899776;-0.06862605;-0.019828387;-0.019300386;-0.012318015;0.032291066;0.019023206;0.006446777;0.04182134;-0.05639884;0.0047009443;-0.089024626;-0.051122874;-0.13084133;-0.041755084;0.047954343;0.05070152;0.0031885807;-0.08703216
0.022190616;-0.060357623;0.062109444;0.08234403;-0.15898904;-0.117134295;0.0005540619;-0.0126619255;-0.089026615;-0.46244296;-0.027878981;0.031796075;-0.021480994;-0.011702312;0.04853583;-0.13440254;-0.1474508;-0.071275435;-0.032259673;0.002233337;0.0241828;-0.022330407;0.07092845;0.0049113324;0.05462394;0.00022960812;0.17487046;0.010234158;-0.34591258;-0.06477726;-0.08864259;-0.036709137;0.054182395;-0.06638875;-0.012560054;0.06648077;-0.049664874;-0.02489754;0.048321143;-0.020591186;-0.017522762;-0.08710851;-0.484718;0.0016504675;0.025357805;0.12077046;0.10005329;0.0021022581;-0.19351788;0.117619105;-0.15178828;0.07743227;0.06721197;0.024042008;-0.037071235;0.14476034;-0.1286358;-0.03901772;0.07273454;-0.06445063;0.09440192;0.014303589;-0.0848273;-0.08407191;0.060119532;0.009242272;0.0432655;0.23336868;-0.005305806;-0.052843563;0.05462009;-0.08675304;0.046905167;0.06615897;-0.009790349;0.1181841;-0.067441456;0.16038528;0.17348447;-0.077245295;0.056171916;-0.014157058;0.20734563;0.0769466;-0.13517724;-0.0405892;-0.072382234;-0.16426514;-0.057026256;-0.07103254;0.0023478111;-0.014498636;0.18938662;0.0021747642;-0.095732786;0.046706084;0.1318109;0.059410688;-0.14121324;-0.0062491666;-0.029450005;-0.001300405;0.09145002;-0.055359922;-0.10941518;0.079970196;-0.028999204;-0.0076166866;0.0039104447;-0.02711441;0.023152094;-0.07414098;0.0009629198;-0.0007225899;-0.12562063;-0.038343523;-0.033639405;0.15076302;-0.2599762;0.0892916;0.009723932;-0.006651175;-0.13370626;0.06290719;-0.10959745;0.05024022;0.052575383;0.15067954;0.011502816;0.0008370004;-0.08025033;-0.106778726;0.23055896;-0.08957899;-0.07767631;0.10194556;0.015537626;0.07419557;0.046921585;0.024235537;-0.10624857;0.04080084;-0.051742237;3.9337192e-05;0.040173497;0.10566266;0.18556672;-0.05235777;0.06967909;0.0696119;0.17729898;0.064184725;-0.02020032;-0.06354498;0.027536117;-0.0063382797;0.06745196;0.05493489;-0.13381444;0.13227634;-0.031187305;-0.086788476;-0.008952185;-0.40610948;0.12664078;-0.0018632228;-0.017703231;0.13798024;-0.090048485;0.10916204;-0.14246997;0.039612655;-0.1496637;0.069770694;0.022409681;-0.102665275;0.024093969;-0.06937714;0.040107936;0.027015867;-0.36825585;0.030926237;0.08439222;-0.019028893;0.04319057;0.05497988;-0.024419928;0.031190885;0.10453292;-0.08626552;0.028191114;-0.038768943;-0.11928023;0.038519673;0.1289497;-0.07464303;0.006641638;0.08490166;0.016810214;0.07465917;-0.0012591538;0.056697227;0.015562451;0.010930441;0.104708806;0.112297215;0.07608067;-0.18446808;-0.020173542;-0.010382974;0.06202883;0.0243113;-0.2598869;-0.06823281;-0.061952546;0.055240557;-0.042544983;0.20056605;-0.19819248;0.04272651;-0.0429096;0.123791255;0.06473811;0.041117974;0.048104838;-0.036642965;-0.06762606;-0.067356385;-0.040152024;0.0962668;0.03647897;0.05486325;-0.03489976;0.012364462;-0.014681678;-0.10819482;0.01713151;0.107870206;-0.054098837;0.03976294;-0.2654255;-0.060804676;0.05169967;0.001609107;0.15611134;-0.114498705;-0.014469853;-0.06810944;0.05527091;-0.00031235418;-0.118832216;-0.20266928;0.09224993;0.06413762;0.03803422;0.08794578;-0.02022888;0.03565934;0.050114173;0.22990516;0.08096304;-0.044926506;-0.052437216;0.09914095;0.09612619;-0.018736662;0.16907574;-0.16757888;-0.04408326;0.1419989;0.008222005;0.054125544;-0.069976605;0.16903682;-0.034542985;-0.15483186;0.14301781;0.056664865;0.010689094;0.0041323537;-0.39114767;-0.02119196;-0.07037933;0.10236185;-0.118181095;0.004512133;-0.0179178;-0.044310655;0.034390837;0.15836139;-0.17604053;0.015130673;0.0728448;-0.09094503;-0.06376451;0.059617084;-0.026379688;0.0347138;-0.008574299;0.09524446;-0.01699123;0.037206814;-0.045377627;0.014477857;-0.32465836;-0.032999497;-0.10216999;-0.023155317;0.001373016;-0.15379035;-0.10778197;0.03466458;-0.061546195;-0.036583107;-0.09278599;0.066136256;-0.07584036;-0.033900414;-0.070373185;0.04059287;-0.06267531;-0.054407187;-0.0068781953;-0.07145695;-0.032286808;0.035217594;-0.088492334;-0.06305809;-0.027767502;-0.0152729545;-0.03237167;0.061658707;0.11041821;-0.010205712;0.09717579;0.023736946;0.17538695;-0.038513783;-0.09837197;-0.026229423;-0.0033656321;0.049622558;-0.11829715;-0.06804825;-0.048419777;-0.067306;0.07472156;-0.2025113;0.065017596;-0.011950156;0.091610104;0.05230016;-0.19256905;0.09037587;0.08305468;0.076079585;0.028618671;-0.008082048;-0.10274697;0.05728276;-0.19782971;0.11303384;-0.13124482;-0.014346742;0.09910707;-0.009978158;0.063908204;0.05170548;0.05894089;-0.05520781;-0.15931202;0.011134811;0.20195687;0.065343834;0.13643067;-0.0172394;0.08508005;-0.47995433;0.021800904;-0.053019676;0.04304849;0.02467038;-0.0031620194;-0.033546474;-0.14041598;0.059764136;0.12778841;0.076447524;0.010741838;0.041280128;-0.055179313;0.09262035;0.04411658;-0.08650837;0.112812944;0.13485898;-0.06623334;0.03918236;-0.07006482;0.05114348;0.11161778;-0.025445795;-0.032723106;-0.08108657;-0.46347973;-0.080503;-0.06312792;-0.09072818;0.1499728;0.016339423;0.10402973;0.12917158;0.054463845;0.10159082;0.09348444;0.0874411;-0.06601232;0.084650956;-0.11946453;0.032841664;-0.0064353603;0.16515881;-0.12929113;0.02415275;0.037679613;0.101562984;0.06905189;-0.11413935;0.18604715;-0.039979607;0.05060435;-0.08933991;0.01012005;-0.055579387;0.060593136;-0.09071908;-0.0007183857;0.13070844;0.051107362;-0.20440386;0.122529745;0.03279843;-0.04820301;-0.21999094;-0.116514176;-0.03612237;-0.039198037;0.017881291;0.13918369;-0.10187082;-0.1847908;-0.04425782;-0.06047266;-0.047027245;-0.02404037;0.0030526135;-0.143838;-0.11599894;-0.017202351;0.03605541;-0.028208148;-0.06656283;0.10151339;-0.098653086;0.017040936;-0.012566975;0.13681538;-0.09412355;-0.13198553;0.09245328;-0.051649243;0.05522455;0.0483626;0.035363887;-0.01629946;0.009514731;0.030701198;-0.13301875;-0.0990305;0.030855022;0.1709868;-0.026550632;-0.046923034;-0.13586172;-0.05527175;0.038741753;0.12462729;0.022242509;-0.1807873;0.0070461957;0.09250271;-0.005961432;0.015828116;-0.008418429;0.013819891;-0.056956418;0.09088654;0.01337249;0.10172851;-0.029470554;-0.05855176;0.00034252176;-0.16960496;0.20089665;-0.10303918;-0.2343884;-0.0056516365;-0.13605376;0.0045036967;-0.078994416;-0.071291976;-0.08603541;-0.18257794;-0.08259385;0.007021039;0.052785855;-0.037434943;0.088274606;0.051938836;0.05848261;0.015560347;-0.083968885;0.06703039;-0.12063846;0.06596619;0.04589443;-0.021597939;-0.11915681;-0.01605268;0.006431518;0.01768082;-0.00488566;-0.013556255;0.10239295;0.08641379;0.09311775;0.008332307;0.101185694;-0.07444719;0.09668674;0.021817643;0.21428357;-0.035430655;0.060219664;0.1875865;0.11241308;0.14988585;0.11421142;0.024531955;-0.037466276;0.19208619;0.059106596;0.1351357;0.04879706;0.07476256;-0.0154669015;0.049167875;0.16597195;0.005827038;0.17459227;-0.041438743;-0.046377063;0.0034752416;-0.006838303;0.036139365;-0.019726947;-0.03921623;-0.056020476;0.013838258;-0.15433961;0.0101995105;-0.030489946;0.009247282;-0.091169596;-0.03952695;-0.31890693
0.021667201;0.12521687;-0.08863049;0.028330335;0.082977265;-0.08028414;-0.10090288;-0.13329752;-0.22461937;-0.27443427;0.014708176;0.012561843;0.011766198;0.017574333;0.13035391;-0.056230973;-0.1657436;-0.03321461;0.09156836;-0.031119933;0.059320666;0.01267359;0.0020438368;0.050995067;-0.0041494365;-0.0026241697;-0.0040798243;0.026744073;0.024051715;0.013372415;-0.09235893;0.012898743;0.053584907;0.07469222;0.1231246;0.02049122;-0.060527705;-0.0030504656;0.0010769654;-0.03061201;-0.041783266;0.011777584;-0.25203782;0.04453401;0.00110418;-0.031352386;-0.07912718;0.028301442;-0.20321065;0.11649677;-0.024937067;-0.047375266;0.23721367;0.07910044;0.042623993;-0.08871271;-0.025309132;0.10004501;-0.05477307;0.019854901;0.10888789;0.038766094;0.029777;0.070576526;0.0031644583;0.07478353;0.014984024;-0.04548938;0.0066008763;0.06682712;0.049759496;0.02288631;-0.014276341;0.013994285;-0.052906416;0.03510649;-0.07118298;0.15659161;0.069972776;-0.14307462;0.02131089;-0.027715094;-0.108863376;0.037784692;-0.01890216;-0.04105175;-0.056999955;-0.1545355;-0.004294686;-0.00686335;-0.028007803;0.1019696;-0.07338219;-0.024406021;-0.04403074;-0.061098184;-0.013388012;-0.05732367;-0.07919747;0.11849925;0.14456111;-0.0460404;0.06259972;0.07602441;-0.046431683;0.06150566;-0.03668697;0.030961882;0.072635815;-0.06996203;-0.020301674;-0.058398645;0.032143902;0.061432056;0.044664633;0.040484928;0.045236822;0.063481495;-0.052126274;-0.04885953;0.06469449;0.064218596;-0.16697454;0.013067615;-0.055663854;0.015469032;-0.010789168;-0.00022566548;-0.019056695;-0.049935706;0.009431127;0.03888039;0.024402663;0.056456838;0.026877014;-0.066247895;0.011361498;0.08893592;-0.029158317;0.04308037;0.031422723;0.08041802;0.042110667;0.0562264;0.06151677;-0.003040839;-0.07600942;-0.049778882;-0.041886136;0.049621046;0.10598831;-0.13660097;0.08319921;-0.08455154;0.021866126;0.10981878;0.09298171;-0.060614098;-0.051848028;-0.12852913;0.06680333;-0.021253522;-0.07287887;0.16421361;0.15858893;0.08033423;0.051811457;0.06900117;-0.08706099;-0.049717594;-0.0178174;0.044049624;-0.031191839;0.025501348;0.13339396;-0.06655444;-0.02148537;0.049876116;-0.01952776;0.017657157;-0.043601472;-0.14590341;0.013829093;-0.10512128;-0.1553549;0.017536206;0.09048248;0.008383378;0.0022928496;-0.061895046;0.043346357;0.0054081576;-0.015423518;-0.030857475;-0.05853786;0.023097167;0.046180982;0.045634672;0.1078188;0.028695162;-0.012462754;0.0121820485;0.051085994;-0.0110454885;0.08155605;-0.018844258;0.12675159;-0.020871045;0.073121555;0.15200703;-0.065772496;0.045749128;0.055731613;-0.020677734;0.06457717;0.06897094;-0.054951306;-0.026722418;-0.02251269;-0.0590323;-0.014734451;-0.10703422;-0.008184728;0.057343468;0.040725414;-0.04620094;0.06367473;0.06931876;-0.026149096;0.02541808;0.019542985;0.029173419;0.03281703;0.020478958;0.045188032;0.05360515;-0.0704926;-0.08682426;0.06568057;0.110085845;-0.041106272;0.05360749;0.083204724;0.0030192062;0.1758834;0.0013630978;0.021320343;0.082686655;0.027276933;0.0690238;0.016844697;0.13340294;0.02378376;-0.011261693;0.06376837;-0.053241547;0.062732786;-0.053425156;0.08724729;0.038472515;-0.05302068;-0.035191365;-0.088929094;-0.043091346;0.13463208;0.08828134;-0.058843955;0.044386957;-0.033699464;0.111208364;0.010489895;-0.017872903;-0.051412504;0.03580005;0.014215524;-0.005381678;0.0828457;0.049556535;-0.06658656;-0.093932115;-0.09685568;0.043229662;0.0067132073;-0.065218896;-0.060783584;0.027811399;0.029770534;-0.03398939;0.06204383;-0.003333696;-0.024715347;-0.0014617614;0.020450233;-0.0032539223;0.057610378;0.004282711;-0.044378854;0.0142769795;-0.08529252;-0.015307123;0.041993268;0.044829052;-0.0032960838;0.07250646;-0.0015801848;-0.01661301;0.03177262;-0.0318333;-0.03434186;-0.25493374;-0.04453704;0.034294736;-0.0696788;0.02640416;-0.23064746;-0.020723507;0.07107333;0.107667945;-0.015137778;-0.042786337;-0.003455758;-0.0162067;-0.037362985;0.09854846;-0.048396844;0.007212878;-0.09644956;0.059377987;-0.05944874;0.011028856;-0.040250596;0.025149096;-0.033198137;-0.058826506;0.09033333;-0.0689726;-0.0160403;0.013937239;0.017578531;-0.055130463;0.058808647;0.016921414;-0.05822214;-0.0833232;-0.05919962;0.045474388;-0.026467228;-0.057872698;0.10275065;0.1006507;-0.05476834;0.02435631;0.062073067;-0.035333652;-0.07070852;-0.036928494;-0.032146372;-0.05513472;-0.14771709;0.07643557;-0.1502263;0.012554617;-0.28214872;0.052031342;0.17567831;-0.10926267;0.060276717;0.014828241;0.043412287;-0.02435661;-0.034802355;0.046461318;-0.029423935;0.08408945;0.07861361;0.08112502;0.06779148;-0.19353996;-0.05141361;0.0044461684;0.033178914;-0.06996435;-0.044851504;0.061560746;-0.07112717;-0.052611955;0.018202856;0.099018484;0.0020337207;-0.023180692;-0.062232397;0.087473966;-0.042793617;0.0048554023;-0.03403941;0.06533585;0.051846266;0.025045719;0.03847046;-0.033748478;0.0031115594;-0.001762743;0.059386425;-0.120364115;0.007118404;0.26193753;-0.013958288;-0.13427678;0.053346854;-0.010544834;0.024041206;-0.050431363;-0.029369924;-0.18052365;0.07736855;0.058545925;-0.057626918;-0.13643317;-0.011257894;-0.056853957;0.091350734;0.07895159;-0.24480145;-0.008031297;-0.06910339;0.15662013;0.0014096176;0.055618692;0.05620407;0.081616685;-0.02829638;-0.015484007;0.02975925;0.02777855;0.010904609;0.052572094;-0.015344167;0.021828739;-0.035678416;0.055869278;0.07678659;-0.036269598;-0.11611598;0.0010378758;0.09403976;0.016225843;-0.024756886;0.07832282;-0.03230091;-0.017974397;-0.006739603;0.114744976;-0.0333131;0.038304806;0.040778227;-0.015352176;-0.045524422;0.13733503;-0.06881445;0.026778037;0.022110317;0.051091965;-0.0345179;0.037820816;-0.083627224;0.06478267;-0.035905905;0.015485896;0.044251747;-0.030494275;0.061352197;0.015356087;0.034015995;0.036023457;0.088220276;-0.087811895;-0.01445325;-0.04934562;0.008221687;0.016683128;0.003040337;0.07123213;-0.119077414;0.031174295;-0.04864191;-0.07011889;-0.11751809;-0.06238167;0.044438068;-0.0057825344;0.03295;0.029450964;0.013297336;0.094386324;0.043020833;-0.039784715;-0.014220233;-0.073993504;-0.07014418;0.015558841;-0.24433754;-0.049709145;0.07532194;0.017606111;-0.019596139;0.16358757;0.007372602;-0.071332194;0.070845194;0.048717394;0.008557394;0.008565977;0.01870571;-0.060078878;0.04377454;0.06901556;-0.08639413;0.04734889;-0.07205293;0.056789376;-0.09465571;0.06404058;-0.08647192;0.07126431;0.006378861;-0.004906447;0.093710884;-0.009666335;-0.07927593;0.05897335;0.05997183;0.011158244;0.044473935;0.07123517;-0.007793229;-0.054662652;0.07011628;0.019357119;0.064563036;0.1643615;0.036924377;0.16715083;-0.000929433;0.06426644;0.028089594;0.09810931;0.061216734;0.09993666;-0.03922745;-0.077530384;-0.13437642;0.010482924;-0.05281132;0.008692902;-0.081639625;0.057716552;0.08828668;0.073017254;0.010434497;-0.10386821;-0.053212676;0.053503077;0.0016278902;0.05693921;0.04297388;-0.08942648;0.08744076;-0.00012984485;0.044320185;0.030858718;0.031099956;-0.013568063;0.018008512;0.03248211;-0.0869251;-0.017789934
0.07313298;0.08889942;0.001160954;-0.043947753;0.01645165;0.07657132;-0.0004186293;-0.11212755;-0.04400651;-0.0009631828;-0.035818607;-0.098562025;0.13647643;0.08878417;-0.05623753;-0.020173125;-0.13380264;0.07126911;0.047742393;-0.07517192;0.027884528;-0.038949754;-0.09966719;0.046954148;-0.017639803;-0.04772554;-0.013477221;-0.05219272;-0.05758091;0.05456052;-0.023419736;-0.009909743;0.00081761077;-0.05299629;0.13783887;0.068634935;0.03319156;0.038509868;-0.018966349;0.0884413;0.071715236;0.028671872;-0.20725589;0.06408629;0.09247406;-0.016225578;-0.00948152;-0.030372944;-0.16462772;0.08295974;0.08514944;-0.047961347;0.118207455;0.04835179;-0.0866152;-0.06292742;0.05771865;0.04007793;-0.11054889;-0.030453648;0.04401293;0.078475855;0.03819813;-0.020156005;-0.009198539;0.07822732;0.07126648;-0.025457406;0.056439012;0.038700074;-0.021273756;-0.0012270072;-0.00334416;0.06791941;-0.04215538;0.096530035;-0.22838217;0.08778932;-0.019757401;-0.03216201;-0.038884897;-0.030313615;-0.1938624;0.0178617;0.08854769;0.041698046;0.058694553;-0.11485084;0.0757121;0.07043119;0.053660505;0.16254616;0.10205253;-0.06893941;0.0019095483;0.008449321;-0.0776515;-0.09239156;0.12069366;0.020185225;0.19742545;0.016631205;-0.100717425;0.05889756;0.115955904;-0.044484086;0.008168605;-0.05578701;-0.020906696;-0.068893954;-0.08034733;-0.0073445225;0.058429908;-0.07515099;-0.04646137;-0.03806404;-0.0411981;-0.0953583;0.0044870563;0.046324562;0.024335813;0.03916928;-0.13189928;-0.01760977;0.018156325;0.09081408;0.033922665;-0.015044347;0.075550534;0.09756766;-0.04450669;0.07440945;0.00085133483;0.07959853;0.09716738;-0.055518206;-0.032828774;-0.016771974;0.09271964;0.033253767;-0.039461654;0.10273693;0.0036638163;-0.053148795;0.09736888;-0.07579104;0.086198345;0.039201904;-0.16064474;0.08138185;0.030655233;-0.129904;0.08634511;0.12980486;0.054953564;0.028913788;0.08449298;0.086347066;0.08148555;-0.0147186965;-0.024154453;0.036821447;-0.038103502;-0.011973802;0.12607662;-0.010684387;0.07428262;0.084779546;-0.11762723;-0.025965061;-0.14325763;0.07665085;-0.044681236;-0.085787065;0.0015546915;0.096098386;0.063520245;0.068964854;-0.02138968;-0.061454743;-0.032260533;-0.086517714;0.060166426;0.023478428;-0.040895604;0.007651397;0.13051061;-0.010951245;0.0035299675;0.021198355;0.007755195;-0.0074170385;0.005217928;0.046430677;0.03860707;0.02576773;0.07542722;-0.07733561;-0.022611227;0.0885625;0.033791464;-0.09144978;0.0651509;0.072742335;-0.06220574;-0.04535767;0.05693303;0.10203336;0.08618834;0.20116329;0.08576418;0.068199664;0.110572055;-0.015640253;-0.032468006;0.07447544;0.024669588;0.013355849;0.019748963;0.012333801;-0.008587966;-0.089929156;0.02373808;0.031573303;0.09732129;-0.07845517;0.036035642;0.08331747;0.05633221;0.08247541;-0.0505116;0.055176996;0.10595419;0.033236094;-0.026440997;0.077963136;-0.017270088;-0.058013827;-0.07207982;-0.012924922;0.029084299;0.028850885;-0.037261818;-0.016172811;0.07692608;-0.05656555;0.06540225;0.06857194;0.0026995323;-0.053876575;0.09002931;0.30564222;-0.07817403;0.033201728;0.0047094184;-0.019648064;0.038197145;0.07153804;-0.029040705;-0.052206308;-0.0392404;0.10659311;0.034671437;-0.016599637;0.15834133;0.014050926;-0.09138431;-0.018535363;-0.13649425;0.14854458;-0.06344236;0.014366001;0.07771732;0.06387201;0.004540198;0.014989273;0.09298662;0.07663628;0.032828692;0.028817452;-0.11529973;-0.11268391;-0.015410398;-0.07548216;0.035559583;-0.05769322;0.031524573;0.056587577;-0.002895925;-0.04684795;-0.020680454;0.11758877;0.1686982;0.07889961;-0.001323922;0.0044152834;0.07931637;0.057126734;-0.01777297;0.07203262;0.029666511;0.1053979;0.07833978;0.025693594;0.19505268;0.07415477;-0.0063154055;0.07651499;0.09407008;-0.25778106;0.10745451;-0.006359576;0.0954848;-0.052214496;0.00776236;-0.04538677;-0.012943992;0.029266428;0.080522135;0.037894107;0.026019402;0.066172935;0.01683326;0.01311219;-0.06442091;0.06302672;-0.029375102;0.07412898;-0.043913603;0.05980355;0.06691576;0.04693891;0.09064524;-0.0065274555;-0.025890632;0.0054541836;-0.09671798;0.059710458;0.11131699;-0.08708762;0.0048948904;0.048934285;-0.1020793;-0.04027099;0.102529086;0.026549103;0.046482418;-0.12107303;0.009886782;0.037014715;-0.00011139098;0.04776883;0.0074773277;-0.0738125;0.069796324;-0.07871456;-0.01561243;-0.029726965;-0.010513497;-0.025393631;0.02532152;0.018318811;-0.24547;0.078241795;0.0892644;0.017517652;-0.054646872;0.051967498;0.12711619;0.06805391;0.029926168;0.1070985;0.068905205;0.072839804;0.073375255;0.020812174;0.0212842;-0.14826995;0.09491788;0.0702228;0.026548732;0.05104086;0.08099117;0.0072635743;-0.06362553;0.058260277;0.05901523;0.037193455;0.09392566;-0.04907672;0.004496026;-0.003838098;-0.091791146;-0.020517634;-0.028606042;0.08241881;0.06928273;-0.046025746;0.08997046;0.022992482;-0.014498669;0.09490978;0.10084917;-0.11110116;-0.13741991;0.071155936;-0.04106853;-0.0065689646;0.14631477;-0.015557439;0.05935404;-0.026133537;0.062262546;-0.05290093;0.0033273185;-0.021594664;0.003805068;-0.078297846;0.06295885;0.046701267;0.07479262;0.12636864;-0.042914998;0.12792712;-0.028843507;-0.0343497;-0.06375241;-0.054451074;0.1530321;-0.0278765;-0.01873213;0.016868422;-0.070944116;0.009736612;-0.075993724;-0.014386198;0.056814745;-0.034259677;0.04012107;0.030066837;-0.09180991;-0.012611562;-0.09848371;-0.043379977;0.034751933;-0.05286874;-0.08535202;-0.092487656;0.15041785;-0.049765475;0.04295098;-0.011804181;0.10341523;0.045918;-0.055669606;-0.03239116;0.044064935;0.18216558;0.05994425;0.10178265;0.06252478;0.021024548;0.010381907;-0.08170972;0.08752013;-0.04915926;-0.033836927;0.024905046;0.026628437;-0.047261875;0.26377147;0.053525306;0.015947051;0.069903105;0.0892448;-0.099587485;0.1081575;-0.11410478;0.08865063;-0.08730597;-0.008138884;0.055630654;0.0027178575;0.08454827;0.013802221;0.08132922;0.043080166;0.03661599;0.03544482;-0.06232645;-0.007913218;-0.10349139;0.14486657;0.060209975;0.052255675;-0.004747541;0.046258856;-0.027325561;0.053919885;-0.097206414;-0.2053939;-0.040668193;-0.07236242;0.025404645;0.012565131;0.1967965;-0.07645872;0.0016046184;0.06666538;-0.05786084;0.035803042;-0.019546913;0.076189235;-0.016546;0.041768886;-0.05864876;-0.10329625;0.016045615;-0.056225855;0.16246314;0.009904334;0.06647184;0.100048676;-0.12180612;-0.040328432;0.04089657;-0.054003038;0.0053609647;-0.15972571;0.08389768;-0.003081341;-0.060999133;-0.0450974;-0.0149017405;-0.055283975;0.06913573;0.04901605;-0.022248536;0.08582536;-0.07058912;0.07269411;-0.10394869;0.025916178;-0.04670042;-0.07072719;-0.00539609;0.036321234;0.11320338;-0.012981515;-0.022154855;-0.107377656;-0.017834898;-0.07949445;0.070316605;0.0032376975;0.09221948;0.033423264;-0.0049746092;0.08963327;-0.08373937;0.099436104;0.018619986;-0.08343572;-0.03860136;0.039116252;-0.017773097;0.041896515;0.030099908;0.021647612;0.09492354;0.07255678;-0.023452276;-0.060093302;0.07466896;0.0011818646;0.003935573
0.058191456;0.09366251;0.0067408783;-0.14281285;0.048053965;0.017255928;0.047467448;0.007714555;-0.033429462;0.19452153;-0.0114861205;0.019277094;0.015089831;-0.00071879185;-0.026712773;-0.0039370623;-0.14182162;0.034970846;0.03833131;0.08243922;0.03387963;-0.02189096;0.007629201;0.043283805;-0.0057009635;0.004890774;-0.009205603;-0.05524302;-0.17012358;0.11608351;-0.028582059;0.04390612;0.059106834;0.025167525;0.13600424;0.015294104;0.00972331;0.07026979;0.0045686653;-0.031063288;-0.018869273;-0.004786074;0.038746707;-0.027965682;-0.013727374;-0.07472646;0.005905379;0.09137388;-0.05690597;0.004259003;0.28222883;-0.00999162;0.25901684;0.022635126;-0.0601394;-0.049390845;0.05240443;0.041588683;0.18513247;0.006684643;0.10879179;-0.04018227;-0.05828854;0.031069754;0.029297618;0.050289262;0.03691443;0.06638196;-0.06072883;0.019174324;-0.05346773;-0.029253842;0.0540887;0.04460441;-0.04910576;0.070138685;-0.14375563;0.018016467;-0.07274236;-0.025834583;0.035157993;0.12282355;0.06851377;0.055323545;0.09999176;-0.062221028;0.07330853;-0.09620901;-0.02664995;0.059168555;0.02671706;0.21249004;0.019758979;-0.064261496;0.055841986;0.078425884;0.14497331;-0.07511603;0.20644;0.001374874;-0.0029185151;-0.038273178;-0.12363729;0.04348581;0.02475344;0.037647262;0.024183922;-0.10515014;-0.032803524;-0.032172117;0.003388978;-0.08021107;-0.024748797;0.05297918;0.08645785;-0.044131014;0.10338276;-0.026759468;0.026351068;-0.0321292;0.09732107;0.06061333;-0.16104297;-0.008717112;-0.034201704;0.0071296743;-0.048964664;0.07957338;-0.032411143;-0.04473974;0.030313859;0.03307775;0.070230536;-0.015541624;-0.0816168;-0.00060777884;0.06322028;0.09414075;0.008008729;0.06398173;0.062210828;-0.0042068367;-0.03127698;-0.034769613;0.051639594;0.07699179;-0.051610056;-0.035249047;-0.0011250355;-0.094323054;0.0701064;0.023794813;0.09207809;0.16101886;-0.02745303;0.008177143;0.06787087;-0.010129319;0.049493518;0.17747413;0.049076896;-0.07214686;-0.05556164;0.011005008;0.09596151;0.07884533;0.1661038;0.088321984;0.081528865;0.043163046;-0.037557025;-0.012278826;-0.19646822;-0.027175868;-0.012055838;0.005824791;0.088271655;-0.060921486;0.020973675;0.031386126;-0.14708878;-0.16668811;0.020092;0.0974267;0.044454277;0.03498735;0.040917926;0.09697023;0.005817687;-0.03544749;0.00613644;0.009785733;0.005764845;0.027609842;0.013922099;0.0234122;0.073849104;-0.09661893;0.002332109;0.1380122;-0.0008984548;0.063696176;-0.0019186495;-0.050845824;0.107881784;0.011935937;0.00749182;-0.03267346;-0.011651011;0.33660513;0.036293574;0.062949285;-0.057895143;0.043008197;0.018905085;0.092865005;0.00879636;0.019199515;0.0077569988;-0.0031949864;0.07354613;-0.093817465;0.025206314;-0.033391614;0.0059920074;0.008308583;-0.042089663;-0.05695767;0.008284656;0.089039765;0.030836284;0.07919782;0.0007364471;-0.021966347;0.0009114754;-0.07317077;0.07307889;-0.06600725;-0.075865135;-0.004606763;0.15470307;0.06946394;-0.004856107;0.06432098;0.097295344;-0.107108094;-0.065935194;-0.0051776166;0.07923046;0.05682377;0.058175113;0.2994443;-0.065124236;0.024755398;0.10963511;-0.011987452;0.03734903;0.0023099924;0.015366752;-0.06574957;0.039101213;-0.065934345;0.0551962;-0.07520945;0.02072884;0.02176346;-0.08348208;-0.020142833;-0.062533915;0.044901296;-0.07596939;0.088128485;0.03908616;0.06980225;-0.10602749;0.031902432;-0.108886085;-0.027672745;-0.011827825;-0.055646043;-0.020740531;-0.054219864;-0.021138886;-0.09705369;0.060112823;0.0034329968;-0.07032335;-0.028638888;0.10082753;0.00481737;-0.041293886;0.102338664;0.20046555;0.075913206;-0.09429791;-0.01849628;0.10518407;-0.00679563;0.05126942;-0.01220282;-0.042484783;-0.043941874;-0.051709954;0.019686595;0.10549128;0.03763967;0.060133994;-0.012114347;-0.03187995;-0.28413358;-2.3673922e-05;-0.024268506;0.0859947;0.102871716;-0.14953168;0.050207175;0.03514501;0.09583772;0.017024593;0.026221648;0.022721818;0.21223103;-0.010025881;-0.0615094;-0.034860928;-0.023157861;-0.0071273553;0.09156141;0.046005927;0.047770947;0.06919828;0.034067877;-0.017469725;-0.0047985003;-0.01857703;0.16129051;0.1024852;0.11037879;0.16749415;0.057684164;-0.049619723;0.0809709;-0.20525159;-0.015565152;0.017334308;0.018836683;0.05160011;-0.10121933;-0.011269951;0.036618497;0.07036839;-0.0018966609;0.005739363;-0.011768036;-0.0064718737;0.08939027;0.09052468;0.04138944;-0.016502425;0.049039185;-0.08379462;0.021014394;-0.12315601;0.058777407;-0.017783402;0.100027025;-0.03272058;-0.045321263;0.07474036;0.067102544;0.007449615;0.040808994;-0.0073052617;0.063630044;0.1273388;-0.04051556;-0.012244742;-0.13480106;0.028230913;-0.035685394;0.0852043;0.048656676;0.014748026;-0.011698154;-0.05429996;0.0518358;0.028492153;-0.032977976;-0.030619841;-0.008969836;0.025135152;0.018651087;0.063057944;0.000749942;0.125932;-0.030263733;0.003853532;0.02886808;0.1709934;-0.083255604;-0.06341294;-0.027753806;0.0008094932;0.013721784;-0.039950628;0.048750143;0.03220224;0.002865543;0.11401454;0.104778074;0.004700354;-0.034073614;0.043102536;0.00056020723;0.03634807;0.053495195;0.0056584426;-0.10795036;-0.021831281;0.05675985;-0.0045446744;0.055817157;0.12695321;0.09062063;0.042539038;0.09125419;0.08029799;0.06426902;0.045742862;0.06346313;-0.033163857;0.0007019681;0.07683841;-0.098254345;0.048511162;0.018344909;-0.03946403;-0.028750854;-0.011712411;-0.031610284;0.0878238;0.10981979;0.0025534523;-0.06294648;0.109934494;0.014615104;-0.13926987;0.07148699;0.022848554;-0.07538408;-0.009661376;0.03230929;-0.046953786;-0.04014064;0.06206819;0.0009199573;-0.07670125;0.14122252;0.04395985;0.15240857;0.07375105;-0.030090053;0.028310541;0.03788264;-0.030415704;0.044309042;-0.2495882;0.052797556;-0.04819195;0.044082034;0.35305148;-0.060543448;-0.02558815;-0.076553605;-0.046035092;-0.08640559;-0.015306989;-0.119146004;0.053744342;0.026670065;-0.16036336;0.017262625;-0.08435176;-0.04747374;0.008896755;0.09663944;0.24666639;0.041960895;0.09468934;-0.014072379;-0.013274757;-7.4330383e-06;0.07824972;-0.04526847;0.0826863;0.022729905;-0.049363066;-0.040434312;-0.0656374;0.06373757;-0.23443359;-0.038800362;0.08101297;-0.030094706;0.051195737;0.22173983;0.079980455;-0.06016395;0.00965712;0.022344308;-0.028145298;0.057997182;-0.10534532;-0.064746775;-0.014908733;-0.030559033;0.04753593;0.13544485;0.0544722;0.06572485;-0.011440599;0.052286442;0.12002184;-0.05526518;0.069377586;0.03459805;0.0024504832;0.06403937;-0.18283908;0.0060873837;0.039883472;0.043266244;0.06651113;-0.05001604;-0.01584278;0.070358165;-0.0123253865;-0.011245496;0.0370774;-0.04986246;-0.038503677;-0.021708198;-0.05765758;0.08094545;-0.041288912;-0.008184459;0.020391187;-0.012464409;-0.10331926;0.010314453;-0.042237688;-0.01389056;0.040258735;0.028871763;0.016121862;0.015966844;-0.020973602;0.026901307;-0.044132337;-0.09757362;0.08689806;0.08392173;0.109820046;0.051343933;-0.005071898;-0.07429883;0.037482258;-0.060701486;-0.1028943;0.070863485;0.017981363;0.016690435;-0.056560297;-0.059077617;-0.013756485;-0.12513262
-0.07677677;-0.0021573277;0.081214935;-0.033743594;0.07086939;0.053318314;-0.002465341;0.12168638;-0.12823361;0.21086721;-0.09211612;-0.055640407;0.076237075;0.07402803;0.015090611;-0.06931161;-0.12254326;-0.090512335;0.036298025;0.014711469;0.05728999;0.002632988;-0.025995864;0.111201584;-0.052190006;0.07590875;0.047464896;0.015873749;-0.07539984;-0.022819377;-0.04642737;0.06331825;-0.053346884;0.03902417;-0.13678376;-0.052182864;-0.0014422187;0.03807504;-0.059844606;0.08648534;-0.0105353305;0.010707145;0.080339044;-0.069835894;-0.032297272;-0.094781026;-0.019605925;0.05617991;-0.055586815;0.19609165;0.3043487;-0.013399263;0.12827638;-0.0032173968;-0.16757886;-0.10254396;-0.055440947;-0.011469036;0.007327372;0.09631178;0.026298987;-0.075574316;0.012126554;0.019279432;0.012875597;-0.040353008;-0.20252524;0.24170074;0.0046326807;-0.05080105;-0.07368576;-0.0302283;-0.069084086;0.046087917;-0.11024243;-0.07099506;-0.10597696;-0.074066155;0.08848967;-0.07943876;0.029067155;-0.07798823;0.1400867;0.057753343;0.039098952;-0.06215713;-0.017430421;-0.049695432;0.026867054;0.04755675;-0.063984476;0.24005675;0.10036171;-0.042767845;0.050088715;-0.026864478;0.034077793;-0.0037274577;0.32374117;-0.04241013;0.108824365;-0.038951933;-0.09029494;0.07189813;-0.06631617;0.048947692;0.01981173;0.003427759;0.036745813;-0.009718419;0.047401518;-0.045572445;-0.06505062;0.106412604;0.06328474;0.0011699399;0.005306394;0.16837817;-0.14363375;-0.05531978;-0.09449897;0.11268321;-0.12629203;0.017066391;-0.02428745;0.0837546;0.05362296;0.08341613;-0.08270007;-0.046382647;-0.067082375;-0.0540985;0.16152152;0.021838328;-0.17482182;0.031769127;0.06808392;-0.10357116;0.009007178;-0.035286147;-0.042681918;-0.024610704;-0.14981578;0.03977408;-0.023316216;-0.047208082;-0.028010381;0.11268265;-0.115146;-0.13057047;0.11264984;0.17266385;0.107771695;0.050331656;0.07540035;-0.15511405;-0.042473834;-0.03078282;0.06364302;0.18236345;0.013894977;-0.02929779;0.06377722;0.101256765;0.21504545;0.037110467;0.030109491;-0.034030486;-0.063232325;0.07865603;-0.036397524;-0.012868006;-0.0814472;0.04424778;0.00046860325;0.027005453;0.090170056;-0.036693115;0.08160846;-0.049164396;-0.17987451;0.04224109;-0.062225856;0.014191926;-0.019381119;-0.031313524;0.025725223;0.038850084;0.057351954;0.06771032;-0.032772724;0.09287558;-0.014729013;0.06526604;0.18793036;0.00723579;-0.063677914;0.08797141;-0.012837557;0.15616538;0.070148945;0.02164369;0.037054855;0.0010841363;0.14830789;-0.04527325;-0.011366647;-0.036003202;-0.0611316;0.21257718;-0.0018712442;0.05102816;-0.05879836;0.052853923;-0.043927897;0.19559851;0.122350655;-0.124029085;-0.020972628;-0.01780679;0.029671436;0.053499445;-0.04339268;0.077946626;-0.09544506;0.030009465;-0.07500704;0.025047623;-0.010383337;-0.07579315;0.06279175;0.055160534;-0.006203348;-0.027145736;-0.0019245583;-0.04935509;0.024268702;0.04144474;-0.06552639;0.04310829;0.039288536;-0.055083275;0.05950286;-0.023392586;-0.11071337;0.009739738;0.08774429;0.0984351;0.069060124;0.04145097;0.12116653;0.07090571;0.02529786;-8.340488e-06;-0.06856448;0.10397918;-0.041404452;0.025387028;0.046913274;0.026621941;0.024066664;0.07006811;0.04595499;-0.09910876;0.07301691;-0.006086747;0.020920271;-0.1650018;0.08944188;-0.058389306;0.07143843;-0.0016943727;0.09845077;0.0294606;-0.06530342;0.007978011;-0.06929104;-0.052382622;-0.028918998;-0.0026215476;-0.067190066;0.06467173;-0.089546345;-0.015573704;0.081721276;0.021961259;0.0532127;0.08558185;0.021457989;-0.04134104;0.06603362;0.06189044;0.14289404;0.014913056;0.08608022;0.01078996;0.11671077;0.029267661;-0.09337148;-0.08273128;-0.012040857;0.065050885;0.019148601;-0.03993195;0.048413772;-0.020432375;-0.0058680624;0.1067007;0.072142266;0.0062641585;0.07710888;-0.024848457;-0.06381827;0.020026458;-0.0012367549;-0.059827004;0.032515228;0.030543044;0.09302659;0.010782847;0.041683216;0.21994627;0.03621661;0.0033594894;0.0715308;-0.00337802;-0.041178405;0.11249678;-0.0114610875;-0.04235109;-0.05506489;-0.09486761;0.015615036;0.061420742;-0.029388243;0.0035082728;0.09802515;0.013897836;0.0994712;0.042815827;-0.05360776;0.0390377;0.0128611345;0.14717738;0.029908845;-0.03164415;0.10996721;-0.022988029;0.081925824;0.01485248;-0.08439002;0.022847734;0.039022155;0.055334955;0.006946628;0.013447609;0.090953425;-0.0196457;0.075715296;0.0313675;0.08879493;-0.029260725;-0.12158525;-0.04709237;-0.026536679;0.030713717;0.028672928;0.0102612665;0.08058615;0.01735879;-0.061707985;0.015513894;0.06451969;0.03337924;0.02366307;0.07353871;0.08492614;-0.21750897;0.111998275;-0.037356146;-0.07970933;-0.018066157;0.032997772;-0.059051026;-0.047257278;0.023673646;0.044639144;-0.036048256;0.05959172;-0.03724923;-0.0372107;0.040370896;0.034983523;-0.009484488;0.045099236;0.105875805;-0.050449334;0.045925096;0.010885236;0.0030681607;-0.1112766;-0.088023126;-0.05513151;0.089792065;-0.05940702;-0.03494518;-0.026668414;-0.09283233;0.13653527;-0.0026482702;-0.09027037;0.050637983;-0.025458422;0.115734145;0.05492864;-0.0035703154;-0.0077265347;-0.076086655;-0.010792187;0.07710383;0.02091304;-0.04642527;0.08252483;-0.06703258;-0.00600652;0.17535172;0.037571583;0.09726213;0.1434469;0.11318004;-0.02770462;0.052677024;0.048049174;0.046626464;0.050759804;0.06570467;0.10377998;0.036070623;0.08155234;-0.07791575;0.022288334;0.036968797;-0.13581522;-0.025769606;-0.062383916;0.0624806;-0.0067312294;0.05510316;0.011208421;-0.031535722;0.030774763;-0.030801281;-0.060739797;-0.06752779;-0.09370408;0.15940592;-0.13263774;0.06614832;0.039058305;0.0009664644;0.0557564;-0.065190874;0.061065506;0.00521578;-0.060943935;0.106538236;-0.14234911;0.015650537;-0.05003145;0.016121408;0.2643189;-0.020113071;-0.055621866;0.032797918;-0.055992402;0.0822173;0.018669885;-0.17229268;0.01439364;-0.022713728;-0.03317158;-0.014954794;0.035391666;-0.033906452;-0.02899498;0.11985368;0.0072989375;0.01769138;0.0738504;0.08566469;-0.04593277;-0.05558393;-0.080338635;-0.064551786;0.06037814;0.06510118;-0.022227017;-0.1244561;0.0002460954;-0.08252367;-0.11411639;0.010254691;-0.16970895;0.09886019;-0.0452933;0.061479192;-0.06869693;0.024886694;0.042429518;-0.041510984;-0.0049599786;0.035979576;0.016720787;0.05225874;-0.066975646;0.015079698;0.009993683;-0.019229034;-0.001304283;0.09175909;0.073799506;0.055644803;0.06263738;0.037362155;-0.037746288;-0.0010251409;-0.07515352;0.07316855;-0.08006747;0.011692476;-0.106803484;0.01886218;-0.09353767;0.044891044;-0.0150664095;-0.08068515;0.07979424;0.03215911;0.017582439;0.15818042;-0.07541787;-0.08054775;-0.06103018;0.07497136;-0.053988986;0.04756167;0.2089625;0.08008059;0.004653383;0.045980647;-0.07097045;-0.022582313;0.04707922;0.006543232;0.0630057;-0.08637571;0.01546792;0.123112306;0.084296696;-0.18113694;0.073930085;0.01696789;0.044181716;0.044861566;-0.062135905;0.056934662;-0.023501787;0.024008716;0.061379448;0.038120925;-0.04213386;-0.01735783;-0.11203874;0.028681882;0.06918774;-0.13364294
0.00558797;0.02766517;0.1621539;-0.1926731;0.0063314834;0.049530365;0.04920353;0.017691769;-0.015049289;0.21683468;0.03091752;-0.006610052;-0.059597544;0.07704214;-0.036560044;-0.04200788;-0.054906793;-0.07733454;0.063144155;-0.037696023;0.017421061;0.0054748715;0.091293186;0.16602027;-0.0008714364;-0.033292197;-0.093205094;-0.057193086;0.121075;-0.010837927;-0.00095349713;0.023223752;-0.076842986;-0.04224733;-0.1705449;0.0010776797;-0.01396474;0.03872145;-0.062089454;-0.0021925156;-0.03287103;0.061576013;0.15645622;0.030887412;-0.10251184;-0.0291246;0.097229734;0.08796121;0.11940631;0.21227482;-0.0145003;-0.034292232;-0.06536617;0.0047992035;-0.048182733;0.05061784;-0.0011701207;0.052775852;-0.12005309;0.009009763;0.06728274;-0.020913193;0.023222737;-0.06018042;-0.02040691;0.033569127;-0.05523587;0.28176382;0.067257196;-0.007814939;0.06335835;0.012512866;0.064170346;0.007525695;-0.011401199;-0.06556738;-0.091868035;-0.12197124;0.1015138;-0.029213248;0.010228538;0.026009802;0.130479;0.01572774;0.029650716;0.0037754122;0.06526837;-0.1325288;0.05128452;0.007331816;-0.0003085362;0.09095872;-0.00757205;0.011533668;0.09648066;0.03485429;0.016331337;0.040505964;0.14030017;0.1173557;-0.054084398;-0.02169382;-0.02437825;0.0775406;-0.029037038;-0.048671883;0.078136705;-0.0027472377;0.038315326;-0.025945153;-0.019083707;0.07833345;-0.04357251;0.12028076;0.026973626;0.037736878;0.06095038;0.19652076;0.064907685;-0.04153617;0.006090691;-0.008938671;-0.011235819;-0.07749095;0.015104715;-0.040358774;-0.05510724;0.13926075;-0.00825777;-0.040929306;-0.064627975;-0.076062;0.034339517;0.024631025;-0.13613836;0.113403596;0.04373552;0.02489228;0.060607444;0.080467485;-0.049117077;0.058180135;-0.032036204;0.0068258424;0.029821746;-0.028140876;0.013177;0.03134591;-0.13753119;0.014686353;0.16745234;0.0062877806;0.07361061;0.09349692;0.09315925;-0.061609477;0.05785315;0.06519204;-3.0225965e-05;0.05459787;0.057936665;0.016182562;0.04186397;0.30696112;0.106887005;-0.0661225;-0.078196816;0.0048029674;0.040715255;0.043795828;-0.098598465;-0.0099619785;-0.2664725;0.031007249;-0.07367885;-0.073201165;0.123777784;0.1034006;0.020373352;0.018542733;0.10018069;-0.03392371;-0.046008043;-0.012094072;0.043643784;-0.089555584;-0.044985835;-0.06614078;0.07857997;0.10171583;-0.03304898;0.06779416;-0.02274008;-0.033345662;0.24029197;-0.03299745;-0.059110835;0.06322216;0.012578102;0.10442999;-0.031333845;0.0008996193;0.09671086;-0.044639267;0.14100675;0.05549604;0.023466395;0.03506126;-0.02737652;0.03909966;-0.014242036;-0.01803541;0.1963938;0.019342648;0.04338156;0.1315456;-0.08172232;-0.077359855;-0.043254063;0.0913415;0.018419962;0.25228405;-0.002913459;0.09201226;0.02819173;0.0959725;0.038322333;-0.10256467;0.024354266;-0.05035339;0.014735227;-0.052164488;-0.033654314;-0.014490562;-0.027540723;0.00071104075;0.06266072;0.055168085;0.04337793;-0.015509572;-0.13395181;0.039986327;0.0824654;-0.009984335;-0.026216961;0.060602244;0.1102773;0.093322776;0.0031109508;0.079680584;0.059148837;0.073672295;0.012133949;-0.00096293114;0.06830328;0.06682139;0.057774752;0.040595397;0.042775437;-0.064328246;-0.024240203;0.14294328;0.0009446102;-0.124428436;0.15338488;0.0042569595;0.07279849;-0.23139162;0.19895427;0.023487682;0.03809984;-0.04385827;0.12649192;0.10361501;0.06677398;-0.00026425323;-0.038333494;-0.030708663;0.033910148;-0.1507025;0.065503344;0.08918698;-0.07522789;0.06612385;0.07263733;-0.02741836;0.07082792;0.00456298;-0.059095096;0.030412387;0.04326109;-0.021580141;-0.074421726;-0.00020408901;-0.06636239;-0.012502692;0.11491438;0.070183285;-0.029581519;-0.10277566;0.025977714;0.053733837;0.05982748;0.051873144;-0.25515312;0.018157031;0.091381714;-0.032637108;0.07439199;-0.08557231;0.038573943;-0.07633132;0.035191063;0.03362795;0.09339455;0.031073207;0.019329285;0.012084752;-0.038382232;0.013906037;0.022555234;0.015969267;0.08017469;-0.0974754;0.01825102;-0.058246605;-0.048551068;0.018129725;-0.004448341;-9.9693716e-05;0.04443759;-0.08275636;-0.064858824;0.030226203;0.047389302;-0.0645967;0.009472634;0.018976316;0.046250124;0.033429757;-0.0463149;0.07075998;0.004999756;0.114094615;-0.026130483;0.03730114;0.027759705;0.0092737535;0.039952062;0.050787933;0.04451956;0.030475492;0.007248642;0.02492258;-0.022310168;0.019859744;-0.062044907;0.039072372;0.042706907;0.0017828817;-0.026566304;0.0045438106;-0.009414419;0.036424268;-0.07798948;0.07298126;0.07100035;0.07829577;0.04980217;0.08641157;-0.07754198;0.048374128;0.13133413;-0.181295;-0.07953657;0.07716326;-0.008576577;-0.19160844;0.0076831393;-0.08386297;0.041875366;-0.085516945;0.0046106167;0.06589253;0.01934664;0.070485316;0.01950051;-0.022281636;0.026755746;-0.07108251;0.028923402;0.1162183;0.1593743;-0.015602112;0.07059242;0.04691587;-0.049972832;0.021114418;0.09895041;0.0033525773;-0.094348416;0.06638745;-0.034170836;-0.08731479;-0.035709444;-0.014378334;0.0038642972;-0.10113757;0.14567989;0.027086508;-0.10277898;0.07310764;-0.073488556;0.098609224;0.045189578;-0.08025213;0.09550838;0.021974951;-0.011034348;0.026015265;-0.0859467;0.18737164;0.013926154;0.0452081;0.09326537;0.043474652;0.0021895773;0.08943768;0.26048017;0.036342215;0.061244566;0.08317568;0.055534985;-0.018585408;-0.033481613;0.042766426;0.08191479;-0.00956692;0.06600996;0.080194704;-0.027764887;-0.029175982;0.04305368;0.004461875;-0.12941219;-0.030414073;-0.022843609;0.115195446;-0.10394907;0.029966066;0.04342181;0.02706887;0.018594805;0.02389757;-0.06751098;0.1611697;-0.02859093;-0.10401449;0.042603206;0.0152338045;0.01741704;0.049613066;-0.084858455;0.03412321;-0.017782308;0.039350897;0.16955985;-0.033199526;0.14113204;-0.07315686;0.0014366333;0.024574282;-0.0999313;-0.037895523;0.02466979;0.11525662;-0.03383394;-0.06373331;0.06815856;-0.12651916;0.06426048;-0.08816597;0.0071710115;0.025500374;0.049568146;0.013726291;-0.024939626;0.0890009;0.040238123;-0.061279856;0.100919046;0.080279276;-0.12637995;0.06844271;0.018928029;0.0029906286;-0.11068912;-0.077928774;0.07101557;-0.06154567;-0.23014891;0.0568887;0.05364477;0.07053915;0.04222303;0.09953965;0.017019084;0.031774905;-0.036114108;0.0041725934;-0.059614267;0.0070137014;-0.023234397;0.01090691;0.039722368;0.046351254;0.08902572;-0.019917864;-0.009829915;0.10376363;0.07118427;-0.038582593;0.011372855;-0.091353185;0.083158046;-0.06929316;-0.114303365;0.03589276;-0.14802672;-0.062215615;-0.077656984;0.10169388;0.025142958;0.0860978;-0.036078155;-0.021781834;0.06553125;-0.02980513;0.20588742;0.14850326;0.04702511;-0.028635181;-0.05931414;-0.064569555;-0.06398316;0.031626385;0.116893575;-0.020068927;-0.0807665;0.0020878941;0.043165267;-0.014262437;-0.0076354863;0.022895174;-0.0008030498;-0.04584814;-0.074605234;0.1932964;0.03854702;0.05689901;-0.078802556;-0.05752864;0.06685196;0.004281002;0.008165252;-0.028015299;0.08922864;0.03213624;-0.043099493;0.029803563;0.07165819;0.02028028;-0.068838164;0.05764067;0.09239812;0.16320303
0.0046028965;0.022649225;0.11011474;-0.15552975;-0.018910075;0.058785062;-0.035016082;-0.029480977;0.018458955;-0.06397364;0.0017005997;0.08350589;0.054119825;-0.031886317;0.028035758;0.0771144;-0.15165801;0.030105855;0.011500678;0.03714812;0.018230049;0.062767304;-0.053342864;0.24698189;-0.014247751;-0.015228101;-0.009013235;0.015796596;0.09280658;-0.0033903287;0.07319152;-0.0054578334;0.005132478;0.068412155;-0.12832345;0.06343816;0.019028295;0.0369409;-0.01683622;-0.04420163;-0.0066823973;-0.0017750744;0.013513163;-0.07219585;-0.04981133;0.09095913;0.022479363;-0.066170186;0.006767746;0.21384683;-0.19951247;0.058326878;0.042776782;-0.07356786;-0.18108402;-0.05740405;-0.08411557;-0.050025467;-0.021222863;-0.042676225;0.08045105;0.059981365;-0.03916627;-0.025011744;0.046520844;-0.013524661;0.09610291;0.15404728;0.06959226;0.081693105;-0.046424646;0.063462794;-0.09047245;-0.02458907;-0.06290515;-0.07053601;-0.043608796;-0.13184157;0.00026170822;0.16952057;0.039306756;0.10242868;-0.06303089;0.005446988;-0.050832417;-0.0074289823;-0.038458135;-0.07278692;-0.059952606;-0.03696964;0.0073291296;-0.1209631;-0.02528873;0.10661216;0.017515825;-0.064406544;0.07896887;0.06855348;-0.1974379;-0.049153678;0.06304974;0.034519274;-0.09446985;-0.023139346;0.011774672;0.049280226;-0.05891624;0.06034734;0.056840852;0.12045559;-0.03636485;0.014445657;-0.03855986;0.05984204;0.03138397;-0.050274085;0.064258784;0.12179708;0.1725933;0.09568412;-0.025141807;-0.036643106;-0.07908934;-0.089031644;0.037807323;-0.04939056;0.07228272;0.057886068;0.00031717023;-0.07383017;0.08586641;-0.17785288;-0.010188433;0.07037967;-0.015983583;-0.024541965;-0.056979038;-0.08037164;-0.06827683;0.014030582;0.020588554;0.04238712;-0.1434145;-0.028008234;0.086698875;0.05017687;-0.027767362;-0.044270232;-0.032103684;0.034825083;0.03955316;0.060251605;0.08027679;-0.15350373;-0.03058483;-0.008070864;-0.06732716;-0.0547428;-0.0057342085;0.08577498;-0.0044824253;0.042947106;0.08411606;0.14361177;-0.013731303;-0.023902427;-0.07358932;0.096781716;-0.05770193;0.031774584;-0.027634477;-0.044792134;-0.10109217;0.032582276;-0.0029410599;-0.023873707;-0.011353729;0.06409602;0.023738781;0.08728842;0.04449769;0.025515476;0.0015171185;0.1772428;0.01588102;-0.1445712;0.010934523;0.051459126;-0.039255243;0.04571732;-0.01888659;0.04840642;0.08699241;-0.039394077;0.10410543;0.18228357;-0.059252042;-0.08174204;0.044130206;0.061355572;-0.019571954;0.047865648;0.08149995;0.056291025;0.3752715;0.058873057;0.091327906;0.09193466;-0.067019455;-0.14684723;-0.008879443;-0.0355627;0.026263028;-0.054640975;-0.08455499;-0.092028566;-0.05448645;0.23956436;-0.017973775;0.010087339;0.0024870941;0.27359337;-0.023440579;-0.02443657;0.025039565;-0.048331898;0.053961556;0.104377486;0.04469174;0.032575198;-0.035644636;-0.07361699;-0.008729401;-0.1751303;0.05628749;-0.06326419;-0.04195873;-0.0071862796;0.08623253;0.016480569;-0.106119454;0.054630563;-0.02240599;-0.046392288;0.03955457;-0.015530271;0.11127774;0.029482517;-0.0052481694;0.0065303454;0.04313319;-0.11663294;0.03199032;0.05740668;0.03760524;0.04362403;0.05651493;-0.0020707194;-0.05999408;0.22184674;0.0928273;0.10684264;-0.07552714;0.018069189;0.19167677;-0.043602176;0.14240171;0.053602457;0.19848666;0.012612342;-0.021309063;-0.03692796;-0.016752735;0.009330301;0.075117186;0.005841037;0.038708944;0.02555427;-2.9488521e-05;0.02250686;-0.00418392;0.032389116;-0.096087076;-0.017288228;-0.047296394;-0.045808364;0.03819771;-0.05650518;-0.00043800523;0.06797424;-0.036162935;0.16855137;-0.24878153;0.028206721;-0.03020179;0.03378868;-0.11719963;0.055532757;-0.056542918;0.0013207333;-0.09086069;-0.001108902;0.034077786;0.070362315;-0.21891387;-0.05389433;0.0158577;0.05162255;-0.08204259;-0.11082859;0.05905154;0.09257068;-0.028339384;-0.001018806;0.057713076;0.055199333;0.013648146;0.018805943;0.0712118;-0.015199808;0.022827176;-0.040133733;-0.05528785;0.051899616;0.028668448;0.016627965;-0.091613635;0.009178179;-0.004776895;0.07584888;0.013370936;0.02113782;-0.21013632;-0.03594616;-0.08221111;0.008309257;0.0963479;-0.0148752425;-0.055805977;0.0107536325;-0.00794021;0.055402767;-0.05935798;0.12652306;0.075530745;-0.08731052;-0.012348969;-0.0013673253;-0.068573736;-0.075834945;-0.054418582;0.0519253;-0.0055527287;-0.004642798;-0.002459853;0.0320022;-0.08411175;-0.027994374;0.015591999;0.041093517;-0.03595624;0.039543033;-0.11322464;0.0113462405;-0.08200994;0.059225943;-0.05083807;-0.010680789;0.04818337;-0.026785102;-0.08789673;0.09746433;0.039210748;-0.13719843;0.021058861;0.05161762;-0.09836292;-0.11474676;0.00073175;-0.117011234;-0.037683353;0.0061354027;-0.051206518;0.06637227;0.013955151;0.06802344;0.03723732;0.08112582;-0.024887918;-0.037791252;0.01601301;0.029783905;0.05582366;0.0040952163;0.07251036;0.0876016;-0.0076049413;-0.06408647;-0.016997645;0.06465481;-0.044137098;0.058124974;-0.14089377;-0.03326655;-0.05860993;0.106019765;0.021654295;-0.13935542;0.03648395;0.08852975;-0.09483161;-0.109238185;0.022461401;-0.07644387;-0.020615464;0.096937954;0.0053134765;0.22376464;0.045217667;0.10364082;0.1651044;0.22344333;0.037958622;0.058868818;0.09935018;0.001075473;-0.007877449;-0.06278512;0.1808909;-0.06813774;-0.07088573;-0.0015349454;-0.017606445;-0.030238269;-0.015188275;0.06488264;-0.017927088;-0.009542737;0.05683814;-0.017959708;0.007137309;0.008659749;0.16584225;0.005108693;-0.101146825;-0.065766476;0.075822316;-0.055020556;0.072164945;-0.0095131835;0.15836972;-0.093373775;-0.0165425;0.035159785;-0.00970299;0.12601069;-0.024676329;-0.15234588;0.0120203495;-0.053128175;-0.05707624;0.010905333;-0.050702706;-0.060012538;-0.007130931;0.32256353;0.029025532;0.07335404;0.20594488;-0.022630138;-0.17803267;-0.006325251;0.052657165;-0.0044114306;-0.03847182;0.0787519;-0.013494945;-0.04991393;-0.03046243;0.053148337;0.15038934;0.015822036;0.12600598;-0.05936347;0.039710358;-0.09246302;0.050832897;0.11392769;0.051170483;-0.044099268;0.050116908;0.1313485;0.022232052;-0.028013164;-0.054847933;-0.062378567;0.05615192;0.12809995;0.10595662;0.0031111948;-0.20424072;0.062455438;-0.0068467027;0.04177368;0.013602815;0.06243457;0.079199575;0.040838476;0.039388414;0.08476108;-0.106224395;-0.03940252;0.07097068;0.10476327;0.11227029;-0.038029738;0.019662362;-0.10609315;0.011576464;0.0333635;-0.036967658;0.071690746;-0.058333844;-0.12672372;0.072339796;-0.011613262;0.015212191;0.07647358;0.11407906;-0.012279604;0.0048544793;2.8223207e-05;-0.051145907;-0.0067857956;-0.03386572;0.024925033;-0.07978378;-0.034374297;0.039226774;0.13276885;0.013693719;-0.25210947;0.04540544;0.03377836;0.023088422;0.043151204;-0.0039294777;0.104548186;-0.12555733;-0.032936644;0.055431955;-0.025432479;0.08476377;0.03507716;-0.06645046;-0.012224823;0.04610597;0.048583522;0.07312298;0.09686648;-0.03744556;-0.01676211;0.0864866;-0.060313188;-0.06361858;0.007363857;0.003040782;0.010474636;0.10637388;-0.0029965355;-0.019956514;0.021514922;-0.043277048;0.0044278866;-0.040175702;0.0027559972
-0.099531434;0.08308854;-0.07310087;-0.10643581;-0.04910335;-0.03845286;0.049800236;0.05772578;0.12974626;0.13629721;-0.09409796;0.056932524;0.011681096;-0.055200785;0.0062058656;0.036311295;-0.11970172;0.0043609766;0.059047323;-0.030659853;0.008037306;-0.02959107;-0.058226522;0.0056184046;0.0071908557;0.06964629;-0.06270533;-0.036372226;-0.040227167;0.004839172;-0.038362965;-0.018791508;-0.025489403;-0.063911274;-0.029223477;0.02501865;0.010766981;-0.0880274;0.06814071;0.036274213;0.0154588;-0.06907854;-0.0018648631;0.07586968;0.0063228095;-0.038401034;0.07938383;0.047134;0.040042743;0.094932534;0.060763534;0.0062643327;0.2485478;0.025409495;-0.02811736;-0.22916494;-0.05715497;0.074825205;-0.0051022153;0.08097245;0.07959025;0.03544332;-0.040369935;0.0020545356;-0.059698723;-0.085868835;0.0017600686;0.12608245;-0.12822857;0.07205298;0.028495684;0.06532144;-0.027026188;-0.064751394;0.028923139;-0.09816084;0.016713157;-0.060766667;0.034717593;-0.1591136;0.07506929;-0.075703815;-0.033481225;0.0029262358;-0.12416692;0.06589163;-0.013164842;-0.077730365;-0.010046303;-0.015686098;0.0057625268;0.26974753;-0.2010934;0.11217932;0.061405838;0.06680014;0.09246507;-0.0028861556;0.011942491;0.011177528;-0.0045043123;0.058929008;-0.053554226;0.053575948;0.09355415;0.07052795;-0.09401559;0.09408046;0.07680971;-0.01131066;-0.03672887;0.024448622;-0.037588496;-0.05127092;0.08451534;0.06574541;-0.14252952;-0.005539225;0.05840666;0.038394645;-0.07506007;0.06753296;-0.053098284;0.018550787;-0.0024428735;-0.013511654;0.065742314;0.0069132135;-0.0074273194;0.017328419;0.087066896;-0.2846412;-0.025245544;0.005899004;-0.06399969;0.044898905;0.029462228;-0.06272675;-0.01521957;0.08016714;-0.018159281;0.047304753;-0.014745855;0.020915775;-0.07349073;-0.04894788;0.12582718;-0.035277303;-0.006345337;0.031036044;-0.026711687;0.08329291;-0.026672393;0.017772136;0.055987675;-0.112614244;0.008534301;0.0058792583;0.08547646;-0.048052765;-0.04132136;-0.022945212;0.10191965;0.18641467;-0.068045504;0.019372541;0.17555034;-0.0036721688;0.06362716;0.078134805;-0.15969592;0.07297816;-0.016663464;0.03907313;0.09195769;-0.06410217;-0.042362034;0.08532963;-0.0041814516;0.11752636;0.11494322;0.0032740748;-0.061616693;0.07469571;0.10654158;-0.06415587;0.0976113;-0.070535436;0.055346202;0.03874393;-0.101966955;-0.06903449;0.23000777;-0.023351306;-0.047548857;-0.07330524;0.091498174;0.0667964;0.065835364;-0.07952987;0.09866406;-0.057947017;0.10559117;-0.0044131447;0.12250757;0.040812228;-0.05730469;0.10259927;-0.049196765;0.24634805;-0.051094126;0.052439302;-0.018608868;-0.03288891;0.041640095;-0.14018798;0.0321362;0.015278825;-0.12790994;0.060611043;0.080530085;0.100986995;-0.109149195;0.08472897;0.054275233;0.051721092;0.081970856;-0.014765989;-0.008407714;-0.0559902;0.016416028;0.02275303;0.033988692;-0.06464721;0.0389512;0.11169708;-0.03019329;0.053284455;0.084545866;0.063911825;0.0274452;0.051114786;0.052972108;-0.027555013;-0.06575052;0.052482292;-0.059132278;0.081303254;0.08240844;0.04832662;0.075845435;0.06500044;0.08172543;0.078480564;0.018482728;-0.040037353;0.06003647;-0.03031147;-0.029931111;0.110073455;0.014522666;-0.041832488;0.024119087;0.09982868;-0.046359323;0.06739399;0.09955621;0.026922328;-0.09211349;-0.035337664;0.04343923;0.037591588;0.11314501;0.03485365;-0.033348475;-0.014443184;-0.0280578;-0.055331185;0.031747665;0.032028455;-0.11685321;-0.023510007;-0.037383184;0.018740077;0.060543805;-0.045243807;-0.11914982;0.009415203;-0.02710038;-0.014141566;0.09221109;0.031961996;0.07331923;-0.055193834;0.104789555;0.0120961275;0.01887708;-0.036919374;-0.03929865;0.006746327;-0.052794907;0.03453881;0.092474654;0.006073729;-0.07093875;0.04818662;0.08062855;0.011348058;0.020414818;-0.09894706;0.07076346;0.07773886;0.12735248;0.039046317;0.1231442;0.018059988;-0.07652534;0.090858914;0.03547489;0.03000841;-0.05248986;0.05889619;-0.05697376;0.086030036;0.015289008;-0.038123585;-0.014392378;0.09399467;0.049837284;0.042811833;0.017534187;-0.110547565;-0.06398654;-0.042957455;-0.07252121;-0.015282309;0.054062553;-0.017296756;0.027868457;-0.06194306;0.11352041;-0.057062794;0.024417114;0.10565957;0.012446217;0.016922925;-0.02475991;-0.03878638;0.004032638;0.013450226;0.00052194926;0.052922927;0.07715805;-0.030612973;0.0058523207;-0.028382126;-0.0018265215;0.026289834;0.07103557;-0.06546838;-0.012925312;-0.063412026;-0.26828015;0.014770331;-0.20642392;0.022753228;0.0008135929;-0.00080506265;-0.036043666;-0.026087198;-0.17114097;-0.007272844;0.13630077;-0.06970563;0.025146564;0.034957103;-0.08910273;-0.07671677;0.04274901;-0.1011427;-0.035609607;-0.06677883;-0.0786284;-0.06150056;0.011873592;0.0063736765;0.035614025;-0.070239864;-0.08104212;-0.04486269;0.03569606;0.034792308;0.06798818;0.06284411;0.16718517;0.069234826;-0.0034931703;-0.087521374;0.09278362;-0.035816625;-0.0019363182;0.12963897;-0.11606262;-0.08564205;0.06301531;0.12966925;0.06743774;-0.042214047;0.041302625;0.013298604;0.007879729;0.021218646;-0.09253524;-0.09286896;0.029054543;0.054631203;-0.021420717;-0.052975148;-0.0414599;-0.012357536;0.012409886;0.05995431;-0.11492993;-0.016301183;0.10543482;0.06231847;-0.06543458;-0.028291708;0.11842445;-0.019109642;0.00034845868;-0.032567218;-0.04826942;-0.008376456;-0.0014854628;0.04598369;0.033660747;-0.020133147;0.053338602;0.018608985;0.03887345;0.03548394;0.0010529684;-0.041457795;-0.09258915;-0.004786016;0.11466127;-0.024790572;-0.0060701305;-0.07819014;0.024173899;0.022507858;0.10187265;-0.031262834;-0.062122628;0.029004669;0.04073963;-0.041065797;-0.008977946;-0.056450967;0.045933;0.014594831;0.0035580762;-0.02318649;0.024251226;0.26009402;-0.21304604;-0.013531411;0.05960845;-0.04390078;3.991072e-05;-0.0315358;0.0751338;0.083117895;-0.07436352;0.02308489;0.043709997;-0.093003646;0.06811347;-0.122078076;-0.048478954;0.0320529;-0.0640041;0.0825271;-0.017978605;-0.038050298;0.16575645;0.020180777;0.078813456;0.008287349;0.023208646;0.07450023;0.008087868;0.07555817;0.00043115774;0.07143475;-0.0075436793;0.054829765;0.08796545;-0.042337447;-0.13778928;0.0703392;0.105050765;0.08582452;-0.026611183;0.0810059;-0.055057064;0.07207263;0.19845158;-0.003526577;-0.039597742;0.029258728;0.04439637;0.16027011;-0.009322378;0.04261603;0.098052494;0.010573924;-0.09258294;0.03184649;-0.0168306;0.0125675555;0.062116776;-0.08540383;-0.080032304;-0.006584454;0.092319325;-0.04749162;0.20488928;0.0064214873;0.020275509;0.081586435;0.06926424;0.048884418;0.023345402;0.023413425;-0.025518544;0.032675873;0.001860666;0.08023991;0.00029906738;-0.162373;0.058541425;-0.06578034;-0.09524509;-0.09763847;-0.051868826;0.08069332;0.017967181;0.06963328;0.09901646;0.0032973287;-0.024258321;0.008549371;0.057325695;-0.19332321;0.076896265;0.06879476;0.011522477;-0.095934145;0.059788402;-0.03210748;-0.0928076;0.049218666;0.021009792;-0.067765385;-0.04478661;0.046469744;-0.047705673;-0.0012864969;0.08704315;0.09172617;-0.1067249;0.0101139825;0.089765094;0.06449751
0.0041413484;0.06822062;-0.07025654;-0.08170442;-0.0014181818;-0.017984526;0.063940816;0.0074503794;0.06336225;0.23072128;0.009611716;0.07143399;-0.009891355;0.021123813;0.07019775;0.08823055;0.0014533615;0.020883206;0.003972458;-0.064105496;0.03406675;0.051075395;-0.035180952;0.1451046;0.035218555;-0.06813983;-0.010608012;-0.022318313;0.117694415;-0.027771844;0.041183867;0.01998302;-0.019970065;0.054665033;0.10949359;-0.027427148;0.0059763067;0.0017926784;-0.04522818;-0.07941307;0.06171224;-0.089699976;0.063704446;0.09656651;-0.0076633487;0.002248924;-0.0026928056;-0.1251717;-0.036035683;0.13812476;0.09549531;-0.06317807;0.11280093;-0.049792875;0.056304533;0.0833159;-0.049300533;-0.09537491;0.03948761;-0.047364093;0.013900209;0.06499896;0.023912828;0.06961991;0.039643526;-0.075874984;0.13147861;-0.02728202;-0.017146917;0.009739485;0.06975458;0.037332345;0.0031658951;-0.036382068;0.0030331558;-0.01894635;0.17347333;-0.090910345;0.063133806;-0.12776516;-0.043468878;-0.07659803;-0.14006065;0.034472916;-0.11493779;0.09175941;0.03567767;-0.080423556;-0.047513433;-0.008496172;-0.036634594;0.12861674;-0.17850001;0.07329554;-0.054254446;0.061088562;-0.031271707;-0.12923017;0.10381936;0.06798625;0.11979587;0.069088966;-0.027078157;-0.019683624;-0.02256873;0.034733783;0.048828833;0.1918101;-0.070950136;0.13910201;0.031904478;0.20110731;0.01336767;0.0055638705;0.035362113;-0.0051532495;-0.12503824;0.056363363;0.04293267;0.06298306;-0.063562095;0.05057413;0.16429874;0.009710462;0.106287785;0.022027917;-0.103898235;0.13450283;0.08513476;-0.0415191;0.0670714;-0.058859464;0.009860003;-0.045894295;-0.103584096;-0.06963068;-0.10192617;0.052347172;0.04993726;-0.047848392;0.11137;-0.018256547;0.0356203;0.025473379;0.0063652354;-0.033008706;-0.2450408;0.050670866;0.09546843;0.022919532;0.06406981;0.068781056;0.007951248;0.14689593;-0.07822158;-0.113298826;0.0019707894;-0.0801042;0.10746421;0.042329375;-0.00611452;0.15579912;0.07237841;0.30640045;0.034239132;-0.02539811;0.19511129;-0.015759595;0.08404389;-0.007885138;0.017093468;-0.1051023;0.03101087;-0.03832238;-0.03664415;0.067813806;0.13406192;0.07131354;0.020833137;-0.00043461198;0.22479096;0.10180691;-0.081146285;0.046024762;-0.025929812;0.059049074;-0.0320782;-0.018978136;-0.05612798;0.07759072;-0.06776296;0.045007955;0.21357484;-0.058601674;0.16230777;-0.023157677;9.05881e-05;0.09666721;0.009961535;-0.106216624;0.007102229;-0.047536124;0.06640386;0.077669404;0.00281123;-0.06812655;-0.041866116;0.08144441;-0.058228422;0.024940753;-0.051842157;0.00832646;0.15394138;0.09246904;0.039944522;-0.005811157;-0.036098745;0.030969914;-0.031180836;-0.0073371422;-0.04609662;-0.011151668;-0.1037481;0.0021411588;-0.001573703;0.030287713;0.03615513;0.07567642;0.046659112;0.053457778;0.005507015;0.014328114;0.029176388;-0.122835845;-0.0073025506;0.03295597;0.013172343;0.04250677;-0.061188295;0.07168124;-0.05535843;-0.036398623;0.0010416154;0.009771517;-0.03682247;-0.12801082;0.12709339;-0.020845106;0.023961948;0.057563145;0.048776202;-0.044342183;0.04108612;0.05723581;0.01674022;-0.032455284;-0.028052265;0.04032601;-0.04169882;0.06587373;-0.06718276;0.004441253;0.005324277;-0.0521604;0.24111103;0.14192525;0.040129304;0.1276903;0.09304604;0.06314516;-0.02624859;0.041097175;0.08221089;0.0221903;0.08825046;0.15344411;-0.15298575;0.06709686;0.043093912;-0.038006824;0.08907357;-0.047989737;0.0008720404;0.0619197;0.08583719;0.07556505;0.15253745;0.03592294;0.051887263;0.00012781513;0.07194196;0.02275247;0.114857234;0.009455286;0.116240256;0.049679648;-0.009328362;-0.0662666;0.067599095;0.074741475;0.011291062;-0.0054767095;0.096464835;0.008205568;-0.090187036;-0.04283567;0.035645057;0.006321999;0.020013712;-0.13934769;0.12974726;0.090166286;0.1537131;-0.07220393;0.117903486;0.041025233;-0.056958918;0.064888895;0.071131684;0.10087055;-0.046505325;0.3245312;-0.069409356;-0.04751196;-0.06491403;-0.062164538;-0.10268396;-0.013680287;0.059253577;-0.06436035;0.0032900558;-0.027468227;-0.13769068;0.08305727;0.03798983;-0.079544276;-0.0251584;0.06246174;0.062452108;0.04138742;-0.023889715;0.016238779;-0.039174378;-0.13132258;0.024066988;-0.01684882;-0.18827693;-0.031280555;-0.06562691;-0.019627605;0.0037152076;0.02789134;0.07464107;-0.02617188;-0.0018624939;-0.0036257638;-0.07312438;0.043597907;0.0851756;0.009215397;-0.06288714;-0.11137917;-0.2755119;0.05187756;-0.16685109;-0.060229246;-0.051362354;-0.052378997;0.022447424;-0.0323855;-0.11763246;0.0135702845;0.101734;-0.09652614;-0.010223688;-0.014564237;0.03684225;0.03563596;-0.032367773;0.027604379;-0.08153354;-0.044176992;-0.041883755;0.07752144;0.03845893;-0.014680295;-0.034384094;-0.0648317;-0.008660558;-0.046402078;0.09300843;0.07602249;-0.04136468;0.06535229;0.037922032;0.05976304;0.055261444;0.0021206245;0.062207773;-0.05576313;0.055789996;0.11591341;0.004735198;-0.09036454;0.0681597;-0.061896488;0.065151155;0.0068591484;0.07869596;-0.04435168;0.009143196;-0.06742844;-0.052522533;-0.17270108;-0.14912556;0.110504426;-0.0564289;-0.13131902;0.13282153;-0.02867415;0.012467533;0.18551165;-0.013691876;0.020964975;0.107722886;-0.08048771;-0.056452576;-0.05868409;0.22010784;0.096246965;-0.018832467;0.037001267;-0.017301511;0.11009436;-0.04788246;-0.017608384;0.009418891;-0.005823425;-0.061216615;-0.019516714;-0.025406078;0.017789217;0.0072163083;0.061764345;0.004257139;-0.040710855;0.109776065;-0.06379874;-0.013475776;0.06323964;0.1630282;-0.009718593;0.0718465;0.04522637;0.0029672678;-0.09017712;-0.03645308;0.0024066253;-0.039066255;-0.06745187;-0.0007215346;0.004602058;0.023920802;0.05342765;0.09011986;-0.0025848274;-0.04033149;0.016585313;0.2858385;-0.030974697;0.13338819;-0.07923166;0.025469206;0.06290457;0.049599014;-0.06029881;-0.005784268;-0.037879676;0.061744533;0.05691836;0.044763107;-0.0021755293;0.0005212153;0.094445504;0.07636651;0.004550817;0.16600317;-0.006877106;0.07281173;-0.015037449;-0.08148431;0.1622936;0.023051353;-0.100629;-0.116112895;0.121331654;0.03983087;-0.15174454;-0.014353328;0.03662859;-0.16224524;0.032085262;0.3094047;0.012396096;0.038990036;0.15056054;0.02887319;0.065601595;0.006927415;0.040025827;0.061111305;0.008849447;0.08227881;0.048524767;0.107384026;0.023197472;-0.017177625;-0.1042524;0.011329214;-0.1955606;0.047483765;-0.037398245;-0.071704954;-0.11409576;-0.016913004;-0.110088475;0.0410424;0.0010553076;0.15279563;-0.031621728;0.039887287;-0.0017425248;0.037754882;-0.09162405;-0.019070566;-0.09448238;0.06529169;-0.11571581;0.11160778;-0.010317549;0.026376197;-0.11843921;0.029966148;-0.091315895;-0.044474248;0.13083814;-0.019086022;0.042506464;-0.0398416;0.06158867;0.060339943;0.009481159;-0.037112363;-0.004726563;0.008190636;0.038522292;-0.0118498625;-0.09412705;-0.015026441;-0.059066713;0.02804693;-0.045327447;-0.0054954034;-0.031492878;-0.060352985;0.0013328093;0.048031382;0.11007735;-0.058034003;-0.017955089;0.05446112;0.094491124;-0.19573714;0.05396594;-0.0069604088;0.028329492
-0.0029325562;-0.043486312;0.031875048;-0.18004486;0.05146666;-0.0475092;-0.0044662324;0.07163817;0.13488215;0.21596777;-0.012246787;0.0039946646;0.021362828;0.012261044;0.03507834;0.027163664;-0.0034551735;-0.007528945;-0.032420646;0.03532762;-0.076634936;0.042986475;-0.014577134;-0.07375526;-0.046327043;0.026465315;0.11323897;-0.051974673;0.09944962;-0.10800611;-0.055905998;0.04112103;0.036179576;0.02194438;0.090596214;0.06472364;0.032466337;0.04590091;0.010944228;-0.010144728;0.102300495;-0.009084007;0.11249979;-0.015475867;0.0064457655;-0.09469531;0.12105818;-0.08004498;0.085969426;0.05031737;0.000965634;0.019526923;0.007315896;-0.0022342775;-0.040516008;-0.18770061;0.014696388;0.049422704;0.21224162;0.009638163;0.04065637;0.03816998;-0.00091502146;0.0627427;0.044399474;-0.07119534;0.05604689;-0.06523356;-0.015579479;0.027116852;-0.042813346;0.023977103;-0.03624231;0.049359348;0.009791124;0.063598715;0.09982331;-0.06410494;-0.009540305;-0.043655332;-0.014536956;0.048323732;-0.04529074;-0.094164;0.22070043;0.05244732;0.011395821;-0.14634345;0.039269626;0.008184224;0.05086217;0.12125766;-0.026542863;0.052741393;-0.06590531;0.039569132;-0.023471422;-0.022695256;0.025960691;0.016489541;0.01310953;-0.04247605;0.11364612;0.02864884;-0.0012112551;0.060244285;0.034507588;0.06622065;-0.003358001;0.04783902;-0.023188807;0.010397373;-0.013527235;-0.038499683;0.079353124;-0.046961498;-0.07917121;0.15214683;-0.030766467;0.06991854;-0.11721921;0.025115004;0.06704151;-0.020398224;-0.039467387;-0.07800994;-0.053885333;0.23498932;-0.07763074;-0.011310687;0.083514765;-0.16803432;-0.09860965;0.046898346;-0.16151242;-0.002776456;-0.024674231;-0.0013170732;-0.105374716;-0.09080175;-0.0438344;0.07022016;0.05013448;0.055653132;0.019692393;-0.03746188;0.029992493;0.023246096;0.077459075;-0.061881606;0.088737346;0.116807744;0.084352456;0.00656348;0.057932466;-0.05678214;0.15793319;-0.02916542;0.10065872;0.055621687;0.050953627;-0.026404308;-0.01652276;0.18519264;-0.13669686;-0.0441338;0.04509472;0.04758581;-0.045213442;-0.070857726;-0.011471883;0.059990138;-0.14110444;-0.030795032;0.04472702;0.028105343;0.028455187;0.03737563;0.14395848;0.09271283;0.12008685;0.11946397;-0.004239993;0.11747614;0.17756237;-0.027710924;0.02158604;0.03301741;-0.095074706;0.023000525;0.01725151;0.06265711;0.13687162;-0.02088275;0.0059504285;0.07122999;-0.04489084;-0.01890519;-0.07154203;-0.2673004;-0.07149546;0.031473596;0.08698905;-0.035591975;-0.009467153;0.07031022;0.046204705;0.09457252;-0.08561402;0.055304367;-0.07209051;0.06826309;0.10446578;-0.034322415;0.011530199;-0.23509498;-0.021241298;-0.10969803;-0.095825784;-0.03576019;0.00028362309;-0.05463265;0.120525695;-0.0753252;-0.015661707;-0.0030636045;0.046226386;-0.060002957;-0.021574803;0.022595972;-0.0039336625;0.047530375;0.066875555;0.15968339;-0.084616855;-0.073630266;0.07498031;0.028250951;-0.056757372;0.23234831;-0.09698962;0.053526442;0.054161794;-0.0721832;-0.0545457;-0.048422795;-0.09292358;0.008632017;0.018967424;0.0122294985;0.06722853;-0.00532369;0.06781437;-0.040683735;-0.021358632;0.073544845;0.02718254;0.010046169;0.047368273;0.032572795;-0.0055828444;0.078945875;0.06148585;0.07490591;0.06489692;0.10662216;0.09985011;-0.065532185;-0.05424199;-0.028226523;0.085598625;0.051773723;-0.062205788;0.12271331;-0.049009893;0.0042770403;-0.10851268;0.071656026;-0.00020896771;-0.12318663;-0.03958195;0.023648089;-0.10160184;0.079003714;0.043660317;0.06480222;-0.06275737;0.08460072;0.07129108;0.050921265;0.004656566;-0.041125182;0.074109904;0.091955714;0.05265836;-0.04312412;-0.026952261;0.03592648;0.05605643;0.09354511;0.050351072;-0.038474273;-0.047865923;0.056283213;-0.11162602;0.03869004;-0.05252575;0.0020840836;-0.07695479;-0.14962316;-0.013986903;-0.01202843;0.038073618;0.0148379365;0.09774772;-0.0361531;0.004562215;-0.02914986;-0.082710214;0.0032922465;-0.07320778;0.22839445;-0.018750044;0.0020599954;-0.047323223;0.10731492;-0.107782066;0.07051863;-0.025814028;-0.04826153;0.038998567;-0.025026256;-0.08287674;0.073102735;0.038334746;0.091813274;0.05717148;0.07504471;0.039714023;-0.06959151;0.03014997;-0.04909418;-0.013554202;-0.024914738;0.057970326;-0.07632788;0.07594827;-0.13694598;0.022528417;-0.07768099;-0.055188697;0.014732773;0.014088411;0.068813145;-0.06867406;0.04366531;-0.009570553;0.01755577;0.0011735949;0.018821506;-0.054017503;0.04775601;-0.046060514;0.029041363;-0.1353835;0.023392199;0.045112494;-0.034797423;-0.020242272;-0.031239368;-0.05424028;-0.036139622;0.0025957292;-0.08361826;0.019684834;0.00025164787;0.012361301;0.07820368;-0.01614855;-0.014005044;0.057015963;-0.01898969;-0.0047490993;0.0048935935;0.06473515;0.018234076;-0.11269602;0.02095054;-0.07867949;0.02713891;0.06361582;0.03132357;0.06373445;-0.00394997;-0.073163055;0.056602813;-0.045507986;-0.08975819;0.17530416;0.01796927;-0.004631334;-0.04894549;-0.036893554;-0.15703377;0.0050188187;-0.08542884;0.046539526;-0.020569626;0.11257079;0.06822577;0.013770784;0.004377723;0.047000237;-0.06777866;0.0033915474;0.017126495;0.0572255;0.12615198;-0.04401887;-0.027329028;0.12954548;-0.034356497;-0.00509209;-0.06885088;-0.08687178;-0.17322522;0.05230465;0.028318148;0.103788756;-0.042631164;0.0112930555;0.018229537;0.038461015;-0.024356173;-0.046833355;0.014770899;-0.021198435;-0.007911068;0.011405339;0.13687874;0.02071319;0.07557113;0.043800205;0.04859389;0.07434813;0.012955928;0.09070531;0.03812648;-0.044942513;-0.050907474;0.04373587;0.03469931;0.034117527;0.051718235;-0.04399499;-0.04748934;-0.05162093;-0.023889426;0.0732409;0.034594525;-0.08583196;-0.015813394;0.08117736;-0.02889941;0.06688008;-0.038248904;-0.01875022;-0.025647862;0.030279135;-0.07504008;0.012335123;-0.06753614;-0.008482291;0.08089952;0.038115975;-0.02111363;-0.06648797;-0.122251906;0.04706097;0.19055541;0.16435671;-0.089966826;-0.06145975;0.24078864;0.06103369;-0.05773955;0.25937036;0.06635;-0.086634494;-0.056235142;0.028553568;0.05452063;-0.070099734;-0.08164938;-0.087375775;0.04424584;-0.06564772;0.018618992;-0.00072633877;-0.013734751;-0.059646733;-0.05049929;-0.123307966;-0.06749778;0.00392255;0.011850305;0.047630023;0.10570754;-0.10073495;-0.01889313;-0.17242645;-0.039490916;0.044159368;0.03786391;0.14242353;-0.047692373;0.038905308;-0.07765336;-0.02677241;0.051473863;0.040924307;-0.011996584;0.14902398;0.0014801793;-0.089558095;-0.012362995;-0.071366005;0.0011114477;0.058424175;0.010183804;-0.0005871836;0.034925792;0.16453339;0.039961223;-0.049336877;0.03592934;0.030369453;0.074336275;0.088783085;-0.08064957;-0.037457865;-0.02263952;-0.019637171;-0.055712767;-0.08311445;-0.18588164;-0.07389205;0.15163037;-0.023439687;-0.015587555;-0.07478504;-0.05825589;0.014576561;0.035562422;-0.087816514;0.08661918;-0.034245618;-0.022007016;0.008832558;0.15084808;-0.017302934;0.013216198;-0.04797944;-0.026301527;-0.07334742;0.05275031;0.008134709;0.0075865937;0.05068339;-0.020495128;0.13067418;0.050120164;-0.12731381;-0.05281607;0.118164375;-0.009895765
-0.026701093;0.08865748;-0.056441292;-0.16271903;0.00033065793;-0.06367527;-0.04903662;0.06011108;0.11542544;0.20754932;0.115718305;-0.082663335;0.016962014;-0.101408094;0.034853403;0.012074428;0.26458433;0.11911065;-0.05395691;-0.0008476758;-0.02219276;-0.0008139551;0.09003084;0.15350145;-0.05772952;-0.010678801;-0.072492;0.07911069;0.13738553;0.042476274;0.10473345;0.05327288;0.021757837;0.07658953;-0.1362575;-0.07016699;0.051410444;-0.08253431;0.089058734;-0.047549836;0.042494588;0.03390724;0.2696467;-0.03557972;0.035914168;0.0036938817;-0.041613493;-0.11030008;0.01003383;0.061091084;0.15753649;-0.010671301;0.17833559;-0.05549437;-0.15136321;-0.33738804;-0.012752465;0.0025596754;0.21028253;0.011088307;-0.07699066;0.08979642;0.066266455;0.062022813;-0.038960163;0.009793147;-0.020566251;-0.1261795;-0.057182293;-0.07066811;0.08730698;-0.020113174;0.067148246;-0.049361728;-0.13304357;-0.06663841;0.038308896;-0.062789276;0.17701355;-0.10771761;-0.028269028;0.0331421;-0.004816384;-0.030144298;0.013023506;0.067058146;0.0076969895;-0.070176646;0.094350636;-0.02529391;-0.012308823;0.18115239;-0.12635307;0.074599214;0.04823692;-0.041025337;-0.049334776;0.014253811;0.1070857;0.02524564;-0.054127;-0.056966685;-0.18990953;0.047771763;-0.026119648;-0.015446434;-0.081525445;0.004088799;0.035419546;-0.014913924;0.0137380725;0.09350844;-0.04889337;-0.009784487;-0.044608537;-0.082405716;-0.0012350532;0.091918185;0.045465834;-0.046842504;-0.069049716;0.07093657;0.036610257;0.020681031;-0.05034482;-0.061884906;-0.015158895;0.09223963;0.050766278;0.0577987;0.00869577;-0.07923063;-0.19365016;0.09154137;-0.049198195;-0.042786952;0.027499916;-0.08260665;-0.045250762;0.029405251;0.015044185;-0.022068907;-0.0072497996;-0.03009275;-0.0035246396;0.06827132;0.085515276;-0.0014815722;0.033165317;-0.05153618;0.056750353;0.07693202;-0.07761178;0.12933892;-0.020817613;-0.11076116;-0.020530261;-0.0009331228;0.016358728;-0.010377162;0.016179351;0.014030576;0.024003858;0.13236873;0.09063636;0.06620308;0.06813544;0.07259736;0.06328944;0.018033985;0.15937416;0.0096383905;0.0647707;0.020064162;-0.006389751;0.05686176;-0.06418844;0.007211084;0.16630815;-0.04445813;0.0655635;-0.06654972;0.02112988;-0.11097071;0.070562005;-0.08304832;-0.047424108;0.037426572;0.045273393;0.10868367;-0.05408651;0.036498234;-0.04382614;0.06742473;-0.12286994;-0.10250562;0.069561206;-0.06378102;0.008567917;-0.064747415;-0.06640979;0.058307167;-0.013418228;0.0066044275;0.036406294;-0.023231272;0.11451497;0.11975448;-0.03396242;0.24570978;-0.04695807;-0.018321143;0.094770595;0.08588911;0.06701585;0.08101692;-0.05861331;-0.22655395;0.028379057;0.09142063;-0.06452423;-0.07949928;0.0060467487;0.01748878;-0.07447821;0.04189635;0.030494705;-0.018411292;-0.06695924;-0.039175224;0.048227243;-0.04239277;0.03480433;-0.08595089;0.012972321;0.09489737;0.012414824;0.092093706;0.035013773;0.16467501;-0.07995113;-0.045684304;-0.033652708;0.09797228;-0.070549354;0.047615074;0.061754867;-0.032378074;-0.011173457;0.0088324305;0.04308699;0.07071427;-0.03177205;-0.1012474;-0.117974326;-0.08518717;0.044333152;-0.03554184;-0.01863001;-0.09582179;-0.03796732;0.0009604181;-0.07995811;-0.04840127;0.11057968;-0.016369069;0.12203965;-0.05340557;-0.10022618;-0.017476367;0.022282569;-0.075021125;-0.01349984;0.08513307;-0.011288516;0.10776849;-0.0036401672;0.034358446;0.052292228;-0.042984184;0.21390165;-0.0061176983;-0.025288522;-0.101505816;-0.03170861;0.0052905446;-0.029056713;0.05301398;0.010580863;-0.087497674;-0.03476719;-0.071699545;0.20978516;-0.011026069;-0.019837148;-0.008903596;0.03314537;-0.09068533;0.084130496;0.044849757;0.008090521;0.0017768757;0.081952274;0.056869272;0.08836669;-0.028630208;0.019170877;-0.032101613;-0.059573174;-0.14798658;0.006515635;0.0033162222;-0.036506347;0.035187162;0.08336775;-0.0034086863;0.09082115;0.05771294;0.031949975;-0.022138514;0.015094282;0.18686144;-0.07760458;0.0145494;-0.044869646;-0.03204707;-0.13051292;-0.028905716;-0.0005802136;-0.032624807;0.0355062;0.0057895877;-0.008894764;0.07798327;-0.03253878;0.04378566;-0.17443863;-0.01239043;-0.24064416;-0.057373304;-0.0064394046;0.03688795;-0.05125557;-0.062412154;-0.0006113879;0.00317763;0.07721898;-0.084587246;0.03593133;-0.10679205;-0.0132028125;-0.036757216;0.13701472;0.023758573;0.06871996;0.08981454;-0.07441986;0.019045126;0.03460026;0.08101966;0.014397557;-0.0110425195;-0.07484168;0.012023963;-0.20663281;0.058163896;-0.023310075;-0.02182096;-0.07955167;-0.04242789;0.083176054;0.022617526;0.07421272;0.06361159;0.017947469;0.011219496;-0.08369992;0.21934746;0.053609516;-0.0747606;0.022436677;0.055530734;0.071183026;0.061788727;-0.018101733;-0.045597006;-0.094661914;-0.048637666;0.070072725;-0.12114458;0.06157967;-0.04099956;-0.028724527;0.02302653;-0.028361972;0.00524933;0.10634622;-0.106678955;0.17628653;-0.046005324;0.009446931;0.07336426;-0.01852115;-0.075581476;0.17654742;-0.006801534;-0.025366493;-0.033953745;-6.48994e-05;0.0020594352;0.031736925;-0.12204977;-0.07118238;0.024570074;0.044978518;-0.015136713;0.022153974;0.14660785;0.06582241;-0.031064488;-0.009520186;-0.17436938;-0.006593609;0.011886925;0.10945562;-0.07482254;0.036019508;-0.034079913;0.032082494;-0.033388715;0.058973815;-0.046454825;0.08901949;0.093323186;0.027303834;0.051094234;0.026834315;0.035938837;-0.015501944;0.23295626;-0.0076315;0.03710007;0.069210805;0.121649235;0.019419575;-0.020185322;0.05078686;-0.08120705;-0.03722496;0.13962235;0.06532764;-0.09000971;0.009186188;0.04605575;-0.036281362;0.015052503;0.10687024;0.16643241;-0.03630933;-0.04707697;0.014863184;0.042323243;-0.037602123;0.010590465;-0.0044854064;-0.134505;-0.27411377;-0.025232812;0.11559294;-0.06974535;0.101040944;0.03362609;-0.006498538;-0.042258713;-0.066655666;0.10764458;0.040274944;-0.087407805;-0.0523283;0.095107764;-0.17807394;-0.049301054;-0.051491335;0.13311322;-0.028315704;0.06309289;0.022488598;-0.072176516;0.080774955;0.056735117;0.04025316;0.043428034;0.090597756;-0.0655264;0.05153542;0.039355908;-0.037142955;-0.07081798;0.0602264;-0.057489906;-0.10434012;-0.07566089;0.16879223;-0.111275025;0.058179412;0.14399308;0.076945454;0.059804596;0.015949106;-0.027211048;-0.1221656;0.02117339;0.04428403;0.11385609;-0.0635247;0.04849916;-0.0049165264;-0.0018674057;-0.0012689217;-0.1275527;0.03166243;0.00088364264;0.05275449;-0.03808754;-0.059998848;0.041041657;-0.0012421116;-0.020999696;-0.0066342396;-0.061587982;-0.034284852;-0.026209807;0.0021906034;-0.07882146;0.054891028;0.03975733;-0.077842265;-0.028756782;0.18454942;0.19674695;-0.25047866;-0.024037132;0.052218154;-0.060917944;-0.10195807;-0.30358285;0.031594325;0.05460466;-0.14966738;-0.038516346;-0.052233428;0.085379764;0.0746848;-0.09092263;0.04961469;-0.0031845525;0.0399641;-0.18682043;0.008133895;0.018524284;-0.036356032;0.12365562;-0.123768225;0.10186122;0.048074666;0.06162307;0.10404284;0.09516612;-0.032258943;0.08723132;0.10404239;0.051967427;-0.1569953;-0.020882364;-0.057127077;0.017211655
0.10142286;0.012461645;0.045680884;-0.09833973;-0.054622155;0.05269505;0.06099328;0.034503806;0.04963221;0.19286558;-0.031294018;-0.09157149;0.030671952;-0.12376545;0.04878314;-0.010451237;0.106148876;-0.011316643;0.064534545;0.06654756;-0.015550786;-0.031194163;0.052992415;-0.21276838;-0.006836106;0.06931759;-0.09726176;0.06600297;-0.055445075;0.051981192;0.047812138;-0.0089825345;0.059200168;0.0034239353;-0.0572184;0.04765097;0.09154973;-0.008253854;0.09030005;-0.004765605;-0.001070859;-0.09692896;0.24855553;0.022779476;0.00406882;-0.020400265;0.100859575;-0.032719325;-0.021497894;0.08001455;0.11938914;0.09180346;0.045531053;0.028993065;-0.13883778;-0.2966208;0.044905584;-0.03371629;0.21148165;-0.019816399;-0.091319054;-0.013616935;-0.0048559266;-0.06508078;-0.03091937;-0.016367715;-0.07394873;0.014946889;0.10189641;0.0048675737;-0.023485051;0.042502906;-0.03542603;0.04366712;-0.074011184;0.08728415;0.07703174;0.083453216;0.14159784;-0.008490783;0.06853168;0.037236683;0.11172957;-0.008070237;-0.039091527;-0.056244068;0.08137636;-0.052706107;-0.035064835;-0.047662344;0.035847623;0.18516788;-0.063104704;-0.032623634;0.10076904;-0.0066467444;-0.08860354;0.14114586;0.055191487;0.033655558;-0.028585797;-0.04722326;-0.025771983;0.009769551;0.08166028;-0.006259687;-0.01953606;-0.13110077;0.055010293;-0.07357956;-0.02066011;0.003991486;0.06254596;0.09063886;-0.013222272;-0.01090783;0.07905061;0.12263146;-0.1518129;0.00061355595;0.08162368;0.07234646;-0.04034624;0.081458196;0.087476015;0.02609631;0.11429476;0.08952176;0.000593762;-0.02026846;0.039112426;-0.22658505;0.011734157;0.012947851;0.14662491;-0.011972981;-0.034840174;-0.03279742;0.009415515;-0.043779347;0.03221496;-0.07552;0.05845044;0.0446495;0.059338268;0.036055077;0.069814995;-0.033273835;0.08609265;0.037548833;0.15647732;0.08830235;-0.024526497;0.2042845;-0.02999093;-0.0051548174;0.07913671;0.035520904;0.05188139;0.16444218;0.0011522295;-0.014583536;-0.073299;0.103247516;-0.034497008;-0.031997126;-0.17911017;0.1292218;0.04474562;-0.08676508;-0.03439459;-0.040115375;-0.1346126;0.07609568;-0.0040645776;0.047351353;0.06299539;0.04455098;0.14049509;0.05121751;0.14629291;0.04852723;0.09696134;0.06882648;0.21940906;0.055929877;0.02906927;0.04421397;0.0775305;0.014596556;0.0055177454;-0.032380268;0.007555308;0.060215022;-0.112527065;-0.072834894;-0.058782276;-0.13408075;0.043247283;-0.21557915;-0.027564313;0.052640293;0.06773894;-0.067960866;-0.04632291;0.026045796;0.12133067;-0.0802559;0.04154753;0.13539757;0.02216579;-0.024836643;0.018532544;-0.036921307;-0.0035820003;-0.025110789;0.00042647505;-0.40887734;-0.1946467;0.015238233;-0.012209542;-0.24086492;-0.049934424;0.04222061;-0.0075384406;0.041639805;0.039297592;0.038952343;0.019002795;0.08561029;-0.036662377;0.014377171;-0.05044726;0.11579874;-0.021681797;-0.0103978785;0.0014719096;0.11842894;0.049148113;-0.042188913;-0.13391854;0.035297774;-0.01893716;0.11247689;-0.024912966;-0.100713626;0.06820577;0.02115493;-0.08923875;0.04992515;0.015183377;-0.01001007;0.06528017;-0.022011563;0.021167297;0.06607157;0.086120114;0.036050107;-0.06861283;-0.088440195;-0.023080459;-0.055442203;0.01093678;-0.0021111178;-0.045262534;-0.02404557;0.18330851;0.01454559;-0.044384234;-0.06813134;-0.02730405;-0.06332267;-0.05109047;0.09196482;0.098654486;-0.0006041835;-0.13533142;-0.013584197;-0.04561566;-0.10995612;0.077859;-0.051628016;-0.064965345;-0.12268205;0.03956239;-0.036284503;-0.12657309;-0.06771422;-0.025180753;-0.014159165;-0.097906396;-0.14500754;0.2399642;-0.058489185;0.06150441;0.07101355;0.014954926;-0.012922606;0.002085161;-0.035609145;-0.027934859;0.04953501;-0.036015596;-0.06957232;-0.16591512;0.008808569;0.02975722;0.039294913;-0.038991038;0.09592443;-0.0024073229;0.096008815;0.012278515;-0.062075023;-0.016667573;0.098793946;0.0065580085;-0.033324774;-0.07821592;-0.0049677626;0.069908634;0.30598322;0.09086548;0.014869177;0.0069374247;-0.040189944;-0.10076184;0.047116525;0.08200984;-0.009290701;-0.030000944;0.0034794286;0.18656366;0.047939394;0.057714157;0.06915805;0.042162564;-0.011031211;-0.10211309;-0.087267034;0.053588964;0.06294102;-0.0727084;-0.064539164;-0.0003058046;-0.04784119;0.098986745;-0.1283348;0.062951885;-0.059919834;-0.004126899;-0.04356268;0.13582562;0.02133805;-0.04507391;0.1101012;0.0033852605;0.026569927;-0.006723768;0.048206985;-0.11016361;0.008570587;0.032607894;0.05267848;-0.120819025;0.027664233;0.10790135;0.07623555;-0.1460626;0.06823905;-0.27536324;0.03925605;-0.07634762;-0.0151569955;-0.081418715;-0.048183836;0.06260474;0.28359282;-0.06549903;-0.009744253;0.021800516;-0.030327326;0.005281391;0.01661159;0.07705492;-0.06696773;-0.1890058;0.025560437;-0.032918822;-0.03420874;-0.025269734;0.10360511;0.13535742;-0.06435241;-0.0040133903;0.09240203;0.034481633;0.022478698;0.11863676;0.060500007;0.020414226;0.08751475;0.039492723;-0.0048357258;0.035996336;0.033942163;0.011130768;-0.19578908;0.092405036;-0.014592783;0.117563546;-0.097389475;-0.049188446;0.16418143;0.08081907;-0.07927102;-0.030434005;0.13741806;0.05540461;0.03596825;-0.044847522;-0.19957413;0.027448738;0.05453887;0.05009729;-0.189436;0.04626337;0.00919347;0.029127618;-0.006832116;-0.018001486;-0.05173567;0.0018516672;0.089426495;0.06288524;0.0036654905;-0.07381056;0.03203078;-0.051193964;0.13171461;-0.08805542;0.064176545;0.0069485493;0.04058948;-0.020806244;-0.037443787;0.02242236;0.03397326;0.082541995;0.13634843;0.10173452;0.009437494;0.014351728;-0.064361066;0.061653793;0.1774738;0.06395921;-0.0030484367;0.062055852;-0.023279557;-0.043461844;-0.02827116;-0.0067417026;-0.049818795;-0.02327035;-0.19965068;-0.28733113;0.04459499;-0.07947802;-0.06424979;0.035126258;0.054315675;-0.031183569;0.044132162;0.032892894;0.07788098;-0.011199446;-0.14273292;0.020568945;-0.118028544;-0.15160522;0.011308485;-0.077157065;0.1276694;0.05095552;0.022964625;0.19590963;-0.024617488;-0.07259603;0.069583714;-0.022605272;-0.05259062;0.021919848;0.049065076;-0.08243135;0.010715369;-0.05780754;0.030202378;0.004715644;0.074753545;0.028494107;-0.029641373;-0.108312644;-0.029852016;-0.038462486;0.07721828;0.11364017;0.06118947;0.045946628;-0.04139679;-0.23035865;0.0749431;-0.024927601;0.029911915;-0.07418064;0.03675937;-0.07642469;0.032342393;-0.015509634;0.11541826;0.032324437;-0.008622065;0.19917239;-0.10355508;-0.01783605;-0.008771949;-0.0075747143;0.06853448;-0.12457436;0.083738334;0.04755169;-0.0009795831;0.23650435;0.013413057;0.10166238;-0.010591702;-0.015280504;-0.028325874;0.1952904;0.22745351;-0.14792293;-0.06905376;-0.059101734;0.0025451723;0.042415038;-0.19823681;0.053986397;0.17205101;0.012871248;0.09475877;-0.0094742915;0.056117598;-0.014662045;0.06630378;-0.0015080051;0.07376471;-0.051528264;-0.2681598;-0.01823663;0.21380122;0.110795684;0.06013217;0.052697215;-0.022717664;0.038277764;-0.052189894;-0.06030728;0.0061594816;-0.033724993;-0.025061771;-0.029761955;0.014500741;0.0156129645;0.053148326;-0.08004979;-0.07377774
0.02705319;-0.079691924;-0.023873506;-0.013723823;0.15631342;-0.063049324;-0.030977353;-0.07357107;-0.09758173;0.17224793;0.047471955;0.010503207;-0.096674554;0.026005346;0.031061018;0.07012726;0.113659404;-0.0050179344;0.041521672;0.10038177;-0.030562753;0.06537969;-0.04530167;-0.17401145;0.026815519;-0.03661759;-0.011384034;0.06894128;-0.07594192;-0.116163135;0.06548763;-0.112201236;0.10508769;0.04551578;-0.10804265;-0.013836915;0.0875154;0.07858757;-0.055745102;-0.023273353;-0.09132422;-0.08573532;0.2551862;-0.06678618;-0.021588907;0.002490175;0.15678851;0.025723634;-0.041543577;0.09872489;0.058889702;0.0017935476;-0.050255515;0.062096365;-0.08649544;-0.23883946;0.080128774;0.029821787;0.21258385;0.005362105;-0.0020927382;-0.13024299;0.0790726;0.05126425;0.079015344;-0.03127122;0.007971352;0.122307174;0.054293767;-0.036622953;0.13011482;0.05505776;0.07420361;0.006117805;-0.10944367;-0.0033319942;0.012660277;0.0020194757;-0.09711943;-0.039552912;0.103847675;-0.075536236;0.10592783;0.044315197;0.015265244;0.056302242;0.06739443;0.08644015;0.0043921093;-0.016536783;-0.082634486;-0.14561354;-0.039647397;-0.06443678;-0.07087314;-0.088878214;-0.056353368;0.08780607;0.02842877;-0.031570088;-0.16505618;-0.043786746;-0.16778082;0.0692735;0.07032609;-0.015040252;-0.00049444806;-0.087631464;0.007819062;0.056441166;0.011138246;-0.018892922;0.019956343;0.13560362;-0.04084225;-0.007549252;0.028094668;0.21722557;-0.13926366;-0.07399642;0.027492832;-0.09117104;-0.04578128;0.035675865;0.007474894;0.02818985;0.0016461002;0.1265745;0.04112097;-0.024479559;0.13622369;-0.35513747;-0.00717892;-0.018196234;0.09095706;0.072383225;-0.012077426;0.0349325;0.052140426;-0.022085426;-0.05063012;-0.0797374;-0.07485631;0.07111003;-0.09046546;-0.04218892;0.17307939;-0.012312843;0.13373393;0.041983202;0.019864697;-0.029818935;-0.08111054;0.042741954;-0.0014372392;-0.038392186;0.17957588;0.11006774;-0.11675904;0.09876915;0.013077169;0.024818897;-0.067730404;0.1085595;-0.106288195;-0.05408821;-0.29785445;0.14142184;0.09719143;-0.034260623;0.009507285;0.04962507;-0.1505085;0.005203969;-0.019877467;0.06941758;-0.094095744;-0.14387447;0.22981368;0.06791671;0.13043128;0.10842063;0.0798442;0.08575294;0.08638215;-0.0060242657;0.01589385;-0.016498396;0.021901775;-0.10216419;0.006071624;0.07634739;-0.07432345;0.06154854;-0.025229258;0.018494159;0.029639946;-0.044013422;-0.02861043;-0.23655206;-0.037840046;0.047046807;-0.07391164;0.09174832;-0.09655351;-0.02202324;0.07312164;-0.008100644;0.06797924;-0.122113526;-0.019550737;0.022146644;-0.015300263;-0.054710384;0.015367311;-0.07485903;0.019715082;-0.38896686;-0.18754074;-0.039909735;-0.0775236;-0.23316878;0.08211098;0.017591119;0.001103352;0.03588778;-0.031113528;0.10343579;-0.07667358;0.04111685;-0.077884786;0.02281655;0.054110136;-0.017330127;0.06470138;0.011049884;-0.037108008;0.047755238;0.009202948;0.07870659;-0.11887818;-0.042355254;0.032545537;-0.04788458;-0.11679391;-0.033390176;0.06840461;-0.021334376;0.0070335427;-0.04487753;-0.024382958;-0.17636463;-0.046645828;-0.002155786;-0.040547576;0.06591803;0.012070931;-0.06141397;0.043346893;-0.10716154;-0.032863963;0.0203969;0.053829253;0.03541653;-0.041876867;0.032912266;0.015126499;-0.058867354;-0.109170675;0.07792405;0.04096751;0.010615527;-0.069925874;0.13747577;-0.022606855;-0.061639614;-0.06763877;-0.06685587;-0.038938686;0.024372123;0.108133905;-0.03283479;-0.094323106;-0.06100662;-0.07013341;-0.019644314;-0.29771242;0.10973534;0.07225817;-0.0010985911;-0.08504862;-0.084057175;0.07131809;-0.043844197;0.11276021;0.059239913;0.02246631;0.023628222;0.03083114;0.04323714;0.03097642;-0.10033017;-0.030570079;-0.09762967;-0.25768676;-0.014054143;0.012568201;-0.07435928;0.057754528;-0.07507862;0.022019284;-0.019419285;-0.0595598;-0.08861363;-0.059271067;0.013994359;-0.031648632;-0.02923635;-0.019724265;0.05462792;-0.03329559;-0.05059402;-0.014681735;-0.025985226;0.031167896;0.077188656;-0.0037468632;0.04059006;-0.0497728;-0.04486581;-0.01941533;0.055178188;0.17060244;0.028598143;-0.008187061;0.075090654;-0.02548869;0.012408208;-0.111379616;-0.011430044;0.027529825;0.07476756;-0.08130786;-0.020521048;-0.047590245;0.047025792;-0.09028932;-0.1295263;0.025741512;-0.051040992;0.08822906;-0.07529079;-0.056212142;0.051698335;0.03422326;-0.004818245;-0.0401547;0.032090735;0.04322575;-0.01626494;0.082227305;-0.017031798;-0.08620836;-0.12687461;0.014053093;-0.0019227748;-0.06859455;0.07622115;-0.23197569;0.07250037;-0.18510115;-0.0778221;0.012746426;-0.09421451;-0.07392204;-0.0025097071;0.028557325;0.21209575;0.009236316;-0.19802383;0.070757106;0.00042940665;-0.007659188;0.044144243;0.045841396;-0.050676182;-0.0052055987;0.0591286;0.088498786;-0.005300189;-0.050793495;0.102267906;0.0749691;-0.055623535;-0.02796137;0.1284526;0.0271896;0.06733028;0.17879082;0.0064194286;-0.088925384;-0.023476463;0.047963332;0.14717816;0.05312563;-0.048558127;-0.040860873;-0.16384633;0.092962004;0.0042975848;0.074201204;-0.026876781;0.054018985;0.12473498;-0.03273869;-0.056347158;0.0730567;0.020431167;-0.020916976;-0.03302443;-0.056063633;-0.41954425;0.031665865;-0.0132400505;-0.009664936;-0.138597;0.0058621354;0.05271269;-0.08426121;-0.018831022;0.033031415;-0.039824888;0.032762922;0.039374672;-0.036792684;-0.08584268;0.001966749;-0.034227073;-0.048150875;0.062222373;0.011018601;-0.039480977;0.040794905;0.07754431;-0.017842876;-0.013454551;-0.07382055;-0.007337087;0.06509373;0.15076903;0.047610547;-0.06929709;0.046629623;-0.08402561;-0.034151517;0.1264758;0.07081095;-0.0051128147;-0.04239239;0.08348964;-0.032924775;0.022123773;-0.0076701907;0.021285584;-0.03828541;-0.20098522;-0.3005254;-0.023031037;-0.1329856;-0.0040362254;-0.13985734;0.07855199;0.01806122;0.119791724;-0.07501964;-0.029114984;0.05216149;-0.14205228;-0.027557515;-0.06650902;-0.29399884;0.108160324;-0.015512557;0.0390917;0.012653077;-0.0096129505;0.21334682;-0.05439748;-0.00940224;0.102605894;-0.013806409;-0.019919433;0.062305674;0.06837171;0.04590674;-0.01894759;0.02529631;0.08910212;-0.016134083;0.09749772;0.011825264;0.049177244;-0.15162899;0.04504852;0.067537695;0.07420643;-0.014389825;0.10068469;0.13386056;0.0014599976;-0.22241142;0.044987153;0.07242885;0.089030534;-0.04329594;0.07327426;-0.009442074;-0.030238869;-0.0064426623;0.15136588;0.08907804;-0.02395861;0.2289776;-0.1164027;0.036925785;0.005316778;-0.024338614;0.075591184;0.055824447;-0.07124215;-0.06432927;0.0006529365;0.22781634;0.061794624;-0.00993779;0.0648733;-0.06358124;0.048655637;0.19805898;0.2867533;-0.17753248;-0.061900504;0.08849871;-0.018075747;0.06435275;-0.18738228;0.2669716;0.15963738;-0.07484397;-0.06776662;0.05918585;0.029123235;-0.004922945;-0.044258956;0.018106977;-0.05397996;-0.040404167;-0.3082994;-0.05494137;0.13230173;0.026763527;-0.012197498;0.18469799;0.04216534;0.076920204;0.08746335;-0.05221391;0.073686;0.025419006;-0.02348344;-0.03423372;0.012132799;0.03478363;-0.017850315;-0.06409762;0.007958466
-0.053624593;0.096452706;-0.0035626825;-0.011558747;0.22287755;0.13599704;0.03385499;-0.11643446;-0.008070672;0.15766495;0.108238705;-0.028063118;0.058960263;0.057810202;0.045182597;0.08291937;0.24263951;0.0029176867;-0.06475189;-0.05839352;0.04250444;0.003116294;-0.044932503;-0.05647522;-0.0038697813;-0.09796517;0.03649089;0.02621716;0.11184279;0.05116891;0.019115211;0.013248126;-0.0627646;0.0066196756;-0.032114062;0.04198098;0.05588754;0.06765866;0.05327322;0.0065599396;-0.0074928254;-0.07238458;0.16717915;0.06598754;-0.005699022;-0.0070951567;0.027560156;-0.04218119;-0.16425428;0.23923232;0.079563096;-0.022237191;-0.059593;-0.01879054;0.003048851;-0.21975061;0.0921023;0.0034414446;0.022624373;0.006737218;-0.15439628;-0.042847615;0.036462802;-0.025963783;0.072925866;0.0050123;0.003969384;0.038636956;-0.0047440697;0.04759997;0.04717727;0.017427474;0.035129413;0.081810154;-0.07312006;-0.087247446;0.013655955;0.08104006;-0.13703193;0.06777781;0.0013715209;0.08088263;0.14081536;0.08257323;-0.008832104;0.04870661;-0.016624061;0.17552437;0.10083764;0.04337845;0.017758448;-0.06366347;0.10543981;-0.05101105;-0.03312934;0.002980667;0.084186435;0.033735055;0.16328833;0.065874025;-0.18816768;-0.034057356;-0.017191768;0.08312115;-0.012823515;-0.03912188;-0.015136308;0.15149088;-0.024058413;0.14534448;0.021186322;0.15009002;0.09223267;-0.042262506;0.04455068;-0.0073912484;-0.051364213;0.13044228;0.052274022;-0.040067043;-0.0021206308;-0.09816483;0.14785871;-0.078678325;0.11842021;-0.05639813;0.14383236;-0.053689096;0.0666532;0.09696385;0.044767436;-0.35631374;-0.069756515;0.09447042;0.25232485;0.071370974;-0.090002194;-0.04397678;0.052217714;-0.008249926;0.053161085;0.043660413;-0.009500718;-0.08650824;-0.11099867;-0.03753481;-0.06844726;0.023771869;-0.11957266;-0.010196577;-0.045091223;0.12576707;0.12281917;0.052730788;0.036821116;-0.056481224;0.005603674;-0.10269233;-0.037320998;-0.07097504;0.08123681;0.12857841;-0.0066290763;0.17474149;0.006116002;-0.031998616;-0.16429898;0.017182453;-0.096270874;-0.016033027;0.27521688;0.05705171;-0.10206145;-0.027849583;0.052513685;0.033475876;0.0013858397;0.041695528;-0.029857792;-0.07025279;0.16060817;0.010175352;-0.031225385;-0.06942306;-0.06659344;-0.03804997;-0.017316747;-0.09906151;-0.058268998;0.06267444;-0.10327235;-0.0024887002;-0.060992986;0.05757826;0.050608803;0.114498876;0.023096358;-0.015451527;-0.069625586;-0.07019636;-0.03537251;-0.047913168;-0.0078068785;-0.029291801;0.1054853;-0.026775824;0.12756288;0.15271154;0.00932322;-0.16739525;0.06057002;0.09641668;0.15711388;-0.297423;0.08831554;-0.08517567;0.15327835;-0.10854607;-0.0034716914;-0.0084737055;-0.0007001565;-0.082433335;0.021203801;-0.018100174;-0.051857375;0.0072065;-0.034808785;0.05086023;-0.064266376;-0.08778314;-0.031467468;0.012986379;0.065657005;-0.06892677;-0.04255665;0.0360081;-0.0786418;-0.1456278;0.0061665527;0.0042438754;-0.32987213;-0.0665524;0.030569863;-0.03583888;-0.0657358;-0.07380285;0.05542979;0.043955974;-0.07253874;0.073326826;-0.052948806;-0.21289596;-0.022398261;-0.03584121;-0.07105159;-0.0037155934;0.08859227;-0.07074089;-0.02561341;-0.05012227;-0.05735798;0.079227395;0.0044395626;0.050059225;0.06924765;-0.055633232;-0.010700007;0.0147765;0.0020473148;-0.09155096;-0.08985547;0.0671043;0.03980886;0.09096504;0.0629176;0.100000754;0.0119736595;0.07324413;-0.031990767;-0.003306144;-0.021297662;0.057353258;-0.012781352;-0.06791092;0.08479693;-0.017825289;-0.081875436;0.1241924;-0.07361381;-0.0480213;-0.02388229;-0.00018692971;-0.020529442;-0.04470397;0.06459506;0.02279486;-0.04283583;-0.009328795;-0.10311251;0.020143678;0.056428432;0.054655634;0.044497184;0.0358713;-0.39805552;0.0050704475;0.06671344;-0.04269826;-0.021534916;0.07186664;-0.09398446;0.027331328;0.019502807;-0.12066789;0.12619467;-0.040537987;0.045789573;-0.037954204;0.104666285;-0.04891665;0.057428535;0.058013573;-0.0035153204;0.052128118;-0.02016211;-0.05257545;0.053666603;-0.07260678;-0.03400824;0.030554209;-0.036103822;0.07545307;-0.012422943;-0.05861476;-0.005631376;0.06445792;0.038013212;0.04756716;-0.11075905;-0.05645182;0.1223993;-0.096666045;0.057237107;-0.052155368;0.05794241;-0.00056247413;-0.123780034;-0.08027169;-0.033201132;0.03435643;0.05285054;0.09946873;0.09541492;-0.0656584;-0.016882164;-0.057929628;0.057186533;0.020521967;0.09600508;0.08418898;0.08148268;0.10483042;-0.11225198;0.05324241;-0.07995084;-0.030154392;-0.036913432;-0.026380857;-0.008441738;-0.0752273;-0.11048872;-0.029422672;-0.13577992;-0.16552694;0.07564411;0.037610855;-0.009618798;0.23033799;-0.006380029;-0.13562568;0.030452823;0.060102265;-0.018064545;-0.02002416;-0.04876882;-0.04744066;0.07256476;-0.055866808;0.03274372;-0.022102349;0.035612717;0.101952136;-0.09970233;0.1045363;0.087321326;0.06610899;-0.0068943254;0.06958369;0.09413959;0.043679632;-0.07792442;-0.0248907;0.049638085;0.032918505;-0.05317098;-0.0063916952;-0.047616348;-0.02016124;-0.06085669;0.022731256;-0.01398055;0.042167604;0.010319218;0.076703355;0.06635791;-0.09795117;-0.032910235;0.17339692;0.05654597;0.015531739;0.122894995;-0.2401656;0.07856703;0.046170462;0.1306632;-0.037450098;-0.06509667;0.068950064;0.05194672;0.0057871225;-0.087155715;0.067271516;-0.08095463;0.10290803;-0.05303806;0.053721722;-0.05411776;0.034461867;0.069707796;-0.030884143;0.009319551;0.019474685;0.07416587;-0.010301439;-0.06431373;0.003105883;-0.15373594;0.16326012;0.03233949;-0.018514106;0.13290675;-0.07306705;0.048781674;0.08005896;-0.18289036;0.077483065;0.11524829;-0.11965027;0.007089251;-0.09979332;0.06813754;0.010896832;-0.060109407;-0.0718826;0.0690017;-0.22887287;-0.123314336;0.11900056;-0.03172457;0.04969773;-0.09444961;0.050964322;0.0687467;-0.0010767663;0.04034214;0.008061484;0.018296886;-0.10981149;0.0059375055;-0.13432951;-0.19216542;0.12893596;-0.12915102;-0.0508091;0.049949344;0.07509988;0.0701309;-0.075130604;0.08853122;0.012084513;-0.02182809;0.12649328;0.02018261;-0.00015227166;0.0040279636;-0.022243313;-0.02456282;0.06232242;-0.011246556;0.05664179;-0.21651371;0.033403296;0.031608403;-0.009072269;0.086189024;-0.0073662177;-0.054615803;0.11615365;0.026398538;0.028447922;-0.25858185;0.012623638;0.06952836;0.096540324;-0.08742302;-0.009550996;-0.08276075;0.1303046;-0.09922566;-0.19799763;0.0418678;-0.016903212;0.03098036;-0.054899264;-0.047697265;-0.09494198;-0.05258437;0.08843183;0.023198904;-0.05937118;-0.12176;-0.076385304;-0.21697383;0.048434317;-0.06071257;-0.021992164;0.020558722;0.014421223;0.178416;0.40257493;-0.13354863;0.0025497116;-0.024768109;-0.049908783;0.15417318;-0.21922228;0.2521763;0.12081141;0.018584235;0.008564248;0.03985687;-0.029386928;-0.0689273;-0.007598605;-0.045734495;-0.120674305;-0.027005035;-0.35654718;-0.057351302;0.04801842;0.06506821;0.02948243;0.17042871;0.03003399;0.03757504;0.103744924;0.014993051;0.017999208;-0.062185448;-0.069084905;0.07089504;-0.014023869;-0.075806014;0.0152310785;0.064935915;0.014043572
0.10180086;0.08353618;-0.087069534;-0.0124246385;0.18957007;-0.086927615;-0.071079515;-0.078441165;0.17663817;-0.019556548;-0.06278909;-0.08381795;0.063944794;-0.009681641;-0.06674704;0.09046789;0.10618023;-0.0031521698;0.057470966;0.068206176;0.003994039;-0.04931563;-0.026547296;0.074764475;0.05481455;0.029390663;0.06308243;0.003327199;0.116439454;0.038578294;0.068881996;0.02775386;0.08471737;0.041318037;0.1681363;0.08124797;0.015559266;-0.025694542;0.075913295;0.008800643;-0.009141322;0.10027648;0.09487056;-0.027264431;0.043063123;-0.024186626;-0.05814702;0.07050374;-0.010874943;0.04858541;0.04661096;-0.013968333;0.04415375;-0.011943418;0.08189298;0.014335545;0.039205294;0.09157372;-0.22501512;-0.03943065;-0.036883436;-0.074010216;-0.002633552;0.034929298;-0.0004318113;0.059586033;0.14337698;-0.20659494;-0.0026305157;0.11217109;0.075092174;0.044597372;-0.05942462;0.058166876;0.1910603;-0.0050078873;0.0877238;0.14399436;-0.30182642;0.07143849;0.015848486;-0.035696167;-0.01992459;0.009731683;0.03580461;-0.0013907307;0.030032564;0.15639122;0.07180241;-0.030018106;0.032745115;-0.12717639;0.14461787;0.099752754;-0.07143037;-0.07186264;0.01233686;-0.13011552;0.035893634;-0.008629188;-0.15698734;-0.036058072;0.108526394;0.055560987;-0.076390095;-0.0556396;-0.068689644;0.11965497;0.07250938;-0.041353106;0.0042307647;0.047098767;0.10690017;-0.11878587;0.04680007;0.1158889;0.020120192;0.094297804;-0.013428164;0.025583956;-0.065704346;-0.031566195;0.24842517;0.048582513;-0.032421775;-0.06327692;0.01121647;-0.109103255;0.039309867;0.033190005;0.08316861;-0.23438886;-0.017267093;-0.026629811;0.12215854;0.011913645;0.06418988;-0.07623748;0.038138345;0.029730387;-0.008068636;0.018444104;-0.028704943;0.013147233;0.05360183;0.069274224;-0.05941684;-0.027985767;-0.03318499;0.055410787;-0.16879028;0.085652076;0.076293916;-0.01765961;0.05248899;0.10197639;0.08661285;-0.108462244;-0.08136038;0.041637525;-0.047443856;0.07589192;0.0018477523;0.16826846;-0.12779516;-0.010750507;-0.11028301;0.07122915;0.08345661;-0.030412791;0.08068158;-0.079125226;-0.1488572;-0.057732753;-0.038621496;-0.032917928;-0.052091952;-0.049742963;-0.19715853;-0.0015932574;0.25235218;-0.13435358;0.0403038;0.012006591;0.0053917547;0.08361931;0.0025139449;-0.037967574;0.011838767;-0.05019228;0.015774596;-0.072261184;0.08472083;0.038420253;-0.14476986;0.14942496;-0.016086837;0.030404903;0.014019401;-0.1984722;0.09258025;0.02465111;-0.07003486;0.02246566;0.024601515;-0.028692141;0.13437968;-0.004031696;0.09839608;-0.072850645;0.034708463;0.04971506;0.026866434;-0.1244919;-0.0082397675;-0.25512022;0.09619787;-0.24439737;-0.04756511;0.008476795;-0.02452819;0.05211632;0.09490673;0.021396717;0.04684032;0.050296206;0.11254839;0.10444768;0.11017865;-0.07324282;0.06006112;-0.058799304;-0.02483228;-0.055158634;0.011901974;-0.039403826;0.056679986;-0.07224655;-0.054669585;0.110964306;-0.3212152;0.07605666;0.030124335;-0.014817126;-0.027324485;0.089485325;0.11027215;-0.024922706;0.02129698;-0.08415308;-0.07928577;-0.15957108;-0.11044169;0.03802355;0.0005464835;-0.10958366;0.058683097;0.06730671;0.026357593;-0.015271426;0.00025114094;0.013633015;0.01917572;-0.055413537;0.04706558;-0.04987928;-0.17706993;0.09495154;-0.039492257;0.0068593747;0.019312365;0.025496706;-0.03262557;0.114627056;-0.058839507;-0.07616024;-0.03176891;-0.02760597;0.017359423;0.026125148;0.024259912;0.052514426;-0.13432522;0.015720844;0.0031152472;0.004368356;0.043132205;0.0561856;-0.074587114;0.022711571;-0.01163098;-0.018081838;0.064535275;0.065371655;0.00023665602;-0.009604708;-0.10445145;0.045153353;-0.039812397;-0.05821665;0.023323325;-0.088589855;0.019542372;-0.010306028;-0.116477646;-0.023844624;0.025435511;-0.055035662;0.0028851198;-0.048016995;0.054951858;0.020115092;0.10858685;-0.12675218;0.023684878;-0.01608939;-0.0045691747;0.015381376;0.059020963;-0.00071944954;-0.002923336;-0.078374535;0.059317976;-0.09158109;-0.04601731;0.09300157;0.019267563;-0.13824086;0.09560755;0.09017599;0.050449315;0.009413437;-0.10429543;-0.004517432;-0.02140861;-0.08649925;-0.07679941;0.005099181;-0.028726824;0.08609264;-0.02740705;-0.10210889;0.12580566;0.020423843;-0.07348865;-0.05046364;-0.16439681;-0.15416141;-0.028205488;0.09856827;-0.06598469;0.039032213;-0.018155856;-0.005315276;0.01145521;0.0016876799;-0.04209594;-0.0043972447;-0.0065415963;-0.104057424;0.05100893;-0.03295731;-0.027396072;0.047054097;-0.1416359;0.04742135;-0.058742438;0.011690255;0.12412723;-0.06639104;-0.0062923925;0.11073274;-0.13611543;-0.051955286;0.021964531;-0.057314873;0.060881753;0.25126597;-0.035842158;0.11881278;0.045685492;0.03209078;0.044914108;-0.038690563;-0.0072685443;0.053003933;-0.25793847;0.054321624;-0.06582682;0.14646193;-0.037830554;0.010652778;-0.11021784;-0.004520387;-0.057842348;0.010644828;0.00011238979;0.07936864;0.096061744;0.0769502;-0.0036451858;0.08269716;0.086345725;0.06879522;0.054151446;0.02601866;0.0049704434;0.07257507;-0.12673366;-0.07970876;-0.048996158;0.017346203;0.07079429;-0.022978503;0.03177664;-0.059304614;0.04145773;0.1504063;-0.05088122;-0.008307491;0.09801188;-0.053734485;-0.035733517;-0.028656755;0.06299338;-0.047644526;0.024144143;-0.0390542;-0.064203426;0.05914915;0.06791792;-0.0041350853;0.032191243;0.0664679;-0.04884659;-0.014199585;0.000725658;0.07507291;0.06821913;-0.037955992;0.056072302;0.03230539;0.064979546;0.059001576;0.102522515;-0.03709694;0.037165526;0.024110315;-0.034582276;0.03967326;0.19440037;-0.01841011;-0.012799292;0.05286151;0.120176844;0.018375011;0.17519668;-0.1464616;-0.073934026;0.08468622;0.033413287;0.002300948;-0.04099472;0.1280968;0.072176956;0.01582678;-0.16050297;0.042761173;-0.0048549473;0.09181136;0.17889157;-0.05389288;0.058652993;0.0020636537;0.039341103;0.015874462;-0.022354493;0.06052715;-0.05359386;0.052256986;-0.09503897;-0.07233678;-0.037651043;0.019889504;-0.06652203;-0.035670888;0.066776246;0.075294726;0.03213831;0.05937262;0.007112727;0.15906589;0.11718015;-0.051982235;0.06244989;-0.1026491;0.020406902;-0.068588205;0.03163502;0.032414906;-0.019440304;-0.040494118;0.15491492;-0.002281797;-0.027459078;-0.053786512;-0.03830685;0.042531963;-0.16963935;-0.089570664;-0.18917072;0.07472578;0.04856809;0.12148584;0.024631368;-0.08690555;0.03289931;0.052449413;-0.065651454;-0.04900887;0.014334334;0.0012156056;0.081711166;0.044804383;0.047594566;0.08792331;-0.06768852;0.04284631;-0.12072833;0.09657278;0.07016858;-0.021660976;-0.047985174;0.006071739;-0.040030167;-0.0244174;0.06281777;0.04553557;0.09288545;0.19622205;-0.012138532;0.010335425;0.016221087;0.04352656;0.09798706;0.0039101155;0.0012789898;0.08956183;-0.17063336;0.019746449;-0.0010016859;0.028886108;0.08941785;0.0041116183;0.03532177;0.016459689;-0.036583636;-0.11063312;0.015271676;-0.03369471;0.030449461;-0.021884993;0.077276945;-0.062192176;0.04714806;0.086734585;0.066725805;0.11950416;-0.010402921;-0.020573206;-0.03826517;-0.025989981;-0.07190505;0.054936353;-0.06593822;0.07436676
0.088146836;-0.024170905;-0.02706909;0.19339357;0.08345806;-0.05313955;-0.06410303;-0.04109139;0.13402738;0.13482513;0.06649618;0.1324427;0.054699413;-0.028503288;-0.07483005;-0.03255192;0.14855908;0.041089505;-0.08408617;0.08797321;-0.009146087;-0.015646549;-0.07246454;0.030522536;-0.0030588214;0.091893755;0.060629856;-0.04640148;-0.13410006;0.007889497;-0.020144487;-0.055628408;-0.0170048;-0.05341373;0.2448727;0.041123025;0.012220016;0.0024835102;-0.06486541;-0.007382657;-0.046885893;0.1251474;0.01895585;0.05232493;0.03867817;-0.0055408794;0.08293237;0.07477731;0.16479316;0.099407986;0.1266924;-0.038857788;0.27170977;-0.06455568;-0.012277086;-0.26861203;0.035037678;-0.013315756;-0.0512599;0.022583403;0.024354089;0.011008531;-0.03161817;0.05888714;0.026189663;0.11865862;0.13842548;-0.12150192;0.044362105;0.02811046;-0.020322269;0.035995107;-0.03899634;-0.055114757;0.23782818;0.030207573;0.10355535;0.17866911;-0.18550974;0.2061118;0.079877004;-0.018596882;-0.05151564;-0.06951778;0.043431893;-0.016422248;-0.103269584;0.079280734;0.020735694;-0.0024272108;-0.022858992;-0.072542876;0.06570979;0.07307931;-0.0074268216;-0.04393155;0.02374687;-0.10818649;0.29403415;-0.09873707;-0.16453;0.10404622;0.31090856;-0.04060708;0.039993454;0.005058916;0.06127798;0.06748379;-0.0682467;-0.0021753951;0.045119945;-0.01621818;0.023381896;-0.019780867;0.070363775;0.03486141;0.11233063;-0.059880964;-0.026717447;0.052339133;-0.017774621;0.059481673;0.0517224;0.046048783;0.09759492;-0.026156677;0.099366605;-0.11616957;-0.06607048;-0.030872136;-0.028307132;-0.32015163;0.06955871;0.046489708;-0.03672892;-0.0041323956;-0.020502767;0.016014732;0.051344145;-0.079552904;0.023396868;-0.0032228227;0.0901473;-0.04685055;-0.03283808;-0.012893495;0.16058421;0.07663801;-0.004159067;0.07707676;0.0018014106;-0.11978137;-0.0016702792;-0.16033143;-0.053607646;0.08034214;-0.074205376;-0.057585232;0.01704159;-0.07228216;-0.04777882;0.073371746;-0.112315506;0.033664115;-0.07832215;-0.037361264;-0.25576565;0.01821616;-0.039905753;0.095531955;0.17620037;-0.047344524;-0.117959976;-0.05156603;0.05237767;-0.04348593;-0.06599473;-0.046403952;-0.19566037;0.03667983;0.15538098;-0.09988825;0.03876136;0.06525065;0.021955121;0.1155496;0.009599608;0.0005405615;0.06789361;-0.044045284;0.13419367;-0.105255865;0.14105666;0.03739394;-0.16922592;0.048152573;0.012353009;0.071537;-0.011588729;-0.18993019;0.03917763;-0.06561749;-0.04140604;0.047636837;-0.09231153;-0.05300054;0.21161667;0.08241622;0.016366558;-0.028589265;0.110581584;0.006282049;0.019221308;-0.10652939;0.05705975;-0.19148606;0.05352693;-0.23420937;-0.17932747;-0.00753769;0.059333082;-0.11250992;0.04990494;0.020286527;0.08166774;0.06304616;0.0263512;0.021433603;0.11223079;0.053919934;-0.008608374;-0.05982756;-0.033206314;0.04644261;-0.046955567;-0.006799922;0.052896705;-0.07375854;0.036433257;-0.038704313;-0.16990332;-0.069424495;-0.063956045;-0.0155244395;-0.017545443;-0.07887278;0.13119061;-6.404957e-05;-0.079553664;-0.045674544;-0.16331564;-0.071727514;0.017926283;0.09834012;0.07974004;0.075370125;-0.04068715;0.007739841;-0.025310377;0.0930523;-0.014443714;0.10137404;-0.04772548;0.047158748;-0.14147994;0.015197517;-0.08664087;-0.12777251;0.065137655;0.047948528;0.100048676;-0.0039525013;-0.00825628;0.13024798;-0.0062288484;0.07616099;0.11686219;-0.034412675;0.056103412;0.0208301;-0.14742608;-0.011301577;-0.12276706;-0.02270011;0.049213205;0.021465283;0.04031365;0.007447836;-0.10701272;0.03307801;-0.14698286;0.124691844;-0.13182408;0.006083089;0.041648895;-0.091355376;0.019120425;-0.006836653;0.039993033;0.038418133;-0.05808546;-0.0014845879;0.021402916;-0.0022698774;-0.2350644;0.023358887;0.07126681;0.051746;0.0700963;-0.03734598;0.09544246;-0.052580044;0.003553513;0.16080955;-0.01785455;0.012228184;0.038943235;-0.023299571;-0.030848894;-0.06446203;0.05160734;-0.07038489;0.078447804;-0.10148796;-0.060076285;-0.04534239;-0.08101379;-0.01808667;0.08004675;-0.07833142;-0.08635961;-0.029895825;-0.025511194;-0.07302702;-0.030767806;-0.076415785;-0.023501623;0.037954822;0.07338648;0.078174554;-0.027125357;-0.021364866;0.14377852;0.04032743;0.05303534;0.082201645;0.054519553;-0.10766139;-0.017925037;0.058298618;-0.0043865712;-0.07648296;0.041153792;0.037916522;0.03994542;-0.048697453;0.051082455;0.05388505;-0.10298394;0.032392386;0.05989587;0.05717244;0.04181973;-0.002270951;0.025532378;-0.08724502;-0.05469899;0.027599953;0.0504414;-0.052966654;-0.211176;0.05950967;0.041385297;0.122213714;-0.054502532;0.0099431565;-0.043643944;0.013598468;0.05508369;0.21547857;0.08097551;-0.032291748;0.087738626;-0.048446897;0.021709919;-0.04990726;-0.2770313;-0.013925391;0.02622209;0.13261868;-0.090075016;0.17628543;-0.13597238;0.024826823;-0.008994597;0.03061807;0.014736444;0.06446764;0.10743591;0.034069013;0.023508511;-0.021491837;-0.072595805;0.04300911;0.015620662;-0.094823405;0.01839344;-0.00961479;-0.07543668;-0.0951941;-0.029339256;-0.0982578;-0.05930882;-0.14086509;0.009493451;-0.004707557;0.09281149;0.07108338;-0.072323196;0.02276659;0.08256207;-0.16887717;-0.041100945;0.020280905;-0.013297844;0.08833843;0.05556704;0.07256094;-0.007208667;-0.0019774814;-0.03366496;0.06665677;-0.015830649;-0.041443385;0.007132561;-0.043648724;0.051935367;-0.022840958;-0.025591262;-0.06259318;0.06695112;-0.05321939;-0.00151712;-0.037291918;0.08439124;-0.037162796;0.1435278;0.13488139;0.053924207;0.044330258;0.21612552;0.1236403;-0.05975524;0.06260124;0.18649769;0.0013251661;0.08255182;-0.15236947;-0.01093056;-0.05934946;0.04865385;-0.082270354;-0.058534022;0.0636157;-0.004038269;-0.05416802;-0.10639008;-0.011380045;-0.1975014;0.09627763;0.11472638;0.076979004;-0.061088435;0.060341276;0.027229303;-0.056741565;0.05654897;0.0726527;-0.007893348;-0.025179835;-0.053452644;0.10071126;0.05056554;-0.008476553;-0.06588444;-0.037512634;0.024504486;-0.0037335572;-0.026856726;-0.0023625284;-0.01352452;-0.0834566;-0.05545368;0.06460902;0.0643136;-0.036222257;0.09419162;0.020393794;-0.02406927;-0.015386623;0.04785454;-0.054718122;-0.027495949;0.090601705;-0.069586806;-0.122090876;0.051213734;0.057838805;0.058488008;-0.0972484;-0.27723512;-0.010009714;0.05755494;0.11357109;-0.037455466;0.020950442;-0.027022894;-0.09897396;0.067591935;0.10038866;0.028860407;-0.0300966;-0.04249541;0.10190788;-0.056594625;0.058701735;0.049403623;-0.056849536;-0.08283826;0.027587753;0.0038469015;-0.067109615;-0.061251637;-0.015518631;-0.036233187;0.07462872;0.0645656;0.061252426;0.2152083;0.17648543;0.13751948;0.11971011;0.035630707;0.057858214;0.08775262;-0.15352683;0.042911;0.17975673;0.02156122;-0.09740569;0.095428534;-0.05977485;0.054032885;-0.07326817;0.044481285;-0.0203222;0.07400064;-0.011155846;-0.05978714;-0.015066954;0.0030622205;-0.045846958;0.014822824;-0.042296834;-0.008657975;-0.0104883285;0.061205592;0.099252515;0.036239706;0.09198339;0.0015823365;-0.07820219;0.10439677;-0.02198273;-0.0065436135;-0.049259987
0.02760878;0.097537376;-0.03580551;-0.013969262;-0.10188135;0.068404764;0.047247317;0.04880145;0.042171113;0.12933221;0.0131192235;0.074144445;-0.012157894;0.029825773;0.029525878;0.047268074;0.09638517;0.10525046;0.027700208;0.013536302;0.027150994;0.013338094;-0.041990478;0.08081019;0.11142096;-0.029598955;-0.04718312;-0.05900976;-0.15349746;0.06442124;-0.05662958;-0.04399111;0.012090564;-0.06059688;0.15951616;-0.015284422;0.014317562;-0.024763152;0.079434335;0.0711597;0.06060015;0.027846761;0.13775404;0.0702856;0.06366961;0.13429707;0.104119204;0.07263313;0.040294934;0.13439235;-0.18017295;0.031650912;-0.053855956;-0.06351557;0.16641548;-0.00044123834;-3.466227e-05;0.020854633;0.027516712;-0.08280646;0.05261224;-0.049240623;-0.03335347;0.0043197013;-0.035094038;-0.008962191;0.04175995;-0.1697977;0.009528267;-0.06656783;0.03063403;-0.004916987;0.056551527;0.06497952;-0.023265377;0.07640504;0.08634389;-0.027637532;-0.04130712;0.056798913;-0.06213816;0.056247633;-0.1392516;-0.04147175;0.12469079;-0.038161248;0.023477942;-0.03041989;-0.016102241;-0.033579133;0.021875042;-0.028737126;0.14204945;0.04665293;0.009700975;-0.052761067;0.0551923;0.037990794;0.052291438;0.037824225;-0.106330074;0.07523549;0.021784712;0.061715793;0.005920241;0.009115044;-0.0048053823;0.2114108;-0.030257935;0.039945327;-0.016662637;0.08121467;-0.020594683;-0.05698412;0.04577327;0.0005853492;0.09146412;-0.19397931;-0.073008984;0.05948954;0.118666634;0.016494501;0.112203576;0.06061399;-0.0509175;-0.030809565;0.012136278;0.0017414644;-0.026188906;-0.029370537;0.019824065;-0.12613724;0.0718957;0.022194661;-0.294404;0.018609295;0.051110163;0.07351899;-0.018003939;0.022697877;-0.018320391;-0.027751004;0.09030585;0.036418974;0.07799427;0.048253797;0.084207326;0.00075558684;0.0043734936;0.004129703;-0.20735154;-0.05521828;-0.0071252296;0.030371334;-0.043497853;0.022363618;-0.02572987;0.027548723;0.023273675;-0.05774627;0.04693211;0.006123998;-0.08388575;0.13243407;0.06620173;0.03919174;-0.26157013;0.046811953;0.010547263;-0.0046595074;0.14680569;0.044362567;-0.09889271;0.098772794;0.11792705;-0.017595507;0.050616156;0.05385831;-0.21568209;-0.049732868;0.057734188;0.03523091;-0.05574146;0.0864323;-0.10277196;0.012672281;-0.007202111;0.016577478;0.0561876;0.0851143;0.072338395;-0.012016578;0.09917132;0.0038950138;-0.050811578;0.08753334;-0.035038624;-0.03570852;0.05237525;-0.11217348;0.037830815;-0.018537128;-0.066073105;-0.053475004;-0.04806244;0.0032310102;0.019209545;-0.068351045;0.022955235;0.032051332;-0.034520194;0.07226763;-0.10956563;-0.0133797405;-0.05665696;-0.03733481;0.08023104;-0.006703395;-0.1356773;0.036557928;0.028637232;-0.06531851;0.01736552;-0.026428971;0.07686621;-0.08170787;-0.05147831;-0.10771855;0.11142815;0.07385555;-0.026428122;-0.03257889;0.00970986;-0.008000189;-0.027769683;-0.015371673;-0.06980671;0.043048963;0.033793554;-0.048198175;-0.2844806;-0.03249009;-0.055192683;0.030127013;0.20422098;0.08443008;-0.039621323;-0.058309037;0.051769227;-0.094206594;-0.13702343;-0.01154503;-0.040220074;-0.026176622;0.04069308;0.047214657;-0.018291097;-0.00609833;0.038331706;0.017181495;0.08007808;-0.033282567;-0.035468005;0.04232004;0.14434789;0.010005034;-0.03320164;-0.2436245;-0.07727228;-0.0639691;-0.06079497;0.039284825;-0.05492125;0.06574714;0.056068625;0.19152376;-0.017397946;-0.04855844;0.03396802;-0.017088652;0.015414307;-0.009242126;-0.103176594;0.04413818;0.061771408;-0.012333496;0.21171731;-0.037009712;-0.048695616;0.10148885;-0.050105333;-0.06217857;0.080881;0.066712946;0.017075215;-0.011267921;0.10681074;-0.022946458;-0.080620304;-0.006965466;0.031444218;0.08592131;0.03240573;0.017738529;-0.09369736;0.05843562;-0.02902003;0.050627705;0.0032861326;0.104295984;0.11454945;0.00024541677;0.08305769;-0.036815293;-0.057588782;0.045712855;-0.031698853;0.115453765;0.047001228;-0.04026242;0.05089757;0.005564993;-0.061382648;-0.15055984;0.09707247;0.03204003;-0.08211427;0.028567392;0.007571464;0.04683532;-0.05417636;0.008488015;0.005642396;-0.03986378;-0.0039404146;-0.057869095;0.028092887;-0.04865591;0.08945067;0.122743435;-0.056026675;0.035509616;0.056672227;-0.03728705;-0.08675828;0.07427355;-0.011723882;-0.096499;0.09080099;0.116949916;0.052423034;0.013742233;0.03534277;-0.06127115;0.041959587;-0.045033086;0.030629428;0.04781661;-0.039341945;0.004524942;0.0027961913;-0.00986728;0.21441104;-0.084088355;-0.101210326;-0.06919016;0.09088721;-0.06557826;0.17946102;-0.009463839;-0.06955474;0.040559717;0.017337997;0.17472924;0.0047025373;-0.04763966;-0.021628616;0.032928333;0.019416317;0.062922515;-0.05261278;0.044567164;0.045757685;0.05969355;0.009450751;-0.010173282;-0.24695535;-0.0157877;-0.049794022;0.10601305;0.0467277;0.013591916;-0.08628106;0.013925465;-0.0026291125;0.10374941;-0.03297101;0.12829238;0.18944709;0.039073087;0.12603007;-0.0176905;-0.07306943;0.01834201;-0.15457635;-0.23410858;0.06941148;0.07932533;-0.17339207;0.0025606162;-0.036639765;0.057038534;0.07715003;0.0038974467;-0.020128064;0.028571133;-0.017506909;0.0028586888;0.030982096;0.052497096;-0.09631825;0.06591581;0.026881734;0.032493766;-0.042386442;0.08266028;0.07223999;-0.03611562;0.30068964;-0.04531907;0.040272363;0.018613582;-0.06619228;-0.09337447;0.008731321;0.05905999;0.030007161;0.042489912;0.034952346;0.01216638;0.08702809;0.041283287;-0.059914228;0.07325765;0.0758613;0.12281704;-0.12502246;0.044875078;0.0049154432;-0.064894125;-0.05706442;0.03815148;0.13253757;-0.0345177;0.03221165;0.055300962;-0.013836396;-0.071404666;0.029189443;0.01077562;-0.042140633;0.02248813;0.08984558;-0.0046981736;-0.08182704;-0.014034617;-0.16352117;-0.077390574;0.017929628;0.036639888;0.17909211;-0.06878486;-0.0053162016;0.094113834;0.016992323;-0.041158166;0.05559135;-0.026367404;0.031394266;0.11106171;0.18914397;-0.039168876;0.16323292;0.16031343;0.064384714;-0.007340327;0.009496488;-0.035612095;0.1160028;-0.058386732;-0.06300954;0.045228668;0.056130707;-0.02473401;-0.04307375;0.07942593;0.02146706;-0.04390669;0.01701982;0.028366538;0.05186738;-0.057469647;0.1985107;0.025690988;0.03242846;-0.18557845;-0.03692173;0.03110857;-0.090094686;0.06059437;-0.3002445;-0.03830372;0.0007212879;0.16986962;0.061908297;-0.05570747;0.05270197;-0.08330581;-0.0150077855;-0.0897402;-0.03089495;0.06883994;-0.0041333875;0.09101558;0.06963423;-0.02292699;0.07499444;-0.058222394;-0.14369534;-0.010659122;0.102087475;0.033727467;0.13416357;-0.044472784;0.06931378;-0.03951246;0.068006754;0.06762649;0.26633137;0.029855987;0.14841372;0.09267379;0.038262613;0.061189245;-0.046702646;0.044427566;0.002191158;0.12378699;-0.021677809;-0.035734907;-0.058501802;-0.023385141;-0.072897844;0.05577654;0.08640093;-0.0037571618;0.090410024;-0.0024548382;0.08134587;0.014511499;-0.04602738;-0.029544884;0.019026624;-0.03363252;0.054119874;0.050216675;-0.011480067;-0.05965376;0.038749684;-0.056366943;-0.06182408;0.035971165;0.09755877;-0.023345592;-0.04428623;-0.047495246
-0.005736308;0.06856351;-0.020398093;-0.042442694;-0.055985853;-0.008920775;-0.00035611424;0.07332062;0.0496375;0.1941962;0.042152066;0.057175342;-0.024086276;-0.043823835;0.018706396;0.087442994;0.21978472;0.028859533;0.07903775;0.06695923;0.069088906;-0.034078643;0.112931944;0.11975338;0.09653641;-0.007759509;-0.093062036;-0.06646251;-0.12571132;0.068512425;0.05082556;0.067339726;-0.001181465;0.08361298;0.015795654;0.011550361;-0.042019367;0.008597701;-0.064612255;-0.026493734;0.0251514;-0.075457424;0.30687484;-0.012408788;-0.02723376;0.0004460246;0.051305942;0.05675529;-0.03210272;0.0522208;0.055685554;-0.029691944;0.014297507;0.06286153;0.23845807;0.13367672;0.023245996;-0.07027294;0.09359739;0.085617274;-0.080450505;-0.028316343;0.09066506;-0.034796797;0.0065220636;0.016398061;-0.09453032;-0.15945017;-0.100030236;0.06393514;-0.008863971;-0.030367212;-0.03791401;-0.04136619;-0.05123455;0.07294603;0.11078285;-0.1250007;-0.21026784;0.058947705;0.002686737;0.034104783;-0.16137296;-0.033383872;0.08020017;-0.036083896;0.028246222;0.063403696;-0.046764474;-0.0002873078;-0.011039366;0.1512505;-0.04808111;0.08974765;0.0041941823;0.06946349;0.03421913;0.04424649;0.06508399;-0.047265932;-0.15531373;-0.035727296;0.0696454;-0.026370129;0.008284459;-0.023504067;0.044262353;0.13290358;-0.019987222;-0.044952042;-0.028347878;-0.09184036;-0.03969745;0.08505774;0.08545746;0.08565799;0.02997596;-0.1418223;-0.13591325;-0.01053069;0.037618846;0.000437317;0.08889391;0.03627388;-0.026021952;0.03372187;0.0070210355;0.08357689;0.02825504;0.01871758;-0.06478342;-0.07665282;0.022125402;-0.047527704;-0.30073225;-0.03872082;0.08829554;0.037849814;0.05707053;0.048367478;0.093023494;0.09212348;0.09748207;0.017061746;-0.10007902;-0.071024746;0.13575128;0.07685276;-0.05937545;0.05485846;-0.22494033;0.043526854;-0.02220723;0.116836414;0.052159294;0.097645245;0.060994085;0.033695977;-0.022249738;0.18711925;0.049265172;-0.038169272;0.0032896034;-0.06391282;0.1718524;0.09881157;-0.30159423;0.10419369;0.11875982;0.0734359;0.20623973;0.07892227;0.017871244;0.041763365;-0.095479585;0.013065006;0.0001807395;0.03558125;-0.09583561;-0.085345685;0.04469102;0.12502322;0.031496204;0.012854;0.080801025;-0.04601798;-0.0018731816;-0.050875988;-0.059983745;0.08766008;-0.021226356;-0.09630997;0.020741737;-0.057416767;-0.09056701;0.13580376;0.045730833;-0.024545314;0.011645895;-0.04618605;0.043520913;0.06901624;0.08647469;-0.024209404;-0.16198413;-0.019990642;-0.031454995;-0.14587887;-0.048975278;0.054681394;0.0025920002;0.059352785;-0.045170207;0.12796098;0.003320757;0.17136823;0.0795893;-0.05016021;-0.011228041;0.078460276;-0.05235902;-0.11897846;0.019030748;0.061653994;0.029616427;0.035285722;-0.064508274;-0.0714183;0.118355885;0.054664046;0.028751332;0.071241744;0.041218635;0.025368212;0.04584392;-0.06493479;0.087730356;-0.06368544;-0.05838206;0.014648222;-0.09359539;0.07127609;-0.03819894;0.07644601;-0.010955757;0.051887486;0.015985176;-0.036161464;-0.004079085;-0.04838235;-0.06535599;0.09215645;-0.09008846;0.07464424;0.040324956;-0.038625035;0.07253869;-0.021356089;0.03883209;-0.049026567;0.020767424;-0.04153461;-0.0902611;-0.006126688;0.12554027;0.07980323;0.13382842;-0.16569906;-0.032590028;-0.05209505;0.07359445;0.042035274;-0.032015033;0.15519091;-0.01582784;0.054638736;-0.1065371;0.027926395;-0.023817377;-0.041637477;-0.055973247;-0.025610797;1.79587e-05;0.058443118;-0.029616369;0.07849197;0.11446205;0.03882748;0.015760563;0.043618713;0.010944527;0.029640514;0.28814813;-0.019293817;0.051717702;0.0125822;0.10393061;0.043981;0.04229329;0.01647142;0.06752759;0.08895306;-0.023976708;0.03809019;0.19678791;-0.06684559;0.016082201;-0.052201778;-0.050545424;-0.013986018;-0.022790307;0.04799262;-0.064871505;0.19316787;-0.00860985;0.04278415;0.079191454;0.05026626;0.026195409;0.11214756;-0.048157275;0.03515064;0.03701102;0.06486971;0.037396967;0.04770941;0.10207741;0.066363685;0.035935543;-0.010257821;-0.039964538;-0.07367427;-0.04465267;0.018253863;0.060147952;0.0709737;-0.15004116;0.049902998;0.09007075;0.14945321;-0.016434398;0.027921826;-0.18371925;0.049831044;0.066336185;0.056502797;-0.033419758;-0.10226572;0.060638808;0.08739551;-0.04343032;0.075310215;0.07401926;-0.018837798;0.04513527;0.05273326;0.033552673;0.05950823;-0.02061878;0.045637716;0.020550596;-0.059225257;0.15375839;-0.06748776;-0.039727148;-0.084432736;0.08015192;0.011367786;0.18656933;0.048998807;-0.017553605;0.0005973631;-0.027022794;0.05732242;-0.026906792;0.03532832;0.048456337;0.07619227;-0.02152577;0.06947067;-0.0702834;-0.072714396;0.08677775;-0.0028674954;0.013493156;0.064325914;-0.067872874;0.01741619;0.039563224;-0.0016387445;-0.0044744015;0.10508121;-0.046476517;0.072020225;0.07991996;0.122167036;0.06266915;-0.015431131;0.18501244;0.05293527;0.050012723;-0.0576325;0.07879042;0.16066155;-0.049723342;-0.4317373;-0.03482619;0.06406146;0.03335115;0.06332514;0.013796175;0.0660269;-0.046810053;-0.11933697;0.019048873;0.04247542;-0.04231567;-0.0895693;-0.029662408;0.04203844;-0.14731991;-0.055280186;0.029562777;-0.029691864;0.02232523;0.083343595;0.00047657127;0.065912485;0.15613715;0.014531936;-0.03642059;-0.045919694;0.02888269;-0.12431143;0.08246458;-0.023422802;0.0063954825;0.0009785268;0.028233057;0.023271773;-0.057357978;-0.026340734;-0.049696963;0.12156173;0.093763515;0.072774194;-0.057255197;-0.03855305;-0.07843125;-0.040773295;0.042469647;0.023629827;0.09371749;0.08076649;0.14433981;-0.17822385;0.113785595;-0.060887177;0.015728608;0.043970764;0.06241519;-0.0055968557;0.03966764;0.0023305297;-0.043663185;-0.09186391;-0.18838169;-0.04285138;0.060523618;0.02676604;0.18477018;-0.0015547401;-0.013141457;-0.051093783;0.07063753;0.06751291;-0.035387136;0.112738684;0.06739476;0.09025722;-0.18981972;-0.025378538;0.17154586;0.06942921;-0.078292824;0.060648188;0.07818993;0.028029602;0.08391152;0.08314813;-0.114905916;0.06373054;0.024818027;0.025218103;-0.045701206;-0.011139123;0.05095741;-0.06934596;-0.14959404;-0.11147107;-0.060796134;0.07766465;0.17937082;-0.037707344;-0.055596575;-0.21176653;0.018867668;0.08692168;-0.028820012;-0.030758925;-0.20264785;-0.0038234766;-0.010061046;-0.017318645;-0.088607706;0.033755854;-0.0422935;0.0025872835;0.078504205;-0.039595686;0.057692595;0.029227095;-0.15594895;-0.14206524;0.087333;-0.0118230255;0.079575256;0.030223366;-0.059730895;0.07084952;-0.039252244;-0.02887631;0.07939462;0.015348843;0.063518405;-0.00443605;0.047060765;0.04606381;0.32269534;0.026468616;0.08312008;-0.07081158;-0.009218486;-0.030555204;0.052974876;0.092741765;-0.024442578;0.06832438;0.14095871;0.017160792;-0.08140049;-0.005665005;0.0745351;-0.07741906;-0.049800534;0.05967065;-0.071977384;0.013119162;-0.0029831317;-0.0757012;-0.05323789;-0.042873103;0.034319345;0.06375263;-0.028893312;0.00092657295;0.049523514;-0.0529533;-0.056727804;0.091328695;-0.03559952;0.044285633;-0.11112758;0.061098177;0.055752855;-0.109747164
0.092833154;0.0671304;0.07560965;0.10000691;-0.04185105;0.11258098;-0.0067841657;0.12453927;-0.052829996;0.15803951;0.07533589;-0.0042867153;-0.026529811;0.100765154;0.07038443;0.01726961;0.17730626;0.061898675;0.003934331;-0.037965167;0.012940579;0.018978894;-0.012989466;0.14864178;-0.03162584;0.059701808;0.005998017;0.061928608;-0.0052473056;-0.047061283;-0.021706747;0.066363044;-0.009530542;0.03187223;0.11773039;0.020416824;-0.013512785;0.064887136;-0.012220146;0.018370362;-0.035766732;0.08264855;0.25305164;0.037807927;-0.046606816;0.026717447;-0.0059037656;0.022110257;0.12647153;0.08881958;0.027299235;0.054887865;-0.22141877;0.10486843;0.015313358;0.060266476;-0.013505812;-0.017317731;0.027596483;0.049107336;0.059880335;-0.02457923;0.0443904;-0.04617073;0.024825567;0.07316971;0.13459861;-0.17282936;-0.05686138;-0.08157953;-0.04000357;-0.055441625;-0.041813068;-0.06467666;-0.060007494;0.07618056;-0.014272838;0.03949167;-0.018944904;-0.08738435;-0.06481332;0.0066915154;0.0044942624;0.037795704;0.09056598;-0.011911107;-0.055789478;0.06566766;0.0954287;0.06648867;-0.005346438;0.010988791;-0.10682713;0.08982375;0.054376587;-0.021371627;0.07847696;0.08164476;0.09812333;0.05235472;0.019295791;-0.030052956;-0.011069202;0.024521334;-0.038684327;0.05617756;-0.009837853;0.13101012;-0.027458431;0.0019753412;-0.008312067;0.05574338;-0.060374722;0.066421;0.049944114;0.028139357;-0.077706516;-0.01358931;-0.10227712;-0.0865201;-0.084913425;0.02797769;0.11066124;0.050672494;-0.040450443;-0.06858802;-0.03301774;-0.06915804;-0.049595814;-0.054471668;-0.052983608;-0.04608527;0.0824675;-0.045718342;-0.18009114;-0.019247029;0.05217177;-0.03335216;-0.0043374444;0.06069698;0.08131473;0.07780875;-0.041465458;0.073730186;0.004843875;-0.045747068;0.12802921;0.02039443;-0.020307317;-0.020574389;-0.09447561;-0.046903465;-0.036980294;0.11639001;-0.007901415;0.060099814;-0.10036021;0.12129594;0.023597315;-0.04751526;0.002493902;0.003792613;-0.0021186862;0.10035354;0.20723109;0.08171695;-0.2408764;-0.020248638;0.11169239;0.036780644;0.18028647;-0.033527818;-0.04811808;0.02797673;-0.040177453;-0.072078794;0.13123699;0.046245;-0.05579877;0.07829391;0.1496374;0.17567332;-0.0021130373;0.066445924;0.1500056;-0.061191555;0.067205206;-0.02163121;-0.0006681015;0.033378556;0.06548543;0.097234815;-0.117930286;-0.05686358;-0.112109855;0.08273493;0.005118376;0.07473737;0.040555187;0.20269911;0.0024715373;-0.043628436;-0.017054003;-0.024891462;-0.09681711;0.075399645;0.0013662095;0.053041983;-0.07793074;-0.08513943;0.015244161;-0.031796735;0.033554778;-0.19172539;0.0070252386;0.16649748;0.14951536;0.08143369;0.006146186;0.0692209;0.021312134;-0.019170912;-0.014372648;0.037466116;0.008254495;0.06431242;0.05754504;-0.012743057;-0.025194315;-0.066845015;-0.032962672;0.074222386;0.026842043;0.20192422;0.067051806;0.0058734003;-0.043471623;-0.010472652;0.044817936;0.053271446;-0.10393397;0.0015644147;-0.008676343;-0.042161424;-0.09443818;0.0748349;-0.00300834;0.07323658;0.09126554;0.06380346;-0.07545007;0.07725305;0.04155732;-0.064530455;-0.05684321;0.055502154;0.0063608405;-0.032025762;-0.076258294;-0.052464586;-0.01806442;0.09565822;0.031976406;-0.051502608;0.01624755;0.08593512;-0.047971215;-0.10548456;0.0032944344;0.042441204;-0.015940703;0.0101121785;0.11347471;0.02010233;0.14723137;0.058524355;0.11752796;-0.05796225;-0.016131798;0.077619806;0.09996555;0.0528119;0.027676258;0.052974932;-0.08364923;-0.03848694;0.092208154;-0.02849274;0.038494505;0.010408078;-0.0021760035;0.014668626;-0.031478595;0.09632056;-0.052118167;0.008880518;0.05346336;0.07098691;-0.030702196;0.023407338;-0.06885461;0.09891056;0.061690718;0.024691634;0.09769695;0.014046752;-0.01955194;-0.013532867;-0.064426556;-0.06449963;0.11632484;0.000428659;-0.06451892;0.104431346;-0.13792133;-0.07240404;0.011403126;-0.041010965;-0.078967854;0.10301696;-0.05463348;0.07353814;0.022218596;-0.065479755;-0.010345676;0.0023558876;0.16566826;0.06661049;0.050143205;0.011282767;0.07870662;0.033956874;0.10633308;0.08120483;0.0052882014;0.15047999;0.023426652;-0.011000504;-0.005910385;0.11840856;-0.027159255;-0.06403397;-0.00024029223;-0.04931148;0.05725714;0.06984144;0.048162498;0.032637246;-0.02875695;0.039664954;-0.054644976;0.07260008;-0.0005034208;-0.0022067528;0.070361756;0.053859107;0.03358447;-0.03614043;0.097284704;-0.06567967;0.14743237;-0.07068485;0.07615674;0.08016944;-0.13026398;-0.06695417;0.015483871;0.006178415;0.17783502;0.092989676;0.048796616;0.044252846;0.057084385;-0.019509848;0.08562451;0.031179849;0.03466197;-0.09324585;0.052448932;0.025347125;-0.068049915;-0.07183771;-0.025871854;-0.023598922;0.03871306;0.015463007;0.11431455;-0.03902175;0.058709368;-0.08995678;0.019256506;0.053908467;0.05067862;-0.06213461;0.017851952;0.07678617;-0.057093054;0.00014271267;0.11975229;-0.080905095;-0.017842358;-0.063110515;0.012365664;0.20121554;-0.20826034;-0.08928314;-0.06497922;0.084949106;-0.013577304;0.087387405;0.05327925;-0.028803315;0.0507313;-0.018251292;0.07811539;-0.0079487;0.039222274;-0.012098103;-0.025650667;-0.01569483;0.102576144;0.10003709;-0.09461257;-0.04598095;0.14858118;-0.05179873;0.020002423;-0.0506027;0.1986657;0.047599986;0.023281079;0.05689087;-0.005039165;0.028714858;0.09874504;-0.02848565;-0.019227047;-0.07553807;0.007873357;0.00092709524;0.04065966;-0.06016696;-0.11655169;0.16206002;-0.04001659;-0.014097857;-0.09406993;-0.037502326;-0.03754538;0.0107511785;0.013864913;0.042999674;0.0827093;0.018526135;-0.03745407;0.097514056;-0.036813114;0.095826395;0.044659924;0.045813307;0.04943996;-0.036116052;0.016609872;0.05676303;0.060760472;0.0684459;-0.31536055;0.015482035;0.17876612;-0.0298105;0.14136864;0.036733504;-0.06833469;-0.030294266;0.010012945;0.06783799;0.011292918;0.11298744;-0.042130806;0.061451565;0.040762614;0.014497902;-0.026711224;0.1472782;-0.06306033;-0.081414156;0.1075415;0.029271185;-0.004021397;0.00017842837;0.11616832;0.03669286;0.059351772;0.021184124;-0.014210461;0.08599173;0.03164888;0.009382164;-0.03133322;0.05447459;0.091615714;0.09499755;0.091670774;-0.17742383;0.06043235;-0.15745315;-0.033809565;0.0015336848;-0.008116671;0.060837176;-0.23099126;0.0089675905;0.021251284;0.11287909;0.014135872;0.039803598;-0.023588765;-0.013482415;0.08042491;0.10894885;0.052217107;0.061423663;-0.004191118;-0.07497743;-0.06896633;-0.023749707;0.047659587;0.0063699046;0.033455994;0.018294148;0.046978954;-0.010234223;-0.056074154;0.010178718;-0.06246582;-0.002373474;-0.025477095;-0.059332613;0.31771222;0.038891815;0.05787786;0.041972414;-0.010659753;0.028643394;0.0389768;0.012171575;0.18786731;-0.0062785605;0.16195174;-0.050971948;-0.11171196;-0.013072035;0.017272748;0.061331052;-0.07344103;0.075590335;0.013667841;0.06271533;0.10650306;-0.07606234;-0.06345515;0.006861276;-0.1679239;0.019302942;0.02751045;0.017080473;-0.030373631;0.08117581;0.018990189;-0.042580046;0.04509862;0.024435094;0.02481873;0.050019078;-1.2968114e-05;-0.04886603
-0.06662952;0.01941194;0.085331574;0.16259293;-0.045259677;-0.058388613;0.009454602;0.056394987;-0.1807929;0.23571883;0.05449554;-0.1059659;0.057194814;0.059641205;-0.041098025;0.03403484;0.19819419;0.11168143;-0.02195519;0.013426797;-0.03658666;0.023169085;0.08298074;0.15213776;-0.053159922;-0.027182002;-0.044645224;0.011018248;-0.045021486;-0.012478114;0.086665384;-0.03628386;-0.047527805;0.019981038;-0.032848373;-0.071355715;-0.021013202;0.057066232;0.074692465;0.080816306;-0.000507787;0.1112193;0.29611033;-0.01668181;0.16291396;0.13786605;0.035464082;-0.024489658;-0.105967715;0.07887996;-0.24264608;0.031253293;-0.37192833;0.0865682;0.076694205;0.009695771;0.010839552;0.051208097;0.11265169;-0.006436824;0.006220786;0.019096164;-0.04446121;-0.059086442;0.010389285;0.05224869;0.018882653;-0.10615715;-0.006589057;-0.09118087;0.0007842556;0.04941535;0.005405759;0.08082819;-0.09360014;0.03606327;-0.10671441;0.010402013;-0.1915489;0.21686749;0.071405835;-0.02743905;0.028974405;-0.014569265;0.09948968;0.030296188;0.0598189;0.10027407;0.02193242;0.101355426;0.004348969;-0.27355254;-0.05497904;0.04736229;-0.010786988;0.06280235;0.13705014;0.016429259;-0.1277253;0.092269495;-0.02689923;0.09236771;-0.11166525;0.047206484;-0.06812342;0.077399254;-0.06071542;0.07758582;-0.0033491664;0.011522985;0.0056906836;-0.024624102;-0.05678514;-0.05502184;-0.06292907;0.015334651;0.04388385;-0.10619817;-0.15496106;0.040290676;-0.008122382;-0.0154001685;-0.08541293;0.006146889;-0.043349825;0.03978207;-0.09223141;-0.13162906;0.07776657;-0.022602037;-0.029181542;-0.058627643;0.002881548;-0.0047063394;-0.27308103;0.008174571;-0.03955554;-0.0644543;-0.050316673;0.06279827;-0.043762263;0.077112325;0.04272916;-0.043481577;0.009186282;0.05723652;0.11497354;0.063146554;0.07756173;-0.037605442;-0.06931358;0.06559288;0.08531525;0.05993685;0.047612827;-0.090592325;-0.12340653;-0.06475856;0.07867482;0.027968312;-0.011141742;0.06310835;0.034217175;0.054189295;0.23931228;0.086394124;-0.13823424;0.11900055;0.11614495;0.021134498;0.10484744;0.07971467;-0.00052880467;-0.05022104;-0.07249179;-0.0024670465;0.031839214;0.052323796;-0.13528156;-0.06555933;0.16703889;0.31127644;-0.042760152;0.057866476;0.14489362;0.0870222;-0.0586518;0.047662318;-0.062163495;0.061739177;0.08097934;0.061244532;-0.13802736;0.054761853;-0.13352674;0.30384874;0.06644007;-0.04675949;-0.067569606;0.23072474;-0.079394765;-0.012590995;0.083187014;-0.022634067;0.11927755;0.059910364;0.0926433;-0.13459429;0.002441453;-0.27643415;-0.06503983;-0.046580076;0.03125676;-0.19810663;0.054419503;0.18282932;0.06495657;0.0045086555;-0.17494704;0.048051354;-0.00094157597;0.10077923;0.10207596;-0.044610605;0.08996946;-0.04210915;-0.0674576;0.034380145;0.012824546;-0.07972559;0.016331675;-0.045049466;-0.011695797;0.24553101;0.03333757;-0.036833275;-0.046060763;-0.13794862;-0.058061816;0.0001950745;-0.25366053;0.054757312;-0.03163877;0.045992948;-0.07765984;0.024078121;-0.03482434;0.088915706;0.09447391;0.07979643;-0.008277516;-0.10255408;0.011589236;0.06039092;0.10209172;0.07612308;0.0044197515;0.019454183;-0.04503857;0.101582035;0.0061344174;0.0708899;0.054034907;0.11999994;0.029246697;-0.013171819;-0.09377297;-0.19402242;0.00026674924;0.03528864;0.04249701;0.007685506;0.09393623;0.15001717;0.009009364;0.14982316;0.06308828;-0.0004960312;0.0029257126;0.047511317;0.13072518;-0.039722767;-0.016531417;-0.05177775;-0.038290333;-0.06941141;-0.13599572;-0.039213832;0.080441624;0.0036595266;0.013136326;-0.0076277847;-0.18489918;0.047168277;-0.040652357;0.014547531;0.055407997;0.02801697;0.077504665;-0.037840992;0.0043188166;-0.02061857;0.064261384;-0.051161144;-0.10708511;-0.02161231;-0.050119817;0.06269688;-0.06590679;0.081829704;-0.059193593;0.04011166;0.015347709;0.3780506;-0.14275265;0.046667036;0.025597448;-0.052054647;0.028635722;-0.04867598;-0.0018822325;-0.070953555;0.03728289;-0.020844026;-0.009001916;0.036375716;0.15010862;0.076119624;-0.04274383;0.11405283;0.06031107;-0.04051203;0.052303877;-0.048063193;0.09257344;0.14603494;0.011470062;0.001462936;0.022247901;-0.018774308;-0.05424739;0.09320018;0.062478814;0.041197494;0.039787605;0.032013338;0.020344038;-0.023370882;-0.00212309;0.06337886;0.06951255;-0.05775759;0.07480219;-0.034295544;-0.05615754;-0.023216685;0.011785647;0.03046202;0.022270186;-0.05811071;0.022738874;-0.05761548;0.045791615;0.034361772;-0.16036476;0.079751775;-0.04480317;-0.03487858;-0.0141392285;-0.060639836;-0.13031271;-0.0048277313;0.17069344;0.05164643;0.07409049;0.066192836;-0.06005173;-0.03731847;0.00076997204;0.20512614;0.06934521;-0.03835284;-0.042776387;0.0030589446;-0.059718154;0.08444289;0.12257744;0.027849672;0.005683795;-0.085130356;0.01788304;0.035695355;0.025548508;-0.045345254;0.15336819;0.04521291;0.079018965;0.11593232;0.11338852;0.04936714;0.005129093;-0.03206866;0.02473316;0.16255611;-0.25139412;-0.28947312;-0.042265285;-0.024354652;-0.08992414;0.11746452;0.13941899;-0.06381599;-0.07820346;-0.03762;-0.0472427;0.03091027;0.059766166;-0.061012812;0.07460824;0.022253469;-0.0016398802;-0.025612287;0.054591585;-0.057098594;0.08594915;0.11260212;-0.013258217;-0.002342155;0.09307021;-0.035851948;-0.021876935;-0.046919897;0.06763969;0.060919836;-0.039677605;-0.06746971;0.02620264;-0.014066568;-0.063003615;0.061383434;-0.010446158;0.07182148;0.032980397;0.06713697;0.13757855;-0.04980287;-0.17618549;0.00048957317;0.005584152;0.062154192;-0.037597;0.072098024;0.1102295;-0.03840198;-0.067197405;0.09828617;0.081855424;-0.15594754;0.016939593;-0.06317385;0.086087614;0.059051536;-0.0057836385;0.03883351;0.07739958;0.20026137;-0.22386982;-0.07465764;0.10009703;-0.04220067;0.032453567;0.017408583;0.07396698;0.088012785;0.08109538;-0.0022691453;-0.00083613285;0.19701587;-0.055939518;0.117314614;0.059241537;-0.03110405;-0.0051004533;0.027696155;0.059800774;-0.038089033;0.08573568;0.03131328;0.00082060444;-0.04879449;0.014971886;0.020239282;-0.066021;-0.071173824;-0.047403764;0.021841474;0.0010821696;0.08840282;0.032700166;-0.04597419;0.17573972;0.0887166;0.12789391;-0.18616012;0.031570286;-0.19355805;-0.010893241;0.057080276;-0.068251014;0.0014196966;-0.33990782;-0.05747728;0.056901317;-0.03530467;0.016958354;-0.040605403;0.14812353;0.13170408;0.019328097;0.01060188;-0.03284785;0.07505545;-0.04839539;0.17075194;-0.060221396;-0.022842498;-0.07741266;0.004158514;-0.11082067;0.10789273;-0.003897244;0.041052017;-0.084590316;-0.053095732;0.035590477;-0.07210648;-0.020307483;0.071494974;0.34114653;0.12577033;0.035620835;0.10827326;-0.05050525;-0.033925004;-0.05586001;0.113102816;0.25434065;0.08714596;0.25594464;0.05190445;-0.113797575;0.07605833;0.0123362625;-0.00025361692;0.028637355;0.10178745;0.07474267;0.12975542;-0.023260117;-0.08765219;0.00092870195;0.11130949;0.090998255;0.04113937;-0.01421662;0.059761927;-0.025051942;-0.006404473;0.20920458;-0.08248698;-0.030508853;0.049486864;-0.07271366;-0.036684938;0.0032739942;-0.014844787
0.039850507;0.065000325;-0.08919809;-0.12328486;-0.06956965;0.08778907;0.0038065417;0.2880802;-0.018947199;0.08227393;0.07775967;-0.024589129;0.053894643;-0.04410168;-0.06987602;0.05186419;0.20951419;0.009347492;-0.01415524;-0.064542;-0.009270508;-0.04082391;-0.04639943;-0.053784084;-0.079505995;0.026281541;-0.012139996;0.11874606;-0.27699775;0.025098475;-0.03278213;0.08338976;-0.06754291;0.0935098;-0.053717066;0.0029178227;-0.044373356;0.044462513;0.016779538;-0.042786166;0.038170148;-0.06943702;0.13470124;0.01669546;-0.08831447;0.0910545;-0.055800054;-0.0005030759;-0.0016889677;0.18563418;0.20088449;-0.034396764;-0.09916429;0.018916078;0.14239086;0.13063025;0.03380987;0.07428943;-0.22353838;0.048559383;0.06787211;0.031213043;-0.028609382;0.03796316;-0.09006487;-0.00831797;-0.06685841;-0.11053388;-0.013183244;-0.03171425;-0.07441476;-0.059306502;0.06555154;0.025692862;-0.06284887;-0.13358407;0.10428354;-0.06609397;-0.30883908;0.092015825;-0.03287841;-0.109740816;0.014423863;-0.021175465;0.14133555;0.11971931;0.009570124;0.06771705;0.0049591325;0.037183043;0.049098045;-0.0077610747;-0.19357301;-0.0047403723;0.04409068;-0.046816584;0.021236772;-0.042047467;0.08689903;-0.039684456;0.2361545;-0.02606923;-0.11756357;0.015302548;0.0133512905;-0.06515696;0.042894427;-0.014950555;0.00030844173;0.048908543;-0.08353366;0.053524658;0.059612256;-0.0761005;-0.045279037;-0.026061133;-0.04416245;-0.05314786;-0.19512324;0.007170113;-0.00196015;0.015646014;0.18236034;0.011496045;0.026073035;0.017205272;0.040425897;-0.20391078;0.06766456;0.09614923;0.019112863;0.06919415;-0.0032585748;0.006499975;-0.17758301;-0.072745204;-0.06687101;0.077872306;0.034745727;-0.04165089;-0.016461689;-0.0028701765;-0.15843554;0.014925321;0.021204883;-0.01346152;-0.026361816;0.015440872;0.029402994;0.044790134;-0.21394433;0.12022519;-0.062310647;0.09019673;0.07040947;0.07445996;0.024277445;-0.07560913;0.01890196;-0.073295645;0.09155074;0.20121302;0.058008913;-0.18327518;0.08299398;-0.004682693;0.11752114;-0.008834932;0.10995011;-0.059998285;0.12692131;0.043807212;0.12377128;-0.029493794;0.013787029;-0.018415015;0.10022309;0.06474217;-0.0983647;0.0029994296;-0.13650157;0.11897822;0.03937942;0.09401937;-0.08563873;-0.026523808;0.016636642;-0.045234106;-0.02217793;0.08852047;0.01869512;0.06150589;-0.012347483;0.02839547;-0.19437629;0.11305506;-0.05508652;0.010663893;-0.031702943;0.07647904;-0.026634412;0.04387406;0.0021113893;0.041856702;-0.04612929;0.043387838;-0.14621209;-0.19151996;0.06443665;0.012967338;-0.066038795;-0.0171284;-0.0619455;-0.18191028;-0.028256245;0.0137844905;0.081131;0.03048155;-0.051543288;-0.040466666;0.023102775;-0.18469393;-0.06212693;0.10550999;-0.11230397;-0.022240205;0.03132151;0.04365209;-0.004911732;-0.08699737;0.040195335;-0.003684593;-5.6796493e-05;0.2786038;0.032806963;-0.003562196;0.050023835;-0.09576893;-0.047352307;0.016100647;-0.14535172;0.09031537;-0.06508775;0.043980513;-0.25810176;0.09746153;0.077246405;-0.020576015;-0.046613097;0.05084017;0.17202263;-0.04183462;0.06495782;0.07901285;0.015260307;0.024350561;0.11679834;0.060598005;0.038183365;-0.10054034;0.0036427595;0.04092318;0.04715196;0.06313727;-0.027106356;0.0075222887;-0.14392798;-0.109720126;-0.19402684;-0.062144544;0.010740494;-0.03794075;0.1121614;-0.04661015;0.16183046;0.007212085;0.08073836;0.08230263;0.08261419;0.10017983;0.14255776;0.044496216;-0.051642902;-0.10801679;0.02062702;-0.01544598;0.1294856;-0.018375814;0.048053574;-0.049311873;0.027988985;-0.1761892;0.07907968;-0.025198592;0.037980825;0.00017401428;0.06718278;0.085968286;-0.012146904;0.06724334;-0.0053101033;0.013060598;-0.03173165;-0.022653382;0.24846853;0.08037546;0.08374437;-0.0032864967;0.046585493;0.0045391703;0.080369405;0.01897103;0.05644345;0.42981014;-0.04912607;0.02496177;0.019539582;0.051085338;-0.041332323;-0.0056395982;0.046580978;0.35074252;-0.07668592;0.10786271;0.035871472;-0.086262524;0.18968333;-0.06423825;-0.03182404;0.019764489;0.0068860725;0.105757676;-0.038252458;0.06569563;-0.07403943;-0.08361078;0.044324275;0.0005661569;0.06296604;0.04649497;0.09762129;-0.07500709;0.18415782;0.096592195;0.04812981;-0.08487262;-0.07094098;0.049049232;-0.07086334;-0.09084162;-0.040414978;-0.061640378;-0.029642044;0.09495389;0.06430675;0.012924475;0.021690132;-0.061158255;-0.026246816;0.06110097;0.04733893;0.032069433;0.08152388;0.030357677;-0.11809901;0.017001083;0.027419005;-0.063111514;0.28780994;0.02208337;-0.1802044;0.044037387;-0.18702047;0.079055704;0.003188359;-0.045177273;-0.025278812;-0.07000203;0.010991823;0.006774409;-0.05760964;-0.046642575;-0.069341846;-0.0010958674;0.05974858;-0.002343898;0.29743955;-0.040755883;0.022214899;0.02933958;0.015794864;-0.023738055;-0.00417553;-0.013029539;-0.07559696;-0.0023268738;-0.017172808;0.029952787;0.027958062;-0.023846036;-0.060634874;0.031751752;0.09609368;0.14382918;-0.23480862;-0.18032095;0.0047296598;-0.07824504;-0.13312745;-0.04353666;-0.09438098;0.027154252;-0.025722552;0.066822514;0.04672561;0.10950962;-0.0760014;-0.13002338;0.059970718;0.06889301;-0.022847774;0.045713767;0.05504365;-0.041502465;0.14011782;0.10385465;0.001105879;-0.05262432;0.20379949;0.07201339;-0.00551409;-0.017435364;-0.042931367;0.071813315;0.016400214;0.09606814;0.005049854;-0.056228604;-0.065924264;-0.008946209;0.00085111335;-0.04984547;0.031498224;0.15285124;-0.10158908;-0.07849965;-0.028944036;-0.09813119;0.00043606662;0.01788646;-0.024834964;0.07108992;0.033294894;0.025825083;0.070263036;-0.10965036;-0.073605224;-0.058321632;-0.02975482;-0.049936432;0.07118703;0.14286877;0.0754566;-0.009880867;-0.06725364;0.088441625;-0.27891856;-0.03782004;-0.008104803;0.03596285;-0.085083485;0.047244024;0.0031938916;-0.12286451;-0.06364987;-0.06486908;0.0046419865;0.08523501;0.03421419;0.093317516;-0.115412846;0.08780139;0.11363894;0.015857236;-0.00011948575;0.04827943;-0.19351685;-0.09843783;0.07917919;-0.006237902;0.02250554;0.029334199;-0.049097463;0.016007772;-0.091684155;-0.008157336;-0.08362245;0.025301661;-0.101704374;0.0022995893;0.17760696;-0.044785492;0.061222978;-0.18162268;0.060603313;-0.22958577;0.040284485;-0.063902736;0.06899335;0.037245575;0.010810987;-0.0011364401;0.0033974403;-0.13481405;-0.023971695;0.043278936;-0.0018092305;0.017945476;-0.09600787;0.06914227;0.05430969;-0.040189814;0.0110106105;0.30907825;-0.04760597;-0.083415076;-0.011773099;0.008717142;0.09330863;-0.077158816;-0.08141029;0.002202078;-0.07100049;-0.009996958;-0.03592516;-0.02900228;-0.032358803;0.021625865;0.032018375;0.01919018;0.12900192;-0.22296129;0.01020285;-0.054452877;-0.09219386;0.18660972;0.30523077;0.03410654;0.197355;-0.009342815;0.03264373;-0.0651756;0.04608193;0.082264334;-0.0005842526;-0.104768254;0.054734454;0.09474849;0.07180809;0.0028874993;-0.067034625;0.021356426;-0.11306291;0.047734484;0.04117509;-0.06259943;0.0042120726;0.008664185;-0.029683752;0.04308632;0.07448561;0.006005909;0.02926733;0.04761794;0.098848455;-0.21506305
-0.052981287;-0.048988532;-0.027146464;0.039214447;-0.084859334;0.06824313;-0.070221014;0.12340363;0.018399524;0.12423621;-0.03344634;-0.110996775;-0.0132177705;-0.02988214;0.019749356;0.047371473;0.13633838;0.003811323;0.009825374;-0.018740628;-0.002637577;0.039845087;0.022000711;0.05391513;-0.044731244;0.04135629;0.038142923;0.10724664;-0.06639195;-0.013317251;0.037469175;-0.079487965;0.088361084;-0.02218727;0.065849006;-0.010247603;-0.024673937;0.003699365;0.051969647;0.10733295;0.119198434;0.055652153;0.24405946;0.06110786;0.04454262;0.02469884;0.046004254;-0.0058113304;0.01675296;0.083298475;-0.32951918;-0.024103586;-0.625416;-0.013093483;0.08964932;0.25016722;0.020835105;0.033209432;-0.06649125;0.032159064;0.013227338;-0.06573421;0.11595354;-0.026508583;-0.0009934632;0.019472525;0.15470298;0.06342365;0.071914144;0.07449416;-0.10423954;0.028524203;0.034237675;-0.04776831;0.22533943;-0.018316919;-0.13119967;-0.036820948;-0.041231975;0.02736885;-0.0514836;0.003241937;-0.013558183;0.023430442;0.13432683;-0.004814027;-0.019186962;0.01933305;0.08255492;-0.005562051;0.07000127;-0.38808838;-0.1492847;-0.030960271;-0.0027795858;0.07032152;0.078803554;-0.060383257;-0.32019904;0.0020530415;-0.098388456;0.09316539;-0.014481989;0.0017224356;0.057019435;-0.045155015;0.0004140049;-0.032750033;0.027015625;0.045813207;-0.0029468222;0.034174208;-0.005051389;-0.05142888;0.03330818;0.013880652;0.05756586;0.0035140696;-0.10155546;0.07487824;-0.010598041;-0.055872884;0.16330351;-0.05925299;0.04591059;-0.04137765;0.03152464;-0.1693417;-0.026425418;-0.040328965;0.0072283233;-0.15128756;-0.02422038;-0.038191766;-0.1740888;0.036986116;-0.038495146;0.09955611;0.102829084;-0.025565736;-0.055729188;0.034942582;0.028821114;0.059724335;0.0366605;0.056226537;-0.0049064686;0.068945035;0.026636193;-0.031750992;-0.27301884;-0.04261279;0.09126774;-0.09121051;0.018339006;-0.028521571;0.094171114;0.050762393;0.049453873;-0.15679348;-0.05899832;0.01686194;0.063495755;0.059232216;0.07287724;-0.063602544;-0.107825644;0.052563284;-0.048720952;0.09344331;0.07244335;0.0748303;0.14321564;-0.060332306;-0.029117774;0.06463037;0.0028582765;-0.019843517;-0.122797385;0.09236771;0.13580087;0.07547628;0.025413113;0.12748541;-0.2092726;0.021214351;-0.09290184;0.06895757;0.02669981;0.07922406;0.037309762;-0.06376737;0.1765439;0.022780592;0.051079366;-0.018403374;-0.04692048;-0.08900266;-0.034036126;-0.08025646;-0.0042985016;-0.06735105;0.001310818;0.06848012;0.15788673;0.010543862;-0.066065684;-0.12498479;0.07517091;-0.41902012;-0.078258716;0.0519121;0.07205964;0.0034757282;-0.026845966;0.09061036;0.027893685;0.027090985;-0.09297942;-0.052871294;0.01641838;0.18418272;0.06527814;0.062033635;-0.08454341;-0.0003567474;0.084821194;-0.14357719;0.016192125;-0.007978792;-0.02599449;-4.3636934e-05;0.0982892;0.1920795;0.003928593;0.010591593;-0.04901167;0.04551947;0.056825135;0.04133728;-0.0980054;0.01577176;0.075861275;-0.03837895;0.09294244;0.06275193;-0.042285647;-0.05810712;-0.011536702;0.02021211;0.0949415;0.012134294;-0.051444605;-0.045069963;0.022589909;-0.08915158;0.061249387;0.007825251;0.036332823;0.2956492;-0.023911681;0.006490627;0.013501165;-0.078607395;0.059038267;-0.10019745;0.008687853;-0.03204058;0.12499441;0.07244474;-0.02624;0.031992845;0.057954244;0.13298112;0.03761029;0.034183815;0.16051288;0.014829944;0.07002525;-0.023831034;0.022239154;-0.030349432;-0.11621621;-0.08384246;0.05412521;-0.061783455;0.02169453;0.023660796;0.04004017;0.060568273;-0.1004918;0.19590318;-0.40803188;-0.05568766;0.02923745;0.018741142;-0.108822264;-0.0303504;0.03627635;0.039422534;-0.03421813;-0.0058853556;-0.07219145;-0.0011332836;-0.17710204;0.059806213;-0.10805513;0.037583183;-0.04007395;-0.17942697;-0.106229335;-0.017202819;-0.03991775;0.30453944;-0.09967087;-0.07581185;0.09075393;0.021016333;0.060210582;-0.024454232;0.097900696;-0.15637553;-0.06619842;0.20306395;-0.019615771;0.0038622953;0.12346834;-0.05560276;-0.056154665;0.043270852;0.05767334;-0.04736947;-0.043499675;0.03384377;-0.008045978;-0.040470917;0.060156316;-0.014198342;0.23534837;-0.027208779;0.041849725;0.036583044;-0.033192713;0.06431046;-0.05753778;-0.06715825;-0.053955697;-0.0011711663;-0.040133644;-0.04415205;-0.022248091;0.023283482;-0.05811548;-0.046310127;-0.044372935;-0.05037318;-0.065877296;0.008188326;0.060708184;-0.030668842;0.14553614;0.084054485;-0.035129268;-0.0065175295;-0.02659962;0.0817309;-0.03173011;0.015813127;0.09784721;0.07064359;-0.16740151;-0.015544561;-0.11509863;0.0544547;0.034360327;-0.060165823;0.020935249;-0.041352075;0.05504892;0.008847416;0.053660408;0.055103157;0.022054175;-0.016341101;0.11513023;-0.024496589;0.3435723;0.043151386;0.04694245;0.032895472;0.023342751;0.05765807;0.002539551;0.018145021;-0.013223751;0.1160232;-0.02228112;-0.061640393;0.1327653;-0.08243151;0.01084533;0.010482205;0.14076778;-0.12074481;-0.33215407;-0.27440432;0.059900805;-0.10426327;-0.054004088;-0.076114275;-0.02539099;0.050941423;0.07892629;0.035958778;-0.049986694;-0.03705874;-0.05455735;-0.140884;0.025890384;0.038404178;-0.011745669;0.016669022;-0.03383305;0.09515625;0.11996268;0.23490402;-0.03142765;-0.014203087;0.103366196;-0.06466601;0.053358003;0.00070953637;-0.039212342;0.03856879;-0.0089028645;0.0034481953;-0.046860587;-0.035021577;0.050294556;0.20137714;0.024105787;0.04781717;0.001426449;0.029535878;-0.046842743;-0.004966477;-0.16806139;-0.10924284;0.092822604;0.07694017;-0.12187631;0.0042470316;0.07753218;-0.0025060782;-0.008065442;-0.09040019;0.00057854527;-0.12850301;0.027308732;0.025747702;-0.061756466;0.06447973;-0.048934016;0.07891367;-0.0850362;0.3515277;-0.114802524;0.0876869;-0.06627104;-0.022839889;-0.3878943;-0.05518274;0.058806054;-0.02699053;-0.048909806;-0.047658246;-0.053040233;0.0018404785;0.10526398;-0.045260284;0.0138708325;-0.06465092;-0.0551671;0.014441211;0.076668404;0.046408664;-0.13638459;-0.06020303;-0.026822079;0.015705796;0.03908704;0.11691674;0.04195957;0.003780573;0.08267219;-0.021511478;0.012617028;0.013464815;0.126384;0.077612005;0.029943312;0.0856538;0.10185481;-0.16024445;0.057717938;-0.26653048;0.028221253;-0.034688745;0.029601356;-0.086923935;-0.10910408;0.062188476;-0.047501456;-0.030461174;0.08952798;0.049069863;0.09774272;-0.03303726;0.026932228;-0.03310093;-0.08556758;0.047594752;0.0006320966;-0.15633892;-0.011444759;0.021100234;-0.08781962;-0.06167699;-0.11357503;0.0148466835;-0.0008927473;-0.057665035;-0.08299177;0.024885885;-0.027531076;-0.03942952;0.055787906;0.039363325;0.086922854;-0.021120762;-0.0002603229;-0.016201649;0.020123865;0.09987401;0.01049735;0.15997438;0.24043027;0.09414696;0.09465856;-0.042300075;0.07019892;0.008391094;-0.089025944;-0.0063441643;0.01549248;-0.025437757;-0.062870815;0.26705596;-0.049481872;0.051166292;0.008589008;0.038302306;0.22029434;-0.060480144;0.0012168587;0.04898511;-0.058012713;0.014208625;0.13303791;-0.06955327;0.025560167;0.029104626;-0.007103126;-0.056753643;0.106264934;0.053933185
0.0745092;-0.05125794;-0.05053792;-0.033799745;-0.14660606;0.0076879235;0.04793174;0.29575056;0.11406506;-0.0030107351;-0.08102065;0.023144422;0.042953018;0.069691956;-0.04079889;0.10287959;0.0024058446;0.03699584;0.12596457;0.042412914;-0.005643955;-0.044597633;-0.058571447;-0.08098872;0.021044375;0.004169217;-0.026307566;0.08865362;0.040829632;0.12016641;0.04949882;-0.026346808;-0.030199545;0.03585315;0.17797941;0.09826604;-0.068867065;0.037134476;-0.047418874;-0.063481785;0.17283362;-0.09861427;0.056200944;0.061117604;-0.011875002;-0.062233075;0.006767267;0.08242926;-0.042120293;-0.2098594;-0.22140104;-0.043913536;-0.2199191;0.028269151;0.2256695;0.10980483;0.029363513;-0.051976338;-0.24315403;0.07494052;0.03929719;0.05750681;-0.01724946;0.017867591;-0.043599475;0.004017713;-0.06210218;-0.08895222;0.052412502;-0.0354219;-0.101034656;0.096336946;0.0035789895;-0.058652867;0.21096186;-0.073693424;0.010632107;-0.17471947;-0.29629615;-0.1028617;-0.048341595;-0.07402664;-0.1792796;0.0547789;0.10024597;0.10307541;0.033363093;-0.011507626;-0.035800505;-0.03196172;0.02227055;-0.093055196;-0.17000116;-0.021776397;0.06350802;0.046747085;0.08537743;-0.03624901;-0.15090798;0.074640416;0.18648626;-0.05244883;-0.20438994;0.08722573;0.047690213;0.027355138;0.070666246;-0.21081237;0.12301247;0.0030162109;-0.007926623;-0.087035984;-0.013483544;-0.08323125;0.0051672673;0.029689815;-0.10297473;0.061025947;-0.22445649;0.047246363;0.028402656;0.05729773;0.08768272;0.003106477;-0.0051354226;-0.006158078;0.04648558;-0.10320083;-0.030102862;-0.029008994;-0.015473956;0.09422753;0.030801075;-0.024080511;-0.2802527;-0.089674585;0.0080407085;-0.14631902;-0.008027753;0.10050288;-0.041904174;0.004725428;-0.04590223;0.025719227;0.005984083;0.025287412;0.1075152;-0.06335166;-0.13265361;0.033018894;-0.3318067;0.0052685486;0.050875604;-0.051570427;0.046939354;0.11229862;0.21279557;-0.045839302;0.08990437;0.025929715;0.03630353;0.11174002;-0.0008499061;0.049874842;0.13440345;-0.06444264;0.12333275;0.014306251;-0.016339786;-0.05396458;-0.2042336;-0.012623644;0.12778342;-0.01117459;-0.07024675;0.13652092;0.046480738;0.092072144;0.03164785;0.07348518;-0.05321919;0.14189804;0.010480881;0.1381017;-0.078325205;0.035222508;0.01380934;0.051790375;0.055942263;0.026673978;0.0377597;-0.033684213;0.22662416;0.09128951;-0.164827;-0.08676044;0.015750682;0.0034593004;0.11037373;0.048907287;0.056571078;0.024954462;0.05582267;0.077915564;-0.07838539;0.047371514;-0.24275166;-0.21140616;0.029762687;0.033593018;-0.039319415;0.005228339;0.08804325;-0.16103376;-0.01686562;0.011279652;0.010251207;0.06501035;-0.02848744;-0.06964382;-0.04698258;-0.1274454;-0.15995704;0.023085827;0.008834741;0.06481284;-0.02899309;-0.07613426;-0.049927954;0.063482516;0.06185602;-0.046399083;0.12343264;0.033315495;-0.056466907;-0.117349826;0.07316709;0.064633295;0.07079295;0.16132146;0.15595555;0.006143297;0.01166613;0.045381695;-0.058091376;0.19592127;-0.002579894;-0.005009418;-0.083817266;0.08943768;0.13438365;0.24316275;-0.10557485;-0.0912757;-0.073043615;0.08730126;-0.067281835;0.06695789;0.023266146;-0.064312026;0.056935582;-0.023609675;0.0063713514;-0.030988488;0.036402646;-0.047823545;-0.21928874;-0.04450774;-0.11533213;-0.03301264;0.057413977;-0.04394852;0.011056455;0.113681436;0.07055363;-0.1894892;0.011282563;-0.039200258;-0.016505795;0.0566207;0.05071103;0.028258951;-0.008835535;0.015173436;0.092114605;0.03732416;0.22164938;-0.093276225;-0.02586054;-0.110054515;-0.0672871;0.08973423;0.108589746;0.07380253;0.02348825;0.001114481;0.054307852;0.024410063;0.082355715;0.009164485;0.042719267;-0.063145;-0.054453105;0.051505115;0.12965809;-0.011941187;0.042488612;0.09295423;-0.04137936;-0.22832622;-0.085154;-0.04538201;0.00979306;0.19193807;-0.16173907;-0.090435974;-0.030939303;0.12497023;-0.032979753;0.11263615;-0.009734979;0.09813612;-0.016079891;0.2739831;-0.05859654;0.009960365;0.04503972;-0.018018669;0.035730124;0.035241485;0.082114585;0.072197266;0.013188587;-0.025168765;0.0038843474;-0.061306678;0.022293095;-0.038518555;0.18545456;0.07540204;-0.09009714;-0.07053977;0.047973886;0.060453013;0.05256668;-0.01633598;-0.10397745;-0.021049412;0.057049137;-0.018862309;-0.037693836;0.039472412;-0.039345503;-0.05823361;-0.008900376;-0.03077159;0.040215407;0.09250893;0.00075930014;0.06108354;0.13985522;-0.02990004;0.0119851455;-0.0043320684;-0.078278325;0.03662258;0.079783805;-0.104014724;0.14679994;-0.08630419;-0.11079183;-0.09069439;-0.12328381;-0.04929953;-0.08628394;0.0574168;-0.07166008;-0.18664564;0.023543634;-0.089861706;0.053572517;0.082974136;-0.06418288;0.086516164;-0.05301964;0.052106448;0.24906956;-0.07734192;-0.02813926;0.0567204;0.083009645;0.015890826;0.018692713;0.13945986;-0.06174882;0.043782976;-0.004566074;0.007844918;0.078321055;0.058075145;0.058336437;-0.08222548;0.07748365;-0.039768856;-0.21973443;-0.15610778;0.005056878;-0.14601353;-0.11694996;-0.064420514;-0.029784825;-0.0762977;0.017017059;-0.09482439;-0.060080834;0.007246213;-0.020872327;-0.34548205;0.041481532;0.09879204;-0.1304816;0.07714369;-0.052421864;0.10288425;0.06416385;-0.032396983;0.029356966;0.06423238;-0.060049035;0.10435176;-0.06995981;0.003381582;0.07012263;-0.039262332;-0.08272666;0.012203217;0.044717427;0.10335902;0.020341005;0.055569995;-0.08689446;-0.024579788;-0.015694657;-0.033982955;0.09735988;0.024801007;0.038947444;-0.115934975;-0.022730429;-0.04647066;-0.09287633;0.063545436;-0.019701594;-0.08513199;0.117149316;-0.23943976;0.016310534;0.15786122;-0.04023285;0.060479946;0.01213538;0.07947005;0.02851596;-0.08570755;0.10907353;0.11607234;-0.2893564;0.14813861;-0.13721924;0.024123184;-0.18259177;0.036965244;-0.06946624;0.050497416;0.011756654;0.05155088;0.04104686;0.17610092;-0.0027594776;0.058059834;-0.23475792;-0.02553575;0.13574226;0.1478834;0.0050886204;0.011732567;0.009639869;0.07026388;0.095653445;-0.003926343;-0.03871562;0.022714503;-0.014767751;0.041033488;0.015441512;0.10357165;-0.08719397;-0.0039994437;-0.065994404;-0.037479065;0.09134391;0.029744541;-0.121903904;-0.17336029;0.010110607;-0.043809485;0.035838522;-0.16534996;0.23860256;0.044565253;0.050011624;-0.004798942;-0.007307554;-0.16055426;0.16097303;-0.08917842;0.14241524;-0.007656913;-0.09014587;-0.06787178;0.020545803;0.016923213;0.14971368;0.23794623;0.06192706;-0.07136641;-0.030859133;-0.0068373745;-0.03010149;-0.08272792;-0.05169469;0.05494475;0.08381766;0.07032686;-0.055924796;0.089838445;-0.038606104;-0.04443596;0.008404056;-0.04497697;0.018463707;-0.25706404;0.053378902;0.014271009;-0.10231944;0.1527715;0.0931847;0.0456301;0.17447656;0.0584727;0.004209946;0.018040318;0.0054621086;-0.083592124;-0.039772;-0.12249852;0.09228069;0.027042625;-0.034044072;-0.16991763;0.083485246;0.056722164;-0.14454164;0.05929519;-0.040444557;0.05477784;-0.0008093213;-0.041831154;-0.024074344;0.12386573;-0.031065792;0.008339496;0.09484255;-0.006532685;0.01904078;-0.08835734
-0.039825607;0.014889436;0.0030840053;0.37564126;-0.3630428;0.026245646;-0.049113214;1.0458755;-1.9715592;0.3614568;-0.14877589;1.2495074;-0.0930181;-0.11065715;0.03672782;-0.1948821;-1.0106834;-0.053292986;-0.09671621;0.13887046;-0.13428633;-0.017486438;-0.034054957;-2.195641;0.114114314;-0.04267383;-0.015669877;-0.015865251;-0.8460768;-0.14198275;-0.025652796;-0.31118426;0.0816106;0.04192211;0.2554678;0.09749894;0.031480707;-0.07548131;0.08785112;-0.056730554;0.051845804;-0.5724375;0.33387136;-0.085862145;-0.0073700887;-0.073923096;0.4659898;0.01938591;0.8747181;1.4582855;-0.62834406;-0.054017387;-0.73106325;-0.051535062;-1.3020653;-0.9798245;-0.09900441;0.13942194;-1.1774654;-0.08524679;-0.011683751;0.0055235582;-0.06850747;-0.06351278;-0.0074967835;0.39437288;-1.56646;0.28697607;0.008484108;-0.03192087;-0.053091038;-0.076352246;-0.0046033887;-0.05267365;1.9929525;0.28249955;-0.06556947;0.45977032;-0.39454812;-0.20727886;0.0033592228;-0.059085265;0.61539346;-0.07524583;-1.4772991;-0.042829167;0.07999425;0.871941;-0.044086438;-0.0015496654;0.03159866;-1.0189784;0.22026259;-0.09136083;-0.055773724;-0.005135949;-0.3687378;0.12197564;1.1139431;-0.11238562;0.40697297;0.010308705;0.5345498;-0.01155684;-0.07450774;0.15051381;-0.051541433;1.1866763;-0.062108736;0.23328547;0.0488922;-0.057178862;0.07952532;0.046485487;-0.0033668163;-0.032817625;0.02973972;0.60841024;-1.1090578;0.10115256;0.111620136;-0.14980762;0.47075567;0.112238474;0.005014607;0.17734025;-0.07503164;0.7636055;-0.119102746;0.032179926;-0.02945272;-0.6087541;0.14181206;0.012826797;-0.56854707;-0.0079509;0.097606406;2.3786907;-0.09284525;-0.013739568;0.01311147;-0.18467577;0.06165963;-0.00027539505;0.23307456;0.029595004;0.363486;-0.06725727;0.2690998;0.13622746;0.60503656;-0.84574896;-0.090502135;0.6665119;-0.066961855;-0.02924893;-0.17494527;0.56011766;-0.5820823;0.2923344;0.025133751;-0.30681032;-0.07259503;-0.07999666;-1.5458381;-0.013848467;-0.9552674;0.03841146;0.02292978;0.06633802;-0.8693348;0.099425316;-1.101114;-0.12080226;0.105822146;0.018261911;-0.1848324;-0.09161372;0.13717008;-0.16554192;-0.840129;0.74103016;0.046978302;1.1784606;-0.48413363;0.01078168;-0.08879477;0.0778787;0.14588435;0.0018690977;0.25655168;0.13812992;0.9039304;-0.02358486;-0.560572;-0.8615049;-0.06569086;0.00924997;-0.076046176;-1.2092352;-0.04279959;-0.055531677;-0.0074053123;-0.04642564;-0.3309009;0.12578553;-1.1362292;-1.0901121;-0.020707479;-1.0876975;0.12899897;-0.08684639;-0.35957918;-1.346068;-0.040427756;-1.3265805;0.7723513;-2.143846;-0.17527725;-0.063012354;0.01362359;0.14162874;0.13122906;-0.0729178;0.19299294;-0.0037373826;-0.08172951;-0.13493031;-0.052727293;-0.13931076;0.03204924;0.1457534;-0.33036977;-0.44565704;-0.089989156;-0.13166362;0.049303666;-0.16114801;-0.06911274;0.3842693;-1.606285;-0.00313096;0.07336773;-0.075526;-0.44497094;-1.1336226;-0.13384865;-0.15441662;-0.03463783;-0.08385647;-0.4508978;-0.8949817;-0.05716925;0.08984422;0.025178716;0.26855117;0.13239051;0.07615199;0.10344118;0.87538195;0.06879001;0.077158496;-0.0027433885;1.5557947;-0.2446174;-0.119915;-1.4012189;-0.2850986;-0.80282205;0.09422603;0.14654733;0.015038497;-0.06506959;0.116563536;-0.21941659;0.5825917;0.3775823;-0.04994739;-0.037089173;0.079276435;-1.6526542;0.0456714;-0.2431084;-0.11327225;-0.06870356;-0.11295898;0.49057552;-0.03713464;0.10676961;0.10334969;-0.19375592;-1.6667844;-0.5574178;-0.07803218;0.1914163;0.079213634;-0.4118766;-0.061484363;0.054203324;0.013850221;-0.04335896;-0.42391115;-0.0577659;0.0132925715;-0.88547933;-0.07101489;-0.11731027;-0.026177865;-0.0040204236;-1.979197;-0.03280094;0.003921525;-0.07106833;1.1029729;0.9193243;0.042059895;-0.079905555;0.05459252;-0.058991753;0.031022392;0.02116647;0.64748365;0.10091597;-0.72485507;-0.008407796;-0.011872867;0.3111858;0.008502655;0.03448831;-0.07625203;-0.04565929;-0.051224593;-0.022621159;-0.115755215;-0.026996158;0.063738324;1.00509;0.047843114;-0.86819816;0.014141147;-0.065595835;0.03142239;-0.7154484;0.13608469;0.019024072;0.13684787;1.4032075;-0.17302956;0.023852738;0.13630345;0.052252855;-0.016689532;-0.017574383;0.10111647;0.004778735;0.088850364;0.12498044;-0.015930343;0.25907513;0.022456136;0.62920004;-0.050153065;0.09614791;-0.05756892;0.44190133;0.12013057;0.017686646;0.3724391;0.86875945;0.08565227;-0.10925303;0.017364504;-0.808017;-0.59068596;-0.037871752;-0.13013503;0.06604392;0.10482241;-0.14394788;-0.1393691;-0.0017357286;0.12847468;0.0055163368;-0.12129277;-0.0639298;-0.009387209;-0.5469263;0.10890248;0.023520939;-0.015621669;-0.09513214;0.06500077;0.034168106;0.05643032;0.34381202;0.16027534;-0.0078149205;0.45900849;-0.6127825;0.003723383;0.035318725;-0.082511455;-0.33577013;-0.07522724;-1.2859352;-0.47972357;-0.12341003;-0.62903047;1.0256764;0.012406915;0.30948728;0.14394316;0.07999211;-0.056797694;0.046239894;-0.24710986;0.086403795;-0.66359323;0.003318612;-0.09500178;-0.8877498;0.66359234;-0.74891734;-0.08961198;-0.29369864;0.23625505;0.032406624;-0.036741186;0.5214776;0.028216746;0.027955554;-0.02290369;0.124623835;-0.032809895;-0.049598936;-0.057161357;-0.13319814;0.043053333;-0.07915246;0.0529987;-0.0022457144;-0.034431055;0.14473812;0.060389843;-0.93587613;0.04130024;-1.0823765;0.23894642;0.11278642;-0.017543955;-0.106080145;0.10041799;-0.21535787;-0.11321405;0.35965353;-1.139951;-0.4531182;-0.3590121;0.03853588;-0.029430369;-0.14014608;-0.089503;0.04214445;-0.31066296;-0.07901551;1.1359398;0.8564377;0.044762474;-1.9098871;0.23588724;-0.4027247;-0.026459355;0.008768929;0.2524153;-0.09381569;-0.69807965;-0.0016864694;0.29622477;-0.11234982;-0.71502626;-0.8821939;0.017717522;-0.16795428;-0.7948853;-0.00025130375;-0.021006515;-1.9340786;0.05630934;-0.105567224;0.012561458;0.1729954;0.007975052;0.047534943;0.1275731;0.045007445;-0.06689382;0.02469413;1.5981665;0.08529669;-0.048754655;0.28671718;-0.01952494;-1.8499781;-0.3967469;-0.008826928;-0.7452956;0.074012496;-0.10562274;0.06983214;-0.070899;0.16661003;-0.060091276;-0.13680789;-0.03556789;-0.33926564;0.0069985827;0.25152364;0.18296704;0.12190318;2.5233111;-0.0036347979;-0.05291831;0.42731202;-1.4490576;0.011715321;-0.008759605;-0.024744045;-0.034127343;-0.066890515;0.26317352;-0.13048044;-0.07479907;-0.016770866;0.013339961;0.07423874;0.052284744;-0.028294897;0.059645426;0.15415177;-0.36259463;0.5026588;-0.30976042;-0.026841044;0.11210116;0.4370004;0.035215948;-0.10478691;0.06863341;-0.3586657;0.052535485;0.29230976;-0.043419287;-0.07733222;0.05964744;0.05154001;-0.73824996;-0.0066059227;1.2181596;-0.08717692;-0.7509635;-0.0366301;0.01043995;1.9101863;0.1365492;0.038884114;-0.07726575;-0.06290628;-0.045720194;1.2440796;-0.021341138;-0.04612341;-0.07256931;0.063059196;0.024688933;0.068589024;-0.3306282
0.060611237;0.024715794;0.06658449;-0.21294822;-0.13895096;-0.025048401;0.006501473;-0.36297223;-0.8674742;-0.040608976;-0.058589116;-0.63560325;0.032220665;0.18249075;0.07616514;-0.37742075;-0.6716152;0.031963687;-0.021274354;0.029057847;0.05971662;0.07648202;0.031190984;1.305605;-0.08234578;-0.017927341;0.06633324;0.07781446;-0.33190754;0.07173741;-0.08058008;0.05387903;0.0041005323;-0.06407167;0.03363386;-0.028497033;0.019526023;0.03745529;0.050120734;-0.07387849;-0.080186486;-0.29225066;0.320564;-0.05222615;0.15212551;0.12370053;-0.9261696;0.0033261436;-1.352284;0.5282192;-0.21423598;0.057570133;-0.0912033;0.038508598;0.56748706;-0.10664205;0.03918738;0.041099947;0.060619544;-0.0021156936;-0.22506724;-0.052520957;0.057023834;0.013581079;-0.04193059;0.05208912;-0.25549757;-1.8751574;0.0025664978;-0.028958736;0.07784945;0.020148367;-0.00020215979;-0.024663888;-0.77956444;-0.0003825875;0.18783744;-0.06552927;-0.51985955;-0.074496016;-0.062607825;0.07197556;-0.79659253;0.07600584;0.71700287;-0.020558545;0.067298055;-0.0014791309;-0.06422297;0.07906841;-0.103778444;-0.9037902;0.648112;-0.05656885;-0.024420163;0.08858137;0.49335495;-0.042004373;0.20517698;0.010005633;-0.3045279;-0.018543608;-0.28147653;0.104665875;-0.07713219;-0.0954506;-0.053933546;0.30828562;0.08099157;-0.044949815;0.10432335;8.624214e-05;0.041407686;-0.020864177;-0.0013369964;-0.085787915;-0.091297336;-0.33376268;0.4751772;-0.04353482;0.010517323;-0.06001803;-0.844799;-0.06266563;0.07800492;-0.07154817;0.053872894;-1.5917537;0.066486575;0.01857374;0.004363697;-0.7073426;0.11239734;0.008433468;-1.563358;0.008740154;-0.08688065;-1.2564187;-0.049804255;0.05934729;-0.054619085;-0.080038495;-0.065803386;-0.054372214;-0.12169652;0.006329983;0.05135537;0.067509964;-0.5765124;-0.05160849;-0.09988987;-0.44569257;-0.003813522;-0.34760174;-0.04941091;-0.041893635;-0.40326488;-0.0058154245;-0.021132039;-0.6332739;0.034997474;-0.31642684;0.30859554;0.28128964;0.7848914;-0.09800139;-0.08690929;-0.022877607;0.04012154;-0.14018767;0.40021256;-0.035733517;-1.3027253;0.017612804;0.099889435;0.086240485;-0.08850528;-0.34898221;-0.47432157;-0.0014303442;-0.24312598;-0.1013988;0.06128054;-0.5573246;-0.60545653;-0.039895684;0.08056546;-0.0713972;-0.042499837;0.049716063;0.11505505;0.065382786;-1.6226093;0.05434482;-0.9237773;0.034206774;-0.02728632;-0.019349845;-0.002302748;1.2736981;0.047016937;0.016352262;0.019001806;-0.07157528;0.25345567;0.039035156;0.94556314;0.14044163;0.06824308;-0.91278285;-0.0011797822;-0.09173736;-0.0022654375;-1.4340467;0.033412673;0.7497531;0.24896812;0.57249427;0.08300983;0.06483266;-0.082546405;-0.4245576;0.38656086;-0.052554782;0.07452699;-0.027071653;-0.07585258;0.041705403;0.045436304;-0.014735879;0.062404267;-0.004311659;-0.20821495;0.035536636;0.08372515;-0.036039066;0.017614508;-0.7151586;-0.0045524472;-0.0100219045;-0.5029107;-0.025553763;0.07573511;0.046412203;0.04344548;-0.5865341;0.04008498;-0.047252096;-0.08237767;-0.22784777;-0.72259665;0.0035746947;-0.04371297;0.010520492;0.04734291;-0.92178696;0.050705712;-0.045702543;-0.02354495;-1.0039767;-0.05524936;0.047874853;0.012921267;0.2212284;0.0933059;-0.0071230386;-0.48363015;-1.1228821;-0.054112956;0.05231828;0.01918693;0.042378027;-0.022233916;-0.07936923;-0.30152968;0.5268332;-0.39243367;0.04892493;-0.07110116;0.005162328;-0.5635353;0.076318234;-0.15842052;0.024811914;0.0014247358;-0.19346224;-0.1066289;-0.045562763;0.021674087;-0.0063754725;-0.10437272;-0.6258566;-0.10886617;0.017342215;-0.15613727;0.0678634;0.22940442;-0.06338011;0.042930916;0.0022484744;-0.06975587;0.0055553825;0.01157986;-0.04282962;-0.29559475;0.020542594;0.027186442;0.0844396;-0.0543849;0.4773355;-0.0058647147;-0.038907707;-0.075923674;-0.54363465;-0.07937409;0.030408386;0.08490484;0.046609838;-0.0029943688;0.00856701;-0.02410459;-0.534791;-0.031663485;-0.1238723;0.055169776;-0.04770778;0.05762225;-0.07669849;-0.059263494;0.028523134;-0.016013434;-0.03543389;0.08801893;-0.19000493;-0.08140115;-0.04967922;0.66380745;0.010938454;-0.8828537;-0.0027059193;0.07825504;-0.024612531;-0.6355081;0.07375746;0.021406047;-0.038285144;-0.1506204;-0.17743878;0.014434409;0.037814073;-0.11469021;-0.024786426;0.07158944;0.018633751;-0.060106333;0.0234271;-0.030029943;-0.060787935;-0.19770531;0.032673646;0.17513008;-0.009963075;-0.10223818;0.0055800714;0.0345443;-0.08442321;0.040094424;-0.02562225;0.053739;-0.08811079;-0.086414896;0.005958803;-0.27903122;0.06549672;-0.06638276;0.032702394;0.04161629;-0.5064739;-0.08130984;0.2524458;-0.12255485;-0.05030881;0.025316365;-0.006068632;0.07589539;-0.0733686;-0.34408218;0.045544624;0.02382825;-0.0014183486;-0.033654243;-0.11688135;0.011480017;-0.032941315;-0.855924;-0.04110746;-0.08347143;0.28083065;-0.2789086;-0.037909627;-0.03431688;0.079275005;-0.3567892;-0.23065136;-0.8484902;-0.4705231;0.082622744;0.39224708;-0.45399946;0.02766273;-0.09987549;-0.04906827;-0.0762025;-0.051601134;-0.044794478;-0.12703869;0.023906523;-0.5551913;-0.028312976;0.04802445;-1.4215226;0.5382133;0.91434634;0.07580359;-0.3526008;-0.23833638;-0.026459055;-0.047854327;0.19208342;-0.038883228;0.052099183;0.088596046;-0.091104686;0.0007262945;0.076756954;0.045383018;0.058784626;0.04089767;-0.010708134;0.1640831;-0.08612394;0.07412983;0.062398523;-0.0098318;-0.1374519;-0.04696405;-1.1971686;-0.20178817;-0.06120955;0.017521724;-0.07637986;-0.080050856;-0.16128416;0.061893847;0.39161727;-0.34977695;0.17860365;-0.19978993;-7.2977055e-05;-0.076821856;0.002411367;-0.20622763;0.050432365;-0.3218655;0.06195009;-0.26768515;0.17805013;-0.07854192;1.075112;-0.17420965;-0.014499004;-0.024133142;-0.03601714;-0.24869163;0.011231504;-0.2980541;-0.059491474;-0.40716752;-0.026791751;0.06995385;-0.5717749;0.05183599;0.019345859;-0.39900044;-0.04537003;-0.05793374;0.7127417;0.0736302;-0.06883889;0.06525184;-0.08736267;-0.10578059;0.061586227;-0.094735086;-0.116524816;0.038519572;-0.06717223;0.11313845;-0.0591738;0.07044862;0.5690939;-0.08723538;-0.6124532;-0.87303;0.066806145;-0.5498371;-0.06452405;0.012810519;0.029438127;0.07309531;-0.2485791;0.051432885;-0.056839563;0.05921034;-0.13053513;-0.0054764193;0.06588376;-0.50070345;-0.055628497;-0.247333;0.060909983;0.0050422945;0.902579;-1.1994689;0.027730552;-0.005861593;0.01608372;0.06032142;-0.29723698;0.12469181;-0.054417204;-0.24144694;-1.0630548;-0.092049964;-0.078810655;0.004897473;-0.01069962;-0.05586811;0.16446091;0.13142651;-0.27183747;0.38783365;-0.043566287;-0.028291395;-0.117843755;-0.23422584;-0.38089728;-0.07774382;-0.15357096;-0.07546822;-0.50229543;-0.0045092334;-0.009067701;-0.0495216;-0.05341717;0.39373976;-0.35736528;0.20765592;-0.033151936;-0.37972638;-0.014979867;-0.032644287;-1.0418773;-0.007883264;-0.098603606;-0.037184685;0.0086181555;0.08732433;-0.23863055;-0.067984976;-0.017113645;0.021496855;-0.20039032;-0.009259839;0.023804203;-0.48059034
0.75558466;-0.042555973;-0.06645349;0.24657424;-0.3570505;0.0019622052;-0.03510422;-0.06554118;-0.29952237;-0.122998685;-0.02862435;0.6091469;-0.037280705;-0.29690495;-0.05285089;-0.67444485;-1.144493;-0.11506362;0.035643082;0.3574146;-0.093923524;-0.030663222;-0.019659204;1.3146061;-0.047583215;-0.024047218;-0.05383534;-0.06864079;-0.52112556;-0.03440715;0.030557282;-0.05772954;0.2727821;0.052091837;-1.3449062;0.15916204;-0.043521684;-0.019716568;0.067879915;-0.004039158;-0.057235494;0.37921274;-0.009059311;-0.06272167;-0.28792;0.22560467;0.9248585;-0.0012598922;0.8111943;-0.6980052;-0.06470351;0.07477512;-0.27128023;0.018308654;-1.0758512;0.4969028;-0.062079884;-0.25247797;-0.5186688;-0.06680214;-0.002720073;-0.6221937;0.051629785;-0.020901803;-0.00862554;0.13574658;0.4578567;-0.9456709;0.003517077;-0.08172885;0.004442718;-0.010398483;0.110436566;-0.086766645;-0.12041487;0.10217686;0.3944712;-0.6486034;-0.78058726;-1.1896054;-0.021059085;0.072406314;0.25161985;-0.06168909;1.55366;0.060973156;0.06786635;-0.6483469;-0.040782806;-0.06342596;0.124419235;-0.28113136;-0.7262812;0.045088787;-0.11328823;-0.03300503;0.17841673;0.034366928;-0.67260194;-0.07248311;0.2921153;-0.014015851;-0.11944762;-0.43007502;-0.1357572;0.16554286;-0.080349416;-0.84258235;0.050295234;-0.52406454;-0.0054064486;-0.054893456;-0.046778012;-0.011077115;-0.14256029;0.044193868;-0.11275465;0.11347568;-0.20487127;0.020502994;-0.058683246;-0.11014157;-1.717105;0.34483394;-0.06977996;-0.12096378;0.075945884;0.17839648;-0.10162926;0.02708248;-0.04534979;0.46609226;0.27337518;-0.028613344;-2.240554;-0.00055141223;0.09896599;1.2896786;0.05522521;-0.081480704;-0.10148873;-0.19239977;0.06343335;0.0354895;0.09028546;-0.028129958;-0.9034926;0.054687425;0.4996927;0.15387326;0.4929524;-0.07475;0.056699004;-0.22226503;-0.042348143;0.106482;-0.08422688;0.33938026;0.052185223;1.2413139;0.044128735;-0.5910472;-0.11612694;0.025683373;-1.2887373;-0.079906136;0.061194763;0.48109505;-0.4472116;-0.31050986;-0.8519908;0.0586508;-0.79052013;0.33301863;-0.26317602;0.025256978;-0.7660144;-0.2236859;0.15515496;0.39924523;-0.4419472;-1.3039751;0.034297932;-1.2238951;-0.46532;-0.014113521;-0.060789887;0.30630136;-0.078246705;-0.025003526;-0.008049217;-0.68935436;0.4870003;0.020572191;0.35230455;-0.57164836;-0.0734118;0.024924722;-0.03267254;-0.49181435;-0.10495365;-0.05410636;0.040692333;-0.026870543;0.08731268;0.17516787;0.2896423;0.33681393;0.09516677;-0.109259225;0.06095658;-0.09319098;-0.5779063;-0.16322054;-0.05015235;-0.7617889;-0.18995385;0.80703807;-0.3346908;-0.03421157;0.033953212;-0.1192294;-0.30713558;-0.12272863;-0.20182614;-0.0726123;-0.13170864;0.074313916;-0.1336077;0.47223464;-0.00586713;0.054972447;0.099496834;-0.443455;0.067125045;-0.14368206;0.047532033;-0.044442236;0.02985307;0.442865;0.046499927;0.07407322;-0.029582623;-0.06888484;0.2914543;-0.7759862;-0.11945292;0.053660873;0.103203185;-0.50878024;0.25225443;0.5035259;0.019860642;-0.052985113;0.021030502;1.255628;-0.56572837;-0.00031778985;-0.07490643;-0.5712485;0.07179672;-0.28050473;0.13883337;-0.8452786;-0.8982275;-0.12997068;0.21749425;-1.2594732;-0.06947836;0.22594523;0.40999028;-0.039955545;0.0055434294;0.44340786;-0.65666556;-0.74419963;-1.4856701;-0.063484475;-0.15663843;-0.35078782;-1.0780704;0.08204715;-0.44611844;0.068825044;-0.080914386;-0.3034044;-0.5264957;0.025596987;-0.012791515;0.22413917;-0.40033638;-0.5672535;-0.7599673;0.053971402;-0.09529752;-0.043042075;-0.22400256;-0.030189786;-0.009419371;0.026640255;-0.07644969;-0.30094662;-0.04136549;-0.028470708;0.24765189;-0.03140333;-0.056040294;-0.002053326;0.07502108;0.2617787;-0.075981036;0.07591569;-0.057266247;-1.3930205;-1.471201;-0.0791331;-0.060691044;0.071043365;-0.040383734;-0.033209037;-0.06470884;-0.6739923;0.093767904;-0.16897205;0.10850298;0.20328526;-0.5811594;-0.06203183;0.052657176;-0.02888288;-0.07524252;-0.1705958;0.7603705;-0.09513055;0.3030109;0.07082412;0.093911;-0.060016073;-1.4469618;0.12523274;-0.09303815;0.0020942779;1.1703744;-0.07172722;-0.02972528;0.11926491;-0.27282518;-0.58533716;0.27806088;0.060345907;0.12941055;-0.0592088;0.06158615;0.04998575;0.009465213;0.018030567;-0.087548174;-0.06836691;-0.75701433;0.0044089523;-0.35981548;-0.103087336;0.3325431;-0.052501768;0.75077367;0.0039806;0.053798467;-0.0058087423;-0.6638432;0.035341803;-0.28247616;-0.07520043;-1.0352459;-0.5361881;0.03871555;0.0033065488;0.05688384;-0.23485276;-0.124165125;0.18675224;0.30100343;0.055107437;0.12752758;-0.08391864;-0.10747204;-0.03283561;-0.27519104;0.075586095;-0.085075215;0.04006076;0.003915637;0.31403598;-0.0029424843;0.057366103;0.275829;0.3237825;-0.12170881;-0.16947988;-0.04585839;0.085570276;0.023884874;-0.08230023;-0.5752263;-0.15448675;-0.18497428;-0.7670052;-0.07004926;-0.8965237;0.5506894;-0.048382666;0.45669594;0.27217355;0.26748425;0.08768401;0.04121766;-0.14763819;-0.071237974;-0.8315269;-0.13091749;-0.07057797;-2.0545413;-0.06856662;-1.6039735;-0.092278026;-0.50746304;-0.4304822;0.04298878;0.005378139;-1.5384496;-0.056388125;-0.024467519;0.07981564;-0.008950413;-0.011333553;0.01480819;-0.034321934;-0.07078376;-0.009769818;0.038721386;-0.009120465;0.19981265;0.0388865;0.0729626;0.011838968;-0.2135687;-0.05030693;-0.35989454;-0.7268715;0.07599135;-0.06440219;-0.033793073;-0.29368207;-0.12647335;-0.037641972;1.2431415;-0.071153834;0.032789487;-0.06484649;0.13174748;-0.066189006;-0.055917982;-0.247014;0.048089895;-0.15255639;-0.057501283;-0.6939386;-0.4179966;-0.004883148;0.60525626;-0.33969688;-0.54255307;0.19126368;0.048089992;0.33816454;-0.10090115;0.17545724;-0.0068653086;1.0460023;-0.012389317;0.57905823;-0.7001462;-0.042590115;0.08560191;0.26143053;-0.011660457;-0.4973715;0.75870365;0.056165688;0.042713273;-0.013606184;-0.09897466;-0.49158883;0.09370371;0.0801153;0.019764591;-0.077638574;-0.017206114;-0.76256955;0.06859656;0.025693398;1.5416491;-0.04303462;-1.7956113;-0.073209114;-0.027052227;0.0473146;-0.053737663;-0.031872995;-0.0099693565;-0.13395436;-0.023130422;-0.00905724;-0.23357598;0.03079561;-0.0034131757;0.11862884;-0.19688454;0.19096483;0.102386944;-0.23249958;-0.08716314;-0.000701753;-0.91704315;0.3934902;-0.024533862;0.14974439;0.019679392;-0.0930594;-0.40435383;-0.12943012;0.12694532;0.15292375;0.9098242;0.31583694;0.19854039;0.076818116;-0.047027484;0.16649501;0.11756447;-0.89688265;-0.46197125;-0.93243676;0.38650534;0.009290415;-0.6761388;0.8998449;-2.0576525;0.3095382;-0.80530816;-0.042283162;0.23687708;0.049859498;-0.04273205;0.022479149;-0.0067668394;-0.047732968;0.5168854;-0.8950325;0.043369778;-0.6073809;-0.04489032;0.07791757;-1.6649916;-0.036494896;0.08797892;-0.1630596;-0.1241383;-0.18124054;-0.6945765;-0.06760186;0.09361811;-0.0073607997;1.3421516;0.029514326;0.06730855;-0.6547275
-0.12479075;-0.12944044;0.020522326;0.38873467;-0.49528593;-0.0046667447;-0.053590123;-1.5115895;0.18166839;0.2859754;-0.10051275;0.8681868;-0.08820999;-0.7211718;0.015618504;-0.49373165;-0.9210547;-0.11472681;-0.018951757;0.39584517;-0.08704553;0.032754578;-0.03937367;1.757865;0.14148384;0.01544616;0.014842873;-0.118647315;-0.20975517;-0.039655827;0.044148177;-0.38996622;0.22801161;0.04435434;-0.9765174;-0.0651628;-0.028099768;-0.1010333;0.021245599;0.09073924;-0.89488035;0.25223708;0.11520653;-0.13425352;-0.12522042;-0.09743323;-0.44756863;-0.033998422;-0.49698383;0.20582093;-0.54754126;0.015614953;-0.9183226;-0.09096292;-0.62396246;0.158752;-0.086264096;0.0996639;0.21888311;-0.02727276;-0.069442704;-0.45511875;0.013030838;-0.057073735;0.085253;-0.013791584;0.38195905;-0.93394494;0.1501157;0.07480085;-0.15907823;-0.08147117;0.1282021;-0.21584912;0.5505707;0.1364372;0.17041385;0.07148753;0.33191156;0.6013192;0.092490144;0.06270956;-0.80118;-0.043270912;-1.2072724;-0.07812309;0.15952574;0.017228385;-0.03205566;-0.06080796;0.075585395;-0.7116616;-0.25887433;0.04388284;-0.032737765;0.017901562;-0.18140283;-0.099337995;-0.63002855;-0.16789816;-1.4179952;0.05330602;0.8167858;-0.18902636;-0.16278373;0.1299165;-0.09950286;0.34274578;-0.010341246;-0.09943803;0.09044986;-0.030280715;0.084550396;0.022999465;-0.06959206;-0.0011788893;0.13413702;-0.084401585;-0.41268417;0.1075728;0.08574006;0.012364162;-0.24003947;0.34200785;-0.08637282;0.087637015;-0.14067596;0.27791646;0.010639846;0.018236483;-0.08467573;-0.972087;0.16221763;-0.009314592;-1.6836828;0.08419273;0.17177266;0.34931168;-0.04129348;-0.05983624;-0.06966065;-0.16181912;0.03792966;0.15332021;0.12137623;0.062425684;-0.3969408;-0.005864023;1.0830847;0.06867954;0.73660976;-0.61273384;0.010277593;-0.1816679;-0.060900547;0.13897587;-0.31081253;0.44216418;-0.19996963;0.3537214;-0.057989705;-0.40852475;0.5271215;0.045192726;0.6161696;-0.010242001;-0.47196007;0.37556294;-0.4937374;0.26899657;0.51820284;0.113335356;-1.3729677;0.14114264;0.25242305;-0.026374454;-0.1993983;-0.1722216;-0.12836744;-0.08990943;-0.48141685;0.24090913;0.087874845;-0.25973195;0.523248;-0.00923591;-0.10505125;0.1995346;0.19121033;-0.11917103;0.10706456;-0.4345309;-0.5170582;0.02893557;0.069038324;-0.31742242;-0.00535494;0.0583213;0.004594999;0.71203935;-0.1754552;0.10266742;-0.005316685;0.0016787747;0.85458016;0.18882379;-0.2479311;0.9146649;0.029109605;-0.5336281;0.18940474;-0.21714716;-0.3771258;0.54828346;-0.06939641;0.55335665;0.13717732;1.1074421;0.022617318;0.06601686;0.042510685;-0.010664211;0.446142;-0.107714914;0.15954868;0.03591694;0.11573823;-0.10307818;-0.37896952;-0.28575227;0.01978416;0.0388493;-0.68559253;-0.73146963;-0.18767554;-0.2542051;-0.022845052;0.46184835;-0.0131731415;1.2052811;-1.9587256;-0.022933615;0.21562618;-0.012560865;0.7656473;-0.39426377;-0.15805343;-0.14314595;0.027316067;-0.32797876;-1.5937619;-0.99080914;-0.010542653;0.10215636;0.10443603;0.021275979;0.019676907;-0.03127145;0.095821165;-0.56758827;0.04335265;-0.14189199;0.16653083;0.076294005;0.6077394;-0.24329513;0.19534813;-1.455288;0.7355155;0.0945162;0.37971798;-0.10729469;-0.10129552;0.2750465;-0.31653145;0.39274737;0.26758307;0.034881484;-0.10704894;-0.13789892;-0.39534596;-0.0023561772;-0.34349042;-0.042089183;0.031748887;-0.18733692;-1.1049443;-0.065225214;0.013092232;0.40446475;-0.2683192;0.004634371;-0.31798658;-0.029701073;-0.81601024;0.04405465;0.06672651;-0.015342752;-0.018501367;0.103913985;-0.033868425;-0.2892469;0.037950713;-0.032744594;-0.99330866;0.022529151;-0.18012303;-0.06781364;-0.007489286;0.1560618;-0.09247979;0.05100477;-0.36824167;-1.1825986;-0.42980433;0.007833884;-0.06934799;0.025100343;-0.0021082996;-0.044280864;-0.107472956;0.053559206;0.14544219;-0.9072769;0.029037131;0.103712425;-0.4866244;-0.0921259;0.04570016;-0.04178906;-0.03254961;-0.04707834;1.1879435;-0.06060374;0.29960215;0.044278685;0.31832895;0.067920886;-1.482684;-0.094634;-0.03150292;0.007900199;0.043200415;0.04270142;-0.043962512;0.052338947;1.3315641;-0.42381194;0.17044082;0.044497743;0.19598083;-0.07224984;0.008570493;0.04403459;0.18666615;0.106636554;0.08691748;-0.0965488;0.061123908;-0.0850327;-0.3218057;-0.024772866;-0.32882413;-0.16296983;-0.5807542;0.07077148;0.0025557834;0.2947062;-1.173785;-0.007008187;-0.062122982;0.004353649;-0.71955365;-0.36088708;0.09080959;-0.07015411;0.18252808;1.0741059;-0.13498938;0.13359964;0.17357731;0.05061219;0.14955537;-0.06683337;-0.124675825;-0.03323388;-1.0322745;0.090994634;-0.115950175;0.104907654;-0.04359391;0.27969933;0.02379315;-0.016424013;1.0080785;0.40750605;-0.1923572;0.10949361;-0.08743334;0.110971905;0.12510191;-0.09626526;-0.31040838;0.29059133;-2.6087935;-1.7426344;0.022792257;0.33654907;0.25872856;0.029555464;-0.0034648594;-0.08133572;0.17857628;0.0040082284;0.06666256;-0.124828875;-0.034958437;0.61659855;-0.06550007;-0.08386615;-0.8493538;1.0662047;0.42414528;0.0021275906;-0.39485526;-0.17542985;0.07193958;0.05394413;0.15452844;-0.013277601;0.066547655;0.03092567;0.08678743;-0.03604494;0.098999694;-0.103066444;-0.14038451;0.08002864;-0.080916695;-0.093660876;0.22242054;0.0034323765;0.04475097;0.011216005;-0.5297862;0.014293526;1.2325381;0.43909797;-0.010310537;0.0099933185;0.002550385;0.09956435;-0.3473547;-0.0438125;-0.4470954;0.78973573;0.49813354;-0.7937878;0.20509402;0.090259954;-0.07690275;-0.6523451;0.12115981;0.42067793;-0.095024906;-0.065136105;0.54184043;0.056498744;1.5991205;0.4812757;-0.5372245;0.18487108;-0.062586136;-0.490727;-0.0486431;0.18779981;0.21133813;-0.11752438;-0.2989272;-0.46305925;0.6690259;-0.054811224;-0.028971411;-1.3857973;-0.034170646;-0.25273255;0.6231994;0.06783471;-0.09836105;0.012384584;0.113794096;-0.4554595;-0.005980477;0.110906236;0.11034966;-0.07511678;0.046062127;0.095829986;-0.0028047643;0.019672249;0.43382493;0.008446519;0.31545338;1.3239607;-0.0968615;-1.1622431;0.14082862;-0.06669126;-0.0062677087;-0.054608703;-1.4231046;0.009740468;-0.1643627;-0.06604296;-0.2068543;0.1647546;0.018582199;0.941722;0.09493393;-0.7446324;-0.17069578;0.01939124;-0.91486037;-0.14062071;-0.008100901;0.24459729;0.009642726;-0.13393281;-1.3771825;0.27722284;-0.0062317844;0.3577231;-0.030160548;0.29348472;0.21682794;0.065926805;0.051790245;0.21192524;0.029928662;-0.18697444;-0.48224497;-0.118127376;0.21833879;0.11465865;0.6765376;-0.2684556;-0.6829615;0.34281653;-0.6386421;0.12757325;0.4100698;0.06702843;0.01028762;0.13616748;0.017511401;0.22115226;0.16591522;-0.43207178;0.059461527;0.13138029;0.06229228;-0.14165427;0.029625433;0.10736713;0.05188346;-0.054507326;-0.07440846;-0.12679671;-0.7536882;0.042614046;-0.14603935;-0.02623874;-0.761473;0.043763336;-0.007044634;-0.53334546
-0.047650237;-0.04882236;0.04253139;0.21847953;-0.23459357;-0.019852092;-0.041105103;-0.9397563;-0.47850817;0.8369945;0.087251976;-0.28346762;0.03241478;-0.6724037;0.06414826;-0.6248127;-0.9164346;0.0025013182;0.08444924;0.34231845;-0.11688251;0.107264094;0.014019716;-0.76927817;-0.08326329;-0.0015935119;-0.06343394;0.015192597;-0.7690752;-0.031170895;-0.036010765;-0.32671326;0.30355817;0.020747604;-1.1112831;-0.05260941;-0.055296578;0.02476762;0.070959374;0.061683476;-0.17590402;0.07341518;0.23930806;0.036009166;0.13567267;0.062399395;0.18995373;0.033965506;-0.7263821;-1.0317863;-0.060257286;-0.06091219;-0.27156726;-0.11187072;0.17089142;0.6759626;0.0030633863;-0.055019367;-0.60211164;0.06153005;-0.3407886;-0.61298424;0.06253405;0.01801834;-0.014684294;0.02514972;-0.51331496;-0.5197281;-0.10801856;-0.038444363;0.043534975;0.048445303;-0.08776877;0.12533826;0.81235856;0.07423915;0.07515909;-0.4894417;-1.1650702;0.17763804;-0.0638745;-0.06756051;-0.42859524;-0.06125085;-0.37239107;0.026899358;-0.10365578;-0.033579167;-0.025777517;-0.06976029;-0.11859711;-0.9760401;-0.06051565;-0.050370455;-0.0032240965;-0.0696192;-0.17966892;0.010495149;0.44332114;0.0766871;0.37561056;0.04235309;0.7036367;0.018677939;-0.17338361;0.04731206;-0.043627407;-0.7499184;-0.03210046;0.08760104;0.03881987;-0.013460498;-0.08818615;-0.03889357;0.0674968;-0.017888265;-0.1408107;-0.8821199;-0.8068862;-0.02441199;-0.06580799;-0.13223666;-0.36331382;0.2804669;-0.02414622;-0.10572363;-0.062613584;-1.1304774;-0.034077518;0.05093452;0.01968125;-0.5302205;0.292842;-0.08062032;-0.8185557;-0.019169174;-0.00083078264;-1.4889774;-0.007359786;0.061311297;-0.12939246;-0.06751518;0.019667143;0.0035771846;0.1287583;-0.032246802;-0.71491826;-0.024979595;-1.2084197;-0.036468714;-0.88859075;-1.142997;-0.010677068;-0.14028114;0.06807467;-0.03984551;-1.5472697;0.0013690974;0.22889143;-0.47389778;0.014668588;-0.5246697;0.24629627;0.63686985;-1.603837;0.054997135;-0.2979547;0.42923224;0.19545776;0.21140781;-0.8672766;-0.063530594;-1.0603971;-0.027392173;0.42265332;0.017539825;-0.43691215;-0.25907683;-1.1035866;-0.005244345;-0.7713669;-0.12412882;-0.025686167;-0.18870394;0.22761048;0.047709733;0.101594426;0.22630824;-0.12394536;0.025659384;0.22825286;0.01247178;-0.49650276;-0.075252414;-1.2651484;-0.4243941;-0.049815405;0.073450916;-0.070015684;-0.9723955;0.03352545;-0.054212667;-0.034159586;-0.06953857;0.7335929;0.07231363;-0.5328081;-0.30091172;-0.051120713;-0.9638909;-0.033702858;-0.08110731;-0.51636094;-0.9047453;0.07396904;-1.1269798;0.11854364;-0.35072187;0.36537457;0.033445522;-0.034499492;-0.32427603;-0.01780194;-0.04223158;0.07155995;-0.11105603;-0.2508897;-0.005853728;-0.2644464;-0.06117938;-0.092073426;-0.08469853;-0.013084987;-0.8634816;0.12777838;0.035423815;0.042920873;-0.19327034;0.0774875;-0.84423953;-0.26505876;0.045024116;-0.15838541;-0.083587475;0.29010683;-0.5632026;0.077544086;-0.0061749993;-0.09835672;-0.3510127;-0.08373019;-1.0600336;0.0069411276;-0.027288118;0.04890136;0.373336;-0.05819477;-0.051033013;0.0174803;0.3180228;-0.020130824;-0.043733094;0.17479378;-0.74338555;-0.79439145;-0.05332022;-0.1348597;-0.37959477;-0.177931;0.03495373;0.29212198;0.06941293;-0.04645656;0.37010896;-0.52236193;-0.32320204;0.20805967;-0.08423031;-0.100626096;-0.11941553;0.36966035;-0.0041543497;-0.40577602;0.007128111;-0.024299446;-0.26165578;0.13976145;0.06545176;-0.06034597;0.13480441;-0.40540203;0.3780235;-0.8305082;0.04288545;0.007797038;-0.006796254;0.21212102;0.07025193;0.006735091;-0.022254184;-0.067601554;-0.47872046;-0.032251496;-0.056946415;-0.8133433;-0.07468669;0.07581342;0.030803423;-0.070963696;0.88894737;-0.0440194;-0.028956188;0.21418929;-1.4348744;0.5829185;-0.037044037;-0.0108646415;0.06389778;-0.07525993;0.034858026;0.049965236;-0.94754803;-0.020641476;0.11126561;0.051110316;-0.030850513;-0.28943494;0.075127564;0.056591246;-0.02379345;0.07314647;-0.15346281;0.26866597;0.044758305;0.17184351;-0.06356641;-0.31342113;-0.043600466;0.7480136;-0.14972864;0.016823657;-0.03474408;-0.08393745;-0.039729234;0.050525263;0.0065108985;-1.5387201;-0.44133803;0.12427024;-0.08897754;0.046352442;-0.04225867;0.051552217;-0.077920504;-0.11841335;0.057648823;0.0002523126;-0.037380937;-0.25888312;0.038439006;-0.1564681;-0.040737294;0.6012961;-0.108013034;-0.7350432;0.019967237;-0.054074097;0.22858022;0.15335324;-0.037499797;-0.03723032;0.02529056;0.17832273;0.5605871;-0.09644693;-0.040613793;0.003915521;-0.2514319;0.06367584;-0.009234221;0.041751537;-0.104514085;-0.043110754;-0.029694172;-0.07266498;0.01513212;-0.7570096;-0.048599105;0.00520621;0.18005173;-0.023113355;0.38110617;0.024757981;-0.017762631;0.13775134;0.39865088;-0.10817874;-0.33535329;0.1777918;-0.04337334;-0.00913443;-0.02281029;-0.5217355;0.21466874;-0.16490456;0.5793247;-0.07909128;-0.73795015;-0.27315155;-0.059215494;0.034974936;-0.009086945;0.21425346;0.06739425;-0.13179022;-0.10146126;0.071077764;0.45826584;-0.11691422;-0.023116492;-0.46932822;-0.36320746;-0.9057451;-0.004039517;-0.049990024;-0.8434031;-0.04960192;0.031180214;-1.6335123;-0.060528286;-0.052876744;-0.07531734;0.036857583;-0.069847845;-0.026332071;0.054799717;-0.11600306;-0.0014948883;0.009032201;0.038108084;0.117575735;-0.06333981;-0.13061129;0.040930647;0.04139416;-0.073346294;-0.49295545;0.33508447;-0.08635914;-0.05916906;-0.0173817;-0.25774664;0.049631964;-0.0745776;1.0191072;-0.19084564;0.16936396;-0.6687049;-0.0028961427;-0.041237835;-0.046452604;-0.16238227;-0.110091954;-0.013754844;0.012731022;0.3956783;0.7110397;-0.0113976495;0.43516654;0.03545331;-0.7012302;0.031939343;0.06705784;0.13944432;0.0008738147;0.008651555;-0.07127144;-0.9069297;-0.06836603;0.034616437;0.5710117;-0.08011141;0.110447936;-1.3005916;0.025597377;0.0029717425;-1.5448316;-0.07397567;0.05650998;0.052751947;0.050296;0.012492621;0.04596053;-0.004524572;0.024720928;0.025253749;-0.016369523;0.0011829006;0.08768906;0.048671447;0.571317;-0.047562364;-1.7636158;-0.595759;0.056580175;-0.4975012;-0.04173888;0.047640786;0.020293947;-0.12461145;-0.018926937;-0.07570972;-0.15546966;0.027098963;-0.61192566;0.028026959;0.20333342;0.005147845;-0.08582915;-1.7309284;0.042544324;-0.0601994;-0.7236741;0.110150196;0.059687078;0.03465725;-0.016023891;0.0009242923;-1.0899885;0.19248845;0.030284377;-0.05671008;-0.18397103;0.16830972;0.10443758;-0.0672796;-0.07621564;0.17384478;0.40117538;0.545448;0.032036453;0.17978776;-0.067372344;-0.03597822;-0.066175394;-0.20317268;0.18132786;0.33802626;-1.4519254;-0.14027657;-0.20851694;0.06273603;-0.054986496;-0.08751393;0.04370681;0.6497042;-0.123878144;-0.28324312;-0.06612749;0.5612369;0.00912062;0.04227955;0.56910044;-0.10096536;-0.087522104;-0.17441452;-0.1270898;0.0971323;-0.48545173;0.061420564;0.07167945;-0.045944106;-0.09458428;-0.0671964;-0.07048648;-0.8268276
0.042001516;-0.04093906;0.024576547;0.8888014;-0.2424065;-0.049165826;-0.05756879;-2.0650337;-1.0888305;0.23881586;-0.017568763;-0.3850989;0.042159468;-0.40759864;-0.026888212;-0.38600805;-0.3837949;-0.018612366;-0.07560945;0.16090517;0.036328945;-0.07560461;-0.06928848;-0.83001757;0.044708405;0.05619165;-0.0458071;-0.0067920717;-0.32208136;0.041259386;0.006372864;-0.4767168;0.13641855;0.0036740876;1.4515755;-0.021381162;-0.041051652;-0.0053175176;-0.0010410598;-0.029544285;-0.07532479;0.59794724;0.26090273;-0.061405238;0.040083922;-0.32920584;-0.19852635;-0.052372478;-1.1056434;-0.21530558;0.95543647;-0.047015622;-0.7664788;0.043591555;-0.19819337;-0.12312426;-0.004823144;-0.0438862;-0.6960962;-0.019147797;0.05517128;-0.842115;-0.015501357;0.012234529;-0.026434781;-0.016018508;-0.19417883;-0.69243854;0.070396066;0.030764278;-0.11318903;0.0026877092;0.014295103;-0.07781362;-0.16362777;0.15649445;-0.0049362425;0.35010284;0.40049168;-0.5888935;0.0053271004;-0.02480327;-0.4093809;0.058721498;-0.17466812;-0.035370436;0.070960484;0.185797;-0.07087137;-0.0032829456;0.049068797;0.46402743;0.7113058;-0.03210298;-0.07586513;0.062422726;-0.0030948466;-0.13820165;0.47898084;-0.07843101;0.78937954;-0.06945731;0.048036195;-0.12887934;-0.025311384;0.04447061;-0.05178183;-0.41986233;0.007414523;0.0051818904;-0.023044644;0.008347993;0.00829172;-0.03862948;-0.0385818;0.016915329;-0.00905174;1.1318427;-0.9755019;-0.01116619;-0.021422327;-0.012257488;-0.30582064;0.107746944;-0.09622052;0.09431336;-0.030664833;-0.10249748;-0.048443984;-0.01441448;0.07447292;0.3742686;0.083682634;0.0367614;-1.3515558;-0.07726094;0.099947184;0.027884657;-0.056218497;-0.037409656;-0.016711418;-0.08261552;-0.020246565;-0.02718893;0.017995013;-7.8010875e-05;0.20888455;0.023352636;-0.112567805;0.00441758;-0.31794515;-0.97170657;0.0013315125;-0.1991812;-0.07979728;-0.04283642;0.13455634;-0.25002855;0.34650385;-0.36908698;0.012790199;-0.32414088;1.0105125;-0.17316087;-0.9603926;0.085892394;-0.15639256;0.29282454;-0.110131636;0.30882388;0.47949067;0.022369862;0.96112734;-0.043468185;0.15345074;-0.08081633;-0.29150757;-0.21513322;-0.18575029;-0.06656558;-0.25247607;-1.1047812;-0.022482766;-1.4176978;-0.12830177;-0.06467726;0.0016719898;0.2512114;-0.039428156;-0.14080983;0.022040427;-0.17408001;-1.628491;0.033694554;-0.5592962;-0.46598175;-0.0031849174;-0.042813737;0.011033047;-0.08412466;-0.04794354;0.083721414;0.030139517;-0.061005604;-1.1066108;0.024969222;0.71677405;0.29121885;-0.06053545;0.46933174;0.007466804;-0.16214365;-0.2898997;-0.52722603;0.00837656;-0.55665946;0.39788592;0.3036926;0.7646384;-0.06378599;0.0014365067;0.01506078;0.12256429;-0.036632314;0.033986323;0.0054884246;0.047731806;0.045109726;0.027940275;0.009005473;0.009373081;0.012122825;-0.5611667;0.5122958;-0.006471788;-0.00918447;-0.021082735;0.028379131;-0.0073110587;0.25418317;-0.92545664;-0.020455608;0.016737133;0.028888036;0.16207503;-0.73220766;-0.036712337;-0.15546747;-0.061718263;-0.18278012;-1.416743;-0.7781204;-0.05319394;0.037942737;9.4223666e-05;-0.52451795;-0.0054433933;-0.04653191;-0.038818814;-0.28839868;0.110632844;0.057003964;0.017570613;-0.37312508;-1.5962124;0.01645156;0.2169146;0.10772229;-0.0782418;-0.11654956;0.14817278;-0.0402919;-0.082096145;0.26875713;-0.3414202;-0.22516972;-0.21799031;0.041227803;-0.0032875908;0.11201943;0.23900181;0.04362998;-0.20989536;-0.011967075;-0.07265089;-0.12528834;-1.3628551;0.047735382;0.05440264;0.15055351;-0.25535023;-0.46007702;0.2966448;-0.01886669;-0.6473862;-0.037961796;-0.15433887;-0.060759876;0.0040534716;-0.013646028;0.048995726;-0.27005732;-0.04291537;0.04838576;-0.2889031;-0.079572044;-0.09144578;0.015499035;0.07395939;0.42189723;0.004647071;-0.051264312;-0.21598521;0.2669105;0.06803395;-0.060001526;-0.02794408;0.033476274;-0.06366023;-0.05908059;-0.07036007;-1.3061719;0.097396314;0.28451806;0.00401675;0.05168016;0.07144607;-0.03276427;-0.03958675;-0.040462267;-0.06486659;0.006489605;-0.018097445;-0.030301187;0.20337543;0.05557258;0.25712326;-0.018839492;0.09454437;-0.10661012;-0.006746096;-0.039060626;-0.6143533;-0.088178575;0.015707128;0.035758253;-0.88741916;-0.23720375;0.090538085;0.00043736034;0.079912536;-0.07402708;-0.053713016;0.06617799;-0.027711282;0.0679634;-0.059119783;-0.05045576;-0.034662426;0.06347431;0.13359822;-0.048934605;-0.48159254;-0.09685461;0.33458656;-0.033815708;0.054600462;0.053502083;-0.78741145;-0.047685895;0.341698;0.04590858;1.036829;0.2730874;0.027170064;-0.06951152;-0.0119575765;0.17949955;-0.07045615;-0.30953008;0.0586068;0.034157105;0.015622;-0.13027611;0.022306364;0.014081467;0.8188065;0.15681976;-0.06595451;0.20577373;0.06543555;0.24654067;-0.059988115;-0.065477796;-0.49391863;0.22338724;0.011388026;0.09319784;-0.7677761;0.038424537;0.0794219;0.03536391;-0.30334634;0.28095916;-0.37185624;-0.57850194;0.05617979;0.36109814;-0.35400224;-0.12724245;0.044845648;-0.15286753;0.12854868;-0.027970204;0.01849672;-0.08519597;0.013134503;-0.603968;-0.06420078;-0.07074974;-0.7324404;0.27000472;-0.05141698;-0.012822567;0.086637616;0.31011385;-0.0695589;-0.06288385;-1.2728952;-0.0025785002;0.088162534;-0.0009277162;0.08758244;-0.12952052;0.036520544;0.0062324577;0.022565782;-0.019638296;0.0060355505;-0.17329122;0.037630565;-0.05752967;0.06802267;0.039410967;0.23360065;0.04901881;-0.008180318;-0.16480806;0.019068984;-0.021044647;0.053494833;0.09604821;-0.1329391;0.026861956;-0.12741083;-0.735702;0.6198991;-1.0841217;0.07181868;0.054600682;-0.010647449;-0.4408121;0.040634673;0.1861575;0.06678257;-0.9569635;0.13852537;0.0069752;-0.38630491;0.1774841;-0.36975515;0.10354184;0.009507174;0.05462701;-0.06617053;0.3451558;-0.015722424;-0.3000459;-0.17617524;0.08137428;-0.42843315;-0.02031906;0.06290443;-0.7859385;-0.008514098;-0.16919294;-1.4704766;0.055095155;0.020037951;-0.0767323;0.0435408;-0.41785723;-0.048961714;-0.03255921;0.058417793;0.013033287;0.064461805;-0.09548564;-0.032378457;0.03448512;0.07505546;-0.011840101;-2.123163;0.17597093;-0.021436848;-1.6802943;-0.010454683;-0.20285496;-0.08893104;-0.07232876;-0.42185682;-0.020450316;-0.01712771;-0.027025707;-0.14267485;0.10765328;-0.28623122;-0.4185051;0.014294655;0.655453;-0.008227523;-0.0056959954;-0.07919605;-0.31166914;-0.058527723;0.15693298;0.06963902;0.0036728291;-0.5411079;0.13692297;0.03489872;-0.14569405;-0.26282594;0.13165995;0.045680963;0.068503566;0.062337533;0.05350426;-0.5384912;-0.580799;0.31896353;0.43941358;0.10233381;-0.061188195;0.35255134;-0.8676984;-0.025011383;0.22157247;0.2459419;0.013717906;-1.062636;0.0833788;-0.087885246;0.064312525;-0.06639427;0.412181;-0.29405347;1.4209827;-0.011954225;1.1376485;-0.06740758;0.0031171024;-0.945506;0.19514568;0.088346794;-0.11943585;-0.12806144;-0.09505982;-0.2940673;-0.034542564;-0.05766761;0.008049337;-0.18554081;0.033710632;-0.08323931;-0.29892853
-0.29586977;0.02443308;-0.011005772;-0.33075303;-0.12598976;-0.07202953;-0.045053665;-0.4565981;-0.060523048;0.5596417;0.022207113;-0.56776863;-0.030997586;-0.024843652;-0.075189196;-0.5033629;-0.6328872;0.13763243;0.023526687;0.12917863;-0.14535002;0.04837204;-0.035821307;-0.30853602;-0.003980522;-0.010612096;0.10463616;-0.045291074;-0.2423809;0.0034118327;-0.056185763;-0.3378961;0.15253066;0.03382525;0.70250106;-0.22596551;0.02239669;-0.013362964;-0.0025409476;-0.06326232;0.1595997;0.09729196;0.4130654;-0.06818514;0.13553368;0.006275157;-0.2577455;-0.07445834;-0.06513294;-0.36235213;0.40144295;0.010633427;-0.29638308;-0.04546012;0.43990916;0.30322307;-0.069461145;0.11918382;0.2123656;0.053543694;-0.043297745;-0.2570214;-0.05328971;-0.116129994;0.012354171;-0.059592977;0.65756506;-0.5497591;-0.0040812115;-0.0147575885;-0.030774172;0.016008781;0.079306446;-0.091491096;-0.5989468;0.21844664;0.14796782;0.068460904;-0.029204087;-0.12769568;0.119350255;-0.005286955;-0.28280526;0.08773542;0.14182365;-0.075166784;0.011442961;0.4142388;-0.09741385;-0.14313704;0.023162648;-0.21008383;-1.5683317;0.0051204534;-0.12884653;0.041504864;-0.49175376;0.116191514;-0.19450419;-0.029287947;0.041359615;0.06406056;0.26695973;-0.10740791;-0.162689;0.024978107;-0.023671426;-0.2805472;0.015196662;0.03470852;-0.041938495;0.025301302;0.03181239;-0.07686787;-0.09879726;0.014550991;-0.014145739;0.14842252;-0.3669327;0.09220008;-0.030361637;-0.09073107;-0.7390844;0.17299806;-0.022591038;0.10040135;-0.087512545;-0.9708707;-0.12357101;0.032036617;0.05175055;0.058348022;0.10404555;-0.035224207;0.4503528;0.030054413;0.049307387;0.018317444;-0.10255283;-0.082396306;-0.14127456;-0.120039456;-0.051425304;0.044652723;0.09953634;0.08171283;1.5747896;0.06988015;0.820958;0.007025127;-0.6420775;-0.29024723;-0.09573772;0.58318293;-0.06729523;0.058345284;0.39540204;-0.15215757;-0.1336664;-0.13804016;-0.010529772;-0.508663;0.5210126;-0.17995645;0.03878476;-0.06340443;-0.86568755;0.09418965;-0.28264448;0.0082959095;-1.320429;-0.014028554;-0.08101754;0.04795622;0.20182353;-0.055051837;-0.3645015;-0.12912549;-0.71043956;-0.112069696;-0.395917;0.56127053;0.009105871;-0.5894217;0.25101873;0.044512987;-0.021434492;0.17070635;0.13973673;-0.10628085;0.3161476;0.04568586;0.11209426;-0.00304388;-0.23776308;-1.3673396;0.029284071;-0.017219009;0.022740766;0.1555567;-0.08440787;-0.030117719;-0.04021768;-0.10399074;-0.1987507;0.10622744;-0.681161;-0.41036695;0.0860414;0.077523485;0.043022357;0.00084658386;-0.31879368;-0.22504093;-0.10904544;0.20263352;0.29650462;1.6875755;0.39808485;0.102298446;0.08099324;-1.2560891;-0.10607128;-0.005960269;0.027055344;-0.0071573644;-0.06448772;-0.059892308;-0.25308222;-0.17376314;0.08473088;0.051271252;-0.1704631;0.17744802;-0.09495483;-0.13883558;-0.0672715;0.043846488;0.050727453;-0.47717753;-0.30151993;0.014177961;0.0288984;0.055112164;-0.20792463;-0.6778401;0.017997965;-0.20635395;-0.07108854;-0.29284957;-0.4343161;-0.24780735;0.06704447;-0.054648023;-0.03849217;-0.675112;0.026920054;-0.01982451;-0.060475282;-0.6498411;0.017454052;0.079574525;0.19898006;-0.016720386;-1.6311728;-0.19364142;0.31448558;-0.34697902;-0.27358615;-0.1640325;0.21312308;-0.0278192;-0.11838835;0.07290855;-0.42023316;0.032951556;-0.5036061;0.054565866;-0.018307008;0.030268442;-0.21255463;0.07001952;-0.37315965;-0.052375756;-0.0111924205;-0.3360828;-0.094656736;-0.11721111;0.11538801;0.19195837;-0.30392098;-0.1758553;0.07553502;-0.04416452;-0.25237885;0.010354888;-0.28975406;-0.05918349;0.07349756;-0.024385653;0.032725375;-0.31977838;0.03321614;-0.04252248;-0.17434043;-0.05592911;-0.05220277;-0.13601267;0.072670266;-0.858379;0.059453074;-0.050427165;-0.031930123;0.6931011;-0.25637203;-0.0541603;-0.008948742;0.08666955;-0.06447744;-0.097892374;-0.017594002;-1.8333049;0.069068566;0.029840678;0.092210725;0.024637764;0.045170866;0.039113257;-0.08880821;-0.0449567;0.029843517;-0.03975926;0.8155847;-0.18279345;0.15428472;-0.044370227;0.33936167;0.056981143;-0.09415961;-0.027583452;0.01122208;0.031316176;0.103097595;0.14911206;-0.07691208;0.112274595;0.5167967;-0.4032529;0.1241664;0.021744596;0.10206211;-0.027659127;0.014303705;-0.013766152;0.053350583;-0.05346341;0.044196002;0.027977984;0.04446904;-0.0055421647;0.076227695;-0.05335402;-0.4933067;-0.048855826;-0.08802927;-0.002526239;0.02922322;0.30503133;0.17498612;-0.0452484;0.027616005;-0.030093936;0.45541415;-1.1731744;0.063284636;0.0064764516;0.068089396;0.28232762;0.0064107785;-0.8295856;0.17620796;0.033677984;0.011181864;-0.039715882;-0.053032815;0.014174189;-0.20626976;0.13341819;-0.1427027;0.23373294;0.058710214;0.197813;0.028469106;0.042165454;-0.8657953;0.24578741;-0.16803002;0.3318213;-0.64477396;0.0705421;0.025896082;0.02809557;-0.44024876;0.8244753;-0.14698884;0.14268759;-0.024437062;-0.2568158;0.11212561;0.054308977;0.053522866;0.10884278;0.07096207;0.116910994;0.0392956;-0.10575849;0.038120087;0.039547373;-0.1317737;0.025135254;0.07739615;1.046491;0.11237535;-0.079255946;-0.122445226;0.38438016;0.005452735;-0.047841713;-1.8672388;0.019399522;0.03016586;-0.093512446;0.106037274;-0.049543865;0.046653643;-0.08093647;-0.06512554;-0.02914558;-0.18097353;-0.09913191;0.010507334;0.045760863;0.071344055;-0.09763171;-0.12518114;0.064813435;0.6839555;-0.08594571;0.0630519;-0.020286918;-0.09098515;0.3137412;-0.11182482;0.012341734;-0.4375723;-0.82346684;-0.36006767;-0.38221642;0.12244979;0.08339035;-0.06480682;-0.19056462;0.018777134;0.23210852;0.023166567;-1.6098274;0.12987512;0.2678502;0.4189714;0.24225679;-0.466039;0.049378425;-0.079246394;-0.08976517;0.008942384;0.2689156;0.11640747;-0.76474434;-0.119952865;0.04667456;-0.5494236;0.047987755;-0.02620311;-0.9485567;-0.02995647;-0.14737725;0.48200566;-0.031208279;-0.09913011;-0.05689675;0.19724135;-0.2835403;-0.05359459;0.09702184;0.012282939;-0.12207235;0.04727919;-0.3699334;0.10624733;0.018270476;0.53442377;0.021320198;-0.5071485;-0.27484015;-0.038517248;-0.4762224;-0.041384522;-0.26272914;-0.09230181;-0.082099214;0.4528698;-0.013553496;-0.13744739;-0.035250843;0.117411114;0.027118027;-0.11411138;0.1785176;-0.03801921;0.84928197;0.0007658697;-0.033611797;1.2759465;-0.44270304;-0.03029595;0.06679073;0.07599348;-0.04453697;-0.04353664;0.29159456;0.058044907;-0.33059943;0.053552028;0.22936499;0.12567626;-0.004093112;0.009403674;0.162043;-0.32353443;0.0057531428;-0.3588878;0.064600006;-0.08224929;0.011204015;0.24760747;1.2174648;-1.0585313;0.1585536;0.027499601;0.040044587;-0.60532594;-0.050592262;0.0012303384;-0.022286475;0.024909131;0.3337208;0.21164757;-0.47027797;-0.049140006;0.5076605;0.017938457;0.033671066;-0.9595789;0.09312486;0.060449038;-0.07432655;-0.16028923;-0.09548918;0.30074322;-0.100737005;-0.10361096;-0.03171183;-0.45742938;0.028639467;-0.038061514;-0.4673799
-0.25571337;-0.08094004;0.054999225;-0.6704586;-0.12565067;-0.021826323;0.0014783463;-1.7861382;1.7662787;0.9706992;-0.13521819;-0.9087091;-0.087928616;-0.39404282;0.04827472;-0.39255634;-0.48041198;0.03314174;0.020112174;0.22152852;-0.12046072;0.048329648;0.042007968;-0.18598907;0.04377457;-0.030315593;0.042099886;0.042642396;-0.41576812;-0.08609487;-0.05577264;-0.31383708;0.16332826;0.017191058;0.36671427;-0.045652132;0.013901459;-0.071633495;0.01251956;-0.04037559;-0.55252665;0.40471566;0.76964647;-0.08410457;-0.037065603;0.077760056;-0.42105615;0.1007633;-0.07604158;0.046055242;-0.44874972;0.08001782;-0.98895264;0.054455798;-0.7043192;-0.6416058;0.02230052;0.098333575;0.088386014;-0.032767218;0.09237262;-0.25315106;-0.10374326;-0.07661997;0.06378813;-0.10452213;0.11743486;0.53099144;0.03237811;0.071726;-0.031515352;-0.06504778;0.019874847;-0.096473195;-0.39703166;0.0034077803;-0.07588421;0.46694466;-0.1540759;1.0206692;0.06836748;-0.042015694;-0.44442937;0.015194715;-0.72736895;0.06126332;0.052110426;-0.39877358;-0.11704353;-0.089456454;0.13694875;0.0402039;-0.43517485;0.022833597;-0.059790272;-0.028374618;0.0044283653;-0.1451586;-0.16645397;-0.108653866;-1.7737619;0.07853086;-0.28940865;-0.25074434;-0.15748113;0.11248575;-0.03017645;-0.33531883;-0.11853059;0.004091268;-0.023757253;0.008616822;0.012841267;-0.08798186;-0.03548466;0.053212885;-0.0027245265;0.45637798;0.25907072;0.0693483;-0.034188718;-0.11499057;-0.6198492;0.27657276;-0.12659547;-0.09257682;-0.014807667;-0.5165412;-0.08673856;0.019812902;-0.1045072;0.1840116;0.11939079;-0.021005392;0.50071424;0.06487968;-0.00247341;-1.5971537;0.041428916;0.021659158;-0.01683406;-0.058372095;0.035440445;0.04841682;0.13608795;0.0026442255;0.3413065;-0.0033447559;0.14720653;0.02585176;-0.25124696;-0.06142099;0.030801285;-1.0283748;-0.04833691;-0.040208835;0.77574784;0.20284697;0.08382577;0.28502223;-0.005048195;-0.38719487;1.0205076;-0.37968758;-0.42909896;0.033938706;-1.9815284;0.21012944;0.29008576;0.088751644;0.77256787;-0.0069586923;0.24801274;-0.040050622;-0.16580299;0.03225051;-0.49154174;-0.20797642;0.2652038;-0.15567738;-0.36564338;0.6349459;0.027742522;-0.51087135;-0.015135659;0.07517212;-0.118054934;0.21192716;-0.098134026;-0.084646866;0.054927632;-0.15659426;0.850271;-0.023475576;0.52601385;0.0369701;0.027930183;0.060985524;-0.032410037;0.9525713;-0.07928736;0.056159325;-0.0271016;-0.0061279335;0.10238059;0.046613395;-0.35698116;0.22073358;0.018011276;0.16194472;0.13143869;-0.036344368;-0.34326196;0.022387622;-0.052243344;0.14933138;0.017180672;0.56951123;-0.21113996;-0.05555159;0.018930858;-0.080641165;0.47039306;-0.12555248;0.07398924;0.08029126;0.009652103;-0.038708057;0.15026139;-0.16754805;0.07736219;-0.014579273;-0.793055;0.2761802;-0.10708942;-0.08700953;-0.0017280746;-0.3992768;-0.03149974;0.13527527;-0.31072336;0.059609238;0.1061564;0.020456435;0.78078806;-0.17241909;-0.14696567;-0.16098127;-0.012767237;-0.3597162;-2.4785254;-1.0135401;0.047368743;-0.066927455;0.0957995;-0.92320716;-0.14525405;0.0399519;0.11795731;0.36121824;0.08601978;-0.11259295;0.0348028;0.75797826;-1.1313115;-0.18756652;-0.24964644;-0.5548693;0.4357797;0.07010535;0.26902556;0.046949226;0.008884977;0.3075895;-0.44000143;1.0244391;-0.054069035;0.044434913;-0.057330757;-0.28765842;-1.500456;0.049286425;-0.43835258;-0.054794468;-0.019079179;-0.18840045;-0.9363374;-0.04692944;-0.0147925345;0.09555398;-0.3484806;0.103487924;-0.27308726;-0.060852773;-0.9139737;-0.06771589;-0.06327733;-0.026596624;-0.063341185;0.120058075;0.09787385;0.27152744;-0.0077623636;-0.08231405;-0.52803993;0.035454914;-0.2022013;-0.05396908;-0.010227992;-0.9847444;-0.068189286;-0.010964614;-0.43697903;0.9371353;-0.54717845;-0.019990569;-0.07085613;0.030690279;0.013318153;-0.01955559;0.008364421;-2.5876296;0.059790272;-0.5169365;0.013848556;0.06820436;-0.031572502;-0.0117590455;-0.02698065;-0.01381567;-0.10094601;-0.14731026;0.5978715;-0.11265005;0.12098924;0.045901828;0.6155322;0.089061506;-0.6536323;-0.041025214;-0.09155093;0.08864532;0.28394264;0.18410476;-0.020510817;0.10027157;-0.28623027;-0.42215735;0.1491231;0.024784772;0.108445376;-0.087031804;-0.041182537;-0.04982038;0.0037474402;-0.04301801;0.036273573;-0.0082886955;0.095057696;-0.050335873;-0.34525156;0.08665883;0.41260847;-0.1376833;-0.22920713;0.067201585;0.030046485;-0.68099546;-0.7953956;0.021082647;-0.31352082;-0.008477475;1.0934503;0.06705016;0.015379762;-0.06488039;0.1381229;0.75266725;0.025377959;-0.9700696;0.053880747;0.008902473;0.09421513;-0.09573616;0.03187708;0.080906585;-1.0432186;0.04442955;-0.12635478;0.12173825;0.010625161;0.32502392;0.06123391;-0.057778068;-0.18397857;0.24073358;-0.092559166;0.14588393;-0.2729928;0.010668081;0.030051554;-0.118658185;-0.34626964;0.007857715;0.14659356;-0.2652663;-0.076752625;0.38727766;0.2257224;0.0016994271;-0.56518716;0.0035455788;0.11025185;0.03789057;0.16441225;-0.09908648;0.092896715;0.20960839;-0.081944704;0.04537501;0.364221;-1.2047572;-0.60612917;-0.09866512;-0.3513568;-0.06432311;0.04556483;0.04714694;-0.7705037;-0.1349575;0.025989164;0.0039526033;-0.0077083567;-0.01073412;0.07833753;-0.078017525;-0.18594031;0.030050673;-0.08398436;-0.14403936;0.025031948;-0.015246795;-0.022249384;0.06199903;0.44835234;-0.010586329;-0.36058918;-0.055907354;-0.018972075;0.016578482;-0.09956095;0.102602996;-0.20901635;0.027721886;-0.26327676;-0.03647001;0.03130122;-0.54408514;0.050775908;-0.053283695;-0.09625492;-0.9187787;0.10167645;-0.19120783;-0.023355693;0.27719027;-0.39100805;-0.056768697;1.1699634;0.30293384;-1.0660644;0.02914737;0.040024895;-0.56791115;-0.06693068;-0.15700749;0.11524661;-0.7059633;-0.23762321;-0.06946275;-0.025685579;-0.08050293;-0.112348884;-0.11309817;-0.11235339;-0.22908914;0.07723584;-0.026233252;-0.08648427;0.055533513;0.037661985;-0.4111516;-0.047765147;0.06385374;0.062129404;-0.020241389;0.09015214;-0.32220152;-0.022671448;-0.036735237;-0.02194541;0.1068424;0.33602583;-0.14281772;-0.071579725;-0.95035046;0.054274987;-0.45535642;-0.13851726;-0.027518641;-0.119727634;-0.040369134;-0.15339866;-0.0402921;0.3054458;0.062062897;0.35743672;0.021546472;0.061711743;-0.9107762;-0.06342181;-0.051834792;-0.2571951;-0.38642907;-0.013089415;0.15291332;0.050163705;-0.11265417;-0.1699319;-0.04904869;-0.008158552;-0.19937798;-0.20386778;0.14006054;0.037754923;0.008692138;0.03131425;0.089941375;-0.3653755;-1.127041;-0.90423334;0.38484982;0.09235514;0.13020967;0.72915184;-1.0738698;-0.5689761;0.34741968;0.15355964;-0.013655504;-0.073300704;0.045609258;0.030217392;0.13736069;0.035461124;-0.32726544;-0.95717716;1.0972894;-0.009973662;1.2026963;-0.07269001;-0.08463779;0.7539037;0.08999557;0.067469224;-0.051273998;-0.048970312;0.00389442;0.79398686;-0.059008703;-0.12345952;-0.023043508;-1.5703411;0.042295065;0.027764965;0.048973955
0.054972164;-0.033024088;0.05015316;-0.11955821;-0.13191165;-0.02985998;0.012008178;-2.220164;1.0409377;0.40286937;-0.12653545;-0.3424839;-0.059992675;-0.03402427;0.07432071;-0.3889479;-0.7581008;0.19704174;0.047091786;0.23448229;-0.16189064;-0.02361418;-0.073594145;-0.70144755;0.08101747;0.11757055;0.045975782;0.02820477;-0.5896398;-0.13898684;-0.07207935;-0.60017717;0.26118037;-0.0639863;0.47400758;0.06599721;-0.07473184;-0.0840197;0.076725245;0.023413278;-0.45368865;-0.31129616;-0.4445807;-0.079966255;0.44634783;0.06689832;-0.115049504;0.0072311596;0.9932116;0.42060766;-0.4191908;-0.058104873;0.034946684;0.01257574;-0.6082525;-0.87791777;-0.18929078;0.1248965;0.058547925;-0.091844834;0.042808417;-0.16352402;-0.05543593;-0.24027537;0.14805648;0.040553052;-0.4726516;-0.8504195;0.11358527;0.052807216;-0.11014682;-0.045242805;0.074512556;-0.05535072;0.48569897;0.12595779;0.13745403;-0.08748738;-0.586169;-0.9713916;0.1765977;0.0049215374;-1.2944971;-0.08009616;-0.9286988;-0.0031756288;0.0517169;-0.7163867;-0.044077877;-0.10490592;0.08290218;-0.42501605;-0.26256508;0.0278422;0.010246252;-0.061321978;0.22482963;0.14155908;-0.15012513;-0.15941913;-0.37476978;0.024348825;-0.5801917;-0.11346984;-0.18392752;0.09297676;-0.02044098;-0.8078274;-0.07170344;-0.30037445;0.009977032;-0.10266554;-0.025865061;-0.019997204;-0.021408532;0.052940715;-0.0014085781;0.54374427;-0.71796197;0.11327692;0.067044765;-0.066750474;-0.4200862;0.28360873;-0.16041112;-0.007607149;-0.03443751;-0.7369337;-0.10365444;-0.008436465;-0.07809967;0.23269604;0.21333061;-0.1089564;0.3763427;-0.05994843;0.0481396;-0.037006814;-0.01925126;-0.00068260485;-0.13853595;-0.085808136;0.11072167;0.08023197;0.10783826;-0.024975853;0.8053479;-0.0403656;-0.017336171;0.05218512;0.29078782;0.060289767;-0.042886678;-1.0070124;-0.015998855;-0.00894725;0.09197213;-0.028840857;-0.33264944;-0.24292089;-0.014801909;-0.5125124;-0.0025701704;-0.43118188;0.3328385;0.0113529395;-0.4981915;0.35160407;0.4863548;0.14691216;-0.36930165;0.07523784;0.36486337;0.044219792;0.25268322;-0.00032050416;-0.4400877;-0.055544246;0.22313876;-0.050205775;-0.6260094;-0.6023542;0.0037720597;0.3176754;-0.44692805;-0.031175114;-0.14269817;0.16179344;0.16441084;-0.06076177;-0.07100637;-0.07471294;-0.17892113;0.05949584;-1.038361;-0.06399332;-0.06560467;0.05710275;0.014720048;0.41864526;-0.15988491;0.07579415;-0.021187112;-0.06548296;-0.7982368;0.14698315;-0.29618236;-0.2680782;0.07508921;-0.08977892;0.15886267;-0.14193273;-0.508251;-0.5486844;0.03873781;0.26814;-0.4399389;-1.0719274;-0.33389604;0.08091591;0.039784927;-0.36272767;-0.16501962;-0.009822895;0.08721181;-0.0030991698;-0.061580017;-0.017459014;-0.012700465;0.0900281;0.13747635;0.16172943;-0.6392515;1.6016265;-0.10808459;-0.14559983;-0.027784564;-0.15752949;0.034243383;-0.013084957;0.49181435;0.04229539;-0.06994577;0.03888417;-0.21832211;-0.30352238;-0.16996734;-0.21769644;0.044431325;-0.3690056;-1.714307;-0.33039013;-0.0057173036;0.009225693;0.057288155;-0.085480094;-0.1911657;-0.025681445;-0.032574087;-0.68079245;0.022369366;-0.11965244;0.097753145;0.32162252;-1.8209056;-0.24289902;-0.018856319;-0.06246902;-0.6929573;0.009922297;0.361759;-0.02351797;-0.09054225;0.28490385;-0.43517944;-0.25559008;0.07845405;0.09173231;-0.09400044;-0.5130716;-0.5943348;-0.062121812;-0.4598428;-0.120750986;-0.11064118;-0.31337664;-1.9039931;0.001604221;0.06761446;-0.0008218932;-0.33621165;-1.0297637;-0.17199409;-0.027036618;-0.70979095;0.07252961;-0.46184838;-0.064045;-0.0061323266;0.15208864;0.09903977;-0.22895625;-0.076083705;-0.11959105;-0.24872433;-0.010821089;-0.06046334;-0.15685023;-0.037861347;-0.9375223;-0.056158926;0.06908505;-0.26467973;0.7174348;0.49129716;0.095105104;-0.020437032;0.11788926;-0.10469071;-0.12479376;0.00015866035;-1.4108479;0.11442811;0.20070732;-0.02895571;0.17937294;-0.38173592;-0.06702003;0.05725581;-0.028863179;-0.034861974;-0.17284319;0.6054884;-0.09539903;0.31522146;-0.022592548;-0.27394086;0.09106074;-0.9356194;0.019899568;-0.042966016;-0.020489944;0.5101883;0.08847286;-0.13934897;0.094389975;-0.008538923;-0.4174099;0.22060303;0.13632587;0.17855392;-0.07366279;0.017927313;0.051387697;0.1719443;-0.0078018093;0.06050584;0.034922086;-0.2982587;-0.073414534;-0.5786555;-0.006015315;0.32883424;-0.053883683;0.5425511;0.10125225;0.093176425;0.36327204;-1.5445799;-0.008738539;-0.3534495;0.0027660215;-0.29725668;-0.28603727;0.07544521;-0.07482461;0.061817534;-0.47262156;-0.12547643;-0.03801794;0.2377927;0.16721188;0.07118221;-0.2069693;-0.041578308;0.07116434;-0.18133114;0.10584951;-0.11689262;0.20201802;-0.00032828582;0.31160557;-0.054072365;-0.042965543;0.90191543;0.31217098;-0.175321;0.24800968;-0.3887484;0.14713833;0.014614468;0.016687948;-0.35631752;-0.4883907;0.54762125;0.974712;0.005685004;0.3137923;0.41472408;0.06815533;-0.1119758;0.22704642;0.24309316;0.012719251;0.05855548;-0.041471563;0.09098642;-0.2945315;-0.10731466;-0.038229972;0.6179369;-2.2769523;0.7520007;0.0031100702;-0.46187997;0.65402365;0.015717667;0.035060663;-0.9365686;-0.13759962;0.16412878;-0.07795556;0.07306375;-0.03323455;0.092181794;-0.09679839;-0.18217506;0.06390724;-0.27616137;-0.13683936;0.21360323;-0.01516724;0.08058183;-0.04463078;0.14678611;-0.019868748;-0.46929228;-0.19365762;0.12978026;0.051851213;-0.12720142;0.16865095;-0.35229748;-0.079610124;0.47962743;0.83027005;-0.73459023;-0.5696849;0.16905835;0.051885135;-0.15600361;-0.8084056;0.111591935;-0.16971771;0.03870988;0.12162753;-0.58123183;0.014021033;-2.0401444;0.31405047;-0.25922418;0.2222813;0.009592266;-0.030975178;-0.19671258;0.11881499;0.1168551;0.19644094;-0.02066989;0.01627667;-0.47166315;-0.0757905;0.3092579;-0.13464323;-0.0845799;-0.21220265;-0.41980684;0.028828511;-0.09059073;0.01179008;0.0058308085;-0.1838003;0.044511076;0.10697959;0.07400275;-0.14909193;0.1497943;0.14705369;0.04803989;-0.07643474;-0.96534395;0.039559025;0.30631125;-0.062754825;-0.05977018;-0.52921486;0.11335356;-0.3316076;-0.13350454;-0.11227081;-0.52728575;-0.06864205;-0.12784971;-0.107915945;-0.13281228;0.07105002;0.18027937;-0.29113173;0.08811218;0.61781573;-0.07025356;-0.08805042;0.43918625;0.023658106;-0.04994452;0.18580897;0.122648686;-0.093966715;-0.6768665;0.13472243;0.06207636;-0.1310039;0.11408167;0.17282155;0.22523578;0.07697244;0.048729803;0.11388266;-0.8236561;-1.2444148;0.16544862;0.69397414;0.020567294;0.14656875;-0.09698276;-1.8567683;-0.425399;0.29117894;-0.34643942;0.058674335;0.76638997;0.07620115;0.09462823;0.05337489;0.076561175;-0.70929426;-0.064613186;-0.13907965;0.010299857;-0.6167433;-0.033470444;-0.07518946;0.3345855;0.039789956;0.096137926;-0.06596881;-0.1915001;-0.05322364;0.13133207;-0.055181164;-0.14223647;-0.01436404;-0.3569723;-0.07367313;-0.031407867;-0.4573453
0.03436955;0.057437237;0.08423514;0.3265651;-0.31136245;-0.0792426;-0.048181754;-0.10631996;-0.7663539;0.35412744;-0.011084129;-0.8200425;-0.0021183116;-0.4025227;0.00042411857;-0.2828475;-0.5089817;0.17555872;-0.009177631;0.15765065;-0.11176773;-0.07476956;-0.036726084;-0.7228826;-0.041618936;0.082171984;-0.018974219;-0.11650368;-0.08787707;-0.07121829;-0.050486017;-0.3591438;0.22175911;-0.074304745;-0.062482417;-0.083768666;0.026540415;-0.013820081;0.0850619;0.026719544;0.2618904;0.29709852;-0.8075687;0.019432051;0.06754581;0.07110887;-0.19894752;0.033427734;0.3260741;-1.9226338;-0.78331566;0.077804856;-1.1040037;-0.06649912;0.5096462;0.335996;0.064970285;-0.026978856;-1.3638519;-0.04402205;0.07041713;-0.51046455;-0.09306624;0.11513009;-0.05058483;0.06433595;0.37821966;-1.0856951;0.0022912426;-0.0074544726;-0.0858315;-0.04054938;0.07922254;-0.07227341;0.5098755;-0.11937593;-0.1242691;-0.7415329;-0.26813105;0.13977884;-0.0063591483;-0.07796089;-0.6646453;0.019765459;0.20860155;0.013776146;0.021512734;-0.30130455;0.011675093;-0.12044014;0.053092122;-0.53029644;-1.3011562;-0.060119603;0.013654963;-0.034351926;-0.19054452;-0.17922808;-1.011151;-0.012282722;0.13416399;0.07169261;-0.17317267;-0.108273104;-0.13125552;0.12700824;0.011863908;-1.798369;-0.026780816;-0.33205718;0.062792376;-0.06786803;0.05995637;-0.062232725;-0.027027981;0.061033465;0.013723135;0.13486058;-0.055124428;-0.06877045;0.04182205;-0.014774678;-0.42246708;0.13560116;-0.020567881;-0.00046612893;-0.097923376;-0.13837901;-0.05517015;-0.08923686;-0.09530233;0.39693043;0.13022244;-0.010380295;0.26292986;-0.0106257545;0.05746738;-1.0563504;-0.006926811;-0.117831476;-0.1406141;0.07263086;-0.08665763;0.07958262;0.051465593;0.00347759;-0.04747294;-0.0038782454;0.34289545;0.05266887;-0.99008644;-0.307389;0.012957477;-0.5364466;-0.00515065;0.018351577;0.52726537;-0.02646048;0.15886265;-0.084484845;0.014973228;-0.36359435;-0.8554118;-0.2566144;-1.756809;-0.05843913;0.3332125;0.24498822;0.10022264;-0.07957372;-1.8114362;0.078649715;-0.57286334;-0.062579595;0.012326573;0.030150292;-0.5448416;-0.22028327;-0.17814961;0.23775502;-0.29331684;0.12653656;-0.017812205;-0.01704209;-0.7444823;-0.018544728;0.044340435;0.09248421;-0.2605616;0.05291691;-0.021441868;0.0028745714;0.79993504;0.05999775;-0.33073974;-0.34275684;0.061729565;0.0648831;0.07199683;-0.9902366;0.014823635;0.02220529;-0.068760306;-0.04596272;-0.81434274;0.10145273;-0.60025924;-0.42068708;0.062376037;-0.00835914;0.06099951;-0.0022848996;-0.23016135;0.15322527;-0.017254818;-1.3569695;0.55044657;-0.35202947;-0.28222457;-0.051701434;0.0037587094;-0.4772556;-0.45956033;-0.080381595;-0.09617195;0.033813793;-0.065706596;-0.042447366;-0.28879973;0.3381781;-0.01658448;0.05438507;0.22668235;-0.1407678;-0.0746063;-0.06176384;0.028970161;-0.15531942;0.06060529;0.13029425;0.33236516;-0.0339286;-0.13409506;-0.005816464;0.17241026;0.46842554;0.034400128;-0.059040185;-0.04651666;-0.16167945;-0.051117316;-0.5577814;0.031593632;-0.003308158;-0.04668529;0.9936807;-0.06436178;0.047880247;0.027606197;-0.30043983;0.0075439056;0.013369855;0.14053062;-0.03841305;-1.0601484;0.04372444;-0.05458781;-0.25491366;-0.40095726;0.057453845;0.19778414;-0.04899155;-0.020734468;0.355899;-0.3085117;-1.3904328;0.6258014;0.06459958;-0.124564104;-0.11419244;-0.039420176;-0.05925879;-0.2742141;-0.062630095;0.043546125;-0.15436254;-0.268197;-0.098990895;0.02865247;0.050140876;-0.23065795;0.11673381;-0.4724941;-0.011014775;0.2891115;-0.0017265907;-0.14049251;-0.104513444;0.06552901;0.016270822;0.038511533;-0.36608532;0.044455584;0.043790165;-0.1297876;0.013792571;-0.070270956;-0.0017395678;0.096239515;-0.9311917;0.064113766;0.078618854;0.1539637;0.047650013;-0.13415664;0.07325976;0.013101394;0.024176713;0.028849069;-0.06168482;0.03853294;-0.83699554;-0.03662821;0.040495448;0.090011135;0.017682008;0.21142614;0.007660243;0.04074455;0.012250653;0.024519127;-0.19106868;0.14456375;-0.09345503;0.06826779;0.006379773;-0.22399712;0.03572687;0.49447128;0.23323485;0.026494686;0.01690321;-0.11472079;0.004068198;-0.027878834;-0.037546832;-0.2144208;-0.23640051;0.0758344;-0.031338103;0.09071206;-0.05530794;-0.03165933;-0.0018268543;-0.07253598;-0.010102667;-0.06389032;-0.014961977;-0.3672753;-0.015167534;-0.14026955;-0.022805996;0.250937;-0.12458932;0.85128516;0.010243304;-0.0013540786;0.05816647;-0.07618894;0.06076106;-0.18041635;-0.046181288;-1.287638;-0.67087156;0.06919646;-0.07177454;-0.031680793;-0.2305505;0.02880312;0.13979796;0.12381491;0.021099217;0.05258949;-0.021515;0.003258662;-0.07094216;0.050700363;0.06149726;-0.056627862;0.23072326;0.037438497;0.35021833;-0.064909205;0.054046143;-0.8684722;0.29021952;-0.07278248;-0.43110207;-0.41988608;0.08333113;0.0559012;0.0071985354;-0.29243672;-0.5129493;0.9310998;0.40754223;-0.037507355;-1.1141522;0.14738531;-0.062299624;0.033681914;-0.44385216;0.1205846;-0.022832256;0.0049059372;0.0053424938;-0.06646609;-1.473889;-0.07994584;0.036262665;-0.70037615;-1.0135472;-0.07522526;-0.057262294;-0.36863127;-0.21546082;0.055272363;-0.09622418;-1.3122137;-0.09169204;0.038760982;0.054808587;0.05142422;-0.03261133;-0.011610715;-0.008712128;-0.17116573;0.003882011;-0.00013822138;-0.11043746;0.059749134;-0.007525694;0.077772364;0.01784617;-0.018641999;-0.08056871;-0.9391129;-0.16198574;-0.020651963;0.0765614;0.024506569;-0.16359413;0.08258488;-0.08761575;0.46620467;-1.2698412;-0.53691137;-0.30166283;0.03075254;0.05721821;-0.06231721;0.2040233;0.020016229;0.08132986;0.03198015;0.07183129;-0.220611;-0.05665412;-0.1415911;-0.1893932;-0.15966137;0.03260081;0.027533755;0.7350915;-0.087448925;-0.4412717;0.06734147;-1.2825748;0.13692777;0.18046233;0.13435112;0.023359794;-0.13654482;-0.09497496;0.018590067;-0.17372735;-1.3672358;-0.046135813;0.012231813;0.020285537;0.07197764;-0.07570213;0.058512054;-0.07684678;0.009252546;0.025981031;0.039102014;-0.3397427;-0.035641983;-0.053733543;-0.19507286;0.058764927;-1.8208096;-0.23526166;-0.00126231;-0.07816017;-0.010686146;-0.09678519;-0.20752124;-0.10324125;0.4163692;-0.093766205;-0.13310894;-0.08593943;0.0056240014;0.009975011;0.076495595;-0.079951614;0.01112754;0.22029856;-0.024755264;0.051832583;0.101286836;-0.3700718;-0.08544472;0.0002658222;0.026980309;0.022294449;-0.7689732;-0.23241189;0.050478514;-0.0143681625;0.7576759;0.17427789;0.1602157;0.021203617;0.01823101;0.058029197;-0.64486104;-1.597567;0.15733713;-0.23165104;0.01028109;-0.033553824;-0.5726963;0.29241484;-0.8165122;0.33949104;-0.18918835;-0.0146821905;-0.33728817;-0.01236132;-0.027858447;0.013340667;0.049828373;-0.09716303;-0.094157346;-1.0111576;-0.047854885;-1.6377224;0.08364376;-0.024943342;-0.6748909;-0.12965153;0.08667549;-0.069034666;-0.047921684;-0.006959318;-0.18416803;-0.111074716;0.039573386;-0.059695765;0.27891243;-0.10677056;-0.08263501;-0.3552888
-0.27735677;0.02351258;-0.008530002;0.17161211;-0.20930994;-0.005986148;-0.07706584;-0.34161162;0.2593281;-0.4071402;0.060236175;-0.96407735;0.13568556;0.5253719;0.027276207;-0.3293989;-0.7348017;0.033466488;0.0043198345;-0.07665946;0.006131242;0.024571871;-0.02491686;-0.7454049;-0.026426766;-0.008432991;-0.025466096;0.096804634;0.063665494;0.099765316;-0.017430158;-0.15073943;-0.006355411;0.09032123;-1.075311;-0.447877;-0.027786952;0.11395469;-0.16128473;-0.05829422;0.37755856;0.033978257;0.20374621;0.09270494;0.13475019;-0.23569678;-1.4276747;0.0133325895;0.08421545;1.029336;-0.68440324;-0.06896655;-0.920169;0.0078083887;-0.47724476;-1.5425771;0.22143327;-0.04306934;-0.4930594;-0.0037870258;-0.19577931;-0.048310146;-0.029705646;0.036488034;-0.1264843;0.10126426;-0.98122495;0.023710836;-0.09126131;-0.04616273;-0.007306253;0.027539955;-0.14591925;0.17148061;-0.29138887;-0.13808547;-0.21436054;0.28491175;0.3672149;1.9725093;-0.2062035;-0.07894458;-0.29387093;0.045264244;-1.3858411;0.06704199;-0.18947713;-0.20906703;-0.02824609;0.06472176;-0.15173852;-0.8978888;-0.31308648;0.08034528;0.105006844;-0.012820998;-0.6195647;-0.030684495;-0.16930977;0.20222533;-0.028794596;-0.0011999141;0.0016737352;0.40740564;-0.017761212;-0.28908724;-0.002283839;0.887188;0.07082525;0.36410147;0.0175809;-0.03614493;-0.09567313;-0.047366664;0.1245136;0.017893555;-0.19843951;0.215204;0.008149377;-0.14468814;-0.060706057;-0.03826182;0.49995917;-0.102712736;0.1000197;0.054150533;-0.0072549703;-0.9801438;0.044528738;0.09062911;0.06026404;-0.09849437;0.066339746;0.08193017;0.29029813;-0.07528934;-0.18912485;-0.13093357;0.1083488;0.13750544;0.10608307;0.2741923;0.029691573;-0.20279813;0.013300025;-0.06648708;0.30702224;0.04389118;0.13545693;-0.25499493;-0.9428773;-0.31221715;0.007722245;-0.24133195;0.063449666;-0.037008096;0.07899498;-0.25770748;-0.23772867;-1.2990459;0.024088304;-0.21739215;-0.36706492;-0.10923473;-0.23739661;-0.051803824;-0.021871736;0.018287942;0.32669002;-0.07591976;0.3426107;-0.15297335;-0.25863588;-0.1959307;0.13603212;-0.00015538791;0.10777075;0.15676597;-0.7310667;-0.26709655;-0.341765;-0.08437275;-0.15092514;0.26863554;-0.09873359;-0.07091823;0.090453126;-0.17004105;-0.06257022;0.17636955;-0.06518643;0.43448386;-0.2315888;0.034381285;-1.2394631;1.105788;-0.0787538;-0.045866776;-0.013436129;0.5805914;0.18109033;0.02897438;-0.019738352;-0.016026815;-0.7622194;-0.2307721;0.20243019;0.07575095;-0.12983134;-0.45839885;-0.23381847;0.26016974;-0.16149853;-0.50489366;0.09271417;-0.13090049;-0.45297778;-0.52957904;-0.24780077;-0.016069513;-0.13574974;-0.5611991;0.29271513;0.04224256;-0.013774262;-0.18151939;-0.15000628;-0.023146449;-0.17436755;-0.38788998;-0.039909195;-0.088015564;0.40710208;-0.79076564;0.0937567;0.2049429;0.054101568;-0.072505474;0.06938533;-1.0575755;-0.61064047;0.0027845197;-0.2156884;-0.09637773;-0.7606262;-0.69109654;0.16276583;0.059429243;-0.060637057;-0.10693488;-0.40243673;-0.29018775;-0.02181982;-0.102677345;-0.10509445;-0.9715386;0.35847023;-0.06076335;-0.019953277;1.149031;-0.16451465;0.22696635;-0.21481499;0.29836655;-1.326368;0.26468828;0.43308124;1.3120062;-0.36803496;-0.3231577;-0.1310162;0.077170394;0.13111423;-0.050214533;-0.28933036;-0.2888489;0.5271204;0.0065533193;0.098443046;-0.18481234;0.4493994;0.003054642;-0.23748888;0.055115752;0.035576534;-0.108540334;-1.4331673;0.119267136;-0.050019577;-0.017515963;-0.20269193;0.18878496;-0.22249325;-0.0009980008;0.32087466;0.06709791;-0.30854377;0.036222395;0.050859623;-0.1638829;-0.03544518;-0.3151304;-0.036881156;-0.020615704;-0.66905713;-0.07979402;0.27773517;0.05769353;-0.0160992;-1.1328043;-0.019292777;-0.093857735;0.3391731;0.8739697;1.8104419;0.0028039396;-0.0529507;-0.15112579;0.05923456;0.06880295;0.055923857;-0.42166808;-0.24656206;0.23243238;-0.08652499;-0.23873399;0.31267086;0.11746114;0.07110737;0.20373462;0.11214811;-0.07207777;-0.16867363;0.15163651;-0.15374774;0.021857638;0.47294968;-0.024349263;-0.22352898;-0.046667073;0.07576685;-0.14638762;0.26633272;0.078749835;0.039955933;-0.16348173;0.4702737;-0.16202949;-0.20922944;-0.25000304;-0.1494868;0.04953294;-0.07075889;-0.17958581;-0.27096403;-0.08865987;-0.06293792;0.08962491;0.20201957;0.0023918138;-0.26825657;-0.0064892326;-0.45127067;0.030331269;0.07410769;-0.1714039;-0.06015805;0.5900758;-1.1396149;-0.15231426;-0.42140335;0.026154721;-2.1275287;0.7539398;-0.14536616;0.12846705;-0.28311083;-0.36993226;0.18635462;0.01934625;-0.1367579;-0.18453828;-0.16003664;0.13102345;0.028031444;0.050375085;1.3774117;-0.2751995;0.05228647;0.03552995;0.09197292;-0.041490868;-0.08302025;-0.04265014;-0.10785083;0.0043139425;0.07670593;0.41213343;-0.39208394;-0.15284474;-0.027930941;0.029805306;-0.27702183;-0.64707595;0.7402827;1.0153147;0.11827452;0.49724665;-0.47661573;-0.16723281;-0.0683458;-0.23030326;-0.1598744;-0.017607085;-0.20522843;0.100696504;0.046998184;-1.0853728;0.031133618;0.04390313;1.1190512;-0.44009605;-0.23906456;0.0605057;-0.29228157;0.24188456;-0.022076825;-0.07333294;0.65550274;0.046433687;-0.20471844;0.049850583;-0.23523873;-0.008131834;0.026552387;0.02725736;0.25131485;-0.2361093;0.1291807;-0.03566715;-0.20005223;-0.10136937;-0.08829371;-0.055891078;-0.51956517;0.019203717;-1.6328448;-0.5399871;-0.095978156;-0.09888934;0.041626003;0.054219175;0.15315771;0.03697048;-0.8656389;-0.8665956;-0.3692572;-0.44709116;-0.1614538;0.036037557;0.14729418;0.16469961;-0.017125778;0.13448718;0.061518382;0.64067274;1.03227;-0.055168774;-1.4117357;0.17810984;-0.288502;-0.23292829;0.059448637;-1.0059973;0.25995782;0.02285431;-0.20053491;-0.7715508;0.34418455;-0.0062181745;-0.7015325;-0.025033602;0.18085757;-1.4403297;0.0772166;0.3210211;-0.16283315;-0.074004225;0.06497209;-0.011258964;-0.061710432;0.83451974;-0.05772923;-0.23043734;-0.3210279;0.004811569;-0.22560476;-0.013377108;-0.07183535;0.029427499;-0.29524723;-0.15725075;0.3286436;-0.69265854;0.14098287;-0.16754223;-0.08189423;0.12789097;-0.18553935;0.014160885;-0.5197829;0.07805342;-0.10296504;0.0012260985;-0.055067636;-0.29931152;0.4806271;-0.7451337;-0.23062693;0.3186977;0.22516155;-0.03468818;-0.81864583;-1.0259385;-0.081296705;-0.20649219;0.021116687;0.11186308;-0.7198731;-0.03741898;-0.16280286;-0.29259148;-1.6663721;-0.1290989;-0.2785216;-0.039083682;-0.052203022;-0.19830711;-0.652857;-1.2029395;0.24895819;1.5681882;-0.5035472;-0.023917198;0.3738065;-0.70486194;0.8424135;-0.10313844;0.43409207;-0.12169878;-0.17482352;-0.089272685;-0.07230433;-0.18276796;0.0028981487;0.5624496;-0.23306471;-0.5935871;0.07020195;-1.3057171;0.014430516;-0.009444014;0.31766337;-0.1607972;-0.21625562;-0.022637405;0.07573329;0.19300343;0.26207244;0.05218556;0.10259407;0.019270679;-1.2356014;-0.048224606;-0.06770089;-0.07991172
0.3585681;0.012045547;0.030024;0.617171;-0.1286992;-0.10302972;-0.04230624;-0.7857888;-0.8006248;-1.0429013;-0.021955557;0.71509075;-0.13093263;0.031716704;0.03033004;-0.7755261;-0.5937593;0.036466166;-0.053571217;0.60830665;-0.15277433;-0.086720735;0.038415335;-0.7701178;0.004137832;0.034371503;0.064976774;-0.12365462;1.1704667;-0.061775036;-0.009591688;-0.4369866;0.48479533;-0.0640426;-0.5954046;0.35161194;-0.11046642;-0.09751697;0.009684081;-0.028642379;-0.39409083;-0.10684256;-0.13451035;-0.102332026;0.29936087;0.16081883;0.7110979;0.08935012;0.22257079;0.9912117;-0.38843128;-0.024941536;-0.016781993;0.041961744;0.8782231;-0.99610907;-0.16565752;0.09746307;0.74027324;-0.009821399;0.058325283;-0.58892614;0.03217664;-0.08112222;0.05638627;0.14180715;-1.4080886;-0.42962965;0.07047067;-0.030188538;-0.1412238;0.030715207;0.054123133;0.014903237;-0.28100246;0.1267385;-0.36656025;0.3198735;-0.8387242;0.07286262;0.046919342;0.05969914;-2.3372338;-0.070559055;0.73509675;0.0016382793;0.007752797;-0.7860509;-0.033580128;-0.20997995;0.18706848;-2.2396572;-0.13617603;-0.05056008;-0.044492107;-0.010814044;0.48494524;0.22068128;-0.43996355;-0.07328662;-0.9040248;0.09383565;-0.6449905;0.04522973;-0.10314202;0.20542377;-0.060219653;-0.9592831;-0.063796714;-0.3801194;0.059284482;0.02246231;-0.034686033;0.06103827;-0.038934432;0.063034736;0.14521392;-0.02009959;-0.39005104;0.09524842;0.110404685;-0.14981613;0.43932983;0.46644056;-0.16072369;0.063930884;-0.12744458;0.33397985;-0.098121986;-0.09642129;-0.029467948;0.30297714;0.30962768;-0.18024507;-0.21102078;0.093959354;0.19414212;0.29680586;-0.012299932;-0.07419539;-0.15472323;-0.2289036;0.10824311;0.041021194;0.035615996;0.080294095;0.65507406;-0.01253578;1.0840064;0.19685434;0.5131406;-0.15842019;0.05602533;-0.029097801;-0.08307098;0.028668964;-0.8097927;-0.052229278;-0.54813266;0.047977682;0.012114365;-0.7590321;-0.5032335;-0.7834922;-0.52807015;-0.0059979055;-1.1933339;0.6276835;0.32644948;-0.031466886;-1.1817545;0.12836532;-1.4362653;0.07812543;0.41162205;-0.088111654;-0.008750579;-0.07380758;0.38201177;-0.107302435;-0.950642;1.6315738;0.06522571;-0.32844958;-1.6222987;0.07629781;-0.11400629;0.4075068;0.14359196;-0.18134163;0.19824946;-0.0303889;-0.77427447;0.05806413;0.13291568;1.1460388;-0.010757283;-0.06837011;-0.050081927;-0.9946238;-0.14399014;-0.009978466;-0.047676872;-0.1386434;-0.8890625;0.13340259;1.152101;-0.250975;0.076298654;-2.2040787;0.19899543;-0.17354444;-0.69348437;-0.8935595;-0.04191679;-0.52230537;-0.6986926;-0.5420412;-0.78555155;0.011912018;0.087086916;-3.0919166;0.42661494;-0.14883931;0.20264922;0.089116134;0.14209804;-0.12560523;0.04761192;0.30065733;0.13478513;0.0006804493;-0.15590748;1.5588777;-0.02231514;-0.2014216;0.0180163;0.08144193;-0.0765102;-0.5442226;0.42233127;0.01762099;0.018256564;0.0064833057;-0.4423434;-1.2094257;-0.0495319;-0.08549853;0.028846147;-0.48989958;-0.59515303;-0.74820226;-0.054230917;-0.00019871804;0.1284405;0.10819163;-0.29333493;0.050284166;0.038217176;-3.2371953;0.048929982;-0.15528926;0.17593066;0.011025189;-1.4450873;-0.18532008;-0.37803447;-0.9444163;-0.23372564;0.031464316;0.5122849;-0.05553206;-0.15289038;0.7340061;-0.7514727;-0.80675894;-0.61529803;0.03325425;-0.07336161;-0.40041918;-2.0325043;-0.0069809733;-0.598432;-0.073547624;-0.061765842;-0.3460265;-0.5979588;-0.03880653;0.02020607;0.14218035;-0.50738704;0.39907372;-0.7752423;0.054719318;-0.0944064;-0.045306176;0.14827153;-0.115285;-0.010171545;0.13241203;0.010256241;-0.25584662;-0.0046123797;-0.033621598;0.80650955;-0.05947331;-0.1901552;-0.09982678;-0.01835137;-0.49850538;-5.536427e-05;-0.03455723;-0.14022629;0.17619562;-1.2666217;-0.019963503;-0.106637865;0.15248124;-0.07958813;-0.04358797;-0.108446606;-0.092653744;0.13898538;0.14920168;0.030703668;0.2382729;-0.28617635;-0.042711608;-0.01923675;-0.14261054;-0.09141367;0.0127342595;0.49454868;-0.08823189;0.32123482;0.046230815;0.57999694;0.07970095;2.0307279;0.0010500684;0.019428898;0.032619055;0.56166166;-0.0009363532;-0.037000474;0.15648937;1.8568976;-0.5122866;0.1921753;0.17102155;0.19451663;-0.008555452;-0.036198344;0.012660972;0.15006562;0.03717653;0.068515725;-0.10489371;-0.6316906;-0.091031484;-0.70260483;0.02506282;0.078158185;-0.081360824;0.91383636;0.09606972;-0.02277573;0.6142503;-0.44971827;0.04333831;-0.58784467;-0.04250003;0.6838416;0.9533434;0.10933953;-0.0996539;0.18319325;-1.4038574;-0.12626652;0.43293664;0.287997;0.08508948;0.24761648;-0.0793279;-0.10893354;-0.0053594145;0.29350647;0.12787884;-0.16439147;0.15717329;0.03909906;0.6610791;0.033828087;-0.08720036;0.4887853;0.7515884;-0.18237133;0.6450206;-0.40515527;0.10142675;0.11217391;-0.08766172;-0.47491068;-0.45415786;-1.5496267;0.2993311;-0.14831078;-1.9496046;-0.42192954;0.112154014;0.24147435;-0.12761912;0.24209073;0.006630755;0.039297674;0.14140953;-0.059323896;-1.0850362;-0.17539433;-0.05866978;-0.2334641;0.09020741;0.7480099;-0.03680219;-0.7370813;-1.5977603;-0.016570779;-0.011790691;-0.8107377;-0.11987769;0.09088121;-0.005392259;0.18285319;-0.08198814;0.024642361;-0.050163873;-0.023496792;0.16063456;-0.06904541;-0.22695696;0.23496272;0.06532966;0.016440086;-0.07767345;-0.05277279;0.04379172;0.12836437;-0.8457975;0.12559201;-0.014239754;-0.047480192;0.50098073;-0.3381265;-0.117436856;0.99665904;0.85550827;0.07152933;-0.38686985;0.20450377;0.004543967;-0.097937256;-0.39067942;0.002945909;0.1670693;-0.011306506;-0.9008483;0.1981742;-0.04576696;-1.4529876;0.2805457;-0.49496937;0.21192294;-0.004531933;-0.3464825;-0.23915188;-0.22617516;0.075525954;0.24137552;-0.036194123;0.5248507;-2.0609486;0.015349013;-0.24717626;0.033082157;-0.11147908;-0.34901357;1.4828823;0.11429087;-0.02091915;0.024442444;0.09065786;-0.12271312;-0.09313024;0.19892013;0.033565283;-0.1465903;0.06795391;0.0044189603;0.08051712;-0.005305544;-0.9883643;0.08826983;-0.6326272;0.46401665;-0.15080898;-0.9700432;0.14411344;-0.11933944;-0.021795155;-0.15100375;-1.0400712;-0.045625344;-0.24635756;-0.1020053;-0.12829393;0.13334407;-0.33634233;-0.22006235;0.22027937;0.35667062;-0.1960308;-0.05205934;1.7654071;0.3418138;0.005857603;0.23767808;0.013477188;-0.0990679;0.51374555;0.24959722;0.18653482;-0.030501934;-0.7963052;0.32667494;0.30608806;0.11248895;0.022298498;0.23065017;-0.6687035;0.29685313;0.39622527;0.50901973;-0.17056704;-0.007472537;0.3666486;-1.1844618;0.6603551;0.6349334;2.1223326;0.06039603;-0.7696919;0.058612637;0.017651252;0.07211957;0.015011666;1.0209473;0.5288805;-1.6120998;0.07058657;-0.64888215;0.009504674;-0.016760573;-4.22485;0.21504852;0.05645435;0.09783917;-0.20770952;-0.1318122;0.6856212;-0.09312183;-0.10179901;0.022863267;0.5277374;-0.07083807;0.019696984;0.35965112
0.57781136;-0.111240566;0.0613757;1.9479346;-0.22429858;-0.138663;0.04173858;-1.2308235;-0.4680355;-0.83433926;-0.18122588;0.17234027;-0.21380587;-0.8573188;-0.09180374;-0.6701373;0.5946889;0.07190293;-0.06290828;0.76790935;-0.17832492;0.011295301;-0.073068954;-2.2346723;0.04002089;0.034898993;-0.006408303;-0.028894149;0.92610437;-0.2226281;-0.019556746;-0.59035707;0.61179;-0.10809389;-0.052010275;0.43126515;0.021077992;-0.11798778;0.11399927;-0.029192865;-0.26434955;0.95005864;0.0051095067;-0.15703884;0.2685092;0.07058954;0.3469311;0.1073787;0.19014446;-1.5134927;1.0767893;-0.031050684;1.3695971;-0.053708434;1.1656032;-1.5976555;-0.2586822;0.16671734;-0.076072626;-0.0309718;0.15191972;-0.68956137;-0.054254662;-0.17591238;0.18822055;0.18270297;-0.4380244;-2.2095177;0.12895428;0.019544886;-0.1096312;-0.0013981703;0.204661;-0.20589975;-0.18119615;0.21265717;0.076416105;-0.0018577346;-0.7122097;0.45287752;0.2891454;-0.06066673;-0.5024878;0.01178849;1.8978631;-0.0863357;0.19500078;-0.45088696;0.0024811935;-0.21214254;0.3388842;0.87709785;-0.75689554;-0.1071045;-0.12390502;-0.034196395;0.28779536;-0.03889718;0.08640845;-0.21553132;-0.6319135;0.027772447;-0.24702202;-0.2432362;-0.2833253;0.31204346;-0.045119658;-0.39422613;-0.056576237;-0.47263008;-0.005573358;-0.07168191;-0.018120214;-0.004260318;-0.23875998;-0.032143667;0.18668109;0.45861113;0.9486343;0.152107;0.16918506;-0.12507264;-2.583053;0.61711496;-0.10389517;0.17697418;-0.17044231;1.3719728;-0.20250744;-0.025792677;-0.035084426;-1.4091828;0.1783075;-0.062160537;0.2715715;0.032033347;0.25459343;0.0980816;-0.076398015;-0.11626232;-0.14263082;-0.29110062;0.10813067;0.139402;0.06299342;0.06597502;0.16630097;-0.07379121;1.0877872;0.33059716;1.5264372;0.14122659;0.027478669;-1.0457532;-0.09472937;0.121579036;0.78331804;-0.06501303;-0.18279013;-0.5895257;0.003175283;-0.5407704;-0.5765934;-0.4477329;-1.0725412;0.12458091;-0.4952894;0.8006651;0.25147498;0.23315284;0.42475265;0.11710772;-0.10767318;0.2243201;0.04867631;-0.12714235;-0.32649204;-0.19773334;0.802743;0.2941885;-0.49470115;0.43923968;0.090809725;-0.22781473;-2.0955334;-0.001083082;-0.15355812;0.5422946;0.39614984;-0.26771802;0.21629079;-0.38136038;-0.095644094;-0.05538679;0.59814703;0.9334837;0.004638079;-0.030741848;0.060919154;-0.9659579;-0.26645336;0.043031532;-0.16417481;-0.15074158;1.5944849;0.29885626;0.6978841;0.25951445;0.14575903;1.1076204;0.3632552;-0.39662042;-0.62829256;-0.5598786;0.01055992;-0.8894192;0.13701376;-0.9560933;-0.63963073;0.061409302;0.218152;-1.2321534;0.16528584;-0.08873046;0.019272696;0.21529661;0.2318029;-0.13520788;0.15042466;0.25252724;0.15493524;0.15607359;-0.43524736;1.3827302;-0.2060951;-0.35189667;0.02245576;0.027051883;-0.07907062;0.5876451;0.50025415;-0.0071320795;0.13056809;-0.04039529;0.2077338;-1.1456667;-0.33570343;-0.19760333;-0.025470823;-0.35406932;-0.042690843;-0.6310303;-0.06603724;0.022502992;0.11204906;0.73126936;-0.4490081;0.1572712;0.11496324;-0.24254209;0.30454722;-0.36523965;0.352654;0.24003261;-2.1038759;-0.4217009;1.0273564;-2.0541978;-0.6674648;0.29533452;0.7156583;-0.08529625;-0.19517612;0.8429347;-0.6855097;-0.72645044;0.37022036;-0.035772346;-0.16356863;-0.070737526;-0.45101082;0.011948759;-0.5788933;-0.044165984;-0.15035793;-0.2767341;-2.4224417;-0.11060703;0.100731745;0.13912989;-0.45439896;0.5890654;-0.065190464;0.052294195;-0.32323855;-0.006715454;-0.13116398;-0.13859367;0.06960227;0.28345332;-0.0050767297;-0.33263728;-0.03872772;-0.14387774;-0.7658923;0.056399036;-0.18704759;-0.067451075;-0.0018912782;-1.1676162;0.020778157;0.10305863;-0.32497498;0.7586991;-1.7764583;-0.024256188;-0.0080663115;0.03925662;-0.024996512;-0.12238606;0.009441149;-0.17498548;0.3449548;-0.19665137;0.17286834;0.41797456;-0.55597734;-0.26824304;-0.01796193;-0.25467458;-0.21886423;-0.09825835;0.59569865;-0.27766478;0.5843349;-0.0024807523;0.6017323;0.10695858;1.5946556;-0.009042251;-0.022255277;0.11327903;0.19817133;0.038811173;-0.10855553;0.20433143;0.32781073;-0.5719173;0.38860524;0.35137057;0.3745635;-0.07973573;-0.047423467;0.13371581;0.32673812;0.10613457;0.19718334;-0.1336758;-0.50589836;-0.056378063;-0.38717365;0.038242377;0.17696835;-0.15308039;0.7379537;0.17659508;0.118222564;0.27267888;-1.5555311;0.20595899;-0.43245798;-0.018810255;0.3349782;2.4260664;0.15761481;-0.08439796;0.22850043;0.48545343;-0.28546932;0.6902898;0.37093756;0.32863602;0.42623746;-0.32108653;-0.010712772;0.003707341;-0.17290296;0.27716035;-0.047615718;0.13837118;0.019387152;0.8227648;0.05961526;-0.120119855;0.8801463;0.8397821;-0.1321032;0.5062552;-0.516868;0.27377325;0.17293726;-0.12588368;-0.39098328;-0.52230835;-1.1103505;-0.9987031;-0.04530361;-1.0795543;0.17518258;0.013162958;0.14983763;-0.02285203;0.55535173;-0.023343813;0.28914833;-0.044597827;0.03269089;0.057836387;-0.08385668;-0.11769871;0.15198448;-0.415789;-2.6089818;-0.07543314;-0.6987908;0.6717571;0.05092053;-0.094184265;-1.7019114;-0.19985245;0.14550601;-0.06215875;0.15541156;-0.1458826;-0.02695184;-0.036336374;-0.38478965;0.23994924;-0.17616834;-0.17773186;0.41797817;0.09783024;0.15671411;-0.0085570775;0.71987724;-0.031248625;-1.0598304;-0.2759567;0.17267147;0.04103961;-0.04476529;0.13901584;-0.30722708;-0.19605562;0.86955404;1.2338706;0.33590716;-0.5314775;0.34916136;0.10319822;-0.09769081;-0.62357676;0.20082009;0.21084481;-0.082532026;0.42823523;-0.16138844;-0.13205802;-1.6976608;0.28006604;-0.43757832;0.3777173;0.010047237;0.33328465;-0.3655721;-0.46268514;0.3018076;-0.51050305;-0.24902485;0.5107585;-0.84294766;-0.13912784;-0.0030692902;-0.4027816;-0.04496519;-0.42716482;-1.1965915;0.068771034;-0.12979144;-0.0024539921;0.2502983;-0.5620538;-0.06987336;0.25938883;0.25895795;-0.14566544;0.1600467;0.5378814;-0.012203039;-0.010994799;-0.48947537;0.15395753;0.3045722;0.7915228;-0.2943854;-0.5666758;0.18008053;-0.3979098;-0.04325968;-0.15415722;-0.551382;-0.16736855;-0.23198459;-0.0944072;0.24346636;0.23927401;0.1156237;0.49770108;0.388876;0.46079725;-0.23974669;-0.081053436;-0.8144664;1.7263368;0.04579782;0.44574147;0.12750196;-0.10474582;-0.60262936;0.10786398;0.015268373;0.26902667;0.60081685;0.6166331;0.39087322;0.098294556;-0.025007168;0.51844025;-0.6362512;-1.291465;0.3287889;-0.031364147;0.31202942;0.086183935;0.061390825;-1.4249202;-0.9907173;0.87312555;0.6781353;0.32465518;-0.35356474;0.09452211;0.076968655;0.200107;0.041435517;0.56585866;0.20193496;0.5379748;0.010968819;-0.7463872;-7.656775e-05;-0.020912072;-1.3065591;0.2920869;0.21106522;-0.1156518;-0.22069378;-0.25955716;0.384249;-0.09311546;-0.19057544;-0.09441488;0.61456066;-0.0949902;-0.062038384;0.70461434
-0.17070352;0.07321381;-0.036716282;-1.3891894;-0.12596492;-0.069233716;-0.026847962;-0.6297406;0.44901186;0.14536603;0.020624781;1.4458418;0.047373068;-0.35694784;-0.074555285;-0.17251962;-0.66783834;0.13556558;-0.04521452;0.03282573;-0.052616075;0.07502122;-0.013995359;-1.8744749;-0.023725074;-0.04020569;0.008683323;0.07152843;0.6603423;0.024904693;-0.056139648;-0.43229812;0.04653552;-0.03417969;-0.8613567;-0.3572921;-6.91185e-05;-0.09573925;-0.06618358;-0.082284905;-0.4905495;0.18927912;0.93764573;-0.057230894;-0.24680181;-0.0016361433;0.8067182;0.023507925;0.40380314;-1.040385;-1.4968145;0.059620466;-2.001202;-0.0945455;-0.50899345;-0.48506302;-0.029124917;0.04117197;0.08554374;0.07530667;-0.0029125095;-0.18666214;0.048884206;-0.10481695;-0.022880917;-0.18372165;-0.23981157;-0.016502332;-0.05542527;-0.06063133;0.010242836;0.048275635;-0.012861168;-0.03537417;0.033894334;-0.06392513;-0.61785173;-0.02028125;-0.5379095;-0.30925593;0.010372819;0.038417887;-0.9826485;0.044100754;-0.40438947;-0.013658754;-0.0032651892;-0.4503366;0.08386069;-0.074831665;0.0130077675;-1.962583;-0.8340904;-0.04005153;-0.045264166;-0.059109688;-0.010318905;0.044393647;-2.2431805;0.12785527;-1.0827731;0.03530118;0.28292075;-0.057160914;0.0042079594;-0.04902213;0.01655624;1.0225375;-0.053533085;0.019509317;-0.04530089;0.034394126;-0.041003074;0.055214617;0.0413378;0.041906796;-0.03799611;-0.80095226;0.26525354;0.0038554983;0.06298325;-0.058605485;0.27812362;-0.01858233;-0.01736699;-0.21294895;-0.01626604;-0.15649922;-0.0585913;0.06672415;0.018626757;-0.54227346;0.12913956;-0.031858914;-0.6446916;-0.18338187;0.04423393;0.73045325;-0.005221829;-0.02571226;-0.045411192;0.09703203;-0.035621673;-0.10001083;0.083080634;-0.07436304;-0.4372065;-0.047741957;0.6359335;-0.02635978;-0.54475254;-0.22061917;-0.035896324;-0.094412185;0.022792336;-0.07412054;0.10033856;-0.06997228;0.24312757;-0.94825625;0.0512049;-0.24225304;-0.33408797;0.5279131;-0.6424056;-0.040422373;0.37929186;-0.07643657;0.13075255;0.11244558;-0.8838827;-0.1324123;-0.23526564;-0.095833965;-0.2428244;-0.063195616;-0.3020311;-0.039368577;-0.436569;-0.025488714;0.2933306;-0.06830359;-0.04381122;0.28413633;-0.51667875;-0.053696763;-0.021205435;-0.03920172;-0.027470883;0.12188973;0.12964149;-0.087309495;-0.2389147;-0.03083836;1.1265978;-0.5997174;-0.0098162955;0.0011623926;0.04633936;-1.5132757;-0.034157965;-0.078059524;-0.012497529;-0.03320985;-0.4264289;0.05282069;-0.24555078;-1.4882009;0.013010671;-1.7875918;-0.0010917842;0.11586158;-0.25046292;-0.3159738;-0.0046121203;-1.2238706;-0.3569196;-0.5891052;-0.15838334;0.0058223424;0.009923547;-0.19425763;-0.05903355;0.04677863;-0.13486825;0.01579858;-0.08789444;-0.017600182;0.015038572;-0.06657638;-0.021389036;-0.010917548;0.10276866;-0.050655656;0.046137396;0.044773623;-0.0714221;0.087025166;-0.07761923;0.53279966;0.1629201;0.03682304;-0.10664374;-0.055323336;-0.681633;-0.7040906;0.04859522;-0.007079947;-0.06530298;-0.19744492;0.40004018;-0.20842485;-0.037846398;-0.045892496;0.029341986;0.31805143;-0.08470706;0.023266163;-0.08047621;-0.35138708;-0.015433769;-0.16822559;0.060619395;-0.046425194;-1.4502922;0.15069415;-1.1608403;0.69938916;-0.074329406;-0.11962842;-0.0072295573;-0.077418774;0.03857876;-0.1633813;-0.1904047;-0.1084315;-0.4829499;-0.01610634;-0.039398767;-0.45984027;-0.22176088;0.044363737;-0.29862323;0.048127063;0.02927232;-0.19295336;-0.6134967;-0.061629128;-0.05867975;0.06955984;-0.28747413;0.38207474;-1.3812401;0.0043986826;0.100433655;0.014243989;0.20146428;-0.022050597;-0.030194711;0.01859262;0.048455536;-0.2538007;0.03320393;-0.074372284;-0.8514649;0.01779721;0.14301497;-0.022388747;-0.04694433;-0.9776195;0.06424656;0.0548736;0.17651714;-0.31340146;1.4171934;-0.08074079;0.05339303;-0.022218227;0.0048326384;0.056117002;0.057212662;-0.9104937;-0.050088868;-0.23094337;0.056417577;-0.0873972;-0.6041112;-0.023323964;-0.065188915;-0.016216772;-0.040966813;-0.19441828;0.90044135;-0.0075409566;0.07808951;0.053432383;0.1240987;-0.033173665;-1.1566004;0.0021997949;0.056360487;-0.017332593;0.56069845;0.023507021;-0.056089327;0.029371949;0.2617962;-0.15252616;0.012134107;-0.031230025;-0.021437166;0.0131768705;-0.05894779;0.0056917844;0.0049073505;-0.016385907;-0.072692454;-0.019835504;-0.2950222;-0.016109953;-0.346989;0.012202333;-0.14298709;-0.08507478;-0.94066703;-0.06338249;-0.01127423;0.5029571;-0.46992418;-0.066529706;-0.2939566;-0.04193981;-1.6350194;-1.7109706;-0.0030214903;0.04691956;-0.12138803;-0.078628056;-0.074089706;0.04232188;0.04961531;-0.041488912;-0.0075347596;-0.0064047812;-0.026034182;-0.007016525;-0.12767752;-0.039729547;0.059220724;-0.053553153;-0.0048731095;-0.08259366;-0.03664957;0.06639103;0.8622825;-0.08828468;-0.020145806;-0.1006289;0.6321486;-0.09605376;0.016019514;0.067616805;-0.18106496;-0.19056702;0.3831946;-0.03813385;-0.046822805;0.14077844;-0.33875465;-0.050540745;0.35378724;-0.09215345;0.014457873;0.06325736;-0.039824147;-0.0067242803;0.043889325;-0.27298212;-0.013313918;-0.0044280333;-0.5613737;0.8340571;0.5762246;0.035259087;-0.2195394;-0.11872441;0.026215857;0.045185633;-0.5562744;0.04340458;-0.11230994;-0.021769086;-0.02538746;-0.08201199;-0.072099455;-0.050824624;-0.07215498;-0.12511863;-0.0008574104;-0.08646043;-0.01816532;0.05912367;-0.028461829;-0.089686744;-0.09578838;0.012973134;-0.8115336;0.13660505;-0.08066705;-0.035052303;0.042279027;-0.3382576;0.05632047;-0.014005353;0.13222983;-0.2759299;0.34207198;-0.05457395;-0.06932854;0.054255728;-0.03575597;-0.11977054;-0.083236165;0.34241495;0.004165939;-1.0580775;0.3709152;-0.17072918;-0.46927106;-0.15976188;-0.46478373;-0.068630934;0.0037928831;0.076033905;-0.00261847;-0.5609723;-0.10663702;0.7203569;0.1671736;-0.27439344;-0.6160889;-0.061304167;-0.29035798;0.24544212;-0.096354544;-0.078302294;-0.3260318;0.016809488;0.038723648;-0.037488524;-0.14063011;-0.040117193;-0.031335678;-0.13699476;0.04591959;-0.056840133;-0.10701115;0.0402552;0.091904774;-0.06521912;-0.64455163;-0.025580416;-0.4524287;0.27699858;0.07181157;-1.155881;0.010069999;0.13870548;-0.05985562;-0.11135824;-0.5197193;0.000111652604;-0.14214852;0.04043467;0.08449039;0.02502174;0.16871049;0.37352836;-0.049753524;-0.04868185;0.0560931;0.062059708;0.034890592;0.87913424;0.025422497;-0.10162249;0.029628664;0.00019944765;-0.9052509;-0.4367008;-0.022407541;-0.19997333;-0.56550664;0.096656956;-0.09583632;0.018234981;-0.041315764;0.03301421;-0.4047127;-0.98518264;-0.7338096;-0.6351392;0.007980038;-0.032985505;-0.115979604;-0.4241865;-0.86541694;-0.15877685;-0.21036384;-0.017845333;0.12887599;-0.0343896;-0.020765558;-0.09005285;0.058562458;-0.15704927;0.59363794;-0.94263643;-0.06882322;-1.0357858;0.039096177;-0.046430416;-0.31493863;-0.08675969;-0.006183965;-0.090324014;-0.06821572;0.10992714;-0.7738867;-0.04810455;0.0528314;-0.005919805;1.3789812;-0.024394883;-0.058119547;0.058941018
-0.047967114;0.04046275;0.01199735;-0.21525632;-0.09802671;0.08471086;0.013848863;-0.13117509;0.63635886;0.3985882;0.029124435;-0.8192991;-0.07377402;0.039465472;0.054959152;-0.40372562;-0.54938316;0.044961445;0.07034616;0.1937305;0.022552669;0.032826073;0.03776485;-1.6595106;-0.06072328;0.058542013;-0.051110927;0.009713605;-0.8822698;-0.03363265;-0.0024559144;-0.17235513;0.15270236;-0.03839371;-1.2349545;-0.02967243;-0.005721602;-0.06005872;-0.029968534;0.032500155;-0.28709453;-0.16274272;0.09761588;-0.024284424;0.055156346;0.020619487;-0.4543505;-0.009833734;-0.6849486;-0.18614522;-0.20787008;-0.01241159;-1.0112838;-0.03271089;-0.8254516;-0.15356429;0.018816033;-0.14880516;-0.67826074;0.04056652;0.019634312;-0.00043431157;0.070557654;-0.06301298;-0.05209555;-0.1506271;0.43214303;-0.25657544;0.052094612;0.055127833;0.089652106;0.06535;0.029170288;0.117274925;-1.145262;-0.14904687;-0.137409;-0.21685253;0.8189861;-0.1596695;-0.046553828;-0.07748399;-0.092472605;0.07800639;-0.45720145;0.06921908;-0.09241324;-0.2240946;0.08793191;0.016038045;-0.027887536;-0.14448306;-0.43823034;-0.051642578;0.05222804;0.045587294;-0.098720245;-0.11801498;-0.9554287;0.042587794;-0.16744314;0.04770322;0.078590766;-0.057535753;0.0047679082;0.10646375;-0.039050646;0.970803;0.074554734;-0.4629;0.0374455;-0.05967702;-0.070568435;0.06959256;0.06759022;-0.06268531;-0.09460258;-0.4483874;-0.7261018;0.035656884;0.029166361;0.14188085;-1.5283291;0.27370805;-0.011068741;-0.097908996;-0.013341459;1.8302394;0.024914414;0.055193022;-0.029083494;-0.16914076;0.21602486;0.017401999;-0.11016387;-0.04531147;0.0058822175;0.25813055;0.030131008;0.0944279;-0.1005003;-0.08183181;-0.012430939;-0.0810308;-0.032084994;-0.058874086;0.25117972;0.009026339;0.062893465;0.091517985;0.39472812;-0.24974835;0.062281758;0.37878785;-0.048535272;0.02433831;0.11402027;0.22816022;-0.03839966;-0.47664538;-0.021171326;-0.35859743;-0.043885063;-1.3022107;0.035103038;-0.082497604;-0.39509037;0.21224284;0.4969061;0.047356054;1.839976;-0.09897415;-1.5848455;0.049316265;-0.10760883;0.08468366;-0.14878874;-0.044778164;0.96580034;0.11167077;-1.4366279;0.08609764;-0.0077046608;0.64696366;-0.64637804;0.03174121;0.09077797;0.24358961;-0.018122105;-0.031878956;-0.007813205;0.006161938;-0.06957563;0.025924696;0.09568522;-0.7868657;-0.0013206898;-0.008743402;-0.014744411;0.17978886;-0.034626856;-0.04647772;-0.043593705;0.07520425;-1.1950585;0.05542739;-0.44677785;-1.7713577;-0.075586766;-0.046433855;0.020491537;-0.021841109;-0.3202541;0.3679519;0.07568367;-0.07809531;-0.4503544;0.41265273;-0.343849;0.02144797;0.023597654;-0.47778866;-0.0375089;0.025251143;-0.08583117;-0.010596367;-0.11949704;0.05158394;-0.1574184;0.06881607;-0.008516431;-0.03115448;-0.25129923;-0.059726343;0.057367787;0.05381012;0.015933257;0.19211856;0.06585241;-0.17622037;-0.15793054;0.08731269;-0.043931823;-0.08289032;0.024700921;-0.26932743;0.07435629;-0.011783652;-0.04484819;-0.22517498;-0.061704475;0.040163934;0.023586517;-0.0055678566;-0.059233308;-0.16551143;-0.12005342;-0.055495292;0.0540037;-0.34081194;-0.018495478;-0.03261978;0.05656142;0.09329708;-0.19322555;-0.10030039;0.053204793;-1.4718409;-0.37570167;-0.065971434;0.17130424;0.051237397;-0.030313179;0.22509018;-0.2916027;-0.25802884;0.19673036;0.03327431;-0.02771435;-0.16234536;-1.7692868;0.055928014;-0.4070545;0.076955415;0.065361634;-0.18654732;-0.07938487;-0.012512121;0.03521293;0.06585446;-0.25511006;-0.28350773;-0.3246285;-0.06480867;-0.11861221;-0.012277046;0.2541757;-0.0033014219;-0.023068016;0.035185862;0.051234417;-0.18046221;-0.065148935;-0.009611329;-0.2567631;-0.028395837;0.00352658;-0.040236093;0.013049701;-0.8152518;0.09666933;-0.02096545;-0.08198433;0.12336541;-1.0590568;-0.092546515;-0.03770325;0.03304637;-0.040918883;0.014131692;-0.024860973;0.21548;-0.001398271;-0.14732419;-0.0028608437;0.14799081;-0.6530371;0.026255988;0.007978822;-0.0077362186;0.04859953;-0.028464224;0.6575315;0.046246033;0.23166923;0.069723286;0.30106238;-0.006014792;-1.6687361;-0.11431102;-0.01357286;-0.04989705;-0.0788334;-0.018099207;-0.052215382;-0.16522795;0.4396065;-0.41107205;0.18934374;-0.0069880644;-0.031203477;-0.0426365;-0.05178518;0.009515177;-0.0026387414;0.06002447;-0.10827132;0.041386753;-0.2070193;-0.021532888;-0.35943985;-0.010801274;-0.52506065;-0.01347247;-0.16576305;-0.08048714;-0.076540984;0.2539881;-0.85136944;-0.10288062;-0.4169093;0.06492755;-0.5479509;-0.09012332;0.06151402;-0.0095557645;-0.032986037;-0.6764099;-0.023791881;-0.03466783;0.094755605;0.024251318;0.013700544;0.025989715;0.015093968;-0.07483957;-0.65688473;0.0037356569;0.023312336;0.17405407;-0.06319799;0.12287091;0.055656098;0.045648523;0.66226304;0.17754403;-0.10502925;-0.28756467;-0.97397536;0.0024578609;0.049424596;-0.060509775;-0.37689695;-0.27111143;-0.4605128;-0.24271831;0.09202943;-0.5014844;0.59707737;-0.23425533;-0.033507206;-0.07291231;0.119611144;0.050122716;-0.08502289;-0.04221507;-0.0036680673;-0.9369453;-0.121505804;0.011806702;-0.17293444;-0.21455319;-0.27137032;-0.052807916;-0.27886865;0.18206495;-0.08905619;-0.008928929;-0.7908235;0.06854099;0.0035818366;0.08288029;-0.035734437;-0.079990864;-0.07992246;0.0779814;0.08471327;-0.07752098;0.034208115;-0.16207586;0.0047260886;0.06388039;-0.007213406;0.064166166;-0.24755421;0.017109586;-0.82637537;0.041400168;0.02789924;-0.08102914;-0.13184321;-0.10422295;0.010625376;0.07538699;-0.427758;-0.13097538;-0.7642155;0.29170603;0.069176815;-0.010195765;0.10858777;-0.46099716;-0.063515246;0.16608621;-0.03319137;-0.39234138;-0.50797284;-0.15488616;-0.6185748;-0.08240024;-0.3494778;0.17304012;-0.057044454;-0.3038312;0.046998855;-0.039807327;-0.0749854;-0.0022721882;0.05582373;0.106380805;0.15217635;0.054879252;0.21132301;0.17140314;-0.04882206;0.0070241406;0.50202864;-0.05484493;0.052630525;0.06470198;0.047401987;-0.1303664;0.0049082646;0.058729798;-0.044679817;-0.03715491;-0.08720954;0.1470119;-0.019092754;-0.027691172;1.0956496;-0.09940853;-0.6187316;0.35052773;-0.0429478;-0.47710076;-0.02177434;-0.01708209;-0.15621752;0.0098242285;-1.0053576;0.0071219886;-0.14091797;-0.046208084;-0.41115952;-0.03932025;0.09634528;0.43348673;-0.062227204;0.56385475;-0.010130246;0.049786977;-0.2645334;0.409522;-0.027316703;0.05750398;-0.002027576;0.052574873;0.14296266;0.037909817;-0.069022335;0.15551367;-0.7631428;0.22963817;0.04287203;0.03562897;0.0013007766;0.06496829;0.020456914;-1.4502002;-0.41361377;-0.039192446;0.02116879;-0.037216153;-0.1492507;-0.4579818;-1.0149583;0.07520757;0.14700378;-0.07897818;-0.043526176;0.03263687;-0.031262714;-0.11329483;0.011322986;-0.13163263;0.19861226;-0.24972291;0.042189278;-1.3191952;0.0068827183;-0.08246441;-0.34911713;-0.15278181;-0.00020946673;0.00425434;-0.114613295;-0.022932122;0.02559335;0.021768019;0.13070422;0.013777529;-0.28664765;0.051185798;0.0002693713;-0.20733334
0.37904456;-0.025111727;0.06251415;-0.081165105;-0.16021602;-0.011892573;-0.07764629;-1.9186494;-1.3145733;-0.11657806;0.054692686;-0.27745906;0.051932715;-0.7531127;0.05805201;-0.39757037;-0.6368371;-0.022159044;-0.06701565;0.10109107;0.051250722;-0.037718028;0.052113123;0.30616358;-0.036123794;0.045094114;-0.0325557;-0.015621102;0.8070662;0.06686688;0.042824;0.021785067;0.13001463;0.058315415;1.2524992;-0.24675702;-0.07842869;0.01076732;0.0637786;0.07179391;-0.3207204;1.099953;0.5996373;-0.0525661;-0.24522844;-0.35297975;-0.054940283;-0.035163935;-0.82168967;-0.02884229;-0.5853617;0.024187308;-0.9895711;-0.1062561;-0.36790112;0.75718427;0.062416073;-0.13870546;0.23717679;-0.038401324;-0.0142463185;-0.633492;0.06053361;-0.045937624;0.010261279;-0.048310313;-0.1229966;0.7688987;0.061830416;-0.031213151;0.06925731;0.06433827;0.010027756;0.071858935;0.24866968;-0.1478503;-0.11407858;-0.039618038;0.4880494;0.25113252;-0.036131572;-0.014955369;-1.04885;-0.0068511073;1.3231517;0.043533973;0.03318595;-0.25743434;-0.020670518;0.040578548;-0.035672072;-0.37558252;-1.3612769;-0.01719492;-0.033158164;0.007439837;-0.56077987;-0.100554585;-0.39550456;0.009418603;-1.2305107;-0.0041953083;-0.8164176;-0.123526104;-0.021281943;-0.08043316;0.052847363;0.1467666;-0.0056767436;0.16067639;0.089366004;-0.046169296;0.030309085;0.01813211;-0.059904505;0.046360835;-0.10416205;0.05174182;-0.008784024;-0.046108846;0.063790984;0.032095328;0.1347554;0.02131982;-0.041919712;0.11196437;0.058763813;1.1616156;0.07875324;-0.07992079;0.06833488;0.16632384;0.11293162;0.014631142;-1.8181376;-0.052351292;-0.07483211;0.4578244;0.058926456;-0.07533903;-0.095046654;0.009126936;-0.04075609;0.023608008;-0.031216728;0.061251726;0.2606224;0.030678703;1.6947932;-0.08162865;1.0473304;-0.13923907;0.013705946;-0.5789749;-0.029386573;0.028801098;1.0547973;0.8869995;0.25266352;-0.23785713;-0.040502157;-0.27052763;-0.20796353;1.4148165;-0.93372583;-0.061780673;-1.486073;0.2046468;0.19500092;0.10229737;0.23933709;-0.012606536;-0.7758975;-0.071873575;0.18847854;-0.04386051;-0.33320913;-0.123467304;-0.0782266;0.14828464;-0.9615253;-0.008629639;-0.06029722;-0.8263509;-1.922757;0.001797175;-0.005029104;0.094647385;-0.3047196;-0.024738925;-0.106577806;-0.25724763;-0.23290676;0.060898714;0.9160606;-1.0147969;-0.029523533;0.0022345425;0.03297925;-1.1029758;0.027434088;0.0041554826;0.03326596;0.020924753;-0.103034034;-0.08795842;-0.68115014;0.2905888;0.026050374;-0.6893096;-0.11975373;0.10110999;1.2590168;2.326901;0.07946485;-0.5654486;-0.80407536;0.5080466;1.1345062;0.057130437;-0.038566977;0.32660466;-0.25757447;-0.07043266;-0.0014680394;0.033104632;0.0013894022;-0.048257373;-0.6185622;0.26398006;-0.0951223;-0.077189356;-0.005545688;-0.582233;-0.042304844;0.037475653;0.023624904;0.2920682;-0.010834213;1.9171675;0.6277751;-0.06611436;-0.011555621;0.026990682;0.47320458;0.19469795;0.009258539;-0.004783172;0.040665485;-0.20008707;-1.4345906;-0.33951613;0.0008150789;-0.093864866;-0.08415766;0.92254925;-0.077428885;0.022348922;-0.049356874;-0.60008466;-0.13791983;-0.093439534;0.014974179;0.048959985;-1.885292;-0.008266226;-0.50079334;-0.548383;0.20203839;0.18958366;0.16551623;-0.024719749;-0.03553844;0.07420558;-0.28320485;0.6104254;-0.08180149;0.0040862495;-0.08771084;-0.44846958;-0.7389207;0.03582223;-0.29416442;0.036118314;0.05841605;-0.0922141;-0.2800395;-0.0049757794;0.03423673;-0.030814193;-0.22016723;0.8745166;-0.2966115;0.06333076;-0.7278183;-0.05885179;0.513653;-0.048432853;0.06934957;-0.036724593;-0.009634273;0.17572749;-0.053369123;-0.0636646;-0.36277434;0.039509367;0.12912138;-0.06990404;0.046245977;-0.6247817;-0.031808723;0.08419503;0.029756496;-0.07729741;0.58158505;-0.048642054;0.025596749;-0.05486664;0.017442944;0.059263892;0.063659795;-1.6701448;-0.06763956;-0.5943647;-0.018349456;0.035148293;-0.63264126;0.0022567473;-0.050072867;0.04924303;0.077974655;-0.06265903;-1.4096272;-0.0052623875;0.097604476;-0.057909366;-0.5085865;-0.043310028;-0.44767788;-0.0019142783;0.049512792;0.06752605;-0.8080089;-0.048923183;-0.086955845;0.010711835;0.07708216;-0.15934238;-0.051445358;-0.112082;-0.06231063;0.012685371;0.057636876;-0.06424538;-0.031290665;-0.053887013;0.019549472;0.023314208;-0.120072156;-0.038009584;-0.6967971;-0.045948327;-1.1643384;0.06044992;1.4439535;-0.067573786;0.010019649;-0.4356751;-1.3076246;0.029503578;0.593055;0.039059877;0.3580577;0.59743655;-0.051801007;-0.021967325;0.016486393;0.8386704;-0.034492854;-0.06306332;-0.06011068;-0.104641184;0.008281451;0.003945592;-0.061479505;0.056979455;-1.0518599;0.029691463;0.08239739;-0.13478902;-0.034591295;0.04141538;0.077879734;0.0517161;1.283822;0.12439369;0.020495811;-0.6152002;-0.5915732;-0.054689635;0.014465113;0.055089753;-0.3621143;-0.03217571;1.4845455;0.48311284;0.07598962;0.5653261;0.55131644;-0.16178182;0.17119898;-0.47467232;-0.021138681;0.065880984;-0.024354184;-0.2600197;0.07026546;-1.8305761;-0.049061943;-0.016584668;-1.8383039;-0.7689293;-1.5373911;-0.02376617;-0.32958752;0.30744308;-0.061883412;-0.02752445;-1.9546484;0.021725954;0.024669996;-0.011960318;0.05341902;-0.041559253;-0.04287616;-0.04133307;-0.17289045;-0.017054506;0.060209747;-0.019352691;-0.031094074;-0.04839805;-0.107523225;0.029598448;-0.102332115;-0.02419628;-2.2947378;0.31682843;-0.043144237;-0.049118746;-0.02886086;-0.5381931;0.08831312;0.050405186;0.2984149;-0.51841474;0.5153929;0.22688398;0.016162762;-0.031632017;-0.061980687;-0.12458997;-0.015651964;0.109041095;0.06778312;0.6400406;-0.45849827;-0.18429628;0.36902234;-0.1837274;-0.26722267;0.020195251;0.06644035;0.5520886;0.014954558;-0.4132953;-0.116385065;-1.2338467;-0.07257012;0.2114961;-0.22416659;0.017908582;-0.3068701;-0.1507915;-0.06564233;-0.24343088;-0.08826196;-0.03032822;0.007709296;-0.012557225;0.03337317;-0.110331975;0.06258728;0.00080993137;0.25609428;0.013904793;-0.019627945;0.07275042;0.0047011427;-0.069684744;-1.1550466;-0.03850725;0.3703303;-0.024432776;0.03202761;0.13957238;-0.08066867;0.082505286;0.0024255528;0.010456994;-0.16802554;0.04607243;-0.12576765;-0.041378204;-0.27445668;0.008171618;0.17962706;0.57901907;-0.022149906;1.1569835;-0.18316263;-0.02096147;-0.55800617;-1.385972;0.027456902;0.06647041;-0.06946894;0.06462851;-1.1245682;-0.30918783;0.11728396;-0.19031517;0.9898922;0.012338142;0.018664058;0.037765183;-0.02222099;0.11857513;-0.114000484;-1.8503644;-0.7242521;-0.26993784;0.25557232;0.035126038;-0.41171896;-0.47425932;-1.6345764;0.047976173;-0.029994622;-0.031304765;-0.21371734;0.02883245;0.03858968;-0.07310339;0.022582997;0.89586055;-0.47857708;-0.6473419;0.025527572;-1.3870548;-0.01661376;-0.0665789;-0.71563613;0.17697142;0.047182605;-0.08289883;0.049754176;-0.008006787;-0.13909315;-0.057258133;0.04530682;-0.07165343;-0.63344455;-0.050421454;-0.034319863;0.5507384
0.08346091;0.035869643;-0.021958074;-0.57386273;-0.36576855;0.08160663;0.0284405;-0.5718692;-0.15911715;-0.8091254;0.1582259;0.7634499;0.105139054;-0.4807933;-0.06104428;-0.45812556;-0.4981969;0.05510173;-0.002052767;-0.0036404203;0.05078639;-0.014747416;0.00028909557;-0.016451176;-0.024062937;0.012578246;-0.06574415;-0.01122164;0.2966117;0.10078193;0.038500387;-0.12085904;0.0042974614;0.007193539;1.0650986;-0.16711633;0.056114316;0.094532825;-0.046669956;0.046244413;0.10262389;-0.09541112;-0.21755457;0.04055489;0.037528325;-0.15194207;0.7054474;-0.11327009;0.13505311;-0.65729153;-0.7877771;0.03655025;-0.54619676;-0.045501202;-0.12835805;0.6835133;0.10886416;-0.14519131;0.5929236;0.0126965;-0.059552178;-0.16658928;0.082085826;0.16995412;-0.048100524;0.036833245;0.09029694;-2.575316;-0.15653634;-0.0020645068;0.1320234;0.029222641;-0.08912273;0.11106819;0.712708;-0.15289362;0.10956759;-0.18924223;-0.92613965;-0.42756498;-0.18443856;-0.060795717;-0.9557542;-0.032597218;0.4225701;0.009239312;-0.14069617;-0.38451684;0.11065078;0.07085549;-0.16859698;-0.18570936;-1.8543354;0.028872903;0.07661501;0.02588784;-0.14505611;-0.16162145;-0.34592503;0.16368791;0.31051978;-0.01469345;-1.2341523;-0.121191084;-0.005414751;-0.105121285;0.0463723;-0.57420176;-0.017854217;0.21374449;0.030299133;0.044068404;0.063703425;-0.021705471;-0.015372781;-0.08935264;-0.115683235;-0.5379274;0.7076356;-0.13060482;-0.08966342;0.003377928;0.21379788;0.05565188;0.08875313;-0.13976882;0.08149989;-0.5340284;0.099260315;0.015340839;0.048598748;0.085283;0.2381686;0.036040813;-0.72245014;-0.20944332;-0.16441466;1.2373592;0.046538893;-0.036143966;-0.0711654;0.20459357;-0.062828764;-0.050548796;0.0756948;-0.07864025;0.16220686;-0.043585595;-0.028313003;-0.20551352;-0.80053186;-0.049772147;0.040092856;-0.24217871;-0.015244613;-0.10220754;-0.6000932;0.1342871;0.33109435;-0.47924364;-0.07115205;-0.3094348;-0.20831434;0.20926212;-1.3444811;-0.09860499;-0.11228011;-0.017777948;0.33330414;-0.016470212;-0.7569814;-0.14524001;0.104209095;-0.09297618;-0.024441903;0.09073052;-0.1392532;-0.10393845;-0.44594163;0.15069555;-0.79795563;-0.11093384;-0.0422346;-0.97924936;-1.6773779;-0.047195658;0.19629174;-0.059480965;-0.2920613;0.074096255;-0.04254536;0.025548529;-0.37424964;0.041577313;-1.616222;-1.3691854;-0.04163318;0.08601853;-0.04847805;-1.29976;0.105737455;-0.07634467;-0.03350407;0.0111550605;-0.24819869;-0.14070363;-0.7294699;0.6306759;0.023116989;-0.2999098;-0.13502806;0.18846029;0.5831879;-0.99368095;0.09974592;-1.1783599;-0.41021335;0.71360767;1.1187705;-0.0758928;-0.16742921;0.27481106;-0.58673334;0.0025710664;-0.063565135;-0.08558466;-0.23002076;0.0039493716;-0.5242134;0.26959926;-0.026294488;-0.04481874;0.1763368;-0.19386253;0.12231653;0.1342402;0.09373623;0.038360666;0.005410971;-0.041857798;0.32488137;-0.048494015;-0.0383595;0.023355504;-0.19608587;0.56431544;0.096380726;-0.021051724;-0.0073450827;-0.2286863;0.18771297;-0.33349994;0.028652001;-0.028229138;-0.016480487;1.0402334;-0.18468945;-0.05378356;-0.12817651;0.30657956;-0.15328644;0.15253198;-0.0012688051;-0.120900184;-1.2131879;0.15938899;-0.5746905;-0.08970662;-0.42098236;0.046461277;0.0054738494;0.094364196;0.013999886;0.03300947;-0.31558865;-0.36932528;0.42350036;0.056241408;0.0892661;-0.5507342;-0.43131563;0.04568933;-0.37958682;0.07145072;0.044300605;-0.10442265;0.35875696;0.012987163;-0.002441182;-0.10353237;-0.3076418;-0.0053876317;-0.27776805;-0.037714843;-0.33751926;-0.03179977;0.15889813;0.09073406;-0.047102097;-0.0472213;-0.01652996;0.04082914;0.010321286;0.096194096;-0.38220635;-0.021472046;0.2530307;0.028641311;-0.061917942;-0.6999537;-0.06939037;0.04278539;0.27665076;0.17565641;1.1203032;0.0111990115;-0.050557468;-0.055238243;0.09578877;0.11451727;0.056159236;-0.42942157;-0.14892514;-0.16229378;-0.046180177;-0.043157037;-0.77194667;0.045475423;0.05206921;0.123129286;0.10635296;-0.120446876;-0.784708;-0.10906648;0.05162997;-0.05303241;-0.5370113;-0.041804455;-0.51443774;0.012409826;-0.031112785;0.021482725;0.052105512;0.043830108;-0.02634487;-0.09350715;-0.121365175;-0.22951427;-0.026573569;-0.1923942;-0.09691682;0.08513205;0.0016475295;-0.12692738;-0.1938742;-0.10498607;-0.009218806;0.025899645;-0.08708203;-0.020602772;-0.4249659;0.049443465;-0.31396967;-0.01540206;-1.247792;-0.1405499;-0.00858512;-0.37132713;-0.55759;-0.0737721;0.48644537;0.10274963;-0.5989322;0.27948937;-0.0035984043;0.076954715;-0.060544375;0.5147553;0.1959061;-0.033680107;-0.103480965;-0.12757567;-0.086748235;0.15752305;0.01804859;0.06629678;-0.07345473;-0.123807214;-0.039916825;-0.2899043;-0.021231048;0.007926906;0.0918099;0.0040409495;1.0628879;0.051505163;-0.017737051;-0.75129014;-0.6856956;-0.058832522;-0.12559983;0.09841987;-0.4016161;-0.25546274;1.0867864;0.05000895;0.05463463;0.36248505;-0.38654017;-0.15865909;-0.033099115;-0.22376123;-0.11534406;-0.031378105;-0.13590968;0.22425704;-0.0018541012;-1.3249453;-0.051275596;-0.03935448;-0.6293373;-1.0288061;-0.58267677;0.08794867;-0.26877093;0.32765973;0.025722044;0.08432113;-2.0007594;0.013852142;-0.17252675;-0.0027012976;-0.08261156;0.052050862;-0.04239816;-0.005612269;-0.11453387;-0.14511843;0.18639217;-0.06868883;-0.0945806;-0.088436015;-0.08498287;0.062722065;0.11055007;-0.06982983;-0.60832864;-0.019302372;-0.0027284704;-0.05525748;-0.076652244;-0.29862744;0.1441131;0.05058197;-0.1204148;-0.8105101;0.19147149;0.2434521;-0.12760346;-0.08899349;0.13918203;0.14221087;-0.11462863;-0.33436558;0.05589171;0.50163835;-0.5796793;-0.13639593;0.11156105;-0.12718622;-0.24947111;-0.11327774;-0.07487989;0.5417801;0.16108264;-0.20942028;-0.18317367;0.9078036;0.16320768;0.10029551;-0.42275736;0.09037899;-0.21322204;0.64247084;-0.047619376;0.026024712;-0.84679294;-0.03761668;0.06929351;0.037882667;-0.06796041;0.3288935;-0.048919894;-0.106225915;-0.06594202;-0.06032312;-0.117380165;-0.042096674;-0.06967949;0.03311434;-0.29205278;-0.036107723;0.036125198;-0.07806254;0.024984444;0.313715;-0.07269538;0.140251;-0.08250109;-0.065116614;-0.0034859346;0.030096423;-0.13651666;0.010557783;0.06032762;-0.1182219;0.20644312;-0.6044249;-0.13660237;0.44739756;0.1309119;-0.02720514;-0.3551704;-0.80305225;0.06836377;-0.13948008;-0.08649986;0.0062907683;-0.2673766;-0.5756682;0.11453782;-0.097353645;0.77432215;0.045684844;-0.02026349;-0.005622002;-0.01835624;-0.082727425;-0.0654055;-1.2321388;-0.4882557;-0.500327;-0.10015247;-0.1213887;-0.4068155;-0.19797714;-0.88270503;0.07143731;-0.18939759;-0.22193871;0.5123933;-0.016835922;-0.030586889;-0.14336252;0.0325048;-0.23853473;-0.28940618;0.18362984;-0.009010069;-1.3932196;0.0611728;-0.0023837015;-1.9779793;0.027525252;-0.13492037;0.024455724;5.0105264e-05;0.15399382;0.0017263648;0.0021960533;0.15290953;0.07700595;-0.9208445;-0.047823872;-0.01244059;0.163604
-0.07925816;-0.056830592;0.05251135;0.20038359;-0.08674598;-0.07763426;-0.032026764;-0.2632617;0.91462505;-1.1020736;-0.08804074;-0.31406477;-0.16374484;0.13222924;-0.04807287;-0.0978651;-0.47481927;0.025209263;-0.008156102;-0.020650554;-0.08889931;0.04764708;0.017456166;-2.0003943;0.03587244;0.052317996;0.02457123;-0.027060596;-2.070843;-0.06792662;0.059050094;-0.10909882;0.12212316;0.0057338923;0.49829498;-0.013399302;-0.083603166;-0.06287277;0.07961608;0.0052331015;-0.056021724;-0.3264808;-1.9627594;0.045748312;-0.22591427;0.45352805;-0.3159526;-0.035552606;0.22689527;0.6164267;-0.09558144;0.06966656;0.29675043;0.04917954;-0.6098381;0.7315414;-0.09515896;-0.04401695;0.37011325;-0.05008082;-0.080240674;0.46939212;0.017381411;-0.07352268;-0.022630656;0.046410717;-0.14776038;-1.3742299;0.05083583;0.06668134;-0.07701718;-0.07195137;0.052253745;-0.025032222;-0.29745182;0.09883861;-0.09154744;-0.12856056;-0.4476746;-0.59199387;0.03986768;-0.032033972;1.3452512;0.049327716;1.2161164;-0.054973435;-0.052750267;-0.32696474;0.049658973;0.05044915;0.09214653;-0.007828885;-2.0479765;0.048041962;0.0077774245;-0.017265365;-0.2924123;0.0020260573;-0.23334362;-0.06998603;0.34425625;0.0072179395;-0.021341313;0.13369092;-0.05282486;-0.0033343413;-0.0020846077;-0.38892272;-0.045827314;-0.20303665;0.041554544;0.050353378;-0.015070993;-0.07750726;-0.084104806;0.058805715;-0.015892664;-0.17520943;0.37454432;-0.054680657;0.056526385;0.004181976;-1.357439;0.034368817;-0.0017896885;0.120290585;0.04136779;-0.9926591;0.0011139646;0.027860047;-0.0062192236;0.37489393;-0.010567354;-0.057905488;0.9405964;-0.041641943;0.010743891;-0.6559516;-0.040794816;-0.03967655;-0.07427685;-0.11524667;-0.01061199;-0.04334882;0.08789246;0.069123775;-0.35080612;0.059206285;-1.1046389;-0.06943788;-0.67374444;0.15118138;-0.058161125;0.17531835;-0.040653314;-0.05235294;-0.2913668;-0.2539971;-0.25351;-0.6347177;0.063366815;-0.22133866;-0.05823193;-1.7271148;-1.557848;-0.042496398;1.7026854;0.046276927;0.056249954;0.08853599;-0.3227532;-0.001702378;1.0774711;-0.010817096;0.118790515;-0.0035753034;0.056143828;0.040037192;-1.3812722;0.030232169;-0.97915614;-0.52561975;-0.0402518;0.55602443;0.6646083;-0.06457556;-0.0029631564;-0.047940016;-0.10289971;0.016598707;0.08947403;0.43656182;0.13469642;-0.00802635;-1.6975566;-0.6371663;0.006451539;0.0047337227;-0.04309302;-0.017627383;-0.028901929;0.07597752;0.031995486;-0.0542664;0.31507096;-0.04658277;0.68970114;-0.42157692;0.11998459;0.1386331;-0.05402873;-0.076142505;-1.5488951;-0.7843341;0.061396487;-1.6666746;-0.2290438;-0.5173466;-0.9703301;-0.046284366;-0.028047943;0.4081772;0.37499213;-0.06697677;-0.04793491;0.013196828;-0.0028852802;-0.06397511;0.09450405;-0.009127654;0.015989259;0.024784526;0.33474013;-0.3435167;0.025485357;-0.04820006;-0.0733492;-0.13507432;0.035145707;0.05653141;-0.1836816;0.062469028;-0.017589621;-0.08273242;-0.7208249;-0.13731243;-0.07519108;0.008877494;-0.06121865;-0.029165223;-0.39538062;0.00045726425;-0.07143964;0.038124178;0.009218395;0.17937553;0.0037257236;0.07093086;-0.0059945104;-0.19207482;-0.05793723;0.040544827;-0.05171184;-0.3293218;-0.80393255;0.0059614936;0.970439;0.0057525826;-0.764604;0.059235837;0.12188758;-0.04460878;-0.03252225;0.08965156;-0.13771023;-1.5623363;-0.33886728;-0.06464329;-0.013121701;-0.23928095;-0.8227464;0.027696416;-0.2614515;0.046975788;0.054723725;-0.14353183;0.60568637;-0.068013616;0.060302872;-0.12910399;-0.06993316;-0.27840206;-0.14176679;-0.046381652;-0.2563647;-0.017848687;-1.0670274;-0.060787372;0.0805546;0.048090905;-0.033863135;-0.4918569;-0.061149716;0.018509794;-0.11635231;-0.01111242;-0.0030765033;0.021179484;0.03617531;0.27311534;0.013129776;-0.03421963;-0.21092637;-0.005636194;1.5190821;0.04247429;0.06054051;0.033023946;0.065434285;-0.07851642;0.06881269;0.3796286;0.048630267;0.5052849;-0.011310627;-0.076260604;-0.30486268;0.012156394;-0.0026503974;-0.007016931;0.013890611;-0.009847978;0.5277911;-0.039266452;-0.007589518;-0.022556253;0.02778891;0.055842753;-0.86252224;0.10283464;-0.060590353;0.069232784;-0.095626846;0.0034103899;-0.03710557;-0.07035115;-0.8973682;-0.15622379;-0.0034411438;-0.022002472;0.0044725817;0.013641237;-0.052392807;-0.03738169;0.06302642;0.013560969;-0.0665298;0.046109617;0.34465036;-0.0038042744;-0.24373537;-0.031208867;0.2497396;-0.096126005;-1.5203996;0.026890554;0.027297258;0.43016717;0.15432759;0.0103210565;-0.64042306;-0.038938623;-0.38469476;-0.6404789;0.012290701;-0.07516533;0.07985082;-1.5286858;0.054691285;-0.10353956;0.004899215;-0.06103544;-0.031993106;-0.009134729;-0.09008307;0.030846434;0.7693377;0.0032449923;0.044670403;0.08888641;-0.028852753;0.06809536;0.013299469;-0.06984229;0.55248;0.0034250426;-0.08830208;0.41328028;-1.5281487;-0.008562337;0.05833692;0.040860772;-0.24443027;-0.03869819;0.08180185;0.5281958;0.018810974;0.008140051;-0.9484465;0.049510095;-0.05000129;0.53362375;0.07520583;0.051469877;-0.039018467;0.0939488;-0.017320903;0.14151086;-0.09529774;0.028274644;-0.46480426;0.9860399;-0.038590755;-0.061632946;-0.12989014;0.06519452;0.049385488;-0.013503857;-0.313347;-0.060858738;0.03641134;0.07269628;0.04256067;0.0052621984;-0.011660089;0.03309574;0.017533682;-0.023304164;-0.09084247;-0.08283304;-0.049527936;0.019454785;0.011027461;-0.00058824994;-0.16037893;-0.0256962;0.48993236;0.37004742;0.023780242;-0.054294027;-0.097151466;-0.034709238;-0.1936191;-0.028589288;-1.0311636;0.7877394;-1.0169381;-0.40307745;0.08854714;-0.028845726;0.006101893;0.27446714;0.06736729;-0.46574366;0.024814406;-0.34908476;-0.8029216;0.011415163;-0.9079007;0.2638278;-0.051155984;-0.024674015;-0.07918576;-0.37598503;-0.046501935;0.46956018;-0.035478685;0.44623563;-0.08623861;-0.33028832;-0.123866774;0.0056565343;0.15009913;0.21412012;-0.048186433;0.14517938;0.64444494;-0.026298268;0.05331391;0.06794821;-0.06600935;-0.07718739;-0.038227413;0.07226354;-0.25749105;-0.028225843;-0.0010714415;-0.22923738;0.08791659;0.044390976;1.271963;0.0022249406;-1.2066679;-0.37804475;0.024754914;-1.057274;-0.00688682;-0.16572747;0.043551747;0.03341105;-0.14332217;0.012324403;0.030453267;-0.039983083;-0.2613417;0.10219736;0.015625317;-1.1224843;-0.008229551;-0.7637466;0.16199091;0.053996;0.9548873;1.0981264;-0.08853933;0.047110684;0.09027785;-0.07368386;0.22598489;-0.13313049;0.04110129;0.12925835;-1.8677946;-0.02970329;-0.012856935;0.048156045;-0.06293112;0.042199172;-0.60583305;-0.9803951;-0.06948958;-0.65029716;-0.20235528;-0.061395384;-0.2323465;0.09755799;1.0077133;-0.014307426;-1.0834305;0.0482552;0.5701769;0.02441608;-0.066275805;0.068499394;-0.05883937;-1.0083438;0.35481057;-0.34621683;0.040060315;-0.40904096;0.033420373;0.0046351803;0.23452252;-0.0896565;-0.015334212;-0.06768919;0.033549353;-0.04376988;-0.21228561;0.028407026;-0.099008754;-0.07993928;-2.3567772;0.054083362;0.020800812;-1.6902937
-0.116986856;0.011984547;-0.093755625;-0.5989668;-0.035625856;-0.058079753;-0.023858188;-1.2953429;0.5834834;-0.6130521;-0.064678274;-0.6004463;-0.023850385;-0.6498491;-0.08830211;-0.0052697933;0.78878367;0.021191927;-0.06315045;-0.288297;0.06457114;-0.020720739;0.065769866;0.27293047;0.008950351;0.0032888295;0.009713187;-0.036142934;0.68249536;0.042310424;-0.06654535;0.043412674;-0.17975734;0.008066899;-0.74655044;-0.15482683;-0.016419355;-0.0027833227;0.038230237;0.07907156;-0.18671112;1.4236498;-0.06086298;-0.1345771;-0.0452856;-0.3868421;-0.49475926;0.09325082;-0.18869382;0.64055854;0.13355649;-0.050282415;-0.33666936;-0.04610209;-0.63679796;0.8913225;-0.038118143;-0.06601847;-0.16865121;0.051477224;-0.10090012;-0.011790272;-0.07885474;-0.12769116;0.08236718;-0.17943518;-0.41544887;-1.5046629;-0.0408689;0.04131987;0.036965445;-0.052029494;-0.025380589;-0.008215766;-0.11098712;-0.14097343;0.7285762;0.86238915;1.7787106;-0.9057848;-0.03556218;-0.051883392;1.1439689;0.008468408;-0.3358226;0.011666996;-0.016908068;-0.80838215;-0.09674402;0.09476429;-0.06750403;0.34713182;-0.5097909;0.04184219;-0.07925488;-0.04933318;-0.4034954;0.078667805;-0.66657895;-0.055637334;-0.524298;0.07847552;0.11363148;-0.16625138;0.10580607;-0.16762011;-0.074541725;0.38702723;-0.016853413;0.079838164;0.047087364;0.07209482;-0.019645806;0.037278526;-0.07235872;-0.039553937;0.019926371;-0.5002892;1.5386044;-0.038238186;0.011673777;0.03913012;-0.08567715;-0.14739352;0.018955024;0.10574296;-0.13133492;0.49547377;-0.06088854;-0.010183345;0.049168594;0.1398965;0.024106301;0.011694054;-0.4788786;0.03842205;-0.12654527;1.3173348;0.00085100724;-0.0033407526;-0.034316063;0.009520775;-3.7949416e-05;0.051543873;-0.031259064;-0.08610676;0.35248014;0.07743503;1.3442768;-0.041468006;0.29401892;0.2784345;-0.052234337;-0.17561401;-0.087310374;0.035235066;-0.6240877;0.32767704;0.22052751;0.09759051;0.006238783;0.02519335;0.13414307;0.7681607;-1.3715328;-0.016019138;-0.11614136;-0.4306401;0.92602617;-0.043337055;0.19970898;0.03715525;0.955183;-0.076641396;-0.017929481;0.022727551;-0.16633801;-0.1165379;0.54913074;0.1394349;-0.56790555;0.37626383;0.07279322;-0.77444357;-2.31042;-0.00090839213;-0.033914693;-0.13161547;-0.08397424;-0.045279842;-0.40755308;0.23850971;0.44543058;-0.08905446;-0.7152848;-2.0773656;0.017145164;0.045891862;0.034385014;-0.6670309;0.03390106;-0.0592955;-0.0798946;0.051936697;0.5690862;-0.14675975;-0.4111597;0.39070806;0.074024014;0.57550484;0.039565593;-0.02409774;1.0632552;1.9460747;-0.072782055;-1.6840134;-0.421699;1.8660088;1.6378019;-0.023588507;0.053521004;-0.034619685;0.19883421;0.0674422;-0.061036874;-0.047056332;-0.014219811;-0.02393519;-0.392559;-0.2174095;0.020565754;-0.034763213;0.11491179;1.3099545;-0.07723211;0.005040808;0.013662747;0.26606432;0.007443665;-0.088931635;-0.5396498;-0.07221479;-0.013136455;0.024267243;-0.53885055;1.0007935;-0.053412426;-0.026015388;0.021753764;-0.038062423;0.820264;-0.040863004;0.0073651206;-0.046040326;0.061260838;-1.0218784;0.058893874;-0.026323011;-0.036297984;-0.528967;-0.06308572;-0.003382085;-0.18693237;-0.17268443;-0.6531223;0.022154953;0.44306254;0.5263918;-0.24573533;-0.009657972;-0.3021643;-0.04052345;-0.01600228;-0.47584814;0.07000697;-0.1501376;-0.060926247;0.0108877;0.022406023;-0.16666453;-0.1600377;-0.07380175;-0.041696154;0.0038161434;0.075582266;0.07319291;1.1164939;-0.06292166;0.043435246;0.013007962;0.035934716;-0.6137744;0.20839489;0.06448664;-0.5418286;-0.025966192;0.3673522;0.039112903;0.00094216724;-0.014050365;0.021221172;-0.07494116;0.052336488;0.06358232;-0.0062306123;0.08017502;0.119456306;0.08120388;-0.038985815;0.1500444;0.04368745;0.019410975;0.07739238;0.3999345;1.2966686;0.064120136;0.071405;0.03809366;-0.06640097;-0.06484881;-0.028972829;-0.10000389;-0.15468402;0.09699744;0.0774499;-0.12059906;-0.27280548;-0.014592051;-0.07742283;-0.06559635;-0.09008088;-0.1526322;-0.86862683;-0.14064705;-0.22107339;0.067749344;-0.7931694;0.10313368;-1.0917877;0.06465197;0.03039122;0.09137034;0.68503875;0.13283762;0.0037089083;0.012641365;0.8023714;-0.036557842;-0.17876494;-0.10247578;-0.06815023;0.014116594;-0.036313266;-0.036571316;-0.05470432;0.096589394;-0.028160447;-0.02438809;0.1390881;0.047075182;-0.32664207;0.0065197377;-0.21717504;0.07382187;-0.6555911;-0.010722491;0.011057289;-0.3048386;-0.8826539;-0.044750366;0.9776893;0.042417493;0.12522888;0.5047659;-0.01341864;-0.08690884;-0.027893053;1.0706154;-0.11097887;-0.31760806;-0.15838215;-0.051517006;-0.12590313;-0.08847729;0.0070554996;-0.063397095;0.84643734;-0.14933552;0.032739356;0.09904198;-0.010985473;-0.44717675;-0.020509781;-0.01738375;0.40158376;-0.41770965;-0.035142954;-0.6059203;0.27498782;0.0431875;0.07759161;0.0059370315;-0.011840204;0.05613617;0.68972296;-0.8278262;0.039495844;1.2786525;0.50304043;-0.015042455;-0.16562624;0.046715446;-0.19048235;-0.04585563;0.10349861;0.118470125;0.06329725;0.36202532;0.030227885;-0.020340364;0.029031567;-1.4275414;-2.4460733;-0.085421585;0.015657708;0.48919773;0.02785501;-0.023852585;-1.4769716;0.06681082;0.049085658;-0.043574803;-0.026915753;-0.09149094;0.04383905;-0.056866467;-0.27868026;-0.053238336;0.02453715;-0.06460644;-0.0737707;0.042983625;0.09193776;0.032299448;-0.47083846;0.06739764;0.15726103;0.13877186;0.011072827;-0.048544556;0.05148215;-0.22486076;0.037294522;0.037023883;0.14785711;-1.5154696;-0.48410416;0.40031308;-0.12449177;-0.056490064;-0.037526265;-0.074817225;-0.019802362;0.2592218;-0.012172875;0.3495758;-0.8938389;0.035883773;-0.51859814;-0.23678479;0.05133324;-0.20910697;-0.07362573;0.14017038;-0.08205298;0.5531202;-0.07093356;-0.90278894;0.054498147;0.29411736;-0.8978699;0.019066414;-0.3367392;-0.90929395;-0.049894083;0.04436996;-0.76795644;0.05959062;-0.09192308;-0.073294096;0.1432012;0.2695067;-0.014727628;0.0030970857;-0.027475016;0.08104402;0.023455963;-0.056724697;0.08186364;0.028433498;0.8870293;0.09171097;1.6743342;0.4113939;-0.10121783;0.811992;0.03338133;-0.03128828;0.06766623;0.048252247;0.44534573;-0.030824402;-0.036930926;-0.025073271;0.3515059;0.04917354;-0.116538554;0.27905443;-0.031122614;-0.37479818;-0.03660426;-0.08471984;0.16282813;-0.069703385;-0.053986166;-0.10591508;-0.038333792;0.022147024;1.2922711;-0.44203988;0.14032955;0.22352038;0.5621241;-0.2561895;-0.14632879;-0.025420764;0.034664437;-0.09679188;0.08016594;-0.615908;-0.21701789;0.10163894;-0.023598442;-0.001639469;0.17812878;-0.19620572;-0.31407568;-0.5227309;-0.19481628;-0.035883535;-0.13763034;-0.038688216;-0.027957408;0.066591606;-0.050425597;0.4161682;-0.28537485;0.7142371;0.009062271;-0.16252089;-0.07260562;0.09741017;-0.27304557;0.09394452;0.018328825;0.027391294;0.09424912;0.044279095;-0.5096226;-0.0178488;-0.13335268;0.052049965;1.2395834;-0.09304132;-0.003723737;0.22042465
0.10413651;-0.028444173;-0.060076647;-0.44809493;-0.26812217;0.0378022;0.07750229;0.38490555;-0.089864716;-1.0094032;0.06498332;0.32750127;0.085267805;-0.18693885;-0.027172191;-0.55049384;-0.9295884;0.038404267;0.027072951;0.14605057;-0.063569404;0.008457457;0.039464056;0.29060528;-0.05149901;-0.078897566;-0.05036318;-0.040108573;1.0478582;0.08904762;-0.08516491;-0.102104925;0.08896522;0.06465754;-1.7234126;0.09339287;0.033368487;0.037292775;0.0032286206;-0.04602955;0.41953644;-0.34471032;0.4625166;-0.015878366;-0.3085248;-0.15122584;0.60025156;0.07680212;-0.3803011;-0.7528851;-0.55883723;0.06464316;-0.4799289;0.06081415;-0.17833856;-0.53650254;-0.039114982;-0.100249715;0.2801245;0.004427458;0.020238195;-0.17954214;0.010199915;-0.12238023;-0.08286055;0.06516811;-0.002865878;0.0421115;0.0367869;-0.030704224;-0.08529662;-0.046788055;0.052879557;-0.052520983;-0.7462346;-0.08166678;0.25431585;-0.5211946;-0.415407;-0.2573799;0.029133817;-0.016790263;0.29508463;0.06753606;1.8947847;-0.03828533;-0.052883122;-1.2679249;0.04059653;-0.011165071;0.033950727;-0.2883517;-0.5673069;-0.06714276;-0.04103437;-0.008728825;0.84244883;0.07881331;-0.72926044;0.086270206;2.5173762;-0.03892042;-0.32882017;-0.06101274;-0.01723578;0.05736899;0.0069373534;-1.9137119;0.047473222;-0.068719484;-0.062906325;-0.017855117;0.018544922;0.023423733;-0.04921666;0.08050213;0.00676204;0.3915365;0.29281074;0.010749525;-0.05979254;-0.0060578957;-0.5361372;0.19704852;-0.064618684;-0.01291191;-0.0038516189;0.38637632;-0.06401207;0.010162238;0.04957651;0.72324;0.10837938;-0.030701468;-1.0605172;-0.08666623;-0.035583813;0.5955576;0.07433214;-0.06872725;-0.10964638;0.050264843;-0.052022263;-0.095930345;0.13346167;0.05266225;-1.1032413;0.061281577;0.4751041;-0.06908146;0.8270469;0.58975357;0.068988405;-0.18695259;0.072568096;-0.053505328;-0.58340263;-0.28579214;-0.054528136;0.88917357;0.015009272;-0.41529682;-0.12924281;0.51807725;-1.2804453;0.033978697;-0.50223917;0.13970947;0.3445526;-0.24799132;-1.7398082;0.055902615;0.52756083;-0.09426298;0.17765826;0.046462767;0.00038161734;-0.012941167;-0.402105;0.06040708;-2.0143445;-0.64914846;-0.028741505;0.24798076;-1.2634857;0.04190285;0.044128608;0.16624023;-0.2198534;0.019087104;-0.35235104;0.2487701;0.10008277;-0.081313364;-1.0769051;0.6791175;0.034383547;-0.0035773525;0.040722724;-0.37033287;-0.038852584;0.040293094;-0.079868175;-0.06842664;0.54661167;-0.057749853;0.23135184;-0.035130724;-0.08235941;-0.15756956;-0.039819293;0.120949015;0.97697634;-1.101001;0.080817595;-0.9928205;-0.81151545;0.87691575;1.274406;0.07390558;0.033331204;0.71728796;-0.06297111;0.04066232;0.05878808;0.043483034;-0.045944005;-0.03379118;0.23021208;0.1897811;0.04303373;-0.10240946;0.11878364;0.67704344;-0.019758632;0.055605207;0.05317512;-0.10224824;-0.018372618;-0.32271948;1.5091333;0.026521992;-0.16754083;-0.07760105;-0.20877661;0.16767228;-0.027029721;-0.16958344;0.037711218;-0.2181429;-0.5222972;-0.4459356;-0.048892576;-0.02743244;-0.013883809;0.88270783;-0.08216155;-0.06982195;-0.08711168;0.2834452;-0.019507209;0.061241657;0.09103756;-0.21435574;-1.1044759;0.034529615;0.6751253;0.049500514;-0.60358006;-0.025018912;0.16012168;0.04039803;0.046561744;0.1802555;-0.42550236;-0.75897586;-0.8391028;-0.04273302;0.010846375;-0.38635573;-0.944015;-0.007009875;-0.16138375;-0.02099867;-0.045927454;-0.082077175;0.8655175;-0.08555406;0.034998316;-0.15217443;-0.18790904;0.014787933;-0.367565;0.059126053;-0.029048566;-0.034521714;-0.10469998;0.014399226;0.034507845;-0.012963015;0.03626238;0.05544819;-0.05813618;0.048543785;-0.26892143;0.048596006;0.12128479;0.004182662;0.037224263;-0.9745427;-0.037724543;0.063069224;0.057887994;-0.039664492;-0.15905997;0.06814284;-0.03799436;0.066146515;0.008881567;0.009522073;-0.053808637;-0.46849093;-0.014213834;0.68507075;0.067480005;-0.007527656;-0.75321096;0.036333397;-0.011753488;-0.039786406;-0.020248847;-0.10431496;0.7930112;-0.10956208;0.15884852;-0.06633309;-0.38493732;0.02263265;-0.21261123;0.1458193;-0.05215884;0.023369843;-0.66330844;0.1182528;0.030251933;-0.17912924;-1.1950107;-0.17660059;0.07211927;0.012962561;-0.036571875;-0.0066359197;-0.07775365;-0.06451847;-0.094346605;-0.038669437;-0.02376365;-0.07973013;-0.23322853;-0.0631941;-0.7945293;0.07438164;0.07914311;-0.080797106;-1.1098541;-0.03619869;-0.026596779;-0.12224229;0.1844067;0.04689844;0.26869884;-0.0712149;0.25713658;0.366329;0.063627586;-0.016847176;0.033159107;-0.60100704;0.030136596;-0.2592528;-0.022700453;-0.043858565;-0.005519753;0.1075995;0.07090912;-0.058594458;1.4611068;0.07379157;0.07645642;-0.098875254;0.07026167;0.05447514;0.014268117;0.061482303;0.51980305;0.19467674;-0.09980327;-0.22425076;0.008430963;-0.07852633;-0.08095011;-0.01865675;-0.37784028;-0.17245781;-0.38577002;-0.44491833;-0.016626684;-0.16384299;-0.4455949;-0.012838142;0.07935522;0.055974897;0.14651294;-0.046085514;0.04499277;-0.12867166;-0.053453714;1.2398015;-0.094833255;0.03751323;-0.38190612;0.080377415;-0.43031374;0.03963822;-0.42357627;0.17035285;-0.030875241;0.023397136;-0.25570285;0.024206698;-0.10680168;0.054774247;0.051697385;-0.040030666;-0.023954598;0.0056397403;-0.09549237;-0.099109106;-0.06749489;-0.24709009;0.11461978;-0.04781689;-0.075971976;-0.09112714;0.1301575;0.012651243;-0.3870985;0.24165131;-0.03626048;-0.090509966;-0.048538074;0.16949561;-0.09750461;-0.050751094;0.9251542;1.0080315;-0.36695057;0.062271085;0.056524713;0.0008787088;-0.04468184;0.073636696;0.045808095;-0.66897446;0.0139682805;0.4594094;-0.87090784;-0.18268731;-0.16245072;-0.49897233;-0.28590065;0.08267736;-0.035100512;0.4230956;-0.017580649;0.23591368;-0.019178173;-1.1813537;0.023650248;0.5751926;0.0063661467;0.08477237;0.20771386;0.7831884;0.015686754;-0.099170394;0.26498008;-0.016695188;-0.013873332;0.01360763;-0.010274397;0.054188363;0.02935451;-0.020521415;-0.16675346;-0.10070813;-0.025806423;-0.4826453;0.07307676;0.0023285092;-0.47738853;-0.088464744;-1.9584707;0.4623746;0.008721705;0.44181815;0.03656889;-0.033298478;0.07208552;-0.06804951;-0.1479565;-0.045253683;-0.13096407;-0.012031008;-0.1991923;-0.0020364558;0.16314948;-0.63438576;-0.09817246;-1.7333422;-0.09703447;-0.027465574;-0.234846;-0.39091775;0.06754082;0.07217885;0.060166854;0.017151294;0.017732346;-0.14510815;0.054125983;-0.12589033;0.08337501;0.04287888;0.053597324;-0.026403807;0.07044962;0.05468362;-1.1583444;-1.5467795;-0.33533332;-1.28764;0.06309765;-0.037158784;-1.0225993;0.38845563;-0.5307907;0.08491235;-1.0328014;0.015986785;0.44482404;-0.02818794;0.034381777;-0.050324194;0.026600275;-0.32912996;0.87584424;0.20723909;0.07633672;0.6257194;-0.047179632;0.060064353;-0.6735343;0.045005254;-0.10238693;-0.029987695;-0.06799922;-0.027343241;-0.35451853;-0.00868844;0.024502216;0.06340572;1.8499987;-0.04936259;-0.07025609;0.7761051
0.08131138;-0.10440821;-0.0547799;-0.6503022;-0.084681846;0.060176194;-0.0926152;-0.43224674;-0.0973395;-0.42485693;-0.01480894;0.57848704;0.026468359;-0.2975663;0.021441212;-0.46246335;-1.3365846;0.03758484;0.072684854;0.015369423;0.0070937118;-0.055119768;-0.0032142738;0.40473595;-0.0691616;0.012995884;0.06341757;-0.049928416;1.9695741;0.013568904;0.07062956;0.21142897;-0.006357384;0.014762267;-0.14247525;0.019468555;0.027041126;-0.08318792;0.056956634;0.004758972;0.059089087;-0.11849215;0.367162;-0.09544573;-0.20303309;-0.18284537;0.740256;-0.08166791;-0.4422073;0.2722659;1.6140677;-0.004047008;1.4339889;-0.05299629;0.30705607;-0.48398465;0.035585016;-0.13011713;-1.0179757;-0.03436849;0.10111155;0.15783432;0.054401737;0.07650758;-0.08555317;0.20391521;-0.10363304;-1.6441933;-0.044361737;-0.014395043;0.015509633;0.03067633;-0.115147054;-0.07896964;0.6246908;-0.2688487;0.86560553;-0.5534301;-0.25867474;-0.26592624;-0.09903182;-0.014775093;-1.3937219;0.019270832;0.95905304;-0.011534217;-0.06465179;-0.608767;0.042706285;-0.11497372;-0.014469715;0.0688748;-0.6191908;-0.074239776;-0.0007239241;-0.056308866;0.5971216;-0.02998875;1.296494;0.007881105;0.39026257;0.06444983;-0.14006993;-0.07576299;-0.13862795;-0.02266614;-0.023315936;-2.6420887;-0.0064244084;0.00024291496;0.06540818;-0.05824579;0.01377952;0.093636654;0.042256832;0.06362018;-0.048149355;0.21090937;0.47760427;-0.040473294;-0.093954906;0.000354906;-0.53968215;0.0023568205;-0.07602985;-0.21633245;0.11614789;-0.17563206;0.050453473;0.0044545843;-0.11553755;-0.08535866;0.16532783;-0.12176578;0.24078494;-0.13817224;-0.01903294;0.6264436;0.015803274;0.013677763;-0.07459972;0.08123658;0.0061241784;-0.047064465;0.1717181;-0.09657451;-0.3290133;-0.07827138;0.85464144;0.04356273;-0.82468206;0.23013481;-0.014436075;-0.052120876;-0.053167567;0.07078085;-0.73780334;-0.22014795;0.16298842;0.55860347;-0.040078968;-0.242451;0.2423298;1.7321523;-1.6529098;-0.06767714;0.46498007;-0.10423904;0.23497562;-0.21155187;-1.5277863;-0.072001;-1.5099825;-0.087266065;0.10973778;0.0034770907;-0.17301105;-0.1120408;-0.7082467;0.22074327;-1.1507871;-0.4866425;-0.013020411;0.37319273;-1.289694;-0.07979307;0.0919353;0.012679408;-0.40712947;0.08261744;0.1397041;-0.076029055;0.655874;-0.07368934;-1.8762399;0.69370866;-0.067108594;-0.078504704;0.05696737;-1.443047;0.09866716;-0.019253043;0.026450878;-0.016477;0.5493762;0.0071824677;0.19412832;0.9910094;0.058909163;0.1211981;-0.088765435;0.12342275;1.7601389;-0.47191885;-0.061791237;-1.4702169;-0.66913164;-0.15915385;1.7128645;0.013683838;-0.08848439;0.20617189;0.15654437;-0.097360075;-0.03709391;-0.029950451;-0.0716235;0.06676826;-0.001687397;0.07109262;0.039294004;-0.0980246;0.10810885;-0.13253629;0.0722247;0.06811814;0.08372582;0.034388907;0.058780987;-0.19816351;1.6974767;0.06100149;-0.13558267;0.043755494;-0.79339194;-0.72265786;-0.039977316;0.043148395;-0.003214504;-0.37055978;0.6850113;-0.0458018;-0.066599526;-0.035397384;-0.06816587;0.95618623;-0.019658979;0.04979524;-0.059855737;-0.007894929;-0.120259374;-0.062539406;-0.017271463;-0.13709207;-0.7893783;0.10757672;0.66162544;0.5250721;-0.41636723;0.24408808;0.018115774;0.07604299;-0.031507764;-0.17488855;-0.25553882;-0.5017024;-0.5491469;-0.06729877;0.029837959;-0.4847862;-0.9788058;-0.040427607;-0.19687739;-0.0664844;-0.09253407;-0.32568133;-1.5301889;-0.0455177;-0.036993023;-0.06882215;-0.3687575;-0.77029854;-0.021533506;-0.029367642;0.3919974;-0.0119763;0.29657748;-0.04812734;-0.004764239;-0.08317125;-0.07751576;-0.06463845;0.03384819;0.055592492;-0.31087357;0.05506486;0.13501656;-0.018890582;-0.09330918;-0.56319165;0.01142014;0.033326034;0.23951839;0.017499276;-1.505674;-0.022525292;0.076695226;-0.0248362;0.025281075;0.09781205;-0.01948265;-0.0940026;0.017374748;0.31030005;0.044857774;-0.02264867;-0.6567552;0.014969509;-0.01589383;-0.017045852;-0.06905301;-0.2393654;0.3550065;-0.045515087;-0.076683134;0.018061513;-0.99962753;-0.056090027;0.046988234;0.051498167;-0.005452452;-0.043509763;-0.1499229;0.046684455;-0.09465306;-0.024773555;0.12988794;-0.21710749;-0.009904379;0.03340091;0.022598473;-0.040757917;3.0585343e-05;-0.10389708;-0.0813198;-0.0271008;-0.059512507;-0.04950023;-0.618042;0.024853911;-0.6372597;0.012165345;-0.21163404;-0.13824409;-0.08645319;0.018403215;0.05145887;-0.4476238;-0.48603994;-0.061923165;0.85443074;-0.012814959;-1.2237664;-0.30039033;-0.083330825;-0.0045685954;-0.073574394;-0.04564134;0.10135055;0.12851414;0.05565801;0.041358624;-0.07933204;-0.027406048;0.0077978927;-0.06818206;0.1988886;-0.05891386;-0.06554446;-0.10160291;0.07964066;-0.14616308;0.08465151;-0.06332776;0.22831303;-0.0930352;-0.11595025;-0.31186333;0.4588596;0.018624997;0.047746755;-0.09653312;-0.25260648;-0.17259759;0.2781969;1.476243;-0.045776032;-1.274605;-0.68203473;-0.08320144;0.11594141;-0.35253903;-0.017670022;-0.057835914;-0.07088279;0.38566944;-0.0044970885;-1.3951852;-0.10146057;-0.035523307;0.6449123;0.04679694;0.43294853;-0.031017631;-0.11414812;0.11913919;0.024398252;0.04342783;-0.3503283;0.032580927;-0.0868786;-0.076267295;-0.077542074;0.055030193;0.029595986;-0.033558324;-0.10545659;-0.10858878;0.053446952;-0.16083305;-0.09982136;0.019951832;0.06593382;-0.06962197;-0.26163468;0.042146225;0.9129292;-0.38849118;0.03679364;-0.08191282;-0.14184035;0.15561464;0.0506872;-0.03282742;0.71424073;-0.19316866;0.34177;0.8992807;0.032434292;-0.052731615;0.04096106;0.23373671;-0.07676105;-0.1314233;0.046473894;0.14577986;-0.4574933;-0.21880902;-0.3797567;-0.67619044;-0.123960875;0.0040650237;-0.04118821;0.4236488;0.10081799;-0.3764727;-0.1060764;-0.6251276;-0.05979369;0.56687427;-0.17420232;-0.07631625;-0.08345136;1.0987397;-0.07265697;-0.15406227;0.09471996;0.06616988;-0.014862942;0.015887445;-0.15235357;-0.3138973;0.075171664;-0.021036066;-0.04750504;-0.056082197;-0.08943944;-0.21406825;-0.005805537;-0.04354517;-0.115370505;-0.10507717;-1.1826447;-0.22740565;0.030027598;2.039761;-0.02455076;0.02686437;0.061784193;-0.07486114;0.9972017;0.021693544;-0.17226344;-0.12537798;0.1996118;-0.10163884;0.19984303;0.052599985;-0.0029948412;-0.19346423;-0.115400605;0.07201392;-0.3096523;0.5942559;-0.06326123;0.025109876;-0.017002264;-0.0148754995;0.87909174;-0.24671763;0.14231575;0.08141286;0.5238856;0.048282165;-0.061211042;0.056460094;-0.024716133;-0.06251188;-0.7521937;1.0366124;-0.4218582;-0.71737826;0.15021418;0.03482582;-0.32369697;0.11072816;-0.8099213;-0.12227785;-0.70198095;-0.10490755;-0.9225693;0.025952695;-0.06505182;-0.0006534458;0.060917918;0.15514249;0.52392155;-0.020798279;-0.022362685;-0.08823964;-0.048182137;-0.08283015;0.3303834;0.21892206;-0.092769116;-0.037887514;-0.09182532;0.0696981;-0.7398533;0.011028118;0.17048185;-0.03327056;0.9579342;-0.020473305;-0.03774967;1.3092517
-0.17664137;0.0031145806;0.046952568;0.5420621;-0.15121709;0.021316819;0.07466276;0.40404338;2.235673;-0.1134241;-0.12418233;-0.6659187;-0.14048703;-0.30505684;-0.019404976;-0.30154228;0.72548634;0.03455032;-0.036424585;-0.09461433;-0.03654403;0.03598611;0.046762705;-0.5943755;0.12078761;-0.027457397;-0.043593746;-0.0904706;-0.1251808;-0.071796715;-0.015096991;-0.375091;-0.07368329;0.020693693;-2.7408938;-0.110222235;0.039336193;-0.058655486;0.032693546;0.024007574;-0.22540201;0.3772965;-1.1601083;-0.16235204;0.06450532;0.058031827;-0.23748948;0.03309467;0.8837362;1.9113293;-1.2716632;-0.041744266;-1.2522062;-0.026329609;-0.5686041;-0.61842245;-0.035461064;0.14056127;1.2011154;0.032112002;0.08078153;-0.3282935;-0.05564345;-0.091769055;0.12268015;0.11558258;-0.12838054;1.0663116;0.11994973;0.038368784;-0.10054079;0.020176694;0.006566239;-0.06535401;0.4891859;0.024221884;0.108962044;-0.3854094;-0.25254542;-0.5806002;0.044554677;-0.049117535;0.07569892;0.0019598138;-0.6485259;-7.370378e-05;0.06283746;-0.44473165;-0.08872666;-0.025618859;-0.014110915;0.072544955;-0.6180278;-0.043233708;0.038317896;0.055984214;0.1473451;-0.07135481;-1.6413376;-0.062344514;0.43023157;0.036213037;-0.31085807;0.07469469;-0.11528072;0.07124124;0.034747254;1.2062403;-0.017789694;0.20251986;-0.034212295;-0.07619442;0.036983844;-0.062866636;-0.042104747;-0.063504435;0.0077270316;-1.0522511;0.70159316;0.020748643;0.096446164;-0.017644169;-0.74509215;0.015712747;-0.06253143;0.16085161;-0.036823966;0.44591314;-0.05336476;-0.040614136;0.013160648;-0.2931247;0.09027649;-0.110818274;0.608961;-0.0030962985;0.099879004;0.44412887;0.037177876;-0.07189351;-0.08717483;-0.128253;0.01159563;-0.004313347;0.03484348;0.015005424;0.8044554;0.009245775;-1.5732667;0.07680742;0.62424314;0.6638131;-0.08054412;0.031786982;0.032134447;0.01784402;-0.27840823;-0.41314504;-0.2698863;-0.052067146;0.03732712;-0.19945301;-0.18529095;-0.22147831;-0.792678;0.025663298;-0.012269927;-0.13270055;0.55792314;0.082871534;0.9517434;0.044480715;1.2221763;-0.041610297;0.12041393;-0.048270304;-0.03495317;0.021707594;0.87306815;0.112003386;-1.0116155;-0.24950919;0.08117766;0.6462229;0.5563252;-0.037601266;-0.1685193;-0.054604784;0.2273218;-0.08130486;-0.13309158;-0.0074363137;-0.3522986;0.0013978077;0.47704527;0.88005894;-0.04123944;-0.03425573;0.05513444;-0.110855564;-0.037890904;-0.051905233;0.0072838753;-0.10293931;0.061951064;0.055264615;0.28018185;0.7064164;0.12905532;0.11200636;-0.029975343;0.034877356;-0.28903562;0.072080754;0.050807625;-0.4711471;-0.39052323;0.26662704;0.40958756;0.08229099;0.08413991;0.6643661;-0.12845974;-0.013081243;0.075616576;0.049230978;0.07187776;-0.03454468;0.036081083;-0.074142724;-0.029383412;0.024011724;-0.20742223;-0.079580635;-0.06370561;-0.085722536;0.04457904;-0.15556224;0.004781372;0.074706644;-0.85501736;-0.07512647;-0.06976564;-0.059255477;0.11604332;0.15370797;-0.096363634;-0.11929547;-0.044772383;-0.04446308;-0.41890183;-0.42053527;0.05260017;0.08109097;0.0037794875;0.2402819;0.19505048;-0.020320022;-0.04213991;-0.15959153;0.060404655;0.06772453;0.07343169;-0.25329107;-0.88031006;-0.13965665;0.15690795;-1.1961492;0.4031239;-0.090509824;-0.045026816;-0.09102325;-0.08743941;-0.15745983;-0.25752717;0.9311872;0.0015463381;-0.0010255622;-0.09588302;-0.29607105;-0.87822634;-0.046842527;-0.19168463;0.018547822;0.021604931;-0.08931371;-0.7235854;-0.0049281404;-0.026388548;0.17059232;-0.13877289;-0.16943151;0.01222587;-0.0041542896;-0.036840964;-0.046090964;-0.44049644;0.021404747;0.051150873;0.10427261;-0.026964268;-0.4871735;-0.014977486;-0.038644593;-0.2557633;0.041059468;0.069845825;0.02069602;0.08433839;0.73686963;0.030916343;-0.055738736;0.007037986;-0.22801399;-0.3780096;0.07778432;-0.06612446;0.0409707;-0.056851707;-0.115005754;0.018383602;-0.46934587;-0.030920014;0.103822336;0.014543684;0.050906178;-0.6393897;-0.11652328;0.027930297;-0.10172058;-0.03286252;-0.06412736;0.83123547;0.020095432;-0.05581857;0.014073747;0.58590686;0.12147316;0.15133214;0.08473835;-0.01952139;0.038643483;0.99983597;-0.009724464;0.0024172773;-0.08782363;0.70412827;-0.1395197;0.014363521;0.007990234;0.007822076;-0.021121023;-0.09837267;0.0058047404;0.0063255862;-0.019424966;0.122784466;0.0122933155;0.505464;0.0363638;-0.7179024;-0.018837051;-0.05428101;0.038166847;-1.5081055;0.012448777;0.06943311;-0.044618584;-0.16639233;-0.016319303;0.050978538;-0.050654024;1.3758422;-0.15055653;0.082235046;-0.10040543;-0.01962508;1.5767817;-0.035719186;0.7738002;-0.031399496;0.068235464;-0.05699884;-0.08212442;-0.063292876;0.067003936;-0.4342004;-0.07778082;-0.08332469;-0.15161334;0.013104857;-0.17105305;-0.071540125;0.042564664;2.1364498;-0.13679385;-0.090298906;0.11616668;-0.70249796;0.038160652;0.07091125;-0.017022002;-0.22029361;-0.13514152;-2.462498;-1.1211655;-0.0743583;0.41999164;-1.1167474;-0.055784166;0.35119316;0.17885138;-0.07998973;0.033763424;0.016947439;-0.16089526;-0.06908831;0.4072898;-0.050897043;0.01376004;0.7562552;1.4223033;-0.6248565;-0.03084732;-0.21801618;0.43747994;0.040387858;0.03567349;0.57991;-0.05337851;0.08321629;0.010662354;0.1287069;-0.015620876;0.08690802;-0.03564694;-0.15678877;0.08384446;-0.025857035;-0.09015739;0.07281077;-0.04294593;0.12529776;-0.011213439;-0.6376726;0.06226205;-0.40434745;0.0109908795;-0.008346783;2.9744479e-05;0.0008587863;0.14902307;-0.11970787;-0.010123021;-0.35026062;2.5895305;-0.3077151;-0.2795267;-0.053661868;0.022783445;-0.059431616;-0.45549;-0.017480597;0.16509815;-0.08663984;0.38904274;-0.46922916;-0.12062358;-0.52467394;0.3448444;-0.124369554;-0.034221802;0.020783756;-0.6624925;-0.040967718;0.07982465;-0.021198278;-1.3630099;0.0021450105;-0.38106418;-0.21205643;-0.012037912;0.3080128;-1.0424895;-0.05239673;0.18582647;-0.636696;0.13250735;0.04454971;-0.088764794;-0.0006830018;-0.22936755;-0.052716993;-0.028906561;-0.13699882;0.04363753;0.038332094;-0.036802653;0.044192526;-0.004944352;0.45975;0.14094076;0.5692422;0.561871;-0.03812895;-1.8749521;0.0055956044;-0.10245591;-0.0144792935;0.046217047;-1.1166725;-0.116645694;0.006672964;0.028708171;0.59778905;0.045771413;0.050464287;0.4447559;-0.008441229;-0.13739742;-0.036161814;-0.042045873;-0.8960726;1.8220059;-0.0022523324;-0.050469328;-0.006195458;-0.11680089;-0.4755147;0.32852572;-0.18993822;0.16634108;-2.233421;0.0083450945;0.021747038;-0.018060202;0.042083737;0.08488063;-0.17315295;-1.5710375;0.2468001;-1.3602549;-0.30733308;-0.017334795;0.030276576;-0.4023126;0.006003945;-0.23215944;0.44361454;0.022243174;0.6648023;-0.03307877;-0.058441803;0.06169438;0.018028742;-0.39537254;0.6250107;0.352717;-0.019269157;-0.4696822;-0.058707613;0.017534243;-0.086462386;0.12889755;-0.030704943;-0.08184758;-0.10508262;-0.044656314;-0.2336168;-0.057415143;-0.014752887;0.04204257;0.1168885;-0.045178723;-0.056999713;-0.3051578
0.17807049;-0.028140247;0.074142426;-0.03401398;-0.06298517;-0.031514797;0.039051376;-0.6461909;-0.0042794216;-0.2824856;-0.08615169;0.29980445;-0.11016484;-0.6507101;0.0036543366;-0.4169348;-0.40939286;0.023897089;-0.08531474;0.36218894;-0.1116289;-0.09471268;-0.07789982;-0.74487346;0.03898212;0.044037685;0.090103425;-0.0067984406;-0.5572793;-0.08627361;-0.06924825;-0.3240999;0.3012559;0.01388321;-0.92737246;0.25228044;-0.06564273;-0.035712443;0.035709776;0.040115338;-0.22324191;0.42752066;-0.47126177;-0.07328881;-0.10811341;0.0112652555;1.0975739;0.0077255955;1.2323323;-0.93585324;-0.46692532;-0.015847921;-1.0042293;-0.077967376;-0.56351435;0.31615952;-0.17351711;-0.020460254;1.5521619;0.00980098;0.11228427;-0.32561255;-0.0038689757;-0.0025241706;0.04194891;0.04117214;0.25516817;0.4830372;0.15621953;0.0043448037;-0.12891638;-0.09096443;0.15523908;-0.11258795;0.8846316;-0.03614127;-0.6093556;-0.22933485;-0.17418443;-0.11293475;0.115064636;0.098246664;-0.21413274;0.008642709;-1.5171833;0.063909955;0.11231297;-0.7995;0.013114418;-0.11567483;0.054804884;-0.4875407;-1.2721092;-0.086176954;0.012280709;-0.00068579084;0.32329;-0.12912503;-1.2074549;-0.1538854;-0.8266603;-0.03547914;-0.55342746;-0.36996335;-0.04433729;0.16497165;-0.10811488;0.27482775;0.012048639;-0.24047945;0.06851071;0.031397812;0.020742832;-0.063633405;-0.1625784;0.021650279;0.13440908;0.44456512;-0.47711822;0.05026985;0.094914384;-0.046047576;0.13735327;0.41236115;-0.12184893;-0.13443251;-0.16015276;-0.40268728;-0.043844134;-0.07306294;-0.08854717;0.036534317;0.05517994;0.014888646;0.5439095;0.055408336;0.22608127;0.05312432;-0.054261398;-0.020920957;-0.039003942;-0.16591246;0.025504148;0.1464605;0.122894764;0.048094716;0.30550498;-0.0036909368;-0.0021228602;0.09031534;0.34521884;0.49088556;0.004653214;-0.31732944;-0.028953262;0.11996671;-0.07795505;0.2699379;-0.12949345;0.39604416;-0.0371846;-0.43489206;0.10535762;-0.41013002;-1.4423639;0.04140856;-0.25995034;0.5686222;0.16881034;0.25640243;-0.27154714;0.16211843;-0.11553894;0.09541723;-0.14079544;-0.11267549;-0.107661866;-0.17745562;0.0715246;0.07228663;-1.1243987;0.7428155;0.13591602;0.9858168;-0.26787943;0.10191842;-0.022710225;0.33963254;0.21793623;-0.16055772;-0.21334305;-0.59728396;0.6014242;0.026662594;0.80777276;-0.48774698;0.032707103;-0.050588705;0.073742695;-1.2926853;-0.13398409;0.09972354;-0.10856706;-0.09167748;0.5638492;0.1315373;-0.19253807;-0.4751532;0.114146985;-0.396992;0.05532967;-0.1282972;-0.5293718;0.7893021;-0.0055701835;-1.4829944;-0.11061126;-0.10281957;-0.55428904;0.069926925;0.12810351;0.21210393;-0.3161086;-0.02413282;0.026747419;0.0130004585;0.10752861;-0.12090566;0.06569947;0.31496635;0.06309232;0.16517983;-0.28773463;0.074935466;-0.14700207;-0.16812195;-0.06355396;-0.080414996;0.0792214;-0.70399666;-0.9269395;-0.006692012;0.21725996;-0.008255694;0.2754234;0.13225806;-0.1437216;-0.14580576;0.12984306;-0.27037135;-0.67001545;-0.8583789;-0.024015132;0.09728989;-0.043148763;1.3034673;-0.679839;0.0810062;0.12582964;0.3001658;0.1017483;-0.10146532;0.187798;0.26707473;-0.691887;-0.1496797;-1.5280219;-0.53959906;-0.17003532;0.15942591;0.51262;-0.08904743;0.011974813;0.5286585;-0.41395918;0.22417066;0.5509617;0.002409608;-0.05652855;-0.25043312;-0.34490767;0.048008125;-0.40558463;-0.05782664;-0.0036090463;-0.14923693;-0.84395885;-0.07430544;-0.008641864;-0.12457643;-0.28626752;0.78704304;-0.41454628;-0.01776193;-0.52231354;-0.020289987;-0.10067601;-0.11634036;-0.052494477;0.117000885;0.052852362;-0.39876875;0.022068966;0.018577678;-0.19202493;0.09494194;-0.17429562;-0.07269521;0.0049723214;-1.0908726;0.030691234;0.04392493;-0.059912615;0.11921158;0.4169946;0.00055624236;-0.03743081;-0.007234633;-0.080454916;-0.04677;0.0043659727;-0.595396;0.24121995;0.15992038;0.098028;0.17570935;-0.26927847;-0.13942122;-0.07789301;-0.0669081;-0.05508097;-0.057911046;-0.14293769;-0.13014542;0.41211385;-0.058151647;0.18325035;0.01934661;-0.6408783;-0.03925843;-0.006074351;0.07129213;0.39485192;-0.031758875;-0.11786508;0.18241498;0.09002937;-0.40940803;0.35048193;0.17991969;0.19482788;0.028555438;0.068063855;0.050198387;0.1648368;0.0014840021;0.17786534;-0.04316351;-0.11137901;0.023237875;-0.37145084;-0.009413139;0.38261378;-0.14296052;-0.46334174;0.065934435;0.07887364;-0.20798114;-0.4423612;0.0557853;-0.22463821;-0.012519218;0.19152956;0.12553759;0.032394446;0.020170549;0.11370856;0.96030414;-0.06500811;0.05420711;0.26388922;0.12787215;0.15005791;-0.1788436;-0.11564612;-0.021559056;-1.174589;0.20920916;-0.07633505;-0.08110047;-0.04147184;0.5136184;0.040468935;0.0047910945;0.5875813;0.63972974;-0.08604922;-0.603335;-0.35992533;0.117222115;0.03629788;-0.00024514637;-0.36951292;-0.2205066;-1.5607668;-0.06747947;-0.07881743;-1.0331254;0.1841138;-0.061968382;0.29204628;0.1608382;0.2954883;0.060363006;0.13864645;-0.046396513;-0.0626213;0.034329068;-0.1368119;-0.034867525;-0.03805343;1.2864882;-0.06000837;-0.022447012;-0.4590771;0.11965421;0.091611564;-0.090560056;0.88509554;0.004593469;0.09935948;-0.014751216;0.047763146;-0.054496985;-0.057768695;0.03420113;-0.13988383;0.14932534;-0.06618025;-0.1619192;0.18155606;0.09549425;0.18897533;-0.061904073;-0.61182564;-0.024649246;-0.40438938;0.019877518;0.12191479;0.11140931;-0.06588724;-0.18111138;-0.051643938;-0.02331484;-1.4876431;0.0033899643;0.19015114;-0.11712273;0.24329625;0.06967239;-0.093698956;-0.35779065;-0.0075441105;0.42508534;0.01431906;-0.23589803;-0.35200694;-0.101872586;-0.73988575;-0.15015718;-0.42610168;0.3171543;0.037343554;0.3630043;-0.15874495;-0.37342077;0.17556423;0.6736532;-0.2663349;0.2586925;-0.0033059716;-0.061157756;-0.26514164;0.33365682;-0.026201423;-0.05909977;-0.59801173;0.052970566;0.003307654;0.053687725;0.03949259;-0.2846536;0.060285196;0.14693841;0.20087874;-0.014035875;0.044195104;0.042588424;-0.0013807908;0.019931413;-0.17118953;0.05363201;-0.86096436;-0.057150222;-0.0705459;-0.45060992;0.10250086;-0.06065336;0.0031198338;-0.0048225196;-0.14522287;-0.003990577;-0.03722972;0.030207573;0.19591084;0.069593675;0.15176073;0.5407882;0.103608616;0.6768235;-0.06624322;0.026141094;-1.3102002;-1.0904039;0.06981036;0.28655878;0.090472735;-0.068418026;-1.9397062;-0.172429;-0.025932109;0.29235142;-0.26109532;0.4002794;0.2868234;-0.021147482;-0.08216457;0.36372632;-0.55266047;-0.44473848;-0.4777751;-0.62983394;0.11686665;0.14370798;-0.10065677;0.2639276;0.46172434;0.5475511;-0.10051861;0.13540679;0.6329177;0.046826582;0.018423468;0.10765147;0.047678597;-0.0028629147;0.2008182;-0.5721865;-0.073451854;-0.7438924;0.022616979;-0.057516415;0.61899215;0.21441117;0.013754952;-0.1473266;-0.124799356;-0.131768;-0.073261574;-0.09013293;-0.14485101;-0.032906715;-0.31223947;0.03521755;0.020112662;-0.28047195
0.28321457;-0.06334166;0.0062412354;-0.8871532;-0.16801433;0.008350243;0.0778129;-0.2726005;1.1067288;0.20820196;-0.11349576;0.61691856;0.015272306;-0.6830817;0.04766723;-0.22546196;-0.45150405;-0.079861745;0.059559893;0.27779272;-0.030480595;-0.06846291;-0.029032663;-0.15084928;0.08093148;0.025324132;-0.07714697;0.04416566;-0.22231558;-0.049038034;0.034756325;0.06407397;0.23834349;0.00014834348;0.5354354;0.27831945;-0.009305331;-0.024933543;-0.041402936;-0.039302584;-0.22954784;-0.11196243;-0.07506246;-0.15390334;-0.34527713;0.043291952;0.62969065;-0.048344746;0.41688073;0.029781982;-0.19299589;0.037785802;-0.5186874;0.051921654;-0.53631926;0.8715037;-0.09898727;-0.049533192;0.8659748;-0.0643711;0.17880803;-0.056093615;-0.049363595;0.1147254;0.004994386;-0.0850062;-0.24806388;0.49552655;-0.04783905;0.008825254;0.03702486;0.001678687;-0.012937724;-0.19069394;0.29224965;-0.18660463;-0.22864972;-0.35915962;-0.054302376;0.29673296;0.0820763;0.019520672;-1.1756716;-0.06896363;-0.074254505;-0.06590492;0.09474831;-0.6151195;0.03681507;0.05426433;0.12722245;0.019095736;-1.1853293;0.023091221;-0.04974812;-0.042181816;0.38323468;0.010236622;-0.15818548;-0.14373828;-0.6606819;0.06716695;-0.4948271;-0.39575854;0.08547372;0.048927117;-0.032463156;0.039334826;-0.050165407;-0.49192476;-0.02804584;0.021676917;-0.03579883;-0.015348262;-0.059478737;-0.0594871;0.065457344;0.024445338;-1.6810565;0.08302966;0.060468838;-0.033798985;-0.15776026;0.19453482;-0.010312939;-0.14470933;-0.04139428;0.26961935;0.06633212;0.06009437;-0.036721278;0.61740667;0.014611855;-0.012008998;-0.5571936;0.090138875;0.073486604;-0.36473832;-0.06382287;-0.03762582;0.017344689;-0.039096855;0.044634394;0.059552856;0.023418715;0.04788788;-0.54770184;-0.022351142;-0.3268406;0.03895969;0.012303187;0.4962379;0.016834583;0.12354969;0.065239884;-0.044440445;-0.27861822;0.12110119;-0.14385574;0.44267485;-0.003762266;-0.21404287;0.48165086;-0.2187494;-1.2551999;0.020973427;-0.52955514;0.3255197;0.035982337;0.08183587;0.083828405;0.015887529;-1.5690014;0.21097884;-0.041432485;0.070416346;-0.058864255;-0.18613987;0.390792;0.21852861;-1.8700504;0.033293176;-0.050473616;0.2566106;-0.046139814;0.056816623;-0.040736176;0.20054175;0.014021176;0.017438008;0.1375335;-0.3744367;-0.40066046;-0.023566715;-0.5149051;-0.3032389;0.008538049;-0.0060204817;0.070250966;-1.1191385;-0.09886688;0.069591194;0.06029654;0.064741276;-0.004800865;0.11389473;0.22671914;-1.0604422;0.013015767;-0.121475734;0.0058403006;-0.14974107;-0.29612392;0.06397745;-0.058085587;-1.3239868;-0.47834882;0.3571552;-0.2391245;-0.026814032;0.09052961;0.8842975;-0.29580614;0.032047186;0.023104075;0.018926127;0.19295803;-0.07883979;-0.083509564;0.18508673;-0.046865877;-0.008933763;-0.5548137;-1.5702184;-0.009577115;-0.10208702;-0.06150116;0.06510547;-0.051782455;-0.4691023;-0.26681206;-0.018722594;0.11499365;-0.035919446;0.49767703;0.34358338;-0.12921473;0.02088931;0.04573427;-0.11123538;-0.61907923;-0.15482342;0.0842964;-0.046806447;-0.078289144;0.8196569;-0.5706752;0.0324933;-0.014164;-0.07422939;0.13956979;0.039816655;0.056165412;-0.12486974;-0.2242432;0.037434418;-0.40958706;-1.6533903;0.30050465;0.09067743;0.33143866;0.0034135822;-0.06169092;0.36754885;-0.2440245;0.47940788;-0.239138;-0.036076643;-0.039506596;-0.21075106;-1.4974645;0.06763856;-0.08097196;0.04107933;-0.012208675;-0.004605358;0.73585963;0.028793564;-0.041379884;-0.12733506;-0.10504121;0.9297991;0.058197655;-0.07672927;-0.8864037;-0.004698541;-0.07014109;0.027459072;0.059639424;0.10959022;0.02272762;-0.11286958;0.02525889;0.056616765;-0.04681938;0.075493135;-0.28629684;0.01249462;-0.009145743;-0.24435654;-0.029611338;-0.016131736;-0.1920616;-0.6912936;-0.83740216;0.0334963;-0.032613114;-0.07640014;0.029271431;0.008073067;0.07212684;-0.86042774;0.10943352;-0.24335882;-0.020978555;0.13452719;-0.45906824;0.0064716805;0.01226505;-0.019050697;0.032440014;0.01275205;0.4002962;-0.17373483;0.21613167;-0.028193763;0.041831333;0.0059743742;-0.81384784;-0.07949155;0.0687478;-0.028007;0.3845518;-0.20612033;0.08726033;0.09448297;-0.09342647;-0.16496095;0.14388871;0.0593779;0.10348761;0.03988586;0.023182835;0.057113484;0.11613018;-0.033986613;0.10529622;0.032945342;-0.08052183;-0.016804967;-0.34161532;-0.034356214;0.19722158;-0.039106473;-0.18622068;-0.01934764;0.010173006;0.043871276;0.50411063;0.069484696;-0.07746351;0.012484923;0.39079702;-0.43383774;-0.03948746;0.04909154;0.010261553;0.6423484;-0.13874413;-0.027350288;0.24226712;0.135773;0.12836047;0.019804664;0.034992255;-0.033616044;-0.23699585;0.07735646;-0.0320131;-0.1108185;0.07382433;0.3857503;0.032665715;-0.0045017214;-0.03954471;0.26813102;0.008474947;-0.5039651;-0.2548103;0.110846095;0.03324606;-0.08138414;-0.17317757;-0.07453995;-1.3287152;-0.15262643;-0.039905738;-1.0328891;0.34441677;-0.052112877;-0.09400815;0.1892596;0.2099954;-0.02118861;0.10333181;0.05571769;-0.064320035;0.6610589;-0.055635653;-0.084087715;-1.7173569;0.79995203;0.13195407;-0.040202487;-0.15854344;0.17992164;-0.022662591;-0.08281476;0.32477394;0.014421854;0.099669665;0.05393652;-0.00042287054;0.034954093;-0.050156847;0.052694913;0.049416192;0.121352054;-0.17522888;0.0002856418;0.19441658;0.007381303;0.17398687;-0.012102554;-0.13596794;0.046362586;1.0005177;-0.27443174;-0.032420915;-0.056218006;0.00041558957;-0.15903477;0.03131215;-0.054127682;-0.19005014;0.519773;0.5931777;0.24070773;0.04381187;-0.0063469415;0.032894876;-0.29406857;-0.07090585;-0.16423212;-0.019894158;0.4280589;-0.7253792;0.008656741;0.90730375;-0.20784003;-0.14791466;0.06730552;-0.016759576;0.22758865;-0.03240134;-0.4732789;0.13601902;-0.18063007;-0.3616769;0.4925059;-0.21345095;-0.011267896;-0.18319322;0.869598;-0.034307577;-0.03234478;0.9704295;0.0758573;-0.054393444;-0.014546584;-0.061894257;-0.25085288;-0.07154567;0.14342609;0.15812665;0.023067135;0.03939255;-0.30892524;0.056405123;-0.015905038;0.25456697;0.050022412;-0.86324024;0.33930877;-0.032629985;0.67862684;0.09792658;-0.20217888;-0.04153895;0.010235035;-0.34177527;0.020688377;-0.073988624;-0.09000351;-0.09149242;0.12813115;0.075697176;0.043920573;0.08818732;-0.22268842;-0.07363536;-0.035967723;-0.2790653;-0.27735326;0.040874045;0.15735263;0.03265637;-0.0074493587;0.8606474;-0.20537333;0.097627714;0.14545919;1.4013329;0.15939695;0.091448545;0.021392096;-0.06586446;0.11299609;-0.31823733;-0.5556688;-0.19030769;-0.17162938;0.24614172;0.08183554;-0.24924818;0.021474345;0.3145278;0.30536863;-1.1396518;0.10680977;0.5094254;0.007989352;-0.0024640271;0.057098333;0.0680754;0.5374928;-0.26477364;0.108595654;-0.0662867;-0.37454292;0.036832493;0.13501987;-0.6452613;0.21521808;0.031629525;-0.107003726;-0.036576957;-0.04927044;-0.607226;0.021202216;0.07769343;-0.040135328;-0.5956922;-0.08259448;0.07482262;-0.19586624
0.1900919;0.020502593;-0.008935964;-0.34201184;-0.059796218;-0.014609717;-0.07082057;0.8802648;-0.1301807;0.44310442;0.09269692;0.9879496;0.023281844;0.27133006;-0.044638798;-0.365392;-0.7319027;-0.17084455;-0.0463908;0.2844451;-0.017168645;0.07844475;-0.033918504;-0.009028686;-0.020461958;-0.046124436;-0.04317149;-0.07217935;-0.35646605;-0.0072591323;-0.06717519;0.52388066;0.10728801;0.014250077;1.2191844;0.13965404;-0.036989156;0.05779827;-0.043675102;0.007881724;0.2874593;-0.039186608;0.74571264;0.028084047;-0.6021321;0.12393432;0.8068802;-0.07024113;0.043533653;0.5832759;0.48363587;-0.0581419;-0.18052913;0.02387493;0.012693049;0.5981983;0.017477019;-0.022181973;-1.3570544;-0.06826081;0.086888924;0.05947931;0.07263163;0.014675149;-0.09454744;-0.18400517;0.22310309;-0.16978034;-0.029938785;0.065370455;0.07503289;0.0229126;-0.048034035;-0.09290313;-0.19927952;-0.20446445;0.012672487;-0.6249766;0.14153707;-0.6839359;-0.05808866;-0.060515568;-0.8665928;0.04059046;0.99120146;-0.077034935;-0.1046845;-0.9680878;-0.0573975;0.043989547;-0.023991585;-0.41659623;-0.42497003;-0.03188465;-0.0596069;-0.077686116;0.28776273;-0.059904594;0.31942037;0.06648338;1.0145441;0.014776085;-0.33328566;-0.106500305;-0.08515674;-0.038794655;-0.070013575;-0.36312535;-0.06878872;-0.46418938;0.024617456;0.042234566;0.040113837;0.08606188;0.04790284;-0.009004575;-0.09733452;0.2793766;-1.579001;0.02910791;-0.07039821;-0.03614639;0.33545837;0.24608915;0.036082607;-0.1863498;-0.0008589471;1.0657057;-0.03596023;-0.048495054;-0.08097522;0.7660958;0.107298344;-0.042488333;-0.58624846;0.05320958;-0.07256308;-0.2192889;0.06682974;0.06933867;0.032754283;0.02808282;0.019185465;0.031062553;0.07730681;-0.044085577;-0.5358475;0.01751974;-0.22005594;-0.027691195;0.8303625;0.23072566;-0.03824528;1.5616658;-0.06185623;0.03414194;0.10319068;-0.39617023;-0.08192446;0.12746036;0.06318428;-0.30830893;0.038693324;-0.2515755;-0.45581684;0.034103014;-0.00019876918;0.3195575;-0.14233437;-0.07300913;-1.4136167;-0.03387007;-0.298646;0.15274541;-0.0183919;0.0032402645;-0.06435683;0.18722342;0.8071184;0.18677837;-1.2089658;0.040953215;-0.007844407;-0.5290664;-0.45125714;0.028897608;0.06895357;0.061953507;-0.35715353;0.030578488;-0.20977816;0.03908452;-0.23626716;-0.06911764;0.23136532;-0.24103379;-0.08436183;0.04356745;-0.06443379;-0.558075;0.09242777;-0.07430765;0.027771963;-0.044561457;-0.5540463;0.06024471;0.18555652;-1.4275498;0.027264427;-0.35794392;0.05088123;0.010822632;-0.29846716;0.3466064;-0.01488406;-0.4708223;-0.45544887;0.43041793;-0.22875847;-0.009225806;0.052248657;1.4456139;-0.7237317;0.014712763;-0.038364794;0.022750616;0.18495363;-0.032747425;0.13545983;0.15627892;0.05964528;-0.11251279;0.45974964;-0.98448116;0.09139795;-0.018197596;0.06017327;-0.10286365;-0.011988772;1.230446;-0.2458995;0.012469821;0.12378032;-0.07599195;-0.28678417;0.254653;-0.031327385;0.05074177;-0.07966663;-0.21639834;0.8927501;-0.5296607;0.03726315;0.07575784;0.024668356;0.41552025;0.095742896;0.030006425;0.015521755;-0.7678136;0.015022343;0.02680862;0.10338086;-0.21108846;0.98145014;0.018425474;0.04951263;-1.1278993;-0.14095278;0.41474077;0.15403873;-0.07714452;0.04563446;0.23702407;-0.33153084;-0.03284219;-0.34707028;0.046215564;-0.07313736;-0.4445514;-0.16929163;-0.029948132;-0.3354806;-0.07181916;-0.034777846;-0.10907083;1.0301075;-0.05162809;-0.06145486;0.018883795;-0.19789402;-0.6152031;-0.39257884;-0.0048900773;0.07004126;-0.076441266;-0.008655751;-0.026105085;0.064676695;-0.0560461;0.030086143;0.15979108;-0.067397445;-0.010313189;-0.27658728;-0.019901307;-0.22035667;0.029419726;0.02497164;1.4326589;-0.04738465;0.06870034;-0.07278644;-0.7541697;-0.7308085;-0.01611124;0.03952732;-0.06487029;0.02499107;0.07460027;0.07809081;0.61903477;0.027093757;-0.38842705;0.013228025;0.07330268;-0.8313503;0.09122231;-0.026571326;0.06431297;-0.010122992;-0.06467747;0.6059515;0.04762864;0.09477356;0.09024856;-0.96562415;0.051886678;0.8667168;0.12110331;-0.011491912;-0.080647066;0.16470994;-0.13289918;-0.03201363;-0.084683046;-0.3911774;-0.2656062;0.10797309;0.007989182;-0.034226716;0.008300124;0.077962846;-0.01839101;-0.010627925;0.03955677;-0.08706039;0.07971897;-0.052153334;0.008561976;-0.8120044;-0.061077707;0.44972232;-0.07939252;0.13417453;-0.09560134;0.035281036;0.026328351;0.5336778;0.036959145;-0.31510115;-0.08189025;-0.42695975;-1.1489068;-0.03227442;-0.0012008387;-0.043768734;-1.2479734;0.013768946;-0.41086662;0.051943034;-0.08067763;0.03976919;0.05386795;0.036884062;-0.02233974;-0.7858995;-0.05306193;0.02182757;-0.103895314;0.07251156;0.31752315;-0.06314868;0.08721307;-1.0746439;0.29963917;0.02977481;-0.108802475;-0.2054309;0.020875415;-0.022485575;-0.006864428;-0.29525968;0.10396948;-0.8671727;-0.5804593;0.062612444;-2.0088465;0.16629298;-0.028785026;-0.19568871;-0.031936612;0.14313774;-0.04420695;-0.009437005;0.14600712;-0.025970532;0.29279923;0.047739632;-0.009685138;-1.6745311;0.6012343;0.2857855;0.023614105;-0.38398942;-0.5334652;0.039719537;-0.053515013;0.09562535;0.060606584;-0.025543917;0.058492437;0.034269225;-0.047155254;-0.039559163;0.0045117047;0.20303291;-0.05345866;-0.091824874;-0.12679467;0.108825654;0.0024075403;0.06303895;-0.05520255;0.05687887;-0.07406861;1.0834213;-0.2651654;-0.035354517;-0.034124803;-0.024403999;0.014062096;0.049748708;-0.06274098;0.5974751;-0.30134463;-0.28264403;0.10469319;-0.014415745;0.05686863;-0.012916725;0.28826734;0.032652356;-0.02608503;0.06633997;0.105461404;-0.46427104;-0.2097111;1.2776096;-0.48685294;-0.33303156;0.05556275;-0.059949692;0.65292597;0.03530678;0.53996587;-0.09596198;0.31339264;-0.23814401;0.7204533;-0.084666744;0.008185472;0.5231512;0.9847927;-0.011497779;0.08887697;0.26663893;0.0928769;0.024834929;0.050322786;-0.09772211;-0.3808035;-0.049540397;-0.09742794;-0.06246646;-0.08550005;-0.016566169;-0.8448839;-0.023410149;0.05941317;-0.034240708;0.0043937354;-1.1470953;0.6323623;0.0036163996;0.47303328;0.0029693125;0.05322283;-0.014879773;-0.015369664;-0.5456807;-0.0080965515;-0.05656131;-2.314338e-05;-0.12063683;0.008577079;0.13818932;-0.3489345;-0.063203365;-0.59805775;-0.011641102;0.033806834;0.3023136;-0.21311918;-0.07286359;0.118685074;-0.0033466907;0.060522743;0.8574352;-0.2516283;0.13193971;0.06535832;-0.41258255;0.10869154;0.00330656;-0.044970673;-0.008354988;0.06083441;-0.15594107;0.021948813;-0.14407438;0.3671606;0.47666597;-0.057399534;-0.69876474;-0.3594473;-0.56375;0.30670106;0.050778598;-0.043940485;-0.3253945;0.021550989;0.062184494;-0.09351359;0.03619867;0.30349013;0.49823323;-0.9341478;0.014481788;-1.1150622;-0.03868037;0.12007754;-1.9846053;-0.105925314;-0.08638216;-0.08396147;-0.04678476;0.042528633;-1.7404243;-0.030756054;0.039996374;-0.05034007;1.1956036;0.010253986;-0.05469598;-0.26128498
0.35650334;-0.066424094;0.05990091;0.13241665;-0.116227604;0.015746731;0.026556449;0.9747476;0.2649385;-0.015485042;0.000437288;-1.0046579;-0.08877018;0.36726853;-0.05422271;-0.19384028;-0.21796389;0.035049103;0.024888724;0.11393608;0.0495171;-0.0073127653;-0.10088638;1.8620257;0.029123053;0.08915688;0.070556395;0.007915683;-0.008991201;-0.0008600753;-0.07794689;0.4528163;-0.0024983957;0.016746653;1.6119597;0.09122642;0.021195713;-0.10146957;0.101049215;-0.011106042;0.7198461;1.0023799;0.06759635;-0.073574424;-0.45927918;0.017626721;0.27761906;-0.07102641;0.8193845;0.5530104;0.2527713;-0.035765015;0.1449671;-0.06808731;-0.22015543;1.0711211;-0.14991814;0.015601841;-0.8323303;0.058686357;-0.0027234557;0.081117116;0.01168531;-0.025027972;0.08586215;0.08013202;0.092610426;-0.114379615;0.0578195;0.050681476;-0.0054467167;-0.042503387;-0.035339776;-0.15403174;1.0628517;-0.15827684;0.04977454;-0.72193384;0.35244367;0.5582643;-0.010583834;0.057408407;-1.312997;-0.05941591;1.1043195;0.004920408;0.08008539;-0.6519214;-0.0225563;0.06622187;0.12076266;-0.011805222;-0.51177114;-0.006977362;-0.06108869;0.032119133;0.2940246;0.07138197;-0.015806379;0.012866507;0.5376255;0.044333074;-0.2883671;-0.25090578;-0.025874482;-0.019834783;0.0038862475;0.11153497;-0.07012181;-0.57258725;0.075771086;0.049978107;-0.039285626;0.04895058;-0.009151041;0.078467116;0.011562816;0.2894107;-1.1099378;0.016183527;0.043178227;0.0069110706;1.0192001;0.10538398;4.943885e-05;-0.09988218;-0.11761893;-0.5101999;-0.0716868;-0.02198775;-0.07432771;0.5295434;0.07145903;0.018274922;-1.5952646;0.025710268;-0.00423534;0.6568951;0.0008001466;0.043076538;-0.037740503;-0.07267003;-0.036163457;0.07731297;-0.051814593;0.07668057;-1.6763928;-0.0035911785;1.8691299;0.046306487;0.1713463;0.59639305;-0.084644526;0.99224865;0.045819774;0.09778237;-0.39066786;0.13739276;0.25596598;0.88544744;0.0299393;0.009454627;-0.29520524;-0.02729479;-0.5317677;0.046881605;-0.21547782;0.026072484;0.046014685;-0.13447455;-0.90383345;0.1327418;-2.642694;0.077819735;-0.025722688;-0.038310554;-0.29448226;0.41467497;-0.6304749;0.16184163;1.7984184;-1.4636905;0.03361724;-0.7477716;0.21122459;-0.049029265;-0.062816545;0.018581841;-0.19387487;0.033723366;-0.5497395;0.085297056;0.034576997;-0.0141013395;-0.64389455;-0.57036585;0.003225914;-0.002819757;-0.041278653;-1.2099181;-0.009761908;-0.039395332;-0.05586429;0.042642873;0.007852708;-0.09212272;0.36804032;-1.5636908;0.0407846;0.06516307;-0.033088975;0.01140914;-0.042606745;0.3930834;-0.025251431;-0.6377398;-0.41705158;0.16878974;-0.62431794;0.008946918;-0.030496573;0.07075743;-0.5705213;-0.060968086;0.013811568;0.028037844;0.0535868;-0.03788619;0.05319605;0.4831057;0.0639484;0.06634846;0.5046084;-0.12254926;0.0022037525;0.060523506;-0.07640776;-0.35409448;0.04350518;0.2507134;-0.47471958;0.034279972;-0.011254425;-0.019504981;-0.047948517;0.43008658;0.05532865;0.013284377;0.122420125;-0.009006016;-0.24674088;-0.120233625;0.043612417;0.09094878;-0.0040011397;0.5141837;0.15090157;0.10160119;-0.025852844;-0.39653435;0.07927566;0.005553521;0.029324237;-0.6145614;2.133627;0.07925475;0.32942852;-1.2460306;0.448499;0.24980296;0.026815552;0.060915604;-0.03662221;0.099546656;-0.09981061;0.33916095;0.15624401;-0.064514205;-0.055431936;-0.28239104;0.51534146;-0.04524339;-0.13220948;0.017353892;0.06241633;-0.00041201478;0.148845;-0.050239574;0.03657815;-0.13886505;-0.09024272;0.6517907;-0.10103799;0.06354753;0.31404945;0.03499487;0.048243865;-0.050022427;-0.0500899;0.058455057;0.06828821;0.4982714;0.002705473;-0.056613408;0.032618377;0.00816681;0.10306502;0.021211365;0.00027578417;1.8648944;0.06332284;0.037777998;0.1629585;-0.09581884;-0.73820555;0.016461274;-0.07964021;0.05436141;-0.066541664;-0.04621725;-0.08655298;1.2507827;-0.07449582;-0.14190425;-0.088900946;-0.086553894;-0.55282813;-0.005015178;0.010466086;-0.072948575;-0.02718312;0.011523537;0.31608227;-0.07688923;0.069930874;-0.021269683;-0.83690846;0.09576902;-0.53374875;0.137153;-0.09752424;0.0947588;1.2968402;0.029003829;-0.046424534;0.15987125;-2.1222994;-0.052990273;-0.016784193;-0.04630586;-0.08430029;0.002612509;-0.024704833;0.0015788487;0.05051916;0.030324139;0.031645127;0.0688544;0.11788722;0.008388643;-0.5877633;0.067339234;0.09677741;-0.06113538;0.34351045;0.12462908;-0.02279108;0.10036924;0.21291259;0.056333624;-0.29513186;-0.049541086;0.38157558;-1.3921564;-0.057641238;-0.03624113;0.051481944;0.19136073;-0.096457526;0.18564703;0.0561134;-0.009315313;0.050892245;-0.027739337;-0.108811826;-0.059522383;-0.4464789;-0.0054578353;-0.07872188;-0.09315267;-0.0722571;0.006675087;-0.025162011;-0.07919144;-0.27715883;-0.0061801584;0.07678167;-0.12723571;1.567013;0.045925457;-0.037779316;-0.013220845;-0.16773444;-0.1485358;0.84239936;-0.13579887;-0.049227852;-1.3294567;-0.17284895;-0.016546743;0.35349488;-0.018630378;-0.05241602;0.02302482;0.10412063;0.11954481;0.029653275;0.2697152;-0.014771702;-0.053407017;-1.0262151;1.3986412;1.7059386;-0.041881874;-0.06939656;-0.066680536;0.07499283;-0.056891337;1.101637;-0.08586989;-0.024690099;-0.030543152;0.074795455;-0.0435727;0.00086308975;-0.048405647;0.048194177;0.09787308;-0.07065501;0.47750065;-0.020583143;-0.0014938875;0.11981665;-0.023315432;-0.15600653;0.009565477;-0.28362823;-0.6389515;-0.012318688;-0.03648;0.012772907;-0.09207992;0.19061412;-0.0550425;0.593506;0.1771321;0.15557557;-0.10282255;-0.0038927987;-0.016489515;-0.12479097;0.3507766;0.06403919;0.13105825;0.048257962;0.8561044;0.071443066;-0.10036841;2.5172498;-0.47283044;-0.13404098;-0.082180336;-0.03252413;0.56516874;-0.051235106;0.52756363;-0.016371766;1.143;0.061318025;0.27153677;-0.58056784;-0.064006165;0.5439739;0.36436334;0.04177078;0.0060950886;0.096236184;0.0003091901;-0.05381295;0.02597221;-0.05863753;-0.15913238;0.057689786;0.06599654;-0.17808479;-0.06572284;-0.0022613765;-0.19412766;-0.06630655;-0.02870043;0.9683632;-0.033193614;-0.15938428;-0.28438288;-0.022980273;-0.0049287095;-0.00875971;0.09949521;0.014511107;-0.030017568;0.08117121;0.01924738;0.00050625764;0.052059468;-0.06588227;0.007926377;0.052765097;-0.1742234;0.052673925;-0.601242;-0.0010716855;-0.053827655;-1.7581067;0.04130474;0.042104907;-0.009934554;0.0809162;0.034159724;-0.20657335;-0.097815946;0.34049425;0.22012812;0.8070842;0.0038029058;-0.010098298;0.08650237;-0.022783166;-0.0720665;0.28469256;-0.5231785;0.12409916;-0.5442865;0.6500034;-0.011828185;-0.6557981;1.0641998;-1.5283163;0.051126044;-1.2002902;-0.020459061;0.24447061;-0.035880003;0.08268474;-0.017005747;0.09326891;0.28224254;0.58528835;0.4535418;0.003184852;0.1239708;0.044649906;0.037375804;-0.016739594;0.019417284;-0.008126021;0.0014925908;-0.011847162;-0.13603166;-1.1738358;-0.0019227106;-0.0034861774;-0.03911282;2.9749086;0.0030682695;0.028499689;-0.13725604
-0.10513233;0.022514576;-0.07606575;0.98231703;0.25863302;0.11092306;-0.026659738;0.55309653;-0.90163916;0.56602705;0.05343226;-1.8676957;0.12839904;0.47334373;0.06333216;0.4512658;0.5381853;-0.050044373;-0.00046093966;-0.6684204;0.18856794;0.040954046;-0.0061576148;-0.13799767;-0.12174903;-0.09159055;0.05757834;0.09558511;0.7116566;0.20220178;0.060081504;0.5555509;-0.5933188;0.023131236;0.19137019;-0.30572146;0.091132246;0.170549;-0.0042953608;-0.09124859;0.43371338;-0.3511002;0.64874625;0.089895524;-0.0536153;-0.27313238;-1.7336055;-0.036077254;-1.6959989;-0.67398554;0.5139504;0.028275937;0.2240589;-0.08656597;-0.007837957;0.42534247;0.2767092;-0.12706658;1.054797;0.09102001;-0.079150446;0.28776655;0.006149654;0.19229119;-0.21985573;-0.032963563;-0.6348938;-0.3778022;-0.062551506;0.061823625;0.13216655;0.08690212;-0.22629704;0.20392992;0.37624237;-0.22589797;0.058238514;-0.65794975;-0.64192593;0.43929756;-0.2539895;-0.059309207;1.3939054;-0.04914508;0.39500806;-0.024985727;-0.23523128;0.3560079;0.0776115;0.2404222;-0.29839143;0.6762887;-0.7419712;-0.04084445;0.15513115;0.048655104;-0.29340225;-0.11914155;0.18554632;0.19254114;0.8215112;-0.067078896;0.013161247;0.28973857;0.17380548;-0.40109432;0.05901534;0.4699101;0.062866494;-0.29471478;0.06410236;0.08388895;-0.00350291;-0.037326768;0.090690464;0.034240104;-0.24303561;-0.9836791;0.88312703;-0.18407415;-0.07852463;-0.004288814;0.6284105;-0.70658994;0.093186386;-0.110106595;-0.004967005;-1.0305063;0.068220265;-0.020431776;-0.0642871;0.25778732;-0.17788106;0.19132696;1.4960234;-0.09339481;-0.39449814;0.3684949;-0.0005084572;0.007696538;0.22815455;0.320388;-0.12342667;-0.2020649;-0.19901659;0.038256187;-0.2466719;0.050197504;-0.0396881;-0.35046604;-0.7693457;0.12754552;-0.06500629;0.67110384;0.019737741;-0.13183118;-1.4464675;-0.50235754;0.48106903;-0.02002458;-0.06768737;0.51728445;-0.46985263;0.4134514;-0.8635198;-0.1345076;0.29001784;-0.83999115;-0.09976849;-0.48373657;0.4736232;-0.13516606;0.79245347;-0.18489358;-0.28985947;0.09366589;0.059758622;0.3784071;-0.65188336;-0.19794732;1.4088962;-0.4862514;-0.11783759;-0.61519736;0.8850113;-0.03253376;0.28466332;-0.6622337;-0.105373465;0.13377088;-0.27131268;0.7307781;-1.6388682;-0.017879894;-2.253318;0.2047774;-0.040964093;0.031007165;-0.007402955;-0.38387787;0.2360398;0.038356833;0.016722998;0.08029589;0.19434622;-0.31840065;-0.5694195;0.96266454;-0.1728877;0.63481236;-0.3100772;0.34313998;0.690876;-1.3524041;0.06901576;-0.13934934;0.38932425;-0.22028093;0.20520638;-0.02680177;-0.1222898;-0.97731745;-0.31425428;0.11973244;-0.12540403;-0.14694649;-0.18358462;-0.0024056882;-0.3055976;-0.14417697;-0.1413347;-0.12519962;0.53170747;1.1392276;0.18519585;0.20896314;-0.048348285;-0.83409315;-0.07525329;-0.75725406;-0.01521558;0.0734117;-0.27007517;-0.041104738;-0.2534976;0.2329949;0.16490762;-0.0483509;-0.121368565;0.3410028;0.16320617;0.68389076;0.029663116;0.038708016;-0.09634633;-0.4389247;0.56419843;-0.059559803;-0.06297604;-0.39612624;-0.15411098;0.21782127;-0.40173906;-0.15078296;0.40246108;0.18839517;0.29160944;1.353691;0.047600012;-0.21171032;-0.7099023;-0.010988337;0.20062439;-0.84819317;0.47446105;0.7247947;-0.97742903;0.022839637;0.16073023;0.11984042;1.1870778;-0.03268795;0.41204283;0.09240877;0.11509827;0.38432515;0.03108366;0.13864236;-0.12727201;-0.073448695;0.32225972;-0.6937781;0.45644683;-0.0192845;0.92355454;-0.06567642;0.22702302;0.09408998;0.0013216217;-0.2952971;-0.044684183;0.53610486;-0.027792683;-0.010019119;0.304172;0.0018147863;0.33613384;0.2142691;-0.022997405;0.09179421;0.106932424;-0.007514337;0.48365682;-0.068093136;0.42479703;0.026826631;-0.030405097;-0.1395833;0.067130186;0.10547553;0.07469732;0.6803323;-0.40461627;0.054303274;-0.19354582;-0.39004353;0.22023863;0.15855056;0.087768465;0.13679188;0.11048382;0.08854685;-0.099053;0.17117776;-0.5203089;0.024582744;0.46544358;-0.097447865;-0.38012487;0.14535151;0.0400446;-0.049094904;-0.7178116;0.05551579;0.081437424;-0.24744835;-0.82666844;0.4065478;-0.43670678;-0.30506343;-0.37623197;0.1347236;-0.0461099;-0.11974478;-0.29769865;-0.019481791;-0.16603427;0.059202954;0.46832868;0.07278053;0.2695224;0.02370007;-0.67476606;0.14372797;-0.309586;-0.071842335;-0.10652372;-0.11880709;0.14985974;-0.19066748;-0.024004731;-0.054468244;-1.0698732;-0.8527776;-0.044153087;0.011291779;-0.2916008;0.74816215;0.22838809;0.1127763;-0.4393917;-0.23019402;-0.50927347;0.09078749;0.035142288;0.05431585;0.17529897;-0.4380714;0.066159144;-0.16588502;0.05181567;-0.9516887;-0.031356722;0.10454559;0.015296788;-0.82408506;0.2060109;-0.4429155;0.19913125;-0.17158794;-0.07809713;0.026178017;0.49032936;0.3623611;1.6874363;0.75234824;0.10709288;0.024198482;-0.4935493;-0.052067675;-0.3184461;-0.17686673;-0.43380368;-0.00572801;-0.096148826;-0.09262702;0.023814043;0.3711495;0.196428;0.022582809;1.4056329;0.5110344;0.5450658;0.076673575;0.56884015;-0.14290914;-0.1096233;0.0452398;-0.15305771;0.06708744;-0.192967;-0.028961146;-0.11302127;0.026145073;-0.083658926;0.14991133;0.25639966;-0.14893131;0.0529393;0.16978283;-0.5093041;0.074767426;-0.31804904;0.08811825;-0.20355298;-0.016281411;-0.3934959;0.11440028;-0.040040705;-0.056024197;0.0045787753;0.15705794;0.31250694;0.12231616;0.30654517;-0.25630006;0.21777163;-0.050444316;-0.3122311;-0.11308466;0.10887332;0.17084767;-0.103541605;-0.56106657;0.0100229625;0.5046447;-0.45477372;-0.07729901;0.5466;-0.6690039;0.48205376;-0.4160494;-0.011241032;-0.36389935;0.23475671;0.5419046;-0.25208783;-0.8893444;0.4222069;-0.43503755;-1.211114;-0.02050188;0.63611335;-1.3432896;0.14488472;0.48164153;0.63565505;-0.039021995;0.0017589204;-0.0642122;-0.3066358;0.12446845;0.01699094;-0.31594104;-0.39342284;0.21827693;-0.22181085;-0.65892106;-0.0048171207;-0.05006946;-1.1477385;-0.070846766;0.30531797;-0.3484855;0.08829874;0.13373974;-0.056863047;0.28373128;-0.026024131;0.23718889;-0.04760539;0.0377983;0.19969738;0.13612409;-0.5262982;-0.26444325;-0.13051507;-1.1220735;-0.3105727;0.5757707;0.2571751;-0.04374538;0.16919985;-1.5027257;-0.03823303;-0.46200916;-0.099898614;0.053257734;-0.7193627;-0.20201612;-0.09461528;-0.10123203;0.1654966;-0.6405488;-0.43690655;-0.025491482;0.05180721;-0.5053682;0.31401634;0.22339037;0.10048976;-0.80343205;-0.032512937;-0.17173095;-0.16044125;0.5959814;-0.25572088;-0.8994754;0.7458865;-0.24049614;0.002389441;-0.13234276;0.04098102;-0.15868556;-0.13664436;-0.41951331;0.028796257;0.4339699;-0.006361116;-0.092682496;0.07548745;0.010602872;0.3428668;-0.49038875;-0.23197657;0.16069138;0.17062995;0.2850489;0.36394086;0.07813856;0.17869842;-0.040731754;0.67152226;0.092572734;0.06519162;-0.06555166
0.50722015;-0.027412232;-0.06865663;-0.48236507;-0.23030242;-0.097005755;0.04025933;-0.41508836;0.9364355;-0.3492762;-0.0970441;1.1938775;-0.23605835;-0.48927274;-0.0003026554;-0.5972482;-0.5980155;0.09508337;-0.047030583;0.4951275;-0.12120627;-0.039454028;-0.09714613;-0.96182656;0.15230072;-0.024900107;0.060372278;-0.099571854;-0.3903712;-0.15506054;-0.093672216;-0.38238296;0.45441908;-0.114041835;-0.9010159;0.38101736;-0.066824384;-0.12224095;0.034742065;0.08401854;-0.42384726;0.0077446685;-0.6818862;-0.08337422;0.57943374;0.38133442;1.058345;0.0032448166;1.3784192;-0.117301844;0.52640575;-0.018613847;0.40427956;-0.083979085;-0.31109318;-0.69814914;-0.24309;0.053269617;-0.022662615;0.0065211453;0.20215528;-0.4722306;-0.007137438;-0.16221087;0.14879212;0.09830243;-0.086906716;0.23375787;0.15343206;-0.01879803;-0.22410212;-0.05690384;0.13188869;-0.20445773;1.6176676;0.16343115;0.16067573;0.24431327;-0.22082935;0.4590518;0.27141127;-0.0010157294;-1.6161333;0.06700617;1.0500245;-0.0006968428;0.1083053;-0.8642923;-0.005949913;-0.14038557;0.19136755;-0.38705876;-1.3329804;-0.053650264;-0.16378286;0.0075992458;0.69105196;0.061100464;-0.32874864;-0.2126468;-0.4706377;0.11057503;-0.33424437;-0.22435641;-0.19461142;0.3817065;-0.06298216;-1.2385734;-0.08050963;-0.3284994;-0.050609507;-0.1523763;-0.03531828;-0.050099697;-0.19491525;0.093983896;0.19328101;0.40344164;-0.7402184;0.09463035;0.16849537;-0.11375478;-0.3554034;0.517162;-0.14769164;0.15923974;-0.13939072;0.2967568;-0.16037995;0.010472742;-0.013975554;-0.76407665;0.21540174;-0.10960742;-0.28122148;0.16902402;0.20616037;-0.31546766;-0.039960846;-0.14163649;-0.15675716;-0.19100714;0.019899119;0.24961224;0.10549993;-0.013999861;0.028187796;0.067782246;0.02053006;0.32642314;0.13845779;0.76297694;0.02143696;-0.4564904;-0.04471436;0.0557008;-0.19551316;-0.02780667;-0.3257445;0.52813154;0.04949506;-0.58773535;-0.5417274;-0.74053043;-0.66501004;0.15393211;-0.714411;0.6910046;0.7538622;-0.07648321;-0.18619123;0.06787879;-0.9488907;0.20748599;0.06312282;0.014078878;-0.26525098;-0.07597088;0.19404256;0.11389399;-1.1157118;0.18419106;0.16522543;0.17473178;-0.50174487;0.003497518;-0.1741343;0.46601367;0.2196199;-0.1662752;0.14979917;-0.06101068;0.014431259;0.052046962;-0.53679174;-0.6758222;0.07829071;0.009925182;0.02464566;-0.13041973;-0.21318343;-0.017952261;-0.12655573;-0.13362975;0.70061874;0.26658124;-0.15533032;-0.43400794;0.10033657;0.017992498;0.31614235;-0.29729465;-0.50494635;-0.38333684;-0.14065729;-0.18374327;-0.88318115;-1.0741003;-0.6450947;0.065624975;0.17551316;-0.16791074;0.27641714;-0.07496213;0.12436688;0.12176309;0.20168439;-0.085323505;0.2631911;0.2741943;0.15427883;0.16403788;-0.35221672;0.13448583;-0.15311812;-0.22057521;0.005712339;-0.30322337;0.02581761;0.049124207;0.19929357;-0.0820195;0.17991316;-0.03468859;0.42388412;-0.753948;-0.2653804;-0.15269205;0.1361095;-0.4561302;-0.67290163;-0.4280712;-0.054003183;0.06266224;0.07506155;0.41927746;-0.26078165;-0.011887681;0.13340624;0.66593605;0.20108311;-0.12953466;0.27007428;0.3269713;-0.48784104;-0.19203782;-0.35158375;-0.4308691;0.6278393;-0.17740591;0.4851729;-0.110509664;-0.09980891;0.648503;-0.67349243;-0.38104904;0.5953077;0.06578669;-0.18379316;-0.5667093;-0.1905707;-0.03426865;-0.6336763;-0.030726857;-0.113454506;-0.41609386;-0.7145785;-0.14421205;0.14107803;-0.092861496;-0.44295675;0.5021225;-0.44942132;0.007738411;-0.61051816;0.037400573;-0.057176117;-0.12688789;0.093230575;0.17471015;0.023664193;-0.33685803;-0.05593259;-0.17015144;-0.6540931;0.03624752;-0.1541502;-0.15188847;0.010390264;-0.19592197;0.035428986;-0.035047553;-0.29117545;0.97301227;0.021520922;-0.007977049;-0.09657968;0.030657725;-0.09898463;-0.040045884;-0.1351728;0.04935134;0.2959953;-0.0953184;0.1063521;0.4191796;-0.2516702;-0.19795609;-0.013143483;-0.13897477;-0.14302307;-0.0959718;-0.32094467;-0.05908531;0.4302907;0.059660025;0.36941305;0.094401285;-0.8575233;0.027607908;-0.057753082;0.10589049;0.37869117;0.1749323;-0.1992344;0.16544884;-0.328653;-0.4904276;0.36797726;0.2042801;0.2552262;-0.06738323;-0.033674683;0.16495675;0.23651351;0.027806958;0.123108186;-0.02823449;-0.49117252;-0.0239781;-0.7929267;0.03148019;0.48944104;-0.11116347;0.6625655;0.059233;0.026374828;-0.15884148;-0.5936306;0.055628076;-0.38611695;-0.08765735;0.27297574;0.18324809;0.07289591;-0.1577384;0.22438225;0.13444257;-0.28073496;0.30423442;0.3417897;0.22704552;0.2599711;-0.18549402;-0.10039097;-0.035346083;-0.9985295;0.2879255;-0.102646135;0.2580596;-0.1262577;0.62999517;0.03775063;-0.05527706;0.40758982;0.6955855;-0.22879009;0.36414292;-0.61062825;0.21053958;0.17551596;-0.15606532;-0.6593318;-0.39430553;-0.48584285;0.1555222;-0.06639244;-0.4688325;-0.17350301;0.07837095;0.39837384;0.1974987;0.4387691;0.032248378;0.23456173;0.0032351909;-0.0533614;-0.71487004;-0.22771364;-0.079285875;-0.23941489;-0.41455674;-0.8198429;-0.0917785;-0.6901113;0.78288573;0.11391514;0.007462346;0.004138852;-0.13849163;0.13945086;-0.019049648;0.2265862;-0.18596098;0.0066483854;-0.07801751;-0.22042342;0.19575223;-0.1938212;-0.31824547;0.28384432;0.07961572;0.27580976;-0.10203085;0.30669835;-0.0040025157;1.4407818;-0.5643862;0.17597133;0.020576019;-0.013465272;0.20177887;-0.2200723;-0.14480986;-0.53677845;-0.21025802;-0.10495537;-0.37071866;0.34671634;0.031089833;-0.1555226;-0.5947705;0.18472366;0.040593967;-0.058716796;0.23196019;-0.39438626;-0.3015646;0.6552477;0.28127992;-0.53271264;0.30730298;0.04301926;0.032950256;-0.27853495;-0.3921101;0.20441847;0.8797409;-0.12202097;0.4469803;-0.31299508;-0.06334727;0.21002716;1.4675963;-0.100769125;-0.33411536;0.9571947;0.1384818;0.0062339455;0.06427767;0.047882535;-0.06208623;-0.0885848;0.15680395;0.15230413;-0.06397163;0.1235012;-0.07712053;0.014611006;0.037706926;0.45600364;0.11944657;0.18120502;0.37741128;-0.1319371;0.27317682;0.061187502;-0.21855323;-0.105346195;-0.14226516;-0.46730536;-0.15581197;-0.18527947;-0.11210018;0.16794655;0.20825471;0.24882536;-0.23377387;0.25382906;0.16015543;-0.097285844;-0.040624347;-0.33939594;0.35540175;0.026563272;0.3693292;0.14454728;-0.20406605;1.1233704;0.28577173;0.23903103;0.3734399;0.06384084;0.5331873;0.30154476;0.03714338;-0.11035182;0.3924214;-1.1450049;-1.1416539;0.46537453;0.14295688;0.45608646;0.10478168;0.32046598;-0.77355343;-0.26084366;0.59398574;-0.047414385;0.2142582;0.47346076;0.093833916;0.013418429;0.15864265;0.030429328;0.2680954;0.5136504;0.9796747;-0.05356907;0.04818568;-0.028635483;-0.06430022;-0.90278184;0.17713821;0.25843948;-0.12391385;-0.25258744;-0.29583848;0.54888284;-0.03501312;-0.1919214;-0.07421591;0.19584395;-0.13537976;-0.06661054;-0.60394436
0.053594258;0.038997043;0.09178333;0.8143316;-0.2409613;0.080424115;-0.060235053;0.5963347;-0.46905166;0.40465528;0.13986939;-0.016254174;0.17961629;-0.29431266;0.01579558;0.07576087;-0.87233704;-0.06445028;0.113913074;-0.08947114;0.109666206;0.06378738;0.07846977;0.051490363;-0.14239115;-0.06513206;-0.14507668;0.006389033;0.20449297;0.14472921;0.06764447;-0.09126142;-0.13046415;0.06591782;-1.39464;0.10696271;0.02864031;0.24099302;-0.097409174;-0.17018723;0.1363458;-0.2585177;-0.0008173849;0.21969643;0.32136473;-0.054330226;0.27226236;-0.13303673;-0.5887843;0.16724817;0.6049082;-0.04770577;0.26470485;0.08422243;-0.17638324;-1.4918115;0.21297604;-0.17254458;0.7459266;0.036358077;-0.061298296;0.12588808;0.17229444;0.15170854;-0.08067102;0.097648524;-0.21293958;-0.5686151;-0.15280129;-0.0040353327;0.15253192;0.09623028;-0.08108849;0.18195312;0.270186;-0.10827961;-0.0960355;-0.61706114;-0.08129151;-0.23828822;-0.16169307;-0.094336495;0.33620653;0.028733298;0.8001287;-0.051179286;-0.17844379;-0.063113;0.07175134;0.034907382;-0.09100602;0.18162735;0.50516397;-0.054266416;0.089135244;0.042617682;-0.014116067;0.06746125;0.25694;0.1047746;0.40680557;-0.14408873;0.69985896;0.23027413;-0.003434851;-0.03871461;0.06360315;-1.4603734;0.16289724;0.005788074;-0.06885799;0.045077994;-0.14530458;0.04487954;0.23657386;-0.008706321;-0.15931922;-0.19874406;0.56026524;-0.20176391;-0.06438983;0.085472696;0.25077584;-0.036944885;0.20098013;-0.08586317;0.13402124;-0.16361369;0.14007276;0.01938788;-0.077712655;-0.84444416;0.076436825;0.19607317;-0.4232359;-0.1925574;-0.059468098;-0.60088575;0.15896095;0.21827672;0.061604187;0.098534696;-0.09312814;-0.19975947;-0.07136806;-0.079620294;0.0389604;0.02285767;-0.35230625;-0.1828556;0.022479428;-0.14761582;0.037482142;-0.0940515;0.098402224;-0.23060974;-0.35267183;-0.43651342;0.035627026;0.13946788;0.057306085;0.07358837;-0.093482785;-0.067132875;-0.5148513;-0.18706451;0.4049584;-0.013858692;0.6646656;-0.3452694;-0.7076762;-0.1928121;0.2547638;-0.043219425;0.23054628;0.0043813474;-0.06814588;0.17150153;-0.25743774;-0.006554478;0.2750058;-0.13312733;-0.15429217;0.463695;-0.16152768;-0.06743318;0.19129418;-0.03944922;-0.02146184;0.050651688;-0.0949473;0.31787628;0.36402038;0.0054491214;-0.27833614;-0.9245621;0.005733566;-0.09705398;-0.1158259;-0.21962588;0.13733603;0.00921813;0.07778257;0.19954969;-0.19869392;-0.190097;-0.6889482;-0.8511849;-0.18704882;0.3496349;-0.18487512;0.13085938;0.19998989;-0.04480049;0.086821266;0.09064559;-0.21849844;-1.4867623;0.02672656;-0.05884062;-0.07544499;-0.22929531;-0.15627265;0.20671299;-0.09850773;-0.210319;-0.12635931;0.114473686;-0.114359096;0.02608788;-0.12506089;-0.18194243;0.17922495;0.27109158;0.078637734;0.056777876;0.016027562;-0.29250634;0.025593521;-0.1638126;0.6911363;0.030413458;-0.23529781;-0.12453655;0.27789962;0.22979507;0.085046545;0.12922162;-0.04212009;-0.059150632;0.73248804;0.05995574;-0.04447601;-0.08993651;-0.07064547;0.38209674;0.2662585;-0.09015372;-0.12175972;0.6987555;-0.07498601;0.055558443;-0.113747165;-0.13056388;-0.4838938;0.14548098;-0.5421978;0.34985933;-0.07188889;-0.24425507;-0.13986294;0.16772504;0.17127864;-0.10679944;0.09059544;-1.1731852;-0.013561498;-0.09681565;0.20157357;-0.109934956;0.395331;0.0381121;0.07043556;0.05293399;0.09229563;-0.04013966;0.5701362;0.19914325;-0.16612358;0.078078926;0.023376761;-0.44196853;0.12559378;0.13522783;0.14906186;0.02350343;0.26727262;0.22696783;-0.14162655;-0.04585603;-0.050733104;0.12953256;0.15489599;0.17239459;-0.21334837;-0.17700921;0.09338766;0.10526004;-0.12689526;0.16086455;-0.0006510577;-0.0823866;0.11890339;0.04983468;-0.42321905;-0.046002865;0.05747976;-0.23121062;0.18330996;0.10027578;0.14908326;0.20815934;-0.08336435;0.21862292;-0.1492046;-0.15389507;0.5466996;0.17259447;0.053383972;0.13601331;0.09277155;-0.04157904;0.35117042;0.21009511;-0.15108296;-0.035895858;-0.73446894;-0.21092273;-0.35262215;-0.105135836;0.15025508;-0.2080886;-0.6500914;-0.111097895;0.18276706;-0.18418123;-0.6904742;0.08486911;-0.06862661;-0.14845519;-0.18260087;0.19456734;0.047017787;-0.21751422;-0.08586638;-0.13256098;-0.16862965;0.06616487;-0.012889687;0.12240761;-0.18939336;-0.09471857;-0.028954733;0.16136736;-0.2923608;-0.2076824;-0.19577947;-0.10807369;-0.4748872;-0.24987876;-0.031569235;-0.011023225;0.44872293;0.6418749;-0.12529947;0.21275435;-0.15115486;-0.51838934;0.19293797;0.19438206;-0.089649804;-0.13003355;-0.03867048;0.12617163;0.15574275;-0.052460708;-0.6496225;-0.105070814;0.0648718;0.029085578;0.051125728;-0.06130401;-0.07548837;0.19147228;0.26560175;-0.10389898;0.13491611;-0.00047076365;0.012124914;-0.06067112;-0.14142703;0.14442866;-0.031843055;-0.0026230353;0.44232804;0.44279256;0.2265969;-1.017162;-0.11310599;-0.09852595;0.08123074;-0.27933687;-0.025012987;-0.04125177;-0.09527377;-0.023100892;-0.039019674;-0.84667176;0.05454875;0.03372212;-0.5496092;-0.73244137;-0.15860026;0.09077576;0.048170798;0.31163454;-0.1498411;0.03283045;-0.6947982;0.17674083;-0.17032991;0.07313003;-0.11939514;0.15257418;-0.034598634;0.22435221;-0.009898925;-0.18370052;0.14771266;-0.025984222;-0.05898088;-0.062231116;-0.11960712;-0.0071485653;0.115518585;0.06888459;0.19928627;0.06799001;-0.11870204;-0.06978027;0.08122696;-0.051416654;0.011122067;0.07128789;1.0966606;0.035829343;-0.2940011;0.06998122;-0.08028791;-0.090705015;0.10852479;0.09567573;-0.1517671;-0.15137793;0.1084306;-0.040425062;-0.43703702;-0.08259712;-0.91829544;-0.02543749;-0.034394484;-0.08939367;0.044957448;0.15999675;0.14114338;0.3954683;-0.13690181;-0.23113711;0.20236048;-0.24034941;0.24636497;0.1093139;0.25789273;0.4688168;0.121070385;0.21489227;0.4392139;-0.04925608;0.05284314;-0.041596863;-0.012602138;0.4215051;-0.053844705;-0.20964889;-0.3807691;0.15590629;-0.07237929;-0.30012262;-0.03413735;-0.12263584;0.96027493;-0.23458369;-1.1251699;0.027969552;0.22433585;0.5591915;-0.1901388;0.009046775;0.041058242;0.054970637;0.098036624;0.22115819;-0.037485495;-0.04920636;-0.02348573;-0.09062318;0.09662982;-0.46933806;-0.10403901;-0.99378234;0.2041606;0.041448485;-0.19498126;0.365244;0.089626476;-0.13749944;-0.18700369;0.18680087;0.5662788;0.014339439;-0.1152219;0.037410066;0.2120911;-0.11990382;-0.051583514;-0.16643083;0.13665284;-0.14052412;-0.42321056;-0.31746027;0.1912779;0.00068432174;-0.16754207;-0.099903785;-0.27148142;-0.98643243;-0.25176013;-0.07647583;-0.17513388;-0.07678778;0.33758444;-0.19793786;-0.043114394;-0.1851425;-0.13331006;-0.5242247;0.5409121;0.074539624;-0.002977545;-1.5112925;0.0011663461;0.028162833;-0.60676384;-0.2919969;-0.07137861;0.12344529;0.09767739;0.154229;0.49886546;0.07973502;0.21072902;0.12925878;0.646426;0.062382616;0.033803377;0.067396104
0.13405928;-0.08268465;-0.055071283;2.483156;-0.02736622;-0.11935545;-0.029059198;0.46750742;-1.5566409;0.564998;-0.16828589;-0.41803735;-0.21717077;-0.3952729;0.06008851;-0.46937448;-0.16949977;-0.033752043;-0.10554646;0.29274347;-0.05713617;0.035401933;0.026810471;-0.20025575;0.008327828;0.06618055;-0.056584314;-0.0028198052;-0.35712123;-0.16049673;-0.07239639;-0.33400294;0.123206966;-0.10594015;-2.1388433;0.1375346;-0.07577869;-0.017012449;0.058175787;-0.004640843;-0.4167061;1.4415829;0.054939553;-0.15014775;0.115407094;0.13057761;-0.33871195;-0.038425107;-0.3174006;1.0616124;1.6434295;0.0015455339;1.2947779;-0.068803325;0.012805789;0.23797345;-0.17280681;0.19508627;-0.92049855;0.004938664;0.08562161;-0.09713251;-0.075409085;-0.08496365;0.11192042;0.05255613;0.9887743;-2.122636;0.14015661;-0.013651179;-0.12754558;-0.013440248;0.19318962;-0.08984838;1.204847;0.53397703;0.14504398;0.7026581;1.2104547;-0.49337438;0.18042602;-0.04521094;1.0097426;-0.010848041;-0.42747822;-0.06104689;0.07710183;-0.56886303;-0.017090606;-0.118864216;0.19064744;-0.18956672;1.9605602;-0.07378936;-0.015099695;0.03883458;0.607123;0.1531982;0.9248402;-0.15208283;-1.5230962;0.059986025;1.5249351;-0.15422812;-0.070593275;0.30362493;-0.11557034;-0.42347884;-0.014587802;-0.15775247;0.006617514;-0.009196912;0.0697326;-0.030277802;-0.19533998;-0.0057377047;0.23853119;-0.2796028;0.6825417;0.093134746;0.12168777;0.014700834;0.8269434;0.27868068;-0.15578714;0.32224542;-0.13349429;-0.7533981;-0.13917203;-0.058620676;0.056658216;-0.4343385;0.12691689;-0.1202896;0.05125669;0.033705276;0.20917647;-0.36342058;-0.09742267;-0.08377716;-0.1135939;-0.16435932;0.0027290161;0.13705914;0.02675952;0.08650406;-0.46697998;-0.053158604;-0.54292375;0.24287748;-0.5209164;-0.580098;0.0065079336;-0.28506538;0.009793766;0.07288348;-0.61953574;-0.085597254;-0.41898322;-1.0630275;-0.05018302;-0.18505996;0.12018004;-0.34692094;-1.1674478;0.07489439;0.43506274;0.13363089;-0.65014833;0.22316068;-0.0539153;0.08288901;-1.0438585;0.3429416;0.6977532;-0.08668708;-0.2591855;0.17485882;-0.7183512;-0.079419345;0.022815512;0.092946246;0.026294349;0.17684712;-0.30205312;0.11380884;-0.11283591;0.2574292;0.37880802;-0.14863896;0.5232773;-0.11766056;1.7281301;0.04468551;-0.34412134;-2.4995224;-0.026000857;0.02899927;0.06312963;-0.9703336;-0.21945533;0.09203628;-0.07879616;-0.02086332;-0.26869166;0.24457234;-0.87907326;-0.74100995;-0.005423875;-0.0412194;0.18358615;-0.27532563;-0.39667827;1.1834577;0.0001584062;0.06306399;-0.60629743;-0.95458627;-0.04630952;0.06021887;0.14774843;-0.28312412;0.5923314;-0.10028696;0.077470645;0.049505893;0.2023317;-0.095762715;0.37205848;-0.009972982;0.109753214;0.14541142;-0.16931735;-0.8541269;-0.22541302;-0.26080754;-0.010772412;-0.17535518;-0.0041154684;0.18701488;0.9310584;-0.10091741;0.07088719;0.039764736;0.90709364;0.44124573;-0.14262429;-0.028795548;0.02102862;-0.15816204;0.6281968;-0.7046686;-0.028138932;0.108690135;0.020347523;-0.71082544;-0.016747471;0.06381214;0.12894043;0.4817313;0.2673968;-0.11700166;0.23742612;0.05586428;0.25583664;-0.14680584;0.48645508;-0.36215448;1.6204555;0.120423235;0.12907293;-0.06357108;-0.10065095;0.17672986;-0.2886555;-0.5810298;0.67687845;0.007900001;-0.050606158;-0.3006064;0.4147025;0.033823952;-0.1782847;-0.02591288;0.02525272;-0.22484773;0.9553967;-0.012763555;0.013925726;0.1435893;-0.1224415;0.77532303;-0.113915145;-0.047105636;-0.18172514;0.045191575;-0.18173292;-0.12547714;0.04465895;0.18304709;0.08247422;-0.08000489;-0.10259668;-0.009007122;-0.2663846;0.011448573;-0.24618977;-0.041482296;0.027835924;2.3733084;-0.07693242;-0.013949642;-0.12910877;-0.59524596;-0.076468706;-0.050098646;0.0077250083;0.06889424;-0.11757039;-0.04189482;-0.010156247;-0.3832274;0.3078524;-0.2271032;0.11622729;0.2933835;0.57762116;-0.10250729;0.031848025;-0.12004423;-0.11688158;-0.09060059;1.1040434;-0.0030959786;0.19015332;-0.01563468;-0.6982122;0.11144075;-0.5097149;0.04863537;0.0019016644;0.06373886;0.87101185;0.09447925;-0.03420881;0.098745584;-1.3835387;-0.23598833;0.26043403;0.26171336;0.23118564;-0.13690235;-0.08760255;0.1313402;0.15607859;0.017050236;0.021241495;-0.04188215;0.12320416;-0.039165094;-0.71760327;0.07510086;0.10269194;-0.028131025;0.3401624;0.16523649;0.021367965;-0.24050152;-0.20982885;0.11149637;-0.13722363;-0.092555456;0.64426535;0.65431136;0.0983421;-0.06365211;0.14775245;-0.5581182;-0.13016601;0.28890538;0.21615383;0.18533793;0.22130327;-0.23282923;-0.09625762;-0.006866665;-0.93883866;0.29730034;-0.041521493;0.2473616;-0.012110842;0.096771605;-0.06765979;-0.096073225;-0.84506017;0.12845652;-0.13918896;0.8539493;-0.16326083;0.20116769;0.080414705;-0.12509513;-0.23304673;-0.0803025;0.97955114;1.5413918;-0.062240105;-0.46579227;-0.89250636;0.11732226;0.06481643;0.28437954;0.25811464;0.08745435;0.116588056;-0.018907322;0.082426205;0.32551196;-0.09594255;-0.043263894;-0.19643942;-0.75878817;0.61931235;-0.020013982;-0.1362901;0.24102396;-0.0033687425;0.04225333;0.20236188;-0.030934718;0.1636099;0.0026283783;0.12113521;-0.060209405;0.02403073;-0.10980425;-0.3779343;0.23629332;-0.109216005;-0.031454016;0.17620024;0.10499162;0.18853594;0.020547565;0.3530909;0.032488335;0.18479185;1.2826073;0.057926174;0.0686484;-0.019282889;0.30077145;-0.32380265;-0.14533931;1.1010936;-0.13424563;-0.6002233;-0.7269461;0.18504977;0.019338965;-0.049114704;0.15285209;0.11547659;0.6641977;-0.08957801;-0.29994735;1.3413981;-0.1581259;0.3425939;0.6648323;-0.13560888;0.21079235;-0.013241344;-0.14746459;-0.27322266;0.2846304;0.13822483;0.06819072;-0.13193893;-0.24400723;2.9737298;0.030478466;0.11584503;-0.031471007;-0.13829583;-0.18332304;-1.247817;0.0005743302;-0.0025195614;-0.036869336;0.26158917;0.08906324;-0.037828732;0.2524237;0.083553545;-0.12522149;0.1248405;0.15720248;0.096331865;-0.04290258;1.5149899;0.11463756;-0.41947395;-0.26789942;-0.15293942;0.20282562;0.07452603;-0.20394078;0.026274743;-0.12894432;0.18758395;-0.06783226;-0.011498627;-0.023361951;0.08839904;0.1529193;0.07609027;-0.29458988;0.24072485;-1.4357167;-0.15471356;-0.05157004;0.512497;0.5395015;-0.011800995;0.24307497;0.12119034;-0.06916302;-0.33417854;0.44396797;-0.12910493;0.22642681;-0.6262909;0.20384885;0.16988847;0.059208054;0.055298656;0.2746914;-0.6195872;1.1817982;-0.012599044;1.4611169;0.2647308;0.15143086;1.0107507;-0.63616866;-0.20701395;0.17609811;-1.3163495;0.12958364;0.16610503;0.025221897;-0.049067125;0.08190258;0.1277447;0.31904486;0.5249415;-0.18130916;-0.08963208;-0.018838065;-0.034406852;-0.07595353;0.7549918;0.10256441;0.14709373;-0.020545928;-0.061385952;-0.19252382;-0.2504204;-0.050985705;-0.18797037;-0.034043763;1.0705904;-0.049469788;-0.015789047;-0.4527932
-0.08420707;0.017290758;0.03910802;0.44836926;-0.09091442;0.016187292;-0.013921519;-0.32322708;-0.8456133;0.75136256;-0.073889986;-0.5857216;-0.0011007432;-0.06246622;-0.046917878;-0.2709441;0.027857933;-0.09514091;-0.037439983;0.062172104;-0.074384406;0.05536654;-0.106678315;0.27928385;0.029483914;0.054471783;0.021765072;-0.09056497;-0.23634963;-0.04465056;-0.06198222;0.246077;-0.04406395;-0.015353324;-0.67121893;0.02008057;0.011811185;0.04378773;0.054248255;0.037142023;-0.2703331;0.4096394;0.17370154;-0.08576229;-0.3430596;0.091007106;0.10460546;-0.040413108;-0.2668378;0.20946555;0.9755186;0.053410165;1.0893265;-0.050631274;-0.23162223;0.8367935;-0.052140605;0.08956762;-0.6890332;-0.050936364;-0.022648351;0.10583502;-0.10901526;-0.037511684;0.010386659;0.026824221;0.20658684;-2.327171;0.024188664;-0.03362913;-0.044801448;0.008615191;0.12618656;-0.13564686;-0.13740319;0.11159027;0.051746096;-0.026621342;-0.044496495;-0.4917919;-0.01609575;0.06985521;-0.25269693;0.0018476832;1.0908724;0.051246468;0.037635725;-0.21488853;-0.047458548;0.0299714;-0.032653816;-0.2077397;1.3850476;0.05509204;-0.11868513;0.030627005;0.5783913;-0.111164406;0.98264307;-0.10456915;-1.7403562;-0.017349286;0.56288546;-0.0077689164;-0.026681125;0.06116896;-0.058168706;-0.21130827;-0.07699602;-0.056885034;-0.08158225;0.015755767;-0.06910342;-0.062069453;0.021354567;0.0021932796;0.100285046;-0.36332995;0.4831683;0.11618764;0.0033295222;0.028322235;-0.5902838;-0.046311177;-0.11657828;0.13777186;-0.008775324;-0.954332;0.021552099;-0.0010276992;-0.07565884;-0.17455602;0.038674947;0.013574896;0.9636306;0.048419006;0.04214355;-0.31422672;-0.0192227;-0.017087292;-0.058119394;-0.07777739;0.0962636;0.121780425;0.10675813;0.037388314;-1.510077;-0.05928855;0.20063755;0.12004418;-0.81257063;-0.3857804;-0.06734197;-0.23348287;-0.09783715;0.07685308;-0.15947933;-0.5552262;0.14015867;-0.5425009;0.045544107;-0.240536;-0.17904915;-0.14596152;-1.3964769;-0.043622497;-0.412066;-0.039225515;-0.38540345;0.024556007;0.12846681;0.059800666;-1.2611216;0.12603594;-0.095653705;-0.05246811;-0.29145697;-0.07428815;-0.7342582;-0.087593384;-0.2046592;-0.37579122;0.016424354;-1.0031933;-0.39639136;0.035836797;-0.045295797;-0.035700247;0.04103574;-0.1542428;0.10147926;0.051018104;-0.46298957;0.037391316;-0.11478355;-0.43847016;0.031859715;0.005972445;0.06649867;-1.3127028;0.002421929;-0.05555744;-0.033324897;-0.08137081;-0.14970066;0.11538785;-0.96684754;0.56543416;0.082645334;-0.27825072;-0.018615548;0.0245718;-0.18625788;0.2999757;-0.0035066004;-0.3588631;-0.17327219;-0.017711794;-0.15348351;0.01961858;0.09704551;-0.62125516;0.25874805;-0.07684336;0.037208676;0.026669934;0.12886754;-0.060512874;0.2604632;0.07750441;0.12623332;0.04984169;0.13033684;-0.7572743;0.0035454186;0.01583021;-0.07408309;-0.35036993;0.07101815;0.6151545;0.30562803;0.0016502759;0.16029373;-0.048153378;0.040287517;-0.3253142;-0.10189157;-0.088025354;-0.083533905;-0.052374285;0.34723783;-0.10837242;-0.024879517;-0.068374425;0.06217192;-0.20793453;0.1547148;0.06019947;0.09656321;-0.34955108;0.057642862;-0.1245697;0.019281836;-0.51785666;0.4593121;0.026459182;0.11056541;-1.1487337;0.12415735;0.29261753;-0.071378715;-0.04747505;-0.109058656;-0.027167784;-0.2541925;0.1472462;-0.13284731;0.07100747;-0.09997075;-0.20173225;-1.6968386;0.06651033;-0.21971665;0.009092367;0.02634733;-0.08525189;-0.13536115;0.0339578;0.106997795;0.09375851;-0.118045196;0.7368064;-0.10789507;-0.0559615;0.029863343;-0.024891071;-0.011434872;-0.094932474;-0.041190043;0.020955537;0.020332394;0.2868574;-0.047935374;-0.08373549;-0.35135755;-0.058892097;-0.07419183;0.035655458;0.052888796;0.9869897;-0.02243611;0.054950926;-0.020997878;-0.7047372;-0.0069235587;-0.00492906;-0.093816966;-0.045675322;-0.10254625;-0.090021625;-0.044834286;-0.43502006;0.0511538;-0.51869905;-0.015752213;0.06875026;0.627049;-0.06286648;-0.0153976865;-0.08596166;-0.10061878;-0.098585874;-0.009269498;0.033384364;-0.01625976;-0.0058245594;-0.17479756;0.060189847;-0.6679173;0.07263855;0.021841936;0.018590884;-0.23708235;-0.04060132;-0.035071198;-0.015657526;-1.9431735;-0.17434064;-0.074586;0.047177948;-0.016961137;-0.07777531;-0.08880583;0.025285445;0.08091633;0.0045870817;0.07749759;-0.041970134;-0.06147071;-0.095448986;-0.39133817;0.041573852;0.1361782;-0.050955877;0.69456017;0.057335474;-0.05674088;-0.5318267;0.690504;0.091066085;-0.22322671;-0.035419628;-0.6571462;-0.384936;0.08001169;-0.06155531;0.10163033;-1.0700203;-0.084847376;0.02030414;0.024779938;-0.029984294;0.054701213;-0.155252;0.008455549;0.036755808;-1.1272286;-0.049319163;-0.104425706;0.049915615;-0.09281656;-0.05609437;0.014596243;-0.09847034;-0.2631006;-0.012056624;-0.040701993;0.3518033;-0.041066255;0.05781863;0.07669523;-0.055466138;-0.2700786;-0.0830711;0.7658548;1.561871;0.04353656;-0.41443163;-1.1737902;-0.04117899;-0.25629783;-0.097180836;0.0166065;-0.06756044;0.059805572;-0.09440386;0.03918058;-0.2813997;-0.021261245;-0.016154965;-0.19885689;-1.1805869;-0.58842474;0.01670331;-0.22261293;-0.088702634;-0.033982657;0.029468684;-0.7109723;0.036009967;0.0682334;-0.06112794;-0.020118799;0.029283224;0.09024279;-0.07255737;-0.08544809;-0.020591045;-0.090601444;-0.1269774;0.044809557;-0.070431046;0.032522794;-0.0019561697;-0.06955259;0.04766819;-0.4188116;0.2564204;0.10983904;-0.005989921;-0.11853641;0.1626528;-0.21329339;-0.0015431811;0.91659904;-0.20759544;-0.640597;-0.48523638;-0.046553344;0.011275775;-0.055789307;0.2846673;0.10721448;0.12007229;0.04500321;-0.16788007;0.40215304;-0.031576484;1.2314477;0.057975292;-0.168599;0.0078084003;0.016244275;0.16815038;-0.092566356;0.047011245;0.11241248;-0.3171784;0.04658294;0.41261363;0.97414017;-0.018100617;0.16477035;0.1287636;0.020423666;-0.07708737;-1.4689702;0.08968301;-0.06756615;0.03583018;0.106363066;-0.32442048;-0.05688107;-0.013859504;-0.11336914;-0.10174485;0.023939883;-0.48466113;0.06202658;0.049131293;0.7132069;-0.016455447;-0.80972755;-0.8624927;-0.08623717;0.93205976;-0.017245665;-0.07913617;0.06340366;-0.011963074;-0.019791825;-0.029309321;0.00813989;-0.07849153;0.06461282;0.07957703;-0.16249648;-0.008939078;0.0023591092;-2.0104914;-0.0028091893;-0.08979924;0.24255383;-0.25548282;0.049817212;-0.008120149;-0.01195123;-0.018151097;-0.6692861;-0.026929349;-0.170571;0.0723842;-0.72798795;0.0018867652;-0.024317736;0.040510114;0.05764875;0.03620013;0.054287262;0.43627387;0.12790656;-0.16001089;0.16758968;0.0719617;0.34749553;-0.028287029;-0.539691;-0.06718022;-0.84885985;0.11289859;-0.979949;0.023159768;-0.021175088;0.020507162;0.0449138;0.8910412;0.109121144;-0.16225114;0.06610052;-0.00032640973;-0.04830468;0.014388811;0.0771829;0.047207706;0.061585627;-0.021716015;-0.0013267776;-0.051921476;-0.2187207;-0.04630138;0.003981552;-0.07467409;0.22555959;-0.052848633;-0.011104199;-0.39834154
-0.05722591;0.034026664;-0.052332494;-0.7954163;-0.29653695;0.03370747;0.03823451;0.79125667;-0.19245882;0.25942767;0.09395221;-0.34789878;-0.016523348;0.2234143;-0.06619882;-0.37341553;-0.023320466;-0.16876225;0.022385713;0.1840159;0.005971302;0.03722791;-0.033462837;0.050147012;-0.036671717;0.04525258;0.07668096;-0.0469352;-0.106470585;0.010190855;-0.04525415;-0.18161634;0.18798992;0.08376464;-0.067572236;-0.029775465;-0.038686655;0.0980959;-0.0307378;-0.011088727;0.429139;-0.013429934;0.16962789;-0.029911203;-0.26888922;0.22362983;1.056606;-0.056393962;-0.352768;-1.2303424;-1.4965494;0.057375673;-1.1594526;-0.04510156;0.040859707;0.78561795;0.012778181;-0.19941781;1.1658193;-0.06323907;-0.039847787;0.03736369;-0.028489418;0.024650669;-0.1282021;-0.39602676;-0.12432417;-1.0928513;-0.11998219;0.0060521816;-0.057367314;0.051315658;-0.14639857;-0.01800729;-0.63308567;-0.20244022;-0.39046097;-0.19315621;-0.92326885;0.24921703;-0.14825928;-0.079660185;-0.3722586;-0.06858452;-0.20314924;-0.019126741;-0.06416178;-0.020766327;0.0072597135;0.037183158;-0.11594132;-0.7455433;0.09140316;-0.04477049;0.08386359;-0.055786073;-0.16722915;-0.015344484;-1.2100494;0.12162636;0.4117222;-0.045834336;-0.996815;-0.2445115;-0.10743164;-0.09727555;-0.039288323;-0.5414319;0.06794215;-0.061910696;-0.03977112;-0.010059617;-0.01315686;-0.04007661;-0.03689685;-0.028713247;-0.02101836;-0.023478111;0.03834027;-0.053270634;0.0028090444;-0.090236746;0.32011685;0.18405154;-0.06613626;-0.10356035;0.05140581;0.32622293;0.013824408;0.052837923;-0.024504073;-1.0130064;0.15520597;0.03432836;-0.6878982;-0.06633908;-0.024208117;-0.5380716;0.028326862;0.02383579;-0.032083124;0.01019258;-0.045504916;0.00035592046;0.042520057;0.002136739;-0.6156686;0.044262074;-0.097665384;-0.0120053515;0.3962231;0.10342669;-0.017188396;-0.24612977;-0.028772123;-0.00056304206;0.38463366;0.3164504;0.26243168;-0.7233922;-0.06911353;-0.32473895;0.042211097;-0.3945468;-1.8442975;-0.1051132;-0.32605597;0.08948778;0.30314854;0.11043524;-0.23231873;-0.12805995;-0.025446573;0.09845646;0.12465122;-0.019766927;-0.09572032;-0.044154227;0.16585031;0.21221665;-0.45043683;-0.19429971;-0.08471626;-0.7542147;-0.7521936;-0.06307741;0.03220681;0.13230339;-0.35900956;0.05598223;-0.034779448;-0.2261207;0.05326795;-0.0079514105;0.87630737;-0.490933;0.015042767;-0.074438386;-0.06530015;-1.566062;0.12229509;0.034409583;0.05317759;0.018761262;-0.2906216;-0.010288355;-0.5338089;-1.8907166;-0.103678115;-0.7032943;-0.11464356;0.011362037;-0.4051217;-0.59154373;-0.008001856;-0.92171305;-0.025134282;0.27432257;-0.3089244;-0.0827842;-0.09719222;-1.3308871;0.04275817;-0.024726039;-0.13389738;-0.11516273;0.019291902;0.049082614;-0.41627753;0.35871294;-0.023956334;-0.13497454;0.09842242;1.1243225;0.055597123;0.120734476;-0.024299888;0.40029135;-0.05663905;0.22105044;-0.09492287;-0.061781984;0.12064915;-0.09603758;-0.59111583;0.42595613;-0.009873449;-0.08294213;0.15768881;-0.22032405;0.33768523;0.25345603;-0.051521797;-0.034901492;-0.08607763;0.44326484;-0.060571846;-0.12065055;-0.07113873;-0.7452145;-0.069309786;0.15890743;0.06745735;-0.39243728;-0.040584303;0.08860819;-0.3194545;-0.8138061;-0.45192453;-0.1009052;0.1356776;0.08825569;-0.044336297;0.077916145;-0.33682325;-0.37562704;-0.3864175;0.024516601;-0.051934253;-0.14742427;-0.84927464;0.07421274;-0.402279;0.11355169;0.08806291;-0.22729348;0.48082373;-0.050036136;0.038608547;-0.01747019;-0.34936523;-0.96696943;-0.6944847;-0.05547441;0.05377928;0.06639634;0.08729678;-0.02381075;-0.098774396;-0.035762522;0.024584945;0.16864814;-0.052337512;0.10065846;-0.75611204;-0.020189011;0.18772778;0.00182388;-0.10488476;-0.063329525;0.08015752;0.014020595;0.18285757;-0.28140813;0.4716996;0.010067399;0.010617884;-0.0053052497;0.019605111;0.10597666;0.051032495;0.49011356;-0.036321998;-0.033150412;-0.013881573;0.053225875;0.79134893;0.13260616;0.035935484;0.12203601;0.021362511;-0.095524214;0.0908338;-0.1363207;0.023116764;0.015483582;-0.19792695;-0.009780881;-0.2190057;-0.06558456;-0.018193366;-0.020453261;-0.3785438;0.06094813;0.015317027;-0.20009273;-0.5653062;-0.3700723;0.01462113;0.012398323;-0.019726079;0.042920012;-0.007421392;-0.10539926;-0.040828127;0.0089164805;-0.030798936;0.05508692;0.158551;-0.027255515;0.0051875324;0.01592439;0.40984938;0.01058287;-0.11277137;0.021066785;-0.08876623;0.20583229;0.77855086;-0.073688135;-0.46273997;-0.024245013;-0.23527695;-0.12739642;0.028931228;-0.01605911;-0.08623115;-1.1443217;-0.00036615567;-0.18394168;0.008517364;0.009471765;0.021846363;0.12704371;0.07377449;0.057330977;-0.12331342;-0.059767045;0.08829705;-0.101571076;0.036294017;0.22719218;0.015204793;-0.066018045;0.09777207;0.20386608;0.0046069794;-0.4189699;-0.077068366;-0.06332348;-0.074261144;0.048606895;-0.22938955;-0.13632181;0.094518095;-0.8596073;-0.005000455;-0.010623484;0.028086737;0.04384267;0.030326393;-0.035292994;0.056026522;0.028752139;-0.029216046;0.040324137;0.04060487;0.0039472887;-0.072933786;-0.07622429;-1.6408927;0.06826058;-0.35663855;-0.011491526;-0.30289182;-0.0007995805;-0.13071522;-0.033135485;-1.0816796;-0.05887034;-0.1253791;-0.037283134;-0.093628764;0.05034983;0.03820868;0.0460551;-0.021016449;-0.10343995;0.09374387;-0.17350067;-0.04014791;-0.039317157;-0.024085442;-0.0984365;-0.43691075;-0.05390851;-0.34634995;-0.29310724;0.031523064;-0.004058183;-0.06552991;-0.49586362;0.10972119;0.041102983;-0.23757942;0.5575924;0.2512078;-0.297047;-0.020718498;-0.11323534;-0.025072318;-0.047985867;-0.09427479;0.45204222;0.07543181;-0.20923153;-0.37526193;-0.1517697;0.35740575;-0.14206155;-0.4439061;0.030980399;-0.055682268;0.7605899;0.13602623;0.25950444;-0.0066485507;0.37378195;0.10551999;-0.09871652;-1.2484435;0.021385122;-0.019115563;-0.037835486;0.013884691;0.018502684;-0.19205908;-0.02215431;0.038420215;-0.074292526;-0.035949737;0.1929783;0.0074885217;-0.028539;-0.08216664;-0.008889385;-0.031827703;-0.16253796;-0.06295608;0.010920955;0.5532584;-0.068195865;-0.23494047;0.11054134;0.057850443;-0.60710394;-0.06133583;0.111305095;-0.13392615;-0.040489692;-0.18672034;-0.039389443;-0.18548037;-0.07533167;0.29241568;-0.013590968;-0.059988618;0.19773929;-0.03598202;-0.817276;0.15304072;0.08253446;-0.35281062;-0.18469527;-0.032316953;-0.032335576;-0.012882217;-0.072221555;-0.49176878;-0.32855824;0.10836035;0.077229105;0.30731165;0.15295961;0.09719554;0.010996994;0.019550925;-0.015500653;0.13311899;-0.89450645;0.09049726;-0.39035648;0.19053124;-0.06844836;0.10157709;-0.22322047;-0.6280767;0.10350953;0.06043108;-0.070838384;0.037586648;0.04620253;-0.051772684;-0.08622264;-0.061048985;0.15405218;-0.30130097;-0.21861242;-0.010896911;-0.712051;-0.059114136;-0.05054817;-0.60954964;-0.12144;-0.12813322;-0.012262173;0.0038295328;-0.03003795;-0.16552378;-0.07497325;0.027085746;0.038971137;-0.459868;-0.005074512;0.02813462;-0.20383409
-0.031574916;-0.042824578;-0.031311046;-0.4249323;-0.31430167;0.08259606;-0.02231939;0.04073537;-0.38676628;0.42750895;0.058372825;0.7736323;0.00019102955;-0.19003575;0.040826153;-0.24173605;-0.56635517;-0.013670836;0.068223305;0.072044946;-0.1122421;-0.0027369435;0.042086285;-0.13356908;-0.015977586;-0.06546119;-0.050424468;-0.063277595;0.12532896;-0.04247135;0.05474572;-0.26768336;0.09575952;0.051415622;-0.57179433;0.086936675;-0.002531079;0.08348662;0.07054128;-0.087991334;0.23687777;-0.079584025;0.16743274;0.08370772;0.04021972;0.2555035;0.65100914;-0.0933528;-0.15613838;-0.48449332;-0.1444973;-0.058697067;-0.5289603;-0.0060564275;0.28749833;-0.022160295;-0.06683171;-0.17674898;0.08424655;-0.018785264;0.012519584;-0.034471657;-0.03166419;-0.083539985;-0.12575777;-0.18694349;-0.05571469;-0.6013573;-0.110812016;-0.0038098022;-0.06169153;0.026005253;-0.004987392;-0.01048556;0.51112974;-0.037908144;0.16055153;0.0008254653;0.3843662;-0.15114728;0.013503786;-0.02006381;0.1827883;-0.07033846;-0.45476454;0.027115094;0.012090615;0.2370282;-0.045405652;-0.12060685;-0.076802924;-0.24284133;-0.54482394;-0.027582137;0.047511607;0.03154638;-0.45885885;-0.018408608;-0.31915152;0.09573336;-0.12379601;-0.024285564;-0.33821607;-0.05090396;-0.09368894;-0.014642544;0.059168685;-0.57917666;-5.1656796e-05;-0.079950966;0.01312165;0.09151508;-0.0026388294;0.005242725;-0.047141843;0.01591329;-0.11886679;0.3822615;0.1042311;0.031800155;0.0388302;-0.08925418;-0.06460993;0.09140538;-0.027340395;-0.03030047;-0.107706085;0.30099964;0.04181292;-0.01273829;-0.09443047;-0.16546223;0.13909452;-0.04723474;-0.63788825;-0.047688536;0.09128257;0.6406325;0.012862472;-0.003334102;-0.10177383;0.08369079;-0.08238626;0.006966677;0.031795293;0.048072577;-0.3278643;0.030014848;0.4973113;0.06072503;0.16655913;-0.09748678;-0.032532774;0.031348918;0.01063932;-0.080287695;-0.09176179;0.4930363;0.0015367011;-0.1589781;0.0097164;-0.31229398;-0.055450425;-0.57646996;-0.122565985;-0.10058432;-0.47267458;0.111092255;0.22245143;-0.07923183;-0.1992579;-0.06560246;0.04902071;0.0030193822;-0.03870736;0.03856407;-0.12797402;-0.05058476;-0.06490371;0.14370838;-0.33768755;0.3369107;0.062696986;-0.15978162;-0.843573;0.07107564;0.05611122;0.12469065;-0.19891122;0.023953296;-0.02834926;-0.063843966;0.16804914;0.06663456;0.51129454;-0.4381829;-0.035301406;0.03262675;-0.06345377;-0.31697434;0.011330488;0.05577784;-0.014131125;-0.014892567;-0.15115923;0.041661274;-0.8024295;-1.2532686;-0.021483516;-0.044699524;0.04296982;-0.023875417;-0.35582104;0.20018208;-0.051594246;0.27361235;0.17543034;-0.029233843;-0.13623172;0.033224806;-0.009121045;-0.44194588;-0.12558736;-0.026010536;-0.101817675;-0.09187122;-0.1685156;-0.057300217;-0.17612915;0.22439064;-0.017077485;-0.017707724;-0.025530435;0.039034117;0.09965226;0.034072217;0.046333507;0.31899884;-0.04921549;0.71333146;0.009382551;0.04491595;-0.11911051;0.0036319587;-0.6103724;-0.097605065;-0.03559363;-0.03379414;0.15964761;-0.2871709;0.29270157;-0.39889956;0.07064464;0.0059527596;0.022416603;0.24576524;-0.09702782;0.06038839;-0.07291413;0.05132374;-0.02752769;0.016135799;0.046661973;0.11779098;-0.4746334;-0.07306631;-0.25536105;-0.21971099;-0.06482332;-0.14571373;0.12290088;-0.036423277;-0.12195438;-0.00022051494;-0.18421566;-0.2126361;-0.035962645;0.041526087;-0.06779475;-0.12735376;-0.48317418;0.074691355;-0.343653;0.012766188;0.0069831884;-0.2320391;-0.020345563;0.076000854;0.03087192;-0.1497879;-0.4236643;-0.9172965;-0.27921775;-0.046410646;-0.17752525;-0.0007085985;0.26971012;0.06751171;-0.058190215;-0.07501255;0.007107711;-0.1727217;-0.006928498;0.035869196;-0.6743522;0.038379863;0.07560413;-0.11775583;0.024974747;-0.85777986;-0.002670434;-0.01798261;0.053159498;0.31933147;0.62192225;0.061057746;0.08163045;-0.01911819;0.045169175;-0.017124722;0.0101919975;-0.49043217;0.011583636;-0.20578933;0.0484425;0.0030290806;0.5284483;0.043048047;-0.05924222;0.018537253;0.0020722642;0.019709824;-0.37993145;0.017106432;0.17380701;-0.009472147;-0.29875028;0.032817606;-0.13960955;-0.13069697;0.0062594223;-0.106395856;-0.3253385;0.17876934;0.029291997;-0.007007133;0.2029165;-0.4371896;0.13733634;-0.09143748;-0.01866992;0.0131502785;0.02988007;-0.07625606;-0.09809724;0.021061894;-0.14780402;0.04748584;-0.061170243;0.012752487;0.020140784;-0.0750028;0.26703677;0.00807049;-0.5402355;-0.0898228;0.057321154;0.3904459;-0.21911454;-0.014803533;-0.48717737;-0.048138604;-0.7921793;-0.54401857;-0.11719126;0.031087708;-0.021441758;-0.98145473;0.078715816;-0.18333052;0.1456138;-0.026887085;0.078925245;0.014383315;0.025265591;-0.07792366;-0.45858178;0.05901308;0.045010287;-0.021325473;0.08553043;0.028700452;-0.013352023;0.041891087;-0.1108828;0.1361859;-0.06729192;-0.07084691;-0.0885595;-0.0004588528;0.040509358;0.016496947;-0.23188725;-0.002090791;0.06496161;0.08037614;0.04684451;-0.8132936;0.38769057;0.024491332;0.18161456;0.24946164;0.13889873;0.08548554;-0.12204999;-0.061902784;0.050558824;0.009704337;-0.116841346;-0.10693072;-0.42359424;-0.636958;-0.29920775;0.06967276;-0.24165855;0.1579213;-0.10223856;0.06596308;0.12366853;-0.06616387;-0.06005649;-0.027759144;-0.058214176;0.0648498;0.0076919035;-0.072044335;-0.044766594;-0.02754719;-0.004135002;-0.10901595;-0.040519517;0.074527904;-0.038898326;-0.09971959;-0.41466564;-0.06987308;0.5756048;0.12552153;-0.0028402582;-0.0040116124;-0.04712091;-0.5050921;0.026543623;-0.061136767;-0.4006579;-0.7664627;-0.2535937;0.025459811;0.017994178;0.0030299495;0.0063383863;-0.13380992;-0.035493013;0.13699338;-0.042223327;-0.040133927;-1.0117075;-0.14783177;-0.7950621;-0.04103068;-0.4304089;0.07797756;-0.01287176;0.41404483;-0.051259138;-0.3136649;-0.0841509;0.5008953;-0.039232917;-0.20646703;-0.012248162;-0.04468714;-0.34256738;-0.14484854;-0.057691958;0.022779087;-0.52906364;-0.06698245;0.03697099;0.03256991;-0.07491324;0.10295277;0.066788085;0.0020823774;0.05548032;-0.021032842;-0.12812877;0.078583345;0.08997969;0.038190883;-0.2493667;-0.09010051;-1.0336083;0.6067657;0.027900686;0.18936318;-0.06814109;0.05783737;-0.1537583;-0.15753648;0.030483223;0.0629931;-0.16856664;-0.049400046;-0.0010601224;0.036797643;0.25220275;0.6326429;-0.06161946;0.18004487;0.02065575;-0.0016302741;-0.9959458;-0.21592548;-0.08076747;0.13216977;-0.007287019;-0.06422291;-0.17932436;-0.17517705;0.063083716;0.09599557;0.30479196;0.12657614;0.060743656;-0.05041905;0.05773073;0.06367818;0.24266571;0.20545149;-0.36466447;-0.17482181;0.09969769;-0.03670826;0.054089945;-0.30942175;0.34245265;0.12926313;0.009837061;-0.10947938;0.30128804;-0.036148757;-0.014231784;-0.084997796;0.04281928;-1.0149274;0.1636945;-0.29592502;-0.01031274;-0.32752892;-0.060829706;-0.087330945;0.19524938;-0.06949621;0.03929907;-0.12595071;-0.11412953;-0.01325471;-0.053914726;-0.057641335;0.0065815956;-0.05834363;-0.44062975;0.009945953;-0.004438745;0.01053389
-0.22446395;0.065767;0.0010798697;-0.27198303;-0.20762506;0.03679677;0.019590855;0.8192568;-0.40798104;-0.075397596;0.1597848;0.16918299;0.09278284;0.19609386;-0.08102351;0.031163955;-0.75261736;-0.014088403;0.100547835;-0.09902352;0.11723536;0.12870225;-0.008132016;-0.1670432;-0.1340621;-0.123982765;-0.09709996;0.018353632;-0.25727496;0.17117885;-0.04857827;0.18206085;-0.13126118;0.09823614;0.09522625;-0.06202347;0.016827779;0.16293563;-0.06261209;-0.07941717;0.46817407;-0.3438586;-0.017951922;0.09576271;0.09153253;-0.12238266;0.81458485;-0.08888598;-0.14547811;-1.5180428;0.14997214;-0.06521626;-0.6281765;-0.0003410729;-0.02082656;0.60029733;0.13919234;-0.23570898;-0.6085974;-0.0040506376;-0.19936621;0.28469655;0.061056376;0.21396971;-0.20354371;-0.03194114;0.4633961;-1.3109001;-0.048368238;0.017383846;0.12491991;-0.044629607;-0.15178344;0.08799106;-0.12693024;-0.11068583;-0.15119165;-0.0779295;-0.29648444;-0.381325;-0.1616156;-0.008759993;-0.62620115;-0.051031325;0.07234508;0.040748324;-0.1331529;0.12832466;0.13584767;0.14028063;-0.12429268;0.033705942;-1.7114111;-0.034943543;0.07634346;-0.003988842;-0.61171705;0.11826749;-0.5415439;0.04408626;0.72882694;0.03648338;-0.9510755;0.22333285;0.008464208;-0.1799959;0.111301735;-1.13647;0.0364434;0.058982886;-0.0023468444;-0.03184091;-0.08739536;0.06159349;0.1256951;0.003968503;-0.17184567;-0.104956634;0.21252826;-0.093572035;-0.107433885;0.03225822;0.7152885;-0.095827766;0.091073215;-0.09343408;0.08857211;0.14705108;0.021492233;0.085447416;-0.020249205;-0.256818;0.0637235;-0.0034718995;0.1615772;-0.08749922;-0.13551791;0.032240655;0.11206979;0.029462643;0.014283309;0.1991811;-0.060079616;-0.06784611;-0.046944458;0.031500794;-0.261267;0.06614138;0.07839368;-0.14105941;-0.16485156;-0.15959492;-0.06545141;0.10920576;0.014383675;-0.10973944;0.01454048;0.0459181;0.29785296;-0.6082086;-0.089192145;0.12565617;0.1547835;0.0074905716;-0.6626251;-0.13551812;0.53788763;-0.112450264;0.010558909;-0.29292667;-1.2400081;-0.1563298;0.7795948;-0.16484849;-0.16540745;0.017734226;-0.020950148;0.12514544;0.16287938;-0.113595225;0.1855625;-0.029502261;-0.038062956;0.0495293;-0.7904413;-0.050825045;0.09666909;-0.10405066;-0.35164133;0.08427717;-0.24270052;0.22373255;1.1088102;0.047874153;0.050268654;-0.36457682;-0.07040569;-0.09245481;0.060619514;-0.7208421;0.050743237;-0.095791325;0.05903683;0.012940583;-0.18564995;-0.14203292;-0.8399861;-0.18311425;-0.07617454;0.21972841;-0.22147252;0.10813469;0.08037064;-0.74235296;0.036997568;-1.1672102;0.15772797;0.07907933;0.031411666;0.008443898;-0.19342624;-0.91911626;-0.08437078;0.12301813;-0.02312653;-0.05548899;-0.18253756;0.015492986;-0.23485164;-0.10347411;-0.0644592;-0.15348764;0.44426617;-0.0100610675;0.107956946;0.055563178;0.05540718;0.25697502;-0.019864775;1.5663749;0.050152224;-0.040466566;-0.16460857;-0.0431115;-0.86006707;0.56183517;0.037712686;0.10506771;0.06407324;0.031304803;0.60010916;-0.4308356;0.07187928;-0.03254748;-0.061127786;0.17491336;0.06632701;-0.07946665;-0.14180224;-0.1729055;-0.10470089;0.08022612;-0.16807708;-0.09930875;-0.7862935;0.08370342;0.3861651;0.36571804;-0.41201058;-0.37810743;-0.043682825;-0.004187194;0.09982015;-0.12105905;0.040874943;-0.7080396;0.3070414;0.032016482;0.040678907;0.05323703;-0.22218025;-0.022834396;-0.094021484;0.05165375;0.018843478;-0.04708473;0.29694536;0.16076316;-0.063400485;-0.03434524;-0.18772462;-1.3947898;-0.05103552;-0.02070534;0.307056;0.014598367;0.19328919;0.052731533;-0.05705146;-0.054041605;0.013390451;-0.18840653;0.096893325;0.1529856;-0.402274;0.041997485;0.2543569;0.12439396;-0.1458313;-0.3391882;0.09159271;-0.06599442;0.15379034;-0.30391556;0.7727521;-0.09619151;0.053228907;-0.13172494;-0.02001078;0.16880658;0.05790535;-0.14188541;-0.1579366;0.2863394;-0.15214942;-0.16263509;-0.18761523;0.15538675;0.050599463;0.11808618;0.17646985;-0.03749525;-0.6955723;0.056623224;-0.12253368;0.021592615;-0.3363354;-0.07211186;-0.10090716;0.062112425;0.037444983;-0.11795105;-0.055363096;-0.018430488;0.09103155;-0.07980974;-0.59305775;-0.17893867;-0.18929768;-0.07058341;-0.19197254;0.11651833;0.026829042;-0.15227334;-0.11268628;-0.09666715;-0.10252758;-0.0056760022;0.21206272;0.018879928;0.043999404;0.028476583;-0.021436408;0.07564231;-0.60354125;-0.109160975;0.01534664;0.2052558;0.12482068;-0.06925233;-0.2225003;0.06790722;-0.99467385;-0.69815403;-0.14930294;0.15394692;-0.13210452;-0.002049207;0.08113065;-0.009424787;-0.07851422;-0.13334236;-0.18713535;0.077702045;0.07135988;0.058942553;1.0427353;-0.10670625;0.029893119;0.056228507;-0.0013914625;-0.20773615;-0.015166337;0.12504357;0.002674732;-0.070601225;-0.024991453;-0.2684504;-0.01131584;-0.12985814;-0.010328867;0.12618335;0.06816063;0.013663333;0.18896532;0.22338988;0.10659693;0.15215221;-0.4314698;-0.05594545;-0.02388123;0.046655137;-0.04072738;-0.04406944;-0.17798273;0.078379385;-0.004177487;-0.5782412;0.029817821;0.046224598;0.06363056;-0.5511489;-0.69645697;0.121576026;0.08250872;-0.0834214;-0.0023214605;-0.06639371;-0.96153796;0.040903658;-0.09087742;0.016424391;-0.15276423;-0.0021847172;0.0056115245;0.03244309;-0.078530066;-0.13238764;0.12755145;0.015713211;-0.21751375;0.023306083;-0.04687892;-0.03518329;-0.49492335;0.019105919;0.67941296;-0.14733413;-0.06369213;-0.065221;-0.026318572;-0.13262583;0.15947662;0.04750159;-0.23346908;-0.61145693;-0.17505078;-0.16801925;-0.22716792;-0.09412209;0.10421269;0.51640517;-0.05805757;-0.13709891;0.005756869;-0.33186975;-0.29444745;-0.05085937;-0.37510365;-0.22633278;-0.32642913;-0.08679715;-0.06356241;0.68417555;0.16562152;-0.030517232;-0.18511376;-0.41185033;0.06804461;-0.26398963;-0.11487574;-0.03634882;-0.00045446868;-0.041715536;0.094626725;0.13790521;-0.81357366;-0.023314327;0.055975966;-0.01924938;-0.17632946;0.17718875;-0.009784348;-0.1773225;-0.20927541;0.03489957;-0.11684061;0.19887556;-0.055260208;0.069352314;0.029985514;-0.13019027;-0.44060025;0.16513468;0.060054563;-0.43398866;-0.05827451;0.20700417;-0.012293339;0.011335442;0.5803491;0.052486658;0.05440697;0.009694795;0.039541867;-0.1849477;0.100364655;-0.31106928;-0.064665265;-0.32849646;0.124094546;0.088922724;-0.7832246;-0.023213068;-0.06894741;-0.13780454;-0.030892735;0.15115865;-0.18327606;-0.043399762;-0.10265418;-0.092472896;-0.1759699;-0.04459193;-0.17422226;-0.008421435;-0.0036969092;-0.18022001;0.043837305;-0.2621249;-0.25774196;-0.17740507;-0.12111675;-0.098008685;0.11066828;-0.14887756;0.024500413;-0.23973946;-0.2937611;-0.09524111;0.13786794;-0.08572046;-0.097060844;-0.117428266;-0.04511049;-0.4118735;0.016766613;-0.72304755;-0.022932371;-0.41218248;0.015657712;0.11067193;-0.40968028;-0.18254313;-0.11296241;0.10706645;0.015753351;0.11741194;-0.2470697;0.046634503;0.072810926;-0.01431986;-0.31912228;-0.0042991787;-0.02132412;-0.15171078
-0.35609695;0.04786905;0.06424964;0.46042496;-0.26153055;0.002740624;0.057749283;0.56495214;-0.16795292;-0.43509012;-0.0913499;1.4275548;-0.014184614;-0.28461915;0.066848986;-0.15365323;-0.27601653;0.05086266;-0.06520683;0.1371899;0.039564613;-0.07456502;-0.050019916;-0.25928032;-0.060263064;0.086668804;-0.027949926;-0.051222138;-0.5903277;-0.07883108;0.004592821;-0.2881955;0.060757123;-0.054319397;-0.47740212;-0.075707324;-0.05789012;-0.016357025;-0.039493844;-0.07477892;-0.38514256;0.110325225;-0.15844993;-0.015199873;0.08297884;0.07350013;0.45889938;0.003348586;0.32385296;-0.7199056;-0.052029774;0.021013461;-0.26909503;-0.040848434;-0.08640758;-0.27959698;0.04478346;0.00020583268;-0.57067305;0.0064871158;0.060320757;-0.43587393;0.06046769;-0.0802497;0.0071211625;0.0018330768;0.9083076;0.6434467;-0.047437634;0.08333861;0.01469195;-0.013442194;0.051148627;0.014476051;0.0474046;-0.08024192;0.21300118;0.36818147;-0.35422522;-0.40331346;0.06974751;0.05484828;0.7687933;0.030500429;-0.39168346;-0.018678512;0.026257623;-0.14789693;0.06414189;0.021506496;-0.034992695;0.43295226;0.10244016;0.04726188;-0.024163779;-0.054965757;-0.5583409;0.015284178;-0.46330824;0.049561333;0.9085551;0.030570397;0.036233462;0.15286511;-0.01478396;-0.11662409;0.041780815;-0.98835456;-0.03761978;0.09523281;0.030635875;0.029765846;-0.057295963;-0.031082116;-0.036165614;-0.012089803;0.10286649;-0.07855105;-0.44869897;0.029773887;0.054372348;-0.030473819;-0.67977005;0.10799346;-0.054700505;0.050643038;-0.07325347;-0.49152592;-0.043966867;-0.07759731;-0.047015928;-0.26035184;0.12692532;-0.062092647;-0.81193304;0.028417168;0.017824009;-0.46424258;-0.072475836;-0.045381363;-0.07860808;0.040634777;-0.021712894;-0.020011198;0.016783297;-0.07846726;0.44232714;-0.015495494;0.5677729;-0.07298895;0.81952214;-0.17044754;-0.03302685;-0.017990125;0.04148004;0.018916288;-0.49834374;-0.77184576;0.22752523;-0.698025;-0.034137137;-0.06386971;0.072369866;-0.21918806;0.2653474;0.0045150793;-0.111246325;0.035718974;-0.0077057504;0.051002353;-1.0360651;0.0009701188;0.21000066;0.029167227;0.13524838;-0.054288123;0.08954866;-0.10353191;-0.2645689;-0.13479328;-0.546645;0.3011005;-0.047702923;0.72435564;1.1332924;0.04578866;-0.05748082;-0.013931885;-0.2585843;0.013401314;-0.18326385;0.20614244;0.5971422;-0.01401091;0.5793297;0.9029842;-0.07086779;-0.07063127;-0.008699215;-0.5358481;-0.0050967983;-0.06936673;-0.054898508;-0.072368935;-0.40535536;0.046379272;-0.14629579;-0.6439563;0.016526598;0.54180783;-0.03326749;-0.076548055;-0.17512259;0.018402189;0.07314686;-0.0782532;-0.31530535;-0.0579495;-0.15649003;-0.07212754;-0.043220967;-1.1571773;0.055324275;0.030118346;-0.026407005;-0.00366251;-0.09117998;-0.044020783;0.16851279;-0.216715;-0.0010017318;0.0036046854;0.19568965;0.08911086;-0.06418749;-0.081668705;0.05833291;0.1250518;-0.014917492;0.35566673;-0.5702122;-0.017976126;-0.07568447;0.06600338;-0.007300702;-0.46885818;0.051094297;-0.12679324;-0.0033095188;-0.015555205;0.20104824;0.6925261;0.021943716;-0.042119905;0.088605195;-0.5170902;0.30993026;-0.03188446;-0.0144877;-0.20393172;0.009611234;0.032066904;-0.029485205;0.17819344;-0.8113266;-0.11486071;0.8336764;-0.32125401;0.6218336;-0.0076742447;0.16461675;0.07033798;-0.004991413;0.04999594;-0.061078247;-0.101536565;0.7459461;0.0517489;-0.0034590259;-0.10164522;-0.5224459;-0.061292253;-0.24214816;-0.044951823;0.031637404;-0.20397574;-0.012595805;-0.026197046;0.07645095;-0.23401791;-0.22478333;-0.15062317;0.28941357;-0.002571699;-0.0441951;-0.0254934;-0.1907282;-0.012078421;-0.07500152;-0.011676218;-0.03293156;-0.1793987;-0.0114877075;-0.06994961;-0.39135274;0.020050917;0.0167068;0.07622114;-0.025898686;-0.34091553;-0.05405446;0.012036346;0.021552095;-0.16393071;-0.93037456;-0.076393485;-0.013372135;0.05919098;-0.06813254;0.073280804;0.052448258;0.2361477;-0.0641549;0.0514473;0.084764175;-0.09299302;-0.45903477;-0.07045279;0.052827585;0.015481672;-0.06294749;-0.033164952;0.7208057;0.056133114;0.104998454;0.018985843;0.11443496;0.04980307;0.2844686;0.06503248;-0.028535461;0.076157436;0.111176826;-0.0020181844;0.014285788;-0.076742694;-0.541771;-0.17652918;0.044831086;-0.04791355;-0.027027858;-0.008822361;0.041742332;-0.08455546;0.041389674;0.05172754;-0.052447926;-0.023235336;-0.4569593;-0.015415122;-0.4792323;-0.0662;0.19281189;0.06830222;-1.8150588;-0.044856787;0.0074434383;0.14066145;0.17599696;0.071375;-0.34195217;-0.06861577;-1.0134534;0.20391543;-0.0032341422;0.013319781;0.06722309;-0.45648482;0.0147150345;0.17160633;0.021550795;-0.069653735;-0.022916207;0.0039374363;0.03394077;0.02043942;0.72326076;0.003693229;-0.026509257;0.073375486;-0.07731618;0.07642968;-0.06819893;0.05074685;-0.908764;0.10945898;0.02707373;-0.13579953;-0.26451868;-0.0792746;0.05671486;-0.009390566;-0.045632247;-0.1681712;-0.17673653;0.6072149;-0.07554691;-0.17906183;-0.409467;0.049050853;-0.041825023;-0.57781196;0.06751706;0.06688014;0.0525028;-0.08200902;0.062361296;-0.070580706;-0.04197461;0.032492105;0.6227128;0.044554587;-0.5443185;-0.06449953;0.015033233;-0.17495415;0.07427405;-0.053115446;0.34130436;-0.012501036;0.049733855;-0.055687174;-0.011901663;-0.04934913;-0.03568296;0.048108276;0.039860018;0.026582401;-0.044711784;-0.01367243;0.042679813;-0.025214937;0.03744933;0.010051855;-0.52753127;0.051489145;1.0169997;0.048248988;-0.0031430959;0.06323084;-0.10293129;0.0123571195;-0.06965413;0.0417793;-1.1987505;-0.3489852;-0.24141912;-0.6845815;0.038894508;0.0004678265;-0.05250273;0.18037458;-0.053030226;-0.07667137;-0.024130955;-0.5089219;0.37831882;-0.11727049;0.14471105;-0.12184969;0.012981705;-0.07880761;0.02991433;-0.12202467;-0.025831293;0.41455704;0.07426818;0.009041831;0.021601373;-0.14921178;-0.17068201;-0.074511714;0.17693473;-0.51861745;-0.006637784;0.0900925;0.006728216;0.0185766;-0.026656298;0.0065428084;0.075016856;-0.5535562;-0.051759407;0.047938418;0.004680762;0.06995022;-0.07026867;0.6351831;-0.03427442;-0.0027867851;0.3425721;-0.07531441;-0.029697634;0.19990496;-0.045256317;0.108782426;0.008464265;-0.03646781;-0.0071797604;0.028906967;0.19692029;0.06594637;0.052003425;0.040907133;-0.27887663;0.043503955;0.016430335;-0.25075006;0.055313654;0.026283769;0.022996293;-0.042084977;-0.24615544;-0.20304066;0.042429645;-0.014314941;0.05543527;0.007192123;1.0957026;0.0063633183;-0.12864417;-0.034615733;-1.2815518;0.15606447;-0.079571955;0.05768873;0.06470628;-0.048407633;-0.23006757;-0.33135802;-0.1954713;1.3220519;-0.18843476;-0.015230414;-0.17303532;-0.4706768;0.9857766;-0.04353567;0.120275944;0.06972802;0.2921772;0.06914432;-0.03700073;0.020525454;0.022528462;1.1226321;-0.10437131;-0.64012647;-0.06402364;-0.05384591;0.011665851;-0.068650335;-1.430414;-0.11152061;-0.06684741;-0.09027063;0.015211728;-0.024982035;-0.22244065;0.016449032;-0.041716263;0.03284244;0.2801522;0.0626013;-0.08114951;-0.44241026
0.13924499;-0.09354821;-0.06197526;0.8219672;0.0072650593;0.046180025;0.077388294;-1.0152302;-0.9585653;-0.22153607;-0.03910004;-1.0020663;-0.17901969;-0.3422792;-0.06618678;-0.4043203;-0.1878182;0.18175916;-0.040867016;0.27186537;0.014791845;-0.048573054;0.034508295;-0.53542185;0.09392342;0.037576027;-0.036722675;0.051070213;-0.26033333;-0.08931266;0.0074648275;-0.39968625;0.21902674;0.013232184;-1.2542074;0.006402948;0.0286478;-0.081784055;-0.007472021;0.023486964;-0.5607848;0.5460633;-0.23391666;0.03834173;0.38215327;0.05795329;-0.7392748;-0.047805876;-0.42677337;0.61462915;-0.533682;-0.07250338;-0.12441621;0.064932965;0.04966984;-0.20227744;-0.09174953;0.16456114;-0.35150814;-0.023311539;0.06115171;-0.38473892;0.031455137;-0.08669596;0.017047886;0.0926242;-0.43573028;-0.038237303;0.042772025;0.060264762;-0.08243684;-0.000673141;0.007980523;-0.075338535;-0.40431032;0.28739277;-0.25205868;0.4610647;-0.36604914;0.54667866;0.102761;-0.016997295;-0.9276701;0.06544796;-0.30021867;0.03895313;0.11228904;-0.31581375;-0.081197456;-0.015530686;0.029200697;0.62375194;0.52993244;0.021831812;-0.104527585;-0.041782085;-0.055764455;0.05844558;-0.3335307;-0.122424126;-1.0927079;0.08360163;-0.08163348;0.09132559;-0.08998569;0.1092212;0.04074091;-0.5944639;-0.09810697;-0.18929727;-0.0010385431;-0.066707745;0.036563244;0.016105598;-0.076333396;-0.022564579;0.053597;0.05054081;0.4989368;0.13237853;0.1233514;0.026711442;-0.78959906;0.33952275;-0.063733;0.061784856;-0.07356806;-0.3650285;-0.09664688;-0.04247531;-0.043721553;-0.5465679;0.071424566;-0.07710965;-0.17767301;0.022318989;0.09449206;-0.40757102;-0.021422444;-0.1156016;-0.11795094;-0.16145673;-0.012169861;0.104734644;0.10095441;-0.043899354;0.88969487;-0.04815944;-0.24634205;0.09985481;-0.031139074;-0.47532383;0.047150116;-0.20734212;0.003111807;0.04802601;-0.15316051;0.012334437;-0.24934337;-0.8607312;0.059295326;-0.14984396;-0.3107415;-0.29485312;0.21927583;0.046297826;-1.1719452;0.36803243;0.48351318;0.10412908;0.016839104;0.1079439;-1.7357131;0.014117677;0.12558809;-0.049201418;0.019081866;-0.02571463;-0.5882282;-0.20412445;0.04746382;0.2033734;0.039823808;-0.29310536;-0.696219;-0.019944359;-0.18316634;0.19105701;0.36943072;-0.086220115;0.41826314;0.028734662;-1.0625253;-0.030199012;0.77894;0.5307864;-0.022300595;-4.782916e-05;-0.057383306;-0.11284431;-0.040588398;-0.047959648;0.015173886;0.034251504;0.084246024;0.0761238;0.13267764;-0.19424829;0.06901148;0.6759067;0.11923854;-0.14729838;-0.2273387;0.6032195;0.022337949;0.24579686;-0.6759732;-0.6704323;-0.19367306;-0.04311031;0.10991049;0.2690212;0.29754585;-0.029585496;0.04102048;0.12748116;0.011123357;-0.02244316;0.12175676;-0.048358675;0.0399782;0.14473565;-0.05930837;0.20978764;-0.050209876;-0.11020135;-0.058583662;0.1402922;0.03949037;-0.7259847;-0.9252351;-0.09402141;-0.068998456;-0.048325863;0.4671161;-0.48693734;-0.02257674;-0.1512947;-0.01567799;-0.15382785;-1.0743992;-0.37825543;-0.066799484;0.037333813;0.042662323;-0.29083753;0.12222419;0.036978822;0.0010049348;0.03688742;0.13175973;-0.06934124;0.12963054;-0.042324115;-0.72947836;-0.24087863;0.111543864;-1.1845512;0.6695527;-0.030895527;0.2807753;-0.105458066;-0.0101215495;0.36912736;-0.20116757;0.23581815;0.23270252;-0.019180026;-0.02777864;-0.32377735;-0.6418264;-0.03452135;-0.3142018;0.020677913;-0.0061439793;-0.14487551;-0.6219738;-0.12342885;0.045080192;0.086616926;-0.21897425;1.1425052;0.54746175;-0.030293517;-0.33456555;-0.011336683;-0.19124036;-0.09209237;0.08584733;0.09220011;0.048322346;-0.33397126;-0.0856601;-0.061552066;-0.8637649;-0.00143625;0.03742903;-0.090745576;0.08358852;0.52499;0.032091796;0.062068895;-0.07159791;-0.16371982;-0.43829882;0.08484011;-0.0007732376;-0.009736126;0.013925798;-0.08691103;-0.005201785;0.14121686;0.13026714;-0.9604078;0.11380709;0.13654442;-0.40870243;-0.058054186;-0.023314068;-0.13166893;-0.054042898;-0.014199204;0.094241515;-0.110749476;0.24047725;-0.058525126;0.101918094;0.06146481;0.2880017;0.03492747;-0.06827999;0.09487147;0.3517904;0.027453631;0.026487082;-0.086485215;0.39478797;-0.3584428;0.20289914;0.026124073;0.122508645;-0.07279147;0.008875664;0.1265828;0.11435876;0.016810186;0.08872221;-0.045599815;-0.21136566;-0.0054585785;-0.61350876;0.0005975944;0.055771768;0.0025366272;0.83871716;0.026990429;0.013811635;0.232716;-1.8572419;0.014659582;-0.377007;-0.040712792;-1.3977575;0.8049601;0.032350235;0.013829894;0.024993163;0.0055520167;-0.025169665;0.33163387;0.19841139;0.09379777;0.124942385;-0.050664574;-0.11889528;0.015960587;-1.6503947;0.14320205;0.009353617;-0.0037622736;-0.101791956;0.27510065;0.059481874;-0.04803744;-0.47196797;0.4143808;-0.08518406;0.3552383;-0.23605242;0.05813528;-0.022361057;-0.010883463;-0.26453954;-0.18453634;0.26668966;-0.046246108;-0.03175903;0.72308576;-0.23644605;0.1217649;0.13719113;0.107446015;0.2060126;-0.06660363;0.14536643;-0.18564351;-0.051285107;-0.069095075;-0.011557806;0.0055225063;-0.16986635;0.5797967;0.59438694;-0.082167484;-0.12855853;0.2832728;0.04450646;0.06800392;0.5434563;-0.066000834;0.13746925;-0.03652667;0.10577985;-0.11503379;-0.057119876;-0.05761516;-0.022289148;0.034160946;-0.16725259;-0.12365984;0.17769375;-0.03056941;0.0131249;-0.07247968;-0.22825399;-0.02219829;-1.54551;-0.02611217;-0.01017796;0.069283985;0.039487705;0.30995178;-0.21347953;-0.07208929;-0.96809524;-0.6954687;-0.6109808;-0.6184772;0.104704484;0.056094557;-0.07539433;-0.29696968;0.05210638;0.47254488;0.0031039114;0.40832898;0.6108264;-0.14026244;-0.080968134;0.012719066;0.25096712;0.18949988;0.028059453;-0.43524164;-0.07251815;0.14193715;0.051800095;-0.90561026;0.02002821;-0.34660238;0.74908435;-0.0038417396;0.24044812;-1.2418451;-0.09402386;-0.052726425;-0.91516054;-0.03208643;0.019105166;-0.025392981;0.26654637;-0.33637008;-0.08063196;0.06830621;-0.09572215;0.016475424;-0.025961967;0.59339184;0.07289887;-0.05115639;-0.08962532;0.112378746;-1.3103739;-0.41682178;-0.036631513;-0.58373755;0.050658405;0.024196431;-0.10045721;-0.06418066;-1.4591355;-0.03973197;0.02060747;-0.018273272;-0.2904542;0.065217674;-0.027213482;-0.43897882;0.058727007;0.22540939;-0.08497992;-0.023085065;-0.42699176;-0.7548491;-0.017079879;0.16323344;0.07476892;-0.011812133;-0.8472565;0.14130615;-0.12092998;-0.19533375;0.24003392;0.29849315;0.15605482;-0.029329916;-0.07406673;0.21448441;-0.1925752;0.71559185;0.5330475;-0.0005079911;-0.007582985;0.03188507;0.5895929;-0.775687;0.27085567;0.32469675;-0.047798503;0.003123688;-0.65093756;0.082155496;0.04699252;0.120641805;0.054756265;0.5880104;-0.12567154;-0.32947278;0.01146967;-0.13908607;0.06781135;0.02257172;-0.59779173;-0.039984744;0.03549859;-0.091767944;-0.068870775;-0.12219815;-0.096389994;0.004948363;-0.17393559;-0.044995412;-0.5619851;-0.08559119;0.01586598;-0.4037461
-0.28621826;-0.08434041;-0.08682975;-1.272773;-0.3072909;-0.06882505;-0.023549994;0.9477662;-0.5007063;-0.031236757;-0.023959413;0.14139217;-0.043329198;0.34582356;-0.033226404;-0.0780425;-0.91279453;-0.08281904;-0.050390128;0.025933657;0.009585181;0.016588623;0.030601243;0.08566761;0.052882627;-0.0022490944;0.037437886;0.049264308;0.2420325;0.04694118;-0.02544732;0.096068926;0.06580718;-0.0010374744;-0.43932593;-0.3749649;-0.043458436;0.0901529;0.04900456;0.07062525;-0.055733956;0.21741068;-0.013961487;-0.017495688;-0.23471624;0.012162951;0.40031424;-0.023929685;1.2955364;-0.061686948;-0.8542036;-0.022143478;-0.003575821;0.066433474;-0.078306116;1.2257065;0.012076055;-0.039465327;-0.6643627;-0.06931227;-0.07138668;0.2866338;-0.062066354;0.117257595;-0.10342707;-0.37257612;0.27546093;0.9758434;-0.04979634;0.07064695;0.030833323;0.0060420358;-0.09571958;-0.03683924;0.7170888;-0.19333427;-0.11725422;-0.2818194;-0.03079637;0.102259256;-0.0981375;-0.0088743195;-0.28241625;0.0715724;-1.170705;0.06987084;-0.08269367;-0.100221075;-0.059030686;0.0009590024;-0.13930091;-0.6697481;0.18657258;0.06745821;-0.016857969;0.052260365;-0.069488905;-0.09875542;-1.0001197;0.03675937;0.77308637;-0.057048704;-0.058099695;-0.3344989;-0.08317172;-0.10825728;0.04040201;0.6261178;-0.013312078;0.1240083;-0.010241255;0.03620384;-0.0311866;-0.032991227;-0.03516464;0.0015326295;0.019266842;0.2715327;-1.1185827;0.05355297;0.03348563;0.046193026;0.8147867;-0.011807215;0.06923798;-0.25562155;0.030198043;-0.51221687;0.092305325;-0.06529859;-0.030405112;0.31515977;0.07435111;-0.02983795;-1.3746595;0.004221911;0.011432054;-0.861296;-0.061793793;0.029932413;-0.066642545;0.12308536;-0.08624844;-0.049498715;0.025561567;0.043729376;-0.19590232;-0.07629588;0.14259362;-0.0027349012;-0.007357436;0.074686565;-0.008031153;-0.015325382;0.012594974;-0.0010888197;0.22713129;0.03668486;0.15307252;-0.07456229;0.061126314;0.01402427;0.033792645;-0.30482453;-0.8638535;-0.038938347;0.08533483;-0.09477841;-0.3323733;0.20654002;-0.17315568;-0.037766155;0.1908312;-0.061546884;-0.2291047;-0.06912231;0.2984306;0.13688585;-0.77192867;0.15120088;-0.12253736;-0.07740154;-0.027776765;0.15178068;-0.3288514;0.041212462;0.051488318;-0.020296006;-0.18271641;0.054296043;-0.25952002;-0.24483283;-0.41373786;0.031490624;0.31820318;0.45739013;0.06953384;0.035903126;-0.016694903;-0.44036317;-0.013965596;0.088139415;-0.0317861;0.03856471;0.9055548;-0.08247096;0.35833085;-1.364051;-0.008032137;-0.6774909;-0.05302119;0.011438547;-0.016912818;-0.17982335;0.0816289;-0.8945111;-0.23266108;0.73273075;-0.09575487;0.068167515;0.008340827;0.6571381;-0.079557195;-0.019210963;-0.08224496;-0.04466382;0.027585331;-0.061596755;0.110211685;0.00454724;0.043116838;-0.032986943;0.01520297;-0.067247644;0.07445617;0.013886739;-0.053804915;0.37542734;-0.06465379;-0.28929344;-0.8723649;0.0061861975;0.07290741;0.017099036;0.65249604;1.1615084;-0.006523502;0.02189496;0.11575847;-0.016477242;0.7117701;-0.5679997;0.074148275;-0.039097946;-0.083985634;0.14697847;-0.30853492;-0.010820808;-0.005056619;-0.40767586;-0.048722643;0.1631216;-0.095503725;0.0057594446;1.3226982;0.09030883;-0.12022743;-0.96802884;0.60527205;0.19050772;-0.08537501;-0.009517456;0.07550062;-0.17330106;0.039456777;0.51278657;-0.2811597;-0.008110605;0.0062363674;-0.16397318;-0.94521034;0.05915523;-0.21603027;-0.055682298;0.030992968;-0.042591583;1.5785279;-0.017764702;0.042027332;0.10329023;-0.10522103;0.35256433;-0.062592834;0.03671067;-0.13385437;-0.010906247;-0.03086479;0.036019582;0.035997346;-0.09664798;0.034207195;-0.075393796;0.021619812;0.04256251;-0.45196974;0.012541945;0.12303745;0.09518864;-0.034064323;-0.018996613;-0.08499499;-0.017736848;0.047156055;-0.3826629;-0.6888227;-0.02950733;-0.05685449;-0.010074339;0.0520431;0.012358791;0.063595906;-0.49630597;-0.0011517883;-0.5963255;0.0092789205;0.006341347;-0.22968908;-0.016621975;0.04421084;-0.006353345;0.0007917427;0.036652286;-0.7980299;-0.20643018;-0.077328324;0.076462835;-0.17534801;-0.02447869;-0.66482735;0.006286689;0.057609744;-0.06466135;0.75795543;-0.06557724;0.037663206;-0.15894125;-0.79886746;-0.12209149;-0.040117174;-0.10219736;-0.13076292;0.021368477;0.021954246;0.06341963;-0.061008234;0.06633044;-0.0615918;0.0068149306;0.39105242;0.017459061;-0.35254538;-0.00319451;0.05116176;-0.030083636;-0.8178366;0.05102899;0.022455152;-0.4421494;1.0774568;0.035866965;-0.19448222;0.0021147565;0.45741928;-0.589596;-0.039887983;0.0981366;-0.008915889;-0.8717694;0.095469855;-0.51254654;-0.04335898;-0.093224406;-0.13220155;-0.018094745;0.062233984;0.018730313;0.11294997;0.0070672138;-0.061372895;-0.35329884;0.029907428;-0.08496511;-0.0835571;0.011816738;-0.7116144;-0.122370176;-0.05175656;-0.65956336;-0.19065844;0.002788617;-0.092453696;0.04598219;0.018101035;-0.14131778;-1.1924398;-0.6809189;0.009639945;-0.7592865;0.3793055;0.08375179;-0.30839878;0.15590017;-0.009837874;-0.0974658;-0.07424607;-0.061521336;0.002470129;0.2714822;0.036185145;0.0049311076;-1.4589643;0.99262756;-0.1783522;-0.022214089;0.05112433;-0.11871632;0.041873112;-0.06300215;-0.07129968;0.10345831;-0.105691515;-0.05851609;0.025173698;0.03281778;0.02395298;-0.05763415;0.2150841;-0.034989886;-0.033510435;-0.108639196;-0.058523256;0.040126503;-0.06638479;-0.06727706;0.18825269;-0.06970033;-0.11336372;-0.22941874;0.062601656;-0.087871715;-0.062290303;-0.25936094;0.24290816;0.09647598;-0.43706295;0.6193256;-0.16007793;-0.24540839;-0.08115722;-0.058605604;-0.006398408;0.11962491;-0.011252783;0.2078563;-0.049673013;-0.1614992;0.33258003;0.013323668;1.3439608;-0.6239281;-0.22709888;-0.009410117;0.04953276;-0.51017034;-0.003165276;-0.24581844;-0.078734025;-1.441748;0.007861503;-0.0450414;1.3834064;0.0027033712;-0.027762974;-0.047774207;-0.042395636;0.1459963;0.83290255;-0.015246813;-0.06835444;0.0037032634;-0.105787516;0.017150478;-0.04791312;-0.012202414;0.026842322;-0.061747022;-0.045014422;-0.14784199;-0.036265012;0.05891902;-0.2546941;-0.024074696;-0.40460497;-0.53875285;-0.05091936;-0.5685395;-0.03398647;0.095896676;-0.116218574;0.08887833;0.26872873;-0.053321082;0.0026237727;-0.056822162;-0.12060818;-0.05821349;0.0038247465;-0.14011633;-0.14175434;-1.2702364;0.09199349;0.06940088;-0.27672827;-0.34503943;-0.051033355;-0.118233204;0.039256293;-0.040546898;0.17284727;-0.559663;0.38251767;0.0033747128;0.19959913;0.04873425;-0.10612263;-0.03472364;0.07421132;-0.012517205;0.059037246;-0.0586359;-0.23073857;-1.0978951;-0.11666159;-0.055568848;-0.20058489;0.40774888;0.80388564;-0.095908254;-0.09826289;-0.03738884;-0.5120397;0.039404895;-0.058529258;0.012821317;0.025965935;1.3698438;-0.115631394;-0.75556576;-0.08266155;0.19665383;-0.0447635;0.07323666;0.2348844;-0.07062653;-0.032182943;0.023593843;-0.0070863673;-0.01860822;0.07371017;0.0007831941;0.074081644;0.023747439;-0.86194587;-0.062373485;0.020389028;-0.1146019
-0.10348505;-0.03335775;-0.07988212;0.7518558;-0.16193782;0.029840933;-0.031902473;0.34783313;-0.1692317;0.038043227;-0.044903714;-0.6904476;-0.033070933;-0.004305882;0.009773763;-0.3100444;-0.8662015;0.111852735;0.04917367;0.16812783;-0.05482928;0.041520275;0.03668714;-0.59020936;-0.07309109;-0.0587766;-0.07669749;-0.053261977;0.5670486;0.06310298;0.021206865;0.010582625;0.0919523;0.0789933;0.22456887;0.049349643;0.011956857;0.03087888;0.030610053;-0.0768197;-0.476398;-0.14717905;0.45876417;0.062301945;0.067852356;-0.117289245;0.10444165;0.008512425;0.08020099;-0.026662447;-0.17190745;-0.07869622;-0.34074336;0.019845974;0.48918673;-1.3197893;0.0700609;-0.08928606;-0.443435;0.05769356;-0.010148051;-0.21406294;0.014678227;-0.019473564;0.03571754;0.3392355;0.35411277;-1.3236735;-0.10215093;-0.024129549;0.09934322;-0.0418354;0.007368334;0.013862651;-0.109990835;0.14511234;-0.07063153;0.5935698;0.38866612;0.083437815;0.006976359;0.05698401;-0.48488927;-0.035379454;-0.08937421;0.051285144;-0.08215188;-0.67868036;-0.03597411;0.0011837333;-0.08310474;-0.13285641;0.17173456;-0.037844546;-0.010026339;0.03013515;0.6199319;0.09222741;-0.52868253;-0.025757212;-0.5528097;-0.04017236;-0.046089396;0.048191432;0.016874377;0.05878034;-0.031103622;-0.40059122;-0.0067858286;-0.05086647;-0.10257392;0.031198498;0.022302337;-0.020165415;-0.0058579855;0.029589169;-0.092910886;0.5161392;0.026737096;-0.03634484;-0.01729822;-0.048346315;-1.431001;0.2213335;-0.07904965;-0.063559644;0.05835159;-0.5678112;-0.05833728;-0.019069824;-0.09080999;-0.50537235;0.09916823;-0.043327343;-0.19849701;-0.025275528;-0.037857722;1.5395105;-0.06670942;-0.060322005;-0.06037108;-0.043377157;-0.12591489;-0.10300785;-0.011841054;0.0060915905;0.9343721;0.07081258;-0.43525314;-0.07196044;-0.1327261;-0.43443966;-0.031008143;-0.15313971;-0.002550432;-0.054540284;-0.38050386;-0.54909575;0.09927535;0.17913082;0.034796014;-0.123321295;-0.29228973;0.023855262;-1.115807;-0.0026469736;-0.591782;0.060479723;0.5483171;-0.050576545;0.08746021;-0.056617673;-0.3645162;-0.10559001;0.3131013;0.052807655;-0.01730464;-0.052029654;-0.9253498;-0.044729743;0.66273046;0.36971816;-0.010231418;-0.672564;0.62557685;-0.050263084;0.03799522;0.13677283;0.22931978;0.04914666;0.20381391;0.1244211;-0.17098199;-0.07544172;-1.5571495;0.6258861;-0.050017186;-0.009401708;0.027434789;-0.89207757;0.09858294;0.020155216;0.07551151;-0.06801097;-0.17226176;-0.03574707;0.86832047;-0.030009653;-0.09691754;-0.23387939;-0.11295159;0.02410697;0.46291476;-1.0513632;0.023222469;-1.0845398;-0.993336;-0.76961434;-0.1559808;0.042104185;0.026094586;-0.2813477;0.5110401;0.0496733;-0.11577575;-0.109254;-0.087460294;0.03745989;0.45573744;-0.122649826;-0.05075316;-0.109568655;0.1057056;0.041593958;0.052030828;0.05856166;-0.045227755;-0.5543523;0.06592636;-0.36455575;0.6857214;-0.010444803;-0.10931037;-0.076674744;0.27457526;-1.0647998;0.07286905;0.090470396;-0.052840453;-0.202203;-0.1177838;0.16255938;-0.0032424047;0.06598887;-0.078283474;-0.4101139;0.37518832;0.027041659;-0.09379767;0.1073573;-0.055626456;-0.04358117;-0.04373873;0.28320372;-0.9251136;0.064688906;-0.6664566;0.24140462;-0.0147718005;0.044232197;0.07562893;0.015941212;-0.061638523;0.029846754;-0.15072721;-0.22275864;0.3796667;-0.06431073;-0.09226072;-0.39820835;-0.9084596;-0.00018846229;-0.35621735;0.05456572;-0.07510796;-0.17941585;-1.7461268;0.040058643;0.0045588906;0.45666826;-0.24911049;0.45285645;-0.38031125;-0.026246216;0.10981424;0.018356025;0.09846162;0.055257965;0.057360206;-0.07068607;-0.037906453;-0.11330276;0.07573652;0.030287905;-0.37763983;-0.030193122;0.09156916;0.0081079705;-0.047296047;0.27538165;-0.021195063;0.037088104;-0.03305528;-0.0050550597;-1.4050527;0.003272433;0.02907578;-0.062588714;-0.0034737925;0.028234363;0.03819878;0.5724488;0.032088272;-0.17525208;0.050184797;-0.033239543;-0.8076855;-0.022165611;-0.030907065;-0.027779173;0.041218843;-0.057165395;0.77414715;0.18502833;0.14469314;-0.0043947273;0.2921144;-0.021796754;0.1982261;0.075664476;0.070426635;0.036605008;-0.31144974;-0.0030155375;-0.08357876;-0.18089029;-0.297441;-0.28222117;0.0063424683;-0.053101506;-0.060949285;-0.04158202;0.0062110545;0.048872307;-0.02179023;-0.0684746;-0.018810539;0.035976678;-0.38233536;0.08347531;-0.92603284;0.00022075277;-0.15894777;0.03353209;-0.20543554;-0.07385122;0.052867997;0.076428846;-1.3064429;-0.082082026;-0.37012485;-0.017836237;-0.01461274;0.6813674;0.0662295;0.024788193;-0.046411254;0.07944316;0.0297229;0.48332122;-0.0224174;-0.051072963;-0.0614058;-0.021829283;-0.04483029;-0.019811725;0.3490241;-0.02115009;-0.019655917;-0.03169971;0.05609399;0.1467579;-0.0057073412;0.07544969;0.53672045;0.23518053;-0.12773393;0.42039675;-0.13727053;-0.054760337;0.03566452;-0.009035925;-0.21949005;-0.112950765;-0.3404437;-0.83935565;0.08128952;0.5953148;-0.45329782;0.07984707;0.15142232;0.016518464;0.05634703;-0.05752379;0.035860155;-0.05082173;-0.025534501;-0.8644634;0.007283711;-0.057424303;-0.3016173;-0.23586684;0.45775148;0.027527317;-0.15239775;0.29008216;-0.062357135;-0.02838023;-0.66131186;-0.024716105;0.042872302;0.057505924;-0.059308406;-0.07571029;0.060481805;-0.020544125;0.06258485;-0.09281154;0.11966116;0.09096328;0.05461209;-0.08628666;-0.1369056;-0.08201992;0.5109146;-0.038049433;-0.9118352;-0.085425995;0.058462344;-0.021976264;-0.05687086;0.5520896;0.049498077;0.0034854987;0.53200465;0.80739474;-0.2919852;0.15985486;-0.06833214;0.0145531;0.013152403;-0.034500312;0.044283222;-0.16610858;-0.018185556;-0.032063205;1.10751;-0.16524026;-0.7099645;-0.107251905;-0.15467024;0.09403702;0.027735367;-0.5174858;-0.01295545;-0.20299876;-0.04342891;-0.07248923;0.056107257;0.28235412;0.28007326;0.0141037265;0.09646847;0.41612568;0.05851311;0.034021333;0.52143127;0.045920484;0.028182875;-0.020524254;-0.053955097;-0.57110715;0.062131666;0.014443977;-0.111204594;0.004693478;-0.05287547;0.5764928;0.0406389;-0.11533589;0.16175053;-0.06588089;-0.6911839;-0.56890213;0.114250466;0.5335678;0.041797843;-0.00090653915;-0.07316796;0.0037538388;-0.17510812;-0.049043607;-0.009416996;0.07429363;-0.4123001;-0.030028002;0.15735097;-0.770488;-0.09431198;0.77622515;-0.07440446;-0.04578073;-0.7969132;-0.7989613;0.07441567;-0.035738755;0.04557473;0.07573343;-1.0793506;0.07856725;-0.02672153;-0.11236407;-0.06376777;0.12743975;0.00020094107;-0.011508452;0.008401594;0.08358039;-0.7428247;-0.1910579;0.44005486;1.5792382;-0.08306443;0.04838882;0.3726666;-0.23485109;0.58538795;0.1531343;-0.06794639;-0.09231379;-0.6543368;0.019877844;0.03141575;-0.042183816;-0.04607041;0.5686237;-0.02442633;-0.15910986;0.022024017;-1.2811062;-0.026335174;-0.1019704;0.53562784;-0.08420779;-0.06067956;0.010584314;-0.008568976;-0.031316966;-0.15581185;-0.015995111;0.07988061;0.028732773;1.069627;0.08708728;-0.029888246;0.14607652
0.18988805;-0.020281631;-0.004927436;0.7158114;-0.19506505;-0.052284244;0.012082912;-0.731325;-0.53168607;-0.9411522;-0.06884669;0.5066854;-0.123783015;-0.18052685;-0.019395027;-0.25353244;-1.0748769;0.13692796;0.059614185;0.41250557;-0.11779491;-0.039275236;-0.028299082;-0.9087702;-0.044328906;0.001749596;0.07523639;0.015544706;-0.6017431;-0.14092048;-0.026995627;-0.1734966;0.38418427;0.052892536;0.8414448;0.08898073;-0.08440521;0.029020038;-0.0135637345;-0.037737448;-0.7008025;-0.16078451;-1.2059625;-0.1552551;0.23651773;0.26488215;0.38934356;0.034313373;-0.45440862;1.1190789;0.064591885;0.0024924704;0.41456974;0.006895895;0.6140488;-0.09334569;-0.07838067;-0.024196515;-0.13469416;0.040839177;0.11654821;-0.079762936;-0.07647342;-0.04729616;0.11487451;-0.02704708;0.7991059;-1.6221211;0.085037306;0.0147023285;-0.024695106;-0.087403536;0.12634091;-0.021107463;-0.39339978;0.25161222;0.38851;0.8839215;0.19915615;0.22459128;0.08824334;-0.079345636;0.6326624;-0.010513742;-0.12699379;0.0112563;-0.021959182;-0.18271762;-0.018234638;-0.14017308;0.12837884;-0.09188855;0.5098924;-0.06278422;0.020701809;0.07800057;-0.644953;0.14427486;-0.33721226;-0.052517325;-1.0572963;-0.012158737;0.75254124;-0.09827736;-0.060581118;0.26724017;-0.026365446;0.22420391;-0.009476301;-0.31298023;0.0072901943;0.06674555;0.08591677;-0.021235302;-0.029081767;0.0720864;0.06648178;-0.12687889;-0.100572154;0.039761554;-0.009202414;0.022012085;-0.8223411;0.32831246;-0.093093626;0.19396016;0.03790997;-1.9347188;0.018623998;-0.08202964;0.028365737;-0.12705602;0.11832318;0.008658491;0.26764268;0.07886545;0.22418307;-0.04294723;-0.009232022;0.045152716;-0.12565264;-0.13652691;0.055414908;0.08790178;0.11100757;-0.0026205597;1.439121;-0.054344855;0.9090372;0.16488934;-0.030257814;-0.6853298;0.057492018;-0.22559896;-0.057181787;0.017173113;-0.5126034;0.5048203;-0.63908386;0.3204274;0.018952617;-0.27878615;-0.09447163;-0.96616316;-0.9132413;0.034180824;-0.6399766;0.4448208;0.10404657;0.13797037;0.9501174;-0.03137831;-0.6576579;0.1781213;0.11915277;0.015975444;-0.09019459;-0.13508613;0.2693076;0.022413997;-1.4795477;0.4616716;0.13208444;0.28965968;-0.46852466;-0.014840443;-0.06560252;0.2987941;0.09896578;-0.07879679;0.67381006;0.00038628036;0.3532921;-0.01813674;0.52071226;0.025435967;0.057502203;0.08603892;0.04196779;-0.22212274;-0.07992824;-0.031246273;-0.029567597;-0.06405015;-0.16522509;0.161628;-0.20502129;-0.55350965;0.045032587;-0.0065757087;0.16013071;-0.1812756;-0.5702641;-0.28541937;-0.07064837;-0.36075738;-0.4219613;-0.65193987;-0.3473068;-0.008908086;0.040479213;0.3521397;0.5773015;-0.044418383;0.022666438;-0.046913464;-0.028690007;0.05559705;-0.2893953;0.24389689;0.043657284;-0.026356718;-0.53997946;0.3847539;-0.049317356;-0.0967712;0.023992632;0.43102998;-0.055677425;0.08099903;-1.2035497;-0.022387082;0.024597166;-0.015388906;0.43496737;-0.081620455;-0.08475429;-0.041331016;0.033612426;-0.109567374;0.43115112;-0.4523608;0.033548873;-0.006490265;0.07967889;0.66188014;0.09356996;0.08039831;0.07525671;0.063469455;0.023895819;-0.027357996;0.29155776;0.28753313;-0.73551184;-0.05111699;-0.08808043;-1.3755076;-0.37851477;0.11245011;0.46837673;0.03124567;-0.080585726;0.38737;-0.24701117;0.14729741;0.4311551;-0.048159428;-0.07042259;-0.21124215;-2.7627816;0.03275681;-0.24743618;0.05963062;-0.061248362;-0.15768151;1.3181999;-0.077897705;0.106229365;0.42586702;-0.25617543;-0.7052282;-0.13702376;-0.015403526;-0.9332002;-0.016802542;-0.44835156;-0.019114763;-0.056726296;0.0903939;0.039820753;-0.20887367;-0.0862307;-0.03779495;-0.19626687;-0.059659116;-0.024574295;-0.1297796;0.07821742;-0.381513;0.06534674;-0.07335722;-0.33071017;0.4092655;0.23435706;-0.061140426;-0.08646007;-0.02357722;-0.06921828;-0.02791783;0.054108705;-0.45444453;0.14213568;-0.73716146;0.07419856;0.3221156;-0.29563236;0.057120502;-0.05993917;0.003014377;0.015629685;-0.06878923;-0.16200504;-0.0020306269;0.34755123;-0.008018761;-0.06824894;-0.016045664;1.0990031;0.043857925;-0.0247699;0.027951393;0.51127225;0.11641479;-0.036899526;0.100151576;1.2168521;-0.3755193;0.3194329;0.08308408;0.17982489;-0.10065372;-0.03943508;0.0005167388;0.17365848;-0.016420512;-0.07299591;-0.07346289;0.24962792;-0.048274264;-0.47932062;0.026038107;0.27369788;-0.016905973;0.46658617;0.051980548;-0.05523783;0.34739265;-1.1869459;0.09743462;-0.23165485;-0.075625926;-0.9709142;0.20142418;0.00370985;-0.064954095;0.12271308;-1.3294007;-0.042601466;0.10014421;0.3659561;0.087301105;0.15974471;-0.12349067;-0.03546113;-0.03604927;-1.7715185;0.29332715;-0.05166842;0.3903866;0.027239377;0.35329416;0.0080820685;-0.06039975;-0.7014773;0.47415975;-0.06964276;0.43350732;-0.8910908;0.024485575;0.057427846;-0.017254954;-0.16989991;-0.16371801;-0.71065056;-1.6512692;-0.056486968;-0.91793996;-0.27542046;0.11227302;0.7069792;0.39852497;0.23979321;-0.05913479;0.03540621;0.047104895;0.027675329;-1.4085325;-0.091942385;0.05089712;-0.6076888;-0.024484493;-0.009189448;-0.06934019;-0.27938008;0.3232692;0.059769414;0.01733329;-0.21707375;-0.022254802;0.10030001;0.030058745;0.09343279;0.044114787;-0.04905341;-0.071061715;0.025931504;0.070566855;-0.021003986;-0.33301342;0.17770495;0.039390646;0.1221004;0.06341934;0.38851765;0.048295293;0.07415945;0.46993706;0.021025008;-0.041734096;-0.040958196;0.5007948;-0.2543869;-0.050250992;-0.28251234;-2.7029536;-0.64073557;-0.27050868;0.23541903;0.04264927;0.008741851;-0.52565116;0.018265039;0.29862362;0.046305396;0.23046781;0.17716433;-0.16030319;-0.92290545;0.7958671;-0.033982765;0.18805102;-0.037922747;0.21642403;-0.1758091;0.041663334;0.0952303;2.3152266;-0.2021091;-0.16608173;0.4214132;-0.09159562;0.26158234;-1.3765622;0.0032056754;-0.11847743;-0.16206154;-0.031142164;-0.05882608;-0.06624788;0.07675139;-0.07165789;-0.048108935;0.13920219;0.07027793;-0.03060399;0.011858384;0.9127139;0.03339849;0.03426259;0.12544724;0.09976752;-0.10662232;0.28087014;0.01126905;-0.27505735;0.0073205084;-0.080774;-0.017273847;-0.16041704;-0.8947554;-0.09501234;-0.0038504093;0.005371593;0.19073048;0.10805785;0.08472811;0.8516309;0.1729773;0.17745197;-0.010878382;0.0070174932;1.3068287;0.40257093;0.070322976;0.20177992;0.0845035;-0.118042015;0.42270175;0.23779981;0.09411866;0.06968698;-0.2659637;0.36965036;0.26477426;0.084997386;-0.016552165;0.21562824;-0.43906283;-0.032979775;0.56071883;0.22309491;0.21381351;0.08481566;0.76463675;-0.21659997;0.3823808;0.4737444;0.1298995;0.044291534;0.017206285;-0.02586813;0.009888671;0.013100548;-0.0021306616;-0.82648003;0.5016392;0.2129388;0.072325446;-1.9156327;0.028734025;-0.055874325;-0.2557114;-0.033550907;0.12923397;-0.055181224;-0.04952536;-0.15493186;-0.22717987;-0.09120015;-0.121256255;-0.03303496;-0.22086857;-0.08530812;0.027151925;-0.47127894
0.5892366;0.03942862;-0.05787794;-1.6088004;-0.16833511;-0.051745247;0.07767166;2.3302646;-0.2250407;-1.3878976;-0.05012707;0.8084425;-0.09474794;0.46445158;-0.0065499675;-0.1801691;-1.6426241;-0.012668864;0.024344388;0.06549812;-0.104631186;-0.10289757;-0.09105493;-1.1859288;0.027132139;-0.020130293;-0.033764426;-0.082960576;-0.24568474;-0.0068099685;0.043156978;0.13861416;0.11412858;-0.009050172;0.6824942;0.1396403;0.032790966;-0.049434707;-0.013098647;-0.05138833;0.44465268;-0.58352554;-1.4963125;-0.0073702987;0.1044054;0.09336425;1.1876451;-0.061313715;0.78241926;0.7647285;0.28739372;0.05611047;1.8761178;0.042785354;0.10149883;1.4729341;-0.071233496;0.016524395;-0.4625631;-0.007089778;0.03574062;0.34599993;-0.0536448;-0.004911763;0.06623955;0.03394014;-0.11493535;0.05150498;0.035738014;0.013245522;-0.07437407;0.06441226;-0.020036964;-0.044770345;-1.7322837;-0.053736214;0.35712802;-0.7301772;-0.64085716;-0.034698613;0.11203029;-0.017027378;1.0092193;-0.07043241;0.41253117;-0.03162345;0.040767133;-0.22024451;0.031040687;-0.0012421025;0.025395885;-0.24508907;-0.07386899;0.022388065;-0.008567075;0.07504146;-0.3142435;0.19617902;0.76535636;0.03651315;0.3169334;-0.022651333;0.14096288;-0.21188413;-0.031806383;-0.012795447;-0.11418706;0.020855736;0.01727871;-0.38103074;0.086928494;0.040926553;0.039612032;-0.06571935;-0.13374911;-0.04843417;0.00831258;0.1432329;-2.1877062;0.04746949;-0.01701031;-0.07556708;-0.6907418;0.12711547;-0.037036285;-0.040347237;-0.102969825;-0.24856354;-0.07600764;0.04354784;0.0008139581;1.3112904;0.04164658;-0.092832364;-1.2268684;0.054071113;0.12788697;0.18432921;0.0018876492;-0.11215801;-0.042676523;-0.031405203;-0.07022499;0.11943412;-0.0005886119;0.034780186;0.5864688;-0.025804924;1.0376332;0.11986517;0.17535251;0.33456728;0.023539862;0.25845346;-0.0828035;0.00713393;-0.4400972;-0.03149536;-0.31209928;1.0903786;0.051223896;-0.040831883;-0.20914543;-0.9029876;-0.86755455;0.05346301;0.4230789;0.0688756;0.0791243;-0.106113695;-0.3297491;-0.02325817;-1.6843033;0.08872652;-0.50434244;0.054956444;0.009002015;-0.09877404;0.42341754;0.20678529;-1.0195184;0.24099217;0.119320646;0.20838532;0.38185224;-0.041709732;0.11201416;-0.01620756;-0.40751126;-0.0019919674;0.0146625135;0.122062124;-0.068646856;-0.014781022;0.90337765;0.5013254;-0.0096512595;-0.057904776;0.047696956;-0.7426494;-0.03517084;-0.06037417;-0.027474295;-0.027414085;-0.36743551;0.051559266;0.17714627;-1.3025995;0.096856534;-0.13905998;0.08423751;-0.046186943;-0.35057282;-1.0566609;-0.024241287;-0.119252436;-0.47970855;0.68163663;-0.1663961;-0.00012724534;-0.01553269;-0.9331605;-0.5156393;-0.042219438;-0.026143782;-0.0028846085;0.12315439;-0.08517687;0.023550104;0.2801978;-0.02966762;0.013662574;0.061009057;0.11611429;-0.050500695;-0.009503199;-0.03114265;0.04952378;0.052340627;0.3602728;0.17828897;0.054097366;0.03347736;-0.022291243;0.1511485;1.0301436;-0.10624423;-0.0778095;0.09985042;-0.0996972;2.2979767;-0.2966502;0.06300144;0.09057637;-0.028364062;0.9676442;-0.19652948;0.019106446;0.04647874;-0.7371165;0.10575189;0.06362761;0.0072432435;-0.058128975;-0.4097957;-0.015055325;0.10821569;-2.2728164;-1.73488;0.1444913;0.093468994;-0.062323242;-0.045250308;0.040626433;-0.14530197;-0.32514936;-0.9046334;0.07235738;-0.062235646;-0.10845358;-0.84030634;0.08314762;-0.1587609;-0.08880355;-0.03325026;-0.16564736;2.1076717;-0.08589581;0.12453525;0.10315406;-0.08468882;-0.16334966;-0.2458442;0.07753217;0.06606072;-0.01376657;-0.3846597;0.0010970942;0.008558055;0.113232866;0.03404727;-0.110789746;-0.043492913;-0.009350539;0.9398028;0.046099756;0.08060381;-0.015921427;-0.042038452;0.16280504;-0.014739234;-0.009888862;-0.02720316;0.10302554;-0.86932915;-0.03358799;-0.06213264;0.093494475;-0.09580999;-0.03950244;-0.065937385;0.054286677;-0.0075651775;0.17508388;0.044660177;0.079380095;0.027034523;-0.0027418863;0.019830469;0.028625788;-0.021313943;0.02735535;0.53883755;-0.18186082;-0.02010169;0.00020660076;0.19175373;-0.022102812;0.23340797;-0.051129192;-0.10084591;0.031280264;0.24119037;0.039248317;-0.025599008;0.029081076;1.3550538;-0.23887984;0.056070365;0.05819408;0.020955268;-0.06482723;0.014785058;0.11000586;0.07134399;0.0018641367;-0.0132739805;-0.086211845;-0.13995805;0.00079554773;-0.37431055;-0.023845423;0.14307277;-0.0055495272;-0.025499038;0.022238621;0.025542237;0.15614933;1.1970878;0.100917466;-0.169591;-0.07437113;0.19499502;-0.18998726;-0.0035078467;-0.012578448;0.045341004;-0.89750475;-0.0319577;-0.5660891;0.046157174;0.036773417;-0.05146916;-0.04659801;-0.11095964;-0.019976605;-1.7929859;-0.030521376;0.027878072;0.02424106;0.03714123;0.120340444;0.00034893787;-0.08233454;-0.16896036;0.04531872;-0.019523498;-0.6902617;-0.7785019;0.08863595;0.051641665;-0.010520411;-0.049539663;-0.11875846;0.1186093;-1.102653;-0.065600164;-1.6734928;-0.12984137;-0.024550779;0.40610677;0.69078183;0.09285926;0.07180518;0.052889567;-0.121499516;0.008137954;-1.4191849;-0.051885985;-0.06862546;-1.315361;1.7584542;-0.8072065;-0.0017659398;-0.010133358;0.07853205;-0.005663356;0.032129496;0.2648389;-0.115243375;-0.02215162;-0.03542275;0.07850366;-0.100441106;-0.012830887;-0.10539494;0.19396353;0.009767736;-0.071566194;-0.47461018;0.08020692;0.120537065;-0.03015912;-0.076495625;-0.20620549;0.03763398;0.115091935;-0.20581797;0.12794846;0.034720033;0.013500925;-0.04845313;0.0031274117;-0.04405745;-0.08114302;-0.960043;-0.89498454;-0.6955462;0.07082117;0.06766919;0.023265716;-0.047169264;0.017672908;-0.35648394;-0.09736807;0.116511166;0.83967966;-0.12421571;-0.9710638;0.03876683;-0.24273288;0.038959067;-0.049336664;0.61164224;-0.11362274;0.18854448;-0.018246;2.1772993;-0.15096849;0.065328844;-0.77118146;-0.045310326;0.09032024;0.39147964;-0.050279286;0.12511502;-0.67791086;0.014102948;-0.06803528;0.072857015;0.019696813;-0.12102003;0.03839294;-0.009210295;0.072682485;0.010499337;0.042179476;-0.37162465;-0.04812119;-0.041284587;0.48255864;0.022165533;-1.969327;0.28423437;0.012632681;-1.0976992;-0.042951673;0.08187825;-0.017721849;-0.042176582;-0.13258971;-0.07388964;0.0150008695;0.059793513;-0.14203012;0.05417144;-0.006913008;1.0813078;0.119724706;0.29466236;0.057177316;-0.009043698;0.7268535;1.2083215;0.018298397;-0.017000895;-0.049662035;-0.03167096;0.51767796;-0.096224435;0.16337124;0.16809805;0.08454544;0.12840192;0.093297645;0.03780074;0.078501955;0.07026806;-1.0749784;0.6362451;-0.33687332;-1.6134348;0.08179381;0.115265414;-0.7911907;1.5026213;0.1796925;0.12775746;0.09694637;0.006268477;-0.14288564;0.063789494;0.082947366;-0.006266266;0.09555951;-0.32249856;0.6005324;-0.45946538;0.04547758;-1.2645605;0.008230014;0.03080752;-1.7199061;-0.06102748;0.11071414;-0.097464345;-0.12025652;-0.043480136;-0.18616937;-0.0039864937;-0.13746476;0.014471653;0.25742954;-0.08256792;0.009684033;-0.30108842
0.063076705;-0.10314483;0.0607893;0.438145;-0.27333656;-0.0019020693;0.035755873;-0.4852046;-0.18985428;-0.22655185;-0.073448375;-0.5949322;-0.101987615;-0.05343047;0.023914099;-0.24664885;-0.68358016;0.1001893;-0.0027315193;0.23128597;-0.039766178;-0.012761856;0.06159984;0.16771491;0.06725939;0.023445552;-0.07283005;0.0064768204;-0.4265447;0.015246782;-0.08274838;-0.0440624;0.20064214;-0.040847693;0.14916155;-0.055499844;0.0030779333;-0.02117023;0.08836016;0.057414934;0.06609402;-0.44027454;-0.4445979;-0.0032148857;0.12152292;0.08231325;0.025522828;-0.08349509;-1.9386985;0.6341589;-0.37159526;0.043500036;-0.23303725;-0.10065701;0.043770973;-0.80675995;-0.034085814;0.067831196;0.20210505;-0.0049563786;-0.23446558;-0.37826315;0.058478367;-0.041100927;0.033799335;-0.056881428;0.45594573;-0.18963909;0.01766013;-0.07214572;0.006129731;-0.033692904;0.0016551979;0.04827905;-1.7813181;0.14768465;-0.044518035;-0.23458827;-0.55538017;-0.16546834;-0.024945643;-0.036440514;0.50111634;0.04025114;0.24899697;-0.06632104;-0.063154146;0.014017671;-0.047210354;-0.043103907;0.09079646;-0.23091081;-0.5400887;-0.036875688;-0.025836924;-0.031968318;-0.85336286;0.054849327;-0.32671297;0.0035527328;-1.3698379;-0.0083757;0.7718577;-0.02182117;-0.12114888;0.15552232;-0.087572105;0.3109675;-0.077237025;-0.14576991;0.03719926;0.0036080414;0.06467697;-0.010947191;-0.057704408;0.07631226;0.006082903;-2.0131626;0.39114708;0.08035099;-0.029242247;-0.019855168;-0.8062109;0.2556094;-0.06458705;-0.038956195;-0.12380399;-1.4770124;0.020332389;-0.00779853;-0.110207394;-0.42847985;0.028139822;0.036637973;0.104838066;-0.06615484;0.021240596;-2.457217;0.0038940315;-0.038061585;-0.14623113;0.041370276;0.029870726;0.0057883663;-0.0544878;0.01649532;0.4034786;0.06190927;-1.6169465;0.10649483;-0.77271104;0.011978688;-0.0676451;-0.32781172;0.023324298;0.032377068;0.14389057;-0.06535606;-0.3942996;0.048503533;0.05232755;-0.38917097;-0.4929371;-0.5511308;0.4814418;-0.043348793;-0.5085731;0.26215243;0.13646361;-0.17563942;0.35529152;0.016689686;-0.99258786;0.10588945;-0.3188081;0.05450674;0.055174224;-0.09000062;-0.98887986;-0.014626497;-1.251831;0.28256243;0.030046418;-0.112121746;0.34950584;-0.04841999;-0.11170636;0.093924865;-0.11372872;0.07364512;0.1268693;0.0084072715;-1.6731678;0.048569478;-0.2627731;0.34109637;0.05372158;-0.071636155;0.018608037;1.0590909;-0.0043283203;-0.03335263;0.062315583;-0.046758946;0.23840664;0.023727272;-0.6100112;0.14894517;0.012321967;-0.22876506;-0.0051079807;-0.036083348;-0.42293608;0.1702123;-0.051317096;0.5483968;-0.39348087;-1.9537152;-0.41532618;-0.02536317;-0.045505024;-0.14954665;0.07431335;0.032835286;-0.09471276;-0.07588505;-0.059060525;0.041732173;0.10958835;0.10961194;0.049845893;-0.013921043;-0.34994102;0.2255026;-0.08112343;0.015276322;0.0012299329;-0.14541703;0.05660835;-0.86011785;-0.8933756;-0.04874341;-0.050996445;-0.08563756;-0.025647027;-0.98597986;-0.003995535;0.078062795;0.03648929;-0.24507464;-0.086414084;-0.47366634;-0.0202005;-0.016262006;0.023594836;0.3950772;0.03509238;0.045422476;0.03029793;-0.1263062;0.03926011;-0.1065823;0.07054358;0.14564022;0.91554445;-0.11728848;-0.12788828;-1.231254;-0.88436764;-0.10477378;0.25456583;0.034915384;-0.03295713;0.30697262;-0.26241547;0.07029465;0.20483296;0.07083459;-0.059788905;-0.19363755;-1.4395828;0.050444793;-0.31676272;-0.04947342;-0.05563534;-0.113474384;-1.197816;0.007990809;0.033981454;0.24493963;-0.26980573;-0.15659691;-0.25542954;0.046165794;-0.41702342;-0.0007218129;-0.12718986;-0.078527234;0.03666126;0.038519997;-0.008146012;-0.055648997;-0.07690963;-0.0861467;-0.54343843;0.06843329;0.062206827;-0.016020207;-0.046758007;0.23670644;-0.023118442;0.07255335;-0.0012792569;0.32253477;0.0062065166;-0.024833217;0.07289953;-0.037695147;-0.077129975;0.043763854;0.041643705;-1.0616326;0.13027185;-0.14840864;-0.024850896;0.09317344;-0.04309769;0.05341862;-0.022632414;-0.081145234;0.019245993;-0.067429595;-0.25022328;0.050120372;0.18061307;0.09844386;-0.27473408;-0.06496496;-0.15806477;0.08477929;0.0018419176;-0.07982997;-0.9533639;0.07720844;-0.074984014;-0.016901586;-0.4189428;-0.3087049;0.082587875;-0.030195395;0.15106256;0.023809612;-0.07415864;0.07535132;0.08556533;-0.022433082;-0.024366979;-0.027073422;-0.20635815;0.009698563;-0.3989628;-0.019772468;0.32345936;-0.10730884;0.885995;0.070479035;-0.069038026;-0.19939965;-0.3141681;-0.03827883;-0.43745136;-0.08653236;-0.030725438;0.14669538;-0.03460719;0.056627836;-0.04306122;-0.60985076;0.004851298;-0.39566755;0.14200778;-0.020044986;0.033549674;-0.036107123;-0.098280355;0.025684385;-0.3159476;0.13909242;-0.06636194;0.016576225;-0.030956635;0.19315903;0.010716426;0.026763024;-0.7905233;0.23541184;-0.08183467;0.2911367;-0.09964061;0.017622367;0.0043447665;-0.023125084;-0.33919877;-0.2122708;-0.7105231;-0.06670586;0.043992057;0.22696967;-0.2749165;0.03775752;0.07751498;0.32074496;0.15498793;0.070928365;0.0021438047;-0.22940184;-0.054317843;-0.016743725;0.020209426;-0.0952749;-0.64428145;-1.1144946;-0.6771402;0.04427879;-0.44464695;-0.2628386;-0.06080364;0.06728905;1.0271125;-0.015997699;0.06443852;0.04707906;-0.04979783;0.020528806;0.07789954;-0.006223789;-0.010141041;0.022251604;-0.06414469;-0.1092235;0.0663188;-0.07845811;0.011031934;-0.080768;0.37264466;-0.0014159351;-1.4780248;0.35213092;-0.012340229;-0.06365753;-0.04229652;0.47459894;-0.20375878;-0.10198355;-1.4499396;-3.5052984;-0.6367481;-0.72648853;0.14059196;0.07375121;0.053191446;-0.3439314;-0.043212175;-0.016302455;-0.01972405;-0.19030674;0.49442926;-0.17206016;-1.0480634;0.10725291;-0.22124037;0.072458394;0.025358649;0.5143943;-0.12298809;0.39169592;-0.020338995;1.5570788;-0.009766756;-0.3137707;-0.5724012;-0.04468967;0.16131717;-0.60138977;-0.010609849;0.04151362;-0.62224394;-0.0548705;0.0483631;0.06145628;0.08213899;-0.06693134;0.025780492;-0.030952126;-0.11666764;-0.08123977;0.0014084604;0.41684735;0.028550671;-0.049330555;0.46367845;-0.012125972;-0.21569695;0.20588471;0.0073077874;-0.86999613;0.052986834;-0.17362761;-0.0720722;-0.08063221;-0.6991627;-0.058594186;-0.120550595;0.024899308;-0.23281717;0.030008294;0.19277795;-0.23869671;0.09637468;-0.10276615;-0.041527037;0.022127787;-0.11062987;-0.10760585;9.447708e-05;0.069684446;-0.04411173;0.025109423;-0.8519174;-0.08290691;0.091473415;0.020926174;-0.5123579;0.21758854;0.17434756;0.071385875;0.07781936;0.13540235;0.22731473;0.5066211;0.20521986;-0.21832155;0.018605439;0.047434364;0.30223414;-0.7139021;0.9012134;0.26599374;0.3185427;0.03935557;-0.16918257;0.052489974;0.08964757;0.018805686;0.010547995;-1.6274457;-0.029352617;-0.88337207;-0.08125036;-0.75484437;0.036941484;-0.056855384;-0.2781889;-0.038423497;-0.045395285;0.021804998;-0.03427958;0.022665836;0.29132655;-0.044948336;0.010967031;-0.03725415;-1.8754953;0.06910867;0.05852285;-0.449005
0.034738682;0.035807252;-0.048286084;-0.838337;-0.08828475;-0.041658886;-0.049564347;1.0217141;-0.02198959;-0.8555888;-0.077637345;0.43295303;-0.0442;0.1371012;0.07257319;-0.27160624;-0.55122966;0.10906089;0.052627176;0.18599421;-0.015313108;-0.021369947;-0.046012327;0.19077446;0.07435065;0.06832801;0.011635703;0.0018122782;-0.2982047;-0.0077626784;-0.06288217;0.20271371;0.2636844;0.05136519;0.01984912;0.15397942;-0.07823297;-0.07606611;0.038718976;-0.031897403;-0.042207893;0.13364966;-0.72956383;-0.014952328;0.013864262;0.17612442;0.66869855;0.073487625;-0.8798901;0.38200903;-0.17103305;-0.067398496;-0.076382995;-0.061461855;0.00027298252;-0.3894085;-0.06975193;-0.009802774;-0.6647563;0.060480148;-0.09080506;0.38289288;0.072100714;0.005578955;-0.007540207;-0.09934253;0.11021615;-0.47738597;0.021625193;-0.04618593;-0.06636574;-0.037315153;0.038403746;-0.027568446;-1.4640797;-0.11207882;0.48578516;-0.22218068;-0.94781166;0.07245148;0.117094524;0.049951315;-1.0684634;0.0059765596;0.054249913;-0.07580401;0.08895162;-0.6022079;-0.09300639;-0.04578804;0.07674844;0.039703205;-0.3683197;-0.03343558;0.00958696;-0.0305365;0.076891765;0.0062353294;-0.16708146;0.03827619;0.15959083;-0.011609279;0.4175431;-0.031840615;-0.15864396;0.054188903;0.0055405386;0.15076971;-0.03615291;-0.062510215;0.0123792915;-0.05786633;0.037646797;0.003391056;-0.102689706;0.0625318;0.008544847;-0.79746425;-0.7305947;-0.07641032;0.015475401;-0.05527645;-0.056076612;0.18041201;-0.029732984;-0.2080908;-0.03239991;0.49632758;-0.0037866968;-0.021895183;-0.017080083;-0.39007035;0.22700223;-0.09425821;-0.3204978;0.014586057;0.004191608;-0.8475184;0.0679067;-0.042041358;-0.12361179;-0.008386878;0.045259595;-0.035572223;0.042897135;0.027493842;-0.27187088;0.0069893016;-1.0244606;0.11749682;-1.2741356;0.36584046;0.002959721;0.0062019774;0.012377042;0.10785972;0.2552229;-0.18442057;-0.008093329;0.2838257;0.022280738;-0.4174349;-0.21619031;-0.64843434;-0.5189313;-0.042306535;-0.46639132;0.21612158;0.24334411;0.1631402;-0.8570981;-0.014384305;-0.8424543;-0.02446933;-0.4502958;0.04984839;0.17373134;0.0174264;0.17658861;-0.016574388;-1.4328848;0.26319954;0.022956839;0.12234269;-0.39452642;-0.017305175;0.07673142;0.15385623;-0.011780281;0.046211448;-0.36649638;0.08645872;0.57475966;0.05259827;-0.3170147;0.8321213;-0.06697738;0.04209136;0.031106386;-0.94109213;0.06571458;-0.033463046;0.022227587;0.015064996;0.056523643;0.10294476;0.83315575;-0.8964615;-0.07609625;0.06324029;0.11928543;0.080198474;-0.4800781;-1.067728;0.052929305;-0.3279065;-0.7277212;0.25011364;-0.4353003;0.013401407;0.023791047;-0.1278107;0.0017202836;-0.07915567;-0.037702173;0.041627947;-0.016834753;-0.09669037;0.2928058;0.0967481;0.062435567;-0.05402907;-0.058498822;0.30562496;0.05305435;-0.05623013;-0.08086397;-0.025345458;-0.014244723;-0.71687156;-0.504408;-0.036431562;0.08933412;-0.08397071;-0.46855277;-0.33494455;-0.0028806042;0.09870408;0.13694552;-0.19020061;0.84261936;-0.086641304;-0.09011034;-0.007826043;0.06937666;-0.13968989;-0.038372327;-0.03288671;-0.07872355;0.18637778;0.02181376;-0.07972146;0.043484136;-0.061149172;0.34956026;0.0739894;-0.056429945;-1.3869247;-0.33338323;0.058945417;0.28691107;-0.033818115;-0.047545373;0.26743457;-0.3187069;0.52672684;-0.045357168;-0.021787379;-0.09938524;-0.34515718;-1.4398181;-0.024385786;-0.2844911;-0.018180212;-0.08014603;-0.18187514;-0.36063832;-0.024904275;-0.0066802246;0.046402942;-0.21896924;0.25478065;-0.19368672;0.025998896;-0.046759833;-0.042223122;-0.38497522;0.039457843;0.019645069;0.05587657;0.028168444;0.06805643;0.035226412;0.029562755;-0.3328116;0.049291626;-0.032972313;-0.009659213;-0.07660405;0.1881313;-0.045684762;-0.031213509;0.014541616;0.3531966;-1.5885994;-0.06242858;0.017938899;0.060722023;-0.058156498;0.053270627;0.017967;0.1853889;0.077700466;-0.26255354;0.0011806828;0.1489154;-0.47123557;0.05441847;-0.081333525;0.057823464;-0.06251217;-0.0735457;-0.5673897;-0.041903168;0.16027388;0.04861949;0.1424502;0.054303166;0.34091753;-0.015884625;0.047732208;0.056640387;0.17612259;0.12799741;-0.09307142;0.040492468;-0.28529474;-0.3015304;0.0627205;0.09472897;0.14554738;-0.054325666;0.051097874;0.002010664;-0.020256083;0.07686524;-0.05295233;0.056251682;-0.0380006;-0.0010626316;-0.8867899;-0.072519444;0.30961516;-0.13268635;0.110584594;0.072362974;0.049366035;-0.10747665;0.30768567;0.06275105;-0.317949;5.631528e-05;0.1760244;0.1976895;9.432667e-05;-0.052025985;-0.0035823197;-0.42293456;0.015889501;-0.2580227;0.058809604;0.02166616;0.019136433;0.04513869;-0.085204355;-0.052002687;-0.24434663;0.05039153;-0.103387974;0.008744197;0.060467172;0.21347314;0.061116867;0.017566647;-0.864856;0.256125;-0.112502165;-0.37857065;0.08047227;0.10037528;0.050444763;0.00241594;-0.36808732;-0.10551316;-1.5676895;-0.1623566;-0.08586763;-0.32644236;-0.3009076;-0.04979472;-0.14974771;0.31109402;0.09137506;0.002430483;-0.017193286;0.022996673;0.07205651;0.87810427;-0.10745359;-0.012170175;-0.01322334;0.1640702;-0.183554;-0.019255778;-0.35371318;0.028072717;-0.06277322;0.03437004;0.59258646;-0.09650178;-0.064138845;0.0037093607;0.09603454;-0.002847368;-0.032969065;-0.08126129;0.18294644;-0.06279405;-0.09024613;0.00054536853;0.08628039;-0.015195501;0.059073582;0.016754845;0.22484414;-0.07576548;-0.6096875;0.4795858;0.08559751;0.015013345;-0.100070335;0.1467851;-0.0851268;-0.09617193;-0.3795886;-0.43460292;-0.4432516;-0.34012935;-0.0046420456;0.024011336;-0.0012321626;-0.38454512;0.014610227;-0.10272974;0.039531164;0.17269692;0.13228603;-0.26132238;0.15625596;-0.120602414;-0.3075962;0.0635229;0.03501142;0.15851401;-0.08413419;0.1736355;-0.022203691;-0.17960353;0.025906464;-0.063289784;-0.32485685;0.008981294;0.07991563;0.37299588;0.035295215;0.05629834;-0.043546457;0.008358328;0.03339693;-0.057188824;-0.04105053;-0.341932;-0.0505123;-0.0035983608;0.08304834;-0.009360603;0.051022846;-0.1296575;0.079599254;-0.019002276;0.31527996;0.071057856;-0.1744298;0.64414006;0.050508622;-0.76858455;-0.024855657;0.012339488;-0.1195038;-0.073723346;-0.052459914;-0.05014026;-0.08482463;0.047438446;0.22957428;0.08040128;0.19419846;-0.26905385;0.024373598;-0.24834678;0.05523977;-0.08728642;-0.7061265;0.66011006;-0.07813829;0.041231755;0.055671148;-0.020735376;0.09833781;-0.28820524;-0.019795138;0.08827886;-0.85730684;0.22462563;0.07625276;-0.038605902;0.0117508955;0.12894829;0.5552374;0.35497102;-0.27261347;-0.070718855;0.11309995;0.06574518;0.26171425;-0.367188;1.3158592;0.2869486;0.1980974;-0.053326286;0.26255384;0.063778594;0.056283846;0.07638432;-0.007484661;0.46430585;-0.18734504;-0.33080754;-0.07867232;0.50611734;-0.06509608;-0.092292845;-0.636306;0.005197635;0.0065867696;-0.09935793;-0.09553469;0.031165624;0.20026295;-0.012041446;0.002596984;-0.012660723;-0.8399064;0.03303301;-0.03145625;-0.28226858
-0.02264169;0.017546264;-0.07878843;-1.5768024;-0.06214302;0.039110858;0.021434516;0.5758418;-0.91338897;-1.2900486;0.0704827;0.28344578;0.100532055;0.12004272;-0.04443869;-0.3575934;-0.703556;0.09621649;0.07100097;0.27299526;-0.09630052;-0.021393234;0.08410899;-0.8131606;-0.055693895;0.050362986;-0.028808016;-0.034159258;-0.1319139;-0.018936452;0.074617654;0.36438817;0.15614326;-0.042100627;0.18520232;-0.20501728;0.029892957;0.018068744;0.0050647478;0.04887679;0.27648377;0.1636761;-1.296758;0.050266378;-0.03491297;0.028776236;0.794248;-0.033152662;-0.4880089;-1.1093622;-0.3458324;-0.0873913;-0.76086366;-0.070620395;-0.5074878;-0.38862237;0.054017343;-0.016006395;-0.9657536;-0.027496379;-0.09046575;0.3489286;-0.022724813;0.021896737;-0.066169664;0.07008903;-0.44274518;0.4616693;0.030970596;-0.012726199;0.012241589;0.028279979;0.0060923663;0.024783457;-0.50015664;-0.112969115;-0.2136699;0.24504744;0.56741494;0.24233219;-0.0780503;-0.042031392;-0.174594;0.05744785;1.174357;-0.06453485;-0.084170505;0.045410953;-0.013762761;0.021109935;-0.08482162;-0.38218534;-0.922058;-0.06787414;0.07078107;-0.0055295434;0.008681445;-0.06786023;-0.61886424;-0.0074683363;-0.43656427;0.0016970593;0.10626867;-0.03563778;-0.13516632;0.075280726;0.016084908;-0.41438717;-0.019927695;-0.07974219;0.010935085;-0.046080124;-0.010800828;0.025960285;-0.03400916;-0.07838427;-0.08992068;-0.2422783;-0.22316973;-0.13026796;-0.0084183235;-5.2111885e-05;0.10788071;0.22582339;-0.046105664;-0.19236074;0.061592635;1.3970443;0.07204;0.048264798;-0.037545826;-0.29841635;0.27402794;-0.049649894;0.50452465;0.0004827772;-0.002806015;0.10329775;0.046816584;-0.054550365;-0.09463061;0.06513368;0.0039255745;-0.10567329;0.1379591;-0.02549083;0.65249705;0.033204164;-0.4203777;0.032653797;-0.54352975;0.43688005;0.05882905;-0.11794842;-0.010896536;0.0041077114;0.3677649;0.19099832;0.15480162;0.21275681;0.03428966;-0.4257271;0.08366612;-0.4463;-1.4277574;-0.063406065;-0.960326;0.13790834;0.22872931;0.048561454;-0.91784453;-0.13645214;0.17667055;-0.09181469;-0.48958617;-0.063167855;-0.09666554;-0.08550994;1.0503682;-0.15975338;-0.13969792;0.6019097;-0.06513737;-0.2614983;-0.056865185;0.0027099836;0.06483238;0.09714339;-0.05105404;0.13161857;-0.28101528;0.0056338003;0.8385291;-0.031006886;-0.34955755;0.5521618;0.04039154;0.0017112342;-0.016466904;-1.2637011;0.019418007;-0.041299943;0.091245025;-0.039427318;0.39310983;0.033859964;-0.27471104;-0.3745267;0.04937694;-0.35806966;-0.00435873;0.029600523;-0.18026368;-1.2034067;0.044034068;-0.8594912;-0.3284942;1.9963773;-0.108159006;0.009984078;0.011343724;0.41654208;0.058552966;-0.044078838;-0.05717799;-0.06576734;-0.048994772;-0.047483813;-0.42543665;0.018446952;0.035798393;-0.14986971;-0.037160523;0.31997195;0.056253236;-0.02070861;0.028840704;-0.18429242;-0.05011486;0.46205342;0.12096771;0.05066597;-0.12697637;-0.021133691;0.19423756;-0.30180782;0.01590053;0.09439912;0.016844556;-0.23656482;-0.10313955;-1.1826168;-0.023033684;0.007948371;-0.056203388;0.25208026;-0.054695226;0.037245035;-0.087866135;0.31149337;-0.15028971;0.031028911;0.05815402;0.13612312;-1.7542398;0.21881121;0.1712807;-0.76554674;-0.30523792;0.058853894;0.1905544;-0.048195057;-0.012641929;0.11600284;-0.400672;0.18135819;-0.062929735;-0.06515529;-0.0142124705;-0.17760023;-0.5697503;0.048120223;-0.35069317;-0.014096433;0.030810118;-0.20006464;-0.13474701;-0.057286207;-0.045275595;0.072907925;-0.25477803;-0.18941943;-0.38002816;-0.0561743;-0.11019235;-0.03023397;-0.25246015;-0.06940507;-0.017860696;0.027037237;0.0639678;-0.015459549;0.03552658;-0.010622515;-0.31433865;-0.035650857;0.046436924;-0.053668287;-0.038084857;-0.6815761;-0.05910577;0.025939427;0.120937794;0.29582277;-0.7614761;-0.050601844;-0.0680046;0.038224347;0.032033674;-0.029515706;0.026086772;-0.16789459;-0.060822044;-0.4169175;0.025285065;0.061757114;0.017212851;0.13272455;0.038347617;0.033370886;0.067290984;-0.005988635;-0.3168338;0.09903835;0.03548946;0.028825771;0.11620033;0.005137631;0.1998786;-0.049246453;0.07018575;-0.053680055;-0.33991757;0.0971137;-0.058922652;0.032610767;0.014663497;-0.37156647;0.09665294;-0.11631479;0.04327705;-0.07342389;0.009221456;0.0061369077;-0.044812694;-0.01116967;-0.065986305;-0.014669394;0.0030727533;0.087985925;-0.40638968;0.061364196;0.22938699;-0.07240581;-0.0050587575;-0.07057669;-0.08136495;-0.56513834;-0.8490376;-0.10989865;-0.22538291;0.027829356;0.23147182;0.21063565;-0.066299245;0.07925751;0.025070982;1.1496601;0.084490985;-0.2943068;0.044704713;-0.08683151;0.027465155;0.015997272;-0.058117338;0.028782742;-0.121848084;0.10219984;-0.08940999;-0.30626515;0.061661355;0.19324993;-0.016163545;-0.031448066;0.43884835;0.18978311;0.012978978;0.14252013;-0.96023834;-0.13559818;-0.08681994;0.050130744;-0.20537803;-0.17742907;-0.005674839;-0.520197;-0.03877301;0.014740356;0.2806695;0.054929364;-0.4723548;0.08372476;0.014449446;-0.051957533;-0.060984895;0.0020260408;-0.0061241137;-0.14957379;-0.099389344;-0.058776904;-0.18922855;0.553057;-0.82319236;0.03180757;-0.4162336;0.466457;-0.0477717;0.012048609;-0.20449297;0.04951724;-0.00030219043;-0.0177764;0.009847138;0.02947221;-0.058587935;0.04760009;0.01033654;-0.011955913;0.06873572;-0.0700729;0.01528412;-0.055107832;-0.13861105;0.034786582;-0.000838177;-0.0596636;-2.1615357;0.17737685;-0.08409199;0.0035895703;-0.030949729;0.06265946;-0.02874597;-0.077297576;-0.4909373;0.6247854;-0.0073682056;-0.28802776;0.031720083;-0.10760956;0.081331916;-0.33911318;-0.028895346;-0.1310095;-0.0007453327;0.35013476;0.46523762;-0.0691026;-0.8677496;-0.004617761;-0.41344607;0.10390017;-0.022119649;-0.038463105;0.07621301;-0.07136065;0.0033167135;0.23092347;0.09412127;-0.07995886;0.0047368105;-0.0569045;0.006106036;0.0814639;-0.046651054;0.062397793;-0.48224178;-0.06500252;-0.013197373;-0.07758947;-0.09820629;-0.17488492;-0.048600074;-0.015732251;0.048742782;-0.027148535;-0.08409515;-0.015440329;0.08788057;0.0053491225;-0.78611875;-0.055790145;-1.6950579;0.10217064;0.091388054;-1.1440789;-0.101197906;-0.04108221;-0.020923756;-0.11083821;-0.07910458;0.010946525;-0.09485713;0.0050525526;-0.020284606;0.018367853;0.14159633;-0.36724305;-0.020786973;0.826925;0.07138472;-0.031277847;0.37248027;0.3576339;-0.076214984;-0.012585541;0.010982836;-0.061789796;-0.09513927;-0.27975693;0.14416319;-0.028718278;0.16707872;0.09973192;0.020883309;0.028144227;0.08258815;0.035472427;-0.83772075;-0.45744616;-0.6609205;-0.64981335;0.02850313;0.029581426;0.2647199;-0.3455661;-0.06698194;0.27032557;0.64938945;-0.078819714;-0.2287518;-0.045380156;0.056603353;-0.03244961;0.042589452;-1.2276092;-0.26737309;0.21660592;-0.04857061;-0.5794256;-0.010623971;-0.056748226;0.083396986;0.037207913;-0.11462682;-0.10614722;-0.03715078;0.09535072;0.4255352;0.06846548;-0.03598518;0.03979016;-0.7172769;-0.02216108;0.03287115;-0.09815695
-0.20256512;-0.08634969;0.06652024;-0.23184782;-0.034199145;-0.056961913;-0.05973851;2.1758585;-1.0754334;-0.6518744;0.047745556;0.676565;0.059077397;0.09574792;0.018725635;-0.2228018;-0.91314507;0.06339564;0.06998126;0.17897716;-0.082646176;-0.04576331;-0.05639099;-1.3765508;-0.05644095;0.031673983;-0.06300955;-0.014983887;-0.4040577;0.057824533;0.058455363;0.21542732;0.075746186;0.038898245;1.7181718;-0.018429479;-0.08034604;0.08416996;0.006393479;-0.061683964;0.520813;-0.6047476;-1.0355332;0.057200752;-0.064757936;0.055092372;0.6390336;-0.07085926;0.13308558;-0.7484285;-0.35242832;0.046420995;-0.8719125;0.041436914;0.32210207;-0.23188305;0.06842195;-0.06338889;0.620177;-0.007851634;0.047374602;0.46201137;-0.03130239;-0.017052095;-0.030327741;0.0048302743;0.06211037;0.20109275;0.023737453;0.04351103;-0.041386805;0.08271741;-0.06990022;0.0131505085;0.6573449;-0.10762774;-0.12350661;0.49761364;-0.6978791;0.21399447;-0.09515479;0.0008357896;-0.21444431;-0.035766985;0.03819075;-0.076855354;-0.014840399;-0.061965153;0.010265658;-0.0482275;0.023107268;-0.34991205;0.7075617;-0.068563275;0.07822326;0.0551554;0.003618739;0.05542196;-1.1807358;0.052882083;1.4571648;-0.078720346;-0.0036305662;0.005250917;-0.124085896;0.03328576;0.058110487;-0.90216124;-0.021402415;-0.04126183;0.09628157;0.022789456;-0.038988803;0.04875307;0.012274108;0.003397333;-0.0791582;-0.17428166;-0.24591205;0.0337537;-0.011158129;0.056243807;-1.0056133;0.16356277;-0.03467481;-0.13068427;0.072199725;0.49629536;0.04958046;-0.02392312;0.0038830526;-0.32391593;0.40159336;-0.0032659774;-0.047610015;0.029480774;0.0046264557;-0.36955473;-0.06717096;0.017327681;0.016994618;0.017835533;0.060099658;-0.106308684;0.055659655;-0.06865226;0.20282447;0.013885889;-1.4478849;-0.10634412;0.14746378;0.09152714;-0.02652333;-0.17619847;-0.04387277;-0.014408847;0.5726944;-0.22316298;0.12410812;0.6817749;0.018710425;-0.2728458;-0.38227627;-0.6418039;-1.1930174;0.03304826;0.14415134;0.21564335;-0.0030156563;-0.0062169726;-2.0396125;-0.10938316;0.57945234;-0.061185036;-0.09882367;0.06113135;0.051877733;-0.14461945;0.69405943;-0.0131360935;-0.24927045;0.7583669;-0.07091241;0.8393328;-0.087004036;-0.07872676;0.07992712;0.124424115;-0.02237088;0.103236265;-0.28284556;0.12526083;1.0246828;-0.06234538;-0.28987542;0.044433106;-0.047085017;0.0059932913;-0.052733455;-1.1276281;0.0009809665;0.055999506;-0.065766126;-0.033870056;0.08003132;0.076919064;0.582917;-1.2844402;0.07087653;-0.18603304;0.02644852;0.038281064;-0.48337376;-2.4413433;0.035410468;-0.46829838;-0.30607593;1.2562543;-0.5138652;-0.007913569;0.026390856;-1.0384573;0.09413432;-0.013150633;-0.029493114;-0.04452552;-0.11365152;-0.0011641032;0.0290516;-0.019514702;-0.0946325;-0.07932669;0.01248189;0.35489792;0.01275874;-0.0031788473;-0.0614226;0.12957154;0.041615978;-0.31269452;0.6177968;-0.038202595;0.001211614;-0.03233279;-0.3011262;-0.22441696;0.059341766;0.16615519;0.101479374;-0.079002194;-0.32627025;-0.37701544;-0.0020071766;-0.0799476;-0.046893;0.2848972;0.03379122;-0.030770842;-0.06349111;0.16623272;-0.0011196597;0.031185688;0.017156225;0.39901254;-1.561493;0.11127197;0.25689352;0.2941376;-0.51276267;0.040965986;0.1185536;-0.044744857;-0.06778381;0.061047986;-0.26864514;-0.5819164;-0.52571154;-0.06424142;-0.017248645;-0.09705289;-1.2035469;0.034372404;-0.32591385;0.0031322457;-0.0072174612;-0.094603226;-0.23951842;-0.06234635;-0.046255503;0.009436348;-0.19191791;-0.39222988;-0.23936218;-0.079500385;0.05940287;0.01448463;-0.24974227;0.06709934;0.03397232;0.02410936;0.027547756;-0.22189794;0.015296028;0.008392392;-0.15797219;0.03314596;0.02325524;-0.01600003;0.044732764;-0.6624306;0.032987945;0.026914285;0.13557613;0.34975806;0.3955195;-0.040726952;-0.07459761;-0.0775862;-0.044007007;0.0327097;0.020262022;-0.28933278;0.031383105;0.13031946;-0.09837466;-0.008257732;0.07116651;0.08808839;0.01145073;-0.01999037;0.087406315;0.030932821;-0.059350383;-0.0067609046;0.117035516;-0.026342774;0.18342854;-0.01444533;0.5633371;-0.10691109;0.052871875;-0.08375302;-0.24404123;0.029108377;-0.0901905;-0.022151165;0.6777651;-0.234315;-0.045775704;-0.012273486;-0.057944365;-0.018113248;-0.012718042;0.023241347;-0.024404496;0.05415085;-0.033507213;0.055249877;0.044851102;-0.019890774;-0.3970051;0.013276709;0.30889654;-0.092323035;-1.1513224;-0.023643613;0.040768094;-0.06260714;-0.36170867;-0.103166565;-0.28795785;0.05323085;0.15628171;0.105380334;0.045275386;-0.053755775;0.027540404;-0.12773153;0.13910383;0.27610666;0.06242301;-0.04593611;0.04592908;0.12969278;0.08493931;-0.0045321514;0.87103283;-0.051411632;-0.034060504;-0.18480137;-0.03714334;0.09853425;-0.030507537;-0.023130842;0.058894143;0.22093742;-0.012525614;0.049141202;-0.85375327;-0.11248391;0.046956748;0.024585666;-0.19904096;-0.3955819;-0.7929406;-1.1304383;-0.044792295;-0.09813778;0.26119018;-0.009743449;-0.25670338;0.09862241;0.03877118;0.02695016;-0.0026314314;-0.01613969;-0.016152095;0.015550837;0.039552398;0.06221643;0.0029255424;1.6994821;0.16415155;0.045108564;-0.26579148;0.3860217;-0.041808035;0.02052268;0.37016326;0.00061109464;-0.037614584;-0.038751215;0.017256632;-0.071259715;0.023538254;0.038276024;0.13599887;-0.07521601;0.07739152;-0.22717978;-0.04829901;-0.0882732;-0.044222523;-0.046875596;0.18270059;0.04242611;-1.1602852;0.0840769;-0.04415685;-0.09455809;-0.09935845;0.093011476;-0.086409606;-0.086650506;-1.3699443;-0.73093253;-0.575516;-0.1618254;-0.01667544;-0.07885424;0.0039251037;0.025095318;-0.055898696;-0.43306872;-0.023253424;0.3207532;0.23626673;-0.08742684;-1.3921951;0.17277491;-0.30768484;0.06120756;-0.059946544;0.17325036;-0.0076370663;-0.025474027;0.023777675;-0.14965715;0.08456623;0.10170069;-0.95418376;-0.007017896;0.0844298;-0.24739788;0.055813543;0.08575831;-0.45383462;-0.030777762;0.045954;-0.03392923;-0.13122782;-0.1302401;0.022031486;0.013886852;-0.088842295;0.06108944;0.010232966;-0.21095544;0.048902713;-0.008664692;0.3165354;-0.12677671;-2.3972545;0.19894682;0.042499837;-1.6360638;-0.11690958;-0.05051911;-0.106147796;0.0055506495;0.514202;0.04754551;0.006978455;-0.0905544;0.30390736;-0.074914254;0.059219424;-0.31028914;0.02861498;0.7109516;0.083073035;0.050564043;1.9061762;-0.060817685;0.014541915;0.04875403;-0.08099562;0.07229766;-0.15376809;-0.37001196;0.06429414;-0.028869245;-0.32533297;0.13778935;0.053428482;-0.017968401;0.028703589;0.06988685;-1.611037;-0.29692346;-0.1034672;-1.3139386;-0.1033181;0.005258257;0.5627409;-0.14275719;0.6243655;0.06110436;0.85565233;-0.04136897;0.18193536;0.0048901755;0.0641255;-0.038209207;-0.090591446;-1.248993;-0.035830427;-0.0031170503;-0.01717762;-0.001476199;0.039471295;-0.008063977;-0.53916496;-0.088566475;-0.041086186;0.024225093;0.020059882;0.073188566;1.0884607;-0.029240312;-0.03869405;0.01142427;-0.990884;0.029724844;0.000102075384;-0.31477734
-0.24770841;-0.063396946;-0.0030375402;-0.9361474;-0.08847145;0.008686299;0.03998499;-0.1750333;-0.30451655;0.7344093;0.017990835;-0.18071087;0.02322004;0.3628545;0.052349467;-0.16239502;-0.06795563;-0.016830472;-0.022491101;-0.0012994522;-0.0067866542;0.07703518;0.07214558;1.1687729;-0.057452656;-0.010750606;0.061335843;0.00058522535;1.9030769;0.14346679;-0.036206353;0.49617168;-0.15926674;-0.007537992;-1.1529783;-0.3699433;0.01671224;0.086513124;0.0023931048;0.027341537;0.41560465;-0.55823773;0.121908985;0.029062046;-0.16389507;0.013131985;0.5190402;0.04560467;-1.1980233;-0.17441231;-1.1693771;-0.029006796;-0.67451674;-0.052019823;0.07233339;-0.34388345;0.07487063;-0.05158383;-0.5960038;0.039039202;-0.062989905;0.49237552;-0.05088028;0.16857246;-0.057750955;0.030872958;0.28790393;-0.40699542;-0.021376295;-0.06816255;0.065241404;0.06676461;-0.21787679;0.1804657;-0.76339173;-0.10580538;-0.1472379;-0.49035504;-0.74578;0.5149774;-0.09376344;0.01575716;-2.1107302;0.026413945;-0.19971764;-0.04493201;-0.14071104;-0.26561186;-0.053939078;0.1068391;-0.22942069;-0.7263099;-1.4542454;-0.01782289;0.018378574;-0.04392479;0.12389057;-0.154412;-0.8229646;0.15880457;-0.33761847;-0.07026995;-0.034607213;0.21924424;0.06697063;-0.23560832;0.00964812;0.15102378;0.043813396;0.3385883;-0.04760756;0.049610212;0.021897199;0.08058731;0.07301856;-0.03314061;-0.16944487;-0.44902062;0.42616203;-0.13497145;-0.054815535;0.0050803386;-1.2067862;-0.1834587;0.03031035;-0.16159967;0.095509715;-0.0834863;0.13056841;-0.06548261;0.04606209;-0.34260574;0.34619293;0.018666131;-0.24856012;-0.03825063;-0.27252564;-0.5269413;0.067957714;0.0047462527;0.015525196;0.1547179;-0.024134234;-0.13300148;-0.027799318;-0.008022182;-0.9869876;0.011070807;-1.030256;-0.3192271;-0.77347696;0.3023545;0.086112335;-0.086926274;-0.014712535;0.0034189068;0.29607698;-0.8209614;0.18571985;0.20749277;0.07083663;-0.20871608;0.037524447;1.4304547;-0.12626402;-0.015010059;-0.33811936;-0.050963763;-0.104730435;-0.2505319;-0.94623524;-0.15104672;-0.74293655;-0.32360923;-0.071137704;-0.034663178;0.022967678;-0.13315889;-0.30237034;-0.06915167;0.43374628;-0.037380744;-0.14776063;-1.4854385;-0.5599951;0.034015775;0.1480451;-0.13682817;-0.20390587;0.18736608;-0.37634888;0.21071394;-1.5016629;-0.021793587;-0.38269913;-0.02806962;-0.007509643;-0.04580549;-0.015763968;0.34755626;0.106825545;0.055078667;-0.04000724;0.047475383;-0.18358165;-0.13009626;0.9083192;0.6637729;-0.06391321;-0.33159313;-0.23785277;0.21938698;-0.16366841;-1.0527108;-0.055418964;0.3122752;-0.5299547;0.38252646;-0.2929905;0.04873392;-0.07458292;-0.30326235;0.0439667;0.024003262;-0.15425433;-0.14602561;-0.3461738;-0.020222785;0.04715709;-0.17798753;-0.04199338;-0.08137481;0.33087942;0.17812817;0.07794501;0.16212235;0.041940995;-0.69170666;-0.017846048;-0.64045036;0.97717595;0.0052858456;-0.20575713;-0.0772837;-0.34581268;-0.096414626;0.1898259;0.20080774;-0.15124549;-0.03891549;-1.0409858;1.885782;-0.039891068;-0.021221455;-0.0988819;0.64893067;0.35334334;-0.018784678;-0.061552785;0.14188617;-0.17908435;0.039114714;-0.134151;-0.3154879;0.8424278;0.15111777;-0.27089536;-0.8818681;0.004039307;-0.09434503;-0.11377906;-0.04480333;0.009683277;-0.100531705;-0.2068487;0.07257104;-0.58899313;-0.048288595;0.09213538;0.057624485;-0.57465756;-0.041436393;-0.2703973;0.053461462;0.008093922;-0.08232365;-0.33278504;0.106216475;0.025358306;-0.043582767;-0.14177592;0.62831414;-0.4673782;0.016877824;0.2035008;0.05777637;0.032712806;0.058147114;-0.0064961454;-0.18886828;0.024292408;0.11526633;-0.06562021;0.035126798;-0.20930198;-0.060928885;0.2407019;-0.006970705;-0.05321787;0.58581555;-0.026897082;-0.095437236;0.26144037;0.27501604;-1.3643968;0.009433644;0.061906647;-0.0936;-0.049640995;-0.02522867;-0.033222638;-0.52976453;-0.16070011;0.45751366;-0.05461815;-0.22841462;0.19899699;0.007377065;0.05962063;0.11138528;0.06258844;0.13208431;0.44073778;0.11063244;-0.101940006;-0.053900875;-0.31900948;0.025824357;-0.07347969;0.019855803;0.04592057;-0.040870283;-0.9243421;0.0020394216;0.08999403;-0.062047485;-1.1733863;-0.24693777;-0.24224535;-0.122751;-0.14802302;0.006355989;0.057685655;-0.04769637;-0.18214293;-0.060308132;-0.09147094;-0.049031883;0.021015903;-0.029952249;-0.14789847;-0.07101856;0.14506385;0.10004714;0.16407354;-0.11828337;0.0060642976;-0.5806691;-0.23645042;-0.056429323;0.065865494;-0.0001235734;0.28741223;-0.3961215;-0.09000498;0.018311726;-0.17916827;-0.9078573;0.18318067;-0.15370136;-0.17540102;-0.15020442;-0.21648014;0.18850867;0.06814787;-0.015069966;0.30196002;-0.15066965;0.10351873;-0.17306818;0.091984086;-0.16649218;-0.041983645;0.090445064;-0.29537603;-0.008469781;0.008745031;-0.12373253;0.077901006;-0.09963868;-0.04476632;0.07194404;-0.11860189;-0.48974204;-0.33317086;-0.106663056;0.059152868;0.35748342;-0.15911557;-0.09208916;-0.22810027;-0.00035249026;-0.16182463;0.037981514;-0.06472852;-0.3628586;-0.010179806;-1.1704727;-0.036827266;-0.03529255;0.11789186;0.8922508;-0.33530417;0.011968217;-0.17149979;0.29067385;0.04755874;-0.05460873;0.4170069;0.102578536;-0.08544893;-0.001482714;-0.09835473;0.023108806;-0.04017047;0.13057542;0.24609941;-0.18345413;0.10526465;0.1709081;-0.14679043;-0.09163418;-0.16446838;0.063064456;0.012535659;-0.03223818;-1.4423813;-0.5474578;-0.016480453;-0.018170524;-0.03342518;0.0811665;0.088644244;0.035285305;-1.7282823;-1.362092;0.17682436;-0.10477019;-0.23862831;-0.12327166;0.043442715;0.21771286;-0.008265308;-0.08551311;0.1035653;0.2852548;-0.16900854;0.058878314;1.174464;-0.3484451;-0.36919183;-0.13610317;-0.07760557;0.19387616;0.23256885;0.26423582;-0.2004262;0.1229101;0.10985022;0.3229352;-0.6025163;0.014425572;0.047067553;0.14877178;0.1354694;0.3161295;-0.6936504;-0.059212897;0.03734583;0.013290801;-0.08147724;-0.077827;-0.061947796;-0.16758333;-0.2558669;-0.010042861;-0.17313208;-0.44538808;-0.11149229;-0.014603517;0.42748013;-0.06775316;0.5776295;-0.17849557;0.07760866;1.215905;-0.061365284;0.22470531;0.04188698;0.10102151;0.259495;-0.020282453;-0.007167246;0.036586296;-0.37550077;-0.23982699;0.35046348;-0.19498983;-0.15864079;-0.6920841;0.0695974;0.02121206;-1.2085098;-0.1253796;-0.013750842;-0.17762318;-0.06778827;-0.008771579;-0.67039156;-0.4520839;-0.1302903;-0.25083068;-0.20920458;-0.1176806;-0.13024044;0.046273142;0.03325254;-0.21944134;0.42391896;0.52848446;-0.42990896;-0.4639969;-0.30926645;-0.0075717103;-0.62125325;-0.31785768;0.7215415;-0.110935554;-0.18592137;-0.2223245;0.07161543;-0.004600258;-0.08580858;-0.1302829;0.0038098383;-0.026816467;-0.24801332;-0.04410766;0.021690995;0.07340992;-0.0007100814;0.09847273;-1.2010242;-0.08003085;-0.07867383;0.02988613;0.013142604;0.17149292;-0.17873588;0.04074497;0.072222345;-0.013533159;-1.3695754;0.014663002;-0.015289709;1.076572
-0.11074627;-0.045153953;0.042388756;-0.9257401;0.023465682;-0.028582033;0.058787297;0.6061065;-0.2979472;0.2124847;-0.016913053;0.3514091;0.022289272;0.07374968;-0.061985735;-0.38066822;1.150245;-0.1870548;0.0017595195;0.1310918;-0.032724544;-0.08275886;0.01154111;-0.5868281;0.008226256;0.018847754;-0.009906522;0.046934232;0.4879859;0.029681029;-0.0425942;0.113587216;0.030947447;-0.08270856;-2.6698496;-0.03279535;-0.08970307;-0.07367849;-0.01365015;0.020458402;-0.7382529;0.29212278;0.67076546;-0.04834198;-0.5475432;-0.43661177;0.22680926;-0.023092069;-0.73942584;0.24013442;0.55500925;-0.0055547254;0.052881397;-0.013112009;-0.6714488;-2.0064723;-0.0019022784;-0.034197956;-0.20926455;-0.024394449;0.24587482;-0.20871164;0.06947137;-0.050390225;-0.06885882;0.061977338;-0.20842794;1.5576489;0.048791733;-0.027753448;-0.055102684;-0.063625686;-0.047125474;0.060108986;0.6350895;-0.30170116;-0.11459423;0.36011142;-0.36251435;-0.006336645;-0.076699905;-0.055242926;-0.20578924;0.058137998;-1.7362016;-0.08168119;-0.088620424;-0.32802734;-0.05579815;-0.036987063;0.0061435476;-0.00511802;-0.90242684;0.05574297;-0.0676461;-0.06373437;-0.19347258;-0.21266723;-0.10313471;-0.050078258;-2.4110882;-0.022256564;-0.07531973;0.122828536;0.013681256;-0.027643176;0.04610396;0.26047525;0.052116778;-0.062559105;-0.030876858;-0.010218181;-0.055838145;0.06880438;0.024547668;-0.038151152;-0.11069789;0.57101077;-0.8343344;-0.06852759;0.051582236;0.07187797;0.47918195;0.026600868;-0.03882967;-0.06470757;0.016588464;0.9851966;0.009971086;0.041044917;0.052598022;-1.0590417;0.071155496;-0.08474376;-0.7691117;-0.07816219;0.061790973;-0.5012992;0.025791494;-0.07140328;0.0031019896;0.055870514;0.043037284;0.026206741;0.028037662;-0.044766814;-0.7954714;-0.04804971;-0.8946019;-0.0755248;0.74472857;0.04985084;-0.0024466643;0.13930985;0.04134862;0.022789277;0.39427972;-0.09948122;-0.27948812;-1.0009807;-0.025300112;-0.36845618;-0.12064524;0.47256353;0.18308105;0.022988971;-1.8280199;0.005326543;-0.24191326;0.016548257;0.63970655;-0.016927434;-1.2651833;-0.00291066;-0.14628667;0.05415826;0.069986984;0.10787036;0.7364974;0.0868546;-0.083363295;0.620826;-0.03118357;-0.44310662;-0.6476603;-0.015650047;0.14414358;-0.014740803;-0.08664168;0.03998197;-0.2448494;0.0657055;-1.7250922;-0.082034945;1.6299504;-0.1153457;-0.03655377;0.07389536;-0.07454688;0.6859506;-0.008206025;-0.06011869;-0.001430308;-0.08671;-0.1884073;0.029033234;0.08621607;0.9254029;-0.17127454;0.1660898;-0.06239273;-0.062606044;0.4058429;0.45945114;0.015652793;0.1089638;0.22071625;-3.0976748;0.4124521;0.003863687;0.011267612;-0.7973556;-0.5884599;0.0711058;0.015829306;-0.043764368;-0.026774969;-0.08098613;-0.13961424;0.23855717;-0.091527775;0.0024297903;-0.33845502;1.5233741;0.07641528;0.014713258;0.076340236;0.45300114;-0.06845851;-0.7936429;0.33989778;-0.013302623;0.034336973;-0.049084082;0.89904183;-0.040044382;-0.020592958;0.0089650825;0.07490238;-0.19352914;-1.760135;0.50437313;-0.012226948;0.056019045;0.032838766;0.14453733;0.081058405;0.027670277;0.032488093;-0.20769437;-0.026243834;-0.037050184;0.008508533;0.15849528;1.1566572;0.054180432;0.12326698;-1.5520773;1.3776666;0.10366081;0.100959286;-0.018244252;0.0012279375;0.0049863276;-0.34626278;0.35663348;-0.29478148;-0.077747025;-0.06049442;-0.24866594;-1.5416031;0.036201674;-0.26260227;0.04849778;0.031702496;-0.23125988;-1.090212;-0.011700343;-0.0015471181;0.02856853;-0.2669119;-0.88242215;0.18478428;0.0773623;-0.013094515;0.068565845;0.3524674;-0.021859674;-0.0154850595;0.05711694;0.013858524;-0.1053871;-0.005541232;-0.06293381;-0.57208276;0.066984996;-0.050842993;0.025029877;-0.07116101;-0.07364887;-0.078390166;0.05337759;-0.112993546;1.970067;-0.39510903;0.02068341;0.011914136;-0.07283092;0.0007918543;-0.017205577;0.07548378;-1.0397122;-0.06733476;-0.5445618;0.06981813;0.088431776;-0.24091277;-0.05288102;0.028656444;-0.01934425;0.04306348;0.045763094;0.40177435;-0.08104769;-0.01614388;0.07178724;-0.04814207;-0.020475484;0.2964412;0.0042395764;-0.09986619;-0.009705601;0.25010154;-0.0055647157;-0.08915619;0.15496951;0.5701451;-0.29407215;0.074403904;-0.06960496;0.0776446;0.0054128924;-0.08896478;-0.02012912;0.065613;-0.072225735;0.003399754;0.07289413;0.15731196;0.07558187;-0.46009794;0.05057083;0.13550454;-0.101421095;0.3812962;-0.07198914;0.04660415;-0.29127237;0.9901839;0.18916096;0.04560347;0.057577327;-0.83747137;0.24281181;-0.097151235;0.048804913;0.0019524947;0.37527782;0.037347935;-0.589659;0.001505009;0.017413642;0.012339528;-0.035232265;0.065854095;0.07441035;-1.34201;0.04034507;0.036472104;-0.09466244;-0.022257969;0.06651082;0.08855795;-0.0640525;0.27345657;0.022291927;-0.08654908;-0.7234315;-0.40278986;0.072546735;-0.041472655;0.029010946;-0.28174582;0.4348572;-1.1724646;-0.35961166;-0.014922647;1.1790388;0.74623543;0.06868074;-0.15524225;0.014966286;-0.0330365;-0.084264524;0.058870923;0.13553357;0.036490127;0.07778649;-0.09210451;-0.04583801;1.0503784;0.10190701;-0.37416688;-0.0021167486;-0.26990297;0.19357358;-0.08642788;0.038703755;2.0144525;-0.03226041;-0.067371905;0.009166162;0.07169516;0.025459928;0.05885473;-0.013377211;-0.13592725;-0.0041016005;-0.08543823;-0.37207496;0.007231887;-0.028250208;0.036040984;-0.059257995;-0.22258878;-0.082949206;-0.09231788;-0.44592482;0.07833065;-0.070993446;0.07615689;-0.05784896;-0.11369651;-0.08513825;-1.5728494;-0.24665074;0.24445249;-0.013248178;0.020842474;-0.017283848;0.056451116;-0.9224955;0.052192565;0.26534903;-0.07895702;-0.23619789;0.017943677;-0.096931;-0.41487145;0.04130578;0.27419975;0.09843427;-0.083132096;-0.2529018;-0.11767896;0.05666925;-0.028982257;-1.4875836;-0.0014884868;-0.090959795;-1.1723078;-0.042661846;0.017360907;-0.880892;-0.018148383;-0.24348773;-0.11066659;0.073561035;0.02496958;-0.077816874;0.06802638;-0.18233556;-0.021793641;0.05412694;0.13266242;-0.0008009771;0.046536367;0.33565935;0.07659493;0.012900256;-0.4868027;0.041177083;1.1741608;0.36036423;0.079241484;-0.62821025;0.0135315815;-0.03339614;-0.07772598;-0.05836629;-1.3864878;-0.078454904;-0.08750732;0.062946185;0.24852084;-0.051261876;-0.046068978;0.5645858;0.020877896;-0.75230455;-0.173288;-0.040762365;-0.58465433;-0.04552199;0.044593778;0.064645566;0.025000302;0.046356924;-0.59121937;-0.19879682;0.015613149;0.052227333;-0.05474475;0.011323142;0.06553055;-0.06905959;-0.033275902;0.047621652;-0.45110723;0.0853317;0.15746719;1.467033;0.075931534;-0.03634548;-0.13989674;-1.7597742;2.9565911;0.080802634;0.6149663;-0.00898315;0.22365557;-0.07255117;0.006720167;0.070169166;-0.07407805;-0.2957041;0.0139605;1.1033698;0.076273024;0.18767239;-0.05300911;0.01374435;-1.5034914;0.16413084;-0.044796214;-0.019967627;-0.106713355;-0.02905725;0.80975664;-0.026933074;-0.050996896;0.01403241;-1.0293764;0.05047378;0.06770031;0.30875698
-0.07271706;-0.03833984;-0.05164116;-1.0435811;-0.06531896;0.10574063;-0.045178868;1.8213892;-2.182992;2.0516617;0.07849069;1.3331237;0.069632016;0.32064527;0.029445127;-0.21474135;0.53849995;-0.103287;0.073858574;-0.16805956;0.04462058;0.015110277;0.10790296;-0.46124437;-0.1573252;-0.005298675;0.015186344;-0.008298287;0.43756709;0.03844368;-0.075273804;0.16162924;-0.1296762;-0.00010071832;-3.695636;-0.033106588;-0.00789747;-0.00744307;-0.11870881;0.039583907;0.119677305;-0.34667438;2.4098756;0.08188644;-0.24947442;0.022556117;1.1609415;-0.022294836;0.089487374;0.30941585;0.5178373;-0.01399782;-0.31092316;-0.077933416;0.27708066;-0.40960598;0.18690959;-0.04754145;-1.0494757;0.09166934;-0.024186557;0.13193616;0.090865165;0.059583284;-0.15190879;0.04196767;-0.9857298;1.1841427;-0.073312536;-0.061979037;0.16199788;0.061040998;-0.21635993;0.21295647;0.95966315;-0.3838728;-0.104331255;-0.5585198;-0.54877573;-0.23221289;-0.15546092;-0.002710209;-2.1179066;0.036205813;-0.8236827;0.0178844;-0.19688857;-0.46590456;0.034909733;-0.023564517;-0.21289623;-0.8555432;-1.132243;-0.051528994;0.023781842;0.07483006;-0.47593972;-0.1453051;0.46990842;0.088583425;-1.2347561;-0.1066947;-0.0021019997;0.12792398;-0.0049950387;-0.23994479;0.036379978;-1.0589832;0.04958229;0.17162102;-0.08282435;0.048617274;-0.07372751;-0.024166161;0.1458709;0.034809012;-0.20099488;2.1176674;-1.1809049;-0.12243611;-0.12596361;0.07994227;1.3466783;-0.20952089;0.114131674;-0.15695007;0.051767617;1.2172205;0.035617653;-0.01794985;0.0077164304;-0.29669896;0.27922493;0.07844011;-0.9181743;-0.18770225;-0.16270122;1.7167641;0.016110407;0.018526029;0.07874847;0.25454456;-0.07818487;-0.06380629;-0.06327779;0.027214218;-1.3041389;0.06814704;0.8425843;-0.17148839;-0.63643533;-0.92058784;0.09680608;-0.12732877;-0.017968237;-0.0025666778;-0.94009715;-0.53575826;-0.06074449;-0.104827724;-0.034295715;-0.16635606;0.03251184;0.04375338;-3.1264474;-0.12870182;-0.44289896;-0.3685101;-0.0415113;-0.17183574;-0.7160345;-0.17152539;-0.35222578;-0.21467392;-0.10648047;0.074613094;0.23962548;0.19976634;0.93360746;-0.07069659;-0.47742704;0.39058742;-0.0101038935;-1.0609087;-0.303006;-0.042962644;0.15933314;-0.25715497;-0.5405278;0.2509856;-0.71866536;0.30652702;-0.24853641;-0.0032729877;0.40708622;-0.1436897;0.07692157;-0.0426266;0.028043067;-3.380017;0.15503566;-0.10599621;0.10898794;0.061842535;-0.6647723;-0.15965576;0.39429218;0.7119551;-0.10898098;-0.6338069;-0.22769886;0.23448718;0.20718798;-0.31622946;-0.03499714;-2.256087;-1.0582947;-1.1617635;0.106726184;-0.09825735;-0.1284455;-0.6444703;-0.4526878;0.13651597;-0.10792185;-0.15935092;-0.3378108;0.07091255;0.024648104;0.064085245;-0.04783853;-0.17542745;0.11682371;0.67635316;0.13861844;0.28792027;0.08536062;0.24637653;-0.07980386;0.9316717;1.9722908;-0.053407833;-0.13894801;-0.08940271;0.9770321;0.19138218;0.17536226;0.13420753;-0.060903728;-0.12973379;0.7457499;0.054379318;0.025815353;-5.4389133e-05;-0.12538534;0.8929941;0.20238914;-0.07262873;-0.15859039;-0.27961606;-0.18454106;0.17191947;-0.21063767;0.19660853;-0.32143515;0.28430524;-0.14937262;-1.023027;1.3442128;0.086429805;-0.22898427;0.037454594;0.08155597;-0.3486566;-0.15033737;0.47088584;-1.3780148;-0.05430381;0.13426922;-0.22002578;0.9716993;0.038460527;-0.1098153;0.08869875;0.07086996;0.0432706;0.20352428;0.06054904;-0.04707875;-0.0617467;-0.038628105;0.70445776;-0.5394421;-0.050724298;0.3831706;-0.06447913;0.7465328;0.11102194;-0.013901699;-0.22466686;-0.022497794;-0.27508426;0.007620398;0.09735724;-0.1396499;-0.09542866;0.22740914;-0.014547719;-0.032047924;-0.18039498;0.042440068;0.020221759;0.23268382;0.57415146;-0.11316704;-0.0017288302;0.03880519;0.01786782;0.075290166;0.030230789;0.10201447;-0.8556669;-0.14854644;-0.3200763;-0.046766736;-0.18414886;-0.17427097;0.06615397;-0.07104817;0.20971584;0.17667939;-0.056012884;0.732786;0.008675015;-0.2343755;-0.062275298;-1.5169281;-0.017273817;0.26397008;-0.0551595;-0.033244066;-0.0551222;0.35812458;0.035005577;0.1294022;-0.16291802;-0.06980451;-0.03592467;-0.3210548;-0.23734409;-0.26786438;0.05453714;-0.052681383;-0.1299757;-0.15080465;-0.06773855;-0.1672879;-0.0035550748;-0.03387602;0.096664436;-0.43692592;0.014418416;-0.047434613;0.008426113;-0.5296483;-0.094208494;0.022478886;-0.35798383;2.05935;-0.15770626;0.35473186;0.038329408;-1.3506626;0.11312647;-0.11594394;0.021841243;-0.11190041;-0.3362239;0.2391503;0.11539609;-0.32798246;-0.23525985;-0.18846156;0.16479139;0.0019315793;-0.05042229;1.080243;-0.23292716;0.071653366;-0.24986649;-0.02126766;-0.3764822;0.052770022;-0.030314336;-0.15372434;-0.28956908;0.009766923;-0.6584624;0.35610044;-0.20986886;-0.113419645;-0.03235674;-0.06460674;0.3800691;0.39095798;1.0726788;0.033418678;-0.11019758;0.9624979;0.0013413518;0.27351356;-0.050285183;-0.24361746;-0.029039945;-0.2522478;0.09390259;-0.06395411;-0.48749074;-0.024043262;0.04370595;0.5709871;1.1976126;-0.4616328;-0.03524109;-0.10250942;-0.11788322;-0.12440451;-0.02781839;-0.402996;0.004737092;-0.17294213;-0.020064177;-0.103261724;0.018719634;-0.1067598;0.059641343;0.24925238;-0.1066024;0.06345225;-0.11399107;-0.21723099;-0.055363093;-0.19825241;0.06585564;-0.06491953;0.062326;0.65896714;-0.31553975;-0.1221829;0.027420336;0.017643994;-0.04299947;0.2328547;0.09289859;0.06772832;1.2120668;0.0008169618;0.054765023;-0.1770241;-0.11524652;0.03350028;0.07656773;-0.022775719;0.0016147201;0.121329196;-0.32791966;-0.14585477;0.21508959;-0.10203197;-0.8265495;0.08918125;-0.1968626;-0.000115925635;0.389857;0.14016792;-0.042882588;-0.21092904;0.3331818;0.21936946;0.029355442;-1.4810061;-0.028328676;-0.070915654;0.15733343;0.100779645;0.24002564;-0.34784293;0.03726046;0.048547838;0.08203602;-0.1451608;0.013024654;0.0357073;-0.1397034;-0.1552408;-0.03301861;-0.22384259;0.22154064;-0.04141639;-0.016653871;0.053705726;-0.20610258;-0.18884467;0.35402623;0.20346914;2.9321427;-0.18392847;0.32623428;0.090460956;0.023064904;0.15993068;0.12448063;0.011930121;-0.040976148;-0.20531718;-0.13886017;0.24964507;-0.31829715;-0.2135389;0.110023096;0.107021086;0.009444114;-1.0144546;-0.49276373;-0.0017288593;-0.27359185;0.0025927327;0.01784505;0.3329804;-0.28969386;-0.18340583;-0.20552568;1.0195402;-0.25573564;-0.18025304;0.0064879404;0.07542731;-0.21903045;1.2019211;-0.2244755;0.31617266;0.45001045;-0.2105345;-0.05554277;-1.3715322;-0.23707068;1.3802922;-0.43799743;-0.20906791;-0.25693688;-0.025229907;0.019350467;-0.030562889;-0.2101537;-0.07398492;1.1170022;0.2565984;-0.3115691;-0.07452474;-0.18168907;-0.060016487;0.10293974;-1.6851062;-0.25402826;-0.15055105;0.017593179;0.011325966;0.24233474;-0.35634586;0.052102733;0.21364063;-0.00245444;1.2732867;0.024767563;-0.021050036;0.32366213
-0.2936602;0.024421161;-0.03243138;-1.5609295;-0.09528181;-0.0024356444;-0.024054838;1.3943144;-1.0761724;1.227126;0.021368612;-0.34325156;0.013310621;-0.25014487;0.07344028;-0.12044143;-0.25226825;-0.0722587;0.021149792;0.0034308326;0.012299741;0.09764518;-0.06585856;0.065232374;-0.015031776;-0.0045984797;0.06496299;-0.023558049;-0.077483304;0.02885363;-0.02267486;0.1435274;-0.057029136;-0.047442686;-0.83173776;-0.16920263;-0.06432318;0.081887186;-0.08792434;0.0047748373;0.3873542;0.36111838;0.46968412;0.08606739;-0.04141199;0.055268183;0.03342504;-0.05686925;0.9177037;-1.0121499;0.11212879;0.0044551548;-1.0522959;-0.007627622;-0.27684712;-0.0886529;0.043793827;0.036438048;-0.06280545;0.07975649;-0.04016044;0.005690718;-0.05982543;0.13860787;-0.10748025;0.12261262;-1.3380643;0.3498877;-0.033394337;0.02054235;0.017477985;0.07487305;-0.0049524605;0.03766985;1.2318087;-0.14612153;-0.03540409;0.06948998;-0.66386706;-0.1397657;-0.06597361;0.010692328;-0.24096216;-0.028038004;-1.089327;0.010633336;0.0066329036;-0.30252168;0.0970974;-0.025026957;-0.15275836;-0.39531872;-0.75849295;0.07942255;0.0898779;0.010103608;0.28122097;-0.0116235865;-0.0851323;0.10318327;0.17679721;-0.03741513;-0.4505278;-0.03129251;0.01777951;-0.05641523;0.020480033;-0.91079855;-0.048755802;0.04741667;-0.03855732;-0.008325577;-0.0009799885;0.05581508;-0.005076433;-0.024920853;-0.1616032;0.6717471;-0.92375284;-0.03501255;-0.07206555;-0.01748183;-0.5037019;0.010155999;0.04040312;0.007793583;-0.04179383;0.60386485;-0.009010478;0.0029365264;-0.053610038;0.20503391;0.052928306;0.052595526;-0.31649554;-0.0072534783;-0.13063739;0.8264053;0.06807114;0.013708482;-0.030012418;0.117407255;-0.07739027;-0.030536687;-0.013685979;-0.08808677;-0.24707982;0.019497668;0.29021236;-0.007607359;0.09075158;0.05118039;0.038241547;-0.07062324;0.06668931;0.00078287115;0.07101272;-0.42090982;0.2305957;-0.40897995;-0.087497674;-0.06814283;-0.15679294;-0.1450734;-1.5289189;-0.06382593;-0.30475035;-0.13064533;-0.032529477;-0.0893879;-2.231264;0.0024367492;0.30426687;-0.124274395;-0.04036954;0.010604285;-0.047870867;-0.062988006;0.69339466;-0.059278212;0.30869696;0.33881086;-0.094651096;-0.4001912;-0.24051845;-0.035026226;0.07880906;-0.14349687;-0.20406266;0.063286826;-0.18940724;0.044622995;0.048517086;0.023945138;-0.0041799527;0.037413992;-0.07156013;0.04756207;-0.016528634;-1.7360055;0.1480761;-0.023345286;-0.014236834;0.057077758;-0.52763236;-0.10781692;-0.16702588;-0.8390061;0.04250328;-0.387521;-0.035609137;0.2018014;-0.16172764;-0.55481184;0.03194085;-1.6404129;0.23692396;0.6701907;-0.17844898;-0.07701379;-0.06630637;-0.289768;-0.13960718;0.010402351;-0.07424436;-0.1166338;-0.16940574;-0.025405968;0.24962273;-0.045689475;-0.06556831;-0.12543225;0.20364404;0.028698955;0.056815736;0.13562824;0.050389227;0.11588816;-0.07916357;0.4326566;0.038773466;0.04063994;-0.12603351;-0.025840787;0.24784501;0.04087129;0.1210657;0.13296679;-0.029870631;-0.042734582;0.55422175;-0.9727596;-0.016873326;0.025310954;0.040600203;-0.015788639;0.044928286;0.04307986;-0.03554631;-0.18198286;-0.12370159;0.015735677;-0.09340958;-0.032555733;-0.8142377;0.09913723;-0.07847294;-0.42558458;-0.20786352;-0.025672909;-0.025209902;0.07605402;0.013285788;-0.1960309;-0.2036194;-0.07236498;-0.021814132;-0.08088452;0.013247453;-0.06181098;-0.6246235;0.022563247;-0.147912;0.06024025;-0.060541898;0.007613113;0.6111301;0.08232025;0.024632452;0.047189195;-0.10787195;-0.7709505;-0.14083558;0.046922754;0.4984469;-0.06897392;-0.06627602;0.10870238;-0.050896045;-0.05361609;-0.052024987;-0.2987499;0.022220138;0.0035888401;0.062821835;0.04727292;0.051994137;0.10437355;0.011334918;-0.41357657;-0.059459344;0.046451356;0.21360238;-0.07570743;-0.018296245;-0.005740331;-0.013788646;0.017940354;0.025693316;0.0477587;0.09856956;0.16336428;-0.11397726;0.08563104;-0.0649075;-0.11868935;-0.019840028;-0.031635817;-0.028130103;0.021958398;0.13203594;0.05100659;0.6830893;0.0587926;-0.024260921;0.020350356;0.062220227;-0.055061802;-0.18809004;-0.08612823;0.06195614;-0.04712504;-0.2757524;0.08485703;0.11070441;-0.091080666;0.1578986;-0.05421482;-0.07301691;-0.06956791;-0.036971487;0.033478547;0.07069235;-0.04382181;-0.09692181;-0.037049904;0.025115661;0.07896134;-0.037583265;0.03831917;-0.35082498;0.03833852;0.14107516;-0.032147296;-0.87042195;-0.031773683;0.013135407;-0.16758561;1.2589312;-0.05943353;-0.36785826;-0.06804356;-1.1729174;-0.32701358;0.006336943;-0.004017976;-0.0092380745;0.1486308;0.13914558;-0.60044694;-0.14046232;-0.1235261;-0.018248308;0.09829051;0.07006619;0.004623075;0.19586654;-0.10280219;0.10060927;-0.18610647;0.05572004;-0.08426727;-0.046837598;-0.008534513;-0.14043075;-0.14052023;-0.02109468;-0.18187465;-0.1675792;-0.067513265;0.026509352;0.105538204;-0.18556374;-0.022556389;0.44589424;-0.22167413;-0.025807504;-0.31666553;-0.5782662;-0.093916394;0.24963066;-0.20114426;-0.08746868;0.02294631;-0.124707565;0.019572688;0.066061616;-0.79118305;-0.010193017;0.0029247613;-0.6813326;0.5057336;-0.20410629;-0.02680068;-0.16706754;-0.05187816;-0.059607133;-0.030032633;-1.0434402;0.052849162;-0.038261924;0.0045982637;-0.03135217;-0.0024226394;-0.021398637;0.03858705;-0.03141535;-0.0814055;0.09783684;-0.20745279;-0.09217756;0.024559168;0.0039148103;-0.030415913;0.35780257;-0.08332462;1.0161101;-0.33151647;-0.059998013;-0.08617789;-0.07189678;-0.0149143925;0.05258462;0.10847143;0.016205795;0.59705603;-0.20366372;0.0810068;-0.11663831;-0.10653835;0.05867062;0.016532551;-0.0658036;0.22551334;0.02552024;-0.23874463;-0.87535375;0.09131227;-0.2878991;0.04693495;-0.19163467;-0.0027914904;-0.0176148;-0.06354641;0.093490936;0.05335983;-0.11651932;-1.3351067;0.12721662;0.109473065;-0.99701923;-0.0039046777;-0.014103337;-0.037070427;-0.046932727;0.1499362;-0.41823915;-0.032189444;0.009553869;-0.03986402;-0.01748781;-0.041116547;-0.005195239;-0.037671633;-0.17235851;0.07042879;-0.06124097;0.14137621;-0.061872315;-0.012838684;-0.03286966;-0.09088109;-1.735385;0.02594565;0.0913434;0.14790486;-0.09822082;0.16847283;-0.048146818;-0.017065417;0.45204642;0.024998285;0.0559186;-0.06195076;0.14887781;-0.030636543;0.04709824;-0.24714743;-0.0025085516;-0.31622997;0.07428913;-0.04669401;-0.4135521;-0.8407791;0.07955717;-0.07114852;-0.03267699;0.023183275;-0.08187621;-0.18361416;0.039725058;-0.029035904;0.07114263;0.010613885;-0.09743761;0.015402655;0.09099268;-0.031623147;0.631929;-1.102851;-0.2789362;-1.3650333;-0.05306373;-0.1303817;0.1023781;-0.03176065;-0.16866344;-0.07614259;0.1986014;-0.08461349;0.0020335396;0.048601724;-0.036424287;-0.091149874;-0.08638779;0.088710144;-0.023158971;-0.35916328;0.013033189;-0.5792192;-0.0010095474;-0.041258276;-1.4207608;-0.07993965;-0.003653272;0.07356277;0.043315336;0.14950368;0.39856818;-0.013860761;0.11870634;-0.023489619;0.24729013;-0.007292184;0.07829933;-0.16025609
-0.1518603;0.01742325;-0.025590276;-1.129198;-0.049084894;-0.09369545;0.039526355;0.6976561;-0.73498577;-0.0727727;-0.016274339;0.31860217;-0.04990606;-0.11204994;-0.07893664;-0.3371577;-0.26359034;0.053565435;-0.013601433;0.2607571;-0.0582033;-0.106900394;-0.11776783;1.4209052;-0.007607657;0.03625845;0.058795527;-0.059035856;0.19295006;-0.16230471;-0.046540145;0.03599443;0.20467055;-0.09016242;0.16707821;0.13181669;0.00662229;-0.08570935;0.042776965;-0.052618425;-0.15012175;-0.17236817;-0.29220375;-0.0005044319;0.045348622;0.15669829;0.20046715;0.036508948;-0.55726606;-0.2779249;-1.0128902;-0.061151072;-2.0645785;-0.018386608;0.17727074;-0.3211719;-0.031855475;-0.083811626;-0.3233193;-0.063358955;0.03267242;0.053614184;-0.04128366;0.09438517;0.07689752;-0.07963215;0.3116375;-1.2122605;0.08351248;-0.027649725;-0.07909662;-0.046004403;-0.02509726;-0.09703849;0.7119614;-0.18652536;0.17384711;-0.029088574;-1.1660956;-0.018393239;0.11481099;-0.04108961;-0.33351174;0.08551852;0.40779617;-0.041305106;0.08274492;-0.43519735;0.012440428;-0.10101874;0.054519176;-0.92274874;-0.32489815;0.031386137;0.03765134;-0.07223312;0.64414716;0.050747532;-0.951815;-0.121415675;-0.028457085;0.02281854;-0.623481;-0.2117501;-0.12044729;0.079757586;0.02893511;-0.20881821;-0.0088873;-0.019542208;0.0997133;0.014312739;-0.0020807488;-0.048694227;-0.032138646;-0.05263862;0.093565285;0.7808318;-0.31329596;0.067769706;0.11022704;0.012358165;0.95159066;0.21658559;-0.021248097;-0.08422793;-0.035265554;0.90880257;0.005520255;-0.09228321;-0.0647951;-0.26549006;0.17305388;-0.0972985;0.31323323;0.017675767;0.07632201;1.9325058;-0.016775858;-0.017860835;-0.0011078112;0.04308227;0.031847175;0.052842595;0.037331812;-0.021935673;-0.7428192;-0.07678675;0.95202655;0.07200956;-0.80738777;0.08814896;-0.05632024;-0.33140057;-0.009332491;0.07172769;0.076937556;-0.00036895185;-0.0334485;0.0031541784;-0.05920916;-0.25287303;-0.17144401;-0.40706375;-0.6037048;0.122366995;-0.28382492;0.22328238;0.26803592;-0.14929253;-0.45601857;0.029439405;-1.6665944;-0.02912029;-0.3551733;-0.09781235;-0.071641624;0.04343002;1.0791922;0.15722297;0.8360722;-0.78428;0.08398353;-0.24177445;-0.8835342;0.07578073;0.091096565;0.11975657;-0.3526246;-0.0007816018;-0.23823461;0.019795239;1.4414192;-0.0036954314;-0.2924063;0.05644323;0.028225826;0.06678769;-0.009093291;-0.86187214;-0.1091285;0.087273225;-0.10733698;0.0051447535;0.2558226;0.13600145;0.2522935;0.27729207;0.09558229;-0.84094614;0.03081673;0.047282312;-0.22059213;-1.2446455;0.00921515;-0.2974946;-0.11265731;-0.2830991;0.027822873;0.069865935;0.0064333966;-0.48596522;0.11889074;0.028774964;0.03248555;0.047800537;0.0065477397;-0.13274956;0.08986638;0.08324748;0.025889184;-0.014065729;-0.244493;0.21245958;-0.007425531;-0.041596603;0.011274656;0.33162844;0.03477514;0.8656458;1.0782269;-0.09002074;0.14325853;-0.044682615;-0.3535257;0.08784454;-0.06045729;-0.08042307;-0.08133306;-0.23451185;-0.8987204;-0.8625134;0.057357945;0.04226231;-0.021337999;0.1445303;-0.18562517;0.022315543;0.005055803;0.0026216004;0.07343156;0.031930808;0.09817676;0.2469137;-0.24404116;0.01716857;0.2044394;-0.48975092;-0.76776093;0.12123545;0.17458872;0.048606116;-0.089913085;0.15950689;-0.24692674;-0.4299687;0.37250045;0.084133886;-0.03701878;0.08282946;1.1011925;0.012060062;-0.25563905;0.0013296941;-0.06361594;-0.10770403;-1.0331728;-0.013847996;-0.03976841;0.049470387;-0.24073578;-0.8037045;-0.34823123;-0.040833417;-0.06886316;0.06515969;-0.27010775;-0.11391212;0.046325732;0.034413382;0.0897372;-0.20768483;-0.091493025;-0.016663864;-0.16655324;-0.026654225;-0.1325108;0.033207543;-0.0054849;0.2183911;-0.0771881;0.007191503;0.018033035;-0.04345454;0.49876592;0.045194462;-0.07493618;-0.015615761;0.03757828;0.0016491099;-0.02339997;-0.52959055;0.12645231;0.17667875;0.07447584;0.09000181;0.050011802;-0.012148202;-0.013008563;0.024270134;-0.08878209;-0.005949276;0.18284665;-0.08543366;0.20850854;-0.02136087;-0.29134846;0.0026227147;0.17401226;0.10733705;-0.10852098;0.052030124;-0.69049865;-0.021945063;-0.06337937;0.07161682;-0.9254739;-0.2841086;0.13393709;-0.04217217;0.03571935;-0.0023932178;0.02463577;0.10614192;0.087008;0.059146173;0.0060385237;0.015442971;-0.2935847;0.04411391;-0.2306128;-0.03336985;0.2337158;-0.034936596;-1.052797;0.066157565;0.0965977;0.07217531;0.84049934;0.13134125;-0.014742765;-0.045568746;-0.4821149;0.2547675;0.054178856;-0.019881615;-0.011409874;0.5327298;-0.0023305616;-0.45268136;0.020676276;-0.032194786;0.05514327;-0.10414315;-0.075611316;-0.06085698;-0.78323025;0.043413587;-0.103336364;0.041423164;0.0017667832;0.08723199;-0.05668998;-0.09152407;0.1317359;0.17452191;-0.008214351;0.10704805;0.41691202;0.06939061;0.05544177;0.016165141;-0.17814888;-0.2945329;0.8828963;0.73636603;-0.0843854;0.31571445;0.3337873;-0.048124287;0.16651887;0.17934959;0.15094496;0.06246127;0.020204414;0.15668467;0.0155556025;-0.43012947;0.017517734;0.046948668;-0.9621136;0.79164404;-0.016948551;0.052154038;-0.3500893;-0.14186023;0.050318237;-0.022939606;-1.181786;-0.07012061;0.037427124;-0.018318096;-0.012603248;-0.010166076;0.07047086;-0.080734655;-0.17324777;0.09362207;0.0052834037;0.15249117;0.086880945;-0.006666829;0.018886715;0.006393413;0.39519596;-0.043240756;1.4844208;-0.051714912;0.07559258;0.06329836;-0.08722135;0.036271136;0.015367416;-0.07346988;0.16541398;-0.531795;0.6241316;-0.045955304;0.03208042;-0.033541948;-0.024903845;-0.008550483;0.0045570717;-0.08118496;-0.06434034;-0.37460467;-0.65565103;-0.19975853;0.83495516;-0.08785698;-0.2989361;0.17267354;-0.020866087;0.27870378;-0.053318605;0.13371879;0.06522623;0.7995458;-0.1551352;0.3072771;-0.21732561;-0.013468023;0.0605894;0.9536811;-0.06272793;0.01880623;-1.2474405;0.0024033273;-0.060720757;-0.06813111;0.05583847;-0.12323521;0.067287736;-0.0015933304;0.07982319;-0.05344017;0.024041621;0.11982475;-0.043219857;0.02711152;0.25444967;-0.002462664;-0.12705182;0.5855761;-0.11295184;-0.8946207;0.051785603;-0.17601582;-0.031603955;-0.061228417;0.44560164;-0.10072252;-0.123714596;0.013142053;0.13775596;-0.007961705;0.30139023;0.7779326;0.10374312;-0.5569065;-0.16034485;-0.012239923;-1.1341918;-0.40299168;0.05884587;0.113620244;0.03780737;0.036361877;0.97735584;-0.38232526;-0.09946357;-0.052640483;1.0345976;0.14472854;0.043894075;-0.00051613955;-0.058282886;0.1245394;-0.00322664;-1.4364095;-0.17339104;-0.5601577;0.023706414;0.12192159;0.22951995;-0.2230015;0.24471289;0.14142793;-1.6453786;-0.012445411;0.4193861;0.07899168;-0.0037099032;0.0011250565;0.045791533;-0.58605826;0.4010762;-0.5523497;-0.060839906;0.0017006877;0.0070597236;0.04343922;0.26267698;-0.056335837;-0.006125704;-0.03272092;-0.054088924;-0.0026928892;1.329609;-0.08583008;-0.06909249;-0.022847537;0.32063633;-0.036796123;0.016308123;0.106274165
-0.18743041;-0.020036569;-0.01639244;-1.4998772;-0.09849469;-0.02105617;0.038108885;0.6207245;-0.64785933;-1.0182225;-0.060287435;-0.36509857;-0.06292048;0.31812575;0.052108575;-0.3206954;-0.19831872;-0.009250603;-0.05136095;0.14995016;0.049934153;0.0129829245;-0.08585363;0.19868581;-0.056234088;-0.040458627;0.0043747122;-0.012760789;0.16637361;0.036483638;-0.07237037;-0.17398804;0.12941535;0.07001902;-0.013494973;0.045444045;0.040104456;-0.024462339;-0.012116675;0.018660832;0.18409173;-0.13007776;-0.18408036;0.027903473;0.19664384;0.015025732;0.20138614;0.019343149;-0.68546206;-0.07090772;-0.8610161;0.030715514;0.16271998;-0.031001985;0.4427049;1.0003414;-0.02765787;0.019931618;0.2951848;-0.018695777;-0.11638947;0.0954437;-0.0034119675;0.0548201;-0.024339005;0.017427372;-0.75529104;0.9167994;0.024405332;-0.02093824;-0.121417485;-0.020997336;0.058523323;-0.030292327;-1.1189815;-0.03848852;0.03566646;-0.038112085;-1.1447057;0.34738156;0.008597756;0.07146221;0.11446935;-0.019735225;-1.0936179;-0.072032504;0.028053463;-0.59779793;-0.040136788;0.007015864;-0.0026671712;0.031539127;-1.816711;-0.032492954;0.057746686;0.035214003;0.19511667;-0.043268535;0.48239025;0.0628711;0.8185462;-0.041060433;-0.119599216;0.03350101;-0.057678234;0.07693905;0.05825153;-0.35043526;0.05009825;0.055076957;-0.061982438;-0.0194396;-0.022018218;-0.026806412;0.07287625;-0.023511639;-0.06454248;0.30304664;-0.42900982;0.04600574;-0.05644089;0.043945402;-1.6859896;0.18370402;-0.089216486;-0.040122498;-0.054015163;-0.25054696;-0.07656002;0.07109556;0.04367625;-0.20445299;0.18291102;-0.08653645;1.0558338;0.04010773;0.0018575208;0.4678822;-0.034693602;0.06589437;-0.07025681;0.040382754;0.071934156;-0.075571574;-0.062734686;-0.07766609;0.41771695;-0.04706264;0.112620324;-0.104408376;0.1362329;-0.4653383;0.03980866;-0.35979158;-0.025841633;-0.088911206;-0.083432384;-0.37395605;-0.14926918;-0.13850865;0.028175266;-0.20235759;-0.67227536;-0.43428206;-0.44460514;-0.044959955;0.17668252;0.11432943;-0.23578323;0.020276217;-1.1404729;-0.05803697;0.17087035;-0.15316944;-0.029554663;0.0020032285;0.099756464;-0.07871554;0.016295025;0.0800518;-0.8966359;0.9604886;0.08957664;-0.34785628;0.7814023;0.071257025;0.033047535;0.08966986;0.13107528;0.05655965;-0.1721497;0.37571523;-0.7792139;-0.08178502;-0.28573683;0.069976985;-0.0030761026;0.010549261;-0.05862458;-0.112432435;-0.06912133;-0.057626206;-0.056623075;0.040839877;-0.051913667;0.007990836;0.37443867;-0.7066094;0.043151703;-0.18545726;0.030758789;-0.019093849;-0.22659427;-1.1841712;-0.0774941;0.27285144;-0.5356505;0.21669999;0.06595012;-0.03841468;0.075030595;-0.5340159;0.33071846;-0.044535194;0.029119413;-0.02943528;-0.26097286;-0.066983245;0.056379884;0.03970948;0.04934633;0.02466179;0.16569321;0.75010896;-0.044211455;0.0030023216;0.014943353;-0.076112434;0.06620942;-2.0213828;1.4457215;-0.05303215;-0.113378875;0.06461253;-0.84383816;0.7422226;0.06561417;-0.14217374;-0.1467426;-0.14856103;-0.50249505;-1.1450806;-0.03391502;-0.044790566;-0.04287249;0.28287375;-0.07531048;0.082227804;-0.08125642;-0.069904536;-0.081593;0.15361938;0.105197236;0.8608985;-0.9557404;-0.023055695;0.09422144;0.6154813;-0.23680648;0.03972841;0.034827508;-0.006089417;0.051822137;-0.03260796;-0.33108297;-0.84145284;0.35150406;-0.0076914234;-0.049709924;-0.13271055;-1.1778882;0.033598073;-0.27821475;-0.037655447;0.03241472;-0.04177833;0.4221391;-0.06472329;0.054871418;-0.13253142;-0.22831863;-0.39855105;-0.18728645;0.044676468;0.08720272;-0.08498842;-0.0052844007;0.072430104;-0.04493561;-0.084048234;0.008466304;-0.23177318;-0.029532792;-0.07491152;-0.09671768;-0.07314908;-0.032315865;0.057962596;-0.046292707;0.2074184;0.030488448;-0.007052805;0.075754605;0.23734976;0.11552953;0.029048191;0.074334554;0.005277853;-0.044162717;-0.029819498;-0.02179566;-0.73266834;-0.019748969;0.37851235;0.0683654;0.030515693;0.7048302;0.05035926;-0.02231839;0.0060062003;-0.0694923;0.18874171;1.2856987;-0.08099518;0.05858635;-0.06571847;0.055013966;0.06795118;0.21234713;-0.066037126;0.060554378;0.031117318;0.022811493;0.09539993;0.051789317;-0.042081848;0.8619472;-0.23699933;-0.03605892;0.014140657;-0.067903124;-0.085406326;-0.008341354;0.0768091;0.03244543;-0.07418757;0.043323524;-0.07526693;-0.16015618;-0.020003976;-0.22660287;-0.07794769;0.22485344;-0.04647682;-0.21516484;-0.022553386;0.07536351;0.29097095;0.49682376;-0.019185657;-0.058381416;0.035443965;-0.67458314;-0.34704277;0.038090132;-0.030642493;0.022746542;-1.1254598;-0.013192695;-0.2824738;0.06199517;0.031209271;-0.029630467;0.023121292;-0.079862766;0.045208838;-0.705832;0.006263367;-0.0006148019;-0.08752601;0.023928583;0.06762513;-0.062840775;-0.054268878;0.34248257;0.029313933;0.018668158;0.036514953;-0.06292169;-0.066757195;0.0038139941;0.009180571;-0.098720625;-0.2726259;0.2579913;1.8643607;0.06892091;-0.120937735;0.1185151;-0.08168207;0.010281462;0.5642463;0.0044118133;0.014398055;0.058415458;-0.22955404;0.018397365;-0.6844203;-0.11466821;-0.10088472;-0.47971016;0.37290496;-1.228206;0.056381375;-0.167475;-0.19831702;0.009602155;0.076653376;0.0044798916;0.038712252;0.05247034;-0.030449687;0.033605047;-0.052220542;-0.02013805;-0.0065362267;-0.013486933;0.033517204;-0.06793031;-0.31111193;0.031979796;0.024454476;-0.035138253;-0.073108986;-0.27348393;-0.031603113;-0.67202395;-0.052012865;-0.0037669945;-0.068011984;0.0033439584;0.17212617;-0.049202546;-0.093990274;-0.7945651;-0.36594534;-0.7140058;0.025612399;0.023329018;0.0666674;-0.084797025;0.0568616;-0.06142605;-0.56709975;-0.02440807;-0.61353266;-0.08846147;-0.049793564;-0.9306386;0.36632222;-0.16497879;0.0121884495;-0.033950385;0.5265084;0.02898885;0.08855244;-0.035053205;-0.9976539;0.066108845;0.07842598;-1.5526925;-0.012397125;0.043448396;-1.23866;0.039226726;0.065157555;0.44978672;0.052715994;0.025853973;0.04500796;0.15951185;-0.12530115;0.025545977;-0.07104981;-0.14585333;-0.013261593;0.033289038;-0.17525592;0.055463422;-0.0010008275;0.17658645;-0.014965687;-2.7430182;-0.08727894;-0.014237205;1.1950809;0.0031510084;-0.11631623;-0.01325641;-0.024534846;0.7685468;-0.06445568;-0.05455809;0.060324434;-0.15713876;0.030789012;0.33437085;-0.2047123;-0.053083133;0.9137228;-0.033755995;-0.08181486;-0.6241874;-0.74127537;-0.07559494;-0.04690022;-0.0627265;-0.064745456;-0.34690145;-0.19285214;-0.013147343;-0.12781663;-0.08872508;0.031211184;0.116828166;-0.06885467;-0.055636287;0.12331465;-0.15287769;0.8162785;-0.21201192;-1.2959183;-0.2978714;-0.068139926;-0.04932498;-0.15207604;0.5848747;0.095092304;0.6395078;0.0134502165;-0.16871996;-0.008677901;0.07202444;-0.034528993;-0.022600997;-0.31835684;0.35408306;-1.1030412;-0.08666055;-0.3457595;0.044409335;0.027700327;-1.0000616;-0.19255495;0.048333526;0.08059092;-0.056200165;-0.04031271;0.13959627;-0.06356386;-0.15391707;0.07102351;-0.7798607;0.069005154;-0.05104964;0.006343741
-0.29428366;-0.10620772;0.036392204;-0.18287627;0.07356875;-0.02760775;0.030159783;-0.69335914;0.46340948;-0.6433677;-0.06664643;-1.892526;-0.055526037;0.11922185;-0.032900345;-0.20185652;0.35710722;0.04360159;-0.078382656;0.17442377;-0.085477404;-0.0030136013;-0.0710785;0.08421769;0.09528404;0.05948841;0.07756722;-0.1007436;-0.18734483;-0.14189689;-0.014206257;0.022269897;0.22288564;-0.07645423;1.1669196;-0.28362268;-0.033637322;0.0056157066;0.07471913;0.078294724;-0.36728433;0.4274682;-0.99332625;-0.106422804;0.26329285;0.11874199;-0.71224564;-0.0417396;-0.74481136;-0.050205845;-0.78865176;0.00014913056;-0.16188574;0.093093336;0.26514125;0.0044380166;-0.070941545;0.13727641;-0.5790911;-0.05431327;-0.009491985;-0.2350566;-0.10069957;-0.16083206;0.09013599;-0.034937102;-0.7562756;1.1332464;0.10794948;-0.032923177;-0.06729504;-0.08348461;0.11902956;-0.06227875;-0.46386805;0.14164487;-0.10824443;0.23915033;-0.6235824;0.31572077;0.06445539;-0.018595612;-0.5640181;0.03894614;-1.2518909;-0.08456466;0.11948436;-0.45710474;-0.096761145;-0.038503077;0.049559157;-0.4653449;-0.0012354228;-0.04266429;-0.04748004;-0.04898153;-0.12485357;-0.0011027313;-0.8539872;-0.054313432;-0.024733057;0.026953865;-0.29627413;-0.12987106;-0.05096886;0.09502205;0.038882747;0.37291697;0.018247329;-0.05212631;-0.047773443;-0.027589059;0.008350314;0.008773845;-0.112326846;-0.036747284;0.1534127;-0.6574171;0.8133437;0.14372927;0.11737022;0.022419462;-1.2796911;0.20855626;-0.09431153;0.18468551;-0.15307255;-0.7753556;-0.081057996;-0.087555334;-0.06680079;-0.33456892;0.49661446;-0.013988518;1.030023;-0.025838954;0.05139396;-0.87771946;0.0006664472;-0.07935784;-0.0020399827;-0.07291797;0.10274067;0.15503111;0.06900569;0.034406397;1.0208067;0.046604045;-0.5967524;0.066449724;-0.6644163;-0.16490723;-0.063577004;-0.734748;-0.01107929;0.07068409;-0.026189378;-0.05326768;-0.18655531;-0.6878411;0.06268903;-0.30134192;-0.18225278;-0.4070014;-0.1523246;0.061400034;-0.21401595;0.076103605;-0.03620162;0.23561747;0.52764124;0.0059921923;-0.5777998;0.013214195;0.3165921;-0.0055316635;-0.15447274;-0.0733192;-0.28491834;-0.16507334;-0.0138191525;0.47466895;0.09923413;-0.26512536;0.15975532;-0.024804143;-0.07065627;0.11203611;0.34930703;-0.054153394;0.32814398;-0.05281488;-0.6774883;-0.015850103;-0.17172639;0.0783677;-0.006899293;0.044400122;-0.070134155;0.79578424;-0.12504922;0.021316523;0.036432434;-0.02975968;0.46173045;0.15174112;0.79102826;-0.18488897;0.0366298;-0.35247394;0.12459923;-0.18358545;-0.24846832;-0.6837755;-0.068959154;0.6165205;-0.43490866;-0.10269348;-0.5271419;-0.0152987875;0.050920818;0.27918866;0.46813962;-0.051952645;0.15427896;-0.006534437;0.18660918;-0.027689002;0.13937058;0.118109375;0.012217992;0.0018083012;-0.3459572;0.68859535;-0.11426656;-0.1423738;-0.09036471;-0.22113198;-0.04294183;-0.72738016;0.25712654;-0.06024117;0.15190898;0.06482882;-0.27791846;0.005895136;-0.12973146;-0.03865904;-0.1398647;-0.22577156;-0.6804369;-0.6563867;-0.074225046;-0.0045554005;0.06491288;-0.18628421;-0.16274571;0.022897577;-0.0130595295;0.059135668;0.009193079;-0.07906003;0.14449006;0.71029985;-0.0022371612;-0.04838443;0.1921228;-1.1108446;-0.14741011;0.079156056;0.19374104;-0.077853784;-0.11775537;0.06907469;-0.32816923;-0.10481864;0.5322229;0.07030271;-0.10978214;-0.35426173;-1.0635065;-0.0056670024;-0.27788037;0.018944282;0.016498469;-0.22905236;-0.7371496;-0.08777937;0.0069845743;-0.04262002;-0.15206687;0.44861394;-0.2846453;-0.08858359;-0.5475386;-0.008502565;-0.44091272;-0.03275679;0.027518976;0.10375326;-0.031538546;-0.06924454;0.039894376;-0.087331325;-0.27445453;0.06962049;-0.080445275;-0.0015245108;0.00057492725;0.090963304;-0.06781059;0.014319257;-0.138639;0.109675355;-0.64985716;0.08198429;-0.0052265325;-0.012536135;-0.030935941;-0.13137121;0.0242207;-1.2057967;0.17361286;-0.086204134;0.09394287;0.21769306;0.60104394;-0.15157796;0.023668278;-0.06394622;-0.045194883;0.012315836;0.27053282;-0.011455553;0.1365682;0.08888041;0.26265174;0.051446747;-0.25632071;-0.067450136;-0.011283839;0.033269577;-0.5696251;0.0616596;-0.048048712;0.121955335;-0.09528907;-0.21550708;0.14895992;0.14306454;0.061831467;-0.08911426;0.043873645;0.004320907;0.041363683;0.08316399;-0.04130931;-0.04219534;-0.11273554;-0.048188724;-0.39205936;0.08173643;0.20500103;-0.0010214992;-0.0153066795;0.11462327;0.007464992;-0.12821345;-0.61315763;0.11077384;-0.38040176;-0.092870176;-0.46292683;-0.43377504;-0.019290583;-0.06863903;0.15984847;-0.5597179;-0.1347592;-0.27009532;0.26159588;0.0864016;0.065492675;-0.16947031;-0.008306116;0.085451506;-1.4424292;0.06211411;-0.053966913;0.066360414;-0.0126804;0.14411594;0.052770816;-0.08419873;0.36491773;0.22978452;-0.110696055;0.57942253;-0.1746124;0.13767858;0.11556934;-0.09558451;-0.27590883;-0.18452503;-0.10925297;0.5864904;-0.112872586;0.60859364;-0.12063643;-0.013839763;-0.36895013;0.23922352;0.12988928;0.04482418;0.04814637;-0.17349423;-0.040066842;-0.32990384;-0.057841584;-0.05960842;-0.12070479;-0.55332625;0.51087296;0.05425931;-0.4015987;0.09540456;-0.041496918;-0.07320673;0.03915073;-0.022863496;0.14382574;-0.030987984;0.020591142;-0.022649148;-0.020014578;-0.11822863;-0.119120196;0.05580033;0.013721772;-0.2369277;0.20926565;0.018876288;0.12819405;0.032604504;0.044419978;0.0492112;0.05702395;0.3726478;0.053819895;0.06827196;-0.03313335;0.25514412;-0.32607737;-0.08222739;-0.48483258;-0.971818;-0.38005745;-0.34946817;0.181504;0.06641678;-0.0068726805;-0.30027398;0.1103623;0.21096417;0.02131267;-0.21924193;-0.4836909;-0.054533996;-0.7496369;0.65514344;-0.2605507;0.17591693;-0.06475758;-0.07556581;-0.08709998;0.09262066;0.076427065;-0.2628591;-0.032000035;-0.13347661;-0.018940436;-0.03870776;0.15959899;-0.6777829;-0.027413711;0.028257266;-0.6316706;0.016699623;0.00034064005;-0.039337426;0.19443269;-0.37138167;0.001313504;0.14457284;0.009850901;-0.008461174;0.14687501;0.21959251;0.10755114;-0.022235164;0.37587512;0.089713424;-0.69770426;-0.20970257;-0.023495503;-0.44612983;0.02222795;-0.22937913;0.017164348;-0.051096175;-0.00880551;-0.020679459;-0.14140463;-0.014147353;0.09779469;0.06190553;0.09274314;-0.26502642;0.110649854;-0.58157295;-0.035333134;-0.06891011;-0.32417825;0.12197367;-0.0768916;0.122882314;0.04598062;-0.08261522;-0.46003985;0.12783073;-0.034842387;0.009496475;-0.7978996;0.20576347;0.20398791;0.018509194;0.061128013;0.22334054;-0.25977176;-0.46805865;0.28477302;-0.38277224;0.0132083865;-7.112e-05;0.47921303;-0.5938488;0.39261723;0.0965537;-0.12257902;0.10583059;-0.16155732;-0.02431085;-0.037600093;0.0016260524;0.03999067;0.24084452;-0.09564952;-0.5022312;0.050047867;-0.08557773;0.020515889;-0.053089045;0.31413144;0.15298507;0.092279024;-0.08118616;-0.037489943;-0.021409705;0.45437524;0.015967676;-0.119410455;0.024723897;-1.6009265;-0.042633474;0.03493839;-0.2909554
0.12303349;-0.065531574;-0.013749218;-1.1388018;-0.16410266;0.05819336;-0.074931815;-2.7586877;-0.5264343;-1.3743998;-0.07911643;-0.9080009;-0.022037972;-0.057914566;0.0027827162;-0.3354537;0.14204262;0.05784645;0.056336585;0.35612205;-0.13060398;-0.028466564;-0.08009937;-0.34498107;-0.016301798;0.053355895;-0.069978885;-0.027812038;-0.5541593;-0.13421904;0.03674223;-0.021388503;0.345397;-0.016980987;-0.35419732;0.099541105;-0.0392138;0.008094813;0.07628178;-0.044054;-0.7147371;-0.25888178;-1.0757862;-0.054768164;0.27335173;0.13400088;0.8334014;0.039099097;-1.4019907;-0.21784437;-0.19751303;-0.040662374;0.26184553;-0.08250101;-0.09443424;-0.83373916;-0.13464709;-0.0045679216;0.4092789;-0.07818839;-0.08611625;-0.29409066;-0.057757426;-0.029249636;0.010859451;-0.16722502;-0.11008038;0.49850732;-0.018778449;-0.02263973;-0.10415903;-0.0035986744;0.09229367;-0.16085383;-0.26645008;-0.024104735;0.2031529;-0.10014427;0.15550973;0.24394593;0.10403079;-0.056013823;-1.5058962;-0.0056951563;-0.6137765;-0.024186973;0.1252851;0.08902901;-0.0052210293;-0.12907894;0.044945598;0.8731656;-0.15837339;-0.06961368;0.04321689;-0.07529823;-1.0135729;-0.16543745;-0.95643145;-0.16532804;-0.52301645;0.0057201344;-0.15432389;0.04598688;-0.08376987;0.1274096;0.0305373;0.4371131;-0.03413951;-0.07985365;0.077333994;-0.10093007;-0.034467652;-0.019187368;-0.09115634;-0.06821833;0.101292856;-0.60326904;0.79104424;0.0594455;0.042947244;-0.019700026;0.013686878;0.39099187;-0.08430857;-0.08721227;-0.12477037;1.6744732;-0.028967073;-0.07285647;-0.094121575;-0.6305626;0.28151584;-0.085520305;0.10465996;0.112124756;0.033957805;-0.4723756;0.032051776;0.014780259;-0.028975263;-0.15898192;0.051037636;-0.008901313;-0.07136671;-0.009804855;0.9190072;0.017684326;0.25743547;0.05702727;0.4380278;0.032046054;0.050634574;-0.63752246;-0.051936734;0.08711897;1.3199657;0.5980602;-0.1599323;0.07431632;-0.06892922;-0.36325794;0.39746976;-0.49094668;0.72763395;0.018683096;-1.6671834;0.45243585;-0.15827852;-0.082610145;0.676233;0.02631731;-1.3580774;0.07779589;-0.19715528;-0.01456654;-0.042550337;-0.045127504;0.20208274;0.059683543;-0.7481325;-0.11311649;0.043848366;-0.6519951;0.89892614;0.009602857;-0.063200034;0.33560354;-0.15456423;-0.0346565;0.0840968;-0.14490291;-0.040091336;-0.002453873;1.8406509;0.27391276;-0.004820429;0.07926059;0.07099628;1.2092767;-0.015207443;0.044027757;-0.049762327;-0.06709598;-0.19863626;0.066883616;-0.22151867;0.25658277;0.06324565;1.094559;0.09740581;-0.05092091;-0.43584096;0.5050418;0.017802684;0.8437567;0.24322207;0.3449949;-0.5323959;0.037363365;0.12553373;-1.0946654;0.19991586;-0.11714548;-0.049121685;-0.001467552;-0.08043975;-0.049648575;-0.33767793;0.12830183;0.0992508;0.05379069;-0.5676732;0.058561113;-0.080175295;-0.16265857;0.04455797;0.6262634;0.011986321;0.62100136;0.24973741;0.059277017;0.012066683;0.009650451;-0.74503297;-0.43849367;-0.09969037;-0.08074922;0.025660781;-0.30592108;-0.7771936;-0.2385092;0.04713937;-0.010027203;-0.041458346;0.6123272;-0.095329486;-0.018962488;0.04963782;0.4813477;0.0906073;-0.03216525;0.18877237;0.25067747;0.29603773;-0.16499783;0.5005286;-1.1911662;-0.19888403;-0.0247433;0.5062344;-0.06652862;-0.12259872;0.43545395;-0.4215254;-0.06845913;-0.26118386;0.02418934;-0.079488605;0.13173115;-1.3553457;-0.049273934;-0.30145174;0.03429911;0.026577897;-0.24097668;-1.448494;-0.10108263;-0.010987121;0.24045682;-0.285862;0.9068273;-0.47061464;0.025242798;-0.65240115;-0.020452393;-0.226449;-0.08881612;0.06710889;0.039613068;0.062561445;0.13426057;-0.029267142;-0.07353315;-0.6580355;0.04219318;-0.09868999;-0.016430805;-0.023005486;0.45207512;0.030898757;-0.00018924693;-0.14047709;-0.09529529;-0.23121272;-0.0049812836;-0.05306909;0.09183952;-0.0037927944;-0.0011438268;0.04637448;-2.1685688;0.15867291;-0.29707614;-0.02736333;0.22612464;0.061814178;-0.073420115;-0.031826325;-0.12676674;-0.14243208;-0.11442653;0.9340338;-0.050434098;0.26505736;-0.012259596;-0.05777372;0.014228055;-0.5915325;-0.037688535;0.03593414;-0.008533078;-1.3128471;0.0082821995;-0.08379445;0.121302314;0.7362585;-0.30339664;0.20646627;0.15926994;0.15217577;0.047980864;-0.055438742;-0.03411871;0.047189858;-0.033614796;-0.01339016;0.049783662;-0.05595452;-0.07770004;-0.44882202;0.009254209;0.5090135;-0.06457637;0.94527274;0.13322045;0.069485776;-0.32260582;-0.71559495;0.07602468;-0.35603982;-0.080549054;0.2885086;0.14823708;0.09018853;0.042889077;0.015328222;-0.5469954;-0.0785641;-0.9115968;0.20807624;0.12274954;0.211463;-0.08006256;0.043194167;0.06466017;-2.1077704;0.15904401;-0.06293039;0.08655735;0.04899048;0.51996636;-0.0120552685;0.062853605;0.82045;0.5323118;-0.018636791;0.2288162;-0.09293567;0.0029915283;0.08328018;-0.070030995;-0.17466521;-0.42259997;0.18564485;0.76412237;-0.054294534;0.22564542;0.40365723;0.086570084;-0.36771506;0.15123859;0.26128715;0.009118765;0.10589864;-0.17684694;0.05472999;-0.6838621;-0.07886113;-0.01504169;-0.76266646;-0.043251745;0.13021983;-0.09216634;-0.4197887;0.49297515;0.0005083772;-0.077356204;0.4414316;-0.078922115;0.0024714787;-0.00058749516;0.11182632;0.0030418965;0.009297191;-0.10264247;-0.14645027;0.15640782;-0.09815037;-0.20987478;0.095381245;-0.007027248;0.1014813;0.024809798;-0.35409573;-0.07054045;0.7691622;-0.42922527;0.05220653;0.04687084;-0.04993619;0.21299851;-0.085212424;-0.10872804;-1.2133772;-2.4174924;-0.13986807;0.09962202;0.07438418;-0.011937153;-0.12201703;-0.38245654;0.12111363;0.45635533;-0.007639818;0.6152591;-1.0210922;-0.11085515;-0.509449;0.057227984;-0.3814207;0.22255474;-0.0003010618;0.4136132;-0.09713016;0.1827434;0.07790522;-0.5953457;-0.11827039;-0.14062725;-0.4199102;0.033279035;0.080818176;-0.25523034;-0.03615463;-0.10036305;0.029389512;-0.023176996;0.019470818;-0.04401379;0.038943484;-0.2744983;0.054680664;0.086779684;0.018354328;-0.039375726;0.14638324;-0.23273635;-0.021349695;-0.047808297;0.49976987;0.061423603;-0.08303204;0.6030643;-0.012784177;0.04894309;0.045049362;-0.36862725;-0.014532269;-0.021923805;-0.50874025;-0.0025683874;-0.11630543;0.062320422;0.19120635;0.020199714;0.18041848;0.97136664;0.10976469;0.2927756;-0.07837625;0.04805608;0.23905538;0.2560894;0.002164141;0.2414966;0.108439155;-0.017078917;-0.13641654;-0.034349818;-0.04857055;0.18575427;0.6261642;0.4035622;0.16862419;-0.012244247;0.019232692;0.18469371;-0.33480862;-0.13854809;-0.66272736;-0.79515755;0.17716648;0.03461584;0.037721872;-0.9724031;0.5884028;0.436777;-0.44057864;0.06583549;-0.013980462;-0.005476303;-0.050195623;0.12117455;0.105106294;0.364477;-0.04538423;-0.08896084;-0.008815317;-0.71874094;-0.01667852;-0.10525928;-1.3363878;0.08486279;0.14888702;-0.11633146;-0.14902498;-0.072044216;-0.18906182;0.0525806;-0.1263344;-0.025167437;-1.8350064;0.031979963;0.011007746;-0.44459924
0.0127138235;0.012767833;0.01642913;-0.7934757;-0.14028852;-0.05031708;-0.033147387;-0.4439231;-0.32910138;-0.24807139;-0.042680208;1.0452662;-0.0105863875;-0.42755297;0.06989868;-0.4417693;-0.25399357;-0.02589687;-0.06737752;0.5213827;-0.01758981;-0.04126048;-0.05168845;-0.20274082;-0.03819477;0.02909342;-0.029573783;0.048384637;-0.48840734;-0.022940405;0.02195685;-0.34734762;0.44337186;0.00195009;-0.16629827;0.035503566;0.05162415;0.0496534;0.042859476;-0.030546673;-0.82552457;-0.24075665;-0.70676357;-0.030643223;0.07987003;0.14033344;1.4730644;0.098001875;0.6576712;-0.8384274;-0.44838995;-0.07148783;0.26308092;0.040407162;-0.41779843;-0.6393171;-0.02586463;0.035916075;1.5890151;-0.06551454;-0.06625407;-0.47005013;-0.08429587;-0.3542068;-0.02269321;-0.353729;0.9893882;0.93249875;0.0023437624;-0.062021166;0.042336427;-0.002516401;0.12573825;-0.16120316;0.59959304;0.00019545257;0.12060342;0.014520589;0.31549177;0.25983936;0.09549957;0.06795962;-0.18997723;0.05222538;0.6110132;0.0147270225;0.036689073;-0.5249711;-0.022729712;-0.08802177;0.062941216;0.49153134;-0.26841214;-0.08725188;-0.068069525;-0.01788698;-0.64123595;-0.023723423;-0.44277927;-0.20466237;-1.4602166;0.07582326;0.10637906;-0.33379847;-0.15884873;0.15382023;0.06972094;-0.38173234;-0.008660712;-0.27055958;-0.036514666;0.037092783;0.034832064;0.010293361;-0.06490025;0.02187975;0.017572863;-0.25274155;-1.067204;-0.061383735;-0.026688261;-0.064555734;0.34877285;0.55109936;-0.032316428;-0.08743959;-0.10394708;2.135394;-0.08538696;-0.0037036848;-0.03704572;-0.34890932;0.3573928;-0.006665832;-0.2645991;0.15285514;0.08707145;1.248613;0.003282994;0.034311354;-0.06981605;-0.19015743;0.053631455;-0.029866928;0.06014613;-0.03530402;0.24320361;-0.026163857;1.3831517;0.20498657;-1.2821183;0.005275543;0.043366738;0.16273467;-0.051547274;0.06905891;0.50469726;1.2831621;-0.29305476;0.65510744;0.045905985;-0.52333313;-0.27298746;-0.62695295;0.04473314;-0.01615979;-1.959575;0.726054;-0.26004425;-0.17278166;-0.36288407;0.06400729;-1.9822;0.23167388;-0.042097878;-0.070585094;-0.021110585;-0.06477209;-0.37550914;0.02479263;-0.6768033;-0.5261504;0.032041404;0.5617444;0.49667975;-0.033807825;0.018478919;0.45219293;0.03179775;-0.08038759;0.055046603;-0.09321085;0.6618936;0.01412608;1.1789415;-0.17931734;0.07030138;0.039778583;0.016043723;-1.2861028;0.027650462;0.05298524;-0.10873187;0.015808647;0.0746926;0.13093388;-0.73239064;-2.2078338;-0.035458133;0.5094615;0.058471955;-0.10304275;-0.59044015;1.1991149;0.040791314;-0.72144145;-0.07405116;-1.2462147;-0.25074342;0.04980546;-0.045084577;-1.2722583;0.1796338;0.03386875;0.07089744;-0.009943943;0.08899601;0.021436231;-0.47395986;0.010362375;-0.06589945;0.018400224;-0.8592695;0.07233202;-0.023890315;-0.24042405;-0.037558917;0.64506054;-0.019333895;0.6371047;-1.048346;-0.025933696;0.05375108;0.040613323;0.20452514;0.06941364;-0.26617846;-0.14071915;-0.104032464;-0.22548668;-0.07121701;0.0046782186;0.0023849255;-0.06374002;0.016161697;0.83496875;-0.40641174;0.053360015;0.03602946;0.47725677;0.16080672;-0.060255814;0.29208368;0.06944068;-1.5762444;0.004909062;0.44900104;-0.568889;0.036238108;-0.024304384;0.55488724;0.030922346;0.0042230985;0.67046106;-0.40729088;-0.44031823;0.2808495;0.040242;0.011197668;-0.09113446;-1.8890731;-0.030965194;-0.3283072;-0.017900912;0.031330764;-0.19104362;0.3032629;-0.057424594;-0.078833625;0.055547662;-0.24500783;-1.0167534;-0.5710021;-0.00095972687;-1.058697;0.05235305;-0.3715498;0.042504203;0.04319508;0.11531861;-0.032333337;-0.1165736;0.054927386;0.063368276;-0.5909051;0.04328108;-0.26347613;-0.0767358;0.04108755;0.35268;-0.01769385;0.0016315563;-0.46787894;-0.5077198;1.0262754;0.02471029;-0.037209272;0.035228245;-0.0537331;-0.12995024;-0.03944719;0.38958272;0.16831519;-0.28156978;-0.07298816;0.32714725;-0.27378637;0.00028683792;0.025324441;-0.09926238;-0.05441929;0.0035501304;0.6673174;-0.17344874;0.36344692;0.03391759;0.29465958;0.003392054;-0.16897866;0.039494302;-0.06113074;0.07977666;0.028751222;0.07301557;-0.064041436;-0.0034439866;1.5604159;-0.3530323;0.22537395;0.05146388;0.21072589;0.038499877;-0.06039074;0.019317267;0.15542763;0.021036992;0.09039831;0.07091702;-0.017894933;-0.059412222;-0.668902;0.026708059;0.39581403;0.03538323;2.1637459;0.068523005;0.009486569;-0.120200746;0.30928153;0.03928631;-0.23059435;-0.0394264;0.07378549;-0.33183062;-0.026132973;0.009944637;0.09889157;-0.25772315;-0.026884185;-1.0605992;0.359659;0.089034185;0.18276852;-0.17876387;0.054912467;-0.055492703;-1.5287845;0.26477495;-0.0012805366;0.2861089;-0.064817525;0.6615831;-0.056720883;-0.05801062;-0.050226443;0.6628379;-0.047681414;0.17295754;0.6331966;0.0049445373;-0.032680888;-0.059409525;-0.2678457;-0.13657455;-0.51670754;-0.06806118;0.032389652;-1.3692769;0.5689642;0.016443435;0.016696032;0.019601878;0.29847324;-0.05011353;0.01752268;0.03803626;0.002483447;0.020082185;-0.051450547;-0.01182846;-1.877329;-1.082075;0.2349006;0.070072964;-0.5187985;-0.02920072;0.057523105;-0.08215886;-1.3978417;0.030970603;0.030552208;0.06563965;-0.043126658;-0.10211284;-0.0039540725;-0.07126345;-0.11637117;0.0729645;-0.18203896;-0.23951353;0.15647364;0.03359268;-0.0023783671;-0.0067655756;0.04120164;0.029054869;0.28476703;0.022624416;0.044128716;6.9101475e-06;0.04933163;0.100966685;-0.047791384;0.06765653;0.4693486;0.2623794;-0.3268852;0.21922868;0.08545182;0.10610226;-0.051320728;-0.7475473;0.01469182;0.018055463;-0.06638859;0.17952879;-0.009178077;-0.18781136;-0.019313999;0.25294453;-0.53270525;0.17547132;-0.0081186;0.4459743;-0.11172869;0.1923018;0.1430348;-0.78355914;-0.31576043;0.08287908;-0.41565996;0.011655278;-0.03642861;0.16924416;-0.02736845;-0.15534015;-0.121059105;-0.010793666;0.07142848;0.012504301;0.05769922;-0.22209246;0.04509938;0.029154964;0.115577035;0.016716028;-0.03890457;0.36679998;0.08270815;0.07655824;0.4592427;-0.00015322038;-0.8777491;-0.023228068;-0.10526854;-0.112299755;-0.079600796;-0.23472567;-0.04784925;-0.07587963;-0.79562145;0.015399641;-0.102616005;0.055899315;0.43734002;0.0796301;-0.14730994;1.3193772;0.10998268;1.4400073;-0.019657701;-0.023808343;0.320654;-0.017451068;0.009848687;0.15570092;-0.017604776;-0.03971149;-0.44015652;0.12712607;-0.037724476;0.48782617;0.38948238;0.38281342;0.32108444;-0.05189764;0.018503312;0.37105498;-0.021738203;-1.4107863;-0.0053958516;0.35109755;0.025680428;-0.062416974;0.15610266;-0.7534555;-0.88604844;0.7300465;-0.29223865;-0.012330951;0.12875235;0.013066212;-0.076179676;0.09101261;-0.05652867;-1.0526282;0.025475789;-0.03926206;-0.00996709;-0.35055214;-0.008733396;-0.1065696;0.6082261;0.113716446;0.04499237;-0.052369982;-0.09060159;-0.11364253;0.2279751;0.0679863;-0.016836101;0.05743174;0.7414917;-0.016571084;0.040808268;-0.39941117
-0.18417229;-0.055942036;0.010988366;-0.2614926;-0.32458314;0.0647291;0.033059217;-0.41744104;0.3676735;0.17215012;0.2073166;-0.6204047;0.2607704;0.40385762;0.051300067;-0.044752263;-0.7969936;0.08629294;-0.031529114;-0.26825076;0.027725196;0.110101834;-0.04508763;1.7889105;-0.08162091;-0.11656339;0.048195347;-0.007882391;0.093577035;0.21545376;0.025881093;0.36086857;-0.22964713;0.06350455;0.29416558;-0.22567898;0.048229095;0.052102543;-0.024634767;0.030317947;0.11454103;-0.50915295;-0.170015;0.11723017;-0.0058926474;0.014937914;-0.91853696;-0.0872685;-1.1123582;0.80370134;0.6007661;-0.03629666;1.0381624;-0.011873409;-0.76661843;-1.2861907;0.24745363;-0.2587472;-1.1771728;0.025922975;-0.19086388;0.3069915;0.11246692;0.003859899;-0.25979835;-0.35728925;-0.25085405;-1.6281099;-0.17660673;0.0033020645;0.08635753;-0.062435113;-0.2936651;0.1239244;-0.5204286;-0.4054379;-0.0018916553;-1.3035187;-0.9074364;0.39804462;-0.33753517;-0.021064878;-1.4791964;-0.06858411;-0.9507232;-0.05456505;-0.15206864;-0.03666557;0.044883713;0.1247058;-0.36537948;1.2892128;-1.1830381;0.014939456;0.037753467;-0.06902548;-1.2927672;-0.20750827;0.40629447;0.23851547;-0.47555017;-0.10697665;-0.085925475;0.35564697;0.09144112;-0.37251458;0.0344609;0.81656426;-0.022471275;0.35108852;-0.03521645;0.10458619;-0.02143205;-0.012558636;0.25403118;0.024063481;-0.278646;0.828034;1.4614649;-0.13226284;-0.109387614;0.034764517;-0.5245806;-0.38142535;0.13767724;-0.37400484;0.12057475;0.7193775;0.1271089;0.007990624;0.025655536;-0.5436749;0.22303706;0.15116999;0.2298548;-0.023641897;-0.30646273;-0.7039945;0.090416536;0.14285131;0.051847994;0.28643632;-0.06675214;-0.28241637;0.018363716;-0.11112394;0.5307234;0.053639036;0.21027875;-0.29688144;-0.8915434;-0.033663947;0.022609528;0.28597644;0.0068460917;-0.051737435;0.958345;0.4941879;0.63363934;-1.0032828;0.0003595717;-0.11289471;0.64812076;-0.09893173;2.4281814;-0.021117253;1.0236739;-0.54760647;0.15947083;-0.2663396;1.55882;-0.13418432;-0.46127096;-0.30250898;-0.87340295;0.12290955;0.21764968;0.048647393;-0.0120813;-0.05486785;-0.0119737955;0.5631762;-0.1249345;0.26740542;-0.13405356;-0.13257138;0.23693514;-0.26926592;-0.78269106;0.2812316;-0.18287027;0.26825595;1.3414084;-0.056499507;1.3531448;-0.8597147;0.04023161;-0.01836074;-0.051176462;2.6063268;0.21018507;-0.03787457;0.08598908;0.08316458;-0.84140193;-0.27527356;-0.39233243;1.5227505;-0.10973577;1.5259566;-0.33969462;0.36226195;0.16546766;-0.40779454;0.10371158;2.337492;-0.33136633;2.161854;0.12966692;-0.091234975;-0.10981079;-1.6064768;-0.75461286;0.03731111;-0.14818081;-0.21090601;-0.25532722;0.0019023108;-0.6610297;-0.2790069;-0.10037134;-0.21668842;-0.049797464;-1.1714685;0.13341808;0.3296534;0.015813407;0.079190485;0.07460623;2.0517027;0.45853737;-0.010308689;-0.2466527;0.030645702;-0.9224849;0.21862505;0.14831147;0.21114337;0.09533786;-0.0044472483;0.3403552;0.05471199;0.018306976;-0.05224739;-0.09455012;-0.37376037;0.3204903;-0.10750314;-0.15081242;0.5694785;-0.28117082;0.07528221;-0.24413817;-0.24102166;0.93873733;0.32526833;-0.40872207;0.37772122;0.23736683;-0.08909484;-0.27679116;0.008555726;0.07969368;-0.54782647;-0.11058362;0.36392993;-0.30755144;-0.031770013;0.068599194;-0.14034359;0.035772327;-0.085521676;-0.09727048;-0.047616154;0.0019269946;-0.059805207;-0.013615698;0.08704413;-0.1537176;0.037079956;-0.0829517;0.31431893;0.1688219;0.017164264;-0.25241208;-0.08014575;0.010064468;0.02476191;0.046468664;-0.30565092;0.030329723;0.44391352;0.063325815;0.062461223;-0.4074702;-0.040170215;0.4358724;0.06515166;-0.13889542;-0.44103134;-0.05978957;0.046868857;0.22041802;-1.1134803;0.93854725;-0.08214713;-0.05338283;-0.12066533;0.097806774;0.08127134;0.05681182;0.060497466;-0.28404877;0.38495165;-0.06445837;-0.3731878;-0.31483603;0.094646;0.08554012;0.2264407;0.06505615;-0.008254217;-0.00042928493;0.14036748;-0.3156726;0.013770556;-0.38996652;-0.031681307;-0.8988203;-0.094040446;0.12952362;-0.09508167;-0.17302284;-0.012512803;0.04530727;-0.17503321;0.41215947;0.022807054;-0.35417622;-0.26516563;-0.29717636;0.08804349;0.0723698;-0.1182718;-0.32738116;-0.046226438;-0.06940505;-0.029564548;0.2660786;0.023724569;-0.26641062;0.027024249;-0.051947597;0.103595085;0.11287953;-0.067213476;-0.062042043;-0.2882228;-0.37760797;-0.10985365;-0.18224533;0.09126065;-1.133657;0.037453257;-0.055048373;0.05903458;-0.27511796;0.072167344;0.28622928;-0.96495205;-0.3207113;-0.24347731;-0.33277005;0.27069128;0.05094986;0.0025528441;-1.0664635;-0.27658516;0.14105098;-0.15782496;0.07664966;-0.4984903;-0.052398115;0.12111817;0.27808064;-0.44300222;0.077287234;-0.9400334;0.5230679;-0.25581256;-0.18012132;-0.0008695966;-0.11424546;-0.22412764;0.25038555;1.121567;0.17292881;1.1340811;-0.5475323;-0.12052411;-0.05729869;-0.11238805;-0.21655744;0.0632508;-0.16879101;-0.20788442;0.04849953;-0.5372398;0.12027116;0.03418185;0.0052078534;1.1930135;-0.3434472;-0.018131107;-0.059800897;-0.47701523;-0.010513028;0.01581456;0.37088355;0.08306071;-0.25073645;0.097129814;-0.2307179;0.08890006;-0.101115;0.041646857;0.36599565;-0.19209202;0.091226436;-0.2081986;-0.30921096;-0.030991152;-0.12551722;-0.047977123;0.0890137;-0.019946637;0.8133463;-0.62183523;-0.1563396;-0.06533497;0.05790547;-0.39774305;0.38666493;0.023416951;-1.7227628;-0.05152981;0.035820536;0.83450806;-0.29223698;-0.099570565;0.14696686;-0.24767652;-0.14008918;0.28054366;0.040121883;0.5219624;-1.3610603;-0.016150814;1.4963427;-0.43875188;-0.14281791;-0.23287313;-0.062402066;-0.036305256;0.37157777;-0.10963894;-0.25421417;-0.048325583;0.27492562;-1.3509885;-1.9164554;0.12501091;0.0073778657;0.6646361;0.08113646;0.37904838;-0.97670114;-0.026288446;-0.05655012;0.08662066;-0.38417453;0.17123047;-0.03597765;-0.24554604;-0.40123087;0.1094315;-0.16888407;-0.44211552;-0.14926264;-0.0057735303;-0.15568419;-0.14283296;1.4261544;0.25589848;0.13361056;0.66481775;-0.12695114;0.25513548;-0.013233671;0.084576875;-0.18511237;0.100609235;-0.06763681;-0.06584631;0.29149544;-0.24176861;0.17339428;0.51991796;-0.343027;-0.7469755;0.31800994;-0.020235328;-1.5445621;-0.2486111;-0.046582308;-0.25841624;-0.03977141;0.18228261;-0.9184001;-0.5700458;-0.24397486;-0.019342288;-2.0267937;-0.31079626;-0.23994121;-0.054215588;0.015048263;-0.23999603;0.90626585;-0.5687093;-1.1364607;0.057579495;-0.25912088;-0.11631766;-0.91309935;0.19101547;-1.52791;-0.48383915;0.12986113;-0.349801;0.01847003;-0.036829732;-0.12296237;-0.23813014;-0.020215219;-0.18883196;-0.37867767;-0.6552028;-0.06835744;-1.0432975;0.015870448;-0.055742495;-0.13944608;-0.28845227;-0.18768898;0.0803683;-0.015375518;0.2395788;0.07215713;0.101943;0.15983224;0.12256359;-1.7859523;0.079492055;0.035049908;0.0007492305
0.4090874;-0.017664405;0.0826206;0.3751612;-0.17336334;-0.053400356;0.023548098;-0.15159428;0.56716317;0.11761854;-0.07245819;0.8351888;-0.05649111;-0.48007378;0.06438843;-0.39232746;-0.76296973;0.05837098;-0.035206147;0.014731347;-0.17128584;0.016072009;0.016668595;-0.18479328;-0.01308186;0.058549393;-0.0762666;0.0119892;-0.11948852;0.03543134;-0.019422652;0.015384358;0.05824234;-0.014480881;-0.008058419;0.30938393;-0.023687592;-0.05467921;0.04495155;0.07935888;-0.14087692;-0.9955085;0.0684697;0.011098398;-0.15712601;0.08121316;1.5724921;-0.070626155;0.39034417;-0.106420144;0.96330714;-0.015250074;0.9107728;-0.08438933;-1.4266447;-0.81265825;-0.04097666;-0.121481225;-0.97099584;0.01692327;-0.16692218;0.15392442;0.06359351;-0.014153354;0.016954366;-0.013429041;-0.83849794;-0.3764151;-0.052542917;0.05039882;-0.03564812;-0.02434119;-0.025433686;-0.07892286;1.3997725;0.020135315;0.12619811;-0.6616745;-0.54075015;-0.36662647;0.004111875;0.0066981446;-0.8016771;0.06542131;1.4746281;0.0068012;0.13680592;-0.3666654;-0.053710192;-0.101026885;0.117284134;1.7251301;-0.05774676;-0.07420453;-0.0025191396;0.026557773;-0.2920883;-0.14496577;0.83952016;-0.008560048;1.0269839;-0.069587894;0.544755;-0.010049244;-0.11227445;0.09731651;-0.041746482;-0.1464201;-0.059130125;-0.13487291;0.068172306;0.0117807975;0.058675755;0.03027669;0.0058372514;0.0022361663;-0.03212154;1.5741428;0.18636711;0.00908833;0.018522302;-0.032576002;-0.23565428;0.10149102;-0.014856674;-0.10215421;0.053055182;1.8781526;-0.011958364;-0.07520876;-0.010343521;-0.6346593;0.15977801;-0.04007632;0.49009132;-0.05446808;0.024844771;1.3581998;-0.0672278;-0.10171541;-0.09123564;-0.06831899;0.059037596;0.004818775;0.10627115;0.00031526707;0.26682308;0.04522787;0.69541776;0.09541413;-0.20759891;0.0031365254;0.039249472;0.17320877;0.059328314;0.010546478;0.53568876;0.43899608;0.16880101;1.0992169;-0.0036547752;-0.28039372;-0.06151254;-0.08417005;-0.81196076;0.07480598;0.8395423;0.027363656;0.10680594;-0.08840601;-0.7484268;-0.0864795;-2.8502724;-0.06067361;-0.0506415;-0.09194398;-0.16595802;-0.04843981;0.69778347;0.17807521;0.2697064;-0.41838035;0.0404742;0.8932516;-0.13898253;0.017362101;-0.06977112;-0.03386065;-0.38886702;0.030296754;0.07414789;-0.13570657;0.37922603;-0.029607423;0.27913868;-1.2317371;-0.019447949;-0.04465122;-0.025043692;-0.047114387;-0.1070491;-0.013494141;-0.059544932;0.015163995;-1.8497738;0.07646539;-0.026170982;-0.28283742;0.08022662;1.578188;0.09485144;-0.028367449;-0.19157173;-0.71342325;-0.02049112;-1.235957;-0.59099054;-0.034589157;-0.11096197;-0.039554015;-0.022727648;-1.2858739;-0.08425696;-0.039496522;0.033060007;-0.014544945;-0.03423457;-0.020025034;-0.29501593;0.088020794;0.04510847;-0.010114851;0.32622215;-0.111333795;-0.029428525;-0.13166133;-0.009544466;0.28874645;0.007091032;2.5333922;1.0120472;-0.045483414;0.00908484;-0.078528374;-0.62044746;-0.02103245;-0.005147389;0.0011437188;-0.020333234;-0.36355945;0.64809453;0.67648816;0.049142394;0.05429955;0.09495795;1.3537363;0.12986638;-0.01793007;-0.002103072;-0.4844748;0.03302465;-0.05769146;0.062326975;-0.08538368;-0.095831364;0.03628616;0.1605584;0.73831993;-0.8117272;-0.10172456;0.034992397;-0.0145339435;-0.09581883;-0.05031817;-0.3275021;-0.010609995;-1.5664988;-0.082260616;-0.15602176;-0.35014722;-0.6024458;-0.004730343;-0.39288205;0.039502062;-0.05779135;-0.24511312;-0.3583628;0.00491209;0.08953293;0.37293524;-0.40377912;-0.7178652;-0.2671487;-0.079545155;0.37058303;-0.08206432;-0.3967911;-0.03573097;-0.041184798;0.037006047;0.007834877;-0.26742908;-0.07562404;0.042525567;-0.98953164;-0.06023549;-0.048165496;-0.06884527;-0.06504753;-0.009745065;-0.07847988;-0.09124954;0.09031483;-0.43082616;0.06315391;-0.015930235;-0.08429549;0.09514522;-0.102993995;-0.056124873;-0.01056194;0.60165125;0.019588811;0.21318659;0.06648355;0.06798403;-0.53936267;-0.06592307;0.07432874;-0.019715838;-0.03158242;-0.15008108;0.72229236;0.014854896;0.05860741;0.025596643;-0.60740054;-0.0074237487;-0.0040307166;0.07967759;0.0079793;-0.0049607726;0.31225902;-0.033281505;-0.114944756;0.119483426;0.7991104;-0.33032373;-0.04005165;0.12832326;0.003941188;-0.05983549;-0.0086812815;0.0020346025;0.051053066;-0.01361481;-0.059717804;-0.075674914;-0.42955172;-0.056230385;-0.40387198;0.031334642;0.23115021;-0.12708126;1.5801823;0.013179567;-0.057617374;0.11074389;-0.012696242;0.06602259;-0.31098557;0.02589911;0.17811297;-0.7296553;-0.010145143;-0.009559272;0.12557462;-0.030949587;0.017993443;-0.40517166;-0.033748977;0.11717357;0.054751657;-0.04210937;-0.017746452;0.013028993;-0.66312325;0.01635139;0.010413229;0.120162115;-0.012754316;0.008380538;0.03978551;0.002931646;-0.035089307;0.06921481;-0.062165648;0.057312347;-0.5064085;0.05060977;0.07164214;0.04491205;-0.44104725;-0.4761363;0.38828522;1.5244594;-0.021738285;-1.2202569;0.7072136;-0.046447225;0.119624406;-0.1777582;-0.024584712;0.053749062;0.07666448;-0.12665471;-0.044338986;-0.41017935;-0.1288633;0.04525785;0.17266753;0.6655472;-0.56642467;-0.09052307;-0.35388756;0.66486645;-0.05200728;0.032320052;-0.3842214;-0.07688109;-0.018494379;-0.10216516;-0.03201791;-0.037389114;-0.07711766;-0.11567016;-0.27109435;-0.0054507563;-0.0639439;-0.33959773;0.018502384;0.056660872;0.094485275;-0.05731243;-0.49621063;0.038481455;1.547744;0.08153998;0.01914241;0.083437465;-0.025549836;0.25474748;-0.05618512;0.014247754;1.856802;0.28535494;-0.24825507;0.8696351;0.027259087;0.029281704;0.042949207;0.47555897;0.08171868;-0.16494745;-0.04592725;0.13582015;-0.15689622;-0.22031154;-0.5191204;-0.13524367;-0.11078211;0.022246704;0.0107274335;1.2583063;-0.10791387;0.07480339;-0.014337328;-0.15302032;-0.14254454;0.06698495;-1.4393766;0.036713265;0.053007063;1.3445578;0.006415533;0.005664289;-1.3057486;-0.023956558;-0.050707113;0.034402933;-0.10814832;-0.09231313;0.08543303;0.08576643;0.11587532;-0.114229545;-0.022110539;-0.37328798;0.014687968;-0.030765658;0.18846773;-0.022537041;-1.1549037;0.30954638;-0.11676438;1.0775523;0.10420011;-0.12491228;0.1495072;-0.07551678;1.047502;0.0028385115;-0.19468379;-0.085632734;-0.68177986;0.035953574;0.04281907;0.33871433;0.11252944;0.7388072;-0.103490055;-0.09934634;-0.40303436;-0.17466918;-0.041359916;0.048899077;-0.039032813;-0.14360958;-0.34610793;-0.23351961;-0.11099409;0.1871736;1.2241375;0.09376937;0.1084521;0.058956254;0.005515042;-0.071952105;0.7769657;-0.2566302;-0.2370847;-0.33269584;-0.2913815;0.08566238;-0.60698515;-0.8535843;-1.5093257;0.07182033;-0.36690295;0.1008775;-0.4884357;-0.05668658;0.0051829866;0.043823432;0.0114262095;-0.44929215;-0.13582389;-0.031278376;-0.080541454;-0.2904915;-0.02091952;-0.02679099;-0.6122631;-0.046503823;0.093138695;-0.101037055;-0.050152756;-0.12976402;-0.41859537;-0.09667854;-0.018294133;-0.047507722;1.3632494;0.021603253;-0.081497245;-0.23899736
-0.15032247;0.01741873;-0.07076274;0.4135585;-0.23676085;0.034744203;-0.009485298;-1.0661218;0.37222925;-0.3095261;-0.009870114;-1.1291375;0.03438271;-0.78204006;0.02200629;0.14589342;-0.46318588;0.42081988;0.068258606;-0.3737027;-0.05942687;0.025544874;-0.062192783;1.0690708;-0.027446888;-0.018667735;0.016850347;0.061282944;0.3480581;-0.03772474;-0.010356565;0.16752331;-0.24968606;0.07543313;0.44033626;0.33968338;0.06459197;0.020590961;-0.036354836;0.012660343;-0.22950701;-0.86511236;0.14838797;0.04628932;0.77549636;-0.12340401;-0.7258153;0.017389428;-0.8317307;-1.1735243;-0.1830484;-0.025862463;0.048980057;0.05629845;1.6167847;-0.86644495;0.04682291;0.05379867;0.83278066;0.04708938;-0.14606437;0.43377528;0.09004184;-0.057461087;-0.043949638;0.03928427;-0.3723313;-0.75514454;0.019703332;0.030794293;0.091462664;0.080459595;0.010153538;0.058243956;0.011578685;0.120805144;0.094179794;-1.062758;-0.28043252;2.2899175;-0.009202421;0.031740602;0.6177401;-0.017681507;0.54777837;0.019447029;-0.09202992;0.12105422;0.015873184;0.0004968708;0.010662445;2.2936935;-0.29958344;-0.06883793;-0.05366028;-0.066946164;-0.26615188;0.04183244;-1.3406538;0.034465667;0.035007965;-0.045772713;0.37710452;0.069348305;0.03753767;-0.09269826;-0.018208854;-0.9606177;0.010364384;-0.22643372;-0.0049558934;-0.013614606;-0.011798806;-0.0031306227;-0.04086478;-0.077490665;-0.08066376;0.24738213;1.5311775;0.016590545;0.012703295;-0.04016755;-1.660375;-0.2632782;-0.014989289;0.14818326;-0.028868444;0.6417879;-0.0071851057;0.076100126;-0.004956945;-0.49239793;0.0705285;0.0068950807;0.6293865;-0.043787003;-0.074841455;-0.12497153;0.010384098;-0.021652823;-0.059445567;0.107382685;-0.11574007;0.014055204;-0.022707673;0.017040346;0.35579145;0.034081522;0.694945;-0.14836317;0.42910266;0.46413264;0.009686668;-0.46116507;-0.02375593;0.050408058;-0.08045685;-0.25929925;0.6296738;-0.5408509;0.072847635;0.17995103;0.7527118;0.29837483;1.1874751;-0.07294005;0.7347272;-0.47716862;0.93027395;-0.14108768;1.1165278;0.005958349;0.12860619;-0.025509331;0.16757627;0.06292276;-0.08428999;-0.13959704;0.53389555;0.15629914;0.9016324;0.8871456;0.038445547;-0.28284815;-0.50539416;-0.07346216;-0.061716344;-0.30790013;-0.103104554;-0.050114594;0.26246157;0.032355543;1.4896544;-0.013897002;-0.23491274;0.09328717;0.01164097;0.019666562;0.022242898;2.2436454;-0.030973649;0.020989528;-0.020076748;0.054321934;0.29832911;-0.103364505;0.005334869;1.5074729;-0.015454656;2.4802508;-0.028985098;0.12563825;0.37413856;-0.33695412;-0.065565355;0.91298956;-0.24331333;1.4756253;0.3308624;-0.0488244;-0.081611276;-0.4813351;-0.1613998;-0.07180436;0.035890386;-0.011103861;-0.2748093;0.095352665;-0.119814545;-0.0036624807;-0.029877352;0.029262798;0.18948346;-0.6974908;0.059600186;0.27651924;-0.037569296;-0.26413128;-0.04701412;1.1265612;1.3277259;-0.05842874;-0.26256278;0.03448106;-0.7168288;0.006687523;0.06895533;0.02737351;-0.024475679;0.13312271;-0.7721354;1.0838511;-0.04366799;-0.10015596;-0.03859199;-0.18883716;0.39981857;0.011800166;0.04876211;1.2098119;0.007917118;-0.18438327;-0.058477674;0.0032768126;-1.4071879;0.018973287;-0.28813753;-0.8308971;0.46706915;-0.20777869;-0.24323162;-0.07566902;-0.057248406;-0.46745208;0.1632276;-0.47177944;-0.25105125;0.03209729;-0.040021136;0.16777003;0.8354644;-0.07526964;0.066242576;0.016437296;-0.06580674;0.13649383;-2.4988344;-0.057220846;0.00755816;0.28911707;0.05387895;0.4342155;0.73818153;-0.041630823;-0.16819946;0.019429814;-0.00558639;-0.0470626;0.016829763;-0.00059056364;-0.07493448;-0.11094427;0.06438628;0.025727425;-0.24373944;-0.012543634;0.14377789;0.065422036;-0.05141517;-0.49293524;0.023788156;-0.013305424;0.20262593;-0.7828726;0.26430473;-0.0048439465;-0.0563812;0.02917855;-0.021737734;0.0058481623;-0.026676523;-0.61494774;-0.028627682;0.9951115;0.06785154;-0.074752696;-0.009253046;0.09895821;0.07944526;0.100386016;0.060821567;-0.19470583;0.054242607;0.09801738;-0.34788117;-0.06191409;-0.19042335;-0.029438956;1.6197202;0.09012104;-0.006341903;-0.058404654;0.20261292;-0.08703262;-0.06595666;-0.05368193;0.6995964;0.08106942;-0.2896543;-0.11063076;-0.02500909;-0.031212954;-0.00985988;-0.024069127;0.017798912;0.05513822;0.02741159;0.07263812;-0.82742685;-0.057868928;-0.01602373;-0.02210565;-0.3220717;-0.01724826;0.035454582;0.025707548;-0.040573783;-0.14999086;-2.206903;-0.05048973;0.14539026;0.027758446;-1.0222062;1.3495635;-0.109807126;-0.023710515;-0.067310214;-0.08401785;0.03433545;0.16062778;-0.29056874;0.012203481;-0.17493728;0.06339899;0.042626794;-0.08543511;-0.7899247;-0.103554174;0.075784504;-0.1185087;0.07832678;-0.3678795;0.015357444;-0.03138237;0.2206525;-0.3874937;0.09224322;-0.008983283;-1.1881316;-0.12044;-0.022503166;0.011334725;0.12185378;-0.4021911;0.9144636;1.519741;-0.07797307;0.1719599;-0.5101857;-0.059807025;-0.08278321;-0.15958609;-0.22533053;0.023168059;0.0030024415;-0.11781337;-0.08833519;-0.12938538;0.01793226;-0.0049359333;1.255953;1.1491958;0.682831;0.038253404;0.20871976;0.5823061;-0.059023503;0.010774586;-0.1267595;-0.010075694;0.0073278043;0.058177907;-0.02003865;0.06222335;0.057126842;-0.001376265;-0.25001186;-0.09147258;0.056097776;-0.08095061;-0.047140893;-0.012918649;-0.11675155;0.03318514;0.1740119;-0.08105166;0.36064172;0.03854851;-0.05568543;0.020101048;0.012457876;0.009983786;0.021732047;0.013093823;0.62838686;-0.7679207;-0.14269865;1.2473872;-0.011710369;-0.0939828;0.03502401;0.017371234;-0.097315796;-0.020910177;0.0357722;1.3630506;-0.9403825;0.051311422;0.40688917;-0.5219066;0.08023166;-0.19525759;-0.056805335;0.25164574;0.0010976604;-0.24356705;-0.12382277;0.1004604;0.038523935;-0.42359072;-0.7272275;-0.057288155;-0.13167793;-0.081729054;-0.004465567;0.31356952;0.018471029;-0.0859366;-0.048689913;-0.0665354;-0.11234568;0.1668669;-0.050772455;0.0017921625;-0.009103856;0.051878776;-0.010875091;0.48378024;-0.03485091;-0.015027548;-0.42830685;-0.07714244;-0.27916616;0.07323454;0.07063289;1.4820317;0.011924954;0.06429151;-0.027804334;-0.052859884;0.022795158;0.0041312096;-0.039578363;-0.006622791;-0.16368581;-0.044015057;0.68666;-0.7668535;-0.00551661;0.6584798;0.10256521;0.075680114;0.051951542;-0.8989251;-0.05776938;-0.23174116;-0.031649943;-0.048219338;-0.24259958;-0.17550445;0.026893577;-0.22027406;-0.89480317;-0.19414227;-0.14435731;0.0074210274;0.02781343;-0.2971638;-0.68496424;-1.9950444;-0.8514394;0.04871685;-0.57451934;-0.0869228;-1.4002613;-0.7614351;-1.6693467;-0.38427362;-0.48812184;-0.033149134;0.03428206;-0.03808226;-0.029254919;0.020210227;-0.07634724;-0.77841425;-0.6290439;0.44724023;0.024353055;0.08089728;-0.003973446;-0.096378855;0.65846944;-0.07622536;0.009248889;-0.21605209;0.046777405;-0.021011109;1.5841956;0.06470833;0.013869842;0.008053837;-0.6873503;-0.066059805;0.034254998;0.27332547
-0.15990351;0.017212074;0.06778354;0.95469767;0.028713064;-0.008158952;0.06546611;-0.28793734;0.36403695;-0.53296876;0.048882067;-1.1198153;-0.028389338;0.05986202;0.007131398;0.19414559;0.1737952;-0.099552244;0.03825301;-0.2699724;-0.016689137;0.034209136;0.0033945725;-0.71122676;0.062152814;0.04936557;-0.0938924;0.052720137;0.36702204;-0.10096827;0.022138434;-0.2721183;-0.22462344;-0.058834966;-0.016056227;0.024106806;0.07529157;-0.058027513;-0.0011681513;-0.0073282267;-0.15822767;-0.75445426;-0.07479028;-0.012112076;0.1548266;-0.12775303;-1.1602737;-0.08735122;-0.47392374;1.408386;0.5381149;0.027204653;-0.5619331;-0.10026277;-0.39847657;-0.33238792;-0.078697465;0.009640234;1.2294464;0.07251702;-0.23368219;0.16369227;-0.08512278;-0.12814578;-0.0056461305;-0.14166923;-0.05732544;-0.031357847;-0.027078066;-0.0004900309;-0.07098002;0.023138199;0.0150809;-0.037561785;0.10005875;0.16740231;0.19525641;0.19133297;0.68940336;0.5675507;-0.0703857;-0.062449817;0.6075257;0.07709884;-1.0715443;-0.018918047;-0.0462461;-0.29238635;-0.1004536;0.03656024;0.0061758016;-0.537676;-0.6456962;-0.0046504634;-0.0013349721;-0.05196128;-0.46389166;-0.19008043;0.69884735;-0.10715879;0.36320353;0.02264098;0.044131707;0.09039253;-0.061895143;-0.039413776;-0.05312169;0.9261887;-0.018866077;0.1851985;0.046973035;0.046445973;0.050332442;0.07641051;-0.07164674;0.0669595;0.03627835;0.019743938;0.3084886;0.01591883;-0.058846142;-0.015206815;0.76121825;-0.34848887;0.020244453;0.056541037;-0.04694898;-0.3407206;-0.00791226;0.04549383;0.009297139;-0.13407032;0.074308306;-0.008935079;0.84717166;-0.025850767;0.011352272;-0.51299316;0.05241446;-0.09400632;-0.101329505;0.023813983;-0.060263712;0.07654157;0.09679952;0.09236141;-0.90494597;-0.084070385;-0.78955233;-0.0026262642;0.30192623;0.2890896;0.0026591455;-0.07360993;-0.03045863;0.07384214;-0.6211057;0.5620698;0.026483402;-1.0390828;0.040872805;0.13765642;0.2503977;0.16520178;0.20991662;-0.009140829;0.4844393;-0.5020474;0.7911923;0.29053882;0.32006606;-0.044132933;-0.33446833;-0.04589946;0.017494585;-0.058833737;0.0068480666;-0.09384519;-0.42037266;-0.06419412;0.021570077;0.49206197;0.0412213;-0.18333192;-0.93000853;-0.009827268;-0.03113752;-0.18750761;-0.04245795;-0.038348168;0.32106882;0.1169138;0.67139375;-0.001718252;-0.20889851;-1.1531988;0.0015330917;-0.066171914;-0.031262945;0.31529558;-0.036178604;-0.06398065;-0.012181647;0.024822496;0.773745;0.050332945;-1.0147442;0.2983412;0.096473016;-0.50660807;-0.019228214;0.08590545;0.3091015;1.2012358;-0.003579805;0.063782066;-0.48274675;-0.20525248;0.4367968;0.04046846;-0.051363897;0.9685091;-0.26270178;0.018572401;-0.02334291;0.01112616;0.028342482;-0.040251374;-0.47195962;-0.014128794;0.020481905;0.041701168;-0.1610231;-0.59375095;-0.027280929;0.026309466;-0.07664167;0.17059724;-0.0698146;-0.52720296;0.20307201;-0.028903019;-0.0041100667;-0.07709277;-0.39964187;0.22260162;-0.061550707;-0.07809631;0.18828319;0.0800488;-0.22935307;0.36490196;0.05250935;-0.09132519;0.06526795;-0.6853114;0.08586337;0.026632925;-0.037532557;1.9500695;0.03785884;0.037871763;-0.007178089;0.04967683;0.17247997;0.106473014;-0.48320886;0.36041442;0.044612844;-0.18209639;-0.2666377;-0.091407314;-0.054096367;-0.5196531;0.022817973;0.8200774;1.0189201;0.05597925;-0.009034255;-0.13537203;0.21827817;-0.027011303;0.091237254;-0.0014169349;-0.019388122;0.027440721;-0.71687806;-0.09557083;0.075044096;0.2301212;0.029173108;-0.46732262;-1.3854631;-0.06747213;0.085150816;0.071033254;-0.091462284;0.059963748;0.076113164;-0.052605253;-0.07507256;-0.23749806;-0.042084623;-0.03649531;-0.12753613;-0.041170105;0.04272479;-0.04781831;0.069073185;-0.53553534;0.009705278;0.03361873;0.07981084;-0.8784888;0.6023975;-0.025824705;-0.040954985;-0.0043019196;-0.08580049;-0.090005316;-0.068996;0.049155895;-0.021657687;-0.16972873;0.013308731;0.02964696;-0.36483544;-0.08311742;-0.0026990108;-0.04894732;-0.077055395;-0.17602068;0.047233663;-0.0013711335;-0.27827948;-0.041528903;-0.73102736;-0.056413062;0.7023667;-0.056466542;-0.019511491;-0.022045325;1.0929786;0.047949784;-0.07239017;0.011346581;-0.8300773;0.09588952;-0.082273826;-0.05127854;0.006664773;0.028676363;-0.031366177;-0.020186218;-0.04732424;-0.003665944;0.021762045;0.06540312;0.22711289;-0.043466482;-0.24549241;-0.047996577;-0.24988335;-0.0054981513;0.0004201854;0.09767833;0.018279348;-0.40042436;-0.2570738;0.054606132;0.050246514;0.07930186;0.9758691;0.071228035;0.049865328;-0.008282137;0.055174448;-0.08200736;-0.051367115;-0.6912826;-0.10355246;-0.00021965175;-0.04119546;-0.050111566;0.066454716;-0.063000664;-0.10515333;0.06319309;-0.050038546;-0.019562533;-0.0076893778;-0.5395819;-0.05980795;0.038941354;0.10366332;-0.37417427;-0.031418446;-0.06587421;-0.51450014;-0.044117108;-0.05292237;-0.10128824;0.019772574;-0.2710543;-0.33902654;1.0085188;-0.07449027;0.040334597;0.18558653;0.019666465;-0.14194101;0.11580178;-0.23072036;0.021856742;0.0046377447;-0.05110774;-0.04527584;0.46961087;0.04437513;0.010415282;1.1032174;0.457053;-0.713397;0.028522143;0.3518561;1.0861727;-0.054110598;-0.0029866425;0.5411658;0.011919169;0.09949076;0.037002552;0.064409494;0.03934345;-0.057638016;0.036571264;-0.12045327;-0.044755097;-0.08479539;-0.04498837;-0.06943446;-0.0030571844;0.04160061;-0.04540116;0.07378341;0.035064116;0.93146056;0.6564744;-0.010578166;0.020451348;0.025901716;-0.10956372;-0.090844;-0.012459839;0.55945843;-0.5850971;-0.030150723;0.1882541;-0.009939195;-0.015464486;-0.055908438;-0.17281969;-0.06370196;0.13897485;0.033236396;1.2744349;-0.41693926;-0.04841492;-0.75858665;0.1680656;-0.5220902;-0.10777065;-0.0010976405;-0.29909384;0.05411528;-0.2368587;0.014895989;0.19915819;-0.04494559;-0.4652524;0.48182318;-0.052109614;0.028417097;-0.893202;-0.112851866;0.030720409;-0.7352791;-0.00758952;0.039781578;-0.0030279947;0.025534686;0.3092036;-0.042899475;-0.0008014599;0.013069039;-0.015892543;-0.04216017;0.43495023;0.056491293;0.0286613;-0.1517782;0.078751236;0.030971821;-0.6278038;-0.043640126;0.56564176;0.09678831;-0.035394005;0.051176395;0.035718903;0.053277988;-0.045441967;0.0053277747;-0.014955974;-0.28566915;0.04839124;1.3387804;-0.5078944;0.0019972182;-0.6960661;-0.004448832;-0.015967116;-0.7537306;-0.7568804;-0.029120283;-0.13553049;-0.06346316;-0.016546747;0.8689007;0.07557634;-0.08848123;0.19224209;-1.9372165;-0.17769131;-0.042742662;0.0016648708;-0.020835858;-0.17957154;-0.30939725;0.11840055;-0.6120951;-0.46235678;0.021219522;0.038939867;0.24199736;-0.33937982;-0.38631827;-0.42298388;-0.29115924;-0.048024658;1.0729505;0.035511065;0.044085737;0.036765408;0.07772154;-2.0905406;-0.64966005;1.89385;-0.023163298;0.3608036;-0.026349325;-0.07047636;1.5784686;0.039074596;0.03309576;-8.3294006e-05;0.033052538;0.009602547;1.8267128;-0.04046163;-0.023243438;0.06592777;-0.038590826;-0.045032877;0.049774952;0.12942849
-0.83518636;-0.00096666656;0.0029316335;-2.916828;-0.15761426;0.015137492;-0.033559848;0.6505805;0.6356501;1.5645419;0.0992255;-1.2059326;0.08649208;0.39934513;0.042933315;0.45167202;0.5378422;-0.043679893;-0.023153957;-0.68684584;-0.0068450207;-0.03463504;0.07582884;0.5486035;-0.13507022;0.015563516;-0.056047577;0.0656567;0.71891314;0.08325915;0.03291781;-0.2521557;-0.59105444;0.054565016;-1.3266928;-1.040878;0.034288373;-0.057722606;0.024319943;0.020282406;-0.035668373;0.7245394;0.38891906;0.14329052;0.15094039;-0.23455808;-0.51434207;-0.097272195;0.00912306;0.38530812;-0.25912887;0.018038262;-1.0797312;-0.029047174;-0.41606864;3.183502;0.15423682;-0.04266895;0.50627697;-0.05981384;-0.30320516;-0.0521889;0.005956784;-0.03876014;-0.16747464;-0.3046258;1.6040806;1.5338926;-0.11364366;0.037706506;0.117436565;-0.021218361;-0.16922913;0.047050297;-0.13570595;-0.06569551;-0.2650555;-0.50935936;0.7937349;0.093704365;-0.20764098;-0.006636816;0.09607773;-0.030097151;0.007133327;-0.012596223;-0.01540645;0.068761736;0.067745216;0.1467879;-0.21238735;-1.5965132;-2.3627403;0.06888683;0.08866858;0.052778166;-1.9881805;-0.08805551;1.1368003;0.09342221;-0.42110637;-0.023786616;0.9048921;-0.01747523;0.20277932;-0.2776161;0.017173609;2.0940974;-0.011808143;0.58471;-0.053700387;0.06357487;0.0064725652;-0.0026447296;0.106801696;-0.047381144;-0.11887196;1.7451838;0.27164736;-0.075124845;0.011799906;0.059605252;1.7572514;-0.7291287;0.061079763;-0.010005989;-0.07826212;-0.4841455;0.06800097;-0.035635516;-0.020592824;0.46027088;-0.010974275;0.032153163;0.7553231;0.049478263;-0.16112827;-2.124465;-0.01762705;-0.071706735;0.13981187;0.14518255;-0.10997843;-0.048761502;-0.009974657;0.02675899;-2.1053574;0.016288366;-0.4414185;-0.16263376;1.1620755;-0.047963627;0.0813665;0.84244597;-0.046414934;-0.0016486795;0.4964755;1.0201769;0.538844;-1.5774698;0.0068671005;0.4781864;0.61112136;0.27050093;1.8705136;0.0071048383;0.6557664;-0.9718043;0.10220765;-0.04405192;1.20632;-0.20422764;0.43829343;-0.08009773;-0.36821347;-0.03387807;0.07008391;0.013983725;0.0031707312;-0.15541835;0.48241013;-0.47759596;-0.10559639;-0.70666826;-1.2763466;0.048267342;0.017625464;-0.6272126;-0.105552636;0.025465816;-0.16040048;0.12830244;-0.1809327;-0.0032860686;2.0177157;-0.1114867;-0.038077977;0.02510949;-0.094798066;2.6455922;-0.006400265;0.011881598;0.041470937;0.05316101;0.9293292;-0.2579109;-1.7336922;0.807914;-0.08700085;-1.1660435;-0.1556114;0.05553592;0.5891371;2.3007905;-0.06721324;1.7967796;-0.2926527;0.76488096;0.6795391;-0.04360821;-0.08044323;0.55146664;-0.45632726;0.098201424;-0.033023544;-0.10362611;0.12987335;-0.031403203;-0.6700636;-0.28620464;-0.078775786;-0.09784603;-0.13012382;-2.1189137;0.10334089;0.113011286;0.0860454;0.7595504;-0.009400267;0.005425262;-0.14991373;-0.066936135;-0.005041202;0.039850827;0.016543286;0.49619246;0.06982362;0.019994434;0.1292491;0.20439593;0.23384088;-1.7770855;0.07564903;0.008357264;0.030007096;-1.2849071;0.34156072;-0.108396694;-0.011045916;-0.39485705;-0.13823836;0.1757505;-0.33155924;-1.0668705;2.6605659;0.19198619;-1.0262234;-0.88832176;1.171872;-0.60116816;-0.7995385;0.0056146313;0.05301443;-0.98964036;0.571213;2.0179245;0.52365845;-0.06947104;0.020150935;-0.055512253;0.9011293;-0.0041821627;0.40662003;0.00021019483;0.08570693;0.28504467;0.7895297;0.013241204;-0.08097459;0.07501789;0.31184104;0.013226054;0.14860691;0.016832732;0.043877758;-0.011516407;-0.25843805;-0.046172004;-0.074458756;-0.14229502;-0.06320213;0.46420154;-0.022210674;-0.055826414;-0.3595505;-0.007142284;0.18834484;0.10689169;-0.066510715;-0.84698004;-0.018700277;-0.012154774;0.09309687;-3.026398;-0.33216247;-0.03351736;0.035413273;-0.10961238;0.01812815;0.07566623;-0.04763034;1.5338949;-0.14797607;-1.068799;-0.008514313;-0.21420875;-0.08064991;0.10600677;-0.021605058;0.097380705;0.030328458;-0.03700882;-0.5448154;0.14011487;-0.5444254;-0.046847217;-0.5377626;-0.08617011;-1.4818976;-0.17166989;0.019936351;-0.08902337;0.9949242;-0.094278544;-0.013271445;-0.15482049;-0.37097648;0.40536645;-0.49028203;-0.17054331;-0.2018153;0.07327594;-0.050954036;-0.018137503;-0.08942564;-0.065060526;-0.22627047;-0.0010692572;0.47506046;-0.06065418;-0.12271005;-0.020139575;-0.6266468;-0.010503165;0.1461776;-0.027499026;0.03214692;-0.7041212;0.65094167;-0.011949804;0.39242515;-0.046394322;-0.047761753;-0.034942754;-0.06748582;-0.023854973;-0.11244424;0.033539984;0.040819507;-0.24967231;-0.45584607;-0.08024255;-0.2618406;0.17021702;0.034766264;0.049624015;-1.1612072;-0.21115543;0.012798211;-0.27729526;0.075719036;-1.0393754;-0.023430213;0.044247005;-0.61665374;-1.0504019;0.09341548;-0.7597066;0.080489606;-0.13731219;0.01552154;0.071133874;0.4076724;-0.14047016;-1.4470959;-0.293527;0.00092064583;1.2220807;0.91514105;-0.12863772;-0.1604186;-0.0032700207;-0.51826334;-0.0735284;-0.13641891;-0.20075539;-0.012226502;0.48301393;0.11066084;0.033105638;-1.7845987;1.0516183;0.16941655;0.041821484;0.5016913;-1.9779296;-0.055692486;-0.04501673;2.073222;-0.034315154;-0.088329665;-0.07160771;-0.054820556;0.082348;0.05953598;-0.016441341;-0.067633286;-0.03778812;0.03654266;-0.13533294;-0.26926556;-0.080062345;-0.121944524;-0.01954598;0.2942789;-0.062129132;-0.4464497;0.49589422;0.012511254;-0.033363044;-0.057923507;-0.17891853;0.18170884;0.08301811;-3.5575838;-0.4227269;0.037957646;-1.6080179;-0.21547578;-0.01252273;0.014106174;0.049223028;-0.13233706;0.52781695;-0.042493373;-0.9181875;3.0071142;0.13048911;2.389793;-0.55525655;-0.48037454;-0.27110663;-0.025564952;-0.872253;0.09009748;-0.3285449;-0.17669283;-0.36019948;0.15444195;-0.53146356;1.6525105;0.0464415;-0.181119;-0.86260146;0.0025969532;0.19633284;0.10177169;-0.106213905;0.07668657;-0.043719266;-0.016176121;0.12397669;-0.02195251;-0.0507005;-0.21993884;0.03567074;-0.08277572;0.123735;-0.067360826;0.013629645;-0.6922186;-0.12244801;2.4901104;-0.31029162;0.14404717;-0.43156302;-0.072634354;0.17936864;-0.0316379;0.11593085;1.2267913;-0.031791497;0.04897712;-0.081349544;0.2685188;-0.08194481;-0.052518852;0.35797057;-0.076128624;-1.1930833;0.09443467;-0.059140813;-3.2444003;-0.650604;0.03294156;-0.3037799;-0.029875187;0.09402629;0.14611627;0.01415103;-0.21366417;0.1814205;-0.93882364;-0.6025652;-0.39456233;-0.040164214;0.016639573;-0.41931507;0.032498606;-0.0984348;-1.1785756;-0.43539438;-0.19084643;-0.106351286;-0.078251265;2.8993106;-1.4483603;-1.0009482;-1.066929;-0.021939466;1.0190574;0.0009195473;0.035850476;-0.15198375;0.030969523;-0.9723043;-0.8784171;-3.1139224;0.06886534;0.6008532;-0.011101488;-0.020190712;0.64577305;-0.12834373;-0.13843608;0.09372184;0.1625238;0.12878944;-0.78786504;0.067012794;-0.02019248;-0.024451995;-3.2658274;-0.016903998;0.08344697;0.25271478
0.47050205;-0.050590735;-0.07808975;-1.9761254;-0.2955617;-0.026425969;0.064577244;0.5902455;-0.7180592;0.3292588;0.13531545;-0.32788637;0.15030335;0.46301433;-0.033879198;0.011027088;-0.8586008;0.033038907;0.0667097;-0.3482693;0.052246537;0.084732845;0.0619301;0.6370799;-0.023058178;-0.010773292;0.060184434;-0.050695557;0.20494755;0.12669542;-0.07375336;0.036103696;-0.3102679;-0.05550261;-0.49489042;-0.56743366;-0.05510241;0.11381574;-0.034320053;-0.068087295;0.5423664;0.751501;1.18537;0.05037826;0.123255834;-0.09717545;-0.32508862;0.003870183;0.4858599;0.53396684;-0.648988;0.052608937;-0.23278655;-0.05902666;-0.21125019;-0.24800406;0.048856035;-0.09373583;0.24074201;-0.059906334;-0.16548443;0.15847962;0.016905308;0.025771683;-0.15383199;-0.017605947;1.089214;-0.36454007;-0.13127501;-0.002344403;0.15632184;0.040402826;-0.072183;0.11639396;1.1446441;-0.11943933;-0.063275;-0.17150454;-0.22658914;-0.13794278;-0.21237658;-0.008442206;-0.6263477;0.023083866;1.3738334;-0.058561932;-0.1878327;-0.20207398;0.08621652;0.052491073;-0.108277045;0.1394612;-0.43408465;0.078849114;0.055637237;-0.041694243;0.73465973;0.04356584;0.91448635;0.15245163;0.66186136;-0.04521279;0.68743795;0.081808805;0.11368619;-0.18431906;0.003954821;1.2480276;0.05577602;0.37058458;0.047442563;-0.05207093;-0.021985076;-0.03666079;0.08874696;-0.018756773;-0.17781638;0.049381454;-0.61134076;-0.052670974;-0.02577277;0.006088414;1.0933176;-0.3394768;0.11092318;-0.21625872;0.056795824;-0.6308101;-0.0043800487;-0.057586823;-0.0066108494;0.13424611;-0.18489385;-0.0049735988;-0.50390756;-0.09571626;-0.068682835;1.0930817;0.106597275;0.035077203;0.09272465;0.24218021;-0.07569486;-0.12668325;-0.13713688;-0.09060353;0.5956943;0.076681845;-0.18515648;-0.15179949;-1.0842991;-0.0410754;0.07092741;0.64027566;0.06880032;-0.07903113;0.14484374;-0.032693572;0.4295781;-0.27008024;0.036238242;-0.052739285;0.16370648;0.24504338;-0.8674172;-0.09684689;1.2771683;-0.62628335;-0.5589371;-0.08362395;0.5164272;-0.05038586;-0.85108465;0.028939223;-0.4172137;0.08423313;0.07952946;-0.00957435;-0.5842976;0.082833275;0.18709631;-0.11411969;-0.10102118;1.2778566;0.77199;-0.12443411;0.23587655;-0.27696916;-0.16328134;0.12633575;-0.23267774;0.14804217;0.14263277;-0.046062585;-0.39527547;0.95186806;0.05875172;-0.070097074;-0.059523754;0.22760376;0.16101722;0.020878665;0.055433456;0.021826712;0.95487684;-0.21627809;0.21750171;0.21642418;-0.09510564;0.19106849;-0.1843803;0.20186092;0.10922583;-0.6534762;0.042213976;-0.92595536;-0.22466147;1.0373781;0.5794839;0.01918938;-0.18994352;-0.83984053;0.5205666;0.09785226;-0.059152376;-0.12689523;-0.04896582;0.03965388;0.6744311;-0.17824602;-0.15829176;-0.18002988;0.11439888;0.70573664;0.055273037;0.100578085;0.10817167;0.26827437;-0.055249818;0.74750024;-0.6828482;-0.06770114;-0.33556446;0.028360708;0.043416694;-0.25934634;0.16337498;0.14274096;0.24110766;0.0141649395;-0.014367888;-0.18765774;-0.07206983;-0.12041055;-0.06879345;-0.57333505;0.28654906;-0.011396492;-0.025884587;-0.33713984;-0.12953715;0.1442772;-0.20537837;-0.101840556;1.0579298;0.24897851;-0.5466615;-0.28826052;0.22169353;0.21821219;-0.40886328;-0.001013371;0.045591075;-0.62227106;0.04884772;0.26515114;-2.2008827;0.002902116;0.09724052;-0.4791535;-0.3403546;0.058548544;0.10299194;0.04343039;0.030528735;0.13490413;0.9321255;0.0804449;-0.06542913;0.045282274;0.08311242;0.3743718;0.4571204;0.09209945;0.13288863;0.012602532;-0.060558733;0.1058019;0.035758413;-0.09833261;0.032828;-0.19676088;-0.02214338;0.04222978;-0.016099676;0.031460267;0.27285618;0.012521174;-0.012806232;-0.32596144;-0.03252798;-0.06004034;0.2938149;0.29232666;0.7134758;0.030861037;0.081520386;-0.07410189;0.10494891;0.042227093;0.071840845;0.8104057;-0.22753277;-0.6581143;0.0074430397;-0.25409555;-0.46243772;0.103770345;-0.033668544;0.08075496;-0.0026965358;-0.14840803;0.31478378;0.21602978;-0.28165278;0.01620141;0.34771538;-0.115686245;-0.9385364;-0.0771965;0.079789564;-0.01652691;0.54025114;0.0038523832;0.12831366;-0.15371394;-0.33007625;0.13484631;-0.33553517;-0.15600337;-0.08939653;0.018989589;-0.007765994;-0.092586294;-0.106030576;-0.07572014;-0.056871824;0.057308845;0.43783796;0.085363254;-0.35762727;-0.033572286;-0.18455605;-0.028286142;-1.8432751;-0.062157124;0.01766936;-0.31429723;1.0503691;-0.19348674;-0.083872885;-0.019752987;-0.9462888;0.058352653;-0.08442494;0.06966817;-0.21731938;-0.018862382;0.09887882;1.2249492;-0.25100666;-0.21422069;-0.10967373;0.09456288;-0.022402925;-0.008058123;-1.1473235;-0.13432764;0.061091367;-0.4528876;-0.050275557;-0.5339439;0.030438805;0.050637092;1.5224669;-0.5586516;0.10066234;-0.060623202;0.46961743;-0.08027698;-0.017210623;0.06367393;0.008567019;-0.12283658;-0.245901;0.04419383;0.09928156;0.71984196;-0.21353121;-0.033054683;-0.06955167;0.20125668;-0.3488481;-0.045917038;-0.13291265;-0.0021770205;0.041163668;-0.4644586;0.0375986;-0.051423658;-0.937991;1.5221386;2.1260636;0.045311112;-0.05495145;-1.5043061;0.03800148;-0.062209304;0.24904227;0.099308655;-0.12897016;0.07176597;-0.07958287;-0.039028283;-0.061074723;0.039746262;0.14204884;-0.12087315;0.12745;-0.14839448;-0.17023113;-0.05647915;-0.08274142;-0.065508716;-0.29888144;-0.06726396;-0.467386;0.39561972;-0.16700648;0.004804772;-0.068165876;0.00046618917;0.1292205;0.05035976;0.5275435;-0.9583423;0.13783608;-0.2227962;-0.14112598;-0.048125867;0.124949776;0.021366632;-0.06906908;0.3449313;0.08139146;-0.81699055;0.7479898;-0.1778433;0.46673098;-0.24911962;-0.2268725;-0.16090952;0.068450265;0.29825416;0.16492027;-0.132069;-0.17380588;0.091816105;0.2499855;0.9322592;0.076145835;0.038837817;0.07562229;0.0013785681;0.038724657;0.13182831;1.1530184;-0.05165289;-0.041188583;-0.047791053;-0.082340315;0.2410361;-0.058672935;-0.23314628;-0.11448899;0.055968724;-0.13792126;-0.18075304;-0.05127227;0.0056855725;-0.26908186;-0.08016865;-0.62282985;-0.8785268;0.16608271;-0.5663661;-0.13535815;0.22892223;0.14702684;0.11646032;0.6118939;0.055003524;-0.023787666;-0.06377071;1.3153434;-0.096164234;-0.13482235;-0.2946299;-0.22761467;0.5882854;0.07606343;0.094664566;-1.3703829;-0.29532573;0.014603142;-0.1896358;-0.11914437;0.1088132;0.006509298;-0.20184217;0.027152162;0.34745508;-0.11184964;-0.33169764;-0.24123366;-0.06916296;0.0685016;-0.35493234;0.41886783;-1.1107491;-0.3600581;0.12200558;0.06900059;-0.04913843;-0.429563;0.34614676;-1.9284749;-0.50884944;1.1934254;-0.18704322;0.17610507;-0.0815239;0.025221389;-0.16477735;-0.007632639;2.3316007;-0.030889481;-0.7097127;-0.029895848;-0.42666554;0.022985203;0.0067968257;-0.26526237;-0.09619483;-0.059343725;-0.051892966;0.03987628;0.06805011;-1.0795722;0.074437104;0.2474031;0.06709413;0.73135644;-0.020729566;0.07571794;-0.11847463
0.32633722;0.011296587;0.01417332;-1.3184806;-0.2947839;0.06662501;-0.088168204;-0.24997789;-0.3853686;-0.78581935;0.1282088;-1.5536072;0.102202944;0.25384197;0.07144596;-0.26113346;-0.65239877;0.23823531;0.111704506;0.19309482;0.13615577;0.0053815483;-0.047485754;-0.17205673;-0.17460121;-0.08719345;-0.039576232;0.13962291;-0.40565175;0.07390065;0.03699231;0.062274456;0.09153982;0.04538881;-0.67610943;-0.050922427;0.06429834;0.018305678;-0.10343043;-0.07594504;0.118931435;0.23079106;-0.284016;0.09286269;0.11499504;-0.045043204;-0.33889186;-0.041262656;-0.8733353;-0.10053988;-0.680572;0.047499422;0.58327854;-0.043404598;1.1939923;-0.22029398;0.03293265;-0.11575532;-0.13225341;0.0961999;-0.2634765;-0.03219628;0.1296634;0.037478622;-0.12717138;0.05788473;-0.19206725;0.23980503;-0.13642803;0.012092947;0.18330497;-0.017651668;-0.11684405;-0.020009506;-0.99499345;-0.05004259;0.03927679;-0.3043779;0.20631751;1.307402;-0.08508434;0.03161144;-0.46085513;0.032649618;1.4855342;0.052622598;-0.03788112;-0.66775644;0.007788556;0.06998751;-0.031838868;0.74565053;-0.10572799;0.083705224;0.1343054;-0.0082878815;0.74231225;-0.09947955;-1.6249026;0.0078100637;-0.66329604;0.03584034;0.19555162;0.010915738;-0.030913977;0.06947166;0.15844543;-0.22840337;-0.005612603;-0.75060934;0.0036583825;0.029179357;-0.09942917;0.119590044;0.18031931;-0.023182098;-0.17076276;-1.5371155;-1.1324456;-0.113213316;-0.0563549;0.3455434;-2.340654;0.19652206;0.095775165;-0.33370292;-0.05076752;0.08244778;0.07688294;-0.003595332;0.052146427;-0.23085742;0.13175587;0.01815705;-1.0359606;-0.08783654;-0.10036819;0.48603612;0.12741923;0.13995591;0.02938548;0.025525307;-0.16779673;-0.1065528;-0.1948258;0.004031021;-0.03138465;0.071923174;-0.47860393;0.034937035;0.14779244;0.49766228;0.024936115;0.053508975;0.030587524;-0.11494878;0.099211;-0.33751145;0.037848122;-0.5545643;-0.026607856;-0.33669615;0.03840558;-0.9005373;-0.23946442;-0.10108133;-0.21984948;0.22326162;-0.11447923;-0.080386214;1.225605;-0.0797862;-1.7411671;0.014873768;0.033854447;0.027634967;0.26368117;-0.009391866;-0.8127286;0.049435478;-0.038636755;0.30947027;-0.052880134;-0.40319592;0.24146843;-0.0104759;0.038423102;0.13743894;0.08989334;0.16797215;0.034393135;0.14000912;-0.99237776;0.09599275;-0.1552826;1.4516164;-0.008904302;0.0694642;-0.07936037;0.2072318;0.07016466;-0.11124868;0.12852328;0.13619311;-0.25004727;-0.075539656;1.3324594;-1.1248435;-0.03229666;0.46590897;-0.010375147;-0.0587966;-0.49862555;-0.35022387;0.031112764;-0.4101073;-0.81061643;0.9037063;-0.36780885;-0.103518106;-0.03151682;-0.064943805;0.20579287;0.028732568;-0.29791704;-0.16675177;-0.16441439;0.010879393;0.5090392;-0.23136042;-0.06329859;-0.06518644;-0.17715654;-0.06678681;0.17437641;-0.0016445046;-0.009513974;-0.39273727;0.07992889;-0.2843941;-2.429768;-0.052613545;-0.18079284;-0.051942267;-0.08367755;-0.090929486;0.029806487;0.113336734;-0.056641307;-0.20370704;-0.6253899;-1.3157167;-0.04229178;-0.1330866;-0.14701004;-0.52080846;-0.0061753113;-0.05873086;-0.06987153;-0.2948844;-0.058621537;-0.23829395;0.08160988;-0.10439605;0.23788223;0.04574953;0.7098957;-1.0573407;0.11109743;0.1389491;0.12301251;0.052919727;0.0264861;0.2616306;-0.26644114;-1.3385267;-0.44928294;-0.043402188;0.14037156;-0.4667716;-0.70529044;0.07220706;-0.1740498;-0.011450028;0.02913494;-0.018588705;-0.08874831;0.046961714;-0.071998246;0.041514806;-0.13433735;0.21797596;0.89374083;-0.042424116;-0.33974773;0.05369073;-0.38899648;0.037492972;-0.051467042;-0.016795482;-0.022970598;0.05793783;0.0061520967;0.08841741;-0.09335198;-0.0403404;0.093771026;0.075054914;-0.025258502;0.074681036;0.06299173;0.014675676;0.00829384;-0.43684977;0.5252142;0.0074729933;0.08726571;-0.049096253;0.072197914;0.17773615;0.02937278;0.37122396;-0.03274988;-1.150837;-0.17469345;-0.03007931;-0.90106875;0.07858636;0.04553031;0.1778027;0.06107466;-0.10813094;0.4736312;0.11959106;0.17994386;0.079219915;0.2767371;-0.1515166;-0.17609735;0.005426033;0.022931062;-0.13585915;-0.22677456;-0.025850466;0.055323858;-0.077202834;0.24766678;-0.13531822;0.033322636;0.015485342;-0.04811058;0.10975217;-0.002149786;-0.17166945;-0.108719274;-0.01555773;0.015304244;0.014866443;0.2811084;-0.021571193;-0.802706;-0.011647707;0.30112693;0.12325344;0.030891467;-0.10602259;-0.052515928;-0.36383915;0.30750903;-0.15263557;-0.32889536;0.028680341;-0.6477345;0.8712572;-0.1183323;0.0899776;0.007953822;-0.58515817;0.075979315;0.86837125;0.14354032;0.0116296625;0.09184818;0.03104249;0.1374381;-0.06469738;-1.1404477;0.06074537;0.06985541;-0.11494936;0.020812074;0.3347854;-0.04365135;0.018388875;-0.566412;0.19914556;0.093645446;0.69925445;0.100242466;-0.0112328855;-0.093995444;0.17569813;-0.17846304;-0.3606219;-1.2902083;-1.540038;0.074773826;0.21161962;-0.13061994;-0.14260149;0.009041608;0.36599714;0.042488057;0.04305667;-0.024548035;-0.24162586;0.04296076;1.4811449;0.102195516;0.10107744;-0.8351792;-0.44480553;0.5850983;0.15565173;-0.33020747;-0.4035696;-0.017979702;-0.019054625;-1.4097953;0.045585476;-0.13984695;0.0853842;-0.13786621;0.09776331;-0.08760008;0.06238458;0.14640409;-0.11752557;0.058592115;0.59433484;0.018989643;0.05639722;-0.15307303;0.007375846;0.66089827;0.015596055;-0.15372777;0.12999137;-0.092967525;-0.16604298;0.007464883;-0.039233293;-0.16327676;0.058841582;-0.6013761;0.3213662;-0.3426162;-0.30505326;-0.063834615;-0.02466634;0.10170759;-0.4009561;-0.09995742;0.027367331;-0.0055060037;0.32938543;0.55564433;-0.11749566;-0.03210105;0.07289081;0.5024045;-0.0086018285;-0.038458392;-0.4431516;-0.050667856;0.15163219;-0.040495794;0.035227258;0.058470074;0.6771859;0.24755158;0.114637695;-0.05529921;0.054568056;0.07361398;0.049750324;1.2836268;-0.121289335;0.08253163;-0.042095616;-0.22165646;-0.14364946;-0.06526201;-0.01768974;-0.04203212;0.05303346;-0.09045756;-0.28606898;-0.37066048;0.03507575;0.23779194;-0.06376031;0.7285894;-0.82489383;0.14539336;-1.7918806;-0.043002225;0.11129329;-0.09954271;-0.015424211;-0.65805864;0.036975257;-0.116515905;-0.029208813;0.25321463;-0.055038687;-0.30637863;-0.22392288;-0.10740449;-0.3508077;0.16344945;-0.013810716;-1.1147416;-0.13569853;-0.05814676;0.020956717;-0.14168838;0.13464397;0.3635428;-0.2089013;-0.06294445;0.0050306013;-1.1810036;0.15319188;0.049705137;-0.03843013;-0.023855148;0.09647424;-0.012523976;1.1256549;-0.29144514;0.7377425;0.012825649;-0.11812807;-0.74492896;-0.20479605;1.0399432;0.35075435;0.327938;-0.031783767;-0.8220393;-0.082800254;-0.10127878;-0.1824333;-0.13188428;0.5607537;0.10943448;-0.0911219;-0.04597407;0.5501895;-0.015235048;0.02639621;-0.4961475;-0.11635628;-0.14548926;0.025824482;0.09756133;-0.023487285;-0.24563766;-0.006985291;0.13387688;0.06273242;0.5638932;-0.015522366;-0.039580297;-0.5581468
-0.006813408;-0.08782619;0.021285906;-1.4489921;-0.33741373;-0.041954905;0.09584802;1.1159922;-1.1763669;-0.3114678;-0.13810734;-0.3519182;-0.14949201;-0.28579536;-0.07862369;0.088724695;-0.54245394;0.27670482;-0.028439246;0.17089196;-0.07169485;-0.043946072;-0.074370176;-0.22767726;-0.019727362;0.010881815;-0.052186254;0.0030974457;-0.40289477;-0.13293551;-0.0056770775;-0.0026948412;0.14719851;0.0017800484;-1.2635291;0.010547801;-0.027313715;0.0012060312;0.107329965;0.015452877;0.3961344;0.32795414;0.49195117;-0.051878564;0.2632286;0.1836815;1.4268074;0.012006531;0.7765663;-1.0562754;-0.48540467;0.075054035;-0.2780083;0.0069122603;-0.34009984;-0.66098124;-0.019438002;-0.03959394;0.38246542;-0.039871063;-0.3057097;-0.114715725;-0.07029688;-0.015898176;0.05683331;-0.024247844;-0.2818441;0.06173384;0.05637326;0.001766539;-0.030400809;0.034559485;0.10083472;-0.09888173;0.0666769;0.09343467;0.23393722;-0.2927157;0.47983322;-0.2382844;0.14205725;-0.005242019;-0.86434895;0.018683558;-1.6283593;-0.05743321;0.030614773;-0.089702316;-0.046860985;-0.11930593;0.17132431;1.8256657;-0.87444824;-0.027377322;-0.11281688;0.014820897;-1.764251;0.108903565;0.17228916;-0.105476;0.36324447;0.0565317;0.4865332;-0.16750711;-0.048698038;0.10105237;-0.028888045;-0.6355193;0.034744464;-0.030884787;-0.02791432;0.019442897;-0.04282825;0.068359666;-0.11734807;-0.07920651;-0.00067060016;-1.4264014;-2.498984;0.04553454;-0.035597414;-0.02314998;-0.9821148;0.18661205;-0.06159037;0.0002650679;-0.0084469225;-0.34929225;0.012559346;-0.078372635;-0.04222988;-0.3555256;0.1400342;-0.04342284;-2.4112735;0.018389706;0.08176893;1.1029011;0.01237363;-0.11146457;-0.080242835;-0.11670394;0.07274283;0.11663776;-0.1763426;-0.022417173;1.1705846;-0.0021808012;0.65508264;0.124422446;-0.20662269;0.039312813;0.021904347;0.52997875;0.037837554;0.05105312;-0.7406447;0.4219802;0.16454908;0.39103737;-0.0062981634;0.16225438;0.01311509;-0.2198312;-0.7967269;-0.013919926;0.008518622;0.27682185;0.37928444;0.18072179;0.977243;0.063351415;-0.25923598;0.1559554;-0.13954487;0.001967361;0.11867097;0.17508703;-0.17084529;-0.019996049;-0.15084128;-0.23869082;0.03795901;0.44937277;-0.2768472;-0.011117219;-0.103986725;0.24271889;0.11995702;-0.15586261;-0.25221974;-0.043482482;0.6402775;0.0566618;1.0450815;-0.1642961;-0.055031326;-0.026995087;-0.06870513;0.1894522;-0.12274795;0.02296821;-0.07509664;0.021421826;-0.39889798;0.13796675;-0.034277216;-3.2531893;0.09675306;2.2380147;0.10100967;-0.19902869;-0.6212188;0.6043779;-0.063196085;-1.063519;-0.20472704;-0.8198966;0.2241139;0.025417823;0.116495445;-0.62209785;-0.8297988;-0.017119981;0.15724799;0.070539206;-0.033882942;-0.050674424;-0.20078371;0.14844447;0.011310163;0.15123309;-0.12670961;0.032258354;-0.1433584;-0.093480214;0.0027632164;0.47871876;0.03229086;-0.58878875;-0.61743855;-0.08850853;0.024693893;-0.06898782;-0.64444625;-0.042469665;-0.17798719;-0.102655694;0.20434661;-0.015127475;-0.37593904;-1.3513091;-0.035868894;-0.009315168;-0.019381255;0.7113697;-0.122048214;0.036838908;-0.056282524;-0.3117495;-0.043678604;-0.06544379;0.045940243;-0.37411803;-0.21910185;-0.12941048;0.37415007;-1.5836338;0.27312103;-0.25621113;0.30151662;-0.10874356;-0.002393993;0.21631813;0.10677661;-0.6717413;-0.45574495;-0.06971375;-0.15728517;-0.19874127;-0.07222831;0.043122042;-0.29702497;-0.0061461274;-0.08790879;-0.29756975;-0.4938026;-0.089455046;0.124973126;0.088932745;-0.26398972;-0.37587908;1.9820554;-0.059909347;-0.4319827;0.026368579;0.011642024;-0.030542592;-0.06525079;0.16015466;0.05279512;-0.107470386;0.0039200424;-0.068976946;0.32317132;-0.05907074;-0.13052087;0.004381324;0.086231425;0.15825564;0.057710618;-0.054702625;-0.15633512;-0.17991316;0.58913994;0.011756393;-0.09589159;0.11488812;0.012496223;0.0126472805;-0.059722032;1.5322894;0.08720681;-0.08618566;0.010980274;0.06737926;-0.11106154;-0.09072452;0.025560198;-0.04534786;-0.14191085;-0.013520663;0.83746326;-0.11928429;0.18095195;0.05955923;-0.42507982;0.09799245;-0.9492586;-0.0048710243;0.0063983067;0.10342414;-0.09877384;0.06045852;-0.07025132;0.15097168;1.9491127;-0.2665492;0.20461828;0.02702378;0.114158064;-0.1168096;-0.0061019696;0.1256071;0.12042824;0.08432462;0.05052638;-0.0651539;-0.44108424;-0.07077256;-0.18149464;-0.058549907;0.34963614;-0.13657719;-1.6308967;0.051774867;0.052473076;0.33704904;0.21322045;0.12568085;-0.4531467;0.06304747;-1.038876;-0.6542506;0.008489083;-0.038734965;0.03853053;-0.91175026;-0.17241256;-0.051526014;0.1736897;0.14691003;0.122949585;-0.16938825;-0.030987618;-0.040532265;-0.7821416;0.1043776;-0.048912894;-0.15049016;0.030014144;0.29188514;0.071101695;-0.03530442;-0.12137224;0.16652858;-0.048493687;-0.21765402;0.7676277;0.07161372;0.09861233;-0.032021903;0.00010932604;-0.30410862;-1.8059728;-1.5998873;-0.08861998;-1.0229979;-0.18302305;0.023978928;0.42774197;0.07930687;0.15113837;0.05494638;0.04298152;-0.062309638;0.053788073;1.3765887;-0.057343014;-0.05660912;-1.4011307;1.4018505;0.34271836;-8.9336914e-05;0.16010693;-0.6254684;-0.0007963917;0.064285934;-0.78788966;-0.08852761;0.038562253;-0.06143517;0.042884063;-0.032773986;0.02774641;-0.11755678;-0.012219716;0.035863135;-0.046911072;-0.10071328;0.15959193;-0.034360237;0.05643526;-0.07112176;-0.111250654;-0.022414086;0.12907197;-0.09247049;-0.03276708;0.010697301;-0.105435506;0.1343719;-0.024204157;-0.0059554083;-0.55141085;-0.818719;-0.15278682;-0.73314106;0.09015215;0.052096613;-0.092852704;-0.20517072;-0.015149226;0.7484218;-0.031949487;0.22661214;0.909416;-0.05382049;-0.32231978;0.012374938;-0.34116155;0.16940878;0.015435411;0.359378;-0.008376953;0.11647635;0.102399506;0.43198666;-0.098454;-0.7803124;0.6599598;-0.027732316;0.096575856;0.68227184;-0.12925294;-0.12079754;0.5931266;-0.06881707;0.009232227;-0.06791472;0.088418625;-0.14051576;-0.030420095;0.06113319;0.08935618;-0.14316332;0.061049066;0.8775241;-0.042978834;0.06563585;0.2598497;0.13232045;-0.15743211;-0.57546026;-0.012383691;-1.8623072;0.008876097;-0.09553973;-0.07059344;-0.13802576;-0.31883124;-0.02960099;-0.012242271;0.03411047;0.16875492;0.052884284;0.015819294;-0.24759464;0.15820257;0.95056033;-0.033446934;-0.05366943;-0.9929868;-0.46637443;-0.0768294;0.1615634;0.061139382;0.0066114147;-0.23824202;0.06234578;-0.096531406;0.24591766;0.24300231;0.2362939;0.103438176;0.031645942;-0.0016586386;0.21800467;1.2001349;-0.42774588;-0.3291746;0.34336787;-0.044370223;0.11972134;-0.2925138;-0.5560702;-0.6093659;0.25452417;-0.26739454;0.14728712;-0.012485682;-0.0040866234;0.08798618;0.015648818;0.11111669;-0.2243884;-0.18744244;-0.5659092;0.023008712;1.31524;0.064149804;-0.028758336;-1.5034351;0.13580413;0.00029881773;-0.023859108;-0.0113446005;-0.12003783;-0.4336224;0.024127185;-0.14185177;-0.008841002;0.639588;-0.043703478;-0.06532325;-0.94535625
0.18466687;0.0347561;0.08058537;-1.2442205;-0.3359428;-0.042056654;0.07105727;0.4402072;0.22586602;-0.043710146;-0.017681794;-0.013104507;0.015293333;-0.107984245;0.0148927495;-0.31107062;0.038186006;0.11234234;0.09646259;0.29888314;0.04985118;0.034885984;-0.013656046;0.8934502;-0.04164234;-0.07916772;-0.00983784;-0.015543822;-0.54581326;-0.004250676;-0.012080521;-0.13009927;0.20391187;0.04821979;0.18939355;0.10289489;0.07405981;0.06829866;-0.014245271;-0.08422497;0.15247151;0.2675881;0.5134281;-0.053021096;-0.1588626;0.19856027;0.47867197;-0.06474791;0.13073733;-1.4991747;0.17125857;0.06389508;-0.6649792;-0.091101035;0.055772826;-0.5584882;-0.028493725;-0.10931211;-0.17737062;0.072599396;-0.18844247;-0.0470061;-0.037421912;-0.016364258;0.052140746;-0.06777343;-0.6732143;0.03940041;0.004138181;-0.032551832;-0.0022415393;-0.07394193;0.07071305;-0.09290382;-0.72930306;-0.18501946;0.19147235;-0.36863858;0.19134405;-0.88050604;-0.009211746;-0.034969386;-0.50139695;0.06762201;0.3897272;0.0032611317;0.034904636;-0.46919206;-0.03385452;-0.02657916;0.04943955;0.65765655;-1.2139046;0.08647859;-0.037396915;0.04161095;-0.24596605;-0.123942405;-1.1003532;0.038072433;0.21924223;-0.022494644;0.14769863;-0.051027413;0.0001186537;0.055138413;0.009871422;-0.1066705;0.0825335;-0.16255073;-0.015739374;-0.06952673;-0.034980133;0.044163547;-0.047982693;-0.024745993;0.034407802;-0.07041606;-1.9400504;0.030924037;-0.03630307;-0.011880303;-0.7430387;0.29678863;-0.053950787;-0.30189946;-0.06403821;0.64602417;-0.05648255;0.04450602;-0.032009322;-0.28861332;-0.14145342;-0.027754704;-1.6885452;0.039781068;0.10813561;0.047234144;0.042058136;-0.029884262;-0.12332193;-0.03939883;0.048694514;-0.048036702;-0.15292233;-0.054546855;-0.7726391;-0.027827702;-0.004378058;0.040202133;0.47618955;0.89908046;-0.05928081;-0.055028386;0.061413605;0.011261431;0.81533056;-0.19681937;0.2992484;0.63378465;0.019475883;-0.36130074;0.046151135;-0.16648662;-1.3703827;0.009634738;-0.156182;0.29683948;-0.25012198;-0.028127959;0.65872216;-0.06303606;-0.7657613;0.14266303;-0.39494824;0.009651093;-0.06407429;-0.049577028;0.94232994;-0.10577227;-0.432689;-0.7121184;0.011547588;-0.15768406;0.1412126;-0.032387897;0.015846755;0.17278138;-0.21300471;-0.07607221;-0.20590584;-0.10086647;-0.14992662;-0.05095108;0.60295486;0.26219642;-0.0088025825;0.06079021;-0.050439302;-0.69023085;0.061412297;-0.09323353;0.037376825;0.04078395;-0.44067937;0.07535163;0.35102677;-2.0970144;0.026117;0.8626062;0.0494741;0.022702275;-0.4250651;0.45363042;0.04580764;-1.627558;-0.012572946;-0.42839888;0.45692623;-0.067090176;-0.03605123;-0.70965016;0.069043934;0.044105336;-0.14102542;-0.014750504;0.0812899;0.030972883;0.25833803;0.054106615;-0.014103596;0.059957396;-0.15909655;0.1180582;-0.035807908;-0.15862045;0.07251308;-0.30077982;-0.0050207707;0.56298643;-0.34456116;-0.0077248607;0.031528745;0.05674833;0.4142531;-0.060497534;-0.06893205;0.035484996;0.11850993;-0.1851943;0.004641343;-0.62200683;0.04662234;-0.077071145;-0.09068316;0.21795782;-0.13183084;0.009494142;-0.009877718;-0.6652092;0.024446951;-0.041472413;0.07599406;-1.172622;0.04088476;-0.010779349;0.43899968;-1.0542051;-0.36972636;-0.0053906445;0.22283716;-0.01812694;-0.04688401;0.3045278;-0.28441554;-0.5543704;-1.5079803;-0.04375979;0.03203351;0.011569352;-0.3964074;-0.07069958;-0.28006515;0.03811342;-0.077608645;-0.2674505;-0.2780212;-0.07519264;0.06160232;-0.025838299;-0.38920996;0.7924144;0.27797526;-0.06167258;-0.110719636;-0.030622475;-0.10343576;-0.019276183;-0.09196926;-0.028011002;0.026498437;0.08823567;0.01568769;-0.037914883;-0.17018728;-0.034385554;-0.053391457;-0.093526945;-0.09480593;0.42986235;0.02538722;0.02207243;-0.002953006;-0.9765828;-0.55181724;-0.09268873;-0.039860323;0.023990931;0.05128038;0.07905341;0.080359034;0.24634811;0.047050785;-0.050111845;0.073533796;0.101997264;-0.39741287;0.025778046;-0.07853347;-0.013964633;-0.055917487;-0.10683317;0.27279505;-0.062853076;0.17896043;0.00857093;-0.3780752;0.020549735;0.0333699;0.11531952;-0.06712189;0.04823722;-0.696067;-0.033892497;-0.027994638;0.038460784;-1.4837338;-0.31141493;0.20378742;0.07804313;0.03125562;0.015757259;0.013997495;-0.02207086;0.02467736;0.041735712;0.01987329;0.037434496;-0.28719717;0.069541566;-0.3468573;0.064985394;0.50064653;-0.10653172;-0.38976774;-0.017992511;-0.09459165;-0.5145455;-0.1823981;-0.0830096;-0.43206552;-0.031679496;0.14581929;-0.7166364;-0.042919345;-0.015148404;0.13742018;-0.048536494;-0.09738143;-0.33958057;0.06762996;0.01805703;0.1801662;-0.108578324;-0.06650474;0.025353413;-0.44028178;0.11851837;-0.010639023;0.023079544;0.041608293;0.28439903;-0.03502456;0.02598765;0.25334826;0.2555825;0.0027932299;-0.07441595;0.8434988;0.08097639;0.032032426;0.015185141;-0.45601532;0.24816889;-0.318924;-1.2374277;0.09236964;-0.6711529;0.014852953;-0.061169837;-0.03786175;-0.044003926;0.14855829;0.07622092;-0.021898754;0.0032019801;0.045482557;0.96129954;0.045727372;0.03464114;-1.3519428;0.29905248;-0.8595066;-0.026392289;-0.3700495;-0.5919675;-0.05537808;0.08753441;-1.9019367;0.016517788;0.02497648;0.03063491;-0.02328356;0.031352345;-0.030234577;-0.017647004;0.08301029;0.08188857;-0.058907982;0.1842748;0.09301193;-0.0076714847;-0.007926509;0.048251584;0.31106102;-0.029398926;-0.20188616;-0.032518335;0.03906357;-0.0069009517;-0.09597014;0.090543576;0.10021006;0.0063455966;-0.6193181;-0.45270962;-0.065176584;-0.29800406;0.09436827;0.041604985;0.06924055;-0.07705806;-0.0084957825;0.055746768;0.08571786;-0.3078644;-0.050133668;-0.1884937;-0.053108957;-0.29823527;-0.22405243;0.18337765;-0.042006053;0.12882383;-0.061176546;0.12575848;0.018366054;-0.84057134;-0.1366652;0.20683001;-0.5090374;0.062231172;0.046009596;1.4293233;-0.09092455;-0.064945646;0.5387679;-0.0749679;-0.058758423;-0.055089895;-0.16098537;-0.26995033;0.024315078;0.119365014;0.16898309;-0.065697044;0.060179833;-0.7971726;-0.13601916;-0.012919655;0.0017957016;0.05298145;-0.32866317;0.20657565;-0.016868705;-1.340523;-0.032426577;-0.12510532;0.03392032;-0.11033894;-0.14196399;-0.02746792;-0.087094866;-0.08822426;0.2670744;0.069763295;-0.30913335;-0.611826;0.11436498;-1.4852685;-0.037231006;0.0628814;-0.82828707;-0.2047812;0.061074488;0.05532284;0.028853536;-0.061109677;0.7085171;-0.2672315;-0.040794786;0.14490956;-0.37085623;0.24919924;0.12976858;-0.023110343;-0.07055582;0.20279822;0.47861922;-1.3846256;-0.41096756;-0.44322976;0.24212494;0.032274567;-0.1608653;-0.4208996;-0.46111476;0.2609793;-0.7649714;0.10660759;0.025869893;-0.105909795;-0.07900464;-0.0677668;0.018865714;0.7254045;-0.25579074;-1.0108637;-0.018331656;0.14814787;0.04475046;-0.05877187;0.08186377;0.014801779;-0.043419827;-0.022058744;-0.036888704;-0.06642743;-1.3956306;0.0011744581;0.08668958;4.6006576e-06;0.20193952;0.033686414;-0.017557502;-0.6961038
0.11401805;0.1042893;0.053125113;-2.2986906;-0.11101644;0.0037403142;-0.023599438;1.4001682;0.53492373;-0.9922226;0.06263451;0.93446285;0.2274352;0.4292711;-0.004483507;0.18715224;-0.42273012;-0.13622375;0.014536347;-0.34195903;0.1257003;0.100089006;-0.017535057;-0.36206546;-0.05531552;-0.09112376;-0.079778455;-0.014550687;0.4339798;0.17340982;-0.059615847;0.3422596;-0.30121157;0.025235727;0.109090135;-0.11426163;-0.036536712;0.06234355;-0.11110466;-0.013081696;0.5933733;-0.5722516;-0.5590913;0.18372884;-0.5299916;-0.046697877;0.6401477;0.0032215414;-0.50131;-0.5084982;-0.56644464;0.003538695;0.23297912;0.0055835503;-0.17313628;1.5568078;0.135292;-0.15233693;-0.67182195;0.086784974;-0.23428026;0.7401309;0.06663267;0.12428896;-0.19303277;-0.15934469;-0.9383078;0.0044868398;-0.10223406;0.02076305;0.22555135;0.05828637;-0.09784574;0.17915048;-0.39336362;-0.26613137;0.26803356;-0.6245869;-1.0335159;-0.12038965;-0.17330733;-0.05310086;-0.8520895;-0.053934764;1.1972992;-0.025774218;-0.19234794;0.13219106;0.080570474;0.119615346;-0.15984878;0.12851766;-0.6053292;0.018119529;0.036001876;0.051763874;-0.40886998;-0.18822585;0.227925;0.07286754;2.4459212;-0.034456525;-0.10066668;0.05747933;0.079769805;-0.2642831;0.13521363;-0.23084803;0.13602993;0.12388969;0.0036787684;0.040271275;-0.027518578;0.10217313;0.073165916;0.02471116;-0.23341829;0.22723272;-0.66465956;-0.09822682;-0.14311732;0.004798072;0.32185063;-0.30783764;0.14942108;-0.33192658;0.013962959;0.9773409;0.08670837;0.09442487;-0.069469005;0.18970191;-0.044479802;0.121076986;-0.016247194;-0.039058063;-0.18715644;0.21031925;0.064403966;0.14060372;0.014382819;0.29288793;-0.18066734;-0.21210912;-0.052136846;-0.020857047;-1.3073674;-0.055524375;-0.56949115;-0.1930508;-0.19567938;0.63696724;0.07379342;0.98634285;-0.0037015716;-0.057419997;0.45825377;0.10616393;0.46377292;0.6429168;-0.04335069;0.16508234;0.28424758;-0.13961846;-1.3680214;-0.109036624;1.4864491;-0.42644447;-0.47618744;-0.34326544;-0.53632593;-0.14930794;-0.66738856;0.010986669;-0.7038393;0.1278149;0.3042428;0.118788205;0.5474041;0.055660598;-0.26053995;-0.6921299;-0.0431935;-0.37219375;0.6740048;-0.11875271;0.14619483;-0.21702631;-0.6765345;0.16372423;-0.54813695;0.2943446;0.14684767;-0.055986356;0.57638097;0.05363122;0.049146138;-0.007871521;-0.051739424;-1.6955783;0.07703231;0.015309906;0.13783807;0.033423603;-0.9816343;-0.23866785;-0.28593427;-1.8866898;-0.094535924;0.13967173;-0.16871965;0.20118257;0.020044679;-0.50261354;0.024318837;-1.3474841;-0.2856927;1.5020524;0.16225836;-0.02802565;-0.18825696;-1.292647;0.17893466;0.019093579;-0.20053889;-0.22962336;-0.22191921;0.0074994317;0.15139079;-0.15940997;-0.21416812;-0.1831297;0.25120592;-0.9896775;0.11238817;0.17675036;0.10881112;-0.33088744;-0.06348366;0.45531017;-0.20371658;0.090021506;-0.3065596;-0.019837195;-0.13955104;0.32733378;0.19410226;0.18746905;-0.012783569;-0.03947463;1.234428;-0.63787705;-0.049007908;-0.10086914;-0.093711995;0.8976992;0.14538784;-0.056603283;-0.042166345;-1.9566443;-0.18522567;0.19222376;-0.2435726;-0.766627;-0.22992699;0.24110787;-0.33451214;-0.5796669;-1.0654585;0.019293366;-0.21177007;0.0734364;0.15062088;-0.3499097;0.15530825;-0.5684478;-1.3067842;0.060362484;0.1424879;-0.0014539625;-0.6898877;0.011531365;0.04872667;0.006584505;0.120816275;0.07524718;1.4374242;0.016282784;-0.07288916;-0.04613879;-0.002621281;-1.1331029;-0.35445228;0.013748316;0.30555654;-0.06617455;-0.30851358;0.09381284;0.008976039;-0.17950147;-0.017936116;0.36218703;0.09690836;0.09424759;-0.28572416;-0.07268109;0.23394772;0.08982452;-0.043054026;-0.16544959;-0.061645444;-0.04039913;0.18589902;-1.7948736;0.47635362;-0.026299255;0.052969154;-0.040449135;0.12487966;0.048838105;0.118197545;2.1390462;-0.12434978;0.07863808;-0.1673869;-0.12273913;-0.3436189;0.17123777;0.029590625;0.1941029;0.19852605;-0.107783645;0.6635535;0.23824057;-0.16217896;-0.07115592;-0.54238313;-0.15557787;-0.9006457;-0.02160822;0.05888548;-0.10446526;-0.19554923;-0.23090477;0.12478186;-0.17883874;-0.10572409;0.09742318;-0.12890975;-0.1435779;-0.20536357;0.13419177;0.008763963;-0.059179194;-0.1946287;0.011178664;-0.1087737;0.096041664;0.2608522;0.13122004;-0.0071052187;-0.10195125;-0.014787058;0.15246812;-0.45833957;-0.12479264;-0.068714485;-0.20023027;1.0194374;-0.14902264;-0.114709646;-0.03819627;-0.11293257;-1.9053118;-0.030069783;0.18734692;-0.23261268;0.34598178;0.21580186;-0.68803525;-0.21678896;-0.18795843;-0.24805142;0.18504962;0.036187857;-0.05461583;0.2747135;-0.18837261;0.15695989;-0.04402611;-0.004512704;-0.384983;-0.044303562;0.034518853;-0.32471427;-0.41458642;0.08065991;-0.15762316;0.12058979;-0.12994792;-0.07019812;0.12044617;0.03877788;-0.19580446;-1.2418591;-0.16933605;0.054353505;-0.9374934;-0.008652573;-0.03421292;0.13586168;0.002972113;-0.14711186;-0.04585743;-0.1113152;0.049131345;-0.029001778;1.146962;0.060676884;0.050961997;-0.8921813;1.3766301;-0.52894527;0.10641554;0.0020569058;-0.9455078;-0.042287435;-0.02851403;-0.46825638;0.05740096;-0.08706993;0.06995592;-0.17970982;0.13459334;-0.11950852;0.11343162;0.3108766;-0.13012673;0.21886066;-0.1786578;-0.1192465;-0.026173145;-0.23748073;0.017656844;-0.27020216;-0.050624795;-0.25691688;0.12487205;-0.016835906;-0.14098729;0.050688814;-0.009555754;0.3454382;0.0666697;-0.7085238;0.66830385;0.10044315;-0.090378374;-0.1896647;-0.069423065;0.14792575;0.47980577;-0.11783577;-0.59979075;0.047149137;-1.4459571;-0.43061873;-0.10350204;1.1494592;-0.12495507;0.008885722;-0.14885396;-0.07939441;0.302957;0.11740829;0.10840279;-0.0845805;0.019195508;0.07465661;0.46057162;-0.61253554;0.026647858;0.07054016;0.99115086;0.093800336;0.10034007;0.3434483;-0.1663512;-0.005732067;0.08570355;-0.36023298;-0.13286899;0.03490368;-0.23787835;-0.25961006;0.14597277;-0.1958649;-0.4143619;-0.047390744;-0.095874436;-0.3261337;-0.098688826;-0.8870001;0.26217613;0.19675286;-1.4121445;-0.22032365;0.14793368;-0.02027378;0.12060178;1.1737752;0.0686819;0.088360086;-0.03783253;-0.01473594;-0.13390678;-0.4530345;-0.17630431;-0.11308192;-0.08078915;0.15040445;0.09889846;-0.58083266;-0.09871029;0.0018220332;-0.25245464;0.003755223;0.17936786;0.06711773;-0.46156904;-0.08261984;0.047610395;-0.17470671;-0.28458437;-0.24848925;-0.082414195;-0.022981454;-0.28798258;-0.8850305;-0.5149297;-0.9314013;-1.6630418;0.076596715;-0.15863165;-0.29746658;0.16635548;0.5193521;-0.33875751;-0.6962041;-0.18760335;-0.16671315;-0.15383852;-0.10715164;-0.22467268;-0.13547033;-0.71306837;0.26233274;-2.285538;0.034884628;0.5894747;-0.026058948;0.028167402;0.91103095;-0.17897145;-0.21530087;0.04061231;0.10244303;0.10945467;-1.9178864;0.11262748;0.24965553;0.13533695;0.3249323;0.019546688;0.0053876396;0.12079728
0.022954375;-0.019548194;-0.076477185;-0.72240883;-0.04081601;-0.08223851;0.0035804326;-1.4489659;0.07092389;-1.1598402;-0.01860085;-0.82386297;-0.01045288;-0.2961313;0.074890785;-0.35501474;0.29770383;0.28816152;-0.0046717995;0.5276353;-0.008018584;-0.09035474;0.021490928;0.17371458;-0.07241092;0.04819124;-0.0626524;-0.089620225;-0.24569774;-0.020579202;-0.08144465;-0.6276773;0.44598722;0.034567863;0.052270494;0.17021036;-0.072768666;-0.014475426;-0.00722077;0.009980107;-0.17028974;0.39402094;-1.3417888;0.00421203;0.4345628;0.24472398;0.17007221;-0.02121393;0.645869;-1.1789674;-0.10252412;0.05800899;0.005887729;-0.06388661;0.59147376;-1.0595324;0.011989917;-0.035390485;0.78346485;0.040199775;-0.100030266;-0.3011102;0.027771922;-0.1016071;0.066716164;0.06761383;-0.6283256;-0.40661502;-0.058221605;0.052638773;-0.09928134;-0.08113074;0.090796635;-0.12555411;0.35965365;0.23529635;-0.063711904;0.30600703;0.059532437;1.0292573;0.11967268;0.042323027;-1.088909;-0.04649258;0.59572744;0.008072776;0.042952936;-1.1369298;-0.09659504;-0.13237454;0.09490065;0.44049713;-1.5279394;0.06398933;0.02465833;-0.07756717;-0.20152774;0.073055506;-0.4664513;-0.025355918;0.9472646;0.022899687;0.09630492;-0.15766168;-0.032941192;0.2283641;-0.013026385;-0.4498262;-0.009482526;-0.18435992;-0.069733575;-0.052328087;-0.05069896;-0.03425208;-0.13893469;-0.01740374;0.067805156;-0.8698009;1.0414947;0.041493073;-0.05573667;0.03783476;-1.3235351;0.5199273;0.02232359;-0.10328443;-0.09172586;-0.34254804;0.036264926;0.016205175;0.07388757;-0.8701964;0.3284638;-0.08507594;1.2656208;0.101532206;0.061537948;-0.17862494;-0.006493114;-0.081948325;-0.06058546;-0.15097891;0.024120266;-0.037468426;0.018658457;0.030577261;0.38724557;0.07596217;-0.083130464;0.13001592;-0.9941799;0.4068298;0.027977321;-0.53085476;-0.065665774;0.1120951;0.8211966;0.15181026;-0.017988412;0.13917397;0.054342017;-0.46269566;-0.23585936;-0.38243556;-2.0116072;0.05371344;0.07345009;0.6740046;0.5138088;0.24239242;0.3601986;0.06438507;0.90607053;0.12069196;0.078869365;0.04445473;-0.16301627;-0.36794284;-1.5542625;0.08519059;1.1829222;0.38488898;0.10235497;-0.2979723;1.7622619;-0.06667381;0.033481237;0.408642;-0.03035803;-0.0790947;0.37631008;-0.120120905;-0.150859;-0.07835799;1.1292014;0.63176876;0.0032919429;-0.022297764;0.026386837;-2.8919315;-0.05398138;-0.03937755;0.032044653;-0.006515667;-1.09404;0.13719252;1.368889;0.6016333;0.12085325;0.59714025;0.05554823;-0.1403525;-0.8162018;1.3589431;0.057528682;-2.3287709;-1.1263167;-0.049373083;-0.42659274;0.009076758;0.08647519;-1.6280079;0.46567726;-0.10246659;0.12946065;-0.035774656;0.025652288;-0.07181941;-0.03984882;0.053460892;0.060256444;0.035308704;-0.3808371;-0.0034173457;-0.03543469;-0.065123916;0.015903778;0.10558586;0.050889254;-0.4923725;-1.3891758;-0.038820688;-0.06761231;-0.055081997;-0.023721142;-0.67051154;-0.032677364;-0.05285523;0.008608368;-0.16474162;-1.0778285;-0.9012446;0.061253097;-0.076896526;-0.037473913;-0.14554517;-0.1900697;-0.046425555;0.0010255502;-0.79445195;0.1502174;-0.018675564;0.2278943;0.0430876;-1.4383503;-0.13313138;-0.6211014;0.21813028;0.015658299;-0.13788374;0.4488595;0.024333322;-0.085512005;0.6643887;-0.43955672;-1.1222594;0.059232447;0.079367295;0.010604134;-0.4462354;0.17871231;0.0366982;-0.4766217;-0.019673405;-0.08956673;-0.23221003;-0.46659538;-0.108050354;0.04105079;0.12455235;-0.2613166;1.5039344;0.80116105;0.023884756;-0.4090837;6.63108e-05;-0.39133224;0.035808444;-0.059922945;0.0668283;-0.017002225;-0.35776436;0.023321457;-0.060469247;-0.51451313;0.024417691;0.08373637;-0.036448915;0.07981423;1.1897748;-0.052396346;-0.030288175;0.0041632764;-0.8646581;0.9820758;0.05274321;-0.06263542;-0.008428253;-0.054259297;-0.0438368;0.04437139;-0.75773937;0.07275724;0.01125138;0.0674227;0.20760502;-0.8058174;-0.046518736;-0.013263687;0.027998455;-0.06776004;-0.10255773;1.3398396;-0.004955546;0.40347075;0.06585372;-0.08241257;0.058498237;0.19575186;-0.071767546;-0.05397816;0.0837571;0.43254623;-0.025573587;-0.13029982;0.091062225;0.4387665;-0.3021787;0.32906458;0.11023609;0.10242483;0.05343132;0.029877525;0.091296084;0.08894473;0.0005139697;-0.0063662394;0.063228175;-0.046035107;-0.022252128;-0.83871716;-0.04607937;0.7479305;-0.118822865;-0.72954315;0.05269949;-0.066030234;-0.32408124;-0.73765254;-0.02966331;-0.22729608;0.064535856;-1.9834508;-0.88780725;0.08022285;-0.034764435;0.17292322;0.17239398;-0.07505782;0.72592664;0.31089243;0.042662214;0.23870678;0.019489322;-0.030865675;0.07514701;-0.2352501;0.22572084;-0.09144028;0.0028227877;0.024768572;0.5340788;-0.066875495;0.03758103;-0.06818261;0.5694316;-0.05103815;0.43474603;-0.59386194;0.079359666;-0.022509404;0.026936673;-0.49917147;-0.35970685;0.31740806;0.3436331;-0.022114214;0.8661916;-0.56738186;0.05869761;0.09720851;-0.008551775;0.33793196;0.012554262;-0.02191326;0.0049802084;0.032718815;-0.30470648;-0.0955471;0.054915767;0.54491085;0.51840156;1.1849308;0.055363182;-0.47205573;-0.79747385;0.06117495;0.043313976;-1.7525692;0.016600588;0.075853415;-0.06533859;0.08399998;-0.0027265134;-0.031272702;0.028259205;-0.12346164;0.03555512;0.02488189;-0.43782315;0.13422762;0.08426921;-0.023125416;0.011346101;0.19030012;-0.05380422;-2.2232237;-0.15085724;0.08623525;-0.0100760255;-0.028505033;0.30091622;-0.011130402;0.03678595;-0.9426138;-0.8594602;-0.09390824;-0.15038654;0.11971782;-0.057646226;-0.02591062;-0.2938911;0.011557072;0.24314323;-0.07054426;-0.9207499;0.08820595;-0.16018559;0.5155765;-0.10213988;0.23249024;0.15757416;-0.03355399;-0.09935763;-0.0042635864;0.28516653;0.024776727;0.17283693;-0.18256806;-0.13084456;-0.7433671;-0.03444427;0.14840762;1.4972284;-0.01076578;-0.07642037;-0.5057023;0.021022186;-0.03448906;0.04353284;0.035565995;0.10481566;-0.014690235;-0.0025016267;-0.02033713;-0.042283367;-0.04779585;-0.20082544;0.00723167;0.030428335;0.22913046;0.050784696;0.07060853;-0.89835554;-0.08867601;-0.67758703;0.096426085;-0.1099866;-0.14572364;-0.05333629;-0.4899107;-0.02000177;-0.13789396;-0.09255161;0.38924265;0.12633942;-0.2911435;-0.6612452;0.15588114;-0.26653334;-0.10208575;-0.07025978;0.9892314;-0.9021332;-0.023355762;0.25261837;0.0062284893;-0.063353054;-0.7100921;-0.064019404;0.04638326;0.056144204;-0.49948573;0.31124637;0.2624953;0.037743237;-0.06330301;0.34550428;-1.9328283;-1.2888575;0.37799317;-0.58081937;0.0738131;-0.021147747;-0.11648306;-0.6942287;-0.19198395;0.66426575;0.11189882;0.0375547;0.2914545;0.02022144;0.04852427;-0.0052180886;0.037649747;1.38593;0.011855822;-0.7096314;-0.0240691;-0.7184613;0.08248031;0.040878735;1.1981715;0.12808248;0.123382166;0.025838008;-0.16519204;0.0016467095;-1.2483608;-0.011110531;-0.08244784;-0.023620361;-0.35977694;0.05032197;0.058924757;-0.08293782
0.08969671;-0.046537764;0.008957952;0.1042006;-0.05830361;-0.07727458;0.07514085;-0.7980941;0.46654484;-1.8140137;-0.1375081;-1.1752813;-0.11309118;-0.4065277;0.019251114;-0.12714717;0.25758466;0.1535111;-0.018071806;0.30685496;-0.12405135;0.020063432;0.044530585;-0.8133074;-0.02298357;0.027679134;-0.012250252;0.033844184;-0.4330778;-0.06421063;-0.044005886;-0.8084165;0.2704603;0.059297446;0.7100884;0.07017232;0.0021226823;0.0169047;0.08502431;0.035954624;-0.017896606;0.63758785;-2.2636874;-0.113513134;0.10213606;0.20565236;-1.1435224;0.006412429;0.7808751;-0.2938;-0.9447183;0.022856446;-1.2682226;0.0017975348;-0.016175115;0.38829145;-0.07914453;0.08274419;-0.011970003;0.02310488;0.003536492;-0.65041226;-0.08593919;-0.10252671;0.13210252;-0.019929796;1.5491021;0.13117062;0.026194828;-0.03294084;-0.12797445;-0.08583072;0.0809856;-0.1094327;0.65361494;0.34930584;-0.13695231;0.71825385;0.39547038;1.0826849;0.18565205;-0.038627356;-0.9088837;0.05305373;-1.6762459;0.028973177;0.054276906;-1.2900046;-0.10812456;-0.032607026;0.19854783;-1.0589004;-0.5838181;0.003717494;0.025518376;0.0487918;-0.60633504;0.015380514;-1.2016706;-0.017247975;-0.6391435;-0.05481482;0.59410405;-0.10265012;-0.041686125;0.13126947;0.032730427;0.41379252;-0.068249434;-0.11881158;-0.01361188;0.018188652;-0.017720284;0.025570463;-0.06166767;-0.053189006;0.111738995;-0.093569964;1.4097244;-0.032540448;0.107325815;0.025220418;0.08979574;0.2977125;-0.07445021;-0.027688153;-0.09045518;-0.7431922;-0.079340465;-0.040781077;-0.046354156;-0.2530842;0.1278135;-0.037757877;2.923032;0.09043808;0.1095871;0.67674;0.009663946;0.021018822;-0.035372887;-0.19988364;0.02592126;0.0032457693;0.023767687;0.032882378;0.45482457;-0.07221589;-1.2144445;0.18174715;-0.2936253;-0.094252095;0.0041137827;-0.9290604;-0.06914306;0.012289771;-0.3257169;-0.07132846;-0.15625557;-0.7038114;0.07890795;-0.22745135;-0.53944594;-0.78055775;-1.7582533;-0.011087561;-0.5954876;0.46475577;-0.18490279;0.40633038;2.308819;0.04344919;2.3366776;0.23191333;-0.10345031;0.018886644;-0.17664532;-0.21942516;-2.0111606;-0.028095415;0.72800004;0.2363098;0.09944608;0.7673201;-0.28979442;-0.052522406;-0.09336235;0.219385;0.19152679;-0.012480153;0.545231;-0.14070185;1.2202619;0.0050784056;-0.9180241;0.6631822;-0.05103417;-0.04513743;0.037311506;-2.4679224;-0.05898105;0.08877703;-0.09725784;0.03853602;0.21877512;0.16726302;0.16992572;1.2068326;0.073031835;-0.757196;0.19726923;-0.12067932;-0.7876537;0.74070805;0.056891717;-2.0145938;-1.1111816;0.14475152;-0.48952428;0.024373012;0.12000126;-0.53961766;0.29952416;-0.09779883;0.091210246;0.0772941;0.2427387;0.02767232;-0.25230443;0.16789682;0.1189974;0.14453696;-0.5743494;-0.23011786;-0.05318659;-0.027541257;-0.038726002;0.18593648;-0.009037153;-0.88767993;-0.59600973;-0.03197746;0.071018964;-0.05730905;0.06327768;-0.099372216;-0.12214477;-0.12022975;0.06419813;-0.1724743;-1.9300098;-1.8372402;-0.0023110064;0.08513978;0.035718795;-1.3531388;-0.12374426;0.021299653;-0.047359608;-0.66688716;0.051111624;-0.09462284;0.17368546;-0.6483097;-1.5575001;-0.19396102;-0.5153453;-0.10019221;0.32187417;-0.061918136;0.2374189;-0.08467392;0.017642705;0.30830017;-0.29363862;-0.6267067;0.37745774;0.081645;-0.09716501;-0.39307675;-0.42995867;-0.04456202;-0.36819255;-0.01253185;-0.012150768;-0.21694548;-0.2773624;-0.045903727;0.1068524;0.10483521;-0.23933686;0.50295776;-0.9759981;0.018555928;-0.59611994;-0.037687708;-0.7516468;-0.02974153;0.055423927;0.16336887;0.098318756;-0.36439312;-0.044358473;-0.02236801;-0.23189898;-0.06838897;0.0037959225;-0.08547295;-0.026306659;0.7204922;-0.068133414;-0.04384674;-0.12083517;-1.4563135;0.56567127;0.029611409;-0.08236015;0.011880733;-0.080389455;-0.04349898;-0.094147556;-1.4652989;0.122037254;-0.39879334;0.11502658;0.14996673;-0.9775858;0.01637596;-0.043716237;-0.105432004;0.017525347;-0.07731545;0.36032787;-0.051410843;0.15779692;0.06594138;0.13583922;-0.03772307;-0.17682014;-0.026059503;-0.08830526;0.09313411;0.5829153;0.008892217;-0.028217848;0.072502136;0.8955717;-0.30892417;0.10660345;0.06756487;0.2019222;-0.01982886;0.01823066;0.06966646;0.15978348;0.07575671;0.05979347;-0.0049545574;0.12547171;0.033413872;-1.1143208;0.012944439;0.6156277;-0.102210514;-0.788076;0.018927656;0.059922587;-0.29935247;-0.46732098;0.049671605;-0.32044467;-0.024997575;-1.277545;0.2508751;0.061633952;-0.120399125;0.119669184;1.4134257;-0.03678639;0.62742215;0.14744395;0.1504922;0.22005865;0.0132279;-0.06397195;0.0048999693;-0.646088;0.14969029;-0.05405087;0.003969409;-0.027865771;0.33888042;0.0407835;-0.078238346;0.23809096;0.35836893;-0.07191388;-0.041727643;-0.872404;0.09701818;-0.017101202;0.017251054;-0.36725026;0.011681612;-1.0799377;-0.2441622;-0.007854329;1.7953597;-0.231433;0.051106274;-0.020585274;-0.05712565;0.19448738;-0.016452352;0.075569935;-0.25192785;-0.009442604;1.1085974;-0.011850215;0.069415994;1.0164965;-0.22069576;1.3052846;-0.057720345;-0.37465018;-0.20904045;0.09509287;-0.047471184;-1.150592;0.03648332;0.1435292;-0.03934276;0.08699772;-0.020821244;-0.06731712;0.022764133;-0.2095057;0.15700291;-0.037100453;-0.4806211;0.1562924;-0.040258747;0.09461459;0.05374502;0.21666773;0.01319296;-1.7785031;-0.05443706;0.08892011;-0.030321347;-0.093379006;0.19990632;-0.06140717;-0.023652958;0.44382223;-0.3370055;-0.15946567;-0.2644781;0.089838855;-0.0018095021;-0.107338354;-0.7700206;0.007336665;0.34689966;-0.011848154;0.09105276;0.1691859;-0.1300488;-0.6230329;0.23407358;-0.34730208;0.10757738;-0.07321586;-0.46592653;-0.18806428;0.15959477;0.06337338;-0.44203436;-0.052500095;-0.80368984;0.59926856;-0.03734994;0.016114939;-1.4083382;-0.0979498;-0.09529561;0.006751159;0.066353574;0.039761476;0.065392524;0.03423847;0.04521464;0.015675146;0.11436479;0.047013007;0.007238302;0.07282742;0.19402544;0.09387964;-0.06519227;0.25015283;0.071838416;0.27808836;-0.3666446;0.0061367885;-1.9876969;-0.022827841;-0.15083802;-0.12446927;0.005278021;-0.48393035;-0.060245693;-0.10611391;-0.0148874745;0.48296553;0.15106176;-0.14141712;-0.12071144;0.109020956;0.6106359;-0.013607627;0.062247843;0.07622396;-0.14061633;0.015763193;0.075612046;-0.0400138;-0.11634889;-2.3226445;-0.0648178;0.041235913;0.014627825;-0.7734474;0.30422175;0.22757635;-0.046337187;0.006313139;0.24130422;-1.357681;-0.9090089;0.394454;-0.31018874;0.05127423;0.10403817;0.73645025;0.3451935;-0.089866765;0.3194379;-0.1677152;0.17319155;0.31523734;0.078942634;-0.001722777;0.12474967;-0.016590256;0.54556566;-0.467811;-1.2349441;0.07134794;1.1620014;0.0011381194;-0.073975705;0.4192599;0.08881128;0.061103903;-0.06769024;-0.0040714955;-0.13028428;-1.2352558;-0.081892826;-0.046418056;0.043384306;-0.27242845;-0.005142748;-0.07536541;-0.46096295
0.7770735;-0.119394094;0.048739802;-0.8453791;-0.12451754;0.013884548;-0.015063093;0.45802647;-0.9416417;-0.86196756;-0.1317746;1.4967049;-0.25546917;0.03361298;-0.08303966;-0.2505415;-1.1050999;0.17887564;-0.08440077;0.4668021;-0.15793666;-0.12139268;0.024476176;0.92411435;0.039687984;0.11974819;0.04448634;0.003627768;-0.56604487;-0.13485591;0.030604023;-0.42340344;0.44505605;-0.028468132;1.7143705;0.3220724;-0.043843485;-0.03023749;0.056520134;-0.008733365;0.081160024;-0.2738603;-0.3451966;-0.18613057;0.16801392;0.23213388;0.6141345;-0.02090291;0.8804325;-1.1691543;-0.6028936;0.00826181;1.374735;-0.068257004;0.6252847;0.6591186;-0.32656586;-0.0015485035;-0.40875638;-0.08162616;-0.0057127853;-0.2187839;-0.13549438;-0.119013205;0.31720474;0.10128574;-0.10914813;1.0854403;0.18226553;-0.055021003;-0.12638013;0.022893848;0.25580734;-0.29411355;0.34651953;0.289382;0.24298535;-0.26502633;0.455314;-0.024137791;0.34460035;0.0661762;-0.97812426;-0.036796436;1.4054618;-0.08313887;0.21248786;-0.23541316;-0.14958362;-0.20088731;0.37063414;-0.99784905;0.6536735;-0.007436856;-0.16507569;-0.058023725;1.015104;0.23862377;-1.5662794;-0.23085864;0.3399081;-0.011130922;0.0323955;-0.48265886;-0.11586961;0.36958686;-0.14190423;-1.0067455;-0.03371819;-0.43002883;-0.02873318;0.012755169;-0.005622488;0.031029968;-0.25156146;0.018491952;0.28491387;-0.21835862;-0.08076733;0.24020049;0.17357847;0.034259044;0.24661085;0.4827225;-0.098950416;0.1330853;-0.14831726;1.274706;-0.17103784;-0.0691917;0.043897018;-0.22223343;-0.24548511;-0.10110266;-0.9599273;0.105575114;0.3232951;0.81534;-0.03822495;-0.032397497;-0.14956221;-0.31326517;0.12890615;0.21263665;0.100364506;0.07346679;-0.03246018;0.073029235;0.3569304;0.3164479;0.5083534;0.67732114;-0.048746374;-0.5497159;-0.0063602696;0.12905094;-0.056533292;0.037045367;-0.18489611;1.7256523;0.07780196;-0.2407509;-0.5582152;-0.665048;-2.4581811;0.07618047;-0.035016157;0.65935373;-0.41125765;0.119157895;-1.044404;0.21917854;-1.1128042;0.53053874;0.24188387;-0.0055742315;-0.29398966;-0.09977139;-0.31310833;0.22896513;-1.5610008;0.45357832;0.14567368;0.48603946;-0.48449224;0.006461234;-0.18613863;0.44742852;0.16041821;-0.17729378;0.40989837;-0.4749092;0.91238177;0.0153349405;-0.36693093;0.09058505;-0.008012171;-0.024022851;0.016624823;-2.2862668;-0.2617469;0.053186145;-0.05768534;-0.13591067;-1.3045427;0.35877973;0.8663175;0.009215281;0.112308286;-0.4579265;0.31187207;-0.38663426;-0.69673496;1.2804157;-0.058240306;-1.7919259;-1.4122118;1.8018566;0.063675255;0.058905333;0.13846861;-0.8383438;0.42810076;-0.07276812;0.027688857;0.21373735;0.32225168;-0.132685;0.78813684;0.26605862;0.17158975;0.25915736;0.014190354;-0.32810408;-0.18577679;-0.31645003;-0.10387659;-0.22164384;-0.019169427;1.4022582;0.40789393;0.001010535;0.08766633;0.012662562;0.8427291;-0.3083967;-0.35849547;-0.11519876;0.05923784;-0.21572135;-0.8398064;-0.85971534;0.03111951;0.04423489;0.07767559;-0.44522616;-0.4833004;0.038555875;0.012956643;-1.3050581;0.29511392;-0.15586852;0.3820523;-0.4731174;0.15082145;-0.4415918;0.19538668;-0.82027406;0.94365174;0.23956198;0.5012598;-0.06052842;-0.13743128;0.5510829;-0.3430382;-0.9090752;-1.5408232;-0.06451333;-0.08212632;-0.49618202;-2.5096147;0.04361971;-0.29469886;-0.0091080265;-0.015516439;-0.27946243;-0.107747234;-0.025427487;0.05216582;0.09559983;-0.23614833;1.2853637;0.27002865;0.051246397;0.24994504;-0.034939148;-0.38580698;-0.03189856;0.015880477;0.27261576;0.09742137;-0.27638808;0.023409413;-0.040532894;-0.060986627;-0.035753414;-0.26069334;-0.17105909;0.04618027;0.115771964;0.054548025;-0.013457655;-0.20204885;-1.5347234;-0.32356113;-0.002787737;-0.046815295;0.05765688;-0.12194094;-0.13168235;-0.043034006;-1.2103949;0.4313233;-0.3211984;0.13957152;0.39364612;-1.127464;-0.14459555;-0.06706053;-0.3216758;-0.23968089;-0.029865595;0.31761;-0.14991672;0.45056173;-0.023736138;-0.1934034;0.12224046;-0.56080693;0.12180145;-0.13773765;0.107630596;-0.35140976;0.016059719;-0.11403112;0.1862673;0.2951145;-0.24219662;0.5285901;0.22914022;0.3850423;-0.14720055;-0.043226503;0.09743205;0.36742136;0.07926842;0.19824718;-0.11425807;-0.57066464;-0.10432379;-1.129096;-0.023689719;0.12356548;-0.059668344;-0.5188096;0.0779719;0.11312666;0.08958769;0.7970125;0.13473561;-0.16645093;-0.09636195;-0.2605506;0.0036440988;0.08176538;-0.023165701;0.31672227;-1.5979003;-0.24595435;0.9925754;0.46637237;0.33042502;0.30812156;-0.25852147;-0.13040704;0.055977605;-1.4246498;0.30627006;-0.06845891;0.042431198;-0.029067447;0.5927695;-0.034304775;-0.091407605;0.38200098;0.6129772;-0.21091339;0.30697456;0.9739747;0.25394568;0.16324842;-0.08370894;-0.33207205;0.21682788;-0.1437071;0.25080445;-0.019465204;-1.4048961;-0.2061657;0.056728523;0.21433139;0.22225787;0.5138918;0.09056093;0.3329826;0.12592962;0.01739282;0.08974386;-0.06649254;0.023624193;-1.0165962;1.0717481;1.0950843;-0.03724886;-0.3285545;-0.694298;0.075741634;-0.090479575;-1.0476277;-0.082345545;0.2837707;-0.03543108;0.138644;-0.008807592;-0.009371981;-0.10030101;-0.2691441;0.19556078;-0.16851842;-0.40071914;0.30890924;0.05091545;0.25005794;-0.019577902;0.332441;-0.0802617;1.2359885;0.05689866;0.18233085;0.038715675;0.01755057;0.111847065;-0.25481424;-0.027921952;1.2180334;-0.31022128;-0.8946898;0.04378872;0.2768023;0.05631479;-0.1568127;-0.22182149;0.16722609;-0.27273837;-0.10269719;-0.3764671;-0.52520293;-0.14512697;-1.3475382;-0.18469083;1.0596135;0.33760732;0.02999901;0.30226538;-0.30490804;0.09545085;0.29934275;2.1315033;-0.3548515;0.51498014;0.40640813;-0.1269178;0.030881574;2.3060412;-0.16656674;-0.55709976;1.8882128;-0.028361;0.0128513845;-0.021112377;0.12495971;-0.3222083;0.023593703;0.31432557;0.31996495;-0.031201782;0.18260628;-0.49250838;-0.005091063;0.03758375;0.3523327;0.2536242;-0.82311857;-0.060072444;-0.18274148;-0.14833392;0.14569928;-0.388649;0.019457594;-0.17417698;0.59582734;-0.11064769;-0.13935637;-0.018949132;0.20959592;0.345504;-0.22470488;-0.35459664;0.32500535;0.45348147;-0.17237183;0.01369405;-0.4205112;0.33829898;-0.037994012;0.4313301;0.051347055;-0.1964944;0.81089485;-0.00946241;0.246198;0.32108927;0.4591904;0.47406706;0.39612302;0.115082726;-0.02005971;0.36566964;0.84899664;-0.9258626;0.286435;0.59411526;0.34110987;0.08094399;-0.20095326;0.57216954;-0.7011144;0.6028738;0.12534754;0.26100397;0.43562445;0.08788585;-0.005917468;0.19785294;0.078714624;0.83567196;0.16704167;-1.6435459;-0.041182376;-0.14735632;0.00797307;-0.108811334;0.6597618;0.21043542;0.2849515;0.123858124;-0.18078631;-0.35727376;-1.4199885;-0.0060615623;-0.18932927;-0.082089566;0.61209;-0.08793077;0.08032437;-0.01535699
-0.59743726;0.052826107;-0.038586266;0.4441982;0.042002164;-0.016655073;-0.031660017;2.5499127;-0.5833539;0.40269822;-0.062133264;-0.33168063;-0.12589967;0.3617449;0.00984903;0.22525561;0.7800172;0.08815461;-0.09177146;-0.32381824;-0.017144037;-6.191477e-05;-0.095764905;0.50275373;0.011654208;0.06572929;-0.051253237;-0.06312688;0.033719156;-0.09455092;0.0418466;0.16044512;-0.28834075;0.015631106;1.3431163;-0.09220634;0.02352153;0.03749136;-0.022179374;0.020488095;-0.35306796;0.1161887;0.7090228;-0.024587624;-0.024428602;-0.095385395;-0.92816573;0.07079854;1.1562479;1.5373733;0.13219227;0.02399753;0.41260433;-0.038096905;0.2524265;0.23160657;-0.1274662;0.11696337;-1.2108059;-0.05414139;-0.12966909;0.52552074;0.013447494;-0.09833186;0.16615254;-0.09785918;1.0145466;0.6763662;0.14677563;-0.08484097;-0.029191013;0.016282069;0.13590455;-0.15290181;0.8256254;0.0822191;0.10243473;0.33498567;-0.4690755;0.46332338;0.110427156;0.03285983;-0.7715653;0.06518327;-0.5457679;-0.007600972;0.09303174;0.20411174;-0.044712175;0.010733732;0.00849336;0.4837719;2.136403;-0.08094447;-0.084876224;-0.079717144;-0.044693585;0.12698995;-0.46187663;-0.13522275;0.027834542;0.03312516;-0.1776911;0.0039143683;0.005928762;-0.07184931;-0.047768198;0.46411526;-0.014815109;0.1803916;-0.03461463;-0.002074061;-0.018870996;-0.037079234;-0.11824446;0.032631196;0.16839002;-0.16709653;-0.48859772;0.00685548;0.12187324;0.064323716;1.1200156;-0.37696633;0.036408234;0.062455013;-0.11594035;0.37924534;-0.075566925;-0.08676371;0.051366955;0.18102463;-0.0021555913;0.014874468;0.8829181;0.0011136287;-0.041417897;-0.263223;-0.021211877;0.031971246;0.027832825;-0.12564118;0.115626976;0.13238077;-0.026993146;-0.018668514;0.56153804;0.028978184;-0.114122935;-0.0059302934;-0.5947141;0.61331147;0.0008512863;-0.69078106;-0.029364843;0.049734227;1.1417514;-0.044504028;-0.38465232;-0.3280681;0.051394697;0.29415324;-0.25342152;-0.46340373;-0.8449758;0.004084438;-0.43768796;-0.6058544;-0.45734096;0.20778571;1.5013969;0.16495292;1.4927902;0.16428359;-0.18583499;-0.11399754;0.18825327;0.0634718;-1.329797;-0.16250752;-0.04035853;0.25487253;0.054334003;-0.18419689;-0.11268251;0.019410584;-0.10994757;-0.36231276;0.13574281;-0.020725342;0.108641796;0.03030716;1.0205063;0.03729384;0.050293677;0.4238506;-0.009602352;0.032248765;0.035178684;-0.15555899;-0.1318086;0.010923838;-0.053091984;-0.018648233;-0.25149196;-0.08869451;1.5170231;1.4819181;0.037267383;0.3150028;-0.0012763594;0.01523968;-0.2876834;1.2686064;-0.04952446;-0.5277208;0.16735631;1.1754134;0.4056566;0.009135288;0.12784316;-0.024973124;0.9763144;-0.07779283;0.06914229;0.17312922;0.16936229;-0.050000176;0.39203992;-0.3133283;0.054565415;0.023493227;-0.3111347;-1.4784966;-0.089623325;0.007389669;-0.005559531;-0.64656955;0.057430435;0.32727295;0.48768592;-0.09763981;0.13674192;-0.06090751;0.37318158;0.4521455;-0.13886486;-0.0399295;0.075784445;0.103935085;0.13077529;-0.6404875;0.039096467;0.08503464;0.003630354;-1.7444389;0.017016543;0.11349207;0.08297434;-0.32394394;0.078654565;-0.1312802;-0.10825755;-0.5204133;0.5232548;-0.16904262;-0.7163514;0.068441674;0.71253943;-0.10284547;-0.3442876;0.013665513;-0.07960176;-0.55122304;0.30218536;0.64050865;-0.99831504;0.02258877;-0.019232634;0.06262411;-0.7019741;0.049270075;0.20434555;-0.03814093;-0.10406031;0.053221397;-0.027430506;-0.08770831;0.10735893;-0.10408781;0.055706654;2.2420769;0.6155264;-0.021713162;0.83768654;0.022746058;-0.2813413;-0.00037783294;0.079460956;0.118065044;-0.045971002;-0.060967106;-0.086776204;-0.05721374;0.2003402;-0.041523598;-0.095061585;0.030882964;0.05204427;-0.50374043;0.0016314151;-0.010849793;-0.14813031;-1.1571813;-1.3634787;-0.04920958;-0.09933673;-0.026912976;-0.032005694;-0.01735405;0.018129751;-1.6476496;-0.016287526;-0.16629115;0.10889158;-0.16503146;-0.079492204;-0.112729594;0.040671658;-0.18241303;-0.10232469;0.0499219;-0.25263584;-0.046129476;-0.35080343;-0.053733524;-0.50815225;-0.017788304;-0.6676621;0.07568838;-0.0033377404;0.003343976;-0.19763663;-0.25074786;-0.05021119;0.061039872;0.13128045;0.14515907;-0.20018047;0.0875755;-0.11227116;-0.018791687;-0.03264808;0.119197845;0.1599814;-0.0089572985;0.12847401;-0.1094339;0.37525097;-0.09111512;0.17382555;0.0025269217;-0.36632365;-0.011704883;-0.57570505;0.0551499;0.081573024;-0.42459828;2.3057551;0.10297803;-0.06524726;-0.06689043;1.1745518;0.054830927;0.111183316;-0.06283155;0.108037926;-0.00076313026;-0.13532971;0.60854185;-0.24038588;0.09814397;-0.042687424;-0.114149526;0.02727542;-0.057693116;-0.20159513;-0.108914524;-0.06904156;-0.011311714;-0.053685516;-0.64944166;0.037662737;-0.05615687;0.27504113;-0.597312;0.10916302;1.0993865;0.49741685;0.14085074;0.05696097;-0.114547774;0.13778052;-0.26654464;0.32464898;0.5615715;-0.0028894157;1.1395254;-0.1585091;0.037454855;-0.07776069;-0.1440253;-0.16422434;0.05456947;0.12329052;-0.14841418;0.08980318;-1.3605173;-0.006523361;0.058095172;1.678213;1.9383297;0.535574;0.026901582;0.23812239;-0.14771469;0.08320179;-0.055204187;0.2485877;-0.044425175;0.05886112;-0.07966969;0.11943427;-0.023363376;0.0503145;-0.0070468965;-0.27345097;0.03029258;-0.004631524;-0.4671787;-0.1593587;-0.028574912;0.17783704;0.03186813;0.84427744;-0.067863256;-0.4258647;0.10378977;0.09363142;-0.006589229;0.01848394;-0.008648714;-0.06137734;-0.06516463;-1.1587092;-0.6803867;-0.5595401;0.17850658;0.020886837;0.02107445;-0.07656003;-0.23576646;0.13840608;-0.025930606;-0.08634333;0.20385608;-0.6767562;0.034935333;-1.7574321;-0.35020187;0.3965064;-0.23034717;0.081795536;-1.1550199;-0.03428933;-0.31457317;0.050103948;1.8144692;-0.11618275;-0.6344713;-0.11303356;-0.08128521;0.022673445;1.3136349;-0.05167924;-0.07041704;0.034574848;0.054494377;0.058050036;-0.0068219593;0.003886631;-0.22040085;-0.08689217;0.036262672;-0.03388297;0.016686715;0.11340622;-0.100211985;0.023485998;-0.080405034;-0.39905235;0.09357167;1.4983373;-0.50886947;-0.14218594;0.6243515;0.061279114;-0.07363399;-0.013159142;0.09748891;0.2626724;-0.024175882;0.03228083;-0.037686747;0.368331;0.031034576;-0.09105397;-0.13595669;0.020970382;-1.2469326;-0.12693518;0.0016466515;-1.0321034;-0.758366;0.011342995;-0.2129878;0.12940225;-0.022084251;-0.68581223;0.12125449;-0.15779059;-0.19735058;-1.771046;-0.31348956;-0.16929181;0.05570896;-0.01974105;-0.2753987;1.0125452;-1.7125877;-0.24577142;-0.68276644;0.1442464;0.109060325;0.4193415;0.01390123;0.774766;-0.6204835;0.09026866;0.12212901;0.17230701;0.050758228;0.09530143;0.015990641;0.07847657;1.7328478;-0.0088801915;-0.7902274;-0.08649432;-1.8352678;-0.01742922;-0.007979256;1.0256431;0.114318915;0.14395054;0.05724099;0.067656256;-0.058479663;-0.84517646;-0.06805838;-0.18659584;0.022315683;0.46255186;-0.06437162;0.06545251;-0.19342414
-0.17550625;-0.057715025;-0.03481874;0.49697852;-0.10654849;0.014235887;0.037071146;1.472188;-0.10423333;-0.04584594;-0.087464236;0.854852;-0.0930909;0.39106888;-0.055721384;-0.18052961;-0.64590853;0.22452956;-0.01805359;0.098503865;0.04394357;-0.047018792;-0.026080912;-0.05225217;-0.058069833;-0.006507077;0.057350628;0.043571696;-0.0568538;0.028295374;-0.0009808231;0.03417148;0.13896418;-0.019331593;-0.33949536;-0.13279672;-0.018026037;0.020143425;-0.058221266;-0.02720699;-0.3962457;-0.24953982;-1.3317578;0.046191607;0.0009952245;0.10775837;0.5296156;0.044875704;2.1905828;1.0245249;0.7553741;-0.019954236;0.4293447;-0.046496306;0.082444295;-0.33442664;0.083260804;-0.0051372275;-0.61378783;-0.01667258;-0.19368133;0.30863458;0.024582958;-0.11788447;0.042972114;0.025998896;1.2157439;0.3097098;0.09409425;0.022163874;-0.06185745;-0.026025204;-0.017528532;-0.0660426;0.41200265;0.14561267;-0.17907101;0.13648538;0.43146113;0.3454809;0.024642354;0.07724372;-0.67504644;0.021831984;-2.29825;0.05165427;0.036755275;-0.4494354;-0.049204495;-0.010264918;-0.11063139;1.3597963;0.49139106;0.05090961;0.011731093;0.02853527;-0.2455577;-0.0037694906;0.25989848;-0.053433508;0.51295376;0.061813828;0.24582551;0.07625367;0.029977262;0.062737666;0.039809223;0.62120587;-0.046515554;0.110570624;-0.052000374;0.0067643966;-0.005682236;-0.07107251;0.066443436;-0.022890123;-0.030763468;-0.53015184;-0.6074895;-0.024451116;0.07810878;-0.08477776;-0.22611456;0.16984646;0.017200768;-0.20315215;0.06945288;0.41615903;0.032240648;-0.03970216;0.033732474;-0.013783897;0.44180527;-0.032014962;-1.0418901;0.096701294;-0.073254675;-0.9245137;0.045024503;0.0064298566;-0.029461948;0.059182636;-0.029428238;-0.014199519;-0.0587167;0.022451364;-0.11033017;0.05992754;0.15002002;-0.07111166;0.68112755;0.41012782;0.07787706;-0.080975205;0.021071814;-0.08171133;0.65892977;-0.11926843;-0.27600694;0.03764529;-0.048474662;-0.30447778;-0.6307593;-1.0099003;0.39594576;-0.018585289;-0.5424314;0.006886043;-0.0024004618;-0.106388755;0.45435208;0.0009336577;-0.17796475;-0.12917581;-0.2629251;-0.06569612;0.19904993;0.0059791394;-0.34381217;-0.15644093;-0.52745837;1.1444397;-0.010169943;0.44091487;0.6516285;-0.04799388;-0.01908113;0.122717865;-0.22040443;-0.029104657;-0.25471383;0.35874465;0.43264586;-0.041936725;1.5556277;-0.05389151;0.05408329;0.038617637;0.06747085;0.649705;-0.05938835;0.054307602;0.010753788;0.070505925;0.5772679;-0.06942081;-0.1225868;-1.0019685;-0.07070802;1.9270555;-0.023010872;0.12362063;-1.2864373;0.10272548;-0.03417756;0.45005494;-0.19632523;0.3135794;-0.42784807;-0.06723738;-0.029935997;-0.054159246;0.4342551;-0.0008156585;0.033993438;0.05439806;0.14115186;-0.08430757;-0.084547244;-0.18772347;-0.048245814;-0.0044312133;-0.07835975;-1.1214734;0.06909019;0.04407194;0.01913028;-0.17699744;0.059353285;-0.66208607;1.1766884;0.026850522;0.029104793;-0.037636004;-0.37603614;0.17773993;0.03158726;-0.040487587;0.007239005;-0.17343345;-0.52373046;0.9631599;-0.07556459;-0.06589002;0.008563123;-0.8917541;0.041727647;0.011833325;-0.03942828;0.024752714;-0.054802496;0.03595414;0.02018482;0.0905498;0.050269194;-0.0669114;-0.032452866;-0.69315857;0.78449064;-0.34127206;0.06876394;-0.06876064;0.008511268;-0.07761547;-0.14912383;0.071773335;0.34352058;-0.015144026;-0.05356398;-0.12118173;-0.13547917;0.052778196;-0.23926197;0.01685384;-0.046957243;-0.012027738;0.42346048;0.039846685;-0.043879353;-0.020208675;-0.11495298;0.32494614;0.9592701;0.063322015;0.23745216;-0.07054662;-0.64251196;0.07018658;-0.026282294;-0.09796569;-0.07534819;-0.021332873;0.07484131;-0.039457627;-0.077764355;-0.03846087;0.08030983;-0.0415998;0.03350328;-0.21226195;-0.07595762;-0.017061435;-0.05094638;-0.5360264;-1.3748564;-0.059690215;0.030108703;-0.01917008;-0.032867633;-0.03397064;-0.025945202;0.3133167;0.022827309;-0.21946642;-0.0031014313;-0.029151406;-0.75473386;0.02913162;-0.032610133;-0.06421156;-0.09665433;0.028989717;1.20181;0.044903763;0.0056063076;-0.01887066;0.43397868;0.069713145;-0.5766337;0.12121791;0.023127785;-0.01626858;0.19663428;-0.10026437;0.008700486;0.042877905;-0.6830722;-0.10414147;0.008603773;0.0037545643;-0.011692061;-0.047781833;0.03413501;-0.02514201;0.012545884;-0.028272279;0.050295915;-0.051362485;0.08585673;-0.007611493;-0.36544347;-0.031345267;0.32610014;0.054040894;-0.42828658;-0.0507681;-0.043966234;-0.18985808;1.2341678;-0.0005382846;-0.5925687;-0.011932533;-0.66802305;0.20852159;0.04897173;-0.03939954;-0.08739495;-0.7485327;-0.004951915;-0.18874116;0.06529261;-0.07770982;0.037383374;-0.065510504;0.061456934;-0.019912448;-0.7029162;0.00575748;-0.04711019;-0.11358725;0.039186805;0.038413078;-0.075164944;-0.07117742;-0.12554622;0.1313898;0.03581222;0.3844555;-0.10801069;-0.01841882;-0.012541131;-0.036073007;-0.15804778;0.0703866;-0.56165123;-0.06440666;0.056197673;-0.11857795;-0.3290967;-0.05970832;0.23439716;0.13306285;0.10807117;0.076587215;-0.024053937;-0.04023333;-0.050241303;-1.1621474;0.061605293;-0.07315848;0.2959995;0.22894032;1.8146597;-0.08397421;-0.1471011;-0.034860864;0.052067943;0.05354005;0.9566089;-0.07750697;-0.029162705;0.07367414;-0.07529703;0.05359636;-0.018563466;0.06651097;-0.0061060525;0.06379071;-0.0062739635;-0.21379828;0.06016019;-0.07097076;0.0047857813;-0.09054422;-0.111849;0.061265804;-0.09720395;-0.114645764;0.0025574046;-0.021622887;0.08516317;0.429605;-0.011715949;-0.022798723;-2.5845714;0.17443162;-1.0226237;0.25347456;0.0062812036;0.06282942;0.07616578;-0.14386596;-0.016733365;0.16380605;-0.044307534;0.31719747;-0.09895281;-0.18302302;-0.73507977;0.22608413;0.3244516;0.108157866;0.01584844;-0.29567575;0.10091208;-0.06388202;-0.053443406;1.6001759;-0.04001799;-0.30889374;-0.51850003;0.043952208;0.0006666158;0.2858667;0.07443565;0.18056211;-0.07737595;-0.022117957;-0.03191443;0.06359251;0.047586784;-0.25461075;0.031264104;0.031254616;-0.095889375;0.0500962;-0.0045113293;-0.2621561;-0.13376004;-0.07376052;0.34477705;0.07412792;-0.07373803;-0.25833452;-0.0561008;-0.16063869;-0.013663119;-0.004564672;-0.051000226;-0.06282283;-0.019436818;-0.07967823;0.02761788;0.024401762;0.13564478;0.030246431;-0.08231213;-0.8033667;-0.005246964;-0.42551088;0.10309515;-0.023317749;-1.6864794;-0.7405518;-0.07719006;0.004610233;-0.07192035;0.07762803;0.1810039;-0.19265975;-0.18598409;0.12774734;-1.9502256;0.022505442;0.07823418;-0.02884064;0.034312;0.010972602;0.41195148;0.5544033;-0.1999021;1.0258332;-0.06095161;-0.07479332;0.15442827;-0.55428773;0.94399464;0.0002837654;-0.4154711;0.03705947;0.23001182;0.05545992;-0.014923168;-0.049905702;-0.0649043;1.0011007;0.1271671;-0.24109226;0.07646409;-0.6948878;0.076829664;0.062626354;0.7623589;-0.036557637;-0.09083803;-0.030077813;0.017734095;0.05239778;-0.79751265;0.061295494;-0.0038099021;-0.058651928;0.860291;-0.05958734;-0.048980393;-0.553684
0.12334972;0.0043199984;-0.0037351751;-0.9550567;-0.02695472;0.043428246;0.010972682;0.34798905;-0.32550013;-0.14435881;0.082180135;0.7706632;0.089486204;-0.44769135;0.05312717;-0.31805623;-1.4011943;0.16476254;-0.038348168;0.2503322;0.043334566;-0.004583761;0.06257618;-0.11467409;0.019954694;-0.028734986;0.039651338;-0.0798411;-0.23962201;0.015609246;-0.008698256;-0.13785355;0.13048843;0.07256939;-0.54618907;-0.06399451;0.075035304;-0.008892146;-0.05362039;0.017203169;-0.28459108;-0.40746737;-0.15743186;0.035587687;0.0732399;0.105312325;0.837627;0.009385258;0.30240482;-0.42433107;0.058442198;-0.016476765;-0.042036626;-0.045892697;-0.3423506;-0.2089042;0.06254104;-0.04442387;-0.14313841;0.011554563;-0.016990418;0.008934251;0.06061048;-0.025702138;-0.10657241;-0.2647883;0.32922924;-1.0240924;-0.11232254;0.051282402;-0.004959442;-0.04700111;0.026865188;-0.07833543;0.0732314;-0.12425887;0.24009079;-0.24259199;0.080886066;-0.5313465;0.014547905;0.06070917;0.55814284;-0.020425588;-1.0942966;-0.016608652;0.018602112;-0.90382886;0.087701455;-0.036696743;0.051683176;-0.6746425;-0.2670172;0.05773686;0.02030924;-0.04805463;-0.04398903;-0.04426185;-0.8328922;-0.041642856;-0.41617942;-0.09317726;0.2972678;-0.22333412;-0.045266647;-0.007885613;-0.07226771;-0.16919774;0.04250335;-0.13804264;0.055880386;-0.011086795;-0.047786407;0.0464779;0.024716629;0.057677012;-0.017079104;-0.33178982;-0.44544327;-0.057662;-0.11438764;-0.020072067;-0.22946104;0.16770582;-0.079956785;-0.04804475;0.06717733;-0.0975876;0.07279062;0.0865099;0.052149408;-0.41854498;0.5666766;0.027711282;-0.3527784;-0.0051761013;-0.058194246;-1.6409141;-0.013140829;-0.024365872;-0.027768815;-0.046705298;-0.10723938;-0.06789962;-0.06204343;-0.039795242;0.68008715;-0.068183094;-1.5538604;0.06778405;0.3624931;0.27330837;-0.050926276;-0.3812693;-0.044791073;-0.04463437;0.29836896;0.090369746;0.06994387;0.022116194;-0.032060396;-0.28320658;-0.42558658;-1.0048358;0.06606913;-0.10695923;-0.78566235;0.17810425;-0.5306243;-0.22349267;-0.8825696;-0.0725327;-0.49749637;0.061336152;-0.12288392;0.026838956;-0.23484229;-0.17336875;0.38851336;0.028549585;-0.85643214;0.014908258;0.030641476;0.3625333;0.09711349;0.03496601;0.21907245;0.23355906;-0.1728621;0.1055667;0.09632116;-0.0676277;0.012959685;0.04103888;0.4685034;-0.2829698;-0.048264872;0.049481254;-0.023043655;-0.34850007;0.12352683;0.015886888;-0.063567154;0.026499065;-0.4217164;-0.050581224;-1.7838825;-0.5231881;0.039506428;-0.3308369;0.043360617;0.07494472;-0.93437004;0.4300046;0.026280556;-0.04688061;-0.808162;0.1892336;-0.45801762;-0.079689555;0.011319057;0.2839731;0.21376428;0.03303625;-0.008266007;-0.00798518;-0.01421548;-0.038152587;-0.0187062;0.1258323;-0.051686972;0.0019273191;-0.14457129;-0.7928456;0.038187023;0.13131513;0.002457959;-0.4605531;-0.019805294;-0.8044647;0.9554755;-0.011298722;-0.11702209;0.05991031;0.3309502;-0.3979531;-0.022167731;0.08316342;0.08464252;-0.20473954;-0.10249347;-0.6689201;-0.0060199653;-0.045531757;-0.09153406;-0.46025455;-0.10202448;0.05764056;-0.059550054;-0.28761014;-0.023041718;-0.12367298;0.040073197;-0.3683008;-1.2775944;0.08725192;-0.20216922;-0.62822264;0.81085455;-0.18451904;0.18264838;0.039211128;-0.065247685;0.102690935;-0.392663;-0.24946417;-0.9065783;-0.08057268;-0.024339898;-0.2715024;-0.61543226;-0.045099795;-0.34110466;0.06652237;-0.06260232;-0.112700164;0.30644295;0.0870713;0.022858204;0.09535934;-0.15769662;0.11293612;-0.9798754;-0.06683725;-0.086666614;-0.08597963;-0.3982431;-0.058411904;-0.07866379;0.060327034;-0.07886093;-0.30360028;-0.07360339;-0.044879388;0.1770086;-0.013450767;0.24332789;-0.059870668;-0.09203055;0.1818426;-0.03438486;-0.0018225178;-0.09688066;-0.70889306;0.06341738;-0.06587484;0.024196342;-0.09825146;-0.035976496;0.08195007;0.043232556;-0.4551657;0.035114273;-0.20453852;0.07003892;0.108463675;-0.66693455;0.07554492;-0.00935187;0.11472044;0.091984525;0.071213245;0.5566703;0.04971165;0.12651752;-0.050029702;0.03209865;0.019122673;-0.044466417;-0.006631503;0.06720624;-0.08462723;-0.07919676;-0.10511865;0.043938987;0.008144596;-0.8401362;-0.3360405;0.17907494;-0.057076044;0.023599446;-0.010407282;-0.077118374;0.041570526;-0.06921519;-0.09291208;-0.0053339745;0.05978868;-0.0943823;-0.029266575;-0.7048821;0.041371528;0.27759004;-0.039472263;-0.9348382;-0.12856631;-0.054335393;-0.038375527;0.36037683;-0.010157667;-0.50929147;0.06025157;-0.2474037;-0.24019694;-0.11833722;0.033702437;-0.024007544;-0.46735114;-0.031495526;0.10039617;0.1241843;0.06242137;0.1078079;0.08283054;0.061658494;0.026845932;0.5259919;-0.0015864344;-0.0700592;-0.01869272;-0.0095835645;0.20412059;0.0043212115;0.046618123;0.22310686;0.15634982;0.019512113;-0.41569406;0.36016282;-0.0020239134;-0.024659935;-0.010898012;-0.24657844;0.18257298;0.567034;-0.33868194;-0.04165729;-1.7845036;0.098114714;0.0033471214;-0.22772163;0.118362434;0.048498593;0.11153409;-0.06532767;0.17039727;0.021847093;-1.0874807;-0.088036254;-0.043294754;0.28927004;-0.17162965;0.2237226;-0.0015441641;-0.2615063;-0.0983104;-0.034314204;-0.07280639;-0.110517025;0.028024834;0.013368466;0.048460264;-0.0370275;0.07065291;-0.04304634;0.046881936;-0.17625389;-0.01071116;0.087041005;-0.5191851;0.07988595;-0.08683155;-0.020606281;0.044114523;-0.10001317;-0.06815581;-0.33560604;0.3426804;-0.03726258;0.021702735;0.039420653;0.09638139;-0.004457687;0.05073289;-1.2016485;0.25402784;-0.9008003;-0.22051583;-0.024279084;-0.061737504;0.06810868;-0.1505406;0.011469256;0.14997596;0.041012727;0.09375749;0.150248;-0.120423995;-0.40489522;-0.5853934;0.22261229;0.1130683;0.054723535;0.5512883;0.07239576;-0.14556992;-0.029618558;1.0586681;-0.04384397;-0.03988639;1.0609947;0.020079345;0.018286327;-0.089120686;0.0135032395;0.078484066;-1.0788054;-0.14537865;-0.06240896;0.013038009;0.07137625;-0.18234636;0.030198988;-0.096126854;0.028128782;-0.09419797;-0.0067499;-0.31187335;-0.111484885;0.044979297;0.50222105;-0.08640275;-0.11525566;0.23748907;0.083569475;0.8885525;-0.06791003;0.03374663;-0.023301877;0.021484273;0.16547227;-0.056581724;-0.12199619;-0.0185778;0.29143456;0.058966435;-0.1909186;-0.03796378;-0.03089798;0.08754878;0.14431332;0.0108598005;0.0053916606;-0.042066455;0.06724202;0.075024866;-0.01092545;0.06775554;0.1325989;-0.19038396;0.09496879;0.24021497;-1.2968775;0.14700197;0.12988612;0.036398318;-0.010386304;0.1284158;-0.89713514;-0.32013643;-0.25514585;0.6250347;-0.020457549;-0.028280763;-0.95013314;-0.039775066;0.16423503;0.04322182;0.76711684;0.025572041;-0.34202895;0.025326254;0.06978512;-0.09966354;-0.048287097;0.026691234;0.112088;-0.5163131;0.029709063;-1.9876307;-0.0700552;0.046963323;-1.2603611;-0.107042365;-0.053040326;0.122491345;-0.13988964;0.010435544;-0.67134523;0.08831892;0.0034719752;0.0047908654;-0.58367735;0.060594793;-0.08018564;-0.540049
-0.040884703;-0.06749297;0.067868985;-0.66596395;-0.09011067;0.06720874;-0.024081867;0.25375462;-1.0624645;0.54997885;0.007363903;0.17155188;-0.019643867;-0.19603401;-0.018912751;-0.11100314;-1.0012678;0.075673506;-0.057850193;-0.023652738;0.08401372;0.04385035;0.023287442;-0.23797572;0.030206712;0.029115565;0.047911003;0.07957104;-0.38764593;-0.023276193;-0.014655966;-0.21893564;0.03777705;-0.048178412;-0.6907209;0.008588622;0.0044515077;-0.003900095;0.06303946;0.016976101;-0.25407147;0.217858;0.7058365;-0.083577596;0.087030254;0.02498603;0.80291116;-0.06805025;0.6239092;0.22559947;1.3562382;0.054251682;0.7699813;-0.007219028;-0.6834166;-1.6742978;0.0067605875;-0.046745457;-2.9703038;0.03071885;-0.08304737;-0.100901395;-0.018156268;-0.01312235;0.08608578;0.018926399;0.85783297;-1.1085362;0.092267536;-0.012019989;0.06437441;0.07480511;-0.056859795;-0.16872273;0.45568842;-0.015163891;0.097947106;-0.0126659665;-0.22117604;0.019360678;-0.016342588;-0.07212092;0.16165328;-0.027859092;0.43535405;-0.054838933;0.0059371963;-0.7660328;-0.04345831;-0.013389049;-0.0397877;-0.3952243;-0.7955576;-0.049484372;0.04096213;0.055177115;0.06976173;-0.020486765;0.57898366;-0.0020082362;-1.084593;0.08520342;0.06435296;0.11135561;-0.04587288;0.028297877;-0.027618667;-0.776717;0.06807517;-0.08387598;0.027834985;0.058315694;0.039912865;0.04775221;-0.105024695;0.077771485;0.060374603;0.934066;-1.3961873;0.04412745;0.04683264;0.0675743;0.7791133;0.014539527;0.08691684;0.1376895;-0.02154263;0.037956245;0.08920117;0.047537893;-0.06444367;-0.12316892;0.13871306;0.06374942;-0.04315705;0.0029516134;-0.02195504;-0.17686588;0.026401015;-0.012065943;-0.0565379;-0.05433646;0.077513374;-0.047827847;-0.08776461;0.071611986;-0.29969516;-0.03430665;-0.2405629;-0.04523647;0.21944383;0.10838213;0.04737432;-0.34429884;-0.03206463;0.041350633;0.38661313;-0.15950236;0.18193223;-0.10120863;0.0337092;-0.11851357;-0.012297452;-0.5809058;-0.819453;0.07842242;0.36694613;0.055866282;0.19749343;-0.07635042;-0.45985928;0.06532938;0.17300244;0.09107984;-0.069194846;0.033403054;-0.10876581;-0.14431456;0.410204;-0.027342627;-1.3260461;-1.4288955;-0.003861601;-0.006988879;-0.14619865;-0.05907707;0.11079903;0.113534495;-0.18404321;-0.034390688;0.12042068;-0.27293915;0.43590078;-0.011763182;0.6438022;0.16951224;0.076058865;0.07109529;0.020383857;-0.9606469;0.047198605;-0.025687777;-0.015577012;0.043306928;0.6264303;-0.086104065;-1.8846437;-0.094335705;-0.08465553;-0.08553005;-0.016419787;0.0091305785;-0.8411447;1.3768467;-0.043831687;-0.7816552;-0.42918333;-1.0038003;0.022447344;-0.08071974;-0.07839535;0.665331;0.53204644;-0.062703885;-0.05667959;-0.030501984;-0.06475861;0.03241464;0.02119102;0.14580207;0.059094574;0.0427214;0.08743749;-1.1242131;0.016265813;0.06029232;0.014837297;-0.26104638;-0.068029486;1.0597684;1.5862505;-0.024515755;-0.1363997;-0.07729201;0.03802902;-0.1395451;-0.0826629;0.017559627;-0.015425328;-0.032457374;0.7766902;0.62685406;-0.036760144;0.07836018;-0.012814014;0.19949125;-0.048354503;0.0737723;0.048200488;1.0934805;0.087291524;-0.16528957;0.052720077;-0.1023372;-1.2271236;0.07414805;0.019628366;-0.67038894;0.8328848;-0.024272708;-0.021811511;0.03871682;-0.042426277;-0.10853778;-0.21065873;-0.4382657;0.049446568;0.054506294;0.09375106;-0.39601782;-0.0045467447;0.031077864;-0.14902958;0.016800689;0.047060095;-0.0067379493;0.13429794;0.053763725;0.04320652;-0.06876151;-0.06401736;0.84839547;-0.48881373;-0.08468732;-0.17637078;-0.04227909;-0.059819117;0.061249126;0.038088888;-0.029575795;0.081303366;-0.23097044;-0.018458126;0.04309962;0.24491113;-0.007580029;0.0924101;-0.06331493;-0.06325146;0.47339767;-0.059263963;0.02238193;-0.12366516;0.85041517;-0.78154963;-0.022998506;-0.029638538;0.0060675456;0.030097218;0.005480818;0.077679105;-0.013755124;0.075452015;-0.2069714;0.029766237;-0.0052265567;-0.48589498;-0.064803466;0.03604655;-0.072282106;0.0031632222;0.025411373;-0.38764808;-0.0542276;0.029990299;0.010550383;-0.6706215;0.0052043283;-0.47780678;0.07569975;-0.036920685;0.07878392;-0.086303696;-0.06801015;0.070958346;-0.012229821;-1.5434903;-0.1088474;-0.022193084;0.04621279;0.0007688981;-0.060427815;-0.08463537;0.032512013;-0.013546612;0.029393882;0.05480356;0.042963635;0.033856157;-0.013815092;-0.48091352;0.009921624;0.20360458;-0.04741428;0.39499724;0.07932973;0.05104512;-0.016892433;0.1942152;-0.053524353;-0.5560462;0.051903054;0.57124966;0.15809803;0.04083577;-0.0038507143;0.07395258;0.14709014;0.045617275;-0.0010817451;0.0009656827;-0.076285146;0.051800784;-0.015618161;0.060499147;-0.025757749;0.83354336;-0.037244312;0.06288339;0.0490429;0.020153115;-0.0106793335;0.020995105;-0.056557912;0.007152994;0.08427845;0.0020675135;-0.102878824;-0.5018094;-0.07719199;-0.060216997;-0.017286776;-0.15160704;-0.23148969;0.4095901;-0.043054227;0.044178788;-0.5694524;-0.16939673;0.0354428;-0.22486642;-0.13480479;-0.023839215;-0.057504393;0.0968547;-0.07211821;0.0745308;-0.4551266;0.029431809;0.02120136;-0.4267588;-1.2417138;-0.6715106;0.022549905;-0.19117756;1.3461148;0.024001075;0.083310224;-1.3364061;-0.004025799;-0.032589167;0.021726323;0.03861858;-0.045987125;0.010885269;0.033639453;-0.1549145;0.055161033;-0.049635272;-0.038710006;-0.07291269;0.04540558;0.057897728;0.013663916;0.42949185;0.06746662;0.16460341;0.1681963;-0.028799461;0.0654446;0.039163634;-0.12918302;-0.17401935;0.0011377456;-0.76259804;-0.15839149;0.12483211;-0.13234195;0.044305556;0.06784737;0.019352945;0.14037983;-0.012265898;0.12907289;0.014085046;1.1751337;-0.14635733;-0.13834256;-0.09001237;-0.05947122;-0.53968865;-0.0116236275;0.04255773;0.1869666;0.048811175;-0.014168033;0.08091179;0.7483886;0.06494169;-0.18462169;-0.1100153;-0.04752971;0.100908734;0.48076013;0.08377687;0.18805836;-2.1926079;-0.004835487;-0.0707772;0.04008594;0.018827366;-0.16556405;-0.07335247;-0.013947313;-0.10104975;0.015931392;-0.062013548;0.30099085;-0.07368513;-0.042690415;0.19424547;0.08306137;-0.78445625;0.05424566;0.059629098;1.0062962;0.015031889;0.06444368;-0.057405826;0.05261644;-0.498979;0.066345505;0.04450624;-0.050977185;0.0958558;-0.024088478;0.59325975;0.5340928;0.004186948;-0.84669536;0.004374959;0.050405215;-1.0509671;0.3311665;-0.087824844;0.05424501;0.020610051;0.017382324;0.24936531;-0.08968611;-0.114756495;-0.050194718;-0.5697044;0.013855152;0.06390601;0.024491938;0.016043253;0.020134259;-0.09401631;0.18578318;-0.14306735;-0.28605932;-0.12977684;-0.060550824;0.54265827;-1.5797228;-0.67489547;-0.11172447;-1.6423452;0.07420302;0.024958516;-0.07907876;0.006406236;-0.03965142;-0.037231006;-0.3420641;0.21532331;1.3231146;-0.02513114;-1.0956231;0.018361162;-0.06605841;0.79765075;-0.008482164;-0.037611257;-0.06231444;-0.04001983;0.03435839;0.7860565;0.053630315;-0.006461973;0.042025056;0.30638868;0.032581624;-0.034659743;-0.4502899
-0.11487463;-0.094681725;-0.0009149541;0.12833594;-0.17728837;-0.061030228;0.028535333;0.13770233;-1.5983856;0.78110766;-0.08664597;1.0674692;-0.12180782;-0.41396126;-0.019876996;-0.1985039;-0.7585412;0.16259615;0.033987474;0.49839115;-0.053461075;-0.051989682;0.004165786;-0.071193114;0.04059349;-0.01249858;-0.08395359;0.014805427;-0.24660948;-0.099639535;0.022569012;-0.32764924;0.50811195;-0.042790227;-0.09298368;0.26436666;-0.03180244;-0.052495737;0.09563345;-0.050098516;-0.5388346;0.6906054;0.5899277;-0.09745753;0.32659838;0.062423002;1.2835249;-0.038701594;0.17730464;-0.15271623;0.9809127;0.08709247;-0.3182863;0.0566478;-0.47744182;-1.7291977;-0.02763676;-0.012058283;-1.1762894;0.06169191;-0.07230361;-0.5979837;-0.012221306;-0.03717916;0.08642282;0.068832934;1.7645254;-1.1870185;-0.058252335;-0.054194856;-0.028486269;0.023415059;0.15054558;-0.15084204;1.4682401;0.011268783;-0.021324182;0.84486055;0.1438336;0.2105606;0.16200686;0.031865504;-0.9865258;0.031968903;-0.8532062;0.061882015;0.11275244;-0.44084436;0.023085738;-0.0450712;0.11496295;-1.0334365;-0.7918715;-0.073363654;0.012457693;0.018486014;0.45231658;0.09085176;0.30645794;-0.086829044;-2.9252362;0.085499145;0.33296254;-0.055821165;-0.08814149;0.24174678;-0.07060739;-0.47555518;0.01616398;-0.3131845;0.026862532;0.039152056;-0.0028270385;0.037242334;-0.09165207;-0.0064288257;0.07091871;-0.15117237;-1.2834924;-0.027540544;0.022666328;-0.08369361;-0.56106395;0.5161729;-0.10648391;0.16399033;-0.03626619;-0.6655417;-0.028014312;0.0624621;-0.06880162;0.1760294;0.46323195;-0.10349833;-1.8918126;-0.05140307;0.22900254;0.38202614;0.0036457225;0.03397905;-0.08110851;-0.102419466;0.03180276;0.09750893;0.08930121;0.059258748;0.47072864;-0.03879873;0.21372807;0.27633813;0.06519727;-0.32063806;0.019201068;-0.48812452;-0.035744626;0.14076431;0.97789186;0.06618432;-0.4230995;-0.024098463;-0.076717325;-0.2650597;-0.14576337;-0.07982557;-0.36639774;-0.026880361;-0.7158581;0.6043718;0.36201206;0.098305725;-0.14337319;0.027879106;-0.9546757;0.06351973;0.100105494;0.038487133;-0.26031554;-0.14224148;-0.47049007;0.100571275;0.48053458;-0.58429176;0.011226332;0.42566848;-0.77551305;-0.024215117;0.007850003;0.4829507;-0.19956428;-0.086073965;0.15511812;-0.28800833;0.8640015;-0.048639156;0.8563118;-0.49358597;-0.06658351;0.049036037;0.07899682;-1.4229609;-0.119314216;0.011805227;0.079802476;0.027538376;1.5461243;0.26345605;-1.7024102;-0.91151226;-0.012758787;-0.96960825;0.14142597;-0.2306123;-0.6915998;1.3204429;0.00090332073;-0.19462629;0.1864689;-1.3248671;-0.06723568;-0.007211599;0.10499575;0.7715945;0.379001;-0.14296523;-0.05719793;0.01210871;0.08272333;0.08854408;-0.111918405;0.29524708;0.06028986;0.06530624;-0.3907195;-0.3658733;-0.039641827;-0.0506578;-0.08289403;0.24899112;-0.019539546;0.6891236;0.34065977;-0.0118254945;0.055419568;-0.06719566;0.3296227;-0.534695;-0.15996075;-0.0033034233;0.10302821;-0.14370236;-0.033358064;0.4738214;-0.058440458;-0.016095469;0.0140932305;0.7355305;-0.3102949;0.0048542707;-0.0048729787;2.6854513;0.0304924;-0.0013055188;0.33464324;1.1019763;-1.146356;-0.1419744;0.27602714;-0.84517145;0.9664374;-0.12848361;0.51454496;0.058645982;-0.015746333;0.5188187;-0.30227044;-0.4600127;1.2690458;-0.048431702;-0.12858161;-0.4258096;1.2307949;-0.008585739;-0.3482931;0.08030055;-0.11545517;-0.27145037;-1.010844;-0.022367269;0.06790209;0.03922897;-0.34591606;0.6374951;-1.5080409;0.03755685;-0.3562962;-0.056573544;-0.15970522;0.023534257;-0.04932492;0.14971085;-0.02055872;-0.3770004;-0.0047552744;-0.10975658;0.030086182;-0.077240996;-0.19248469;-0.07029232;0.02517416;0.4792553;0.022720657;-0.0074858544;-0.25753564;2.2973428;-1.1078296;0.02097255;-0.080935724;-0.03739431;-0.11009802;0.003199428;-0.09185999;-0.41164455;0.22223382;-0.28273475;0.031792756;0.28516525;-0.57550293;-0.09382046;0.028656678;-0.01070933;-0.08113571;-0.16829489;-0.24596003;-0.056779895;0.33753493;0.034927066;-1.0448362;-0.0100920955;0.3040983;-0.05726091;-0.0023382176;-0.011952994;-1.1655207;-0.017938772;-0.09638375;0.110535026;-0.93203884;-0.36653557;0.32754302;0.1164027;0.18417384;-0.0035790459;-0.05175793;0.10487594;0.1493151;0.03406277;-0.021448491;0.03824238;-0.61271036;0.0331104;-0.13876858;0.07688549;0.4969005;-0.11856922;1.0666602;-0.06696667;0.034246996;0.24665295;-1.0071757;0.03673712;-0.33445343;0.044079486;1.4217374;1.2337307;0.09233924;-0.03395709;0.2197494;-0.05984914;-0.089715816;-0.22204812;0.32488263;0.14143133;0.3098111;-0.08357049;-0.09765408;0.014807361;0.055472266;0.22525689;-0.009659485;0.24097182;-0.03499787;0.5436896;0.012419418;-0.07510168;-0.25657156;0.57073915;-0.15129659;0.08854462;-0.5792234;0.034923505;0.028196532;-0.09923232;-0.27912486;-0.832824;0.48601657;-0.5166487;-0.036281273;-0.27186283;0.5462404;0.07226097;-0.0038773208;-0.07220748;0.33954984;0.035863046;0.05258391;-0.08573508;-0.06547361;-0.66854703;-0.02295444;-0.053268395;-1.7248323;-1.06986;-1.27564;-0.098913096;-0.38753837;2.938698;0.0029316386;0.036488485;-1.4643542;-0.118116625;0.105024;-0.012950764;0.08369306;-0.06639051;0.072188124;0.0030396292;-0.090233825;0.13215059;-0.11594722;-0.18843856;0.1981555;0.08837141;0.07048273;0.04301776;1.1788781;0.0015607239;-1.4385952;-0.17401549;0.10358461;0.07966668;-0.010872705;-0.007495875;-0.17862812;-0.14729598;-0.12913623;-0.76290834;-0.2639275;-0.30045116;0.19902761;0.07928568;-0.023678549;-0.41332975;-0.04538809;0.24249102;0.00954783;1.9661157;0.40921873;-0.14546135;-1.4466568;-0.014310705;-2.1373587;0.2726166;0.009542703;0.91857046;-0.0415507;0.11349118;0.15048438;2.1702623;-0.15040766;-0.5263924;0.6755795;-0.021739583;-0.06330307;-1.0222002;-0.045784097;-0.11443354;-1.8643016;-0.02144094;0.0062758587;-0.03742957;0.033676427;-0.23288162;0.0074368436;0.19371887;0.16212323;-0.14952129;0.059888393;1.2940089;0.010885968;0.07753744;0.29473954;-0.00034809328;-0.63690317;0.11041575;-0.112767756;0.9271302;-0.035517592;-0.12481476;-0.05308751;-0.12527344;-0.8133342;-0.020214813;-0.023713863;-0.09095824;-0.036916588;0.11291941;0.88543886;1.3107369;0.15023157;-0.6736444;-0.0076056053;-0.0627568;-1.71514;-1.0282512;0.040716983;0.2666244;-0.048262678;-0.112324946;-0.63083756;-0.07351565;0.30830997;0.13803856;-0.20162621;0.3581784;0.24437043;0.027441299;-0.04917851;0.40960053;0.10147389;0.7884183;-0.84814125;-0.093758605;-0.04820196;0.08137094;0.9031411;-2.0554686;-0.22321966;0.61623126;-0.7034426;0.041309543;0.6320551;-0.02549721;0.0058477274;-0.028794028;0.059248;-0.54076296;0.42524552;3.2152247;-0.077208064;-0.17140101;-0.016170343;0.03835951;1.94841;0.16028139;0.13176209;-0.24808592;-0.053987276;-0.13682786;1.959561;-0.10353397;-0.14905745;-0.02915774;1.3916862;-0.08592122;-0.01440652;-0.19709013
0.03196529;0.11402209;0.037600916;-0.7806301;0.044926926;0.123405166;-0.024252718;0.7926454;0.74317026;-0.48862812;0.021035166;-0.6092228;0.10884621;0.4855243;0.047839846;0.4293948;-0.13879462;-0.06638019;0.078663275;-0.104736336;0.05856288;0.093654275;-0.021742564;0.6384439;-0.04266048;0.0020440265;-0.0060401703;0.0993857;0.0036460944;0.10636861;0.026847532;-0.0013045578;-0.07633822;0.036274042;0.20141214;-0.14672177;-0.026116619;0.118101485;-0.16770889;-0.03247132;0.5935007;0.2339983;-0.8025876;0.14556788;0.0116620185;0.11579875;-0.49321216;-0.15775967;0.7841295;0.6457376;-0.19634801;0.04287417;-0.37271786;0.0019488159;-0.20433782;-0.56053466;0.14254506;-0.054642707;-1.1105627;-0.020269709;-0.23229772;-0.042492237;0.056233387;0.07984855;-0.11847115;0.08829317;-0.0030298885;-0.21951503;-0.093938105;-0.04250841;0.1629855;0.06338789;-0.13611227;0.049826775;0.8495158;0.16171019;0.8459512;-0.38195857;-0.3189647;1.0707847;-0.11879564;-0.011452044;-1.3141637;-0.060790867;-0.5954676;0.044050165;-0.03825991;0.52950037;0.058484823;0.19004218;-0.04235806;-0.07258102;-0.12750073;-0.04620582;0.09943843;0.09641009;0.31210363;-0.024085673;-1.0294052;0.055392995;-0.21561196;-0.060629785;-0.014124085;0.07539194;0.12798434;-0.15638772;0.065566264;-0.37630096;0.079881884;-0.0741402;0.0034940739;0.060157225;-0.06347775;0.0030866687;0.14286087;-0.093625374;-0.087982535;0.03384074;-1.4222461;-0.07902513;-0.105600245;-0.0252809;-0.18263212;-0.092393555;0.10004003;0.013730224;0.0037447105;-0.81526685;0.12608978;-0.017776648;0.039749924;1.0874503;-0.063774504;0.026354415;0.8338305;-0.118788905;-0.10642288;-0.6411017;0.15258116;0.13353176;0.12486518;0.058276735;-0.15975389;-0.109471865;-0.17141786;-0.11563387;-0.6238167;0.06650121;-1.9752897;-0.10423584;-0.1598414;0.5072878;0.08461985;0.27266827;-0.0307241;-0.12860756;0.4286642;-0.7102978;0.1644432;0.026989037;-0.030781562;0.5652548;-0.1672276;0.080925174;-0.32893398;-0.033600528;-0.7963235;-0.10888655;-0.32451397;0.060833402;-1.4782101;-0.05682423;-0.92455125;0.0816965;0.13082433;0.13601494;0.23494981;0.25412512;-0.32266548;0.09064732;-0.7790896;-1.1821824;-0.115114324;-0.28484064;-0.06755299;-0.08092858;0.13375251;-0.1467269;-0.07868951;0.13957004;0.08869197;-0.10175636;0.98272985;0.060311217;0.6767392;0.10137583;0.055543378;-0.005014596;-0.079680085;-0.18631123;0.033041645;0.020755576;0.13395943;0.077072896;-0.31764147;-0.020765088;0.18379094;-0.1108444;-0.04753437;0.06464427;-0.07024205;0.0054112123;-0.1413894;0.28893182;0.034245033;-0.16945855;-0.1694906;0.09498249;-0.47880295;-0.14313674;-0.09797141;-0.7540537;-0.120171;0.03244895;-0.044398908;-0.08848063;0.019929143;0.10634718;0.250465;-0.13339758;-0.069067605;-0.13563754;0.119832866;-1.1472344;0.1317161;0.1575176;0.10208131;-0.13971502;-0.06664762;-0.27501372;0.33526662;0.034970563;-0.13665286;0.021163376;0.33450928;-0.06825117;-0.01547744;0.112201415;-0.15277642;0.3462645;0.56136185;1.3555838;0.03304098;-0.0880581;-0.08371843;-0.9212584;0.098424576;-0.105237655;-0.030045526;-0.46224487;-0.09935004;0.25018892;-0.14331979;-0.18151486;0.44643906;0.06889282;-0.14745632;-0.32847723;0.5097152;-0.14482659;-0.11270704;0.114005305;0.08350361;-0.10837661;0.49112195;0.04635308;-0.42826742;-0.05324903;0.18657689;0.06974725;-2.8923805;0.02079163;0.16380434;0.036583107;0.15139736;0.041266914;0.93784285;0.01720384;-0.117772475;-0.026770137;0.04593993;0.6315792;-0.15016825;0.049901564;-0.029419905;-0.016243773;-0.28545648;0.0040075225;-0.024517743;-0.03824785;0.015616842;0.10350499;0.1026056;0.12543002;0.8820248;-0.008310143;0.11164094;0.07471488;-0.051308583;2.3426635;-0.0039709457;0.02887398;0.097797416;-1.9246254;-0.063210554;-0.03866443;0.021909095;-0.09556883;0.018320138;0.1117699;0.057176664;1.3025419;0.0014904975;-0.46227166;-0.14372633;-0.052849706;0.23864923;0.060590383;-0.031879146;0.12899005;0.058598425;0.0014110495;0.10638147;0.05194839;-0.102525204;-0.10162559;-0.066443995;-0.15359029;0.2497282;0.013891238;0.06255604;-0.025532415;0.39085177;-0.2290429;0.1695313;-0.09118962;-1.5738903;0.0877011;-0.05569628;-0.10032702;-0.06752045;0.046369754;0.035992034;-0.09237355;-0.03236094;-0.036822528;-0.074324764;0.015917242;-0.34191856;0.11828642;0.14541644;-0.13055387;0.59930307;0.12975828;0.23553559;-0.07009977;0.0032680857;-0.58044606;1.6334596;-0.17457303;-0.38531348;0.046893023;-1.1615604;-0.44152892;-0.15805887;0.10195716;-0.0077513587;-1.1908692;0.02565084;0.32447663;-0.16790698;-0.10393759;-0.096518055;0.02058868;0.10703711;-0.02401867;-0.5011513;-0.16510227;0.06654028;0.03036187;-0.005299001;-0.07407944;0.019769315;0.08680039;-0.53284484;-0.06677831;0.13123499;0.32877052;-0.38617486;-0.057615165;-0.031067507;0.14837746;0.45571336;-0.70998436;-1.6569978;-0.14869782;0.10107572;-0.75119644;-0.5749407;-0.07874456;-0.11770929;-0.14524168;-0.027640294;0.041688804;-0.08713442;-0.14851056;0.008847969;0.051455148;0.17010134;0.10332362;0.41945636;0.24963525;0.63729995;0.050386995;0.49581674;-0.36899188;-0.052089367;-0.008885215;-0.24039206;0.049616076;-0.020840727;-0.014492497;-0.10436838;0.02139181;-0.09089168;0.16060942;0.10078874;-0.09482107;0.057202123;0.024401886;-0.07515387;-0.07296241;-0.13680413;0.06649714;0.16722175;-0.065829635;0.10997766;-0.7300772;-0.16499394;-0.091373265;0.07481116;0.05716123;0.035059948;0.10552905;-0.29109764;-0.9020797;-0.53984284;-0.026325036;-0.13603626;-0.10283627;0.14026277;0.41817543;-0.031023253;-0.059901707;0.037459254;0.2764542;-0.20316479;0.21538801;-0.42844832;-0.06545541;-0.32415232;-0.08592123;0.05502434;-0.5706439;0.07431734;1.2107801;-0.0586995;0.6886073;-0.05046189;0.1931317;0.016951468;0.10501241;0.6562735;0.23276514;0.04344257;0.16061483;0.18525447;-0.22695294;0.025021715;0.07467276;-0.14079167;-0.03824173;-0.05169516;-0.03613344;-0.22950694;0.042618416;-0.15423767;-0.2814283;-0.052424934;0.056566305;1.9421602;-0.08914579;0.4724912;-0.23233847;0.015287792;0.8177144;-0.07200751;0.0019160634;0.027737102;0.12694639;0.600775;0.11767932;0.24414569;0.06038526;0.2645128;-0.0057544895;-0.40473777;-0.9824673;-0.13138796;-2.0306382;-0.17449488;-0.008911907;-0.4149027;0.014929247;-0.059143916;-0.044271555;-0.07854104;0.18300031;0.24460922;-0.19710827;-0.037886694;-0.18001172;-1.0442523;-0.09964414;-0.14099321;-0.030058447;0.08213356;-0.16540322;-0.20032567;0.3534164;-0.2432642;-1.502774;0.22301011;-0.03407136;-0.5067814;1.0332085;-0.68923426;-0.06693707;0.03471758;-0.03580318;0.21463452;-0.06395686;-0.094167404;-0.10080625;-0.0219198;1.2150196;-0.33519566;-0.6365488;0.013041887;1.0138314;-0.0840485;-0.0044527594;-0.12682362;-0.16909258;-0.13671285;0.023078939;0.13450074;0.07488437;-0.8490097;0.036205478;0.17811722;-0.01282691;0.37644738;0.041069295;-0.048793785;-0.229919
Bias from input to hidden layer.
0.21794014;0.1002618;0.15416946;0.09013253;-0.047163486;0.10104936;0.2756202;-0.15307033;0.13379887;-0.25105715;0.14378269;0.19354674;0.06021426;0.06876025;0.10678109;-0.106145136;-0.19281036;0.25955775;0.082183726;0.19893871;0.062346984;0.09487266;0.13092375;-0.16508242;0.27991632;0.26477543;0.2632303;0.12222762;-0.26290363;0.06026033;0.21571988;0.0840364;0.20004864;0.1006263;0.22909446;0.26210886;0.17492968;0.09548095;0.32833618;0.23404932;0.064668626;0.19567479;-0.23757634;0.145577;0.28268096;0.21391344;0.21890119;0.25750062;0.24635483;-0.23630603;-0.21804246;0.23138963;-0.11566103;0.13958849;0.21511494;-0.05230005;0.12978248;0.2535451;0.1670474;0.09770046;0.26317668;0.078084536;0.15542834;0.16095026;0.25945568;0.2123802;0.13498537;0.046566714;0.21490024;0.17608815;0.15781403;0.16053407;0.2705348;0.09605999;0.1934852;0.28026122;0.24237442;0.18321688;0.05018135;0.18990639;0.29868495;0.29866198;0.16213942;0.2140306;0.2685279;0.15630406;0.2407481;-0.012403627;0.12827627;0.067471184;0.2599938;-0.16748612;0.16991931;0.1493881;0.066706605;0.14571379;0.23797211;0.2667885;-0.14987223;0.051910102;-0.1505863;0.26925838;0.08255536;0.05853821;0.042272087;0.25061977;0.07425393;-0.22882318;0.13165604;0.05981728;0.26536092;0.13222167;0.34228188;0.06762668;0.09172925;0.23806596;0.24818423;0.06323294;-0.21082038;0.26943147;0.23485915;0.09983717;-0.24442543;0.21747646;0.092438236;0.23326313;0.09205692;0.11955983;0.1367409;0.17038801;0.2031041;-0.06652574;0.2116749;0.07828806;-0.16650887;0.23945907;0.23756416;0.025443587;0.10892006;0.101455025;0.08587799;0.08105943;0.28142875;0.2698198;0.21971184;0.28404385;0.12658045;0.20959122;0.098573044;0.23894602;0.05344976;0.20277828;0.08296563;-0.00947239;0.12624358;0.25390053;0.17407258;0.15153037;0.080670774;0.12108816;0.24075902;-0.12446648;0.096319124;-0.23351802;-0.18177506;0.28046703;-0.13286129;0.2091857;0.28520665;0.27459463;-0.1784954;0.3006303;-0.17413566;0.24480656;0.22029324;0.10936798;0.041284144;0.037504286;0.14282222;0.22980647;-0.22602694;0.1103711;0.2830696;0.17826568;0.18052825;0.24907608;0.13227575;0.2246762;0.26769307;0.07165426;0.22904332;0.08252679;0.12004344;0.16291153;0.13139012;0.2029375;0.24791205;0.1662616;0.35817832;-0.16621554;0.055173654;0.21692564;0.10904567;0.07407854;0.11191649;0.27101526;0.19078788;-0.28147602;0.27316096;-0.15472959;0.23669781;0.08356701;-0.22392248;0.01565686;0.15832172;-0.15830292;-0.015280679;-0.18220054;-0.15096363;0.328918;0.27428508;0.05832528;0.17981195;0.08004083;0.25444496;0.32099172;0.33390144;0.1857647;0.23498479;0.28519;0.25915504;0.23468435;0.057806585;0.16986471;0.11180035;0.15747891;0.08632999;0.1697418;0.29599103;0.11675367;-0.12398232;0.07141905;0.24536403;0.27456948;0.07964136;0.010371449;0.058370966;0.05851381;0.26481548;-0.11116301;-0.1301193;-0.05207658;0.22908352;0.23122849;0.2630606;0.16234414;0.034158606;0.21846217;0.25278142;0.08861135;0.27237728;0.11686342;0.25736803;0.18834013;-0.22166389;0.13199055;0.13126548;-0.09771328;0.15061581;0.20351149;0.20988306;0.064568475;0.06729708;0.2215455;-0.11125076;-0.117759615;0.14049369;0.23630059;0.06915471;0.037967153;-0.24750473;0.290321;-0.21439657;0.112420656;0.095322296;-0.08859923;-0.0919545;0.14396733;0.25799757;0.24526086;-0.18273738;0.14004324;-0.12782665;0.09629123;0.07262845;0.25788173;-0.016151493;0.09430847;0.30834246;0.26250884;0.28086653;0.056713566;0.16920683;0.13368209;-0.006030187;0.3036691;0.11624087;0.06966638;0.24695598;0.20133696;0.15944712;0.3191274;0.11315848;0.21502838;-0.1032152;0.23936139;0.12961653;0.3613146;0.06796603;0.07801296;0.09206774;-0.15047166;0.23386651;0.060216717;0.25383794;0.25067988;-0.03274507;0.04128266;0.16054544;0.067854114;0.090535186;0.15651764;0.15604053;0.077476926;0.22556575;0.3301635;0.22768642;0.27402863;0.124474235;0.24401557;0.18171111;0.21583115;0.23642483;0.26982418;0.08612872;0.26081827;0.11203733;-0.20970745;0.24837336;0.27603886;0.24190257;0.095808886;0.11535393;0.22945067;0.30038202;0.21647108;0.2417554;0.10245674;-0.0053869467;0.09642719;-0.027535077;0.262302;0.17043383;0.06382226;0.15002367;0.25923946;0.31384414;0.25829533;-0.087267324;0.26176775;-0.15368906;0.123570554;0.02201032;0.15797165;0.22235689;0.07603128;0.2433196;-0.22230521;0.092495136;0.18094501;0.23587938;0.23649;0.22580987;0.051679667;0.14432424;0.25186807;-0.17275624;0.28937903;0.070902094;0.2722954;0.077191286;0.2168394;0.15380034;0.12309651;0.1400211;0.20143421;0.07458462;0.20797189;-0.16158013;0.28945944;0.26721787;0.15781893;-0.08888362;-0.015983539;-0.14655973;-0.18057561;0.069794185;-0.21860233;-0.009332466;0.27418262;0.19074328;0.23603718;0.2269559;0.2003677;0.26564866;0.24320757;0.24881525;0.1448985;0.076382436;0.10737012;-0.16753934;-0.14717396;0.23306365;0.066337615;-0.09461823;0.10717961;0.22484311;0.13120274;-0.25928286;0.089102045;0.2580562;0.08975243;0.2709153;0.1395385;0.26136193;0.086673774;0.05866012;0.2203564;0.065790735;-0.02501044;0.24563669;0.3213293;0.22538395;0.027073028;0.26102358;0.20050465;0.1733007;0.15971492;0.24628232;0.3046843;0.05494412;0.24531017;0.060776778;0.1241651;0.14831625;0.045714892;-0.060864672;-0.14502046;0.23425032;0.21836518;0.11420675;0.039452266;0.23231614;0.23233488;0.13001421;0.16997218;0.12485421;0.058197193;-0.2661499;0.26515993;-0.10429403;0.25894547;0.25920796;0.15141352;0.05155226;0.1990096;0.2400995;0.15883453;0.059223294;0.22005531;0.12393374;0.14562215;0.19790594;0.1911239;0.07669387;0.04076339;0.21502306;0.25742733;0.09759149;0.18188673;0.23290312;0.058801442;0.055134587;0.29647148;0.2585691;0.06249658;0.2653135;0.19969091;0.22230962;0.31936648;0.2680161;0.27593124;-0.31119785;0.14531635;0.10475242;-0.17281078;0.32827613;0.11138438;0.051876895;0.045612026;-0.08692259;0.095028095;0.015302107;0.12401558;0.1911842;0.26670784;0.2273475;0.1345002;0.25128052;0.11747071;0.09955392;0.08681524;0.15334924;0.25921416;0.15044923;0.23560922;0.29921278;0.113976724;0.18592288;0.26567692;0.23331831;0.28004232;0.20292072;0.24229023;0.26260442;0.31371686;0.09417164;0.25483435;-0.24022004;-0.1659268;0.14072157;0.13622028;0.25606397;0.21560787;0.1689972;-0.12876423;-0.17316061;0.21959503;0.14609912;0.25573695;0.16888064;0.28038988;0.26852244;0.24647559;0.28930825;0.16036327;0.1703342;0.09766794;0.13656564;0.11004487;0.23423474;0.025894899;0.16695142;0.27726346;0.28304264;0.07268061;0.07102109;0.12552367;0.19740379;0.15476212;0.0522441;0.09082164;0.11318209;0.13900219;0.16801535;-0.2740294
Weights from hidden to output layer.
-3.9439823e-05
-0.00024962533
0.00026919687
-0.15001605
0.00021417037
-0.0002914761
-0.00010702401
0.13011214
-0.5365413
0.3118911
-0.00047613145
-0.39161307
-5.2798965e-05
-0.00013260992
-0.0002974526
0.07801514
0.035662897
-0.00018954425
0.00010983231
0.000114254464
-9.799344e-05
-0.0006799597
-0.00039789532
0.027112626
5.4497737e-05
-0.0002973197
-0.0007845751
-0.00030581767
0.16868156
-0.0001395592
-0.00043991033
-0.00033581065
-0.00028340355
-0.00025050782
-0.5244698
-0.00046754768
-0.0004764361
1.0884149e-05
-0.0007042975
0.0003577642
-0.000117648975
0.0002391817
0.38469666
-0.00029399153
0.00040741495
-8.726666e-05
-0.061892234
0.00040288735
-0.108491756
0.27379468
0.37147585
-0.00042083953
0.7372378
-0.00022750598
-0.10426451
0.088485345
-0.00041845947
-6.108989e-05
-0.31891146
-5.112309e-05
-0.0001789945
-0.00072795566
-0.0006214103
-0.0004688685
0.00032086702
0.00028673533
-0.6714988
-0.48429158
2.7947463e-06
4.5599532e-05
-0.0004844371
-0.0004129378
4.585563e-05
-0.00014691964
-0.09721524
7.869377e-06
-0.062350422
-0.00030978664
-0.34313178
-0.2248433
6.3824365e-05
-0.0002853261
-1.1382666
-0.0004160038
-0.24214226
-0.0005388035
-0.00028232636
0.17240602
-0.00061033596
-0.00033295905
-4.4859888e-05
0.31583142
-0.15511693
-0.0005348596
0.00033288228
-0.00036234516
0.00023572793
-0.00019022885
0.14445628
-0.00033115887
0.3683967
-6.736486e-05
-0.0010693355
-0.00018108235
-6.685525e-05
2.905911e-05
-0.0005496467
0.10791839
6.971306e-05
-0.00070335757
-0.00022607145
-0.00061368954
-0.00024312253
-0.00024766987
