Weights from input to hidden layer.
0.10790152;0.450502;-0.042408228;0.5638767;0.13453346;-0.04086921;0.4539675;0.34816322;0.2852166;0.0139488075;-0.13271907;-0.135896;-0.0007564234;0.46554288;0.04407112;-0.089749515;-0.39739865;-0.16826437;-0.05079274;-0.06714224;-0.11637276;0.12158701;-0.1375328;0.4440721;0.016816717;-0.23522028;-0.002897809;-0.31041944;0.1384161;-0.068059325;-0.114277735;0.18589476;-0.29901853;0.23182948;0.071120344;0.073843166;-0.15599777;0.056368876;0.08252588;-0.1402598;-0.091027126;0.52393913;-0.15860362;-0.018088361;-0.089414135;-0.11507268;-0.19079962;0.07315584;0.2816561;0.29665387;-0.085865185;0.32724187;0.2618212;-0.14309084;-0.38949654;-0.24278513;0.21974382;-0.5093879;-0.28460762;-0.2791792;-0.20085575;0.45230368;-0.42460787;-0.099787414;0.12850364;-0.3393303;0.30384368;-0.11681112;-0.1956556;-0.30718708;-0.23683007;-0.23284377;-0.1883427;0.25379753;0.32678464;0.12475629;0.3045751;-0.3797001;0.012173919;-0.27833098;-0.2588367;0.51018804;0.11616839;0.3390972;0.17333962;-0.19106841;-0.40343863;-0.14552782;-0.1771778;-0.37648392;-0.3386675;0.02846419;-0.14530535;-0.16583185;-0.024336368;-0.20911154;0.23087041;-0.12650278;0.22986574;-0.060806133;0.21634305;-0.12140563;0.0534187;-0.15804407;-0.21942645;0.07190358;-0.15994845;0.057226557;-0.31910035;-0.29104298;0.46660367;0.2914123;-0.27198815;-0.31165656;0.43027404;-0.10036238;-0.14479767;-0.011227608;-0.1979496;-0.3740068;-0.062151376;0.3075929;-0.004503103;0.12971607;0.29041827;-0.09948588;0.1334792;-0.43613344;-0.025503164;-0.13078892;-0.23653291;-0.10116254;0.4200595;0.13249536;-0.004478162;-0.009242516;-0.1469584;0.04219593;-0.03965814;-0.017237628;-0.26301068;0.2755921;-0.08187466;0.05053894;-0.3472094;-0.06362513;-0.14268076;-0.48557994;-0.123845756;-0.024065157;0.30683324;0.3386535;-0.22241944;0.3536128;-0.07569028;0.10978889;0.17221993;0.3760241;-0.06918343;-0.21373379;0.23196152;0.39022365;0.4104684;0.17591317;0.23154414;-0.02493901;-0.11074813;0.041779567;0.3976651;-0.37151727;0.4392213;0.18249151;-0.066379406;0.027794134;0.058763545;0.24628998;-0.050356615;-0.40260196;-0.39503285;-0.02517982;0.15386952;0.10402189;-0.34587;-0.3669222;-0.03847039;0.0022583609;0.10297843;0.022614216;0.026500259;0.16874409;0.34091115;-0.18313345;0.030827947;-0.39852357;-0.004950188;-0.09837081;-0.46895072;-0.029751565;0.08985103;-0.45584;-0.4398967;-0.21866664;0.020758081;-0.2755304;0.054016568;0.16640472;-0.13167925;-0.13083237;0.35607135;-0.13458255;-0.05603428;0.042203803;-0.3998756;0.09966446;-0.43919876;-0.12637264;0.23785783;-0.366139;0.18988761;0.14728776;-0.21607076;-0.10960336;0.49980745;0.14588554;0.019946378;0.19494994;-0.011535192;-0.15048051;-0.009346858;0.16529725;0.07998504;-0.24942827;0.09249561;-0.33756799;0.13549219;-0.19975348;0.32344994;-0.108845785;0.03425608;0.31989235;0.21994157;0.35044375;0.05699912;-0.23351273;0.15255119;0.17545427;-0.019116787;-0.24350247;0.16268961;0.08059372;-0.07203022;-0.6044224;0.20550373;0.13566603;0.015363896;0.28842637;-0.185816;-0.03237208;0.3741584;-0.2045005;-0.1682354;-0.32989573;-0.25145265;0.10454269;-0.23827665;0.26594368;0.017897375;-0.0018093368;0.048103295;0.07621963;0.06773198;-0.6365757;0.0028462647;0.0876236;0.06503438;0.087245405;0.54556894;0.124558456;-0.00360729;0.050257474;-0.047064584;-0.31720218;0.06720509;-0.06517607;0.13578197;-0.39601123;0.033480898;0.26576805;-0.0666942;-0.13720609;0.41871423;-0.20401013;-0.28833485;0.021051528;0.010941989;0.06571166;-0.4107339;-0.20156473;0.041475922;0.27316037;-0.18561986;-0.49926654;0.043027364;-0.34122342;-0.21926166;-0.37487856;-0.17178784;0.15207516;0.23550561;-0.94087195;0.27383468;0.1056153;-0.23400937;0.050713275;-0.07366807;-0.21112096;-0.014180794;-0.2268737;0.33861926;-0.08172484;-0.009619582;0.37163892;-0.1866473;-0.083885975;0.10559351;-0.1078498;-0.111159496;0.27659237;0.04864744;-0.2906456;0.13537617;-0.047523614;-0.20746712;0.015082612;0.06039637;0.00060956576;-0.54340684;-0.20745453;-0.20166;0.0014836502;-0.5495814;-0.29508102;-0.05648904;0.034899216;-0.18077287;-0.46456125;-0.012387354;0.30921096;-0.15924084;-0.1970063;-0.06285468;-0.1362043;-0.105098605;-0.053521175;0.46653095;0.21640421;0.10467221;0.04428929;0.28983024;-0.13242744;0.3591283;-0.019469991;0.0704476;-0.00014348525;0.12137568;-0.008973522;0.13769689;-0.2863849;-0.32552645;0.12236216;0.088358805;0.0004482925;0.14450483;-0.28296062;0.08366736;-0.1692102;0.14292645;-0.21908242;-0.07203292;0.16834201;0.28175068;0.009550361;0.070752576;0.41025555;-0.31759703;-0.07754775;0.29667255;-0.01923677;0.18020748;0.024190824;-0.07700326;0.11010938;-0.06673211;0.097319275;0.13576387;0.16362895;0.21904643;0.1945398;0.302006;-0.2946638;0.44199216;0.07542689;-0.20861647;0.1058094;-0.13168912;-0.29201838;0.004876427;-0.18195581;-0.1971187;0.14042588;-0.11913467;0.09290457;0.044190306;0.44031465;-0.40880725;-0.0927684;0.035127047;-0.12156882;0.18312918;0.1932857;0.25187555;0.17781109;0.1969064;0.1907417;-0.2490504;-0.11961464;0.26262283;-0.09414684;0.17277396;-0.091680214;0.107642494;-0.21396661;-0.4025536;0.08874424;-0.23254374;-0.126389;-0.0751613;-0.18261985;-0.08981149;-0.119402364;0.059142414;0.09151058;-0.09966725;0.02632685;0.342906;-0.11613663;-0.15281934;0.6180855;-0.39382902;-0.30453926;0.33987206;0.28851154;0.3121631;-0.32042694;-0.61332333;-0.09327283;0.5110124;0.063921735;0.4383916;-0.1334841;0.1519309;-0.181285;0.048613712;0.16374102;0.3144098;-0.42965806;0.4203322;-0.2547882;-0.21585102;-0.13432272;-0.42468765;-0.41429028;-0.24885443;0.11817348;0.22425885;0.12737897;0.15335548;0.090488486;-0.027628874;0.14353059;0.011994083;0.105632275;0.0047458583;0.1231233;-0.18369764;0.47135147;-0.09324483;0.087447345;0.50319725;-0.38418853;-0.5343366;0.40703103;-0.28369227;0.30748555;-0.16379292;0.26651523;0.1474465;0.110712364;-0.13244112;-0.31691805;0.22128397;0.08595504;0.06833561;0.26171762;0.16150412;-0.026925294;0.22596112;-0.073574364;-0.03590287;-0.0030720856;-0.3763531;-0.35555196;-0.26024824;0.15254463;0.20370775;0.22618392;0.040706262;0.0028551838;-0.09973495;0.31917787;-0.047277417;-0.17599708;-0.24310486;-0.19625734;0.07242969;-0.22121412;-0.22806962;-0.37291038;0.051412027;0.018600497;0.17005137;0.316253;-0.37328106;0.19683748;-0.038844634;0.15290833;-0.011153435;0.17038704;-0.21062957;-0.10985928;0.29367265;-0.36836368;-0.08167882;0.2806059;-0.31485203;0.45299706;0.3627506;-0.1351048;-0.17508297;0.051481314;-0.36491236;-0.2814581;0.03312944;-0.087520294;0.11136328;0.23369816;-0.01714041;0.2429152;0.17367569;0.21265525;-0.10230383;-0.40742767;0.35425887;-0.11296812;0.12708895;-0.20598127;0.41090816;-0.05222837;0.53497005;0.35016254;-0.33663282;0.280615;-0.07195076;0.30008525;-0.16148946;0.07502363
0.006511805;0.21543121;0.1199592;0.38083115;0.13171506;-0.09285053;0.23111488;0.02387265;0.3077309;0.034238193;0.016188057;-0.010163174;0.0862379;0.2669225;0.14422753;-0.116680704;-0.3093857;-0.15395826;-0.107036605;0.027556067;0.057290714;0.051724117;-0.07252943;0.15867168;0.12100609;-0.1955597;0.06948227;-0.07618637;0.032640357;-0.034551527;0.07965809;0.07592809;0.0022093176;0.20776424;0.21904312;0.012290741;0.028615808;-0.014503692;-0.038637355;-0.183671;-0.0718459;0.32058814;-0.006022739;-0.035563923;-0.14031686;-0.07100805;-0.2237311;0.012823139;0.18247785;0.26316145;0.06668063;0.015392966;0.07338573;-0.020942109;-0.3390098;-0.17651708;0.004920293;-0.14308731;-0.106997594;-0.1325031;-0.26645058;0.21279684;-0.23661771;-0.036702365;0.11789713;-0.2204582;0.10691961;-0.2925939;-0.21624435;-0.272972;-0.2274486;-0.07257352;-0.096378595;0.1706185;0.2214289;0.15412557;0.056831904;-0.1610657;0.17386365;-0.29398364;-0.37489173;0.22213991;0.13389;0.36213002;-0.031505313;-0.16312619;-0.3163787;-0.104031004;0.020521292;-0.26835757;-0.10266609;-0.016233597;0.051610727;-0.048160028;-0.043768406;-0.16825262;0.068278216;0.051034264;0.1413406;0.07785764;0.11449442;-0.23545662;0.13084404;0.016297646;-0.10089244;-0.08817898;-0.0988957;0.117366016;-0.09089444;-0.07242081;0.1416922;0.1892714;-0.08099625;-0.18589328;0.22359647;0.18198758;-0.13616444;-0.12280761;-0.12567984;-0.37628576;-0.16666882;0.14568421;-0.04738878;0.2618305;0.3292092;-0.12597749;0.1120696;-0.21344827;-0.010513463;-0.30182517;-0.24714184;-0.06651426;0.29845324;0.115914494;0.15139456;-0.24750164;-0.011641618;-0.06889296;-0.014166949;-0.056609992;-0.28659934;0.22133067;-0.051736273;0.18747859;-0.24010406;-0.11786373;-0.118399054;-0.2864236;0.0045261146;-0.17104232;0.26699123;0.28731942;0.0033268405;0.2625376;-0.2044022;0.14331925;0.10305432;0.11044622;-0.020533275;-0.008425199;0.15656489;0.3152794;0.36665893;0.10019555;0.047529116;-0.0058389623;-0.090670064;0.022568496;0.28027385;-0.2388671;0.32466996;0.055682987;-0.18223205;-0.055253044;0.020200683;0.19519968;-0.09949495;-0.17055051;-0.3046686;0.0450467;-0.013750084;0.09282754;-0.44381386;-0.14004801;-0.13574807;-0.12573177;0.08142945;0.017906033;0.0062612784;0.14999197;0.16805215;-0.14001672;-0.15864168;-0.06469199;-0.033006232;0.026091222;-0.5197802;-0.11658001;-0.15533252;-0.44206458;-0.2738596;-0.18980734;0.012559653;-0.0055639213;0.03395408;0.110077105;0.18726236;-0.043360576;0.35694498;-0.2674131;0.033610262;-0.13182005;-0.16891322;-0.014297461;-0.33955544;-0.027311236;0.09034648;-0.17662786;0.06692481;0.060689;-0.18548766;0.071295455;0.3389861;-0.036202822;0.019892855;-0.07331075;0.045873206;-0.081858255;0.13040903;-0.056916147;0.1919176;-0.20416158;0.17276254;-0.23977709;0.06596802;-0.14968848;0.25433436;-0.022128215;0.040846232;0.23085853;0.0047213486;0.25994667;0.20261006;-0.074340165;0.049908765;0.15034898;-0.12913415;-0.045257803;0.105626196;-0.08144392;-0.09575413;-0.3137185;0.22046627;0.16912268;0.053703424;0.0943699;-0.13661313;-0.06364296;0.2967282;-0.27608037;-0.15062118;-0.23073415;-0.33220106;0.22457461;-0.08069271;0.062735476;0.08971919;0.027649399;0.004084523;0.18647052;0.08506984;-0.58501554;0.056469545;0.23790137;-0.09217458;0.0375846;0.37432647;-0.030026019;0.13337867;0.13219792;-0.19488432;-0.28543845;-0.0800825;-0.04324549;0.16559163;-0.40839896;0.035651583;-0.02179503;-0.014287547;-0.16648528;0.3643482;-0.2354762;-0.2717721;0.047148027;0.05226936;0.1300135;-0.14027417;-0.31917077;-0.15815896;0.20051545;-0.09740834;-0.4371796;-0.030570801;-0.07901028;0.03657606;-0.35778573;-0.23728472;0.025112296;0.17317328;-0.7054934;0.17757575;-0.16521265;-0.06517149;0.053331517;-0.037176672;-0.08013027;0.055551052;-0.17285822;0.043298498;-0.053786755;-0.1691339;0.16876708;-0.12126149;-0.18646131;0.0978511;-0.077584215;0.01756769;0.18097329;-0.08950173;-0.122020476;-0.18057825;-0.11199548;-0.04374661;-0.16283114;-0.0067081735;-0.047473613;-0.4465889;-0.27554214;-0.41083288;0.014866378;-0.3325283;-0.28856042;-0.14205557;-0.03733226;-0.40251175;-0.35397038;0.021489503;0.13172676;-0.05879253;0.090460464;0.06494514;-0.055644874;0.07619825;-0.018979441;0.3838833;0.062273555;0.015268097;0.050010156;0.16051887;0.017729113;0.31293738;0.03353181;0.21192715;-0.080713734;-0.0994441;-0.23263861;0.098570324;-0.23105653;-0.074004576;0.045800857;-0.0014741357;-0.034286723;0.09714028;-0.0031869244;0.1726132;-0.119646944;-0.088363715;-0.17891213;0.064503364;0.11385903;0.057907812;-0.06645221;-0.012767481;0.21298677;-0.2973453;0.019871654;0.15852419;0.010557033;-0.03506912;-0.0077423532;0.05774145;0.18791167;-0.03312194;0.31584305;0.17317602;0.03426564;0.027353212;0.041489135;0.17671087;-0.01516468;0.26072922;0.20480753;-0.1867691;-0.11539609;-0.07418665;-0.31354865;0.019292852;-0.024334121;-0.113706276;0.12649222;0.0008744028;0.1993526;0.1266386;0.50560546;-0.23387149;0.07579519;-0.06407029;0.030993743;-0.013816671;0.031228267;0.09310245;-0.15211636;0.032516066;0.022306526;-0.19778493;0.024991648;0.21706462;-0.058415283;0.13695545;-0.113689214;0.058841027;-0.1198237;-0.30940533;0.09943399;-0.11550136;-0.055622905;0.033518977;-0.1320085;-0.06075713;-0.022314005;0.028934106;0.10142126;0.0018139713;0.29448;0.18910776;-0.13499327;-0.35797566;0.45241085;-0.199908;-0.2778319;0.092073746;0.26845443;0.14289808;-0.024042744;-0.4127486;0.018661013;0.21586564;-0.021615464;0.2681554;-0.100180686;-0.052250568;-0.17054039;-0.03823084;0.2522779;0.25504923;-0.32878476;0.18874067;-0.16474113;-0.085797355;-0.11242267;-0.30357683;-0.29667246;-0.21726608;0.16229996;0.0032631073;0.021418603;0.20371953;-0.23993897;-0.0528086;-0.02416212;0.12275743;0.06225956;0.099784166;0.05682837;-0.29446888;0.37171808;-0.05912113;0.05512969;0.20022497;-0.3314734;-0.37593308;0.09508595;-0.34668058;0.39603806;0.030935798;-0.055945344;0.069817215;0.21066839;0.012783011;-0.19673406;0.18860993;-0.02849842;-0.0908445;0.13017161;0.15570875;-0.0061826217;0.105252706;-0.0758425;0.1236679;0.100117676;-0.43812197;-0.22086605;-0.19866942;0.13538225;-0.020642122;0.25101712;-0.020244434;0.023202892;-0.19351089;0.25239792;-0.13984615;-0.07112797;-0.37615633;-0.2173056;-0.037618466;0.03914094;-0.13964246;-0.29875258;0.19981575;0.037639298;0.11760779;0.22757852;-0.3001565;0.18267432;-0.23425214;0.022178838;0.044384375;0.082021326;-0.11892553;-0.03091357;0.29780167;-0.18573713;0.08664131;0.38126606;-0.27240342;0.4773899;0.18587655;-0.10978941;-0.009259258;0.04814356;-0.1852494;-0.21987589;0.032874912;-0.107093014;-0.1166048;0.002651368;0.032825276;0.24837202;0.03595294;0.15263394;-0.14168814;-0.1603214;0.24328311;-0.13593942;0.10129595;-0.03801808;0.2606336;0.013205639;0.46274808;0.14899711;-0.2218635;0.22006707;0.14689653;0.1264705;-0.31772768;0.25314966
-0.019476986;0.24881555;0.17608394;0.41491207;0.06675781;-0.13796262;0.1745179;-0.024033738;0.37775958;-0.062961675;0.15372628;0.0858363;0.007530295;0.16990149;0.007869261;-0.060602095;-0.232505;0.024364006;0.0043778406;0.09687006;-0.063357495;0.11284782;0.16543667;0.02496963;-0.035702817;-0.1025205;0.002649234;-0.07793378;-0.07500066;-0.14287758;0.070144616;0.07858876;-0.014668001;0.21227144;0.2670237;-0.15373382;-0.07990107;0.023497317;-0.067689076;-0.214337;0.004040965;0.24602178;-0.01899711;-0.11883146;0.01260894;-0.044319045;-0.20378596;-0.07047739;0.10112;0.21770547;-0.012647092;-0.036279358;-0.079349525;0.09175543;-0.23731989;-0.305192;0.08767748;-0.13442755;0.0020294013;-0.096974485;-0.2969435;0.2894549;-0.1646808;0.05195866;0.07567896;-0.08360072;0.04021698;-0.21715963;-0.14869373;-0.21205625;-0.13611448;0.03797343;0.10117593;0.118512936;0.06018588;-0.008178545;0.0680017;-0.1654519;0.14416288;-0.21049035;-0.23954123;0.12441271;0.03192697;0.3683883;-0.01920314;0.08631856;-0.19605236;-0.20206453;0.09603892;-0.05890766;-0.054063026;-0.14236392;-0.032245647;-0.019925868;-0.079543;-0.08220157;0.07299125;-0.051796086;0.2127679;0.089779355;-0.044721425;-0.19725287;-0.051661808;0.001364187;0.035120517;-0.27820942;-0.07632849;0.028854083;-0.054021724;-0.08230555;0.17216262;0.22862922;0.07921463;-0.2346314;0.0069852965;0.26240042;-0.18202138;-0.12389627;-0.032566722;-0.4530718;-0.09974503;0.16880693;0.07538104;0.17282322;0.19363093;-0.26503778;0.057218615;-0.20735277;-0.16313255;-0.2072531;-0.110697255;0.0021998845;0.14129952;0.00820043;0.14555185;-0.2747093;-0.119828895;-0.14420569;-0.06835595;-0.15595208;-0.14007494;0.055914957;-0.09748636;0.13404606;-0.042322118;-0.15526561;0.058985703;-0.2768712;-0.033245184;-0.12676936;0.22988008;0.19962966;-0.1019439;0.1695487;-0.27561897;0.053014815;-0.01812653;-0.09414432;0.027053786;0.052179866;0.18817139;0.26088804;0.2330026;0.06057919;-0.112033255;0.11403382;-0.10750459;-0.028929275;0.20423964;-0.01697876;0.23815753;0.07818701;-0.16045581;-0.0996029;0.07622332;0.14537995;-0.13685438;0.03425929;-0.28024644;0.00899144;0.03767451;-0.027877836;-0.3223943;-0.1795691;-0.22972989;-0.18830499;0.050993983;-0.02516606;0.0371067;0.2872529;0.049025133;-0.05106422;-0.2527413;-0.109404676;0.12419744;0.12076272;-0.6437655;-0.27269778;-0.18899147;-0.5268425;-0.14047919;-0.15042976;-0.08201459;-0.025823131;0.14447254;0.1255347;0.18036568;0.040578272;0.24142645;-0.20197828;0.008740063;-0.07767182;-0.102110595;-0.0072128316;-0.28041187;-0.001154638;-0.0331473;-0.048379797;-0.1518433;0.10365611;-0.04985405;0.17402357;0.24372251;-0.14700542;-0.12654296;-0.03243708;-0.0750163;-0.10556093;0.055781446;-0.26071858;0.004273263;-0.02729558;0.1527095;-0.30803993;0.012760246;-0.063448906;0.23509409;-0.18020704;-0.03789191;0.22045204;-0.057206232;0.1972591;0.0337425;0.020844758;0.052267198;0.23364446;-0.07723227;-0.044663373;0.020273734;-0.22304797;-0.0026574167;-0.22238319;0.10982197;-0.03687601;-0.06047667;0.16181523;-0.11209966;-0.20749718;0.05300585;-0.08903706;-0.070606634;-0.11323596;-0.32548517;0.04832736;-0.027625369;0.08667015;-0.012348439;-0.028109953;0.04399067;0.18547271;0.06393197;-0.6879325;0.035928514;0.18834344;0.0016613471;0.104725786;0.42375275;-0.1490254;-0.050606754;0.06278553;-0.34212092;-0.09712184;-0.15522715;0.014388876;0.2051434;-0.29746136;-0.055496346;0.022216886;-0.033591874;-0.052126147;0.2469486;-0.0133206025;-0.0364815;0.102358356;-0.051948987;0.0016754927;-0.011551833;-0.24957225;-0.062601045;0.06402945;-0.06333604;-0.47429004;-0.054345544;-0.026726328;-0.073998764;-0.19241413;-0.3191744;-0.020916916;0.19082613;-0.50586057;0.17137668;-0.03992794;-0.19476768;0.11685035;-0.024945758;0.10126288;-0.054383412;0.01981592;0.16584642;-0.19933435;-0.21847264;-0.013912358;-0.13814136;-0.27746344;0.041861925;0.059661385;0.058589265;0.21619773;0.0075707533;-0.09812617;-0.20459767;0.0016655896;0.08328335;-0.19508949;-0.10973462;-0.14452328;-0.25242272;-0.25158074;-0.44893742;-0.05682165;-0.1673331;-0.33833623;-0.08139486;0.013740208;-0.35165647;-0.17903446;0.11452591;0.23526774;0.02204501;0.030550674;-0.13094836;0.091026925;0.104763694;0.031124333;0.32650393;-0.08819862;0.09064049;0.04771212;0.046581723;0.21475767;0.16515316;0.021073855;0.09541005;-0.08606343;-0.2356442;-0.22989087;0.03686912;-0.25727424;-0.15673873;-0.008228777;0.25021273;-0.08380762;0.2028895;-0.03668672;-0.011969767;0.097918265;0.06053495;-0.13846083;-0.05726571;0.098533265;0.086649545;-0.040509153;-0.058829356;0.15310845;-0.14969367;0.07502401;0.13245022;0.11584584;-0.10563078;-0.070434906;0.27389765;0.2645111;-0.12359295;0.36147788;0.13314946;0.049006496;0.056956254;0.1347304;0.21718083;0.05515922;0.21358089;0.14320138;-0.05579617;-0.10801091;-0.12384655;-0.11507033;-0.088406295;0.13649653;-0.04045414;0.3247624;-0.051323958;0.27883443;0.02090413;0.40578517;-0.22786452;0.1286205;-0.007967271;0.061394475;-0.15382259;-0.03525601;0.16182616;-0.17965992;-0.046619575;-0.0273326;-0.2253716;0.0036454077;0.0989933;-0.11881179;0.15067013;-0.1774251;0.0074698906;-0.22049485;-0.15676732;-0.17029269;-0.06596816;0.0013952663;0.113984495;-0.10368093;-0.06798453;0.049265403;0.033302568;-0.024811566;-0.022905068;0.25924495;-0.05545315;-0.04096967;-0.23030731;0.36117762;0.040174693;-0.04823542;-0.0029196162;0.20376617;0.10068529;0.068151146;-0.17057398;-0.15112662;0.161634;0.05660495;0.0208063;0.06858664;-0.1608437;0.026737416;-0.158367;0.09089099;0.12653592;-0.15249558;0.18628193;-0.119815655;-0.028326368;-0.16077879;-0.20947814;-0.4490612;-0.117845155;0.14771095;-0.063094;-0.0053485353;0.16955188;-0.1664025;0.06452451;-0.160816;0.13181114;-0.041812316;0.15800962;0.06497062;-0.37371564;0.219163;0.112535484;0.032880243;0.09991617;-0.108298875;-0.1980051;-0.035100933;-0.17863928;0.3362347;-0.0035591144;-0.053256735;-0.007123148;0.026477741;0.015368517;-0.028203292;0.08073659;-0.12921402;-0.18521596;0.196638;0.21198983;-0.04022131;0.031377673;-0.22663426;0.17764162;0.02229572;-0.1867129;0.06266655;-0.26548743;0.10365936;-0.06941773;0.2022162;-0.23773538;0.13037014;-0.2032791;0.07973488;-0.07662187;0.016559273;-0.16650622;-0.21074195;-0.07036728;0.09509682;0.007712958;-0.12496908;0.04354915;-0.10793262;0.1981207;-0.025135769;-0.3115846;-0.019973712;-0.112936;-0.054697115;-0.06234824;-0.06815567;-0.059591614;-0.10022148;0.19539838;-0.1672679;0.031420477;0.3221184;-0.20305747;0.26123568;0.10438456;-0.21513519;0.0808352;-0.06678401;-0.09351453;-0.17491883;0.05565045;-0.009537517;-0.038267266;0.004388997;-0.009386993;0.24153863;0.07806508;0.08274795;-0.10447472;-0.05329017;0.16602214;-0.05341845;0.11281824;0.08563298;0.27708584;0.030456962;0.5265269;0.014569105;-0.10160303;0.12862204;0.066466935;0.19668205;-0.34144258;0.015715953
0.04251375;0.2782402;0.047955405;0.36593777;0.11390407;-0.2619217;0.15226921;-0.032590393;0.2766375;0.035221018;0.022843989;-0.057498276;0.047325753;0.043064505;0.090999246;-0.18537576;-0.167234;-0.07744311;-0.03346935;0.051014625;-0.14397596;0.08053153;0.029817944;0.028985621;0.064721696;-0.2064328;-0.07094766;-0.123929076;0.04802634;-0.13894197;0.20570302;0.009671131;0.07197868;0.25202972;0.11680364;-0.13600744;-0.08635672;0.00559546;-0.047006205;-0.18857871;-0.09111483;0.05514366;0.16040817;-0.054405216;-0.06149391;-0.000999023;-0.30525824;0.0011474703;0.103113316;0.14762443;-0.034375105;0.04883349;-0.14610083;0.059502337;-0.16511129;-0.15482709;0.07861668;-0.109895915;0.0057026627;-0.07847665;-0.1761274;0.14690593;-0.19947112;0.10270598;-0.01503415;0.095672846;-0.018219834;-0.28255698;-0.09656296;-0.36273187;-0.13533825;0.18003125;0.025839742;0.20534872;0.04736591;0.029853571;0.0057415315;-0.09075885;0.26730248;-0.25232878;-0.1660458;0.04894107;-0.088548265;0.25876614;-0.063025914;-0.088666886;-0.13800997;-0.1858172;-0.0018603442;-0.057518378;0.09983088;-0.13782437;-0.06663262;0.027616322;-0.049223073;-0.05970818;0.06708337;0.09435079;0.10337388;0.09087386;0.0069045513;-0.2072795;0.04132651;0.10437556;-0.056807347;-0.30792394;0.1104912;0.025887951;-0.013517713;0.033852007;0.190739;0.21958838;-0.009117852;-0.20786084;0.04315502;0.16767655;-0.19804037;-0.073354915;-0.11281809;-0.37200737;-0.16865651;0.039759796;-0.07845816;0.15022217;-0.002250814;-0.1496541;0.094550095;-0.13985752;-0.12927788;-0.3157075;-0.117541656;0.018316094;0.34753412;0.11435819;0.14459762;-0.16582778;-0.016328504;-0.048066627;0.025412524;-0.047288988;-0.16912715;0.08110527;0.086234234;0.22702573;-0.024577687;-0.16930373;0.04376923;-0.1800616;0.059538703;-0.056238946;0.008285912;0.17014796;-0.109121464;0.06829108;-0.31107765;-0.065748;0.09881017;-0.17017424;-0.058072947;0.11835619;0.10125365;0.107112415;0.09490606;-0.07133014;-0.080883846;-0.062088158;0.006084558;-0.03543583;0.2022773;-0.07706555;0.17941108;0.015210715;-0.13981323;-0.13684948;0.035651796;0.19254462;-0.20950507;-0.10587342;-0.24623193;0.12117787;0.12551247;-0.16134217;-0.15197864;-0.006017609;-0.07879148;-0.023876542;0.12094855;0.056647897;0.050560478;0.22156823;0.005009922;-0.02401502;-0.12547247;-0.0371048;0.06000959;-0.062882036;-0.5435697;-0.15104225;-0.21028517;-0.31701046;-0.19614273;-0.21765985;-0.07093293;0.051280282;0.124267414;0.029992687;0.2387507;-0.0024191567;0.033643957;-0.22310597;-0.03545305;-0.1345288;0.043420754;0.05378237;-0.21714574;-0.1083773;-0.038746186;-0.02292654;0.00012524605;0.011706491;0.023552498;0.0410854;0.24886143;-0.069463186;-0.07649836;-0.15713246;-0.054866582;0.015688129;0.017753782;-0.22650197;0.18392912;-0.15240596;0.25605515;-0.28212345;-0.042047802;-0.19866407;0.1580576;-0.070122354;0.07687269;0.21329132;-0.10368738;0.098564506;0.039786562;0.13350111;0.043568127;0.1837728;-0.0051719784;-0.06120081;0.034261078;-0.19360162;-0.11666694;-0.17692499;0.09724988;0.058233883;0.0096352175;0.14928661;-0.015640201;-0.1756647;0.11183884;-0.17245199;-0.024284702;-0.011932138;-0.28633294;0.054503404;0.06358251;0.107662976;0.026495058;-0.044359393;0.10344982;0.22731854;-0.07933679;-0.58425176;-0.01083887;0.12338513;-0.01261547;0.022920383;0.29929742;-0.22904578;0.16258219;0.06508135;-0.19532159;-0.012255144;-0.12036738;-0.107922606;0.16674313;-0.31124628;-0.1562026;-0.07299752;-0.034791145;-0.06512636;0.2540563;-0.030302467;-0.07447311;0.06184259;-0.01376831;0.08853652;-0.06853795;-0.20306487;-0.14943512;0.10868821;-0.1300138;-0.35262114;-0.012067958;-0.097223274;-0.02728422;-0.12811916;-0.35771456;-0.060453083;0.11933724;-0.49189094;0.11680622;-0.13332158;-0.065995134;0.12899368;-0.11857973;0.04632537;-0.1265666;0.05228069;0.070239164;-0.096654415;-0.14044373;0.059598736;-0.037178103;-0.12720227;-0.06210568;-0.039879207;0.024035964;0.19616331;-0.08289549;-0.20025602;-0.25770044;0.05279142;0.030174052;-0.2048311;-0.16744147;-0.11773981;-0.2659907;-0.12697846;-0.39776802;-0.020097988;-0.15649752;-0.29722264;0.011135499;0.059825677;-0.3625936;-0.3146644;-0.0885799;0.23808688;0.08632603;0.14888287;-0.0073284865;-0.027491603;0.06493768;0.09458198;0.23934555;0.09103034;0.12096139;0.056799408;0.11787647;0.06758439;0.16011222;0.057929594;0.11037079;0.02741318;-0.12326128;-0.21543801;0.07542022;-0.26774377;-0.08695071;0.0033352987;0.12438035;-0.1311764;0.16457257;-0.085960224;-0.118348375;0.031426057;-0.022130746;-0.12827206;0.03468264;0.13794534;0.045793884;0.02813063;-0.054827332;0.15738425;-0.14964347;0.05274273;0.03397598;0.11575661;-0.07867254;-0.07662369;0.1521814;0.28975198;0.07204865;0.3204395;0.19604099;-0.043574024;0.045129437;0.079611324;0.2528173;0.13438685;0.33369717;0.08240102;-0.122830495;-0.14129691;-0.056860864;-0.25221106;-0.16218898;0.1389841;-0.03741955;0.24363299;0.064685814;0.23990141;-0.0044615157;0.29219902;-0.27250752;0.15415221;-0.10050654;-0.057725307;-0.0937798;-0.06799277;0.11891192;-0.13247964;-0.024773324;-0.1286306;-0.29559904;-0.10194637;0.0915574;0.028224839;-0.0225113;-0.114844956;0.043404177;-0.16218057;-0.17739855;-0.026808556;-0.12395567;0.012214476;0.16327739;-0.03073926;-0.10857037;-0.02159896;-0.05119508;0.0286786;0.019962441;0.2633602;-0.045666005;-0.15425494;-0.3076156;0.19092327;0.07996174;-0.092023864;0.053387344;0.18753621;-0.0014992603;-0.0034499571;-0.23976853;-0.0011283279;0.12995903;-0.06623176;0.09232981;0.08690695;-0.11254417;-0.17072682;-0.18532418;0.073085524;0.2077278;-0.13749307;0.29755703;-0.18669999;0.11600842;-0.16311502;-0.19694357;-0.46927842;-0.18289183;0.17271206;-0.0016158154;0.088028975;0.07111106;-0.17067306;0.08695909;-0.14163198;-0.07175463;0.006378242;0.15309651;0.04933824;-0.18315893;0.21688905;-0.021789819;-0.03845897;0.07827624;-0.24948269;-0.3017657;-0.06643204;-0.24435195;0.31303138;0.086608395;-0.06386253;0.04100463;0.05295285;-0.11680704;-0.02634068;0.12578997;-0.13485368;-0.040777728;0.0064977743;0.24009368;0.09433763;0.07007219;-0.040102508;0.09302376;-0.00880139;-0.17308636;-0.016569596;-0.2870619;0.15810479;-0.05180973;0.10253413;-0.0593791;0.058347262;-0.0860408;0.19864544;-0.078087546;-0.027705334;-0.2234972;-0.07056592;-0.06491676;0.16310707;-0.10332051;-0.06791881;0.07467976;0.067934446;0.043287706;0.11149075;-0.2984377;0.14884292;-0.08936949;-0.063686356;-0.2065483;0.006845515;-0.18985055;-0.100518644;0.23050913;-0.12807602;0.013858581;0.24645144;-0.17158343;0.31776404;0.07155911;-0.1266724;0.11274523;-0.0022367928;-0.05409624;-0.07864195;0.027086044;-0.11209254;-0.03860417;-0.06523343;0.09882961;0.21118571;0.07067552;0.11292328;-0.005554381;-0.021267265;0.21405445;-0.014394853;0.15091783;0.09063792;0.2293664;0.077580966;0.59327775;0.1405636;-0.10413647;0.069461755;-0.0045269765;0.10885422;-0.38218725;0.08112081
-0.104630575;0.30640993;0.05974536;0.352996;0.16269313;-0.19496632;0.033140626;-0.028425084;0.36380258;-0.00057097664;-0.043492395;0.002140436;0.056102157;0.15074366;0.08453487;-0.029346393;-0.10716;-0.12957835;0.077465996;-0.03799282;-0.1936152;0.10215164;0.1414693;0.053902116;-0.006852487;-0.122313276;0.00915057;-0.04018553;0.008276663;-0.12727682;0.17371923;-0.11492495;-0.0067217844;0.32379955;0.16438751;-0.09598124;-0.10537921;0.01824738;-0.13248143;-0.15305254;-0.05252558;0.1330701;0.16215375;-0.09791742;-0.03592521;-0.05883537;-0.26861954;-0.05647017;0.103141055;0.09476046;0.029934864;-0.0040637627;-0.1340213;0.02428778;-0.18418798;-0.2632204;0.049432553;0.041490734;0.0742714;-0.11368237;-0.15223789;0.2612321;-0.21794996;0.11036674;-0.060661864;-0.01595462;0.085895255;-0.17720988;-0.12442611;-0.247691;-0.084474854;0.09365012;0.06908397;0.1834078;0.032552414;0.08303752;-0.026409838;-0.14319193;0.2390453;-0.25736177;-0.1186531;0.07267461;-0.020580074;0.22562549;-0.0030385181;-0.00076089427;-0.14609139;-0.116854;0.06461743;-0.088728845;0.15589404;-0.17089464;0.010672042;0.059290517;-0.041792225;-0.03471343;0.034834288;0.11545137;0.20002128;0.10222251;-0.10257754;-0.16225865;-0.050189197;0.086933844;0.14828683;-0.20946774;0.05128575;0.0835143;-0.0491689;-0.13427481;0.117151365;0.1962811;0.019196728;-0.052665308;-0.02840649;0.1584159;-0.28041324;-0.06434389;-0.07872497;-0.3627744;-0.039738443;0.009211954;0.016527727;0.16555165;0.03885874;-0.04605397;0.23028636;-0.058525335;-0.04077432;-0.19678959;-0.09571129;0.093073756;0.30992174;0.17197639;0.22095808;-0.17998427;-0.03613013;0.06404166;0.0607369;-0.1624928;-0.24591026;0.03975867;-0.04815366;0.14816622;-0.071026586;-0.15626535;0.11424955;-0.11242704;-0.0642015;-0.1591234;-0.07781384;0.06267583;-0.068185605;0.14214993;-0.2572408;-0.006564086;0.027505191;-0.20007388;-0.0069983886;0.04657225;-0.039534416;0.24619494;0.1487744;-0.043420002;-0.04242184;0.08593637;-0.019935198;-0.12063972;0.16886067;-0.06491447;0.2359623;0.041272283;-0.1160146;-0.08159904;0.079617575;0.17397128;-0.21668595;-0.10624907;-0.18045434;0.12644833;0.10767313;-0.10239449;0.0018313644;-0.1258367;-0.046707492;-0.12308971;0.067406975;0.16145909;0.015204285;0.21947719;-0.058352843;0.055841;-0.19139768;-0.04092948;-0.03617675;-0.053554103;-0.4236744;-0.26277816;-0.1156691;-0.29542193;-0.24351518;-0.09165874;0.060051326;0.14142297;0.027187418;-0.011377459;0.3279264;-0.06907138;0.13570009;-0.10490741;0.03167831;-0.064962305;-0.062166706;0.081744455;-0.34475055;-0.20239641;-0.07505945;0.026397388;-0.08446966;0.010974353;0.14243418;0.065728344;0.14846139;-0.09297604;-0.115206905;-0.05735542;0.012764008;0.0010479259;0.021467125;-0.11176453;0.15202823;-0.08574368;0.23896775;-0.20160101;0.0500108;-0.11508512;0.09741451;-0.14771263;0.073368415;0.25052276;-0.15661138;0.10683479;0.043092854;0.1105282;0.03798113;0.25491282;-0.021758744;-0.13897917;0.0065581333;-0.21881427;-0.23664542;0.02577778;0.013068008;-0.056968756;-0.030973293;0.19595417;-0.060156185;-0.23262978;0.07932643;-0.07285372;0.05172298;-0.020531943;-0.23563658;0.009887179;0.006914633;-0.008898241;0.011705167;0.10912047;0.055029023;0.24859771;-0.05239613;-0.5404919;0.14508666;0.12698837;-0.051385213;-0.048689008;0.38399827;-0.1598927;0.042770248;0.013684105;-0.23852815;0.027015908;-0.0759013;-0.11138791;0.25937158;-0.17870386;-0.18714865;-0.042823788;-0.01972491;0.024230119;0.1574863;-0.033288356;-0.097239375;0.04417853;-0.054933406;0.14613223;0.004711757;-0.11061661;-0.124175735;0.11521231;-0.10487325;-0.37857187;0.07115475;-0.18607612;-0.012552316;-0.08550019;-0.399825;-0.061805546;0.066967934;-0.33945715;0.25711277;0.01239254;-0.01163929;0.09939964;0.008498834;-0.036304303;-0.09686528;-0.044162564;0.118679784;-0.13487735;-0.21923786;-0.031350724;0.02025174;-0.1321025;0.03671142;0.0950913;0.113491364;0.1755696;0.0088959;-0.13180108;-0.13014126;0.0009513591;0.026746098;-0.10211682;-0.14681749;-0.12052204;-0.20319676;-0.10767733;-0.38787693;-0.079726435;-0.029112276;-0.23902176;-0.02101911;0.123454705;-0.35169697;-0.18978752;0.06526275;0.24951333;0.029394241;-0.061765075;0.002691261;0.02293788;0.16834475;0.023853939;0.20130868;-0.044230893;0.0802657;0.026627993;-0.05424048;0.10081203;0.21571067;0.07834596;0.061960507;-0.031781454;-0.1816558;-0.08369988;-0.04337517;-0.14889392;-0.07445227;0.07763166;0.1964848;-0.07282588;0.1333502;-0.07064755;0.011351212;0.062288128;-0.0737701;-0.19459155;0.040631417;0.16509184;-0.004351744;-0.089544415;-0.111569494;0.13362278;-0.28329358;0.06873292;0.07750128;0.14303043;-0.058659952;-0.108333245;0.2355672;0.26557148;0.03284305;0.32960483;0.060798313;-0.030741189;-0.04285763;0.059314497;0.17691126;-0.0354171;0.2482735;0.036364354;-0.022058133;-7.7019446e-05;-0.0093763;-0.17315355;-0.20873253;0.033913903;0.01657774;0.30565888;-0.045335792;0.22641309;-0.010316145;0.28678265;-0.12751663;0.17160395;-0.14896925;-0.054785486;-0.09895485;-0.005008033;0.05590092;-0.1887325;-0.061823208;-0.039754573;-0.15000483;-0.08625272;0.07733236;-0.045072824;-0.06601432;-0.056530636;-0.029109918;-0.078471355;-0.05176647;-0.1317869;-0.10069276;-0.09427676;0.16981834;-0.041950878;-0.05234706;-0.01103725;0.05230747;-0.09727977;-0.0063901297;0.09484555;0.024610003;-0.070361055;-0.3556737;0.21742906;0.00837136;0.045332354;0.04406369;0.19705532;0.048407756;0.049403116;-0.1090765;-0.13603607;0.026532209;-0.063341185;0.12109661;0.0234045;-0.07564882;0.01828417;-0.2478977;-0.011272709;0.08990594;-0.18894616;0.27627382;-0.19795072;0.11936511;-0.10863592;-0.20967202;-0.42488375;-0.14413369;0.17217687;-0.104413286;-0.049088936;0.043154515;-0.14812745;-0.01568772;-0.1789882;-0.06812453;-0.055034265;0.1777259;0.045832355;-0.29766834;0.15319362;0.18081003;0.05639546;0.04879247;-0.14134565;-0.22355992;-0.11387106;-0.048473787;0.21922958;-0.003902047;-0.17350224;-0.058568843;0.06547195;-0.04967035;0.0063306927;0.013938597;-0.03760164;-0.08322451;0.07089972;0.22985688;0.07024606;-0.021042064;-0.07593038;0.15207121;-0.09676952;-0.22322822;0.026446763;-0.36674;0.15149607;-0.06408967;0.11941316;-0.22218832;0.0068015093;-0.16209929;0.14592199;-0.07922584;0.06722801;-0.2547556;-0.16778882;-0.19063146;0.19623327;-0.038931012;-0.05546304;0.08479857;-0.005941995;0.07470435;-0.018126741;-0.19777337;0.060777374;-0.028655523;-0.16068456;-0.1120922;-0.13082199;-0.17066035;-0.010102242;0.049883977;-0.08054205;-0.021157468;0.31160343;-0.09867988;0.34927547;0.045754608;-0.06891973;0.009200725;-0.20264465;-0.11338653;-0.18478957;-0.004285543;-0.09577923;-0.19622101;-0.1494707;0.0673766;0.30448475;0.13882385;0.09940685;-0.09099358;-0.04514696;0.31412622;-0.06990576;0.11445548;0.09601222;0.31660903;0.13430908;0.4271302;0.16631667;-0.020035857;0.09013281;0.10974586;0.046205487;-0.207919;0.01060424
-0.088796936;0.27235746;-0.018021468;0.22885334;0.05507557;-0.048277844;0.13490587;0.049131375;0.23693195;-0.043069102;0.120779455;0.04533659;0.034708817;0.097412035;-0.0002895251;-0.025327442;-0.11158161;0.028910236;0.11917334;-0.016114939;-0.2667537;0.17209053;0.14193249;0.044443004;-0.02412158;-0.14893238;0.10581174;-0.07840354;-0.003060943;-0.2518773;0.08048257;-0.12343349;-0.14082925;0.18864664;0.14123894;0.07227462;-0.10806475;0.08884282;-0.103292964;-0.10603366;-0.03507989;0.12778068;-0.041841008;0.02728734;-0.045919694;-0.14315161;-0.21422905;-0.062682144;-0.036983505;0.098852016;0.010301881;0.044535298;-0.048293527;0.050057467;-0.10020001;-0.27862874;0.094258524;-0.14530443;-0.024195608;-0.09085616;-0.19402947;0.22337553;-0.31949297;0.08184417;-0.1099094;-0.018214677;0.024041599;-0.11416149;-0.07038381;-0.2521365;-0.078290455;0.1107843;0.14764045;0.08093215;0.116604626;0.011704304;-0.012106886;-0.14230339;0.155028;-0.09212195;-0.16308223;-0.048597854;-0.21313125;0.28195286;-0.062565066;0.06949581;-0.11591565;-0.26550597;0.040643714;-0.08446014;0.10201622;-0.20285;-0.1505099;0.052100316;0.010152582;-0.05583419;0.054603964;0.14744811;0.050923742;0.12953204;-0.13850583;-0.081482045;-0.10659086;0.020206518;0.14683534;-0.15633935;0.06338294;0.012474541;-0.045096245;0.04907517;0.060662933;0.13445131;0.014753425;-0.10450079;0.0062364726;0.03142786;-0.25778645;0.044751737;-0.043874353;-0.3377922;0.005055542;-0.024488842;0.13519928;0.16029063;0.0122097405;-0.11206916;0.11464113;-0.24722937;-0.13905118;-0.23148166;-0.051048942;-0.011826496;0.30846345;0.0525123;0.10443125;-0.13036326;-0.0087390775;-0.046756156;0.011941438;-0.07810605;-0.11018511;0.029458357;0.06911136;0.15269299;-0.053871036;-0.14801984;0.1098419;0.009636015;-0.023142155;-0.08923097;-0.16058701;0.12362843;-0.22049055;0.09565108;-0.23992449;0.043681275;0.015965683;-0.053845614;-0.1552464;0.022640524;0.0014688745;0.24623747;0.15854865;-0.012737156;-0.08965532;0.16689657;0.18409027;-0.028631518;0.18741256;-0.17405383;0.23372279;0.0610391;-0.13485093;-0.17575608;0.10931969;0.06604666;-0.26758543;-0.11783256;-0.120421946;0.06740178;0.048557438;-0.21856256;-0.045926027;-0.012529083;-0.05547178;-0.14310458;0.063141994;0.15609278;-0.06308644;0.045181535;0.064991325;-0.023696216;-0.2374728;-0.16202477;0.113231055;-0.091681086;-0.32089162;-0.27711785;-0.057051554;-0.2671021;-0.1682185;-0.03913939;-0.03321747;0.09967171;-0.028468778;-0.10377962;0.25406274;-0.09236699;0.08487667;-0.019860018;0.05577513;-0.044418786;-0.005967232;0.0482228;-0.41620684;-0.15454604;-0.077987134;-0.03356921;0.007929229;-0.03385957;0.0901051;0.059788052;0.2557422;0.060004655;-0.088142335;-0.045008212;-0.059060697;-0.027045667;0.077532254;-0.08951856;0.046501584;-0.12861624;0.25537643;-0.27981326;-0.03857722;-0.1874498;0.15278995;-0.25615788;0.12781407;0.33526126;0.018012675;0.015139372;-0.107368894;0.09975491;0.124930106;0.23670031;0.040114474;-0.13879387;-0.16770433;-0.050946217;-0.22564119;-0.025442898;0.14380227;-0.06490011;-0.020173121;0.20811109;-0.10915559;-0.119275235;0.00021384945;-0.16875787;-0.02062622;-0.072522014;-0.2066543;-0.010394138;0.080240235;0.111300446;-0.058085185;0.11627856;0.11074065;0.01716184;-0.04322933;-0.5647574;0.055604655;0.117147334;0.047296934;-0.05821983;0.40869316;-0.19932345;0.08676183;-0.047625188;-0.17158403;-0.030817738;-0.12660222;-0.22063397;0.22316694;-0.18069214;-0.11284864;0.13136792;0.084765695;-0.015155587;0.10913899;0.09428164;-0.040249653;0.0915748;-0.03432812;0.109881595;-0.07739618;-0.16746263;0.031695545;0.032394417;0.003654994;-0.28709683;0.12437169;-0.21791741;0.09168711;-0.126763;-0.4202294;-0.029130066;0.07906695;-0.3120223;0.14721274;0.11356828;-0.16830704;0.17536695;-0.13707243;-0.0031509493;-0.085100785;-0.08565421;0.1573028;0.007793602;-0.22987019;0.036490344;0.13598253;-0.17285524;0.009300864;0.08323541;0.014179549;0.15702628;-0.053494923;-0.1612548;-0.19022769;0.05404718;0.004731125;-0.090452895;-0.10903047;-0.250589;-0.29273692;-0.035604663;-0.38177717;-0.11934017;-0.19481494;-0.18388593;-0.014005511;0.23541729;-0.14574246;-0.35400245;-0.007973477;0.154455;0.013225682;-0.055096846;0.11950606;0.1856149;0.06664131;0.02623078;0.24107051;-0.0587322;0.04876315;0.034592215;-0.08380438;0.20759952;0.187436;0.09712458;0.016404621;0.1302956;-0.054067533;-0.077723116;-0.02082202;-0.23025405;-0.24464117;0.08666857;0.21358272;-0.10168351;0.079443954;-0.06731244;-0.17011373;-0.10340936;-0.034754593;-0.17099793;-0.094913736;0.22187951;0.059011944;0.021697355;-0.05900154;0.19778106;-0.2704596;0.16182557;0.06486988;0.0023842296;-0.1286619;0.028037846;0.25363016;0.28375846;-0.0616462;0.23756535;0.24634117;0.062292933;-0.08711631;0.08771089;0.11036934;-0.048600182;0.31893072;0.03578322;0.0033213182;-0.08260623;-0.07501805;-0.1347617;-0.090400666;0.0326223;-0.038626987;0.24748838;-0.17025663;0.22970523;-0.08940033;0.3949564;-0.1722906;0.2247544;-0.14425431;-0.09875625;-0.039842986;-0.14057519;0.01909404;-0.124506995;0.09782756;0.018669171;-0.18722339;-0.09002981;0.08573535;-0.060955472;-0.13875514;-0.12720811;0.047917716;-0.08918939;-0.06857943;-0.15860087;-0.2249007;-0.020381918;0.16509631;-0.10567229;-0.025914798;0.06340289;0.048763007;0.015524307;0.108036764;0.035338912;-0.06497958;-0.14734979;-0.10967635;0.2909467;-0.10047521;0.043871816;-0.0526017;0.24420083;0.05992733;-0.03159838;-0.18284853;-0.08865963;0.026334718;0.12263952;0.15158714;0.042555988;-0.16950494;0.0360005;-0.16756696;0.007060007;0.07920827;-0.11655489;0.21400222;-0.25058207;0.10521479;-0.15590006;-0.12635596;-0.5475442;-0.13062353;0.17157906;-0.13068731;0.06352965;0.08388838;-0.15940806;0.084739186;-0.089257464;-0.11786329;-0.040548723;0.1704327;0.029446281;-0.24673969;0.05823473;0.22372244;0.11777997;0.0022396739;-0.10150201;-0.109534316;0.014493946;-0.115143836;0.06354316;-0.035089843;-0.028052643;-0.16990922;0.045750465;-0.10919656;-0.089731514;0.09036962;-0.083791316;-0.25086167;-0.03933986;0.069369785;0.086541705;-0.01769945;-0.11656898;0.10768821;-0.11468322;-0.09267211;0.051782884;-0.40260872;0.21215117;0.011462127;0.019029316;-0.18048732;0.12221404;-8.149215e-05;0.1028514;-0.1614227;0.003941415;-0.27825993;0.068860136;-0.17822067;0.16776128;-0.06293374;-0.14577524;-0.070095286;-0.018883549;0.16985285;0.061264794;-0.24337429;0.17489116;0.022540271;-0.24453609;-0.19067591;-0.012247125;-0.13039112;-0.04034443;0.13969228;-0.18570302;-0.086837806;0.18677984;-0.15246443;0.2237783;0.114908114;-0.061494336;0.13075052;-0.0067377496;-0.13688175;0.009665223;0.08315403;-0.0008389477;-0.16164774;-0.031319663;-0.0064412123;0.27669296;0.21204205;0.07863429;-0.039837684;0.037085317;0.2656879;0.03878113;0.22390237;0.2434073;0.29826924;0.035841547;0.508172;0.15015157;0.004554116;0.10112709;-0.011789584;0.07301991;-0.2481154;-0.06576912
-0.0539243;0.24489151;-0.04372316;0.25563496;0.16940714;-0.10850375;0.009984359;0.072177365;0.18422501;-0.023456654;0.014975195;0.016381895;-0.0460933;0.1241172;-0.03854978;0.052688688;-0.07760405;-0.16794218;0.09020138;-0.0850604;-0.18599965;0.15298796;0.07497466;0.122004814;-0.006527199;-0.04864949;0.11896347;-0.15082684;0.09919452;-0.20414713;0.10146141;-0.044473037;-0.12621321;0.17843963;0.088205345;0.085386895;-0.22187464;-0.018950196;0.03490643;-0.10975009;-0.070245236;0.0857999;-0.013261423;-0.025959045;0.00080882444;-0.08666213;-0.15942556;-0.025294857;0.1428161;0.18072762;-0.030282434;0.06348965;0.03550951;-0.039728116;0.00094190903;-0.09691817;0.030294335;-0.08967768;0.026325226;-0.13808766;-0.1384775;0.28198567;-0.26276547;0.0045823148;0.06309554;-0.14737466;0.19203416;-0.06788126;-0.042925786;-0.27827325;-0.05336971;-0.027093444;0.12737507;0.08080609;0.047033366;-0.07574136;0.15285848;-0.06291335;0.1586192;-0.07491352;-0.15530519;0.06286283;-0.14917484;0.23352587;0.000963355;0.038350202;-0.020154292;-0.18505919;-0.10190311;-0.22573814;0.06627551;-0.038587693;-0.13545834;0.09003482;0.0036062552;-0.047106262;0.09731184;0.11761135;0.19912669;0.004080239;-0.044379797;-0.02536073;-0.18528198;0.13039434;0.1809692;-0.04225466;0.03054203;-0.07556179;-0.1149076;0.05571208;0.043833897;0.16869494;-0.0002635806;-0.1508438;0.092625454;-2.9976669e-05;-0.23389944;0.018455207;-0.08519053;-0.19560906;-0.058515947;-0.15386607;0.0064951424;0.15471196;-0.029420337;-0.025410453;0.25728136;-0.20533994;-0.053656757;-0.19710806;-0.06135732;-0.017761458;0.16831598;0.08429195;0.1846527;-0.18358137;-0.07696428;-0.06671919;0.015541203;-0.21342072;-0.072901785;-0.07619503;0.015372766;0.084622175;-0.12306082;-0.071318716;0.07605138;-0.053508148;-0.033297088;-0.036928024;-0.14655472;0.14014488;-0.06662895;0.15447937;-0.14431947;0.04905116;-0.034302916;-0.1543575;-0.12824936;0.10899163;0.109417714;0.2685733;0.2386389;0.13496453;-0.006894533;0.12836784;0.09458065;0.046866987;0.20939377;-0.06518002;0.14339192;0.05316339;-0.20663646;-0.20758924;0.07575588;0.13107575;-0.08519741;-0.24541616;-0.12447221;0.054349497;-0.042714294;-0.26898327;0.024369918;-0.09249158;-0.05672178;-0.08790408;0.07924735;0.04919995;-0.028983887;0.1330061;0.018217094;-0.15116473;-0.22358355;-0.034194827;0.06532466;-0.04706474;-0.14467947;-0.124380514;-0.0635771;-0.06578334;-0.14832485;0.04871479;-0.02850142;0.034424473;0.012680438;-0.15827055;0.18167618;-0.11400271;0.13535483;-0.12549414;0.04929608;-0.099821426;-0.03459158;-0.07910988;-0.3950534;-0.20064579;-0.0039619515;0.051921908;-0.15384719;0.056152552;0.16025864;0.12776604;0.1264658;-0.021389185;0.00045159028;-0.18086979;-0.08660432;-0.06370032;0.20536703;-0.08523373;-0.0074916887;-0.13486107;0.13403761;-0.122770734;0.057213336;-0.07323444;0.05940879;-0.24883486;0.060883157;0.20150286;-0.04756762;0.056482807;0.05484451;0.06524492;0.03612157;0.11683175;-0.118535824;-0.28374317;-0.13993575;-0.13467933;-0.15989242;-0.1101799;0.057250593;0.008248746;-0.0234436;0.074799776;-0.15470812;-0.16975878;0.121930465;0.0012871767;-0.08439215;-0.08739003;-0.12806025;0.081468895;-0.028460672;0.13788743;0.0035850268;0.12755719;-0.02486102;0.06218734;-0.083606236;-0.4253705;0.0030629376;0.11291323;-0.06530138;-0.077584185;0.35098124;-0.08541841;0.06251714;-0.028631417;-0.2908252;0.027257772;-0.19533162;-0.1730472;0.19601056;-0.22165999;0.0131009;0.090275116;0.039273314;0.02622391;-0.03067193;-0.011891169;-0.013067261;0.11622229;0.042952184;0.027048936;-0.054476917;-0.08945304;0.028495125;0.10725247;-0.051073987;-0.27936706;0.11746135;-0.2668055;-0.037733957;-0.13461103;-0.37903613;0.080638126;0.054201923;-0.24548651;0.19196275;0.02452015;-0.14149185;0.13047436;-0.0931688;-0.10397413;-0.061108164;-0.22281885;0.13829537;-0.113090746;-0.21542399;0.015398445;0.15243644;-0.097292215;-0.020307546;0.027623463;0.09122848;0.21388245;-0.054269608;-0.11632826;-0.24625921;-0.19734283;0.12812653;-0.05717895;-0.14170557;-0.26723903;-0.2524647;-0.15412804;-0.21181181;0.062524594;-0.22058238;-0.25009295;-0.123683944;0.25481558;-0.104941346;-0.32918563;-0.02136341;0.16130123;0.00584205;-0.11710255;0.00880161;0.12516639;-0.029420393;-0.066479325;0.12106037;-0.042022683;0.01229524;0.10123503;0.01449034;0.17869759;0.21368302;0.175748;0.16108297;0.08163999;0.031729072;-0.08031489;-0.02135763;-0.10363877;-0.16318764;-0.029981257;0.31650317;-0.11318935;-0.015723461;-0.16738363;-0.15983394;-0.018682748;-0.14156184;-0.10373013;0.014353481;0.10547896;-0.06880108;-0.13249186;-0.006995875;0.061032295;-0.14719026;0.20582885;0.030038461;0.049485832;-0.10334805;0.06348885;0.24155688;0.05816498;-0.027592154;0.25156352;0.20197943;0.080667384;-0.064635284;-0.059874214;0.011569618;-0.13784286;0.22057822;0.054491844;-0.13397509;-0.011168235;-0.07518603;-0.115314186;-0.13462819;0.060325038;-0.0068956465;0.28245154;-0.1863472;0.23676574;-0.10637983;0.30317244;0.010976359;0.121519275;-0.16065206;-0.17831199;-0.08249414;-0.08234723;0.17071809;0.04128891;0.03342549;-0.017750321;-0.1449795;-0.033342153;0.124194495;0.03550095;-0.07293093;0.03137977;-0.0038450223;-0.12911314;0.0061846757;-0.12770501;-0.11490308;0.02753321;0.15312085;-0.16825505;0.10495865;0.018924626;-0.024031717;0.0048269727;0.05639817;0.00805639;0.027546719;-0.17569646;-0.12817726;0.22154926;-0.120628774;0.12202588;-0.022559423;0.115622364;0.005729068;-0.004771261;-0.22804561;-0.05444212;0.019921085;0.0677808;0.20402853;0.09761406;-0.10683183;0.103476256;-0.11213404;-0.026963903;0.14567766;-0.08242551;0.13773073;-0.23355776;0.06446526;-0.0919822;-0.07251542;-0.46440822;9.0342684e-05;0.04896927;-0.066094875;-0.03918611;0.15308209;-0.21158847;0.06230867;-0.13900682;-0.06098535;-0.07315129;0.058986533;0.005171118;-0.22141917;0.19430745;0.1011663;0.15655416;0.070930734;-0.10427109;-0.10769428;-0.09966427;-0.0128452005;0.13230462;0.050484363;-0.05045049;-0.17491011;0.12179404;-0.23097281;-0.021138234;0.06572148;-0.026358707;-0.18328784;-0.043516386;0.16324447;0.0045360676;-0.058778152;-0.02315534;0.050413013;-0.0941832;-0.18860415;0.06297022;-0.32081017;0.08467488;0.09809255;-0.03804529;-0.01668597;0.22869375;-0.11187217;0.18179244;-0.11242538;-0.09555087;-0.22887841;0.13166356;-0.06820078;0.08405698;-0.039571807;-0.055972096;-0.18316223;-0.026081411;0.055395715;0.039537884;-0.23848017;0.10383233;-0.045737352;-0.14554594;-0.20553538;-0.0018966226;-0.3288612;-0.09596809;0.14092891;-0.16129123;-0.06881561;0.12212638;-0.22065173;0.10923309;0.013749661;-0.0816001;0.07029833;-0.03097602;-0.12210735;0.046953212;0.05104962;-0.02927937;-0.121371485;-0.1471295;-0.10413657;0.23983382;0.17456852;0.018086314;0.02844884;0.02415355;0.34629002;0.023603227;0.21667404;0.17926303;0.34337446;-0.020910261;0.459786;0.04631772;0.114806324;0.15586409;-0.003527736;0.08307878;-0.14282092;-0.063701175
-0.0865732;0.26117405;-0.05723651;0.3076364;-0.041319918;-0.1445914;0.039512355;0.05805478;0.2340713;-0.0978147;-0.062846854;0.08068172;-0.03971711;0.07626422;0.051324476;0.064500675;-0.15310094;-0.14788632;0.10566861;-0.03431845;-0.2262823;0.14447434;0.15700729;0.070821375;-0.07903486;-0.14982608;0.1865031;-0.06377305;0.02566793;-0.080281794;0.08141;0.08745471;-0.072271205;0.2633814;0.060325626;0.046820436;-0.0855724;-0.07650087;-0.14214008;0.11363377;-0.03583034;0.13301435;0.13639495;-0.115285546;-0.091830015;-0.005265491;-0.15366302;-0.13998167;0.20276919;0.13061553;-0.05665211;-0.05633387;-0.0058342577;-0.107294984;-0.046868168;-0.102230646;-0.05413203;-0.0319823;0.07180266;-0.17243372;0.022873187;0.23259123;-0.33665308;-0.036325682;0.08938384;-0.18430823;0.13433881;-0.1591272;-0.11047954;-0.15249847;-0.021363866;0.13380294;0.00045405532;-0.018009625;-0.00959464;0.049397238;0.0889052;-0.20325172;0.25832048;-0.035463177;-0.3535789;0.07088913;-0.07065138;0.2666387;0.09787767;0.049229845;-0.046793584;-0.077951595;0.06600798;-0.042855673;0.22662379;-0.13081674;-0.06981311;0.076458074;0.013756369;0.07365735;0.102442354;0.15630658;0.04178775;0.19105352;-0.019511733;-0.064528055;-0.16261671;0.026145145;0.13702692;-0.073710635;0.027040867;-0.05616657;-0.12297468;0.10907889;-0.07283918;0.1110155;0.0143891545;-0.14231762;0.0313808;0.10408273;-0.2585239;0.0635722;0.062191322;-0.25044066;-0.052490924;-0.14291558;-0.098793164;0.15187491;0.14637986;-0.1376752;0.31072253;-0.020784259;-0.035734255;-0.17545754;-0.012842023;0.099140994;0.043562833;0.16656259;0.24901384;-0.28601035;0.04014171;-0.029819038;-0.073399894;-0.28023043;-0.2116378;-0.08575706;-0.067023925;0.18310632;-0.21072477;-0.204208;0.0058895196;-0.062234934;-0.007214417;-0.12560661;-0.21474619;0.18890668;-0.017263407;0.045498062;-0.22355993;-0.042178165;-0.061810933;-0.08142958;0.013381374;0.09003216;-0.07457884;0.11915124;0.14842561;0.017179728;0.028165163;0.17694782;-0.09805916;-0.002545021;0.086388126;0.008116351;0.03146985;-0.02734544;-0.2294859;-0.12875868;-0.050084118;0.054259498;-0.03178501;-0.07289055;-0.20484959;0.1420268;0.01090423;-0.31722248;0.042702667;0.022577643;-0.17263207;-0.04421465;0.029713636;0.012679248;0.04617907;0.024417434;0.014048874;0.018822059;-0.22052996;0.0063573983;0.038635653;0.044629328;-0.11409364;-0.12265654;-0.1576497;-0.10276474;-0.2564566;0.048786845;0.06665928;0.07377745;-0.015461118;-0.09255141;0.28293642;-0.045121904;0.18884803;-0.092741325;0.1774388;-0.15106295;0.020424452;0.008094511;-0.22212768;-0.17908294;-0.112968974;0.18347259;-0.107900076;-0.038430642;0.11164885;0.047546674;0.1526356;0.032447103;-0.048110303;-0.20171429;0.01987729;0.09826755;0.32028404;-0.17884248;0.13653864;-0.18319862;0.11677109;0.04039326;0.09918382;-0.06428132;-0.017857827;-0.08163759;0.057009164;0.22316208;-0.046820473;0.10114013;-0.042804327;-0.0061947536;-0.02195132;0.089378715;-0.12505987;-0.19263954;-0.071909934;-0.00837829;-0.28185526;-0.074943855;0.08487383;-0.003762002;-0.08255395;0.034079485;-0.10535347;-0.121399224;0.11168902;-0.18160471;0.016025558;-0.08123851;-0.10766607;0.014492834;0.1075065;0.13473016;-0.043514524;0.06618943;-0.0502379;0.21142358;-0.033011988;-0.1454769;0.10918565;0.14595133;-0.017047018;-0.09839036;0.24573371;-0.021610942;0.09626662;-0.01928071;-0.22422418;-0.016937654;-0.108498745;0.057810366;0.16652852;-0.2694761;-0.069554314;0.009722216;-0.032721713;0.044649217;0.060097657;-0.033164326;-0.11763848;0.055986434;-0.044765916;0.028892232;-0.04632791;-0.103349894;-0.10158049;0.1763577;-0.2219202;-0.22081967;0.08412607;-0.20651834;0.06414331;-0.10420371;-0.26301593;0.09044342;0.029011961;-0.16998418;0.17189537;-0.11081143;-0.07348405;0.19486989;-0.038727313;-0.036849532;-0.032817956;-0.079556525;0.08908742;-0.05493159;-0.17400397;-0.0016192984;-0.0067988094;-0.08735223;-0.0693491;0.020707346;-0.0070004333;0.28172907;-0.204133;-0.14428587;-0.34866518;-0.14994092;0.0726371;-0.08998392;-0.12447927;-0.17907779;-0.19514093;-0.09479067;-0.37122834;0.0114080645;-0.06936578;-0.1588819;-0.093710385;0.041408192;-0.124547176;-0.34779623;-0.01250286;0.08087838;0.0875385;-0.0646187;0.0887497;0.006080883;0.064193256;0.07295696;0.12163482;-0.090808816;-0.064684905;0.0786986;0.009589901;0.23397341;0.011149086;0.092899665;0.1219822;0.048611153;0.012805255;-0.12586492;-0.04565252;-0.09425144;-0.1541376;-0.02016834;0.1482552;-0.10320736;-0.004156524;-0.101086795;-0.07703436;0.00089736754;-0.15586966;-0.26767063;0.1148933;0.056145534;-0.028248312;-0.060800552;-0.014140195;0.07925802;-0.079004146;0.109195046;-0.013916792;0.03759969;-0.10610413;0.054697547;0.14998841;0.05920905;0.020772075;0.36943775;-0.031721536;0.16900867;-0.021989688;0.049047507;0.049241934;0.03348496;0.233165;-0.01925494;-0.008806194;-0.08531785;-0.029700764;-0.17534658;-0.19009782;0.0060109114;0.030990468;0.17955749;-0.1063429;0.24542871;-0.19002971;0.2580583;-0.11426787;0.31804278;-0.19922268;-0.09539161;-0.15575415;-0.011131883;0.028548494;-0.06603824;0.01074734;-0.12999898;-0.16255902;-0.041138396;0.17866747;-0.04227168;-0.06465682;0.12261671;-0.05296818;-0.23796986;0.066748016;-0.16851814;-0.19582686;0.07588224;0.14433575;-0.044993225;0.11888727;0.023616062;-0.069243915;-0.017936623;-0.016857151;-0.02951137;-0.041337177;-0.15597595;-0.10465808;0.20106363;-0.027453225;0.07342443;-0.11483803;0.14182752;0.02970078;0.011043355;-0.21244797;-0.059495445;0.0066572325;0.12002801;0.08754946;0.13131087;-0.05403049;0.06450586;-0.06324957;0.045548752;0.13125084;-0.11227834;0.09825837;-0.21157682;0.13241367;-0.0016182527;-0.0885387;-0.25173834;0.035058647;-0.07531397;-0.023521617;-0.09217697;0.29458457;-0.2205453;0.061656643;-0.010589348;-0.042497;0.07500453;0.14671923;0.029267786;-0.25015685;0.088160455;0.16461791;0.044046786;-0.03717622;-0.12231589;-0.20614572;-0.017509859;0.011000897;-0.0038947721;0.0843912;-0.09076708;-0.27480522;0.21101099;-0.16560555;-0.13665254;0.00032496065;-0.12314882;-0.21577388;-0.06591177;0.08567492;0.07607814;0.067823835;-0.09244296;0.05287332;-0.17351338;-0.07551169;-0.04349511;-0.37775382;0.020740323;-0.052901287;-0.012598696;-0.09800923;0.061469648;0.021547165;0.075863;-0.13359423;-0.0064418083;-0.23634377;0.07589081;0.019191444;0.042743854;-0.06318318;0.042820316;0.0045142416;0.14169125;0.016572187;0.11928012;-0.1577114;0.18222621;-0.080704525;-0.11682324;-0.10606182;0.08885546;-0.30640924;-0.0014250551;0.20296514;-0.2482358;-0.1055867;0.2012842;-0.12179601;0.11435032;0.044454098;0.032903522;0.034039073;-0.06987133;0.046848968;0.027016079;0.033240814;0.12670836;-0.05200764;-0.11818645;-0.07598496;0.32103658;0.11519061;0.18208112;-0.07496576;0.0709678;0.1917283;0.054569177;0.016406415;0.15660912;0.18948662;0.17670606;0.34922192;0.22532032;0.13967922;0.1860276;0.08181898;0.12770465;-0.13268489;0.02591248
-0.07539381;0.25565726;-0.08217801;0.22438459;-0.071672834;-0.115912914;0.0050722496;-0.10089758;0.091684595;0.021028282;0.054345794;0.061300643;-0.023031954;-0.10140559;-0.04691955;0.15046434;-0.09994193;-0.07140099;0.062063973;0.07900343;-0.050554384;0.1367785;-0.08190783;-0.071917586;0.022220733;-0.081498004;0.11585407;-0.096564576;-0.008775421;0.08075545;0.065773316;0.058290925;-0.105786175;0.23758039;-0.0052086315;-0.01916106;-0.13300952;0.046284523;-0.11231441;-0.11613524;-0.12377606;0.03034763;0.14750068;0.03572969;-0.1341511;-0.16267386;-0.17421669;-0.091736265;0.17790611;0.028781243;0.06464198;-0.025139757;-0.047582783;-0.09262937;-0.05040252;-0.14714359;-0.18377632;0.024061177;0.07994339;-0.14461051;0.07272662;0.25156173;-0.24439746;-0.048293535;0.08933109;-0.059040233;0.12332863;-0.113363065;-0.10835151;-0.1153926;0.11067958;-0.024528435;-0.08476707;-0.003195509;0.051019233;0.108699776;0.21466877;-0.1733304;0.13796483;-0.01996431;-0.3123077;-0.059679467;-0.049309343;0.29370934;0.107026726;0.084253736;-0.066798806;-0.14403056;-0.025959978;-0.07727954;0.15211208;-0.0516923;-0.06960011;0.056083545;0.14163193;0.11604464;0.1286861;0.25305226;-0.010144852;0.13683322;0.06329702;-0.09617596;-0.07095376;-0.03736856;0.11355941;0.040087223;0.16770051;-0.045002818;-0.00031190622;0.11189439;-0.05453464;0.03961025;-0.056747865;-0.069836386;0.07540065;0.15724882;-0.20021807;0.046202086;-0.096972354;-0.2976283;-0.032741513;-0.03960508;0.03479083;0.08297588;0.16357237;-0.15694232;0.38083503;-0.07077376;-0.037767015;-0.1598963;0.047030125;0.10129569;0.11541653;0.19115654;0.16406657;-0.18581381;0.019460838;-0.055186234;-0.0697817;-0.24500293;-0.111310974;-0.0003469281;0.14965886;0.054081783;-0.17606427;-0.24311619;-0.040998653;-0.068006165;-0.15834153;-0.22029339;-0.20986897;0.08978147;-0.03256331;0.025189955;-0.37079427;-0.010123334;-0.03154903;-0.27609992;0.17055707;0.17805372;-0.10927625;0.0026296594;0.10762829;-0.15709472;0.084282;0.14971954;-0.0653064;-0.04748961;0.15265414;-0.04023196;-0.05991111;-0.061581988;-0.03226981;-0.09919297;0.03315586;0.14412466;-0.08713319;0.0422484;-0.12386773;0.09386525;-0.10830204;-0.13354838;0.12049311;0.049302932;-0.15167049;-0.19416052;-0.0630524;0.0981533;0.09127934;0.08039262;-0.05423231;0.0022480388;-0.3043553;0.08881725;-0.0627873;0.1477901;-0.18000516;-0.049772218;-0.10548226;0.027697336;-0.15332623;0.1454395;0.08539377;0.15041518;-0.0908035;-0.27796388;0.30213705;-0.08511715;0.12980063;-0.21444298;0.18353519;-0.15598388;-0.048869196;-0.026324905;-0.18959852;-0.16325453;-0.03208379;0.2906752;0.05482034;-0.09610373;0.043281052;0.030894628;0.12534864;0.060087234;0.060771488;-0.18454665;0.09945313;0.20425718;0.302528;-0.20744145;0.13853417;-0.06987399;0.28604454;0.05573019;0.21008201;-0.08995185;-0.137346;-0.124338165;0.1693147;0.17942885;-0.124470934;0.117395684;-0.010400081;0.039288722;-0.031548273;-0.038513627;-0.29504773;-0.20964265;-0.12269774;-0.038383234;-0.31498098;0.09889302;-0.030120436;0.06727303;-0.18875146;-0.12927896;0.0068232357;-0.021411378;0.050827775;-0.075288504;-0.07800506;0.021701256;-0.08818479;0.08054172;-0.011842006;0.09318503;0.039157078;0.06617753;-0.103989884;0.22349304;-0.11152126;-0.07848652;0.025525084;0.22061619;0.02440251;-0.054150905;0.28548053;-0.0069108764;0.015649566;-0.0746853;-0.27696416;-0.20256737;-0.048465945;-0.03209738;0.18194397;-0.305284;-0.18372177;0.047838602;-0.050671153;-0.13085085;0.02082435;0.010873517;-0.070538715;0.08805555;-0.035828337;0.05410343;-0.009734479;-0.020416107;-0.07933715;0.15487571;-0.21522926;-0.25020298;0.14811346;-0.2520746;0.049077146;-0.11204533;-0.2169848;0.008531307;0.041577186;-0.19689184;0.19909951;-0.07377506;-0.11740237;0.27196717;-0.16726616;0.009630385;0.1037966;-0.030426344;0.03495741;0.051348053;-0.17987005;-0.06123823;-0.012709535;-0.1184716;-0.111022115;0.052729584;0.04002394;0.19574985;-0.02696738;-0.15553716;-0.37772363;-0.12595181;0.2036513;0.031056577;-0.10612349;-0.22796115;-0.2452115;-0.027655883;-0.4081775;-0.09297597;-0.0094894795;-0.263099;-0.15275295;0.040426593;-0.09283987;-0.2674062;0.019214975;0.12406628;0.014480834;-0.07826934;0.110713564;0.095279105;0.07513629;0.14290105;0.16602322;0.0066865445;-0.100561775;0.11231551;-0.019997323;0.18726851;-0.1014233;0.08914114;0.12128233;0.043856807;0.060433593;-0.17237306;0.085442506;-0.10817997;-0.11750638;-0.028790073;0.30335748;-0.11241481;-0.010985215;-0.12772056;-0.09793247;-0.061894972;-0.3653643;-0.29941794;0.0025992612;0.032795966;-0.2145905;-0.086602315;0.056767445;0.0030303025;-0.1655761;0.1454223;-0.073658556;-0.07862732;-0.14287841;-0.0380763;0.2773694;0.093514845;0.047380853;0.40503654;0.07830415;0.08109935;-0.0038482791;-0.19208573;0.049123652;0.018190848;0.17164488;-0.03895299;-0.07732458;-0.1602907;0.076830946;-0.32842714;-0.05090995;0.12326561;0.05611586;0.09740593;0.018225955;0.248449;-0.19060807;0.14352608;-0.0987816;0.379014;-0.1065341;-0.012600176;-0.16506973;-0.10920314;-0.009576561;0.016431227;-0.036982123;-0.0573218;-0.17428769;-0.081737325;0.1474253;0.115277834;-0.057071924;0.18098906;-0.049347382;-0.21389005;0.10078114;-0.16866481;-0.23863128;0.10879769;0.07753949;-0.10938019;0.11046708;0.06918333;-0.030656964;-0.061969753;0.027783778;0.034970403;-0.057454657;-0.15511405;-0.15374556;0.03746137;-0.07386937;0.051661108;-0.14533652;0.097668596;0.065144025;-0.051432498;-0.13782495;0.10018676;-0.082620844;0.09195652;0.14607699;0.023517273;0.017651489;0.025885634;0.0063521485;-0.017882265;0.17452362;-0.11153708;0.05678147;-0.21728866;0.15625882;0.016241372;-0.10050139;-0.27145186;-0.00094929716;0.047631685;0.026631288;-0.1875736;0.31145358;-0.14611088;0.12249056;-0.08287731;-0.23085982;0.08761416;0.05671494;-0.019064935;-0.12960769;0.042771924;0.06454986;0.01802014;-0.042325206;-0.17062181;-0.21097858;-0.085992515;-0.08861383;-0.012941323;0.064519376;0.012094011;-0.1745975;0.3243912;-0.09785885;-0.055390377;0.005407728;-0.09573285;-0.20906916;0.042185433;0.21631849;0.07039449;-0.044578355;0.009781774;0.1033897;-0.059850376;-0.22505535;0.048551973;-0.31314814;0.21679716;-0.037225407;0.14362538;-0.031527642;-0.02851302;-0.14043885;-0.05564098;-0.08485732;-0.122339785;-0.3294262;0.046131756;0.12554026;0.07841121;-0.045172203;0.024755282;-0.093232594;0.05144051;0.020195078;0.008086053;-0.12161857;0.15552852;-0.13817486;-0.10218057;-0.050060853;0.020445272;-0.35328928;-0.07939286;0.17513108;-0.22383386;-0.12195982;0.21199426;-0.1631981;0.21106873;-0.0016834188;-0.041946962;0.1096663;-0.16248634;-0.037274536;-0.042547993;-0.049669053;0.011697862;-0.11934648;-0.33505133;-0.021155128;0.21416183;0.09776484;0.23010054;-0.05044271;0.018357746;0.019642595;-0.035020117;0.054802373;0.109311074;0.012780858;0.15790579;0.2754163;0.08300176;0.07838515;0.15447262;-0.031650692;-0.07702338;-0.0076072714;0.10911343
-0.14079225;0.21269393;-0.05964578;0.053313293;-0.14874631;-0.1882626;0.12161411;-0.11466415;0.038976546;-0.0073529473;0.19376759;-0.00067503745;-0.17518659;-0.019954592;0.025322685;0.024965435;0.06326169;-0.0090187555;0.1431195;0.05002076;-0.05370643;0.20247248;0.04249043;-0.091438614;0.0097564375;-0.006213121;0.09849001;-0.07424442;0.013043188;-0.07769293;0.07182663;0.07819201;-0.11879374;0.06329914;0.0017713981;0.11060907;-0.1896239;0.04404736;-0.14082372;0.033446483;-0.0040693944;0.0076293005;0.13252392;0.10623945;-0.119488075;-0.19709797;-0.1428751;0.00030377976;0.12635097;0.02929404;-0.09239126;-0.05412827;-0.021345133;0.010437521;-0.12253315;-0.11649008;-0.1068785;-0.011795061;0.16387887;-0.11492075;-0.018827764;0.23741801;-0.27393895;0.11335813;-0.009112903;-0.07442028;0.06596792;-0.15796754;0.030146342;-0.09340918;0.12858719;0.08839989;0.06891359;-0.102357805;-0.09631198;-0.037704606;0.16481851;-0.12849805;0.24728854;-0.055094834;-0.13341725;-0.15215315;-0.17543237;0.23921354;0.08179282;0.07575584;-0.11801603;-0.13366449;-0.027137768;-0.1683214;0.13226552;-0.05421516;-0.20087327;0.17135099;-0.015564307;0.10091762;0.024233848;0.25508606;-0.03520545;0.10638795;-0.083526775;-0.14317176;-0.08212617;0.1662084;0.09412997;-0.11034268;0.10991549;-0.057015177;-0.03807892;0.21351391;-0.07833764;0.08848585;0.030537087;-0.15156521;-0.06593224;0.15189569;-0.21640317;0.04706673;-0.10026175;-0.29619148;-0.09988021;-0.02881928;-0.08624446;0.12747054;0.13051286;-0.10197289;0.30613416;-0.16220129;-0.083928525;-0.15864569;0.047335174;-0.07716515;-0.05358644;0.09700586;0.2854321;-0.21964152;-0.029648531;-0.12308768;0.02928357;-0.15858565;-0.08412103;0.044026725;0.12788863;0.16307557;-0.23917273;-0.11613639;-0.0055465936;-0.07497157;-0.21463789;-0.057129905;-0.2408585;0.061209675;-0.023896916;0.11720132;-0.3090134;0.100406654;0.05586162;-0.25333384;0.0072003123;0.079142936;0.02922428;-0.091834754;0.030182213;-0.15060465;0.009157044;0.10514127;-0.033071604;0.009615348;0.11832779;0.052417558;-0.11168444;-0.040795147;-0.076545954;-0.04637616;0.055813152;0.030723872;-0.05160588;-0.08896412;0.0018297948;-0.059086975;-0.06643497;-0.20954418;0.11263213;0.09110861;-0.21762331;-0.18549497;-0.050568666;0.06735779;0.09852713;0.037323184;-0.08548419;0.05605646;-0.16673937;0.033533253;-0.04743964;-0.0192642;-0.07822384;-0.1411923;-0.11413144;0.041651797;-0.1927412;-0.0056930087;-0.10507905;0.084395364;0.09671356;-0.28079647;0.3765458;-0.14275202;0.07317032;-0.13982064;0.16021872;-0.14669098;0.019015588;-0.20192099;-0.101771146;-0.15463947;-0.14881536;0.21321335;-0.14544193;-0.050208382;0.1752096;-0.0058122766;0.083556;0.0057079038;-0.029404825;-0.2843828;0.08402691;0.09327689;0.28132012;-0.2420225;0.151748;-0.06362636;0.20818664;0.00967956;0.0882809;-0.04596165;-0.122548856;-0.28338462;0.09298551;0.075323254;-0.2580972;0.1102522;-0.17001268;-0.023545617;-0.020811293;0.096071064;-0.25403884;-0.2238794;-0.09396099;-0.03105729;-0.13611591;0.003836092;0.026420584;-0.002993314;-0.17481387;-0.1446991;-0.10304545;0.037517544;0.021384126;-0.012410205;-0.024052879;0.12874442;-0.08119237;0.0551246;0.022981444;0.14008233;-0.0898751;0.028319374;-0.12894268;0.2298923;-0.086867504;-0.16678552;-0.02564343;0.18094917;0.048841543;-0.11280842;0.2932006;-0.096935965;0.009350416;-0.03915524;-0.33038065;-0.114664316;-0.09699571;0.05048935;0.097343914;-0.097096175;-0.15870655;0.047013447;0.016321924;-0.05504848;0.113386676;0.09051542;0.027287163;0.11520861;-0.0743997;0.07534445;0.06593357;-0.030133598;-0.02831623;0.18778606;-0.12686144;-0.22445121;0.22972876;-0.11405818;-0.007957453;0.044067603;-0.09949485;-0.020438211;0.0046045543;-0.07370286;0.069523394;-0.12186724;-0.14681377;0.27607152;-0.16787559;-0.097209;0.011774499;-0.118071035;0.09439275;-0.10999044;-0.2666622;-0.013783391;0.21953095;-0.07873079;-0.051983543;-0.028021846;0.08338214;0.18313542;-0.103276044;-0.10056914;-0.20572598;-0.14836942;0.26305988;-0.10962874;-0.051961266;-0.19486998;-0.27944073;0.005031357;-0.33978823;-0.1367546;-0.0025274644;-0.25341013;-0.12379933;0.09584383;-0.028145585;-0.25243366;0.02479597;0.16568065;-0.020818518;0.03420833;0.12925686;0.127509;0.04731847;0.022748807;0.09631425;-0.025510771;-0.038097035;0.11334541;-0.0047776313;0.10523903;-0.040243175;0.14241517;0.07869846;0.17521137;-0.15446359;-0.12478626;-0.0241284;-0.120819055;-0.18558745;-0.06299837;0.18526809;-0.106192514;-0.008841661;-0.2596923;-0.14030015;-0.0060840887;-0.34317;-0.3152394;0.07879503;0.15473472;-0.17943816;-0.13298053;0.05401651;0.014685335;-0.1881081;0.17896783;-0.041727718;-0.14106326;-0.13452892;-0.00573772;0.31624135;0.19849688;0.17767224;0.2634985;0.13385688;-0.019633496;0.03538853;-0.16107135;0.07953368;0.035787996;0.2389701;-0.02522218;-0.003393944;-0.17949075;0.104620114;-0.1940657;-0.18480432;0.05221307;-0.032405153;0.28163666;0.09446442;0.21782085;-0.14231676;0.24969456;-0.011423217;0.17103203;-0.18244332;-0.14059967;-0.18861775;-0.038384948;-0.060475163;0.054820627;0.05919085;0.06527355;-0.19607113;-0.011881848;0.00598366;0.13691115;-0.035675425;0.16396852;0.03936659;-0.0944446;-0.053484596;-0.1987458;-0.2510982;-0.0073204185;0.03815161;0.033146847;-0.051237732;0.103608;-0.056623545;-0.028025415;0.025671754;0.11524342;-0.1533186;-0.065947905;-0.21317518;0.08724933;-0.20995826;0.031060977;-0.011530073;0.110980414;0.034651116;-0.11275265;-0.076180525;0.1619169;-0.11490327;0.18543649;0.007001998;0.060550388;0.02527271;0.15150487;-0.04916613;-0.0836672;0.12320528;-0.04263408;0.023300452;-0.30794424;0.14717102;0.05384297;0.047468983;-0.22322083;-0.017474225;0.1033995;0.0062747337;-0.15343873;0.24415816;-0.10002717;0.12554799;0.0012178122;-0.21428837;0.0041981894;0.02544004;-0.013493256;-0.15724827;0.12469932;0.17977798;-0.10938584;-0.04946054;-0.066564605;-0.09357704;-0.13531561;-0.030227607;0.005905848;0.08843064;0.02152247;-0.082189746;0.10505184;-0.11056596;-0.067483075;0.005242827;-0.09475303;-0.16662447;0.0043828627;0.11520447;0.057630416;-0.022422172;-0.073419295;0.09123269;0.06181732;-0.040465854;0.062075883;-0.2847863;0.20634872;-0.09646936;0.062734485;0.10593053;0.028123686;-0.06076781;-0.051232133;-0.16196623;-0.077868946;-0.3435737;0.16644034;0.11027398;0.055800013;-0.021513872;-0.05695153;-0.21885708;0.049422394;0.01153095;-0.0586136;-0.0973647;0.27059022;-0.113547325;-0.09925802;-0.08750368;0.035565194;-0.3419215;0.016553693;0.094116144;-0.19283038;-0.1733245;0.16304767;-0.11142221;0.046142478;-0.029611336;0.013186434;0.28171954;-0.026240345;-0.06659184;-0.010998995;0.05868489;0.012581395;-0.07019514;-0.31368485;-0.056718607;0.28477085;0.15386288;0.20063928;-0.038258392;0.11415165;-0.047664396;0.005272786;-0.051690925;0.18723501;0.08123735;0.10446155;0.2222878;-0.022675792;0.03673631;0.10675487;-0.07544514;-0.12902705;-0.11192042;-0.045529883
-0.14158565;0.13680968;-0.023430213;0.08993453;-0.02308641;-0.040767826;0.06943937;-0.05767579;0.112603694;-0.050409917;0.22853814;0.046933293;-0.058114212;0.005837956;-0.04754696;0.003789316;0.016927777;0.028798684;0.19534194;0.041516438;-0.00015866917;0.2480962;0.06869998;0.044604436;-0.01398297;-0.0324407;0.076163076;-0.09852234;0.016005618;-0.106075965;0.16442373;0.096869886;-0.223255;0.20528013;-0.037730247;0.08408727;-0.14119717;0.03068856;0.011067457;0.049238622;0.014650513;-0.049313635;0.058798112;0.06493723;-0.018365253;-0.20511603;-0.35460022;-0.030312354;0.04121898;-0.008371452;-0.18559708;-0.015021278;-0.057992756;0.02860769;-0.09448853;-0.18777914;-0.018849323;-0.18760994;0.12108105;-0.12413796;0.03846988;0.23823759;-0.3161198;0.13836446;-0.054578587;-0.10818358;0.18046272;-0.22532634;0.009275595;-0.18917415;0.074789055;0.061763413;0.09541037;-0.14596842;0.042080425;0.06385779;0.15352128;-0.122862466;0.12295063;-0.0062082796;-0.06750444;-0.0014425679;-0.14599773;0.24642517;0.12710784;0.11811812;0.030380897;-0.18300611;-0.12251347;-0.13957232;0.16526982;-0.035508066;-0.27185348;0.16727452;0.04141523;0.066101514;0.023436762;0.09936159;0.027631527;0.06601524;-0.052808892;-0.060356814;-0.14666845;0.13908164;0.19540942;-0.036140718;0.048855383;0.008535422;0.00017524633;0.08695305;0.014483611;0.058456816;-0.1097657;-0.115037724;-0.008671571;0.08299582;-0.2040921;0.0192774;0.0902302;-0.24774928;0.014399034;-0.03148377;-0.034145985;0.0107293315;-0.025871446;0.03300184;0.10909574;-0.16523951;-0.09209238;0.002215553;0.056507766;-0.08684421;0.05457578;-0.0033234335;0.13409106;-0.11043354;-0.08471543;-0.073441476;0.024519384;-0.059850994;-0.05589213;0.12169818;-0.06474088;0.22697519;-0.10706226;-0.054078504;0.042380292;-0.09274703;-0.14672276;-0.033464957;-0.17954277;0.027432652;-0.024077615;-0.0010788564;-0.1626713;0.019987078;0.044639427;-0.13702014;-0.014786533;0.14819987;0.032678414;-0.018197382;0.1626284;-0.05617222;0.05841455;0.026301207;0.016881166;0.029133858;0.17194642;-0.079716556;0.016164692;0.15617605;-0.0498601;-0.13024513;0.08143583;-0.02247744;-0.1066371;-0.064610235;-0.08957245;-0.09925367;-0.017010044;-0.22872207;0.0702618;-0.14651556;-0.09513257;-0.0026175585;-0.036510054;-0.04056554;-0.033488523;-0.08517441;0.13100097;-0.103625946;-0.039550874;-0.0015386655;0.033083502;0.068804905;-0.06601572;-0.17774689;-0.20780683;0.0800809;-0.2198547;0.077141345;-0.16672488;0.01049775;0.1563635;-0.15706164;0.12902905;-0.21156631;0.1574465;-0.17387217;0.10917201;0.06042285;0.027887786;-0.02492549;-0.16618212;-0.18552443;-0.10825977;0.11973475;-0.117780186;-0.06546401;0.19162053;-0.044876177;0.18386422;0.022853121;0.021116711;-0.25554845;0.098157294;0.07753365;0.2153072;-0.13547145;0.022147588;-0.13275643;0.030481631;0.033662107;0.020431358;-0.08064429;-0.020957349;-0.07531512;0.18290548;0.054197304;-0.118971586;0.118678875;-0.09187182;-0.039230555;-0.011788909;-0.03194919;-0.15594052;-0.1410914;-0.23830341;0.079292476;-0.011172665;-0.024523878;-0.121888615;-0.0016660248;-0.16726123;-0.017754598;-0.1931799;-0.10894587;0.009321093;0.105423965;0.06709118;-0.043909468;0.01571501;0.11470344;-0.12507348;0.13693051;-0.036024734;0.055757504;-0.07431663;0.10019913;-0.0073629925;-0.15684935;0.00722693;0.1236799;0.0804301;-0.24540514;0.2871704;0.011057237;0.09314935;0.023691602;-0.11841936;0.025430756;-0.054257434;-0.07495567;0.1345711;-0.2077256;-0.17144112;0.13254891;0.08621802;-0.10887411;0.1105791;0.10933226;0.031847883;-0.021795508;0.011088743;0.18355098;0.0067718057;0.014706698;0.010419188;0.06532999;-0.17990102;-0.083757624;0.22908586;-0.20125252;0.08164187;-0.00054012676;-0.1553934;-0.017280454;-0.0074867196;-0.11203293;0.01602956;0.054294933;-0.26090077;0.08826107;-0.12048693;-0.04371788;-0.0626127;-0.17098054;0.21464488;-0.011806208;-0.21312802;-0.13232322;0.1150456;-0.13100131;-0.067527674;0.03543495;-0.0605209;0.02675056;-0.102438584;-0.17933139;-0.14989299;-0.08664389;0.19954683;0.05526907;-0.20947462;-0.2696418;-0.286357;-0.10560847;-0.23423563;-0.050673462;-0.11521799;-0.23258997;-0.12208283;0.072266385;-0.043584477;-0.24002443;-0.013033286;0.28634146;0.009465286;0.02678932;0.082035735;0.045474853;0.13226008;-0.026745303;0.023033837;-0.026489923;0.040093247;0.2039087;-0.08941749;0.13247031;0.07962866;0.16500476;0.02684402;0.1437779;-0.07810411;0.029307634;0.019102689;-0.12974504;-0.12893653;0.050411895;0.2430945;-0.03792253;0.05012463;-0.20614715;-0.025409896;0.06608276;-0.24545626;-0.12390234;0.028064294;0.020096267;-0.08722976;0.00982768;0.03953202;0.1399798;-0.061146528;0.12207551;-0.008576324;-0.017750109;-0.08715516;0.08110924;0.12994298;0.04575714;0.15308802;0.2734287;0.2250351;0.092071146;-0.057283696;-0.021726351;0.13140438;-0.031902578;0.13345775;-0.055605136;-0.10113999;-0.19788134;0.01146081;-0.21905516;-0.08935994;-0.015262953;-0.076240145;0.28870538;-0.052964926;0.05914937;-0.1427413;0.17155199;0.031899605;0.23781393;-0.019429257;-0.01652397;-0.08001457;-0.11354711;0.09901962;0.100090325;0.14827456;0.021303045;-0.009425572;0.053067386;0.028164063;0.036342874;-0.04218776;0.113311075;0.05308759;-0.19457433;0.051902797;-0.22364384;-0.27464443;0.017738428;0.090582095;-0.10961022;0.067197815;0.080323204;-0.031689513;-0.08509197;-0.05522039;0.06792238;0.017643299;0.024466895;-0.14028506;0.18233848;-0.20952792;-0.022548597;-0.015169507;0.04721483;0.0131156035;-0.09707984;-0.22692642;0.070368685;0.04354334;0.23730648;0.13376284;0.12823674;-0.017417783;0.09928786;-0.090448335;-0.053522926;0.13320085;-0.010370564;0.062212914;-0.21727173;0.043545533;0.03041665;0.03347823;-0.28819236;0.013783794;0.06347139;-0.15938838;-0.12628177;0.22187711;0.020251244;0.190198;-0.1952688;-0.21757318;-0.09352573;0.05143205;-0.09312973;-0.17901911;0.04971294;0.05611616;-0.09625063;0.0220983;-0.13221034;0.011412058;0.05802198;-0.060529787;-0.15588069;0.0024154775;0.10587505;-0.14944163;0.18925318;-0.17712715;-0.085799344;0.029905384;-0.29186246;-0.280772;0.036999382;0.22115394;0.036984067;-0.11536703;-0.10744095;0.025482431;0.009095868;-0.121919625;0.014113326;-0.20189191;0.03416128;0.07116048;0.02201289;-0.018652555;0.118128166;0.063686386;0.06747301;-0.15073551;-0.12913282;-0.36480293;0.13469297;0.05588305;0.14646038;-0.08081669;0.062132347;-0.1201816;0.050619096;0.032655247;-0.0047320263;-0.14244588;0.14583634;-0.13065724;-0.19379847;-0.2474023;0.10305223;-0.30766746;-0.041851606;0.057691507;-0.14644839;-0.10201843;0.11683269;-0.2357159;-0.04964294;-0.15601224;-0.069770366;0.11950086;-0.05363518;-0.015265179;0.10112011;-0.10241545;0.011030118;-0.07642128;-0.16225335;-0.19439638;0.31693208;0.09836258;0.21803415;0.07669398;0.09135599;0.08553913;-0.015525024;0.0827089;0.17046021;0.09058679;-0.052053165;0.25414786;0.056092586;0.040129095;0.21962745;0.03469651;-0.11064051;0.05468196;0.13159885
0.009597116;0.18661994;-0.0059562745;0.20102908;-0.059508648;-0.16210835;-0.00644446;-0.03716218;-0.014767203;0.10909983;0.018097837;0.03568065;-0.032294318;0.047091845;-0.0614384;0.099523485;-0.105004594;-0.16401993;0.008774734;0.08219692;0.032678504;0.06516966;-0.068491764;-0.038230434;-0.006923297;-0.086419664;0.015183016;-0.06545525;0.007919953;-0.047159262;0.113540985;0.044307698;-0.2493894;0.17504598;0.07158513;0.006826267;-0.18670404;0.089963794;-0.033913556;-0.017981855;0.041845087;0.007910491;0.020835755;-0.04674682;0.04634703;-0.18686444;-0.25403395;0.031927925;0.21087629;-0.06170431;-0.11781315;-0.0072601167;0.037868205;-0.058355708;-0.008763113;-0.15590099;-0.09833279;-0.1637385;0.19080625;-0.17242771;0.07055587;0.19806828;-0.23055826;0.064092286;-0.050017703;-0.11878513;0.12799363;-0.14713418;-0.046248022;-0.02598769;0.2307854;0.04916189;0.072796516;-0.0471556;-0.016219433;0.10998747;0.22128224;-0.14381142;0.07969684;-0.02335849;-0.1888816;-0.019034205;-0.13784097;0.0941278;0.08335286;0.021173539;-0.042604588;-0.10604847;-0.07149763;-0.25679234;0.058334246;-0.050519962;-0.20533776;0.09899339;0.016583802;0.055603556;-0.0051967655;0.22248274;0.1619494;0.1335353;-0.15881054;-0.19793388;-0.1561228;0.14507832;0.078075826;-0.0897847;-0.05760975;0.032434743;-0.10387253;0.0012668197;-0.13537887;0.028328523;-0.13478611;-0.15343918;0.06925324;0.04808096;-0.22765982;0.03896224;0.06258088;-0.31109032;-0.11902491;-0.07919764;-0.07740459;-0.06491464;0.06491558;-0.052988883;0.17401621;-0.28164527;0.048374698;-0.026115786;0.121494524;-0.017114704;-0.12227393;-0.035311203;0.14143647;-0.104528576;-0.11527037;-0.15384266;-0.04611168;-0.22620997;-0.0014589315;0.024018759;0.00565982;0.07749892;-0.26884925;-0.14668763;0.069321156;-0.014936981;-0.28036577;-0.053393986;-0.21703383;0.067648225;0.03299152;0.07163684;-0.19224496;0.104130805;0.04808915;-0.13273238;0.005951169;0.1002458;0.012508526;-0.19944064;0.053790275;-0.10228534;0.03834588;0.11896567;-0.07643445;0.084898464;0.16958831;-0.14063342;-0.15048268;0.01653808;0.10642159;-0.025571864;-0.011215664;0.043607596;-0.17322834;-0.046391405;-0.17513774;-0.055302896;0.0095055625;-0.1865965;0.066604584;-0.0794383;-0.07383572;-0.040527698;-0.09194886;0.028196868;0.103238486;-0.0048164306;0.099575035;-0.10926674;-0.094957925;0.004920652;0.07131164;-0.022045001;0.034631103;-0.10504727;-0.2659115;0.04311598;-0.12958157;0.023709724;-0.07152123;0.019852843;0.08954554;-0.15619996;0.16022867;-0.091888644;0.080801815;-0.17240407;0.04480431;-0.05984479;-0.039364163;-0.029798118;-0.024488775;-0.24215211;-0.052554794;0.16403818;-0.0024835682;-0.0071030925;0.14807652;0.04720368;0.19106498;-0.17163828;-0.05266908;-0.34228054;0.12418225;0.2069144;0.16961308;-0.055240043;0.14965789;-0.16951737;-0.044742778;-0.06596783;0.0779352;-0.08084044;0.09387038;-0.10934347;0.11887888;0.036905173;-0.21070325;0.004959122;-0.077471904;-0.10596954;-0.1213424;-0.06618179;-0.20195715;-0.21842687;-0.29143462;0.113945544;-0.21757333;-0.017154133;0.063218355;0.013096922;-0.18343014;-0.16637897;0.0053304085;0.1071438;0.05064233;0.086194985;0.032518547;-0.0152457785;-0.026622348;0.15221772;-0.10225352;0.11903623;0.07866212;0.035707626;-0.12191495;0.19728573;-0.019026855;-0.03330729;-0.06748485;0.17974734;0.025808208;-0.085024826;0.288649;0.06657404;0.013594075;-0.012005209;-0.15301731;-0.12693067;-0.030904237;-0.091443874;0.088419065;-0.14914797;-0.007858581;0.19604863;-0.045633566;-0.079777956;0.08835381;0.01520587;-0.07337931;0.030569179;-0.13692759;0.1533936;-0.08879929;-0.0006352845;-0.16763917;0.092656106;-0.15025814;-0.18373886;0.21473502;-0.21188311;-0.003761805;-0.07875826;-0.070511065;0.03124164;0.07257211;-0.16793552;-0.04484716;-0.058440853;-0.10424027;0.20006049;-0.14854316;-0.067172095;0.029291216;-0.14538027;0.14874487;-0.099257216;-0.1196198;-0.064550236;0.17274599;-0.05961953;0.10162406;-0.0138601065;-0.07557236;0.006951512;-0.07834111;-0.21593088;-0.3356751;-0.21132676;0.17550905;0.108080536;-0.010697797;-0.14848438;-0.19162221;-0.09684309;-0.21478619;-0.19496664;-0.028456263;-0.30722103;-0.111320004;0.0786533;-0.08241109;-0.29035378;-0.07189321;0.20545764;0.0016547525;0.040205207;0.085794896;0.092489794;0.02096087;0.015293557;0.090134315;-0.036768407;-0.1076409;0.15064979;0.06949393;0.14040472;0.041493088;0.13650715;0.17698471;0.2053813;-0.030490413;0.020957524;-0.004176429;0.008655066;-0.1621794;0.03537456;0.1957532;0.008880256;0.013294448;-0.053627525;-0.06564684;-0.023671048;-0.3202056;-0.22095558;0.03087525;0.018824477;-0.21972306;-0.24656749;0.07331909;0.020034468;-0.09544808;0.11380102;0.015149749;-0.10877633;-0.0070334626;0.069444;0.20758256;0.073099196;0.0893131;0.3067447;0.124015465;0.10665431;-0.011766863;-0.11224922;0.08857087;-0.034621987;0.19327556;-0.09605313;-0.035753757;-0.16971095;0.06687368;-0.3638712;-0.17828858;-0.03977561;0.06542506;0.10527769;-0.019175937;0.05237468;-0.19729891;0.19189815;0.060222983;0.15567963;-0.07806745;0.071935624;-0.21746282;0.0022115512;-0.034663625;-0.030896822;0.04292088;0.050735235;-0.15648262;0.075412944;-0.051945552;0.15516014;-0.043089546;0.112538576;0.08350015;-0.2509213;-0.05219625;-0.22355437;-0.29076925;-0.097728595;0.044751804;-0.06408238;-0.09375477;0.11709708;0.06699896;0.065744944;0.0070537804;0.12804814;-0.01425716;0.04087476;-0.13322146;0.21733645;-0.26884228;-0.020420395;-0.04127434;0.036442213;0.051976677;-0.10440446;-0.1052116;0.23335025;-0.030059192;0.22616379;0.09582207;0.035779577;0.063702196;0.0813422;-0.09631703;-0.06789299;0.15155727;0.06929864;0.19121838;-0.18069494;0.040274937;0.027811283;0.07737431;-0.11934646;-0.006203772;-0.019713767;-0.14916153;-0.16666482;0.26379064;-0.03990947;0.071393594;-0.019303344;-0.29384363;0.031191275;0.07376818;-0.071751;-0.17588633;0.050055597;0.13284248;-0.09783262;0.12060196;-0.14827919;0.007637822;-0.027185155;0.019242724;-0.09968115;0.05071528;0.10974758;-0.03257292;0.19218525;-0.10910083;0.08478202;-0.09755616;-0.024400944;-0.16881908;-0.107000045;0.29741636;0.07568773;-0.13041627;-0.041522045;0.030274345;-0.026307937;-0.0910863;0.07604183;-0.24687126;0.1544066;0.09291743;-0.05103036;0.11335733;0.124465324;0.069128;-0.046361115;-0.12833418;-0.1884101;-0.39361522;0.06870013;0.016843427;0.09253065;-0.09065368;0.021359183;-0.082931206;-0.020835636;0.08996617;0.015169563;-0.043011732;0.10559049;-0.04002359;-0.12986317;-0.099647544;0.10690495;-0.39084533;-0.022042707;0.17492421;-0.10647412;0.053075135;0.008823736;-0.2124934;-0.02251036;-0.10302525;-0.02573482;0.24481097;0.042416267;-0.078687176;-9.1525915e-05;-0.04917272;0.062075146;-0.08763747;-0.17135741;-0.1947526;0.29709953;0.04784385;0.23682396;-0.021659685;0.11572956;-0.032518815;0.10057797;-0.017852802;0.1368165;-0.088057935;-0.012445987;0.21147864;0.04230969;0.013854544;0.1098845;-0.041839078;-0.026101544;0.059025224;0.06102867
-0.00034286425;0.24454878;-0.009224853;0.1455098;-0.014153979;-0.019242978;0.031117242;0.081489086;0.08135697;0.01996227;0.08869403;0.05528125;-0.04426989;-0.09705137;-0.009197183;-0.047529243;-0.010552724;-0.085712;0.093953356;0.088471904;0.023517832;0.15071513;-0.046344854;0.05974398;-0.15600242;0.018856404;0.1247956;-0.21764944;0.047533344;-0.0028534264;0.08437944;0.17411757;-0.25201452;0.17515129;0.19836058;0.0312814;-0.22196226;-0.013078614;-0.07175405;-0.018201826;-0.037632015;-0.071316056;0.03381727;0.029501932;0.004780994;-0.11863273;-0.3462339;0.0364803;0.19308446;-0.11715467;-0.049655538;-0.010737243;-0.07232434;0.04608662;-0.06383903;-0.09400425;-0.033530492;-0.07535323;0.10324576;0.0026933146;0.05592696;0.24180432;-0.1835682;0.14389965;0.012092592;-0.15361716;0.22029613;-0.10475188;0.011477155;-0.09620261;0.15148914;-0.08249389;-0.011566009;-0.19943808;0.099926695;-0.0042537455;0.22460987;-0.043929946;0.035480257;-0.06752701;-0.045460436;-0.16318884;-0.13036022;0.2082638;0.07118078;-0.0011631534;-0.09488967;-0.11061466;-0.033050187;-0.22321902;0.09384293;-0.16690296;-0.24768806;-0.03943049;0.12056824;-0.0006782803;0.0530533;0.1889007;0.22574139;0.12740935;-0.14132042;-0.20115538;-0.0783218;0.08272921;0.09086394;-0.12133057;-0.07920571;-0.0012104008;0.032961603;0.1037269;-0.08642993;0.06256299;0.015085115;-0.12325105;-0.06570529;0.12237942;-0.03931438;-0.03792576;-0.047345117;-0.24574918;-0.013159613;-0.100509495;-0.021820253;0.0036873792;0.06337609;-0.093308285;0.27281874;-0.1340071;0.0028487272;0.08017483;-0.06534205;-0.029236391;0.0075749555;0.0053155217;0.0015716181;-0.08829584;-0.062011678;-0.15395655;-0.030450342;-0.15765403;-0.05992581;0.10453682;0.028928194;0.019388288;-0.32269615;-0.10678384;-0.05933143;0.024341157;-0.30203605;-0.086768165;-0.22128496;-0.036802936;-0.0143869035;0.13990025;-0.114768;0.021848937;-0.032433763;-0.10970519;0.052064214;0.10174627;0.08243137;-0.23735926;0.14397952;-0.10692717;0.047168158;0.12835208;-0.11248667;0.07898048;0.17343675;0.0168057;-0.055536326;0.0018069437;0.07575093;-0.08152044;0.058479838;0.015288935;-0.21158357;0.0952848;-0.20809042;0.055055287;-0.030546395;-0.19785024;-0.006917575;-0.1366568;-0.1981659;-0.039692573;-0.0001652767;0.025394421;0.004979214;-0.036474224;0.15343152;-0.021989359;-0.1607526;-0.0826193;0.07236643;-0.050880045;-0.0904207;-0.14980023;-0.2215381;0.06103641;-0.2182703;0.079430245;-0.0687301;0.05647611;0.06731953;-0.28162086;0.16200553;-0.12485303;0.0454883;-0.120230965;0.12017296;0.07233811;-0.033392508;-0.06940859;-0.034733206;-0.16596697;-0.16158804;0.22606619;-0.0057326034;0.007738037;0.2102726;-0.07477133;0.13240504;-0.10511955;0.06733439;-0.21722648;0.08436021;0.17138577;0.17872219;-0.079284705;0.09665438;-0.17896117;-0.09483111;-0.008186259;0.07609208;-0.14238214;0.0029836001;-0.06544741;0.08427325;0.010559159;-0.14758854;-0.01613569;-0.11787479;-0.030889811;-0.18984544;-0.09970125;-0.2661633;-0.07427085;-0.13381761;-0.008748433;-0.23361708;-0.069918856;0.010507721;0.0418033;-0.1177942;-0.17487033;-0.032166656;0.076413676;-0.0064835027;-0.0060214545;-0.029229414;-0.08465588;-0.059827358;0.1334591;-0.08228471;0.21645088;-0.006309868;0.08407367;-0.02488008;0.17432316;0.019640857;0.0044795345;-0.100057155;0.015138698;0.045180105;-0.21012579;0.17072581;0.06477509;0.1607442;-0.056158856;-0.24613374;-0.013881196;-0.117551185;-0.0063321376;0.21694389;-0.08859109;0.025795575;0.15514737;0.096566595;-0.13249794;0.053592004;0.15446855;0.10573497;0.111260094;-0.090269014;0.05150378;-0.051240243;-0.012574854;-0.039343115;0.116173364;-0.11329574;-0.16233855;0.15922454;-0.290811;0.017884657;0.015688688;-0.14770246;0.038486727;0.0024398512;-0.031889737;-0.0046715178;-0.030688735;-0.22740912;0.16098553;-0.13005723;-0.11555941;-0.0034687857;-0.21306106;0.082012415;-0.016276449;-0.100391544;-0.058975413;0.1986671;-0.08041567;-0.06561814;0.11768669;-0.06376512;-0.007179798;-0.10557687;-0.17864864;-0.20432723;-0.23110552;0.055695046;-0.062016;-0.15070467;-0.29220173;-0.18060853;-0.13503823;-0.2953591;-0.035616465;-0.06602253;-0.31539512;-0.119066715;-0.032939743;-0.08846363;-0.30672082;0.106250525;0.25785965;0.039559465;-0.0034510784;0.10418567;0.06872111;0.11246602;0.05961236;0.026072532;-0.018992951;0.033205163;0.042624302;-0.008680755;0.17507063;0.031786222;0.11604464;0.06051051;0.036375664;0.0387233;-0.04757644;0.0041999896;-0.02229409;-0.054147325;-0.023563154;0.07296165;-0.1367664;-0.034072492;-0.062145334;-0.005448841;-0.0016921156;-0.22888687;-0.12652221;0.12178645;-3.9560822e-05;-0.19952548;-0.15399258;0.06294387;0.033419155;-0.099176675;0.10371259;-0.07596736;-0.060133632;-0.015402757;0.037786104;0.02755014;0.21023586;0.12646009;0.3314144;0.08616118;0.08465368;0.028214505;-0.169209;0.13021071;-0.09636435;0.23170415;-0.05379059;0.0224322;-0.06729529;-0.115182884;-0.26762983;-0.21616916;0.047482558;-0.08178742;0.1839995;0.023821117;-0.046185978;-0.27741784;0.07551992;-0.080849886;0.16414022;0.086443305;-0.009797672;-0.21861176;-0.012596927;0.09156511;-0.026128167;0.011394785;-0.052618455;-0.16709387;0.11196806;-0.048080996;0.121926576;0.07961434;0.031297352;-0.10103116;-0.19176391;0.0773208;-0.19264208;-0.20211035;-0.09602654;0.05138114;-0.1360904;-0.022521565;0.18403107;-0.021046435;-0.009353006;-0.017890554;0.1458481;0.06980419;0.113455646;-0.19571322;0.21022801;-0.17428438;-0.013494258;-0.044742092;0.0012564887;-0.07197271;0.0031719278;-0.25690535;0.1857919;-0.09595422;-0.013490753;0.0058761076;0.10002733;0.09118837;0.066621915;-0.020715943;-0.16343829;0.105265066;0.05332827;0.040487442;-0.19260113;0.09585072;-0.08631212;0.0018335624;-0.12824652;-0.051531207;0.119062655;-0.19154519;-0.14074056;0.24747261;-0.11363926;-0.01786142;-0.022172447;-0.26950833;0.01884463;0.023743808;-0.2252213;-0.14216447;-0.055534102;0.1606146;-0.060958665;0.072526716;-0.09609025;0.027743965;-0.030178117;-0.022532357;-0.18551621;0.050079335;0.097066656;-0.020709183;0.25447726;-0.14596547;0.097943604;0.0364773;-0.13395076;-0.17612512;-0.1261008;0.29242074;-0.044981588;-0.087148234;-0.01567777;-0.018046698;-0.07946174;-0.04525698;0.079565346;-0.24699287;0.023498045;0.07422729;0.042336147;-0.031273488;0.11595635;0.15248786;-0.05822765;-0.17156929;-0.116395436;-0.3296399;0.015135643;0.1340301;0.06782044;-0.05850022;0.0002947191;-0.16109933;-0.06246189;0.113852054;-0.0046573877;-0.10168359;0.15399057;-0.04183744;-0.3122715;-0.07130399;0.13673566;-0.40587702;0.16553818;0.05001827;-0.076679215;0.03296894;0.08721689;-0.2854159;0.007863407;-0.024620067;-0.13655294;0.27672935;-0.03764951;-0.11984386;0.07600234;-0.09407754;0.06507259;-0.11995757;-0.14858906;-0.23736125;0.23341133;0.03026024;0.18374756;0.04067828;0.0077193226;0.024931474;0.008442135;-0.048405364;0.272311;-0.007109068;-0.0048828674;0.11363212;0.028224498;0.030211585;0.16372325;0.00313931;0.07867801;0.121675;0.03192728
-0.028844742;0.14672332;0.02940036;0.052134477;0.06668134;-0.20462993;0.06694937;0.10499672;-0.02665777;-0.05843584;0.21376897;0.15914626;-0.13737181;0.0074544805;-0.034418676;-0.15110093;0.024402682;-0.21513477;0.11760962;0.08115201;0.117155366;0.07078632;-0.05998874;-0.0449842;-0.078734696;-0.10575935;0.07693008;-0.11275745;0.10881115;-0.06320284;0.10083608;0.048904695;-0.11419303;0.06501515;0.19678763;-0.023308313;-0.17654224;0.0023176838;0.08559925;0.020930294;-0.0924783;-0.030116698;-0.03633054;-0.12659504;-0.04890862;-0.12697595;-0.22693764;-0.03745696;0.15246254;-0.06540648;0.016110703;0.109571084;-0.114898376;-0.010522251;-0.07926497;-0.10574648;0.07210643;0.0059661767;0.074657656;-0.005149995;0.0639348;0.12505384;-0.028965272;0.013312309;0.015499597;-0.024559848;0.12411645;-0.14084871;-0.01653665;-0.0424598;0.09311697;-0.07441196;0.024295378;-0.14898548;0.11724423;0.06860884;0.0735147;-0.03857467;0.14392242;-0.1424424;0.07490285;-0.17832555;-0.07653634;0.105994076;0.028528744;-0.058581788;-0.0022394308;-0.06209208;-0.0065037943;-0.30383795;0.19478934;-0.1360902;-0.21329804;-0.124827;0.0186063;0.03879272;0.08674694;0.10535726;0.19327034;0.11733255;-0.09710924;-0.18860877;-0.0024724982;0.11166278;-0.08347744;-0.093435034;-0.07854441;0.0023213075;0.009599187;0.08881262;-0.10171308;0.058292374;0.04461573;-0.09267981;0.027217722;0.15897165;-0.06595317;-0.033221792;-0.04598191;-0.23507021;0.011353452;-0.0855511;-0.08700368;-0.09270363;0.0024255754;-0.08160115;0.0327637;-0.06572639;-0.0037373244;-0.0030125033;-0.061572533;-0.061135788;0.07024985;0.0484719;0.18009384;-0.08868381;-0.05432682;-0.022997499;0.042219184;-0.10048063;-0.05627659;0.18170932;-0.05383561;0.14929686;-0.23222357;-0.19898729;-0.0872424;0.117358916;-0.31333405;-0.012220566;-0.18604298;0.15168497;0.12827356;0.11919201;-0.16735943;0.027991578;-0.12962213;-0.18169291;-0.061881978;0.17538781;0.1312387;-0.1512483;0.10302636;-0.15707563;0.061266106;0.008526412;-0.21462493;0.031263977;0.13537109;-0.120480426;-0.23888597;0.08128844;0.022023976;-0.10651242;-0.030507987;0.026383137;-0.057853915;-0.006173753;-0.16415071;-0.010559081;-0.09588888;-0.14315698;-0.09926443;-0.086468935;-0.14711553;-0.039558254;0.009626543;0.11179796;0.07563019;-0.16392612;0.019897725;-0.03435003;-0.08205466;-0.108781405;0.07574167;0.055688538;0.02394787;-0.036172394;-0.20037785;0.08979632;-0.1836861;0.062462263;-0.10326014;0.09450552;0.02948728;-0.28608316;0.053013347;0.032765232;0.034362365;-0.21978036;0.13582602;-0.035949904;0.08415001;-0.14368649;0.041063577;-0.19347768;-0.0030314354;0.19524913;0.017361488;0.012684008;0.15417397;-0.07645943;-0.028170748;-0.10534682;0.002423174;-0.27649644;0.085012846;0.07194787;0.18156135;-0.10341186;0.09789166;-0.063229755;-0.10653738;-0.0108471215;0.07824581;-0.13620861;-0.08888054;-0.09306977;0.037350457;-0.015464933;-0.053052805;0.01172266;-0.13341956;-0.12983482;-0.15131804;-0.03812603;-0.1752562;-0.16828738;-0.17967334;0.08165524;-0.21409959;-0.14979826;-0.047689456;0.021118375;-0.17529568;-0.21871644;-0.037593532;0.005622166;-0.07962404;0.015178639;0.04504312;0.0074847816;-0.08502731;0.048156194;-0.009532087;0.077515446;0.058513362;0.07519404;-0.027980175;0.13162503;0.02166399;0.036015444;0.010552257;0.028574707;-0.048886098;-0.09282229;0.2189384;-0.040587034;0.19373861;0.04811391;-0.18412237;-0.109298564;0.086991936;0.007339873;0.15432563;-0.15703976;-0.03356352;0.07687173;-0.12978035;-0.11423495;0.04100722;0.075769536;-0.076173194;0.200068;0.022651339;0.119636096;-0.06746146;0.027165886;-0.15055044;0.030189369;-0.12510115;-0.19143328;0.07632376;-0.20823921;0.08794254;0.1057311;-0.18579638;0.029190492;-0.06604488;-0.052046835;-0.10562802;-0.034912772;-0.08231314;0.21998118;-0.25223783;0.00019862951;0.11577499;-0.18560176;0.05866759;-0.023110967;0.012092377;-0.10071117;0.12808323;0.0076672025;0.038950313;-0.039222315;-0.035482265;-0.05810572;-0.018328298;-0.056377176;-0.38454753;-0.23376252;0.09472618;-0.076438986;-0.27146205;-0.25241894;-0.13023515;-0.24157912;-0.31735083;-0.102258906;-0.111945905;-0.12768859;-0.036859468;0.014257783;-0.18798424;-0.23143354;-0.026405687;0.26099297;0.022947581;-0.09321587;0.02470005;0.10565714;0.13689925;0.13429686;0.08128882;-0.026249938;-0.03690809;0.026434373;0.022678103;0.21876422;-0.13438459;0.11429951;0.080508135;0.06860672;0.07688026;-0.06687991;0.017832639;-0.09614403;-0.020553935;0.09382872;0.10623905;-0.020939203;-0.07861546;-0.010322851;-0.10430539;-0.1139521;-0.14207162;-0.12497327;0.12705661;-0.034755956;-0.122006245;-0.13674533;0.0055642724;0.001111638;-0.020870302;0.08707405;-0.09914404;0.016401457;-0.1361371;-0.065329395;0.13361192;0.11473941;0.14543949;0.40409595;0.15261896;0.011111849;0.10567853;-0.10707165;0.12621309;-0.0131722875;0.16953167;-0.11673522;-0.08379929;-0.10088598;0.0018396464;-0.14239824;-0.13898377;0.08430202;-0.13359907;0.21402423;-0.0038258932;0.06141198;-0.21069089;0.14480548;-0.019026672;0.17788851;0.06490657;0.0480698;-0.15298147;0.031243743;0.08251315;-0.03925284;0.042573158;-0.07201632;-0.0417706;0.10106531;0.020409787;0.054210816;0.018344577;-0.0060815644;0.025861582;-0.1656161;0.044022076;-0.22953492;-0.23127176;0.0087509565;-0.05377216;-0.10533136;-0.016388722;0.029273883;0.06400914;-0.021313427;-0.041794118;0.14217474;-0.07467393;0.01907421;-0.20030904;0.21774171;-0.17813219;0.025129661;-0.095664844;0.041992877;-0.105753206;0.06913116;-0.18010545;0.11598024;-0.17611918;0.0858688;-0.098316394;0.063258275;0.025206324;0.022813668;0.033476617;-0.12113535;0.14408365;-0.02307786;0.14225893;-0.21458027;0.18046544;-0.15803172;0.10723289;-0.21859008;-0.12994397;0.099322885;-0.06251096;-0.16232139;0.011100597;-0.023926968;-0.03902682;-0.008564991;-0.3266052;0.10071453;0.04636759;-0.2203248;-0.12611644;-0.0610592;0.09723095;-0.12986933;-0.021818979;-0.08934723;-0.025957169;-0.025035353;-0.1118545;-0.17140514;0.12755644;-0.034373946;0.07848443;0.19991642;0.07040624;-0.08387037;-0.036590595;-0.24012364;-0.07880826;-0.08969352;0.30672178;0.022071827;-0.13916938;-0.105955794;0.02662729;-0.113549784;-0.05735097;0.08899025;-0.15190256;-0.022067264;0.05744568;-0.046689063;0.059855085;0.13977635;0.11198266;0.027426517;-0.13748217;-0.10404769;-0.3228424;0.06471148;0.053140845;0.09077358;-0.014273448;0.06345032;-0.09760852;0.049508568;0.07775786;-0.046536192;0.064390376;0.1033708;-0.13916744;-0.2988402;-0.077599205;0.19264281;-0.39055458;0.17206405;0.1504788;-0.09968937;-0.086095184;0.034312963;-0.26183552;0.008211705;-0.081945784;-0.081328414;0.30975884;0.16470596;-0.04889221;0.0653464;-0.0956285;0.0067198314;-0.07778471;-0.23081942;-0.19848654;0.20192654;0.13608734;0.17432152;-0.00040192917;0.03564834;-0.044203453;0.021555591;-0.0051051113;0.22762255;-0.0010154772;-0.049324807;0.079597406;0.037367098;-0.00076231186;0.09274436;0.05079385;0.08510078;0.099505186;0.15540767
0.031392008;0.030936953;0.1905619;0.06415412;0.051025346;-0.22266793;-0.03079267;0.05594769;-0.0020504019;0.0292546;0.13966374;0.21062025;-0.048609976;-0.024395777;0.06635103;-0.12226526;0.050129503;-0.13595872;0.16797748;-0.035003465;-0.060121723;0.018503984;0.03790792;-0.014467982;-0.13098212;-0.05630418;0.038259752;-0.09922571;-0.0130974045;-0.11439628;0.13342734;0.15147199;-0.10860157;0.07980499;0.22068475;-0.06718012;-0.27887207;0.10231164;0.071213365;0.058936432;-0.062142618;0.060935576;0.067991056;-0.086511366;-0.011126778;0.047938593;-0.22806561;0.055575565;0.2222263;-0.007777631;-0.023204856;-0.01261572;-0.020429274;-0.008623165;-0.0040355646;0.0162875;0.0496034;-0.12547217;0.03157322;0.026078776;0.028352754;0.20726372;-0.016679833;0.1190578;-0.06912689;-0.064044245;0.1425692;-0.06570853;-0.031621933;-0.042031627;0.16038284;-0.07493665;-0.06629361;-0.029352529;0.11990405;0.080269866;0.15061003;-0.08121804;0.14756317;0.02743661;0.043570787;-0.17304635;-0.07022424;0.05425539;0.020724103;-0.041913457;-0.03531163;-0.07171349;0.014232968;-0.27244753;0.2109876;-0.18767741;-0.26720765;-0.18503433;0.01488105;-0.037936546;0.073431835;0.10333889;0.17420556;0.0952083;-0.1247215;-0.21236902;-0.08573514;0.06433145;0.008548099;-0.1856281;-0.061887234;-0.00909702;-0.094161786;0.07674879;-0.2073711;0.17665793;-0.00048102924;-0.22052932;-0.04572355;0.096533805;0.08169562;-0.041693147;-0.099023186;-0.32064164;-0.06134227;0.112429515;-0.047264293;-0.014186088;-0.0020997755;-0.15975775;0.061437882;-0.1837075;0.10653576;0.029342579;-0.09628549;0.011415502;-0.058771815;0.072767094;0.10233642;-0.19642109;-0.066582724;0.062776454;-0.018995961;-0.04214032;-0.14468704;0.20106266;-0.11635481;0.044674527;-0.20812409;-0.14856595;0.01966279;0.10045666;-0.24816613;0.02351372;-0.20221683;0.09402087;0.1275336;0.21490604;-0.24312812;0.11555652;-0.14084096;-0.1196917;-0.05147558;0.20490406;0.09212258;-0.18199663;-0.019458115;-0.116850324;-0.013269435;-0.008806306;-0.053828444;0.12076018;0.09169886;-0.08768148;-0.09453454;0.055669483;-0.058551747;-0.12421688;-0.12695076;-0.04908766;-0.06401208;0.056501385;-0.17845632;-0.060256455;0.016766772;-0.09247964;-0.11806512;-0.10910053;-0.03445542;0.17788339;0.05753691;0.03966105;0.11013351;-0.05836599;0.17449962;0.003542459;0.009132902;-0.033823114;0.06248694;-0.021447875;0.051819455;-0.20685881;-0.12745489;0.14351194;-0.22469103;-0.028479941;-0.033990223;-0.011637737;0.03710838;-0.27909467;0.15861918;0.030556258;-0.030164018;-0.19522534;0.18618098;0.019274956;0.08317115;-0.1308122;0.03420187;-0.02764538;-0.075865254;0.17924084;-0.12530613;-0.1617793;0.08859298;-0.09692242;0.033042848;-0.09050135;-0.11792934;-0.20184179;0.033005066;0.010606703;0.10902062;-0.06610565;0.052810796;-0.07950118;-0.034466002;-0.05935838;0.10120243;-0.03601597;-0.0013013933;-0.10356882;0.061230257;-0.054604717;-0.13380264;0.03708635;-0.006835441;-0.042582273;-0.159922;-0.01915501;-0.04899597;-0.18610436;-0.2781628;0.15096016;-0.2917153;-0.17387295;-0.015704345;-0.07119921;-0.049265288;-0.20576899;-0.10228617;-0.0023454537;0.025667995;-0.090740465;-0.040774934;0.093275726;-0.01731981;0.14836927;-0.09522025;0.1972993;0.05771167;0.029792521;-0.026731657;0.04698178;0.057999596;-0.055024188;-0.018695787;0.08309343;0.057778273;-0.11472059;0.12604782;-0.0707907;0.10767588;-0.060055967;-0.15119949;-0.12673292;-0.016233757;-0.13606723;0.08438302;-0.1858692;0.011912284;-0.032971177;-0.1234693;-0.16223721;0.017692696;-0.05935719;-0.12519245;0.17701739;0.009726167;-0.05537191;-0.10655049;0.03871674;-0.116548955;0.14214163;-0.17438953;-0.2355202;0.08894046;-0.14745894;0.10586067;-0.0059440373;-0.21529263;0.062407885;-0.027802316;0.0014183755;-0.12547436;0.11555702;-0.076107845;0.09576841;-0.04489979;-0.025764808;-0.03755077;-0.20601228;0.10198084;-0.08646522;0.08088956;-0.062051017;0.21273625;0.02602086;-0.16744041;0.029349716;0.067373306;-0.08390918;-0.063806094;-0.07931262;-0.349198;-0.18497407;0.094183154;-0.046982445;-0.24963592;-0.17125876;-0.13591507;-0.14710705;-0.24069703;0.02319528;-0.054232523;-0.035357736;-0.14736345;-0.0071011987;-0.11103249;-0.16817111;-0.020991668;0.31773436;0.059780795;-0.08212921;-0.04379961;-0.003063359;0.17018339;0.06812582;0.14703605;-0.0834026;0.09109909;0.10313764;-0.03773579;0.1657795;-0.12641896;0.18027247;0.24339755;0.1066944;0.08140822;0.015363162;-0.14341833;-0.13203771;-0.04002452;0.02934136;-0.042842526;-0.078190506;-0.030555125;-0.13739653;-0.045051124;-0.1319145;-0.08477791;-0.120437026;0.084731795;-0.048823528;-0.08861512;-0.06314399;0.061109196;0.02001042;0.0025802462;-0.02187852;-0.034736253;-0.09560363;-0.07994972;0.026047228;0.041931752;0.15500392;0.1332147;0.39268002;-0.01446535;0.0124787465;0.14349675;-0.08018661;0.031581234;-0.14598049;0.16929467;-0.014919889;-0.13700172;-0.14496681;0.028990969;-0.19924682;-0.25623426;0.030159831;-0.011748577;0.23359695;-0.046517774;-0.057560492;-0.21952069;0.1693904;-0.0933966;0.27847952;0.13126309;0.029085455;-0.11582632;0.0877313;-0.060475435;-0.1009198;0.10612893;-0.024746805;-0.042449247;0.085983865;0.059574306;0.009716645;0.031546045;0.10083166;0.0060889646;-0.20658284;0.16230328;-0.19171067;-0.3265114;-0.113935515;-0.057834636;-0.10846901;-0.1003169;0.09403322;-0.08821888;0.0068099923;-0.13214746;0.12670116;0.099087514;0.044708945;-0.16054337;0.17550214;-0.15555309;-0.015447019;-0.014911865;-0.0018025216;0.0644502;0.039669286;-0.32609203;0.19785394;-0.17601916;-0.08052319;-0.044709772;-0.10231012;0.06620056;0.13616922;-0.0023229476;-0.25134602;-0.021552855;-0.10166859;0.17521787;-0.19917467;0.10211729;-0.07312084;0.052453913;-0.3043203;-0.14987905;0.22490077;-0.03681227;-0.023676546;0.041849907;0.06733422;0.005674853;-0.04112684;-0.3262631;0.017908677;0.06181596;-0.18293485;-0.1740944;0.008474528;0.054274265;0.023198882;-0.037217442;-0.06833735;-0.11989675;-0.0028919433;0.050064895;-0.067731455;0.01006385;0.055502556;0.035266194;0.1373371;-0.058225695;-0.011439042;0.0069521824;-0.24724601;-0.065684065;-0.18320248;0.13324136;0.05406644;-0.062003028;0.026613327;0.0074136974;-0.078718945;-0.076111086;0.017676024;-0.21287055;-0.1735079;-0.009249603;-0.032016255;0.08785419;0.056578964;0.07688692;0.04100562;-0.08006776;-0.071018934;-0.22716449;0.13196026;0.092925355;-0.011883669;-0.16050364;-0.008148023;-0.078911096;0.028258324;0.07196305;0.011051138;0.03503423;-0.0003208103;-0.14029132;-0.20848432;-0.0972951;0.080006525;-0.31405962;0.16831227;0.25131682;0.013690393;0.06015878;0.029053472;-0.18484011;-0.01046012;-0.061517265;-0.01013033;0.1480929;0.11149585;-0.08412206;-0.037462443;-0.031719226;0.055671934;0.020947738;-0.1938194;-0.17165841;0.20746838;0.041033395;0.1560458;-0.017922534;-0.05498262;0.12145115;0.031236665;0.18972114;0.1269321;-0.026228113;0.05421155;0.17212844;0.047457613;0.10524005;0.106851995;0.10312499;0.08945892;0.01770022;0.13463989
-0.11126415;0.09009032;0.06658466;0.12572892;0.036251675;-0.09868019;-0.054696243;0.09422104;-0.0875937;0.07151315;0.031226631;0.26141253;-0.1444911;-0.13713077;-0.08585026;0.019867249;-0.07388974;-0.23540035;0.081604585;-0.059332777;0.10685483;0.01588222;-0.07878355;-0.07573552;0.03443161;-0.072952785;0.032429848;-0.032241344;-0.03806511;0.05548447;0.044594288;0.15888675;-0.2783661;0.23521975;0.14235853;-0.03241661;-0.033211816;0.104808144;0.01640655;0.124993585;-0.02646634;-0.01833156;0.08725653;-0.18592684;0.07235077;-0.061464563;-0.2517819;0.11825435;0.16562393;0.08902111;0.045821324;0.002734426;0.098979585;-0.05395439;0.03565899;-0.05583239;-0.019193964;-0.166914;0.017277105;0.029339828;0.12296015;0.14806718;-0.1931469;0.010553471;0.047835097;-0.10020621;0.2386942;-0.04719716;-0.05863396;-0.15264022;0.08189975;-0.10734067;-0.12517753;-0.03294939;0.10930885;0.07228076;0.24741082;-0.08341392;0.114623405;0.03410875;-0.06802808;-0.11536594;-0.027520973;0.1140677;0.03746102;-0.13566795;-0.078740686;-0.08826;0.0027669282;-0.19499302;-0.009872743;-0.086185746;-0.115315266;-0.12176685;0.12833458;-0.043401364;0.0734761;0.03541212;0.13219577;0.14390889;0.06324677;-0.098239645;0.060992494;-0.06021027;0.0011289199;-0.22246633;-0.030626157;-0.073022075;0.009728496;-0.039928596;-0.20517103;0.088846244;-0.10661024;-0.048652522;-0.020187983;0.0284945;-0.13687155;-0.024399934;-0.10087911;-0.2953365;-0.06343346;0.0150140645;-0.12424891;0.058969423;0.11266151;-0.09448905;0.10259218;-0.12778054;0.1962914;0.0768145;-0.078445904;-0.03168032;-0.044741478;0.11858335;0.052183546;-0.16833414;0.13395333;0.05843872;-0.14395598;-0.1357252;-0.11175193;0.13008036;-0.13491833;0.057605237;-0.21081768;-0.07386114;-0.04534641;0.14713407;-0.32129437;-0.14312209;-0.13184693;0.111983955;0.062702954;0.26729062;-0.17112495;0.051175024;-0.17471395;-0.12855907;0.13778743;0.12654921;0.031975035;-0.21907024;-0.043160424;-0.18775502;0.09253166;-0.03629698;-0.16355826;0.027551204;0.19257897;-0.04958617;-0.14254808;0.08541434;0.037694093;-0.14890237;-0.060976706;0.06859335;-0.028905094;0.04433499;-0.2266133;0.04666313;-0.05375377;-0.10932281;0.03802134;-0.07118928;-0.048234757;-0.003238277;0.12883332;0.16606541;0.13033213;-0.14416215;0.17379881;-0.03866474;-0.087519996;-0.022544513;-0.030580144;-0.007316891;0.07197533;-0.032424353;-0.17938134;0.029630244;-0.2230608;0.15827984;-0.011289978;-0.022235114;-0.06546815;-0.24553351;0.09647012;0.08426497;0.10972883;-0.1763281;0.07704353;0.11947388;0.07923132;-0.004021515;0.05377074;0.07035644;-0.07543159;0.24293682;-0.0064885607;-0.042044986;0.069865085;-0.09783394;0.07730088;-0.12843837;-0.04913937;-0.12696087;0.20977618;0.061549857;0.13374822;0.0009256888;0.11834451;-0.12256996;-0.11788067;0.019817622;0.23018277;-0.00083173753;0.03875824;-0.067025796;-0.08908867;-0.040666964;0.04037604;0.023262037;0.03089334;-0.0014678673;-0.15304077;-0.15871702;-0.19622937;-0.07553605;-0.1359219;0.105619274;-0.20920868;-0.10066395;-0.028143773;-0.05890291;-0.22412778;-0.22904894;-0.0733832;-0.03549002;0.035829365;0.033564504;-0.10206023;0.03643037;-0.070417106;0.123608164;-0.18968518;0.12266217;0.10926383;0.045613673;-0.14250366;0.18278202;-0.078229584;0.052899975;0.021526555;0.17732587;-0.07110433;-0.13502428;0.04674233;-0.0062945457;0.09443585;-0.0944369;-0.23953009;-0.106295936;-0.005682843;-0.12886438;0.07989783;-0.18595973;0.018841682;0.028633159;-0.046621326;-0.12793218;-0.11502017;0.02689534;-0.16281928;0.18236099;0.032380804;-0.044793963;-0.13671914;0.12157872;-0.097019404;0.050127555;-0.26383162;-0.15669428;-0.04397902;-0.16824502;0.08744087;0.058908038;-0.023231143;0.13861744;0.0004910629;0.015883295;0.0024807747;-0.026185542;-0.055127937;0.15399575;-0.10483149;-0.15548347;0.14547822;-0.11472611;0.10456797;0.07454298;0.13437293;0.088831805;0.052666012;-0.079253174;0.035028964;-0.068336666;-0.17781802;-0.046149936;-0.051668033;-0.09189569;-0.30015007;-0.30823967;0.05837403;0.013182186;-0.15851201;-0.19366735;-0.27033094;-0.19107519;-0.21307904;0.01272526;-0.22289096;-0.13021353;-0.014824158;-0.015350172;-0.18809885;-0.17318179;0.08811518;0.15885413;-0.051250383;-0.116259865;0.007319791;-0.0073653287;0.11353155;0.071830876;0.2099654;-0.08391909;0.07017926;0.15262723;0.08528587;0.13213263;-0.072741784;-0.007203089;0.24673125;0.07556618;-0.040858798;0.033937164;-0.21726555;-0.06818245;-0.062477842;-0.022217546;0.015406562;-0.11194029;-0.10362909;-0.06666487;0.07571785;-0.18670894;-0.09966122;-0.10756349;0.07824118;-0.054550793;-0.13670112;-0.13396889;0.061272874;-0.08796567;-0.026431995;0.04276571;-0.17392941;0.07745377;-0.16201472;0.064110495;0.040334903;0.04201949;0.24159168;0.23867564;-0.039576672;0.15809466;-0.03377027;-0.14853856;0.060588323;-0.15769963;0.029108401;-0.042899866;0.0067514414;-0.107511014;-0.006308648;-0.12552899;-0.09437934;0.0067604985;0.019944644;0.12939923;-0.053808592;-0.10212209;-0.27615365;0.12325523;0.037756756;0.38747752;0.048669722;-0.010305639;-0.010320163;0.09346451;0.0012714483;-0.080743186;0.15048952;0.03667664;-0.10152669;0.05882758;0.15077807;0.077436894;0.05069453;0.19650598;-0.047525145;-0.19612405;0.09306909;-0.15702026;-0.21573444;-0.06989799;-0.13020448;-0.15083706;-0.0056148274;0.1273303;0.011957146;0.12327257;-0.16405557;-0.027123574;0.08151122;-0.023672914;-0.16200733;0.13197805;-0.18376276;-0.03501428;-0.09233743;0.11178871;0.04387138;0.014435871;-0.25890547;0.14851624;-0.21991207;-0.0013387218;0.053123735;0.08925759;0.09403902;0.07095181;-0.008199991;-0.11233259;0.049598236;-0.037872072;0.099140555;-0.128063;0.009999561;0.03386007;-0.00083691813;-0.20001386;-0.012244577;0.00304019;-0.00074429903;-0.13944703;0.14432809;-0.04272796;-0.13234642;0.04642034;-0.32070702;0.08687607;0.2165476;-0.20903365;-0.23898935;0.0994339;-0.0773943;-0.004905734;0.013913168;0.002461308;-0.09325645;0.071910046;-0.10092773;-0.10569714;0.06501976;0.099022344;-0.05864178;0.11408625;-0.007412543;-0.04339846;-0.08348944;-0.19645333;-0.10307916;-0.17373352;0.10979498;0.016403189;-0.11725112;-0.01980322;0.0752163;-0.11567362;-0.090459175;-0.029283542;-0.11436155;-0.21939278;0.040917113;0.06788253;-0.003684356;0.04266704;0.15456134;-0.03965072;-0.1232836;-0.19898912;-0.26464465;0.0046368176;0.20230658;0.08656228;-0.09300966;-0.009629438;-0.04767716;0.12888023;-0.03127206;0.124647;0.01725304;-0.021716312;-0.16434324;-0.1312142;-0.046927284;0.18323454;-0.49675402;-0.06427241;0.08368359;-0.12902258;0.0079437;0.09841554;-0.17526032;0.047155812;0.08015454;0.0041919425;0.18790074;0.013479344;-0.041726705;0.095534675;-0.10072496;0.03074569;0.09804857;-0.10716234;-0.205063;0.07382186;-0.096609384;0.10653432;-0.045674052;-0.041115124;-0.046809215;0.0013010821;-0.036688086;0.06733165;0.026303422;0.0951215;0.0331078;0.11902244;0.10726564;-0.001303782;0.17451169;0.05869164;0.23767221;0.14472216
-0.18100058;0.11764765;0.047622398;0.2743525;0.043500714;-0.013183416;0.022215063;0.14049391;-0.04674516;-0.11123392;0.25659773;0.13882273;-0.1432732;0.072358236;0.00470905;-0.083711945;0.02236963;-0.025476899;0.1262549;0.06523961;-0.019904409;0.12643906;0.07950455;0.0043685883;-0.089624435;-0.042680193;-0.030958734;-0.103593335;-0.037522487;-0.0552586;5.885151e-06;0.1682451;-0.2763983;-0.0103214225;0.1286982;-0.04906723;-0.16679671;0.14347784;-0.04286753;0.11679517;0.050648578;0.0025617927;-0.10018164;-0.011330372;0.049425587;-0.061808206;-0.35135978;-0.06850492;0.22278303;-0.116790414;-0.023637597;0.041653067;0.0060357456;0.05103445;0.098087676;0.050176032;0.07350614;-0.20294958;-0.051596142;-0.01581834;-0.023686176;0.29901555;-0.15478949;0.14232872;-0.052589945;-0.07123684;0.24340971;-0.01773697;0.0044272733;-0.019102512;0.17719732;-0.123491295;0.029674254;-0.06201792;0.053954467;0.09939917;0.1763056;-0.08246337;-0.0033142623;-0.018449752;0.15414351;-0.1890009;-0.08136889;-0.02319674;0.03762367;0.0474484;-0.013539034;-0.18910892;-0.06792126;-0.20394494;-0.052209396;-0.08260384;-0.28967333;-0.18400592;0.1161137;-0.020574365;0.0059321136;0.0761562;0.16847888;0.13590126;-0.0004109181;-0.080365546;-0.00346295;0.05910376;-0.12036148;-0.17808734;-0.098060384;-0.0042101415;-0.06488311;0.037601933;-0.10190589;0.12899473;-0.117979296;-0.20943552;0.076197274;0.1106233;0.09643298;0.02308501;-0.08241195;-0.10349646;0.017671647;0.063736506;-0.0487049;-0.06289888;0.10713113;-0.048405316;-0.011122868;-0.14303821;-0.033016402;0.10943907;-0.13976206;0.043543972;-0.039617658;0.10433396;0.01849857;-0.114937656;0.03829624;0.07177647;0.11537785;0.03144056;0.04558994;0.13769613;-0.084949836;-0.05485836;-0.03017298;0.012107045;-0.04616253;0.16624214;-0.14693256;-0.12309906;-0.091196485;-0.030789152;-0.018336857;0.26426363;-0.20642228;0.050717656;-0.123836845;-0.07187433;0.012788341;0.023963274;0.12053589;-0.25332257;-0.037659552;-0.18192181;-0.0018033471;0.08386044;-0.22454323;0.14550851;0.17509918;0.013741802;-0.169964;0.15021332;0.030790525;-0.052740894;-0.041527368;0.012910643;0.034601416;0.11681777;-0.08436563;-0.0020979478;0.01886541;-0.035144348;0.01336689;-0.03978261;-0.05309362;0.06539562;0.027414538;0.010627171;0.034569643;-0.1540305;0.20792747;-0.07414384;0.09184959;-0.10736864;-0.007439271;-0.07722936;0.036741585;-0.17629328;-0.08211367;-0.010972586;-0.1345442;-0.008386761;-0.061603077;-0.05909846;0.1028793;-0.18615244;0.09805093;-0.052107085;0.071590215;-0.18780264;-0.025624083;0.006027483;-0.03041752;-0.117233366;0.06888517;0.0038461632;-0.086760886;0.25383016;0.026935242;-0.06161035;0.15495518;-0.1542046;0.051579837;-0.11257357;-0.19754258;-0.18932739;0.1577838;0.12812777;0.09314194;0.02537968;0.026755422;-0.14816223;-0.17962801;-0.0634259;0.15292116;-0.08793605;-0.02595503;-0.08553316;0.1364381;-0.069552824;0.095793925;0.10232099;-0.018082092;-0.095727384;-0.018109921;-0.055094317;-0.10632669;-0.16943157;-0.24862397;0.10130568;-0.18951519;-0.014465467;0.06293696;-0.107275344;-0.11860619;-0.15147898;-0.13808542;-0.08191076;-0.02384635;0.004208542;0.07826413;0.067299984;-0.0024326788;0.015549945;-0.1646787;0.21938506;-0.020030187;-0.062927075;-0.043894764;0.015966138;-0.08463438;-0.024784558;-0.12353014;0.11984098;0.01788231;-0.2187997;0.26834595;-0.08569365;0.10400359;-0.029207747;-0.118910015;-0.07991771;-0.07552415;-0.19381204;0.009402104;-0.018173907;-0.14529431;0.10278914;-0.031385582;-0.018930553;-0.0036555831;0.029435128;0.04361207;0.12367275;-0.02087822;-0.013998103;-0.01677789;0.16254267;-0.08470845;0.18059862;-0.16517314;-0.11706829;-0.03991122;-0.23404744;0.045805726;0.10307629;-0.14648831;0.18065955;0.023516744;0.035410233;-0.1677922;0.2127682;-0.066272795;0.035542715;-0.18781568;-0.1098021;-0.06834359;-0.2363284;0.09180853;-0.113469705;0.011585378;-0.07098798;0.119013704;0.06787503;-0.15455933;-0.01399709;-0.03911202;0.005136705;-0.14334029;-0.20171814;-0.24133004;-0.064763725;0.038162556;0.010103242;-0.19125831;-0.13360482;-0.16894819;-0.09260373;-0.35710654;-0.028256988;-0.1591375;-0.21978736;0.050263368;-0.052999903;-0.0782143;-0.14494294;0.09512385;0.17051044;-0.10711917;-0.11460173;-0.09927468;0.122069776;0.17014992;-0.07349753;0.19785911;-0.054572962;-0.09011783;0.16815737;0.0058991266;0.1662509;0.010344984;0.14094365;0.16481261;0.055830278;0.046746142;0.096624896;-0.15063755;-0.063116334;-0.18728678;-0.023489341;0.028276972;0.049483534;-0.06879594;-0.015078754;0.05656264;-0.13107173;0.025101334;-0.12170976;0.08232384;-0.03609234;-0.039508652;-0.038546104;0.12027313;0.06316016;-0.034725875;0.037120737;0.0033279858;-0.041283675;-0.016827475;-0.03694241;-0.02239953;-0.03334538;0.05367433;0.25614044;0.14109604;0.11150957;0.08933674;-0.25823873;0.10779732;-0.22132689;0.16010569;-0.02436033;-0.03459421;-0.012585603;-0.026869463;-0.05462648;-0.16729623;-0.06964339;-0.03399737;0.22865924;-0.04021472;-0.21949808;-0.17272337;0.061983842;-0.095239535;0.17681576;0.059867237;-0.09457527;0.075911365;-0.036243778;0.056951996;-0.056200806;0.11031326;-0.02029282;0.0037781144;-0.027906746;-0.09137647;0.13012479;0.10100551;0.14177187;-0.01098465;-0.09441099;-0.017918816;-0.26667935;-0.140663;-0.13447425;-0.11694841;6.779484e-05;-0.040850803;0.09308282;-0.021205988;0.023723483;-0.12420705;-0.031091338;0.12607647;0.026050478;-0.08154088;0.24054015;-0.119833946;0.010260718;0.06117639;-0.056380603;0.061433975;0.024160929;-0.1768273;0.19283533;-0.23352978;0.012455983;-0.026703455;-0.10841137;0.13953537;0.09665465;-0.023547826;-0.31005213;0.08691471;0.023132531;0.18709607;-0.10045142;-0.050355006;-0.13279955;-0.060416706;-0.18698819;-0.013070185;0.2068528;0.041467637;-0.057064656;-0.002731966;-0.03516;-0.09709679;-0.08048869;-0.32135;0.045220982;0.01258692;-0.15794487;-0.23120724;0.097500496;0.02557788;0.03597897;0.105758235;0.01969148;-0.004216457;0.19948122;-0.050872523;-0.15658815;0.023554945;0.13840084;-0.009183019;0.01020942;-0.022238886;-0.02045197;-0.01589007;-0.17570534;-0.19762659;-0.1912738;0.085733175;-0.07357512;-0.009229719;0.0013624523;0.059634164;-0.11104903;-0.054200172;-0.08436079;-0.026239261;-0.0557745;0.1039092;0.0016577702;0.14563176;0.072750345;0.09150373;0.049599808;-0.018600367;-0.0912823;-0.23002677;0.1304933;0.10269685;0.056316298;-0.11520444;-0.13138415;-0.099172935;0.1442055;0.08131957;0.020257514;-0.008563421;0.1022098;0.029643953;-0.148531;-0.123198405;0.1386854;-0.26878613;0.08563899;0.14310993;-0.14942954;0.025126925;-0.0904398;-0.1303159;-0.04324895;0.015868321;-0.1174744;0.17970842;0.10518966;-0.09212276;0.038566895;-0.12342133;0.19911794;0.03715372;-0.10990949;-0.17308661;0.19505677;0.11167219;0.070017785;0.1526586;-0.122643575;0.024135517;0.059502795;0.12692654;0.18275362;0.07662192;-0.035424918;0.07735074;-0.022965923;0.07731319;0.17185813;0.04573213;-0.013950643;0.18331337;0.025529694
-0.18685687;0.07680354;0.010649926;0.28436914;0.09800168;-0.101043895;0.011354716;0.0012442116;-0.026804442;-0.01881884;0.2694117;0.008733573;-0.08143283;0.034048293;-0.09582794;-0.11953365;0.039909717;-0.092000134;0.13470909;0.049698405;0.09454924;0.18369727;-0.014933813;-0.021275574;-0.019420618;-0.010039578;-0.0143713;-0.02689785;0.015385634;-0.063434996;0.030767659;0.13733605;-0.2068713;0.086521834;0.008900352;-0.051395707;-0.059738737;0.20026092;0.0070454944;0.08658475;-0.015017618;-0.005964174;-0.02490938;-0.029112404;0.062457234;-0.1628996;-0.2137836;0.020661708;0.12995018;-0.09291665;-0.00398781;-0.07192281;-0.033491258;0.095427915;0.062235598;0.00844362;0.061523568;-0.2366119;0.101945005;-0.028763069;0.043137003;0.16513202;-0.06277438;0.053744297;0.03970022;0.05349917;0.16923624;-0.06912281;0.052442692;-0.13993838;0.16213274;-0.15637869;0.10672199;-0.14394955;0.1345172;0.102021076;0.09423497;-0.01756434;0.041488595;-0.047645632;0.034060538;-0.18904163;0.026544118;0.11661783;0.09157306;-0.02111491;-0.100361355;-0.027704492;0.012953292;-0.19403134;-0.109592795;-0.053329773;-0.18813883;-0.09270653;-0.0058667418;0.019877467;-0.012810422;-0.017521318;0.11518701;0.116321154;-0.052469008;-0.081010096;0.1311818;-0.011911289;-0.088662274;-0.26840466;-0.14819837;-0.03745132;-0.0985498;-0.06907344;-0.14373441;0.21899287;0.04985117;-0.18107776;-0.025573958;0.010999413;0.0060120947;0.06345135;-0.03640521;-0.12547861;-0.02308156;0.06573965;-0.018699626;-0.016113153;0.037685197;-0.05652821;-0.013389846;-0.042406786;-0.032073446;-0.050279986;-0.07352807;0.018951291;-0.014116299;0.028542103;0.0045962776;-0.055625588;-0.018773893;0.050150152;0.04340919;0.014491675;0.028273476;0.10931513;-0.08321456;-0.011522809;0.0026369256;-0.01122534;0.06306922;-0.046474315;-0.29869905;-0.07357731;-0.03415007;0.093633644;0.15690558;0.18305935;-0.13991186;0.07669287;-0.10513302;-0.054326434;0.039497312;0.104470216;0.0863973;-0.33087415;-0.11331522;-0.10626901;-0.035558548;0.04662991;-0.16171601;0.0067188526;0.10425511;-0.054039028;-0.14751518;0.12321243;-0.06201907;-0.08199227;-0.12144962;-0.11459902;-0.03461368;-0.014495677;-0.11908173;-0.008693261;0.06316086;-0.07792628;-0.15483841;-0.034217753;-0.049648438;0.055529464;0.065471925;0.16173498;0.0927443;-0.15114683;0.05511018;-0.05415293;0.0095289955;-0.062646106;-0.03511668;-0.055969812;-0.019372033;-0.19982237;-0.084080115;0.059997585;-0.20708399;0.041721176;0.02945527;-0.15543313;0.014654085;-0.20831801;0.13202488;0.006395457;0.13197486;-0.16802919;0.124591224;0.043700267;0.11324619;-0.12706944;0.09958508;0.08284756;0.05212851;0.12798701;-0.10866822;-0.09946227;0.046777017;-0.019326864;0.033033196;-0.036347363;-0.11611566;-0.13345185;0.07022433;0.042342782;0.10249607;0.08468684;-0.08900013;-0.07932563;-0.06886842;-0.047493238;0.05117013;-0.16092138;-0.089668326;-0.17108358;0.12147338;-0.035355188;0.098861076;0.053311456;0.114753656;0.0032925874;-0.15797032;-0.13933481;-0.06715617;0.011464424;-0.16661881;0.08462317;-0.12032858;0.016293561;0.12212907;-0.0674019;-0.072929814;-0.18515207;-0.119522065;0.044834334;-0.07977286;-0.0065056826;0.026572138;0.006969664;0.019220414;0.08791192;-0.19487198;0.21490891;-0.09625892;-0.024033407;-0.07395272;0.10799086;0.023513677;-0.028217265;-0.021713331;0.16452129;0.096601866;-0.1431804;0.23310833;-0.0915812;0.045899607;-0.010231271;0.008309451;-0.20448978;-0.057441525;-0.14153013;0.028322423;-0.13713212;-0.18084311;-0.004344098;-0.15507706;-0.0037412918;0.011941714;-0.076439455;-0.023350717;0.17046313;-0.10475405;-0.0308447;0.018973578;0.0881201;-0.045254715;0.1507185;-0.041327327;-0.22754179;0.12514634;-0.10591265;-0.07484984;0.2119287;-0.11532624;0.012121065;0.06791381;0.13888715;-0.11930703;0.1839958;-0.09050997;0.06465497;-0.21403359;-0.091935806;-0.0047498145;-0.12818538;-0.03372571;0.055956032;0.08814461;0.043655295;0.078837566;0.0788667;-0.15781067;-0.048046194;0.053205524;-0.04797672;-0.03308135;-0.11073859;-0.32764935;-0.19439058;0.13967185;-0.053952496;-0.22744687;-0.18933438;-0.17868666;-0.15416798;-0.33255765;-0.050811548;-0.19022734;-0.21259302;0.18261285;-0.007332798;-0.052262142;-0.10608505;-0.03335823;0.17023209;-0.02933164;-0.0024711406;0.0100867525;-0.060254827;0.22358188;-0.024841864;0.18242611;-0.08273266;-0.119695134;0.03131066;0.07554377;0.081079185;-0.08910749;0.0011980431;0.20523709;0.10274777;0.03829142;0.032068487;-0.01777759;-0.05098878;-0.10004484;-0.07826285;0.06113211;-0.027192745;-0.041053396;0.10244935;0.021359432;-0.068236865;-0.022808705;-0.09374209;0.1002334;-0.04887932;-0.1284496;-0.14362913;0.13520467;-0.007873892;0.012690258;-0.014651624;-0.07792947;-0.048722066;0.0038952895;0.024592925;0.058629785;-0.107480735;0.15084073;0.32692984;0.088130385;-0.039942414;0.1135994;-0.24180737;0.16399245;-0.17828028;0.2238736;0.015485846;-0.14368255;-0.025287155;0.080656216;-0.03606768;-0.13153271;-0.064480394;-0.07771744;0.084247485;0.040606316;-0.07989;-0.27158117;-0.023699198;-0.058381997;0.23598512;0.068846054;-0.09536141;-0.031209014;0.087596804;-0.043967683;-0.11616681;0.068227604;0.0775853;0.07089519;-0.003946047;-0.12697177;0.07980685;-0.06222651;0.042857766;-0.090932414;-0.085103706;0.08851759;-0.13957115;-0.21351399;-0.10386328;-0.1077099;-0.0999305;-0.07431533;-0.00015493523;0.003996808;0.07207248;-0.12040449;0.046725035;-0.031717177;-0.064009145;-0.15046091;0.29160342;-0.051536255;-0.035848778;0.047377877;0.00669581;0.10141005;0.039406832;-0.15890798;0.35841495;-0.18164401;-0.100270495;0.037385553;-0.037406668;0.074704796;0.10302294;-0.099947825;-0.29153088;0.08933999;-0.053575005;0.19781609;-0.16933723;-0.09995274;-0.1260301;-0.08489661;-0.18611722;0.013115846;0.170765;0.015001462;-0.021295784;0.04248967;0.12566923;-0.1618006;-0.09520301;-0.21482927;-0.04688637;0.07943224;-0.23314384;-0.20097966;0.07485178;-0.069887616;-0.021921955;0.0953234;0.036176585;-0.050910838;0.04370737;-0.0495215;0.045610845;-0.024166001;0.15433834;0.07848325;0.09702573;-0.01092832;-0.031298354;-0.022328926;-0.20634659;-0.15381117;-0.18198428;0.12265375;0.0072762882;0.030083483;0.08368879;-0.03937998;0.007611421;-0.033642784;-0.06558137;-0.07424544;-0.088110924;0.0141999;0.04060047;0.17656776;0.06837521;0.26577002;-0.08986559;-0.07701795;-0.12778328;-0.21766528;0.0013626149;0.122960865;0.047364;-0.050835606;-0.023805806;-0.08786468;0.027236132;-0.059976183;0.027324654;5.4132895e-05;0.056913327;-0.013449455;-0.2443421;-0.0580634;0.09600111;-0.3735138;0.15737236;0.050639957;-0.060516935;-0.029211534;-0.09177022;-0.11749295;-0.01968992;0.05714048;-0.0014970604;0.12919751;0.15911591;-0.06695907;0.015477679;-0.030576369;0.19966899;0.0045127813;-0.14961733;-0.26663834;0.14139117;0.16295506;0.14302686;0.10784529;-0.10681491;0.01737281;0.007730753;0.03234383;0.096152715;0.037750974;-0.09188637;0.05669602;0.054820765;-0.051491514;0.15463668;0.14659294;0.008219172;0.08505521;-0.074600734
-0.14577202;0.04594579;0.1356496;0.22197396;0.1863865;-0.07578506;0.04317158;0.12631848;-0.020407815;-0.00075830764;0.23010416;0.19706666;-0.041983943;-0.093879975;-0.135124;-0.029147822;-0.08230756;-0.070286795;0.16959071;0.11461471;0.015592572;0.030102888;0.1683101;0.0036781102;-0.02619504;-0.06754907;0.036934793;-0.14311022;-0.053362347;0.047657203;0.14838137;0.13082287;-0.13230865;0.026603583;0.12002021;0.04127775;-0.008972122;0.13823017;0.021943476;0.12340125;0.0037705249;-0.03538972;0.08844027;-0.05348853;-0.071763635;0.0074584577;-0.35142934;-0.045745727;0.18680887;-0.12757175;-0.01890457;-0.06641705;0.119294144;-0.015275278;0.11431293;-0.0050350595;0.057403278;-0.20954329;0.03245941;0.10004168;-0.066264056;0.24111825;-0.19914837;0.17664775;-0.07729355;0.13960359;0.08129986;-0.07340785;-0.008813413;-0.03692752;0.110037535;-0.10306154;0.09833754;-0.13648099;0.10190094;0.103966966;0.154083;0.0073951506;0.1669547;-0.11629013;-0.048035555;-0.19538346;-0.0094554825;-0.0022839422;0.04103256;0.031668063;-0.05134533;-0.07995586;0.055140097;-0.15306543;-0.15298842;-0.16990478;-0.17202258;-0.017232276;0.026936188;-0.054944057;0.146703;0.028417863;0.1744047;0.11681134;-0.12224005;-0.075110056;0.112371705;0.16976222;-0.11297112;-0.23681039;0.03111123;0.005976616;-0.052148297;0.0018696493;-0.12437837;0.15174668;0.02683365;-0.09273936;-0.04732379;0.0754997;0.14902645;-0.07796784;-0.15025173;-0.14818831;-0.003003447;-0.06108957;-0.005266387;-0.00878982;0.10207717;-0.16010712;0.053022835;0.019329868;0.13531418;-0.035536796;-0.055273954;-0.04957155;0.0048023714;0.08516015;0.044234686;-0.12083495;0.028695893;-0.13048828;-0.014397609;-0.14777222;0.02497373;0.12816308;-0.046133492;-0.009214958;-0.056916088;-0.085712135;0.0348936;-0.040846158;-0.15586141;-0.16053984;-0.09528681;0.07216542;0.064030826;0.17728595;-0.080836624;0.057867225;-0.14072388;-0.10109797;0.07167517;0.09817964;0.14877829;-0.22627832;-0.055482663;-0.24939898;-0.046399947;0.09562921;-0.17349093;0.08910325;0.16006862;0.045723677;-0.30817774;0.20820585;0.0021943988;-0.1607645;-0.08853228;-0.11820136;0.006280155;0.016039371;-0.037528746;0.08179813;-0.0111715915;-0.039556358;-0.027057521;0.032473244;0.0027040273;-0.023568125;0.003628021;0.16628888;-0.035438143;-0.021599427;0.065284766;-0.0927696;-0.007975385;-0.06762148;0.043414313;-0.08315209;-0.1279782;-0.20874655;-0.21256366;0.034523826;-0.0522485;0.046117626;-0.04000585;-0.12241162;0.004631327;-0.1042537;0.14668085;0.013355172;0.077722736;-0.17100841;0.036160965;-0.027025253;0.114271775;0.053993315;0.087775104;0.09062401;0.00065263076;0.28871247;-0.1575564;-0.11785125;0.1550206;-0.085915335;0.04546612;-0.0833791;-0.043422677;-0.10384447;0.16237898;0.0386903;0.098794825;-0.025262617;-0.021603227;-0.13007563;-0.19095077;0.06477125;0.037843645;-0.016857311;-0.06809516;-0.019506762;0.08648754;-0.0970282;0.119265296;0.06374253;0.031186992;-0.09553391;-0.15478766;-0.20481233;-0.17453162;-0.040163364;-0.22689416;0.09411161;-0.13141103;0.035932258;0.047235493;0.014207235;-0.084162086;-0.13796864;-0.02440772;-0.045925327;0.041765556;-0.07658844;0.10459127;0.13574319;0.09173588;0.06952613;-0.07064877;0.2466218;-0.08355541;-0.079445355;0.03254251;-0.017455675;-0.07781861;0.0157949;0.08139449;0.05199884;-0.050286412;-0.11550262;0.21035317;-0.062293507;-0.049851578;-0.019549606;-0.023041373;-0.16005492;-0.013481872;-0.12630941;0.019789515;-0.04798355;-0.13503636;-0.04926548;-0.099933304;-0.027427228;-0.010509375;0.06476458;-0.056088712;0.24318148;-0.012550144;-0.07522881;0.08986855;0.0776218;0.004737569;0.22691153;-0.1701411;-0.14095117;0.06951526;-0.08482489;0.10157504;0.13240118;-0.08733559;0.14596234;-0.07448226;0.18084848;-0.15658708;0.15311682;-0.06066663;0.04328322;-0.19693579;-0.061317153;-0.018230623;-0.035092533;0.073277004;0.06736068;0.1146928;0.04877486;0.097856246;-0.03287479;-0.018982615;-0.036626443;-0.097499326;-0.026128912;-0.17472576;-0.06336491;-0.43301317;-0.10461902;0.054461226;-0.19639912;-0.065622844;-0.1703969;-0.09448313;-0.20457852;-0.2711713;0.116700694;-0.15758869;-0.25913593;0.050931435;-0.024778327;-0.14778644;-0.18040913;0.029654132;0.15908834;0.049231842;0.031773005;-0.054275658;-0.049823646;0.23933282;0.08025665;0.18050095;-0.06082517;-0.016163863;0.0830848;0.047806807;0.22821848;0.020463973;0.03147906;0.23561184;0.03256668;0.04150789;0.040853195;-0.22272016;0.045762796;-0.10642361;-0.08791763;-0.033261962;0.020369885;-0.10506573;0.017838372;0.04168928;-0.1530928;0.039593138;-0.12911399;0.11121502;0.108809754;-0.0776374;-0.058308426;0.11639791;0.06981507;-0.099559024;-0.14982568;0.05006068;-0.018012602;-0.02810136;-0.06770238;0.020024486;-0.017853893;0.15478295;0.24886139;-0.049789224;0.036156032;0.14045689;-0.28211537;0.011431569;-0.18686092;0.14394385;-0.06464592;-0.09030577;-0.06546721;-0.05034542;-0.117437966;-0.18585245;-0.049316403;-0.114750184;0.16185045;-0.009244098;-0.19871372;-0.13192791;0.120882004;0.029806629;0.22702509;0.03380907;-0.05415437;0.061194357;0.04937949;-0.12744696;-0.11123907;0.1729832;-0.03154811;-0.0029792658;0.016711164;-0.1659441;0.15125455;0.05675932;0.11734769;-0.06895791;-0.08630106;0.031423304;-0.1971592;-0.15160514;-0.016891325;-0.19213098;0.008450051;-0.036764257;-0.007635443;0.0156018445;0.038216684;-0.015614673;0.03972713;-0.04213126;0.028380666;-0.13954732;0.20678739;-0.053171568;-0.04579981;0.028123984;0.039764687;0.035337564;0.0761326;-0.0772477;0.30786678;-0.13422804;-0.0737818;0.011392971;0.016235309;0.15830772;0.032710057;-0.060355846;-0.28933552;0.056037076;0.051404204;0.21506025;-0.042378884;-0.0041664466;-0.10317678;-0.16970769;-0.19406724;0.05244344;0.16823669;0.01156023;-0.08136178;0.10009395;0.054171313;-0.1319511;-0.0113425935;-0.22928841;-0.08391995;0.06560724;-0.19267172;-0.25527725;0.08866015;-0.031833045;-0.17443663;-0.023637297;0.038515463;-0.07551959;0.19723664;-0.045462925;0.09362992;-0.03319482;0.20813796;-0.015619845;0.12838267;-0.12425664;0.024900272;0.03866568;-0.21055701;-0.1955723;-0.16187245;0.20431945;-0.009286098;-0.030286169;0.07076024;0.043362148;0.00048383273;-0.025839454;-0.04743414;0.010902325;-0.09470434;0.008372371;-0.028846271;0.055732206;0.039900422;0.21349536;-0.20537244;0.0070316955;-0.11049991;-0.25052777;0.032619696;0.029494552;0.099963784;0.016516233;-0.087762356;-0.15050381;0.0902161;0.082407646;0.029116873;-0.009495141;0.07388795;-0.1372595;-0.27066445;-0.117868245;0.13465339;-0.30370826;0.121044576;-0.017279152;0.014594418;-0.05966432;-0.0061511663;-0.1351419;-0.14311327;-0.11168357;-0.09673793;0.1726167;0.070116855;-0.03564511;0.028938811;-0.05075327;0.12606739;0.0068019554;-0.15873313;-0.25162062;0.07282793;-0.02083471;0.1740667;0.08635916;-0.13673665;0.020576999;0.059932604;0.11858121;0.03705228;0.04985203;0.041701496;0.02092169;-0.013380325;0.08252881;-0.009405707;0.044002123;-0.113469556;0.13720274;0.041906185
-0.113993846;0.114595234;0.14081082;0.1765053;0.16739826;-0.024367878;-0.008750886;0.11815764;-0.036172908;-0.040638182;0.1326643;0.16535982;-0.08263194;-0.111572616;-0.16291964;-0.089094155;-0.10654773;-0.13631341;0.15547705;0.007912666;0.04785055;0.09745717;0.04782236;0.07902562;0.0045408364;-0.0053443685;-0.017385023;-0.11718878;-0.025756758;0.06235707;0.00971417;0.15475714;-0.101449646;0.09370722;0.007851879;-0.090993024;0.022499615;0.10028302;-0.0008151392;0.20008835;-0.13770801;0.07687681;-0.031693056;-0.08615175;0.005810929;-0.09311284;-0.2602385;-0.082278825;0.19420497;-0.08210338;-0.028235758;0.035267968;0.13731155;-0.034999505;0.13964342;-0.14238222;0.16394366;-0.17970176;0.10833465;0.0728363;0.062868156;0.18997267;-0.27689913;0.15649363;-0.15605393;0.08341211;0.18722616;0.09292302;0.01947483;-0.23097225;0.18260114;-0.27837846;0.10773593;-0.21675777;-0.016795373;0.10625015;0.22116627;-0.12413612;0.06807233;-0.10909066;-0.034221645;-0.10348087;-0.1001367;-0.018578917;0.046659265;0.055550292;-0.0007112743;-0.07066944;0.08010128;-0.10806361;-0.06476665;0.066713184;-0.1706562;-0.19777288;0.024992038;-0.22856285;0.1465137;0.1180604;0.13994358;0.05729348;-0.055715796;-0.033089187;0.022496779;0.1405335;-0.032105364;-0.17952162;-0.03287163;-0.065250106;-0.042684928;-0.16299874;-0.12058141;0.12979098;-0.021818385;-0.16096655;0.0041243103;0.12768501;0.128883;0.02771453;-0.11414426;-0.18450502;-0.030719774;-0.026252339;-0.046865128;-0.00050438865;0.13995944;-0.061460968;0.0964979;0.15979642;0.24647252;-0.0042657433;-0.053807545;0.003049819;-0.026932174;0.08646538;0.056939065;0.02151525;0.1051767;-0.22107922;0.010690689;-0.13627483;0.12431678;0.059634276;-0.16507126;0.023084698;-0.01918004;-0.010783818;0.050250284;-0.04959984;-0.21706496;-0.08174384;-0.055447407;0.08833603;-0.07703081;0.14559853;-0.059665494;0.008921449;-0.10806255;0.032436933;0.0037920235;0.1424843;0.0958865;-0.18404537;-0.17635107;-0.19551857;0.047682293;0.18889573;-0.1626898;0.12569994;0.081097096;0.05877555;-0.24321666;0.24098083;-0.051711507;-0.21414049;-0.033147115;-0.011905641;-0.0010719514;0.051376574;-0.1160811;0.014420753;0.04481288;0.075682275;-0.051669497;0.026819443;-0.00065718783;-0.037341163;0.14871457;0.14115213;0.018236825;-0.05491264;0.083457395;-0.08325934;0.13607706;-0.06580769;-0.052335046;0.073023856;-0.08121962;-0.15675217;-0.22570822;0.06341397;-0.20573142;0.07604918;-0.029367618;-0.0058834795;-0.08171814;-0.07099694;0.056811363;-0.019669646;0.17877096;-0.2349459;0.025855655;-0.0066890395;-0.0017064092;0.06901983;-0.017388659;0.114489496;-0.09281111;0.12650485;-0.0927984;-0.084946;0.19491298;-0.08544664;-0.001029421;-0.115657724;-0.1759994;-0.14608046;0.20640291;0.098942675;0.19021653;-0.042840302;0.0011047025;-0.09849612;-0.12469268;0.12100945;0.08861733;-0.0719301;-0.050775878;-0.060536325;0.019775001;-0.024714349;0.1522621;0.16112845;0.1373572;-0.045131832;-0.06459877;-0.19137003;-0.12817365;0.012623758;-0.14751382;0.06846517;-0.15913291;-0.027077518;0.03883101;-0.062738836;-0.32700357;-0.1112855;-0.19680214;0.07814922;0.14099401;-0.03885292;0.0651399;0.07549818;0.026044425;0.049364094;-0.20737137;0.12416788;-0.023328885;-0.07969951;-0.15274863;0.047467172;0.019499047;-0.068072096;0.024294334;0.030376932;-0.14053543;-0.047097083;0.10753368;-0.18807244;0.029791303;0.04765172;-0.073563375;-0.19263631;-0.06461628;-0.16489576;-0.090440206;-0.03898856;0.083260834;-0.021988364;-0.060427886;-0.09288924;-0.0749544;0.024337763;0.06399315;0.27855435;0.04002605;-0.14972252;0.03416882;0.18214396;0.048048843;0.055549126;-0.07549929;-0.071123354;0.055259902;-0.051981714;-0.011997592;0.16673173;-0.21395478;0.17847878;-0.021136792;0.19991739;-0.05945041;0.118520185;-0.0985666;0.108290255;-0.21953127;-0.057373226;0.03876802;-0.15845561;0.116669945;-0.0962394;0.14961803;0.020601423;-0.03999243;-0.019096997;0.02439869;-0.14974222;0.02014028;-0.114719465;-0.048167247;-0.16544414;-0.3518076;-0.11939227;0.22380987;-0.15487829;-0.12641254;-0.19988093;-0.113221474;-0.25890616;-0.2144408;-0.037757758;-0.080614716;-0.2393449;0.10512107;-0.027501294;-0.11763561;-0.23490606;0.07239046;0.20277399;0.0687937;-0.007016019;-0.07232756;0.047033153;0.22180526;-0.071427956;0.19331433;-0.04284208;0.0014423544;0.10390025;-0.01875837;0.17200504;0.037727088;0.142336;0.18846583;0.05757656;-0.030215494;-0.08112968;-0.20779504;0.010157434;0.08542626;-0.14222194;0.11222421;-0.053639274;-0.18529019;0.04479222;0.014410005;-0.2048976;0.14391294;-0.13969277;0.09614349;0.043372728;-0.068932064;-0.17152528;0.02963291;0.048340883;0.07074712;-0.1791826;-0.0008094655;0.13490355;0.012174037;-0.03418015;0.063715614;-0.08434017;0.18872124;0.35543516;-0.0098064495;0.053614285;0.048707195;-0.17590238;-0.035001762;-0.21446486;0.08989467;-0.011646954;-0.05936049;-0.08534086;0.030915746;-0.14411755;-0.070636734;-0.09393463;0.0134954145;0.109734505;0.016798867;-0.17638253;-0.15736018;0.07967857;-0.024246015;0.37444788;0.02437741;0.029380077;0.0860137;0.058975678;-0.11361777;-0.041908022;0.045175824;-0.14559159;0.013527282;0.14578648;-0.08981886;0.17686479;0.04877646;0.16069351;-0.13677086;-0.032416306;0.07811548;-0.2096468;-0.11342714;-0.079984225;-0.13189854;-0.09336215;-0.00014487494;0.081497625;0.020530833;-0.027011573;0.07172528;0.04959546;0.07499932;0.06350236;-0.14971986;0.18439445;-0.010849837;-0.027458338;-0.005860864;0.00726338;0.17001206;-0.03725746;-0.105240054;0.23091689;-0.0991621;-0.16883212;0.00816284;-0.014747312;0.13821067;0.09857711;-0.0024394656;-0.2146738;0.011460261;0.05627223;0.019854046;-0.13730292;-0.010273372;0.06610181;-0.14470182;-0.097532734;-0.050770193;0.12308564;0.07812286;-0.06307156;0.10147069;0.012030539;-0.23694146;0.0050262613;-0.24313693;0.057009425;0.1292405;-0.32686868;-0.28504565;0.12364466;0.040340997;-0.07625905;0.08608558;-0.0035965755;-0.03959229;0.23858401;-0.22425778;-0.0026781887;-0.022369407;0.09508784;-0.0678878;-0.0038341223;-0.03542517;-0.030787943;-0.07459707;-0.37440565;-0.14087687;-0.04058603;0.15302803;0.070301436;0.0015387152;0.072732314;0.008584308;-0.06265872;0.028922299;-0.037061352;0.014168606;-0.13897324;-0.009514377;-0.05442898;0.083175115;0.10888454;0.082166806;-0.18465821;-0.00015707158;-0.007910029;-0.22691013;0.0046996847;0.1711655;0.10232055;0.052146196;-0.09236641;0.017231874;0.14465612;-0.026919974;-0.08834424;-0.065733895;-0.02344479;-0.1994608;-0.11597482;-0.1492588;0.12069675;-0.25829676;0.0030323162;0.022023503;-0.088043295;0.01684375;-0.047724705;-0.12851411;-0.020895692;-0.0401757;0.06670278;0.047758196;0.009656196;0.079075165;0.08601151;-0.08747972;0.13888557;0.11697771;-0.0935318;-0.31001744;0.09485632;0.026970685;0.15266886;0.12716621;-0.27655065;-0.009161111;-0.05519447;-0.0044667316;0.086391434;0.06171878;-0.023225285;0.035480574;-0.002789535;0.18000664;0.038101453;0.12821001;0.047707364;0.20430416;0.114451125
-0.1718282;0.05781551;0.1236035;0.21994656;0.15696183;-0.04126531;-0.031489614;0.1258843;0.034441397;-0.064600825;0.16678528;0.06903782;0.028156292;-0.0033556584;-0.21368848;-0.011753617;0.068158835;-0.058573954;0.15436406;0.08344793;-0.09915052;0.06928825;0.14649755;-0.049440738;-0.18704164;-0.045035567;0.06430722;-0.19086607;0.05859604;0.025479076;0.19410206;0.06537436;-0.21961935;0.050880313;-0.02234599;-0.040996585;0.050596442;0.07418648;0.04311897;0.15822008;0.08873516;0.023041045;0.05168989;-0.043765876;-0.037212018;-0.034369975;-0.2816488;-0.12390662;0.013596182;-0.0022430927;-0.1689741;-0.12133075;-0.01974856;-0.07006719;0.041688297;-0.20878959;0.15019289;-0.16360341;0.13137922;0.047366012;-0.00112032;0.23436204;-0.10999037;0.2371398;-0.1329336;0.13101535;0.13145183;0.06631283;0.118425645;-0.17245962;0.11515467;-0.20417541;0.103405125;-0.13978393;0.07531968;-0.05958398;0.16711499;-0.049853705;0.015029316;-0.06047279;0.041365195;-0.17597243;-0.16082075;-0.172153;0.04828795;0.206758;0.007825475;-0.02888115;-0.035934545;-0.16038573;-0.09468184;-0.1778398;-0.13100791;-0.14185645;0.110829175;-0.08627213;0.1692177;0.091038525;0.21184;0.006791961;-0.30701193;0.041360147;-0.00060137676;0.28364947;-0.1836634;-0.3038532;-0.046033066;-0.027726343;-0.0064033493;-0.014225426;-0.18035056;0.3426145;-0.07507548;-0.09557505;-0.009653325;0.120546974;0.012921225;0.054292973;0.020859899;-0.21468401;0.016833905;-0.13607636;-0.039140176;-0.12346034;-0.023266517;-0.073541425;0.026430862;0.21403146;0.08956157;0.04779712;-0.010101386;-0.0055342056;-0.03480043;0.12590694;-0.18710199;-0.091875196;0.0706846;-0.28989762;0.00818203;0.006113806;0.08419055;0.01672441;-0.14566822;0.1634129;0.06561544;0.09614807;0.104704455;0.10237807;-0.11310746;0.008241509;-0.009169412;0.020623043;-0.19429146;0.021934832;-0.15604128;0.068510264;0.022018809;-0.08024455;-0.098095395;0.04389648;0.18220367;-0.05378109;-0.17871404;-0.23870444;0.024309406;0.12622343;-0.081249975;0.12099545;0.08484296;0.115745194;-0.013979259;0.30573013;-0.013143904;-0.17789127;0.1565881;-0.1880058;-0.2564765;0.06058818;-0.076820046;0.058004033;0.14233802;-0.06913956;-0.122641;0.0047229985;-0.06176451;-0.1466921;0.16266902;0.054862093;0.091271535;-0.0076618893;0.03891659;0.005213482;0.11823465;0.031227639;0.03375603;0.01874689;-0.079630926;-0.1443734;-0.30033803;-0.14771271;-0.034192916;-0.021849466;-0.21385273;0.04072712;0.067117624;-0.120465375;0.103759535;0.023087472;-0.00535923;-0.22201891;-0.069503136;0.010212661;0.11200395;-0.00606323;-0.017857451;-0.06500128;-0.060448788;0.26498678;-0.13898917;-0.06782223;0.27468958;-0.18442595;0.1351819;-0.190444;-0.2718157;-0.019167725;0.16998921;0.030139843;0.021315265;0.004984201;-0.08217072;0.019634131;-0.18523169;0.04726404;0.10406187;-0.07808365;0.18082327;-0.13208948;0.038468704;0.041524783;0.09565778;0.09915243;-0.019649189;0.063200206;0.06370842;-0.11258816;-0.02532469;0.07076992;-0.12858117;-0.001274433;-0.11808361;0.090998635;0.051713623;-0.17391253;-0.3300837;-0.06831747;-0.14627948;-0.011059944;0.064865224;0.08756941;0.064362764;0.06728123;0.1335153;-0.056841638;-0.076461196;0.25778016;-0.108807415;-0.07077343;0.037725143;0.064803176;0.08938878;0.041783936;0.047427766;-0.06751266;-0.017684063;-0.03807799;0.1623091;-0.24627915;-0.20861697;0.0017860109;0.06655184;0.025329407;-0.15675688;-0.18509102;0.122648045;-0.022605829;0.029451828;-0.0055013015;-0.005474702;0.043720007;-0.050656844;0.06619732;0.14485386;0.15346979;0.0447916;-0.07818849;0.09205831;0.106322534;-0.005647765;0.02050564;-0.16103786;-0.18723366;0.0031630748;-0.03522377;0.066491306;0.0740533;-0.30214486;0.16693063;0.10063212;0.1922434;-0.11595222;0.11638345;-0.11756286;0.051212877;-0.30314854;-0.053088043;-0.15634342;-0.04233165;0.15794325;-0.078815766;-0.06302727;-0.10338792;0.0030041363;-0.023452591;0.023780448;-0.16272719;0.008655046;-0.122400485;-0.059900966;-0.24297565;-0.2851138;0.002715147;0.18551178;-0.21507435;-0.17551695;-0.032444593;-0.057117406;-0.10944574;-0.33477804;-0.03687436;-0.07291105;-0.16609703;0.0066071097;0.06267694;-0.08007973;-0.11636757;0.2044667;0.35431996;-0.07337138;0.06339224;-0.070632726;0.089540765;0.12949269;-0.07519376;0.07698777;-0.14259617;-0.10433925;0.10223953;-0.16674079;0.24384968;0.05024655;0.17389815;0.1182716;0.089571856;-0.08285848;0.021458974;-0.12629981;0.00686069;0.05396253;-0.08202205;0.1902182;-0.07912902;-0.11545184;0.047123123;-0.05481515;-0.069588855;0.13366728;-0.029624231;-0.022038626;-0.102842785;0.02446759;-0.17238586;0.0008872235;0.06719324;-0.100532494;-0.16028044;-0.046525978;0.026597481;0.020359315;0.021648625;0.0684443;0.013924319;0.19673826;0.25637668;-0.05583813;0.045997422;0.012793162;-0.14332157;0.06784271;-0.16847442;0.024108846;0.036755852;-0.006712409;-0.04684244;-0.12703474;-0.07169407;-0.063361555;-0.0034911716;-0.046704635;0.22349241;-0.020819256;-0.17931701;-0.11084473;-0.09972244;0.09400583;0.35165977;-0.029111894;-0.018876266;0.004258944;0.04947243;-0.08132014;-0.1275359;0.17478701;-0.012776235;0.08118322;0.0696293;-0.14030416;0.13042118;0.041917395;0.1472253;-0.08421416;-0.049175356;0.062115718;-0.32128263;-0.1609848;-0.22878537;-0.07721033;0.025880704;-0.1798937;0.16202493;0.033389807;-0.040989187;0.14786366;0.09323004;0.009183443;-0.036187213;-0.15484057;0.13596487;-0.09542351;-0.052039254;0.06738159;0.041993167;0.09986844;0.027014052;-0.12891711;0.15541048;-0.080136806;-0.10879468;0.08564257;-0.08825838;0.055424865;0.04937337;-0.045568343;-0.24711376;0.115233034;0.10261444;0.1453812;-0.08068627;0.020508204;-0.0013577526;-0.021180535;-0.15963042;0.043578215;0.101093106;-0.17117354;-0.037537437;-0.06026758;0.012141201;-0.111093685;-0.060006153;-0.047953717;-0.06187818;-0.010164323;-0.24028432;-0.2996482;0.04394954;0.25195995;-0.04601919;0.12247827;0.01489933;0.12914981;0.19983512;-0.11572071;0.0763545;-0.09102233;0.19852957;-0.034064714;0.10446583;-0.11619457;-0.007117688;-0.08782506;-0.34274504;-0.35377356;-0.08957342;0.12511916;0.010288387;-0.07720222;0.04307302;0.20884933;-0.06690005;0.17413743;0.033551335;0.01935321;-0.040912166;0.042259455;0.026584985;-0.0057103885;0.1873165;0.1664118;-0.11506083;0.13037449;-0.05167174;-0.10175396;-0.034028426;0.037847664;0.151317;0.13083512;-0.04024157;-0.051276382;0.108729005;0.119892165;-0.1036382;-0.16232026;-0.028726231;-0.16582431;-0.13637961;-0.24277984;0.08187941;-0.13299812;0.13325076;-0.089808874;-0.08255313;-0.027821492;-0.15471448;-0.13183862;-0.1280963;-0.15119596;0.060457177;0.14705446;-0.056888953;0.080586374;0.040596962;-0.050637152;0.22325575;-0.11115454;-0.08650206;-0.33972976;0.096945636;0.05337764;0.09082023;0.22085978;-0.26386592;-0.035674874;0.10023762;0.004176593;0.14912038;0.10398637;0.036541533;0.064389154;-0.1513914;0.09717143;0.030080052;0.116734274;0.045002926;0.075355746;0.025446253
-0.16972093;0.09762208;0.13691767;0.0678914;0.24538708;-0.06265484;-0.0535687;0.09794708;-0.03482066;-0.056977842;0.22616789;0.10030938;-0.13150212;-0.09000757;-0.15487184;-0.12464509;-0.073369764;-0.070939876;0.113097824;0.06676912;-0.05748689;-0.14964262;0.086003296;-0.03391457;-0.029819252;0.024308503;-0.08080337;0.019111348;-0.06557464;0.042909827;0.12974636;0.026600003;-0.072514266;0.08746398;-0.038606495;-0.015852777;0.078223065;0.1683165;0.041414503;0.069915935;-0.089177884;0.0002304652;-0.010174033;-0.043333292;0.047850158;-0.056996886;-0.32320675;-0.09788369;0.18741223;-0.13048428;-0.10398437;-0.090606526;0.07851116;-0.12843621;0.106527105;-0.1770548;0.19205157;-0.13027702;0.010683686;0.091620326;-0.026721908;0.20332286;-0.20396064;0.1473678;-0.14187829;0.085735634;0.16134708;-0.031450607;0.055170506;-0.19782278;0.04891134;-0.27423283;0.065088235;-0.21484256;0.102847315;0.091275595;0.16377366;-0.103109814;0.11307288;-0.11859427;-0.14763418;-0.16172247;-0.11343011;-0.17576173;0.010431638;0.051355995;-0.004997205;0.02081644;0.11492769;-0.10588831;-0.08566606;-0.105772294;-0.06427331;-0.15197888;0.080246106;-0.071748674;0.14440307;0.11678087;0.06425269;0.0655269;-0.13416043;0.037641;0.037064333;0.22478123;-0.23941338;-0.2720957;0.035064686;0.08836504;0.06345438;0.0017429541;-0.14464979;0.21763453;0.020230236;-0.15215623;-0.10726991;0.18874183;-0.023703957;0.07269307;-0.15383635;-0.1840626;-0.018615395;-0.037094522;0.061807096;-0.11841235;0.07714407;-0.12724844;-0.0068854773;0.24303769;0.15826412;0.025324589;-0.084707715;0.12879847;-0.010710009;0.048190515;-0.15742816;-0.082063176;0.17794403;-0.2830507;0.03494758;-0.026761163;0.0683637;0.0222163;-0.043760154;0.08641255;-0.050259236;0.059925143;0.06414351;0.067125954;-0.017957384;-0.17650604;0.083972156;0.094396435;-0.16560465;0.09553305;-0.02391498;0.042094536;0.052628078;-0.117733024;-0.13834031;0.0012327096;0.27366188;-0.089714736;-0.18639867;-0.13674356;0.104852065;0.023044482;-0.11136933;-0.041271713;0.06311709;-0.00227272;-0.17824158;0.31257105;0.038221415;-0.13498153;0.041436024;-0.010279958;-0.061588015;0.2423381;0.0260469;0.13319157;0.14668632;0.00067967165;-0.07049776;0.11420257;0.047166206;-0.072984055;0.02539407;0.031891424;0.107029945;0.03638686;0.09039726;-0.05336233;0.016720528;0.021280143;0.060775023;0.07965714;-0.038804818;-0.08027722;-0.19943686;-0.08213493;-0.061509255;-0.10298445;-0.17353113;0.028838595;0.0453984;-0.09373434;0.07939137;0.054076914;0.11319355;-0.15250783;-0.06474248;0.07900753;0.10761989;-0.108452916;0.042670075;-0.02317883;-0.11398183;0.21894988;-0.1047705;0.04464438;0.25351924;-0.1853285;0.03973337;-0.15540345;-0.20827311;-0.032690343;0.15421633;0.14118885;0.17448394;-0.09872577;-0.038765244;-0.08129005;-0.08133541;0.078424394;0.017250815;-0.045965485;0.18251003;0.005855815;0.09713299;-0.04420632;0.06605484;0.098879114;0.10812481;0.04854541;0.033726472;-0.23810127;-0.027321635;0.0029505615;-0.16605376;-0.03144122;-0.16118129;0.10687232;0.055501394;-0.107719935;-0.30298343;-0.12526366;-0.1191569;0.11206543;0.08871097;0.08224661;-0.025663786;0.16402867;0.11444968;0.004122736;-0.14326127;0.09320363;-0.028952118;-0.115029;-0.090587944;-0.01109479;-0.019094905;0.062226225;0.00963473;0.0005230961;0.008702169;0.0007864934;0.09805516;-0.2811342;-0.18082772;0.007773139;0.06919462;-0.07161231;-0.13546875;-0.1878029;-0.06310639;0.05000635;-0.00219837;-0.08571533;-0.09862057;0.048639443;-0.14948379;0.054364473;0.14605264;0.20112757;0.018921591;-0.12057226;0.00817777;0.18893251;-0.03061026;0.18559618;-0.16056216;-0.20272557;-0.022996465;-0.07123958;0.001816505;0.14459659;-0.18308237;0.15084338;-0.14333728;0.2484766;-0.025375145;0.058703132;-0.08501163;0.12507111;-0.26696748;-0.00610102;-0.07036908;-0.07800673;0.08481158;-0.03858193;0.06993005;-0.027723342;0.029196793;-0.0572557;0.025306663;-0.25470284;-0.011740855;-0.14569911;-0.13472125;-0.24014421;-0.3478619;-0.033246223;0.2382071;-0.17929846;-0.17466977;-0.036863595;-0.04844781;-0.21017516;-0.37474403;-0.015504176;-0.09290776;-0.25515187;-0.04606138;-0.1346772;-0.038852368;-0.003931534;0.02498793;0.24957204;0.04764823;-0.038792472;-0.0032854197;-0.017029667;0.17146687;0.029428488;0.032399017;-0.13496791;-0.009033788;-0.010147237;-0.022482546;0.190484;0.019307792;0.052537862;0.12815262;0.12880068;0.003540902;-0.0055131526;-0.14412183;0.119880915;0.18455847;0.0002977779;0.11205877;-0.10672632;-0.0562779;-0.027367027;0.03919835;-0.084328346;0.045710497;-0.030243274;0.15216337;-0.07534342;-0.030722154;-0.15710449;-0.026450366;0.049187664;-0.14625958;-0.0772606;-0.0017897417;0.17336993;-0.107175194;-0.088647164;0.17281586;-0.14525841;0.271343;0.21996449;0.057876743;0.06871599;-0.009055313;-0.19656023;0.09265229;-0.017331053;0.1166531;0.002029409;-0.029514465;-0.11651759;0.037259314;-0.030114902;-0.08244298;0.08016223;-0.09234173;0.2533305;-0.105562374;-0.29717886;-0.15349028;0.06309662;0.0015489988;0.3317655;0.011592074;0.07899952;0.05228876;-0.013499746;-0.070156574;-0.28715658;0.061299372;-0.14197987;-0.06884977;0.11763457;-0.07983537;0.11492056;-0.029541157;0.10077529;-0.19378985;-0.121144995;-0.029359814;-0.264165;-0.09323698;-0.072467245;-0.12182192;-0.069697;-0.075546466;0.12676094;0.060776174;-0.034715082;0.07839314;0.10036592;-0.019480253;-0.060686443;-0.16317266;0.14637855;-0.005319766;0.060711674;0.05615642;0.063266344;0.10210258;0.015518312;-0.09859181;0.23436159;-0.12543525;-0.20410852;-0.0011901103;-0.03349586;-0.021914482;-0.08393433;0.014170347;-0.15765816;-0.019095935;0.17418389;0.1561231;-0.15769126;0.009146271;-0.101177216;-0.15781972;-0.1657687;0.0696319;0.1316657;0.022006236;0.01016975;-0.014246256;0.013328814;-0.24500664;-0.11257803;-0.16352323;-0.037291333;0.10731483;-0.21682465;-0.28477794;-0.080263205;0.043407902;-0.06461398;0.069975406;0.027139043;0.012522646;0.24328153;-0.2925789;0.07733099;-0.046459757;0.18204442;-0.022509765;-0.030364485;-0.030845758;-0.09829075;-0.026007459;-0.3303797;-0.20564686;-0.036640726;0.08760235;-0.0026108432;-0.10146697;-0.027761295;0.13827704;0.008846239;0.02182471;-0.0010304267;0.031114403;-0.017084919;-0.053838942;-0.042919703;0.009582312;0.08870246;0.20901287;-0.2192759;0.11143235;-0.06996706;-0.07164987;-0.053502683;0.09064201;0.16516806;0.062748365;0.07672249;-0.07738071;0.17003787;0.0007369933;-0.105441004;-0.09984199;0.089603975;-0.074790254;-0.15975611;-0.14865035;0.036210306;-0.09320882;0.05293698;-0.042588033;-0.21976131;-0.108796015;-0.09139033;-0.17101741;-0.102749564;-0.1921713;-0.05168195;0.1622952;-0.04425798;-0.022748528;0.0063769235;-0.06879334;0.048065636;-0.10927353;-0.03655798;-0.35920295;0.03983798;0.03923132;0.12599519;0.15171057;-0.18848468;-0.115613796;0.0405907;0.07277296;0.15916803;0.044791017;0.09238027;0.098513454;-0.09231559;0.110303834;0.023624144;0.010468819;-0.07035872;0.1388598;0.045668248
-0.06922552;0.14198774;0.06710647;0.14049347;0.043049984;0.024505045;0.090630464;0.08111003;-0.04066657;-0.014366646;0.15913633;0.0732243;-0.18257241;0.02609661;-0.18665294;-0.04824892;0.00797553;-0.18290214;-0.03231518;0.09145377;0.03632591;-0.06096239;-0.06101454;-0.07501024;-0.08343137;0.008014482;0.0042338013;-0.115465485;0.02340583;0.066765666;0.048262075;0.038378045;-0.1243943;0.012832116;-0.023255447;-0.11032071;0.021117635;0.16373621;-0.018435936;0.086351916;-0.06340497;-0.017054908;0.058833417;-0.1367723;0.06139038;-0.23447172;-0.20074998;-0.0847089;0.14247693;-0.1475499;-0.15182713;0.059134495;0.0035142163;-0.18235722;0.048293315;-0.08780787;0.18512745;-0.14242218;0.031367138;0.15525548;0.14631328;0.20756863;-0.11416024;0.12555397;-0.17546631;0.057525866;0.119433336;0.02928515;0.053940814;-0.1730289;0.114108734;-0.0918836;0.109429315;-0.20671801;0.04475205;0.055799145;0.024702543;-0.030013219;0.19326882;-0.08091567;-0.045159984;-0.16514184;-0.106887996;-0.16712043;0.047255922;0.21913621;0.03622175;-0.080431454;0.01155514;-0.17249437;0.013369087;-0.09823603;-0.18123333;-0.09752013;-0.009797873;-0.0898938;0.011313427;0.15220709;0.096313074;-0.06051466;-0.19876815;0.09025037;0.03493123;0.2334782;-0.28869715;-0.32059377;-0.027483884;0.13930987;-0.04908;-0.016433543;-0.15460013;0.16807683;0.042766947;-0.1787996;-0.11906328;0.030646507;0.17076491;0.13242318;-0.21338858;0.013645717;-0.03262216;-0.0172549;-0.019756796;-0.17945099;-0.01585286;0.018117726;-0.07497627;0.27438584;0.19878925;0.0850185;-0.13136703;0.067207895;0.017596472;0.04376428;-0.18820278;0.025648773;0.07323655;-0.29664305;0.068911366;0.026498564;0.16149707;0.06036891;-0.062062576;0.12506548;0.08257258;0.008828146;0.08326776;0.08226125;-0.12153864;0.007216609;0.014602456;0.017606294;-0.21917497;-0.00077064894;-0.1762828;0.16756241;0.009186821;-0.0765474;-0.095543325;-0.0028759604;0.22095378;-0.08613685;-0.11633909;-0.04557743;0.15040767;-0.009131601;0.043680493;0.072299;0.09602885;0.02646678;-0.1056964;0.24397868;-0.06499227;-0.088395044;0.17157666;-0.054896716;-0.21394658;0.10233694;-0.045271676;0.012389741;0.1566289;-0.06501678;-0.13459457;0.018217841;-0.033536326;-0.01940407;0.091184296;0.07955927;0.029186415;-0.037838902;0.12544063;0.004772405;0.12625343;-0.004174542;0.02674378;0.059963677;0.021165524;-0.065353416;-0.17135876;-0.1267961;-0.26468995;-0.00884279;-0.18102609;-0.007163581;0.021637782;-0.13976493;-0.009383465;-0.07948887;0.0702309;-0.1664637;-0.035251837;0.0851374;0.12461718;-0.15062018;-0.045167565;0.04044154;0.0019784616;0.25735143;-0.08040584;-0.008349529;0.22830875;-0.2407583;0.15414959;-0.06902874;-0.20735157;-0.069489904;0.31412137;0.19117294;0.12570158;-0.09976206;-0.035457976;0.08527335;-0.04093824;-0.032195218;0.090821475;-0.14813827;0.18148983;-0.0255718;0.18535987;0.04567267;0.05827648;0.1034901;0.0702412;0.035913363;0.030855285;-0.061956212;0.061734814;0.009807339;-0.18850178;-0.08368203;-0.120066345;0.055580698;-0.06016336;-0.11366491;-0.31045806;-0.1861694;-0.18027574;0.11397341;0.04544935;0.13505554;0.09294602;0.095709056;-0.007479614;-0.033241827;-0.17926936;0.20471288;-0.1252652;-0.03996224;-0.0779965;-0.035448994;0.061817672;-0.017638694;0.0230822;0.028067209;0.103944294;-0.09269642;0.22799712;-0.19082265;-0.06383981;0.091622375;0.004674482;0.033031575;-0.066547684;-0.14467773;0.004689557;0.18501037;-0.053099286;-0.10001409;0.023205254;-0.07330533;-0.030623866;0.07686;0.192136;0.082048856;-0.04682443;-0.021308335;-0.023847288;0.0884074;-0.02488481;-0.029260756;-0.21013059;-0.19575618;0.17419727;-0.070147045;0.034083948;0.16523635;-0.3185337;0.09663403;-0.11729248;0.25841278;0.06163235;0.12511946;-0.06010098;0.079598196;-0.3149148;-0.12879874;-0.21810928;-0.05683254;0.22084597;-0.12743402;-0.0548962;-0.07342744;-0.017308038;-0.09584548;-0.031364746;-0.17394167;0.04567426;-0.23794828;0.033307176;-0.27788663;-0.13431005;-0.15804055;0.13853411;-0.097110786;-0.12888917;-0.1627656;-0.092015035;-0.16072358;-0.26862043;-0.10308098;-0.06238665;-0.23072155;-0.012629378;0.02658018;0.0018805675;-0.10052749;0.10497964;0.3804095;-0.021699809;-0.03644845;-0.08928797;0.057145588;0.04613992;-0.06261222;0.010499959;-0.0036943902;-0.14791822;0.092870235;-0.04851523;0.29769683;0.082577184;0.15794905;0.22153483;0.17055024;-0.032471366;0.122607276;-0.07003648;0.14862315;0.07233999;-0.05766491;0.026121546;-0.12366004;0.033802018;-0.043721627;0.080199115;-0.031164767;0.05400707;0.045955554;0.11569318;-0.030865353;0.05624669;-0.25665158;0.06731445;0.07936916;-0.11430581;-0.015199164;0.04864804;0.12832758;-0.055038687;0.033637937;0.048848476;-0.1718834;0.15293407;0.26536778;0.046459693;0.012105412;0.08826067;-0.1881683;0.11047033;-0.10266526;0.18359429;-0.10001426;-0.048715524;-0.0352808;0.10646981;-0.104440644;-0.07455223;0.04612633;-0.21084166;0.13253991;-0.15883729;-0.32520226;-0.26774487;-0.065721065;-0.053461015;0.3010383;-0.07050795;0.018398304;0.10275844;0.10525547;-0.004194995;-0.14489374;0.27170226;0.052075047;0.0929219;0.008691679;-0.18395452;0.15085135;-0.12219761;0.101650365;-0.11134123;0.09141466;-0.035396066;-0.2299393;-0.16252793;-0.05506602;-0.025886493;0.047338735;-0.18087521;0.08427288;-0.007377118;-0.004575018;0.18395983;-0.048755422;0.016578969;0.058949936;-0.07745758;0.04121239;-0.059566624;-0.057154056;-0.027997456;-0.08955831;0.043562688;0.020999314;-0.043912426;0.18702741;-0.052565917;-0.08678214;0.06496714;-0.118015096;-0.009778218;-0.037127614;0.012522532;-0.30921322;0.17338564;0.1318305;0.14372642;-0.27202374;-0.078561164;-0.119937405;-0.07072832;-0.10193964;-0.024869861;0.17600273;-0.07586866;0.00067924074;-0.0910693;-0.013347196;-0.1189715;0.025034167;-0.2008326;-0.02481876;0.00059083966;-0.21549205;-0.18619183;-0.06212488;0.1783837;0.054927733;0.15770175;-0.09970088;0.06527254;0.10851536;-0.22944036;0.17198631;-0.11006806;0.016777758;0.007195404;-0.025577098;-0.18365651;-0.048613336;0.01915839;-0.28974652;-0.19856004;0.058411304;0.07362202;-0.104239285;-0.08999049;-0.034743786;0.13260892;-0.033983856;0.070377745;0.06218465;0.046406455;0.048917454;0.011381923;-0.11188258;0.004704017;0.01649808;0.2674735;-0.11078592;0.1364229;-0.07797372;-0.07561061;-0.0779467;-0.0492021;0.10654062;0.057674948;0.01612741;-0.096229374;0.12692586;-0.02735362;-0.15344492;-0.055537533;-0.0026013756;-0.014607853;-0.1740756;-0.26488334;0.061984085;-0.16676429;0.23475192;-0.15164305;-0.23560052;-0.059062578;-0.13686545;-0.16319993;-0.29068485;-0.11182972;-0.112351276;0.11109937;0.06957985;-0.031133706;0.06330646;0.051244095;-0.0016525121;0.027877526;0.009182996;-0.27548325;0.046462785;-0.006704555;0.077620916;0.12867923;-0.17895986;0.026730824;0.05868936;0.07124299;0.09832366;0.19608049;-0.0488395;0.009364309;-0.1499076;0.032387957;0.102810055;0.013247848;-0.08011538;0.09648623;-0.04942747
-0.13667421;0.13844861;0.0050613163;0.15186644;0.09659178;-0.05909033;0.050108533;0.1126595;-0.104842044;0.11420556;0.018008796;0.15016165;-0.1585863;0.019654552;-0.08209909;-0.024831604;0.064410165;-0.2142734;0.09172624;0.18146953;-0.03865782;-0.04170596;-0.051670745;-0.099322334;-0.01473205;-0.15744688;-0.092609175;0.054092467;0.041361324;0.042669352;0.10996921;-0.015056071;-0.06883731;0.09843194;0.07338975;-0.055213284;0.013534609;0.17111397;-0.04576045;0.17783436;-0.0638889;-0.07831076;0.07679942;-0.030628737;0.07995521;-0.28440136;-0.16850011;0.035130788;0.12083916;0.0014029142;-0.092011936;-0.0857121;-0.03203553;-0.17038043;0.097424954;-0.09003708;0.10345256;-0.024537163;0.06310049;0.1262349;0.035481658;0.110866055;-0.23926014;0.026090218;-0.17631656;0.09548976;0.18064696;0.07899486;-0.012674936;-0.21658464;0.07152634;-0.23958467;0.01410406;-0.20101207;0.11799352;0.05871318;-0.021096043;-0.046135977;0.11739611;-0.18199778;-0.0970399;-0.1755646;-0.18180464;-0.16513932;0.014647783;0.114589125;-0.106313;0.020895636;-0.08845309;-0.07857893;-0.12995237;0.046128847;-0.18212368;-0.14226648;0.14535713;-0.158619;0.030178498;0.08898825;0.06027547;0.011525368;-0.19147024;0.21276523;0.050886635;0.21835344;-0.16265185;-0.20595254;0.029259238;0.042828385;0.05961309;-0.061500885;-0.14482975;0.1350367;-0.01878318;-0.135885;0.024750378;0.081058696;0.0076779546;0.042871792;-0.17574091;0.0019766947;0.006687038;-0.030967135;-0.039031863;-0.0012288061;-0.070491284;-0.056198984;-0.10314162;0.20427768;0.17566256;-0.011065885;-0.112315394;0.17253111;0.0780293;0.06634146;-0.1026972;0.106909856;0.019062895;-0.32424033;-0.033191927;-0.019933736;0.08815576;0.1424191;0.005752958;0.09463682;-0.0008618468;-0.088776104;-0.08410198;0.080045015;-0.12610269;-0.035236694;0.0333577;0.12921868;-0.07286082;0.055888735;-0.12663944;0.009819847;0.09174933;-0.025619892;-0.12348084;0.04170606;0.21606842;0.097999446;-0.16758756;-0.047704805;0.23339845;0.020431735;-0.043706313;0.017850537;0.22415487;-0.09325907;0.00031379217;0.21441703;0.05189895;-0.066138655;0.026930837;-0.031896863;-0.09033557;0.16578051;-0.11250731;-0.058613434;0.014073299;0.009140964;-0.099035926;0.115608305;0.019580284;-0.16199057;0.094581164;0.09980992;0.19629997;0.0053340704;0.09976419;0.013115598;0.07175149;-0.06931044;-0.11962398;0.14320154;0.0049059778;-0.033950098;-0.16040052;-0.2329274;-0.13295467;-0.12268706;-0.2509092;-0.043252133;0.014236653;-0.12858725;0.018128112;0.00057280663;0.05263436;-0.14773569;-0.06756357;0.025852947;0.1498436;-0.16163634;-0.058648206;0.14053585;0.04323738;0.13636719;-0.0030440278;0.03797953;0.25967765;-0.24985191;0.07566365;-0.09411909;-0.1985028;-0.041483615;0.2575738;0.048445497;-0.011168024;0.010000872;-0.008556024;0.07640046;-0.113249734;0.0397769;0.1090606;-0.110486686;0.17271431;-0.075743526;0.15967835;0.039382;0.19496992;0.21513148;0.12169429;-0.042455573;-0.0079093035;-0.14164129;0.05435408;-0.13051103;-0.10147683;-0.080204144;-0.19035502;-0.11419586;-0.0011283488;-0.12635432;-0.35248506;-0.22445497;-0.08367537;0.027907511;0.039125778;-0.002982805;0.022974038;0.2040083;-0.051684283;0.036307767;-0.28859368;0.087021925;-0.062696435;-0.017660728;-0.11146087;0.026013434;0.047519576;0.019405033;0.18125834;-0.051881142;-0.03773342;-0.1088371;0.12447313;-0.2669511;-0.14269467;0.112249546;-0.028328832;-0.084695816;-0.035804044;-0.24871169;-0.030972354;0.2702545;0.1012639;0.045251098;-0.17680785;-0.051857404;-0.018854925;-0.048318658;0.0202018;0.23381221;-0.09205461;-0.046815027;-0.012181953;0.06071381;-0.03747833;0.047812354;-0.24038549;-0.25432456;0.033684935;-0.11885875;-0.07590538;0.10403557;-0.20000926;0.15808275;-0.0957644;0.23738036;0.07732163;0.050043758;0.12069991;0.17290859;-0.226639;-0.16321386;0.015903177;-0.14627244;0.04626983;-0.10289657;0.010656956;-0.043842275;0.027879052;0.033062205;-0.051068176;-0.3051485;-0.062222548;-0.1882706;-0.032940187;-0.19900317;-0.14735502;-0.12472672;0.18468662;-0.07612089;-0.12425923;-0.15866245;-0.05209173;-0.20385584;-0.3100808;-0.0045439163;-0.0952068;-0.22593178;-0.17965312;-0.12558383;-0.005869184;-0.16547231;0.03836185;0.27274582;-0.105164;-0.056466714;-0.010301094;-0.029061323;0.121271454;0.043390792;0.025521727;0.12159132;-0.12518722;-0.0028871559;0.050313406;0.27530032;-0.04264738;0.0059857946;0.120032184;0.23832387;-0.00032876834;0.05286962;-0.06792866;0.15124969;0.11437464;-0.06022101;-0.011153646;-0.121614106;-0.02375168;-0.054540794;0.035468396;-0.031572726;-0.018718615;-0.067226246;0.04354421;-0.0980284;0.042159196;-0.24904935;0.053835653;0.08733347;-0.019689979;-0.08202457;0.02266381;0.011670672;-0.08894616;0.0033739174;0.06745245;-0.114929885;0.16295783;0.1712415;0.13393621;0.08240553;0.009984772;-0.19469832;0.037819795;-0.11666181;0.028742693;-0.08404348;0.0048711943;-0.044769913;0.08840519;-0.06904289;-0.040573712;0.07181535;-0.087737866;0.082212925;-0.16906175;-0.19223395;-0.22501642;-0.06619103;0.039691932;0.37336412;-0.0030689798;0.0754395;0.016620778;0.0412661;-0.012630119;-0.25084332;0.10454633;-0.056966834;-0.02155124;0.02307917;-0.019713543;0.20161933;-0.11711224;0.21100822;-0.16709153;-0.049750302;-0.040204905;-0.15356013;-0.057790786;-0.11540649;-0.13312544;0.071364075;-0.1582115;0.084963016;-0.049560383;-0.057177808;0.1660483;0.07325251;0.003963276;-0.07285821;-0.079947315;0.01887206;0.05366256;0.015333533;0.07472306;-0.0510336;0.08858059;0.051591963;-0.04474912;0.12463761;0.053587995;-0.025644567;-0.04092755;0.014626888;-0.0052849725;-0.12841372;0.07567911;-0.2503298;0.12628016;0.12365521;0.09943727;-0.2797723;-0.024840875;-0.032307085;-0.114857964;-0.015905682;-0.11083685;0.12142879;0.025610441;-0.09021428;-0.06650755;0.10723266;-0.15482423;-0.0650976;-0.19288418;0.1396502;0.086010724;-0.15884364;-0.022746176;-0.012308131;0.058732465;-0.015679844;0.17299667;0.062433813;0.00967261;0.18364038;-0.250462;0.12533286;-0.014865501;0.14584193;-0.042465545;0.12267914;-0.083865985;-0.046420917;0.044515237;-0.25055248;-0.2366113;0.12158744;0.110590704;0.023570595;0.010223012;0.056449182;0.10924402;-0.09715608;-0.049594074;-0.048109617;0.123283945;0.020562077;-0.06880987;-0.036539223;0.023526574;0.041291673;0.15446447;-0.15890694;0.12811336;-0.06170463;-0.17329527;-0.11711744;0.059408646;0.15978055;-0.005624557;-0.039731685;-0.1631247;0.03330793;0.05346974;-0.04666612;-0.15773085;0.0806944;-0.17822888;0.0072659445;-0.09392256;0.04060266;-0.217896;0.11767072;-0.0044917935;-0.19183101;-0.037331473;-0.21962768;-0.060333934;-0.22520575;-0.07477726;-0.0115001155;0.16768134;0.055131376;-0.060803182;-0.03208567;0.049898934;-0.05151469;-0.055698335;0.115478404;-0.14766379;-0.069827355;-0.14809927;0.07605693;-0.0039600125;-0.27692497;-0.033264365;0.09913237;0.078577995;0.031217145;0.10818875;0.049825534;-0.040432315;-0.00032774187;0.026822394;0.07646398;0.1033279;-0.031904936;0.16199784;-0.022668002
-0.1126852;0.22112183;-0.07242599;0.154698;0.1528692;-0.022408893;0.10313729;0.11393083;-0.13760164;0.028009254;0.12917867;0.12784125;-0.037224937;-0.036454864;-0.13777755;-0.14796971;0.06345758;-0.11443022;0.0972193;0.12611784;-0.049242415;-0.015507578;0.015731977;-0.04125486;-0.049622923;-0.18884788;-0.08362324;0.043322008;0.09655863;0.16638616;0.0593712;0.11716959;-0.20819171;0.11556993;0.04290877;-0.01483715;0.00042989873;0.21537602;-0.038256507;0.21010388;-0.018747102;-0.07507137;-0.0025557138;-0.22564685;0.062340613;-0.16465613;-0.21668029;-0.003430349;0.05464714;-0.0682177;0.013309524;-0.07613354;0.08060363;-0.16672844;0.061899815;-0.13640882;0.0499223;-0.14527403;0.05610844;0.17578743;0.11619596;0.13645414;-0.31331387;0.029814905;-0.18259995;-0.0077266856;0.055267874;0.171847;-0.028473753;-0.13903686;0.11523965;-0.09451157;-0.06866578;-0.1639437;0.078704886;0.18027578;0.082532145;-0.14116736;0.20322984;-0.09730933;-0.10639823;-0.17059505;-0.17986527;-0.10077173;0.022661963;0.07623626;-0.005476305;0.06577725;-0.10420742;-0.067974456;-0.1131733;-0.14509523;-0.1566353;-0.059524994;0.14435343;-0.29722753;0.043683555;0.08349845;-0.042904366;-0.16044335;-0.16427423;0.13990836;0.004683448;0.19931026;-0.29999307;-0.24375337;-0.03502984;0.13021092;0.14721107;-0.08886391;-0.06392139;0.17745654;-0.09287441;-0.17111568;-0.029335776;0.15823229;-0.0100265425;0.06489496;-0.19939458;-0.11104344;0.08131128;0.07238366;-0.06685482;-0.10350011;0.09812282;-0.08476403;0.008524745;0.18511057;0.13131012;0.067260414;-0.0337592;0.10850236;-0.0329626;0.12658526;-0.11023162;0.11727516;0.10268047;-0.3479467;0.11093555;-0.043143388;-0.012080494;-0.02403726;-0.030158544;0.042892016;0.056727033;-0.1082857;-0.088961355;0.12581885;-0.16932769;-0.097680785;0.177197;0.039294563;-0.0920029;0.12460836;-0.03598483;0.03781064;0.15758894;0.021496778;0.036381748;-0.079733394;0.1699917;0.00086540455;-0.1661856;-0.08115725;0.16662498;0.09337022;-0.039219577;-0.016742667;0.23305927;-0.07987872;-0.010465969;0.18907358;-0.010858202;-0.08707117;0.07320426;0.11233197;-0.082970135;0.1657828;-0.04510634;-0.06958434;0.016956681;-0.09154616;-0.08579489;0.06641416;0.02851897;-0.13997272;0.072938085;0.13731042;0.25913253;-0.008562408;0.05997136;-0.045200218;0.096418284;-0.116755;-0.07678868;0.15781045;-0.027259598;-0.1183628;-0.11284419;-0.19464242;-0.22197115;0.0154393185;-0.23122334;0.0026354382;0.061853383;-0.049279936;0.0972554;-0.041116506;0.071384266;-0.25416458;-0.17760755;0.083619215;0.121877275;-0.048909146;-0.15023558;0.22552368;0.088465855;0.18414573;-0.09525973;0.06122434;0.14014228;-0.11319136;0.072153;-0.1847902;-0.09539752;-0.041496523;0.3010038;0.102629304;0.15384679;0.01741736;-0.04191606;0.04257761;-0.13524878;0.07727662;0.09855955;-0.080917075;0.0989884;0.0026117465;0.15051165;-0.0017652151;0.12010708;0.10540839;0.23144545;-0.020855824;-0.023677722;-0.14642484;-0.05891061;-0.06258629;-0.19513214;0.012456591;-0.12224938;0.013422216;0.04985657;-0.016484575;-0.2383197;-0.120562956;-0.0050326;0.08758526;0.12646247;-0.0019692169;-0.08214268;0.12299519;-0.046261303;0.04622828;-0.2799419;0.115416236;-0.04549912;-0.09294517;-0.18459067;0.061365023;-0.067218356;0.05838272;0.15492302;0.041652072;-0.046861753;-0.08654115;0.028830271;-0.15626694;-0.07415693;0.06015764;0.07600315;-0.1730315;0.079581544;-0.22164975;-0.07764256;0.1250391;0.071429655;0.037796807;-0.13352387;-0.22171511;0.013045748;-0.11249567;0.09517681;0.31770176;-0.07003116;-0.10083634;-0.13791797;0.18062979;0.022989463;-0.016919952;-0.2694557;-0.22577415;-0.0054959436;-0.18199101;-0.02425072;0.09024766;-0.2008076;0.23383747;-0.018576099;0.118875004;0.053939603;0.00050500216;0.035034813;0.17223689;-0.30779895;-0.16167077;0.033989172;-0.09969588;0.06230257;-0.09918467;0.18373565;0.04284377;-0.08939016;0.13919176;-0.042476952;-0.084360965;-0.060592063;-0.08792521;0.025364175;-0.111861356;-0.19241653;-0.19803156;0.20925622;-0.07264522;-0.13355213;-0.15731922;-0.019920541;-0.15505806;-0.17488104;0.11805936;-0.009530708;-0.24112421;-0.13335963;0.020606471;-0.013818411;-0.12305992;0.0629599;0.26120403;-0.02018008;-0.049219165;-0.11117162;-0.07813724;0.0569925;0.017804226;0.04095962;0.13825415;-0.08876914;-0.041377902;0.1832149;0.29024366;-0.045126434;0.10472091;0.07280379;0.23342617;-0.07815971;0.048104428;-0.14353408;0.21135318;0.1277023;-0.12779951;-0.03286907;-0.09454197;-0.07587319;-0.048672218;-0.028495766;-0.21012786;0.0651968;-0.10581812;0.07290396;-0.06261178;0.11819084;-0.1971107;-0.024160367;0.044718705;-0.11647815;-0.056358878;-0.0653269;0.1212125;-0.05530225;0.0072697564;0.065759875;-0.12514845;0.29028785;0.20102124;-0.03522424;0.062196124;0.11455968;-0.12781335;-0.028895086;-0.00934115;0.08952956;0.13355497;-0.014106667;0.114463;-0.093417905;-0.030081047;-0.13530922;-0.033902448;-0.13148426;0.20163755;-0.07456735;-0.2490869;-0.32047433;-0.018533096;-0.1406678;0.36043996;-0.13895655;0.02356798;0.053155467;0.10241411;-0.031470068;-0.23781396;0.13570012;-0.08435083;0.10181561;0.055814907;-0.05877772;0.10099239;0.006882634;0.15684612;-0.07546588;-0.026633117;-0.11481162;-0.16913217;-0.058772553;-0.032995895;-0.07897798;0.019443816;-0.16474572;0.059305076;0.047873285;0.054714255;0.1279251;0.022330936;0.07273598;0.043486543;-0.0525076;0.1281988;0.1044784;0.08130375;0.09136912;-0.013694924;0.18393344;-0.02590809;-0.107647255;0.063125916;0.064208254;-0.11967264;0.041223258;-0.021439167;0.12597176;-0.06965949;0.003439695;-0.21640141;0.033605874;-0.017067963;0.08843805;-0.21232435;-0.0837789;-0.07330359;-0.03011519;-0.118985675;-0.006462861;0.024871895;-0.0030596696;0.045869056;0.047287744;0.11702329;-0.23059298;0.009948561;-0.08864758;0.03070905;-0.04275856;-0.19591151;-0.123813346;0.054098193;-0.058347825;0.059043195;0.15023974;0.06516902;-0.018267956;0.13877484;-0.21379863;0.04950776;-0.13009332;0.029153774;-0.018760368;0.13459654;-0.10270569;-0.06609218;-0.06967133;-0.1995516;-0.15803586;-0.0071983123;0.011689769;0.0357736;0.02791124;-0.027483273;0.1342213;-0.028886382;-0.050229877;0.07712608;0.075211555;-0.10605811;-0.0064169704;0.02667952;-0.03473728;0.14355586;0.09111946;-0.22947092;0.16585985;-0.08827146;-0.13396749;-0.08194533;0.11072453;0.06708612;0.02168677;-0.04387868;-0.23156984;0.0021706757;-0.044612918;0.0936823;-0.10772023;-0.023159865;-0.19643353;-0.0579736;-0.19822393;0.023618013;-0.06342829;0.033475496;0.020630773;-0.23205018;-0.10125171;-0.29004955;0.063490205;-0.14728053;-0.10681969;0.09592744;0.15812284;0.04282256;-0.04116386;-0.028203461;-0.057508502;0.02206636;0.037626334;0.084020264;-0.2534313;0.030830659;-0.16140057;0.14434429;-0.0053791064;-0.2759054;0.07273351;0.093366735;0.064989455;0.0077972384;0.117950454;0.06518144;-0.07970246;0.06876157;0.16228859;0.08775049;0.10717089;0.07787527;0.030827256;-0.038927592
-0.09326587;0.0724397;-0.022187106;0.3029702;0.049466584;0.06899842;-0.039222267;0.14692542;-0.16484089;0.086543486;0.055328626;0.1297069;-0.07374756;0.13175958;-0.030189887;-0.067406006;0.11575128;-0.17360784;0.042188313;0.0493825;-0.13725539;-0.06910201;0.02171622;-0.10447091;-0.059765972;-0.1331365;-0.13400722;0.08450319;0.14750847;0.11661869;0.058515135;0.041044462;-0.07986572;-0.0024566937;0.040337466;-0.121563874;-0.020814056;0.12139521;0.10330401;0.09512083;-0.063311756;-0.084685184;0.09415884;-0.14402622;0.057739176;-0.20310229;-0.24494675;0.032486837;0.033740852;-0.090270266;0.0067181867;0.004902682;0.028860798;-0.051752705;0.011538142;0.02561134;0.12429894;-0.17311701;0.10968359;0.11456305;0.006060317;0.14266197;-0.21973546;0.026795208;-0.26199943;-0.038103417;0.012141222;0.099557504;-0.022602506;-0.18222676;0.19422503;-0.149618;0.045549627;-0.18761097;0.08928767;0.12674376;0.08402166;-0.06700382;0.18560983;-0.045551784;0.043131877;-0.15797728;-0.059120186;-0.032048043;-0.015960936;-0.07124016;-0.14205591;0.11355027;-0.07713647;-0.04147651;-0.1246088;-0.0037522803;-0.21982744;0.013846835;0.0855504;-0.17268836;0.10668255;0.019817423;-0.009052701;-0.021202743;-0.21149486;0.10432095;0.14041592;0.120043494;-0.27419573;-0.13860261;-0.0641495;0.08466685;0.060918044;-0.08908789;-0.19067979;0.06857995;-0.044209503;-0.0865334;-0.06822133;0.002822307;-0.00015851419;0.05376378;-0.17035553;0.03994787;0.00091983104;0.11440775;-0.01864986;-0.071054734;-0.046046592;-0.023602102;-0.044885207;0.00027353267;0.16183488;0.030657947;-0.15003845;-0.043169048;0.0498775;-0.029007329;-0.06123691;0.030592116;0.072809175;-0.27035236;0.02643573;0.05477571;0.0405491;-0.0010858381;-0.040591728;0.026365021;0.12976074;-0.08884859;-0.13459875;-0.06146021;-0.037740566;-0.05225107;0.12645793;0.17244494;0.112360366;0.1601057;-0.030270576;0.11551832;0.115129225;-0.009577379;0.024111265;-0.02321942;0.11270986;0.13585183;-0.09877152;0.04756149;0.24983412;0.072499536;-0.11053763;0.07512968;0.123450644;-0.114270814;0.052173626;0.16069838;0.07000078;-0.15157987;-0.008811078;-0.0149612175;-0.034388524;0.11333797;-0.096875675;0.029507399;0.09095474;-0.1772937;-0.13606909;0.09649182;-0.021092001;-0.044645816;-0.021526458;0.11697883;0.23250718;0.14464867;0.011595215;0.096121565;0.01648119;-0.093508594;-0.039252307;0.008978732;0.096146174;-0.123844564;-0.12370819;-0.16932127;-0.19878013;-0.065109275;-0.15195641;0.023724608;0.09560829;-0.17542046;0.11639022;0.019997953;0.12959942;-0.090438224;-0.053638995;0.11529837;0.181335;-0.20731734;-0.028543226;0.29004723;0.07254799;0.22645283;-0.02145766;0.15984285;0.23279424;-0.19096088;0.1677621;-0.008734188;-0.16758752;0.08305281;0.2432784;-0.0005765247;0.01808642;0.086140454;-0.104407266;-0.10752895;-0.050509296;0.009691985;0.17123309;-0.09246006;0.06810199;-0.1175994;0.08934275;0.074337155;0.11343599;0.15631297;0.179372;-0.078729145;0.015037628;-0.18827546;0.046702325;-0.13809218;-0.07618431;0.15341677;-0.080994636;-0.0028313033;-0.033431124;-0.06508538;-0.3011203;-0.13717031;0.056075167;0.021373237;-0.037553247;0.037694436;0.039327867;0.21191427;0.020285303;0.10647585;-0.25764868;-0.02435806;-0.06458453;-0.12896962;-0.118113674;-0.010032223;0.09937185;0.057710327;0.14991868;0.0010925941;0.0825406;-0.10277575;0.17041847;-0.128136;-0.040493365;0.1021492;0.00167719;-0.15088046;0.05502332;-0.19540092;-0.032458026;0.2700432;0.061849162;-0.051198717;-0.08363045;-0.13299023;0.030656608;-0.15478691;0.010653755;0.27473545;-0.16434695;0.022629127;-0.16713513;0.09917516;-0.033171885;-0.000894612;-0.22525841;-0.0917373;-0.0065849107;-0.13367261;-0.11113203;-0.03258789;-0.12622769;0.18705265;0.07573073;0.06197478;0.018643571;-0.02893397;0.110453926;0.15915535;-0.17118184;-0.057225186;-0.070302725;-0.117548816;0.09510964;0.003980371;0.25831473;0.005975963;-0.06269485;0.13174991;-0.18945755;-0.22474608;0.021530898;-0.17763431;0.020052344;-0.10984182;-0.20441346;-0.112063654;0.04806864;-0.06888491;-0.19750667;-0.14750476;-0.11208097;-0.07276268;-0.109774224;-0.0019675968;-0.104999825;-0.127139;-0.08487226;-0.008222941;0.050533164;-0.12537964;-0.008198961;0.20795164;-0.060755614;-0.03742933;-0.06965673;-0.09264863;-0.008324672;0.084982604;0.16207851;0.09160529;-0.0009779251;-0.07169008;0.2077403;0.20062755;-0.04235203;0.06491875;0.09492957;0.25516477;0.016811172;0.055734023;-0.101755604;0.09636522;0.16911386;0.010306586;-0.17176245;-0.051569097;-0.08095769;-0.14259008;-0.02276692;-0.07415834;0.15947598;0.037411787;0.014865301;-0.06580534;0.007953301;-0.1515586;0.057080004;0.11592942;-0.14657657;-0.006414056;-0.15678664;0.013366151;-0.028309109;-0.012983602;0.014460151;-0.050409783;0.28413627;0.27060878;0.09411746;0.1202564;0.07376101;-0.29999506;0.14643331;0.019512063;0.0443062;0.038448997;0.051681243;0.0705657;-0.019133316;0.05119278;-0.0783578;0.052724916;-0.09358168;0.055808835;-0.17343783;-0.26645833;-0.2489691;-0.0011241846;-0.14582317;0.24849711;-0.055299874;0.097770065;0.042935297;0.10807547;-0.07825191;-0.20529887;0.18175006;0.08667215;0.040609233;-0.058982715;-0.08003785;0.15052949;-0.091194205;0.17363274;-0.19833715;0.079959005;-0.16729276;-0.08075914;-0.070291005;-0.10194848;-0.119660586;0.06645327;-0.21369347;-0.012156678;0.057497136;-0.019834079;0.01867159;-0.013725614;-0.03658921;0.010728377;-0.06423002;-0.022725224;-0.021312198;-0.008855623;0.1762165;-0.1298985;0.05145501;0.012516549;-0.1396033;0.17264898;-0.04697365;-0.02044232;-0.09081142;-0.06534182;-0.0048219305;-0.11551515;0.13118973;-0.1883043;0.21655518;-0.09472769;0.21411417;-0.28713858;-0.17132811;-0.030664997;0.019857539;-0.086283706;-0.06495766;0.09276533;0.12657061;0.036460664;-0.116405755;0.062937565;-0.063757226;-0.010432236;-0.12442108;-0.049153958;-0.06684944;-0.11705537;-0.14580122;-0.08000765;-0.0655583;-0.042330742;0.17504437;0.02924176;0.04617479;0.19049054;-0.15117802;0.116019376;0.040407337;0.012730514;-0.014344751;0.1310161;-0.118402354;0.043534223;-0.044177216;-0.17234339;-0.13372636;0.06156538;-0.033342917;-0.019009404;0.0365825;0.14343923;0.14214279;-0.01056385;-0.07386363;0.021529002;0.13038997;-0.1180336;0.019804318;0.054377243;0.07093136;-0.053010862;0.12100188;-0.14770575;0.11841447;-0.101994835;-0.11294808;-0.016847556;0.0020667105;0.13531801;0.005308424;-0.09408268;-0.22008038;0.033938862;-0.041776363;-0.038671512;-0.06919366;0.07849503;-0.18265538;-0.09490947;-0.11699479;0.008135296;-0.18328565;0.020703666;0.067539945;-0.17168294;-0.21442987;-0.14790447;-0.030538714;-0.08878899;-0.03150767;-0.010723774;0.14555894;0.08481155;-0.006125861;-0.011057772;-0.090904355;0.007844401;-0.10821304;0.13812199;-0.09469283;0.11345942;-0.10420039;0.13489471;0.09176963;-0.2916611;-0.013781787;0.105034925;0.0064581577;-0.04061846;0.13775764;0.003002366;0.06232485;0.024046127;0.106218174;0.16943575;0.05534024;0.009835049;0.07257319;-0.057968672
-0.009533032;0.17013542;-0.07216003;0.27236265;0.047691416;0.014856851;-0.018908517;0.051733565;-0.17768568;0.11179938;0.047175;0.17787263;0.020247998;0.11788966;-0.13841301;-0.06796748;0.11327092;-0.12119334;-0.006998883;0.12416587;-0.081988454;0.008005679;0.07812615;-0.03614202;-0.06699612;-0.048506346;-0.20771801;0.08171996;-0.024761384;0.049661938;0.11097616;-0.0042114398;-0.09900881;0.053806957;-0.062484577;-0.06869644;0.00024864246;0.022530077;0.08674795;0.094364844;0.010237249;-0.011619253;0.07380232;-0.13801888;0.05422873;-0.27282122;-0.16358674;0.046689052;-0.0025845775;0.048729334;0.07212287;0.025704727;-0.006494372;-0.21286474;0.05555402;0.00077778584;-0.020956071;-0.1348177;0.05654424;0.071914986;0.048518788;0.053523585;-0.26499623;0.089774966;-0.1859583;-0.06113546;0.039406404;0.1807994;0.0004280586;-0.17059132;0.21102314;-0.10472469;-0.009290165;-0.13961324;0.15564309;0.09870833;0.01335625;-0.03921684;0.18321776;-0.09376936;-0.034317937;-0.13693686;-0.09606898;-0.08075131;0.021011898;-0.017963579;-0.047161616;0.015703859;0.016773643;-0.054892205;-0.08234179;-0.079441056;-0.21110329;-0.10907903;0.130988;-0.14895815;0.05996385;0.1747725;-0.014571639;-0.08810905;-0.19443594;0.18820569;0.15980698;0.20823674;-0.13556904;-0.1438125;0.06069854;0.12457137;0.027438153;0.0118135605;-0.20893745;0.032187697;0.03026076;-0.09342318;-0.106777795;0.009749218;0.061834633;0.06385193;-0.08850514;-0.02754144;0.044615865;0.020853365;-0.09217044;0.031894296;0.043371458;-0.1411343;-0.07893125;0.02284767;0.09726859;-0.027952407;-0.22111316;0.04062201;0.003917264;0.033205237;-0.09606799;-0.06119652;0.12569751;-0.17498614;0.0042412537;0.04302485;0.013696106;0.03505243;0.04857789;0.076620616;0.12949127;-0.13749968;-0.12101971;0.1154712;0.029731927;-0.017331477;0.04840243;0.04357674;-0.026634332;0.09736888;-0.18445675;-0.04728403;0.07011012;-0.036554236;0.038662657;-0.13113502;0.13540356;0.10723706;-0.12903802;-0.014149998;0.18418004;0.07376374;-0.09943468;0.064614154;0.1261293;-0.09168121;0.12631023;0.095639035;0.11808034;-0.06324864;-0.044730745;0.06471363;-0.13599496;0.069732286;-0.024701368;0.12354222;0.024775647;-0.06314432;0.022281539;0.07045514;-0.0454898;-0.014235488;-0.028965365;0.10331123;0.24910638;0.09822458;-0.09939709;-0.0062421304;0.013994292;-0.08339302;-0.091669254;0.09568025;-0.06374021;-0.07932086;-0.14218967;-0.20542729;-0.19479173;-0.05299992;-0.24955581;-0.12113205;0.1324123;-0.14286709;0.015259289;0.054815136;0.1904964;-0.045189504;0.0136464955;0.093362406;0.049271807;-0.15736943;-0.080034934;0.26547742;-0.06420352;0.040862154;-0.026488477;0.08626789;0.2855317;-0.11099185;0.076842174;-0.037419192;-0.19719747;-0.09456172;0.2856434;-0.03523558;-0.052400056;0.06541629;-0.089696825;-0.01350367;-0.0875112;0.0938634;0.1968654;-0.082671106;0.11139747;-0.06455652;0.043240108;0.029262824;0.2212861;0.030701287;0.08123101;-0.121263355;0.02345549;-0.12655309;-0.025941966;-0.17380032;-0.17019285;0.021473328;-0.13734394;-0.15681301;-0.07925764;-0.16145632;-0.20565909;-0.15526049;0.07821554;-0.00553343;-0.023847995;-0.03147223;-0.050276186;0.18641308;0.05620616;0.080303244;-0.27924368;0.068966486;-0.18701841;-0.06226347;0.009584119;0.090709694;0.07181256;-0.034557514;0.27304476;-0.022095645;0.05551656;-0.051246896;0.18084137;-0.21626489;-0.17222355;0.03382675;0.03463595;-0.15933493;0.11550018;-0.22941248;-0.10621986;0.24667911;0.018858885;0.046482325;-0.14774883;-0.15872553;-0.09774284;-0.12231207;0.040485088;0.153667;-0.054625772;-0.030357659;-0.17407091;0.122900255;-0.042928543;-0.02196211;-0.13723329;-0.17096548;0.060813986;-0.13334614;-0.0028252627;0.033050537;0.022521717;0.13893542;0.07428511;0.13712677;0.09059591;0.007928341;0.034164507;0.24764593;-0.2793332;-0.08204117;-0.008097043;-0.08452243;-0.02275912;0.013304848;0.16147172;0.06720789;0.00795479;0.11472279;-0.016874868;-0.11280071;-0.011800586;-0.07832766;0.0057297153;-0.07262443;-0.030930284;-0.10657164;0.098192476;-0.09674597;-0.20965396;-0.060755845;-0.056816548;-0.044525784;-0.1889149;0.039566465;-0.16133434;-0.21026587;-0.09299379;0.00049592915;0.060896657;0.064618476;0.02209177;0.11685894;-0.055865202;-0.03898083;-0.10564125;-0.05496451;0.04449457;0.060495246;0.10913514;0.031470027;-0.14809391;-0.06933314;0.24880801;0.18418323;-0.033525415;-0.022618834;0.054232396;0.24472333;-0.058142796;-0.006093375;-0.11062834;0.07512803;0.1779533;-0.018413318;-0.11304226;-0.09915705;-0.038260046;-0.22516926;0.052819896;-0.20548554;0.17065181;-0.10004504;0.0628361;-0.06743822;-0.014437397;-0.11527877;-0.019622248;0.057787538;-0.15611623;0.004761764;-0.04205573;0.10440796;-0.11513949;-0.02643464;0.09236584;-0.07280358;0.21710603;0.20502183;0.049694125;0.15909871;0.08529392;-0.184036;0.016829802;-0.0154283475;0.039443817;-0.014915797;0.10610103;0.14763626;-0.03868286;-0.03401533;-0.12144101;0.016856471;-0.11340644;0.09184702;-0.116102375;-0.21134785;-0.3050605;-0.00692851;-0.13986503;0.2462919;0.01850741;-0.041158073;-0.017437877;0.10870238;-0.03746558;-0.23346506;0.16397391;-0.03987228;0.012290911;-0.075122304;-0.087357745;0.035987448;0.04618186;0.20611799;-0.20096149;-0.024662035;-0.03131229;-0.10443512;-0.048934318;-0.056965906;-0.099061675;-0.008575402;-0.106996424;-0.061905608;-0.0052714967;0.040788542;-0.04988708;0.028171021;-0.028840734;0.014982968;-0.046795763;0.08271489;0.09304641;0.07136663;0.08910855;-0.13843872;0.06998305;-0.08245033;-0.10127509;0.19157407;-0.046377625;-0.066611946;-0.061554715;0.00025472848;-0.0009992055;0.012701927;0.062303215;-0.20519571;0.15487233;0.004502295;0.16666046;-0.12357292;-0.0741531;0.0061747585;0.005205464;-0.0853526;0.044879742;-0.08024337;0.12272879;0.057501268;-0.029309934;0.06256406;-0.14874522;0.022558823;-0.045757834;0.053876076;-0.008865639;-0.09407065;-0.08669883;-0.08356486;-0.11932363;-0.020326082;0.20733762;0.014381561;-0.0222514;0.11891578;-0.32697624;0.02018748;-0.06682306;0.0088397665;-0.05168958;0.16154245;-0.029640974;-0.016652742;-0.106185794;-0.13909595;-0.14805588;0.10785766;-0.06632521;0.13596343;0.03586353;0.12851144;0.17898253;-0.060491234;-0.05272838;-0.007124679;0.18804213;-0.06628997;-0.10024379;0.11642604;0.030316412;0.0821501;0.065184735;-0.04178978;0.19618028;-0.036307115;-0.16851205;-0.094157;0.05870123;0.092932016;0.017676324;0.06827128;-0.14406526;-0.0051563;-0.02031593;0.054216303;-0.200654;0.06275628;-0.06813918;-0.108256035;-0.046381604;0.10475512;-0.08254138;-0.021341909;0.00993781;-0.2077965;-0.1111335;-0.16301809;0.024291053;-0.09820343;0.0058063557;0.024688333;0.29083163;-0.08003998;0.023214264;-0.066439;-0.024622196;-0.07751929;-0.088337734;0.23570748;-0.13270006;-0.0035011435;-0.21680853;0.17245987;0.0195069;-0.24874052;0.12679501;0.09026129;-0.058067307;0.073399626;0.07142784;0.03848206;-0.05128435;-0.016626893;0.107092634;0.17856082;0.111531034;-0.067151375;0.051372185;-0.07319908
-0.030110143;0.15096383;0.064630926;0.1219223;0.017560668;0.0483794;-0.061857313;0.08867388;-0.08520858;-0.003928803;0.0010498643;0.28347322;0.09144416;0.099235244;-0.011487039;0.0095914705;-0.0477928;-0.19477583;-0.0111953765;0.1130404;-0.02345256;0.00699942;-0.020401005;-0.12145182;0.021127403;-0.18936932;-0.18209678;-0.0042362064;-0.04357056;0.08510996;0.1615935;0.030784981;-0.12769699;0.22120892;0.09505955;-0.06928041;0.1074771;0.13678917;0.028114643;-0.029210322;0.091854155;-0.11091843;0.23114938;-0.11906498;0.06526187;-0.1611548;-0.18625513;0.0023066986;0.09874743;0.0031742686;0.15700904;-0.06801561;0.01816348;-0.19374442;0.028106896;0.08109907;0.02962077;-0.12986492;-0.024672883;0.1766278;0.07695746;0.053171273;-0.13458507;0.005532414;-0.18573266;-0.115107805;-0.013862834;0.17902832;-0.072200105;-0.0989883;0.1995546;-0.21545838;-0.026461806;-0.1878395;0.20573391;0.12605672;-0.10774071;-0.06270729;0.24520783;-0.020182647;-0.08070382;-0.13437463;-0.019542621;0.013993288;-0.12236997;-0.10508183;-0.07442384;0.09947981;0.060535133;0.06647984;-0.19146353;0.0051612444;-0.1504219;-0.13755336;0.09066437;-0.24092191;0.06876478;0.22107148;0.008207871;-0.11530754;-0.15749666;0.17074922;0.18006523;0.1633849;-0.19813493;-0.18620704;-0.036324;0.108954854;-0.018819364;-0.072760284;-0.16867684;-0.073386274;0.005130263;-0.09707593;-0.14008494;0.027119102;0.0030415852;0.12500861;-0.17230016;-0.09731399;0.19040897;0.12433879;-0.16180791;0.08440528;0.0017715177;-0.093714714;-0.004467823;0.15494953;0.1802809;0.08611901;-0.008045739;0.14536834;0.009399995;0.1584953;-0.079779275;-0.013932247;0.03693617;-0.2656024;-0.08022865;-0.041661534;-0.06561832;0.06061669;-0.068261825;0.01579283;0.058845498;-0.13706051;-0.04139762;0.021702772;0.016961586;-0.038970374;0.20201856;0.19145216;0.07082894;0.116157785;-0.22493632;-0.07084132;0.11055245;0.057838347;0.08315911;-0.070363626;0.025172982;0.13285998;-0.17989217;0.017514825;0.12908517;0.10114157;-0.18227519;-0.11850206;0.049287055;0.012495919;-0.039311778;-0.033596557;0.030110681;-0.041844815;-0.111641996;0.0835092;-0.017748462;0.0045987302;-0.10668755;0.050176255;-0.029133;-0.14349587;0.03890993;0.16742802;0.07141036;0.07433632;0.109512575;0.034761634;0.17536207;0.10948352;-0.08159533;0.13243592;-0.078274235;-0.07645973;-0.10964312;0.111512594;-0.02422074;-0.20010367;-0.24296404;-0.15211752;-0.25451058;-0.07683334;-0.09633845;-0.021378657;0.09944467;-0.11351502;0.0744182;0.09595071;0.13423242;-0.062559284;-0.022977762;0.02400444;0.0828932;-0.228785;-0.047638707;0.31079337;0.041816805;0.14258592;-0.01185741;0.0288867;0.23828709;-0.072830476;-0.007470865;-0.14619645;-0.027184777;0.025881315;0.2417524;0.04902159;-0.002440554;0.16676763;0.06944921;-0.17018776;-0.10477966;0.1478978;0.1831757;-0.029071864;-0.06844437;0.038293406;0.1229193;-0.03315083;0.27654386;0.0154380435;0.222946;-0.05367768;0.0124633135;-0.23461501;0.035225864;-0.1408444;-0.091281645;0.14215462;-0.04763014;-0.03486415;0.034769822;-0.102207154;-0.14673904;-0.20052557;0.0073191086;0.030206485;-0.009048656;-0.0023358;-0.030998576;0.12186588;-0.08572591;0.19194768;-0.15129009;0.044931054;-0.034337908;-0.13219851;-0.015028318;0.013471493;-0.021867048;0.13848904;0.2945356;0.093961366;0.118643284;-0.06531613;0.028121961;-0.23305634;-0.058937263;0.028738441;0.060895666;-0.20058164;0.13511574;-0.1942836;-0.22748229;0.20103729;0.030694323;0.030358307;-0.17592463;-0.043317076;-0.12384133;-0.14667325;0.021121986;0.23117419;-0.11802421;-0.12788126;-0.1357898;0.16624007;-0.104020715;-0.008658001;-0.25967774;-0.15580766;-0.03144617;-0.0432238;-0.10898381;-0.047512837;-0.04342706;0.24084374;0.007266921;0.10401608;0.03519142;-0.08924807;0.05987279;0.2997217;-0.12941691;-0.1139627;-0.05069423;-0.108545355;-0.0005588962;0.06972182;0.22382616;0.069957815;0.09008633;0.08478522;-0.23874664;-0.16464826;0.020079639;0.045743458;-0.09646816;-0.113964245;-0.06313107;-0.1272723;0.14701536;-0.016278574;-0.14969504;-0.13753563;-0.08646597;-0.1640178;-0.26708424;0.021676367;-0.097665526;-0.20164298;-0.15131882;-0.14730944;-0.03958679;0.07116107;-0.06971246;0.043376606;0.05860769;-0.10451496;-0.07668482;-0.03545654;-0.06518243;0.069119565;0.1389498;0.036247075;-0.10965116;-0.18401572;0.09425193;0.19570209;0.06426933;-0.03580269;0.19930473;0.13709213;0.07144251;-0.06948053;-0.049696095;-0.012458197;0.18881363;-0.07536774;-0.23841123;0.0058800257;-0.0034745734;-0.2733729;0.085791446;-0.2308786;0.10180651;0.018643912;0.203017;-0.058212876;0.10448756;-0.2522711;0.05018774;-0.050523464;-0.06270513;-0.02194097;-0.060143422;0.056911115;-0.14609495;0.0002076688;-0.035004992;-0.008081497;0.22102934;0.17717382;0.06703728;0.052336182;0.062042594;-0.15755235;0.09125874;0.029168576;-0.04495091;0.0071084513;0.051757522;0.091479704;-0.028372422;-0.024227548;-0.082497016;0.19927534;-0.045898087;0.08487306;-0.1272182;-0.07675759;-0.2969658;0.090957806;-0.14176904;0.25078294;-0.14307386;-0.030056354;0.054638095;0.060688056;-0.1287458;-0.2896662;0.056322552;-0.03531713;0.017788302;-0.00041312532;0.034089576;0.087661214;0.0004887957;0.115889624;-0.2234273;0.06915427;-0.09203365;0.08193778;-0.051277224;-0.12992474;-0.05937054;-0.0060040904;-0.12413253;-0.03035326;-0.05055743;0.0826329;0.041094873;0.031656537;0.06596654;-0.030432822;-0.17969327;-0.016329437;0.19123274;0.1309329;0.03297409;0.03125735;-0.019686384;-0.11692112;-0.22504345;0.07312079;-0.05434292;-0.0069353334;-0.04386598;-0.04277686;-0.06070184;-0.04629311;0.108509295;-0.106364824;0.05454642;-0.07338787;0.09698802;-0.19196668;-0.18577223;-0.09183403;0.1353727;-0.07116144;0.113905534;-0.06022912;0.22865035;-0.12282106;-0.0060491376;-0.01959242;-0.009430604;-0.057897434;0.060510434;-0.021746024;0.122949325;-0.13640773;-0.23179448;0.032196548;-0.16844945;-0.069682814;0.2360833;-0.019670548;-0.09715854;0.17504284;-0.29584938;0.0980983;-0.045679457;0.014790509;0.038308334;0.18559843;-0.084631726;0.07866006;-0.13986523;-0.042995803;-0.026077121;0.15568897;-0.07309739;0.059762597;0.084399775;0.24481486;0.07437458;-0.10479868;-0.013503262;0.04596701;0.2513746;-0.14723694;-0.011203382;0.10637107;-0.023267852;0.085868225;0.12064191;-0.068149894;0.13135418;0.023676671;-0.21074279;-0.14100073;0.08327393;0.06711121;0.05138874;0.058752954;-0.12064914;-0.044205077;-0.16104372;0.09829087;-0.12913835;-0.0404395;-0.18987127;-0.14199647;-0.11548783;-0.06556527;-0.21588127;0.07942086;0.10014642;-0.09247102;-0.005540706;-0.31409115;0.042098533;0.029708043;0.08753149;0.117357746;0.22620618;0.014778553;0.012539998;-0.0030064224;-0.14137521;-0.08002257;-0.063228466;0.23090306;-0.0565181;0.01591437;-0.21259694;0.08606788;0.04098523;-0.18346663;-0.012994664;0.028675461;0.02928732;-0.01189867;0.11045894;0.11926184;-0.059126962;0.018159041;0.13986854;0.15388204;0.1589587;-0.029563913;0.032805897;0.11448549
0.04917595;0.09523156;-0.026375992;0.11773776;-0.028472021;0.026062474;-0.08207976;0.068881854;0.0735309;-0.05810665;0.05286144;0.25845882;0.05950445;0.0812109;-0.110128045;-0.11733873;0.0061855917;-0.059926085;-0.038348503;0.16412875;-0.07976719;0.038736824;-0.01584152;-0.042522386;-0.055060603;-0.15431671;-0.14493641;0.04907022;0.011319775;0.12018126;0.13160217;0.049491055;-0.09530916;0.1758162;0.084705085;-0.037725195;0.017039707;0.13225342;0.050524946;0.021370186;0.12812743;0.0022272181;0.17296241;-0.07796177;0.046132848;-0.058059063;-0.101024196;-0.17287649;0.015431208;-0.1123594;-0.0141985845;-0.0053893286;-0.12218525;-0.09861178;0.0967746;0.08660979;0.0359554;-0.14062172;0.13281186;0.19678733;-0.031717755;0.1707837;-0.19785824;0.17088805;-0.20580256;0.047904447;0.07580832;0.07630683;0.023976473;-0.04766579;0.10651661;-0.10450496;-0.0035705222;-0.24464203;0.21056354;-0.023427969;-0.010193918;0.032763205;0.2157607;-0.19185002;-0.06561492;-0.05260893;-0.10196924;-0.12353381;-0.10949458;0.040928528;-0.045037653;-0.02464723;0.032091852;0.050650507;-0.18613575;-0.06121234;-0.023610005;-0.042503588;0.019329397;-0.14484558;0.05694898;0.08203581;0.038650807;-0.048501834;-0.11805892;0.25404727;0.101863615;0.10522351;-0.20406826;-0.15243053;-0.0042809136;-0.010882944;0.06767857;0.016591303;-0.13195165;0.08978101;-0.017472045;-0.17023198;-0.056473646;0.07807464;0.022363244;0.07465929;-0.20703655;-0.15246342;0.19922544;-0.025508398;0.017942687;-0.05382428;0.00034359604;-0.10366376;0.009896322;0.20450713;0.12667225;-0.09292575;0.011209569;0.106661454;-0.007255579;0.11115793;-0.23102325;0.045661125;-0.048599675;-0.08902209;-0.060618117;0.0064303065;0.0003820741;0.008645692;0.0015746923;0.11607374;0.07746237;-0.11322;-0.079331495;0.12097972;-0.12003584;0.060304545;0.08754867;0.11146783;-0.108674526;0.1309829;-0.21880345;-0.029329102;0.121932894;0.08795152;0.0062962403;-0.08528574;-0.030149698;0.23740132;-0.33444086;0.091254294;0.050104123;0.11163784;-0.14445029;-0.028098539;0.10663578;-0.00576143;0.06709441;0.15710239;-0.01677718;-0.10039103;0.06990504;-0.0019876133;-0.14969157;0.08856783;-0.026631994;0.16749695;-0.030065078;-0.09338153;0.001406746;0.045229774;0.035714723;-0.041727085;-0.0061552026;-0.05087284;0.26300508;0.08727667;-0.022013092;0.13694386;-0.07329857;-0.038723517;-0.05509233;0.12165388;0.02598562;-0.1819296;-0.1647567;-0.11455691;-0.27024907;-0.04339869;-0.26839095;0.04536229;0.08331012;-0.06648669;0.110025026;-0.033027064;0.031636603;-0.04561227;-0.061207082;0.14824536;0.042471394;-0.25453284;-0.15650329;0.11962293;-0.04336316;0.17608857;-0.10549237;0.06988;0.2636433;-0.023286883;-0.010462747;-0.025438383;-0.09241195;-0.015839443;0.106245756;-0.06529167;0.04808428;-0.023253763;0.030738233;-0.023085145;-0.11001817;0.0004028829;0.12342159;-0.087600045;0.061514568;-0.09482708;0.03277301;0.09263249;0.13606286;-0.07073646;0.082763806;0.0164578;0.0037844358;-0.10419451;0.119293794;-0.08990701;-0.13619252;-0.031840704;-0.03899445;-0.09793643;-0.0075406665;-0.08025481;-0.18721603;-0.15496457;-0.029910257;-0.053550284;-0.090827115;0.0027270326;0.043244265;0.10039874;-0.0025274449;-0.03471018;-0.21184829;-0.06454311;-0.21808036;0.0038564107;0.017920922;0.026365137;0.07954726;0.102831826;0.14563526;-0.00023417619;0.124898;-0.12966397;0.03369745;-0.19175369;-0.15115687;0.031166727;0.025553256;-0.15690893;0.030620264;-0.14413622;-0.114139065;0.15039188;0.022010673;-0.060211908;-0.02621728;-0.027095638;-0.07341957;-0.08992762;0.13941602;0.13555512;-0.07517414;-0.053676486;-0.15843676;0.12524153;0.043604802;-0.035620872;-0.20611133;-0.19900706;0.007260905;-0.11685578;-0.14036389;0.061225533;-0.045343257;0.075491756;0.080605775;0.22866486;0.09250589;0.07373802;0.1069483;0.13222113;-0.23509225;-0.12594835;-0.14773424;-0.11978419;0.06175297;0.08580249;0.24707578;0.04078127;0.02145588;0.050720874;-0.19175261;-0.0145563;0.017862005;-0.14463894;-0.104003884;-0.079824954;-0.006164885;0.023999058;0.23792109;-0.070072144;-0.1732562;-0.010773741;-0.03719751;-0.080166206;-0.27357924;-0.03659655;-0.0041123205;-0.04918664;-0.09377982;-0.08002729;0.02669345;0.008733489;-0.07742974;0.08101389;0.0479945;-0.050548896;-0.07810812;0.033193875;-0.09054281;0.017451243;-0.037323933;0.07153914;-0.007962833;-0.07984964;0.16586879;0.33977678;0.026842441;0.011278623;0.10916221;0.2000503;-0.03510299;0.07840607;-0.114119954;-0.012329333;0.17006777;0.020486947;-0.20792696;-0.123461455;0.06273223;-0.1878061;0.12341398;-0.20392731;0.20829757;-0.008320826;0.15646382;-0.044053867;0.16316609;-0.1584873;0.051212434;0.0065422244;-0.040219676;-0.003698751;-0.13010834;0.111047976;-0.18758886;-0.054098267;0.017239846;0.12656522;0.15322544;0.14741181;-0.10467175;0.047686316;0.07444719;-0.09423646;0.016780768;-0.047585055;-0.02179762;0.06397925;0.11771878;0.0894966;0.016317025;0.025111753;-0.18836875;0.12372595;-0.024516637;0.107902415;-0.15090299;-0.07042829;-0.22899795;0.105076395;-0.09759051;0.30058932;-0.036458656;0.014679021;-0.010942908;0.13276237;-0.08606499;-0.20634012;0.056215666;0.009725271;0.08672281;0.05436253;0.0068190955;-3.6776826e-05;-0.005588472;0.1818183;-0.18187763;0.04002803;-0.00048738203;-0.04228742;-0.13160242;-0.025552526;0.02030021;-0.01781186;-0.12313461;0.056994136;-0.06726868;-0.031128291;0.05281256;-0.079196855;0.027881997;0.06444541;-0.11074205;0.0012829674;0.058582086;0.15217644;0.11119297;-0.057661988;0.009015347;-0.066119164;-0.2370242;0.013843822;-0.0016076929;0.039020594;-0.080712534;-0.05653054;0.03202189;0.02068179;0.029452514;-0.07991983;-0.04070841;0.092765644;0.12595515;-0.20920487;-0.12541024;-0.14325185;0.067635655;-0.08412226;0.09572785;-0.054250963;0.16826515;-0.053860243;-0.0027328448;-0.009961884;-0.020784326;0.07458066;-0.04925453;-0.00017310648;0.09324716;-0.06658606;-0.15140894;-0.083812095;-0.05306246;-0.095106654;0.124986544;0.098808184;0.10259889;0.1581941;-0.055827454;0.05468695;0.021136181;-0.06990375;-0.08253224;0.123245716;-0.08991989;0.07599534;-0.077584565;-0.22462773;-0.10970701;0.08774262;-0.036425613;-0.031555645;0.07897923;0.20846705;0.17655355;-0.12253306;0.012828148;0.099608265;0.2295616;-0.08556422;-0.05179891;0.13067879;-0.022914339;-0.0008659602;0.21797623;-0.078470044;0.0865272;-0.003065313;-0.00689871;-0.11556228;0.11135366;0.0598707;0.1299097;-0.07607232;-0.22832537;-0.100578725;-0.08772139;-0.06713022;-0.16436237;-0.0019496274;-0.10999572;-0.22371326;-0.10823702;-0.09763576;-0.06054299;0.03923291;0.048276324;-0.02568447;-0.16874431;-0.33326268;-0.0011563341;-0.13482589;-0.04928603;0.08360107;0.27310526;-0.047464885;0.08201838;-0.0071595837;-0.11124206;0.022211423;-0.057482313;0.21002904;-0.10406804;0.05045758;-0.22407134;0.06632878;0.11699094;-0.22266968;0.18787377;0.10505823;-0.0015449196;0.14034511;0.028328191;0.15880351;-0.006815815;0.063714065;0.17796256;0.18614784;0.1650963;-0.03794109;0.08516175;0.024714027
0.06040951;0.12626228;-0.032644052;0.12685259;0.0794857;0.11329203;0.07518573;0.07732837;0.059415996;0.03837892;-0.0035712298;0.25902346;-0.025299195;0.06124513;-0.078404084;-0.093922615;0.0023074744;-0.12807235;0.064708106;-0.009563957;-0.17271116;0.18617895;0.01319934;-0.010146757;-0.046305586;-0.022986483;-0.20947842;-0.02785343;-0.005976626;0.017050968;0.08995873;-0.087032646;-0.11615019;0.11726524;0.081335545;0.09552082;-0.077164985;0.006307795;0.109800726;0.0100201;0.14409608;-0.047203217;0.05418671;-0.05946091;0.056262057;-0.11137226;-0.15191136;-0.14428368;0.0066561615;-0.10867746;0.09514865;0.014970037;-0.049919628;-0.1430102;-0.0664316;-0.029807212;0.04772352;-0.121807404;0.020823602;0.25204498;-0.012519287;0.08354144;-0.19588591;0.15157938;-0.24136099;-0.057844285;0.09655358;0.08046588;0.011722616;0.023682367;0.23046166;-0.12144929;0.020249428;-0.23499331;0.18646307;-0.04398152;0.04671126;-0.13460287;0.24134311;-0.044166956;0.015086262;-0.08670863;-0.23248598;-0.20305237;-0.15019363;0.029125154;0.08288203;-0.052752696;-0.12482493;0.017155727;-0.18216008;0.017198367;-0.21305555;-0.03342785;-0.044721432;-0.058792047;0.041699618;0.17034458;-0.021245975;-0.15504584;-0.13248944;0.24380629;-0.02831409;0.120368816;-0.11393699;-0.17961477;-0.1058906;0.002374888;-0.019487401;-0.032328986;-0.117980234;0.120889805;-0.06744387;-0.1518557;-0.10593201;-0.0019699147;0.066483974;0.12217544;-0.23002471;0.0630524;0.0773137;-0.017964996;0.03909056;-0.06914091;-0.027731664;0.019601364;-0.079056405;0.08881556;0.057560783;-0.08348888;0.030793471;0.049241297;0.020193767;0.0062621944;-0.26993686;0.0931605;-0.014468463;-0.047429115;0.04721574;0.005811351;0.019594016;-0.04800183;0.006586777;-0.014325816;0.06191025;-0.0788504;-0.09479519;0.15308554;-0.02079661;0.20281158;0.15454705;0.061455593;-0.15578021;0.078757055;-0.2072758;0.0011811756;0.13301641;0.055550512;-0.09814655;-0.09267441;0.13022125;0.15660012;-0.20302975;0.14152779;0.052464265;0.06068482;0.0046263114;0.088403724;0.12022481;-0.06822033;-0.028907917;0.14434236;-0.012135329;-0.21722522;0.07124302;0.084061936;-0.119672455;0.061104894;-0.09498775;0.07076523;-0.0002692906;-0.23430912;-0.03958818;-0.014337626;0.010100948;0.124723285;0.0069771823;-0.11845009;0.21373147;0.02047039;-0.05000735;0.044115774;-0.027977983;-0.090020455;-0.17165886;0.030440494;-0.048913993;-0.10781684;-0.1359152;-0.14786865;-0.319519;-0.060308885;-0.26777086;-0.034805305;0.10526025;-0.026860623;0.0122949;-0.07212114;0.046157707;0.077681296;-0.14916715;0.06010766;0.0536511;-0.21278594;-0.14855026;0.12187456;0.038557306;0.12847264;-0.13274164;0.109496176;0.30807635;-0.11351004;0.04735141;-0.11574652;-0.16856067;0.027860604;0.04001153;-0.018433738;0.014238115;0.13394886;-0.08628833;-0.01692795;-0.25742808;-0.04666326;0.025017304;0.02931869;0.062211275;-0.17942017;0.15229258;-0.00039592863;0.25072932;0.01568404;0.09816964;-0.062017374;0.0064198324;-0.051959496;0.04895454;-0.11349276;-0.038699493;0.050588593;-0.17692995;-0.0688802;-0.08785662;-0.070030466;-0.09012263;0.026387965;0.025528507;-0.09619154;-0.014336047;0.038581513;-0.061288908;0.074064344;0.07523827;-0.06362473;-0.1641383;0.00088392047;-0.20808567;-0.021124652;-0.039706286;0.071383744;0.09108706;0.12955062;0.1964882;0.07972306;0.047889635;-0.1563987;0.103090465;-0.19830926;-0.1034964;0.08538137;0.11897839;-0.22080295;0.009224162;-0.112187095;0.0009561449;0.27185538;-0.02216272;0.09946484;-0.012063086;-0.08212747;-0.02802919;-0.026611201;0.13045317;0.14523068;-0.18056428;-0.0796602;-0.16693726;0.016511464;0.099425755;0.04000889;-0.04134513;-0.022859143;-0.0044537303;-0.22647521;-0.19861831;-0.024131216;-0.0905397;0.14823557;0.19354807;0.074127816;-0.03360603;0.07229163;-0.08628422;0.16650066;-0.24578889;-0.039727263;-0.018849673;-0.16665223;-0.017588617;0.003795234;0.1680203;-0.0009331391;0.050366387;0.048135906;-0.2676606;-0.14181122;0.08898273;-0.1246178;-0.012265145;-0.27199733;-0.08274118;-0.039493937;0.19382133;0.009052303;-0.17021698;-0.1495547;-0.051476844;-0.0019765086;-0.22703421;0.036060758;-0.10655384;-0.20721231;0.009927755;-0.004348042;0.014275245;-0.06795193;0.014972209;0.041969858;-0.109448;-0.12719193;-0.1222141;-0.022650192;-0.13561381;0.0568281;0.0716381;0.09269362;-0.0075180954;-0.1265787;0.12379058;0.27848646;-0.028803425;0.021586455;0.032140467;0.29220542;-0.06283052;0.16563904;-0.048688356;0.051896278;0.0638683;-0.06606242;-0.072193116;0.0074536502;0.016659027;-0.28747833;0.012427615;-0.10247068;0.16394013;0.034829184;0.12241742;0.10204629;0.061846755;0.023731064;0.06072784;0.038818303;-0.14363125;-0.03637792;-0.008458327;0.11038357;-0.09092825;-0.07946041;-0.0074979644;0.027846612;0.25149724;0.15107922;-0.08311701;-0.0016969821;-0.0049926755;-0.11056371;0.04852157;-0.11734078;0.07444465;0.060956877;0.0811148;0.12682793;0.10486048;-0.037520215;-0.19113337;0.10296295;-0.090775445;0.22347768;-0.10906578;-0.13562728;-0.13262065;0.08660254;-0.06433223;0.17088452;-0.16690035;-0.0025278681;0.081754535;0.032278746;-0.04545064;-0.25596714;0.21743046;-0.030034417;0.10691465;-0.11093217;-0.074796565;0.06199965;0.0065149027;0.15943894;-0.124237895;0.09331495;-0.023124062;0.014915302;-0.06992843;-0.18875507;-0.016823258;-0.07508835;-0.21437256;0.036245298;0.038949963;0.08917315;0.009699339;-0.12293074;0.038573664;-0.017450988;-0.04010073;-0.014777893;0.061905608;0.028769357;0.062244006;-0.11308325;0.109366834;-0.05416965;-0.2570146;0.05474305;-0.007239219;0.09496152;0.077668235;-0.029822728;-0.03582157;0.049960386;-0.027106812;-0.16352561;-0.07707723;-0.024471326;0.04488658;-0.09924019;-0.19424598;-0.11584908;0.16148502;-0.12691942;0.11719715;0.031787194;0.086784974;0.01809129;-0.009047126;0.06308978;-0.06393749;-0.032206923;0.086047255;-0.020269332;-0.014982793;-0.032718174;-0.12464984;0.01639171;-0.08619706;-0.056155007;0.17859754;0.07823178;0.107145175;0.14089562;-0.13235381;-0.026443169;-0.011587207;0.09659562;-0.07716633;0.11215142;-0.04732783;0.13952322;0.076458044;-0.23690374;-0.032717705;0.015206591;-0.13063715;0.09492451;0.048035573;0.044883747;0.14359738;-0.0930951;0.015464612;0.11582207;0.08447804;-0.14213729;0.060165692;-0.021375362;-0.042611726;-0.025171317;0.15170327;-0.083421074;0.14742017;-0.052277017;-0.014709365;0.0582709;0.0016055002;0.11009798;0.10614093;0.039355874;-0.13674961;-0.13917862;-0.044867337;0.062128767;-0.24444318;-0.0053344034;-0.14494006;-0.063256234;-0.15390147;0.044878867;-0.17554745;0.04271673;-0.0214028;0.107286565;-0.17346153;-0.323606;-0.029444361;-0.1822362;-0.17749241;0.14484818;0.105427265;0.035586637;0.1273384;0.12772158;-0.055164684;0.10662472;-0.028860081;0.27642688;-0.06978697;0.12946992;-0.12956287;-0.02784817;0.14852667;-0.27658877;0.17368451;0.08085761;0.102721706;0.14230679;0.09762442;0.11038364;-0.13707529;0.07602757;0.12512687;0.16814727;0.015590951;-0.025977965;0.13609824;0.009809478
0.06599546;0.20006767;0.07188892;0.1508827;-0.021944748;0.120494395;-0.047704462;0.024459701;0.025933271;-0.07974819;0.024042647;0.26848188;0.12245672;0.17419663;-0.003596644;-0.03408148;-0.0023330692;-0.053015538;-0.039776266;0.0022611124;-0.12933853;0.13042496;0.096336;-0.070682324;0.08846307;-0.11701684;-0.095773146;0.013808795;0.13592197;0.08451143;0.12457668;-0.051950373;-0.068094045;0.030937023;0.052338477;-0.016458023;-0.099598765;0.056390163;-0.015911931;0.049950533;0.043300904;-0.0711837;0.20319922;-0.11081043;-0.02633726;-0.06467834;-0.098654404;-0.1659369;0.006760006;-0.15514888;0.11424059;-0.055086937;-0.081946835;-0.16155279;0.027776206;0.062588304;-0.0042847786;0.014392559;0.2060144;0.05370329;-0.002935871;0.1006722;-0.10838258;0.0051157447;-0.25420278;0.036292776;0.09644603;0.19949533;-0.02685408;-0.04196767;0.22291256;-0.20210181;0.075608954;-0.101101466;0.1355515;0.0033755589;-0.019733034;-0.0015436859;0.19783579;-0.1098072;0.0015051464;-0.099029504;-0.041217476;-0.20370737;-0.16827604;-0.09875733;0.11219196;-0.08390047;-0.1041655;0.12628216;-0.17028953;-0.02310893;-0.14217517;-0.09161896;0.045082476;-0.012211027;0.10773251;0.09722043;0.024176218;-0.09000389;-0.21883132;0.18261069;0.12515652;0.16029894;-0.077284545;-0.20578848;-0.067778386;0.12044355;0.049410317;-0.03483639;-0.044245265;-0.061646156;0.056270473;-0.1026497;-0.11440324;0.13876015;-0.032793093;0.08969009;-0.20683971;-0.025489938;0.13819641;-0.0037034121;-0.15986563;0.07404015;0.060364522;-0.024961803;-0.10104405;0.27696198;0.032627698;-0.14047244;-0.12527806;0.11207249;0.1012474;0.03191506;-0.18161355;0.023348479;-0.090269096;-0.17664379;-0.026947074;0.03716814;-0.05183588;-0.004723625;-0.04091442;0.014619775;0.13973944;-0.17881317;-0.033316743;0.09788964;0.013222809;0.007166015;0.019505287;0.003106893;-0.10104517;0.05926612;-0.2086651;-0.05063244;0.17934045;0.06848834;-0.073092625;-0.010860095;0.11636183;0.021018034;-0.3321849;0.079537846;0.066483274;0.04599463;-0.03180116;-0.02745843;0.0074532703;0.011612293;0.0019261925;0.013953519;-0.031032952;-0.13694978;0.008293109;0.22165322;-0.18487987;0.062776506;-0.03343136;0.05705851;-0.0861877;-0.096047394;0.05206808;0.11531797;0.032702126;0.07110102;0.09655157;-0.1292188;0.2013154;-0.0011443839;-0.020708058;0.08292089;0.006781559;-0.08237449;-0.21613891;0.22640939;0.03990556;-0.069265895;-0.055840828;-0.05626613;-0.17721152;-0.0056197844;-0.265675;-0.04361366;0.038696438;-0.1830501;0.019170297;-0.0088819815;0.11279019;-0.007175616;-0.0011961508;-0.039609935;0.17589615;-0.26213846;-0.10066884;0.22818822;-0.03482622;0.14789152;-0.14963846;0.1681407;0.3026151;-0.165454;-0.05053409;-0.056672342;-0.13509227;0.055469442;0.008770354;-0.00023164695;-0.07934874;0.08419756;-0.02084797;-0.14283383;-0.12364266;-0.012774263;0.18395247;-0.073569626;-0.074634604;-0.094199255;0.16582714;-0.043255422;0.22050786;0.06175631;0.08005461;-0.026489407;0.06673716;-0.1956731;-0.00014440858;-0.12661645;0.019579645;0.021382878;-0.2336662;-0.042219643;-0.07915272;-0.08235565;-0.06371576;-0.007920953;0.12082823;-0.11697391;-0.054189924;0.08771797;-0.061422158;0.10526868;0.03407957;0.044525936;-0.17275389;0.01670134;-0.2144125;0.022462668;0.056837212;0.014957233;0.0051192334;0.1038487;0.27422142;0.034640737;0.062208373;-0.041613784;0.063260734;-0.20209166;-0.054592945;0.17014532;0.11775659;-0.24004485;0.13084085;-0.0811134;-0.061799884;0.13789128;0.036439206;0.0021146624;-0.035390373;-0.101074465;-0.10162066;-0.040867094;0.14618933;0.302104;-0.145369;-0.080590695;-0.16256838;0.11011868;-0.043390058;-0.0064428765;-0.07044164;-0.09171956;-0.00027574523;-0.17467205;-0.22985248;-0.05781034;-0.107069984;0.10691741;0.10922313;0.13845159;0.022358567;0.061229832;-0.018637406;0.075272135;-0.19606067;-0.021633662;-0.032811143;-0.05785464;0.028418768;0.10043329;0.14148015;-0.05517989;0.08818578;0.004017208;-0.23808339;-0.12190074;-0.0474999;-0.05259445;0.029831497;-0.16633782;-0.090189174;0.011268686;0.14183182;-0.12703893;-0.26549533;0.00781395;-0.0069799377;0.009178344;-0.24075858;0.034014467;0.02720855;-0.05377706;-0.058791343;-0.030140271;0.023833735;-0.022113807;-0.01812559;0.001481024;0.06257571;-0.16514751;-0.12961388;-0.05320756;-0.1339462;0.14853165;-0.048140775;0.02319487;0.06953198;-0.16418533;0.23715939;0.21692769;-0.16964531;-0.025744012;0.013482225;0.2837271;-0.09343071;0.077528775;-0.054031517;-0.047827333;0.11985265;0.030458834;-0.06895129;-0.10153164;-0.01402575;-0.27213955;0.010096004;-0.13630226;0.13560557;-0.045837853;-0.03177889;0.034708466;-0.014375138;-0.11494568;0.044023946;-0.065895684;-0.059673388;-0.0023347565;-0.12843613;0.1308385;-0.13711393;-0.07946137;0.07376966;0.054914042;0.227721;0.13505653;-0.027979642;0.08830416;-0.007572249;-0.17879276;-0.0466676;-0.05934658;0.112198554;-0.06490759;-0.020171737;0.070709035;0.043595508;-0.06961023;-0.07748329;0.13238701;-0.10955262;0.118035376;-0.1412572;-0.085841335;-0.15111028;0.12542339;-0.14494924;0.1638802;-0.18017434;-0.0739457;0.008653554;0.03294533;0.062354222;-0.17634109;0.18357928;0.07323729;0.031979065;-0.062087595;-0.017525626;0.04744896;-0.029547248;0.14952937;-0.26411682;-0.008364568;-0.066567376;-0.03256128;-0.027866503;-0.017608916;-0.08540763;-0.04045009;-0.13406353;0.019392245;-0.06690888;0.1062723;-0.021702012;-0.024085537;0.0033153952;-0.07504563;-0.0678751;-0.055647396;0.1460944;0.11421341;0.13272211;-0.12749147;-0.014356235;0.036375083;-0.20226236;0.14339575;-0.06037514;0.18805401;-0.07284297;0.054070856;-0.027336057;-0.084741235;-0.038959157;-0.092859395;-0.07470394;-0.054355044;0.10590693;-0.19727527;-0.14660425;-0.1678311;0.062109374;-0.0016262938;0.055051856;-0.006378261;0.097290486;-0.04561908;-0.061187595;-0.03810709;-0.017074475;0.032859597;0.09971761;-0.094437204;0.05022891;-0.008983257;-0.07366898;-0.021575829;-0.02570348;-0.049192782;0.027685925;0.066833735;0.02544369;0.14528035;-0.10479029;0.04929597;0.0064006597;-0.09913139;0.012983054;0.06513388;-0.068131804;0.13558656;-0.13527247;-0.112099275;-0.026718177;0.09209082;-0.18692076;0.0030093237;0.14023826;0.17235854;0.16983682;-0.058625024;-0.12809339;0.03833314;0.121017955;0.020720083;0.0367816;0.010313008;-0.16024916;-0.02664649;0.13857394;-0.17536555;0.057699583;-0.058662787;-0.101426914;0.014469035;0.06905118;0.007291944;0.09641867;0.049240313;-0.074614786;-0.117457755;-0.09852016;-0.021868762;-0.29350555;0.06400319;-0.17331639;-0.17254817;-0.12969004;-0.0029112014;-0.16370766;0.0055839266;-0.012610195;0.10189876;-0.19297725;-0.3157289;0.118260965;0.02375006;-0.044041757;0.14509101;0.13035439;-0.051072445;0.041634157;-0.0045537776;-0.083641924;0.08711882;-0.036320876;0.1972049;-0.07045658;0.13339293;-0.20065278;0.13705519;0.14894296;-0.21019177;0.10767436;0.06918082;0.02894354;0.05579271;-0.093983844;-0.010794303;-0.12678939;0.09012711;0.0971215;0.1288568;0.045746945;-0.012860405;0.01408247;0.060358305
0.04071093;0.04244492;0.07076148;0.19914871;0.086149216;0.039759092;-0.07246591;-0.001842452;-0.058404054;0.0341075;0.07712403;0.1514427;0.0048642294;0.15805654;-0.08160431;0.02460776;0.12447632;-0.07282494;0.08789954;0.056690037;-0.09497708;0.026282096;0.09694915;-0.120678395;0.07491698;-0.22427535;-0.05138044;0.017133946;-0.012298292;0.095685855;0.12850651;0.05794946;-0.12766123;0.13449302;0.017875623;-0.0038426323;0.037400324;-0.015687909;0.008432424;-0.004162571;-0.00033038785;-0.09554633;0.11390816;-0.07430384;-0.04461165;-0.0429053;-0.034256443;-0.0978213;0.07966465;-0.047662713;0.19703956;-0.012436972;0.04182719;-0.16166042;0.036545396;0.06654715;0.051473238;-0.031138217;0.15719013;0.1993739;-0.06828518;0.06680871;-0.10722072;-0.013802436;-0.24984989;-0.07474564;-0.0025694496;0.12653728;-0.09553152;-0.023515485;0.19581252;-0.030419309;0.018525233;-0.15774775;0.08111921;0.0010323316;-0.046952087;-0.09320504;0.20392884;-0.04188002;0.0154864155;0.03383729;-0.0718168;-0.09976783;-0.19094454;-0.04887029;0.12714593;-0.01624079;-0.1008258;0.012416791;-0.13769437;-0.034567084;-0.18921034;0.0019488337;-0.048589986;-0.07392067;0.087034516;0.089726925;-0.021316372;-0.048712887;-0.15139237;0.20301013;0.16728336;0.053078894;0.081773154;-0.15609403;0.069683544;-0.017071005;-0.026957696;-0.05437008;-0.13023266;-0.13635449;-0.02227154;-0.03841654;-0.095173135;0.12701383;0.014831606;0.24437562;-0.14084275;0.0060784873;0.123396255;0.010912035;-0.16959701;0.047374077;-0.045550384;-0.091912165;0.06361309;0.15972015;0.11605667;-0.04537375;0.06561277;-0.056560267;0.03595356;-0.038727473;-0.2413752;-0.004396269;-0.018770413;-0.011041421;0.012305715;-0.04333095;-0.022789253;0.04658796;0.119365424;0.021131849;0.17628795;-0.07606012;-0.09073355;0.079702325;-0.08652055;0.084474534;0.012877505;0.07728129;0.022504926;0.025055073;-0.14341107;-0.064715214;0.14077508;-0.020948607;0.028547991;-0.022010028;0.118588604;0.121385805;-0.34152117;0.010416162;-0.018138994;0.07800802;-0.063447356;0.07430105;0.05948948;-0.071935885;-0.12453483;0.081370644;0.028175253;-0.16233657;-0.101550214;0.1639493;-0.16329272;-0.008570693;0.07680429;0.070055924;-0.08941425;-0.12879954;-0.009726676;0.02735496;-0.0051450157;0.0074287704;0.117879495;-0.07259294;0.15249708;0.067893945;-0.10287413;0.23988649;0.052055787;-0.025346251;-0.25892478;0.18384054;-0.016010594;-0.06886116;-0.043875143;0.050895374;-0.3013812;0.0111670885;-0.21209463;-0.044316284;-0.0996723;-0.169908;0.014900508;0.09151744;0.11499563;0.0218128;-0.11620827;0.032005914;0.13824256;-0.21019669;-0.0041107694;0.13474862;0.017615346;0.052793365;-0.14876503;0.022425786;0.2980442;-0.05552088;-0.07856935;-0.08762139;0.015670286;0.13732706;-0.049669754;-0.01857266;-0.03559688;-0.003423522;0.0660336;-0.11053625;-0.07873946;0.114563294;0.091455005;-0.026125288;-0.06750778;-0.14485528;0.059393212;-0.08743625;0.11121484;0.003918163;0.11150966;-0.114468575;-0.08595758;-0.23156299;-0.0127108125;-0.14151067;-0.081466414;-0.020690618;-0.14681946;0.035398196;-0.043879956;-0.07756205;-0.040323198;-0.12877169;0.0917539;-0.021791825;-0.08877742;-0.055460926;-0.09543301;0.06947548;-0.033608645;0.02497161;-0.033287913;-0.13997073;-0.1591542;0.03324799;-0.07945087;0.10395598;0.06832517;0.03760608;0.20761317;0.096548505;0.122189395;-0.16265605;0.040607106;-0.22941488;-0.07778292;0.07173537;0.11400008;-0.2638014;0.057548393;-0.044749074;-0.11022181;0.103786476;-0.012078556;0.064321384;-0.038041547;-0.07617566;-0.056059428;-0.0001395746;0.10714305;0.31151554;-0.08136527;-0.11804028;-0.18282512;0.07124904;0.07893847;0.016028654;-0.12764657;-0.05841087;-0.03085262;-0.093362585;-0.12761292;0.03432588;-0.005057631;0.18980989;0.18513252;0.055181243;-0.027038941;0.06210235;-0.07184573;0.11324586;-0.1236038;-0.08774013;-0.10171193;-0.052198794;-0.05809808;0.11797571;0.24848291;0.00494481;0.025284044;0.045719385;-0.26691982;0.02111696;-0.039769977;-0.09330514;-0.039830573;-0.16374576;-0.08828667;-0.093197115;0.20971265;-0.06475675;-0.13575633;-0.0044335285;-0.08855006;-0.04583471;-0.21992595;0.11625351;-0.047932312;-0.12697662;-0.11971926;-0.0030314822;0.07403634;0.009102319;-0.07672951;-0.016866203;0.06895429;-0.070070975;0.018220462;-0.07911884;-0.20801309;0.0012211963;0.06254956;0.0488539;-0.07939851;-0.18717907;0.19841558;0.29631478;-0.0774515;0.035917662;0.026632419;0.19559431;-0.03986076;0.017776487;-0.07965577;0.077152245;0.06613977;-0.040737785;-0.1648783;-0.05364293;0.007183272;-0.32861614;0.08608217;-0.20008713;0.18923625;0.089468166;0.014231611;0.066796966;0.06750307;-0.081766576;0.056549415;0.020004628;-0.21129033;-0.053663615;-0.12717806;0.0663076;-0.14410253;-0.09206839;0.07129361;0.03381189;0.13894475;0.15604223;-0.1692374;-0.047251094;0.002780789;-0.15019348;0.070954084;0.026494369;0.06413024;-0.011435745;0.09447304;0.17520924;0.03383102;-0.038647328;-0.057871934;0.14504041;-0.017948924;0.18412542;-0.0017493755;-0.14562283;-0.27521336;0.07184031;-0.14588399;0.2709606;-0.12031305;0.0016716822;0.031204108;0.13916185;0.05788449;-0.23824395;0.1134816;0.037216585;0.14219166;-0.07287916;-0.030060612;0.15382038;0.032873493;0.18050967;-0.19561814;0.02783863;0.030307643;0.09538646;-0.1604908;-0.10094872;-0.037960254;0.044146772;-0.1537542;0.009577832;0.037263718;0.05646647;0.016314987;-0.004302873;-0.062359117;-0.14250931;0.035866223;-0.059405845;0.07715216;0.0910088;0.0046543423;-0.13917309;-0.019399835;-0.0049479487;-0.32732904;0.05746695;-0.030964458;0.16892253;0.04174106;0.022465564;0.014252221;-0.080583006;-0.028648509;-0.068682045;-8.587155e-05;-0.016549721;0.020756477;-0.035048287;-0.0082776705;-0.023258682;0.17786911;-0.14430554;-0.03296938;-0.07975135;0.03282422;0.016503403;0.09448393;0.0021023222;-0.09739448;0.011912226;0.10415207;0.035685457;0.069797166;-0.0045501683;-0.10210604;-0.11632952;-0.040198047;-0.0032264923;0.06867785;-0.0047052796;0.14333437;0.14962243;-0.04949556;0.09779777;0.030012518;0.0033022147;-0.011988454;0.09777115;-0.116604805;0.10216044;-0.17517792;-0.11280172;-0.11761926;0.07497395;-0.17031997;0.048286606;0.05639922;0.08456891;0.05211623;0.0025634198;-0.070879065;0.0031404924;0.071234316;0.014825833;0.0653041;0.11090877;-0.005509821;-0.033139728;0.08204778;-0.18762328;0.15932795;-0.10927605;-0.14282905;-0.08046706;0.17208157;0.15144387;0.016938565;-0.047853954;-0.19081882;-0.011179262;-0.09161735;0.087616876;-0.27346915;0.08266845;-0.24856704;-0.15252212;-0.048022766;0.08626332;-0.13519225;0.11358043;0.11224151;0.00791348;-0.15572792;-0.18108866;0.1225595;0.026453296;-0.09989738;0.00073488284;0.17738026;0.07004024;0.1332749;-0.025707744;-0.14226517;-0.017967505;0.050717812;0.1257805;-0.068432175;-0.017400976;-0.2996838;0.14530487;0.14736262;-0.13354635;0.09592686;0.07304182;0.12959298;0.07993772;-0.03980512;0.03920561;-0.13134296;0.090571076;0.1016494;0.20089558;0.111892715;-0.10033548;0.08826981;0.0015034343
0.04751753;0.13857883;0.11299045;0.20159729;0.071900755;0.018781783;-0.05748623;0.038142364;-0.06884794;-0.064163886;-0.003319816;0.08942164;0.10688992;0.11849278;-0.012835835;0.04213698;0.035507225;0.022766605;0.077471875;0.087776475;-0.10801178;0.189698;0.10908817;-0.15688261;0.08713571;-0.18638565;-0.12657711;0.07142691;0.04011994;0.08322163;0.18850248;-0.05763942;-0.12708803;0.12835689;0.00428983;-0.041823536;-0.094639994;0.016199606;-0.077590734;0.01478568;0.08554047;-0.12173128;0.17984468;-0.1434372;0.011156815;-0.053489942;0.07973025;-0.028632993;0.07051651;-0.048562415;0.14997588;0.08784109;-0.12830694;0.0032284143;0.11212812;0.047372192;0.13340007;0.022763778;0.12843338;0.16047445;-0.0321577;0.18012163;-0.031477824;0.01875982;-0.2365727;-0.065959334;0.0020333;0.18321303;-0.051642742;0.113479026;0.11837257;-0.07508028;0.009699474;-0.06716313;0.031791117;0.054651283;0.019715397;0.010489133;0.19152601;-0.043406058;-0.023543935;-0.03200891;-0.039562654;-0.16356683;-0.19294208;0.0013232799;0.012165072;-0.0370203;-0.115311936;0.10398813;-0.108995736;-0.01108964;-0.2019683;-0.049856145;-0.12290873;-0.028682973;0.07861976;0.076008014;-0.097763;-0.005462327;-0.04415662;0.27833077;0.027321601;0.034959342;0.11491003;-0.12735197;0.055031564;0.009283087;0.093337364;-0.15970871;-0.15609398;-0.05086283;-0.03512927;-0.21685028;-0.12975673;0.13836133;-0.06398032;0.1527784;-0.27582753;-0.05577617;0.21484208;0.009648295;-0.11452129;0.020991677;0.043363713;-0.08543309;0.047132716;0.3045461;0.053340804;-0.17676713;-0.04479345;0.0028717248;0.018079799;-0.04388501;-0.28897822;-0.046309974;-0.0904334;0.012522941;0.09578887;0.08949777;-0.051294062;0.012311618;0.010907619;-0.03975169;0.11859135;-0.07814336;-0.04595389;0.16440511;0.03497684;0.084282994;0.122872666;0.13342474;-0.039347634;0.12750645;-0.32246986;-0.11716582;0.16227514;-0.09590193;0.064061634;0.09666428;0.075166285;0.09254171;-0.26393813;0.07821866;0.017492019;0.15444978;-0.08085555;0.013972763;0.15088531;0.009155521;-0.0032527568;0.082492255;-0.027654443;-0.112965636;-0.060506072;0.21706288;-0.06019161;0.07138838;-0.025491012;0.110965915;-0.06157473;-0.054428462;0.025004724;0.000334215;-0.05480722;0.0062784445;0.076598994;-0.08244405;0.1831542;0.0671242;0.05709829;0.17059818;-0.035108928;0.080522746;-0.20548196;0.24733551;-0.063845746;0.03631817;-0.11770532;0.047891077;-0.14964148;0.014040084;-0.19771647;0.09162737;-0.1113035;-0.14329784;0.059410173;0.05141346;0.005343757;0.08417314;-0.06320568;-0.043661114;0.12479997;-0.31308445;-0.068282016;0.19253099;0.08146678;0.16659732;-0.051575042;-0.028296832;0.2609502;-0.059542805;-0.042634647;-0.06850576;-0.071282014;0.0942653;-0.10035075;0.09073829;-0.04875597;0.11613319;-0.005653912;-0.051723;-0.04114993;0.10672618;0.17830676;-0.05581336;-0.076787315;-0.1546853;0.017419402;0.043839972;0.10708212;0.11557134;0.16075478;-0.021841586;-0.026609737;-0.13855675;0.020183448;0.021710565;0.016883804;-0.10905032;-0.2640587;0.04450878;-0.093012735;-0.046876952;-0.14083703;-0.03810876;0.11356512;-0.047519743;-0.002547881;-0.0331658;0.07208716;0.19834794;0.03186516;-0.064727664;-0.16963688;-0.022998609;-0.25234208;-0.088737175;-0.058567893;0.051955353;-0.0076333852;0.040283747;0.16666196;0.1273102;0.07756774;-0.09699084;0.19508798;-0.2178032;-0.07644965;0.12660201;-0.00025801818;-0.31012902;0.013835944;-0.08849562;-0.017276337;0.13314374;-0.042798966;-0.01768314;-0.115502246;-0.03812572;-0.008056819;-0.03034396;0.023285072;0.24457286;-0.25602037;-0.003997773;-0.13943812;-0.0063255224;0.022476338;-0.006887007;-0.027070839;-0.0040057;-0.02500976;-0.1019067;-0.07863834;0.034032557;0.025979262;0.04167199;0.2006557;0.18242098;-0.057124835;0.07321016;0.034898505;0.13415758;-0.26079798;-0.08031782;-0.034487866;0.043983478;-0.114799954;0.20354865;0.13292387;0.031917587;0.09897327;0.06286879;-0.27162254;-0.02348007;-0.051327847;0.017505707;0.030883119;-0.18813868;-0.07487148;0.0091521265;0.0650577;0.009769086;-0.16474257;-0.0007659516;-0.074945755;-0.046035945;-0.20112394;-0.023148185;0.002736724;-0.042032097;-0.04395296;0.037410654;-0.0077894195;-0.06884539;-0.060496416;-0.01763427;-0.07153365;-0.06278257;-0.14951923;0.029980242;-0.27129236;0.03875724;0.07730328;-0.025905114;-0.03258527;-0.065318264;0.24432196;0.23505428;-0.124703884;0.099458404;0.046160664;0.24726291;-0.03276559;0.15193164;0.080019;-0.0522102;0.05117023;0.09328185;-0.23281299;-0.03101205;0.0139533635;-0.3464439;0.04033894;-0.1866296;0.19708751;-0.012230791;-0.03694753;0.05779505;-0.10005045;-0.06379012;0.13778746;0.0719281;-0.0769813;0.035566192;-0.1575159;0.0666959;-0.082978465;-0.07790765;0.072391875;0.06810715;0.087625384;0.108342074;-0.021924118;0.05155323;0.057592716;-0.17311257;0.08464164;0.0020223302;0.023173738;-0.023038384;0.07982338;0.053986534;-0.016997235;-0.13098335;-0.12589408;0.039714817;-0.007646693;0.27418578;0.037849456;-0.22376557;-0.122952886;0.054124847;-0.25006256;0.23641193;-0.061633416;-0.0046207304;-0.024634004;0.1233559;0.07626102;-0.21375786;0.0948851;0.057086207;-0.024779344;-0.073912844;-0.13354234;0.119864054;-0.0661273;0.23082054;-0.10367144;0.07608243;0.004912279;0.03758836;-0.15992537;-0.051780466;-0.025423406;0.09510523;-0.13647757;-0.070370466;0.0074000945;0.0246487;-0.042697493;-0.10340873;0.015946923;-0.025845213;0.017953862;0.09597956;0.08444436;0.2167579;-0.0060963603;-0.09680828;0.071705855;0.041932732;-0.2691584;0.039185394;-0.022165995;0.21415375;-0.08289952;0.015751097;-0.048629187;0.042257633;0.014453806;-0.11578191;0.01717075;-0.116896205;0.08122431;-0.13959867;-0.07314361;-0.19875106;0.09857407;-0.18265542;0.005497976;0.017684361;0.014077943;0.021677323;-0.0657121;0.014221368;-0.07237795;0.13311903;-0.012758891;-0.121844314;-0.054528885;-0.117661126;-0.0456309;-0.024579167;-0.012879031;-0.09451135;0.104757845;-0.004193731;0.107925095;0.17203133;-0.059645474;0.10664478;-0.05052406;-0.052813806;0.0033262013;0.047736123;-0.14561975;0.18763141;-0.090345554;-0.07757995;-0.07144725;0.08345035;-0.21370932;0.005891437;0.059147015;0.21228817;0.15469643;-0.015930397;-0.120250694;0.080213524;0.094511785;-0.050503682;0.015705692;0.010697486;-0.100001045;0.043514702;0.18188362;-0.24891746;0.095868684;-0.09575324;-0.068042636;-0.07682027;0.06002891;0.025374025;0.09821192;0.01825851;-0.1756645;0.025568524;-0.08769259;0.00033418188;-0.22228312;0.016185775;-0.036337856;-0.113478236;-0.08510082;-0.00302783;-0.18843985;0.10931759;0.1410888;0.06252168;-0.25175297;-0.25307432;0.17545074;-0.026500495;-0.11013399;0.1323243;0.15129603;0.038381293;-0.010519712;0.0015357246;-0.12448942;-0.027337233;-0.046658278;0.19088066;0.05443142;-0.026934188;-0.14462012;0.10316004;0.07591365;-0.14555578;0.20607434;0.029661778;0.13388744;0.083117016;0.0060302485;0.021362444;-0.18443975;0.021547629;0.016333928;0.2598263;-0.040990885;-0.13662034;-0.08555318;-0.023500573
0.057533134;0.19523846;-0.025663065;0.10548125;-0.052609418;0.077742465;-0.017163143;0.0978236;-0.05692974;-0.008864827;-0.03167202;0.07030651;0.040118445;0.10881729;-0.038504735;0.06261974;0.012850149;-0.03195811;-0.014354151;0.030138353;-0.20347391;0.21593237;0.04898517;-0.11496041;0.090890944;-0.16846296;-0.07863239;0.16867448;0.03220211;0.026778722;0.17880747;-0.06884654;-0.058964197;0.07178597;0.058859043;-0.06544519;-0.0074764662;-0.05819088;-0.041421704;-0.046935022;0.07652469;-0.089871325;0.20435531;-0.0903228;-0.06803684;-0.16692276;0.050368525;-0.11022029;-0.044492304;-0.11308734;0.20138705;0.08553614;-0.10049336;-0.10300068;0.056735475;0.054112636;0.11844154;0.015342358;0.18731926;0.15969034;-0.096946724;0.18653545;0.13275035;0.016482241;-0.2578666;-0.037666693;0.009546649;0.1155527;-0.060804144;0.024675636;0.15732229;-0.06650349;0.0888126;-0.09165869;0.122941755;-0.02810255;-0.03347511;0.065048166;0.15048245;-0.01433154;0.040891267;-0.19826457;-0.08428972;-0.14171816;-0.11845977;-0.1419665;0.044059608;-0.030480715;-0.09872683;0.09398666;-0.11286474;0.053863205;-0.11706143;0.0032243705;-0.097524576;-0.05266992;0.0051713097;0.029386686;-0.06996614;0.020593043;-0.14865686;0.21673533;0.0767766;0.089689545;-0.049937524;-0.1086896;-0.041056167;0.09256496;0.15766892;-0.19040367;-0.10688144;-0.025929239;0.119771875;-0.07362082;-0.08864107;0.096796125;0.017291827;0.10273894;-0.27552056;0.08174864;0.16074896;0.0012064232;-0.09162684;-0.020792622;0.054911204;0.013086531;0.036852147;0.23507865;0.05167785;-0.08095522;-0.07192662;-0.05503248;0.018867746;-0.066907935;-0.3154512;-0.02805092;-0.009771326;-0.031196978;0.011837457;0.03747689;0.075612314;0.020320551;0.021477664;-0.025688617;0.10539883;-0.116318814;-0.05830085;0.19125146;-0.11509345;0.037434958;-0.026446603;0.04557046;0.102493964;0.061256237;-0.33912557;-0.11812506;0.14422876;-0.094697446;-0.06217096;0.050252955;-0.04808959;-0.04250651;-0.44749084;0.0027064946;0.020962056;0.01888181;-0.079437606;0.0829592;-0.013490231;0.0964748;-0.005972844;0.04425735;0.013078648;-0.2233705;-0.07129612;0.10756806;-0.1778955;-0.08980369;0.05975528;0.13754764;-0.13026209;-0.10357797;0.04584881;0.09172373;0.0071955356;-0.041661356;0.0665391;-0.19378878;0.1097595;0.10246447;-0.043662686;0.1487487;-0.014497897;0.11709153;-0.30889675;0.12348771;-0.06331094;-0.021847589;-0.11374361;-0.08806672;-0.22084668;0.012067851;-0.17307498;0.10057291;-0.075057946;-0.17179014;0.11150693;0.08989127;-0.018867468;0.14914739;-0.09260868;-0.10082208;0.10985119;-0.26021177;-0.06391944;0.25377604;0.05094441;0.11018852;-0.14851071;-0.049764752;0.3154933;-0.012816693;-0.04637048;0.06533172;-0.027090222;0.014022842;-0.10019965;0.101831056;-0.14634784;-0.010517599;-0.052223515;-0.03381028;-0.05551755;0.09272676;0.14848511;-0.089268625;-0.11211415;-0.22803688;0.053930704;-0.05309992;-0.028111491;0.018420419;0.1326588;0.06666309;-0.12664542;-0.20317842;0.073299564;-0.010027438;-0.024925338;-0.09444112;-0.29559013;0.08109304;-0.103005104;-0.07970051;-0.08963015;-0.0025647588;0.10225052;-0.15354998;0.017794836;0.09268037;0.036972586;0.11976079;-0.040487528;0.09221042;-0.093163714;-0.047037352;-0.16936244;-0.1201953;-0.0760251;0.024912028;-0.050333016;0.055206332;0.22759387;0.18320459;0.07457015;-0.118216254;0.097310565;-0.16764475;-0.0035111033;0.16597855;0.101081476;-0.3097492;0.051500376;-0.07578433;-0.020110715;0.14430381;0.001498774;-0.010810439;-0.043631487;-0.05654667;0.026115796;0.043229345;0.015291574;0.18172352;-0.11741903;-0.041739907;-0.17561962;0.016702142;-0.057218473;-0.06618047;-0.016587898;-0.1243378;0.020479491;-0.08106072;-0.12236689;0.09103641;-0.0608952;0.040136028;0.07196266;0.14459233;-0.07720725;0.1440412;-0.0712129;0.036449227;-0.18226545;-0.009026885;-0.032456577;0.037989333;-0.042265005;0.009541076;0.067686476;-0.051422473;0.050333716;-0.08559349;-0.26871017;-0.023229532;0.025896732;-0.08548233;0.14460962;-0.13766216;-0.09313924;-0.09838411;0.13853934;-0.05472039;-0.17886226;-0.0034109664;0.05030608;-0.021526136;-0.026307333;0.036056444;0.14090584;0.045804154;-0.114923604;-0.08871183;0.053917237;-0.042733964;-0.053684797;0.01781142;0.06846506;-0.051299985;-0.14279748;0.043847237;-0.23365657;0.002677486;0.08105562;0.06506812;0.040459316;-0.1595989;0.1187497;0.32491273;-0.13969794;0.0718124;-0.07640754;0.23225272;-0.00241288;0.09322043;-0.01645553;-0.057586346;0.039299775;0.08088937;-0.11761364;0.0568238;0.10980577;-0.32923758;0.07678012;-0.054479793;0.16931294;-0.034638688;0.06762664;-0.0024588988;-0.034548126;-0.09638021;0.06527594;-0.08219133;-0.0990192;0.029987456;-0.10969763;0.07706841;-0.12324523;-0.06664663;0.074883886;0.033399433;0.24619673;0.07966887;-0.06185755;-0.043444052;0.050733306;-0.057195835;0.05019784;0.07723012;0.054538276;-0.10111017;0.11093802;0.12933221;0.03313235;-0.08111393;-0.09638473;0.12502235;0.03013537;0.28730902;0.01819714;-0.09644746;-0.16068533;0.060615633;-0.21796675;0.2824492;-0.21348757;-0.07550563;0.081567235;0.07661571;0.04252023;-0.16993544;0.15106454;0.1093339;0.056395195;-0.06242279;-0.05599527;0.12714273;0.011884559;0.18418919;-0.18191272;0.18188874;0.13583805;-0.045891784;-0.049281206;-0.08445705;-0.018683745;0.1077529;-0.1647901;-0.022343013;0.059915125;0.02688009;-0.046175286;-0.05155362;-0.022073438;-0.012928437;-0.0777299;0.035079665;0.07744463;0.18926354;0.01772864;-0.038766116;0.008796125;-0.03328213;-0.26471275;-0.053912293;0.117180645;0.25428322;-0.04430081;-0.075445056;-0.07201747;0.04736036;-0.058508918;-0.12695117;-0.078021914;-0.017933728;-0.0071065;-0.11868351;-0.003168742;-0.15894495;0.16770986;-0.10605084;-0.022840831;-0.042879127;0.0825154;0.054441556;0.019917993;-0.009452164;-0.024697453;-0.0030094846;0.07538539;-0.07411175;-0.073692046;-0.0878382;-0.05195758;-0.033940513;-0.15094887;-0.11011317;-0.03301877;0.004142358;0.026381152;0.22128965;-0.11417799;0.06367205;-0.0626252;-0.08611155;-0.025115442;0.13759395;-0.095784076;0.1553579;-0.06705418;-0.06791938;-0.07151533;0.03825593;-0.0586309;-0.06502279;0.019697191;0.21462601;0.024110883;0.03703896;-0.25629723;0.14676906;0.1957008;0.011650935;0.07237528;-0.008162139;-0.14061937;0.021983558;0.14462636;-0.17202052;0.17178816;0.0074544223;-0.11093438;-0.05531109;0.101475075;0.111928545;0.11974456;0.0586013;-0.15918502;0.050303873;-0.079354726;0.036573246;-0.23124678;-0.048356235;-0.12352489;-0.110043295;0.003769596;-0.060646497;-0.24723628;-0.017710177;0.077497974;-0.010004851;-0.2848768;-0.37783274;0.08622333;0.06020506;-0.10190084;0.09985927;0.12251245;0.07419352;-0.0014068969;0.05726393;-0.13227415;-0.027462458;-0.048772175;0.22666681;0.14161342;0.08622652;-0.26267886;0.002117549;0.1461412;-0.19199468;0.20363039;0.16526258;0.15238716;0.0016733424;-0.042059384;-0.050796367;-0.11110481;0.108087614;-0.041879788;0.20691268;-0.039515365;-0.08433129;-0.0740053;0.014271701
0.028562255;0.039419882;0.09980823;0.095428;-0.08252678;0.07186506;-0.02626064;0.03634258;-0.0043943147;0.042777713;-0.07456004;0.15985547;0.06491926;0.14004892;-0.055332243;0.09840146;0.10325077;-0.11390851;0.10316094;0.0540709;-0.031486098;0.0114136245;0.01899633;-0.1173473;0.08998576;-0.24813402;-0.09649063;0.071464494;-0.04475048;0.14499556;0.20101015;0.07159036;0.049632158;0.19849709;0.22471148;0.019619972;0.110045314;-0.04897813;-0.028115561;0.11897423;0.06562527;-0.17385079;0.28375757;-0.10926395;0.048844296;-0.04057066;0.06804839;0.0005684259;0.13508813;-0.10989614;0.26358992;-0.08270351;-0.040480204;-0.056376193;-0.021072952;-0.01196341;-0.021989886;-0.012829077;0.18530218;0.12466002;0.055301785;0.03609588;0.0055293604;0.064874165;-0.14272228;-0.059835713;-0.074144594;0.09741693;-0.09035857;-0.028170425;0.08717414;-0.10802162;-0.010550617;0.019458888;0.24132358;0.057517048;-0.1015608;-0.00034471738;0.14083706;0.06937369;-0.06527066;-0.14465462;0.0196478;-0.018321494;-0.07033943;-0.06495358;0.14759043;-0.0017527996;-0.115230456;0.07876426;-0.11064318;0.019881586;-0.12708113;-0.19692443;-0.14964049;-0.015939355;0.019297726;0.12082396;-0.08376249;-0.04821782;-0.053211577;0.1884206;0.0698349;0.06479011;0.1408008;-0.017831206;0.10348497;-0.025866626;0.10791069;-0.18774942;-0.2476858;-0.10600158;0.096078366;-0.041987408;-0.10818913;0.10828593;-0.13382544;0.08975396;-0.0703516;-0.11410069;0.21885715;-0.07316673;-0.10672583;0.10123071;0.15379247;-0.13278735;0.09132124;0.24094318;0.19667754;-0.14754069;0.010905612;0.011736355;-0.066576466;0.019053191;-0.21543664;-0.074557364;0.0748213;-0.094423145;-0.019301057;0.00027600292;-0.00614074;-0.018455194;0.10688557;-0.0049358383;-0.0025755884;-0.22017838;-0.03261794;0.22529598;-0.03450798;0.039330173;0.089242555;0.091175206;0.015475512;0.14728715;-0.18289271;-0.02087016;0.10265807;-0.07338827;0.025388896;0.13870166;0.023810035;0.09908936;-0.35633758;0.10315774;-0.06055327;0.1384479;-0.10322101;0.020369474;0.050521154;0.08499942;-0.02037699;0.049856093;-0.13851841;-0.18753381;0.02601973;0.09411447;-0.02880602;-0.18584844;0.06306575;0.14757581;-0.18164194;0.006088727;0.088424265;0.04022096;0.07001504;0.080565795;0.12002298;-0.1318198;0.24432395;0.10267395;-0.11884982;0.079219915;-0.10796377;0.06070598;-0.31479853;0.28887534;0.02851165;-0.021681592;-0.11777071;0.052717973;-0.19855985;0.08792281;-0.19545192;-0.010500261;-0.016971119;-0.10039804;0.15531096;-0.027347682;0.15784656;0.13139875;-0.1568165;-0.13019523;0.058864485;-0.28020668;-0.090256244;0.16186675;0.07317128;-0.012787524;-0.11669442;0.009871244;0.25431892;0.0010429774;-0.005410016;-0.009623232;0.052421343;0.08535292;-0.07788048;0.06991664;-0.06521786;0.08868914;0.05451127;-0.113631986;-0.06873802;0.106628634;0.20838794;-0.056016933;-0.14357659;-0.09940194;-0.10758359;-0.104095675;-0.038288604;0.1281568;0.16634485;0.040252488;-0.17669512;-0.28117132;0.08726788;0.03830337;-0.06061021;-0.11678226;-0.18190424;0.045371428;-0.00093824597;0.039817657;-0.16095231;-0.089592814;0.21414848;-0.019747082;-0.055591907;-0.08387453;-0.03328029;0.0924676;0.035604328;0.1385368;-0.084724255;0.05324586;-0.12562567;-0.05322434;0.04732766;0.113775596;-0.06805255;0.030547233;0.30917364;0.12003738;0.08334813;-0.004908617;0.06425479;-0.12639998;0.045556605;0.06417791;-0.07360652;-0.3996588;-0.016269771;0.021622824;0.008764823;0.0846372;0.032077033;-0.08704221;-0.16765122;-0.09173122;-0.10022015;-0.016106423;-0.034647387;0.2537883;-0.01775174;-0.006725042;-0.15830094;0.04786485;0.013137015;-0.15679407;-0.068385124;-0.061204094;-0.042654376;-0.04625274;0.024291968;-0.038057916;0.005193215;0.13726361;0.052751455;0.1996447;0.110861234;-0.050496697;0.038283583;0.037165288;-0.090666845;0.05416027;-0.06801053;-0.05417531;-0.0559714;0.06299212;0.14992416;0.08998045;-0.01728392;0.007624418;-0.22726595;-0.045244556;-0.029492116;0.060640384;0.10992178;-0.058813747;-0.15701282;-0.111272305;0.20153658;-0.10909224;-0.06721065;-0.0133661665;-0.09520507;-0.08843037;-0.20704202;-0.019557448;0.05428441;-0.066597;-0.09655053;-0.00038571592;0.034129888;0.17090516;-0.19675206;-0.17344444;0.054105897;-0.15961862;-0.20649998;-0.059386536;-0.28039905;0.08930072;0.16776659;-0.0034024534;-0.07800818;-0.096830525;0.20187928;0.18401782;-0.19382036;-0.014444709;0.06757111;0.21795535;-0.06549957;0.08587355;-0.018143399;-0.032866485;0.014022229;-0.021001663;-0.16841361;-0.017768076;-0.0047319126;-0.27260506;0.11363771;-0.14555252;0.116342805;-0.049352665;0.024973087;-0.04673515;-0.03895046;-0.13386728;0.09554091;-0.12343708;-0.19206217;-0.020863345;-0.15485182;0.03760873;-0.15857537;-0.119032145;0.06418478;0.018043559;0.18728836;0.030856524;-0.14054461;-0.04454924;0.04803011;-0.13443951;0.035724144;-0.007137406;-0.049515937;0.054539848;0.14908421;0.013707008;0.02630922;-0.18615362;-0.08502766;0.03989547;0.09467223;0.27752915;5.364711e-05;-0.17327343;-0.23270343;0.013898196;-0.23795813;0.2871957;-0.04677913;0.14364767;0.03250678;0.1482837;0.039585654;-0.21196216;-0.020980552;0.058247533;-0.11303935;0.004271432;-0.049941104;0.105962664;0.114811346;0.21844019;-0.16387892;0.14518014;0.062945366;0.07204027;-0.0445072;-0.0069808727;-0.11706956;0.074206606;-0.18814436;-0.0634399;0.010863624;-0.07471145;-0.1370113;-0.022932354;-0.0037405519;-0.1511381;-0.091312915;0.01297095;0.094039455;0.2562504;0.0070496295;-0.020802129;-0.0013006324;-0.09338969;-0.25788265;-0.027418327;0.05766651;0.13192521;-0.110424906;-0.029804738;0.00085283694;-0.023647506;0.07469012;-0.06998887;-0.1167876;-0.025078997;0.06139739;-0.039386973;-0.02736605;-0.11286118;0.1525904;0.05374684;0.024728103;-0.0260535;0.039366763;0.003378181;0.09871656;-0.044421393;-0.040438734;0.06600458;0.10354587;-0.021335961;0.05897115;-0.024310967;-0.15602162;0.08315574;-0.06943301;-0.12559038;0.01762488;0.17262568;-0.04092372;0.1444407;-0.015727889;0.08759915;0.053040344;-0.07321156;-0.122351475;0.11298332;0.06808886;0.086650625;-0.072080106;-0.04698169;0.016619949;0.13827662;-0.13895264;0.044237148;-0.05817864;0.12319416;0.046923257;0.016304815;-0.1492034;0.16291527;0.22018725;-0.07108184;-0.0187046;0.027890565;-0.088069685;0.036419917;-0.0064705163;-0.20067489;0.17858191;0.013941069;-0.087426774;-0.1354181;0.14314054;0.07118094;0.09406975;0.11754786;-0.08902817;0.05831716;0.024648136;0.055637285;-0.16567397;-0.06408609;-0.19552697;-0.08657483;-0.01917056;-0.06059659;-0.19553424;0.034417458;0.08321193;-0.02277906;-0.21229796;-0.21388294;0.17481168;0.13469735;-0.010787089;0.14278804;0.09097186;-0.030969908;0.00023028665;-0.024210129;-0.21977651;-0.086137705;-0.018629204;0.13263421;0.027426068;-0.051094215;-0.30463699;0.16930771;0.09766146;-0.090450145;0.19572388;0.09496878;0.13809544;0.05460003;0.02279624;0.09253387;-0.18890388;0.105032794;0.1373885;0.17453574;-0.03878063;0.0024340174;0.012931767;0.17097515
0.033852004;0.08112432;0.026773402;0.20683856;-0.052386962;0.15396872;-0.028688023;-0.033355277;0.07048724;0.061785933;-0.10470799;0.0681935;0.14970309;0.14915563;0.04667317;-0.004538877;0.13962783;-0.00090382516;0.119669616;0.04692728;-0.034990795;0.18396899;-0.0149301635;-0.22947206;-0.098766275;-0.0728372;-0.12492946;0.10810147;0.052041207;0.08158605;0.1783737;0.07710107;0.0060547083;0.14804097;0.12825657;-0.07588543;-0.042866964;-0.09739892;-0.05467696;0.12736243;0.15190236;-0.09513306;0.14744814;-0.0013044811;-0.024044381;-0.10311922;0.046098623;0.026748987;0.13552472;0.009376623;0.1304466;-0.035838448;-0.18018481;-0.10805825;0.05067899;-0.03511261;0.007897506;-0.0224359;0.09514004;0.22662692;0.0671307;0.076663464;0.1357727;0.08534575;-0.23139058;-0.0065822504;-0.013136178;0.18024197;-0.11876029;0.08542777;0.1770656;-0.1822559;-0.015189995;0.040078443;0.22538018;0.08270107;-0.05738426;-0.058902122;0.26848695;-0.009440481;0.011561471;-0.14745682;0.0041258233;-0.018602705;-0.12507458;-0.017625177;0.13897012;0.0047628777;-0.15455265;0.15816297;-0.09933142;-0.055541713;-0.06663801;-0.13694474;-0.07322488;-0.10072998;0.065578274;0.021717086;-0.06870862;0.014698438;-0.18948792;0.2866681;0.080954336;0.108453766;0.18539575;-0.027409965;-0.0144450255;-0.11793474;0.22998141;-0.08640723;-0.20991358;-0.08125257;0.0047765845;-0.059399;-0.06667653;0.048169084;-0.038117643;0.089989424;-0.09016841;-0.03572105;0.19832149;-0.11651491;-0.17747554;-0.047936056;0.037519414;-0.14356029;0.051044676;0.24696414;0.17212579;-0.05287315;0.018266013;0.057154678;-0.087631114;-0.07272985;-0.36825827;0.032204792;0.05702034;-0.23912296;-0.04222049;-0.02685838;-0.024937324;0.017153125;0.06759249;0.08438631;0.07747163;-0.15370466;-0.13882217;0.241826;-0.07835102;0.10047744;-0.044805538;0.05374088;0.051464457;-0.039453387;-0.28929046;-0.021648547;-0.01941866;-0.059055585;0.05830748;0.039958633;-0.013271204;-0.023334578;-0.2606851;0.049550425;0.08032605;0.119845614;-0.037455704;-0.018546054;0.008392684;-0.0223705;-0.019924145;-0.029608909;-0.025937384;-0.06934149;-0.012506112;0.14740561;-0.09069287;-0.17464453;0.0744769;0.09687372;-0.114298016;0.03925077;0.07495797;0.029375112;0.010311321;-0.07205723;0.1168365;-0.13662481;0.21207194;0.10746549;0.049245723;0.06262924;0.0053078705;0.14486371;-0.29711807;0.20738271;-0.030158322;-0.041301306;-0.0712243;0.082235426;-0.08394524;0.12931915;-0.14164698;0.0041448255;0.009707025;-0.005696603;0.17252035;0.015814984;0.0049264673;0.11990057;-0.04242976;-0.16560714;0.18253353;-0.24539441;-0.046715897;0.1840554;0.06579688;-0.06479228;-0.0063152025;-0.11050353;0.20715062;-0.02920325;-0.0708432;-0.013923237;-0.050143074;0.05954528;-0.051463213;0.025453037;-0.01716962;0.09173427;0.1325528;0.0042587216;-0.017719284;0.08586298;0.17407915;0.03013602;0.021030659;-0.09620216;-0.10327106;0.016052684;-0.0023255826;0.027760915;0.08660447;0.0065850574;-0.14257541;-0.21656272;0.09227187;-0.012893666;-0.051353894;-0.06728351;-0.22527409;0.09391269;-0.105586715;-0.040358923;-0.11795654;-0.04056203;0.09283011;-0.042721123;-0.09060331;0.022674637;0.0870366;0.040759753;-0.044446062;0.021038717;-0.046913374;0.045668088;-0.18353032;-0.04204669;-0.03789923;-0.024535773;-0.07450382;0.14029154;0.26840645;0.0013732399;0.09221596;-0.081385694;0.09080909;-0.098579206;-0.0061284085;0.11649798;-0.095860176;-0.31571633;7.7353034e-05;0.08928778;-0.074390136;0.07534065;0.09824866;0.039074983;-0.10586953;-0.06879799;-0.122912705;0.07222768;0.12634586;0.22082545;-0.06672881;-0.02176612;-0.04137914;0.06930595;0.05019111;-0.1827189;-0.15912688;-0.09411479;-0.049017362;-0.12507446;0.0037443738;-0.07285156;0.12064912;0.048708405;0.09362756;0.12611638;-0.010817065;0.056192;-0.122245096;0.06086995;-0.14196414;-0.02388931;-0.015566545;0.054517705;0.025414458;0.074233495;0.14756243;-0.028672203;0.17996567;-0.12819551;-0.2440229;-0.057182457;-0.06757953;0.010440176;0.09737319;-0.046167478;-0.08240134;0.011854916;0.17395788;-0.035593927;-0.09655726;-0.059455223;-0.10409307;-0.0713769;-0.19476177;-0.07039255;0.28138912;-0.07952705;-0.13950701;-0.060423803;0.009659311;0.09587705;-0.021737892;-0.04149431;0.07068191;-0.11450691;-0.18469281;0.0897302;-0.2137493;0.11083587;0.061670933;0.06423932;0.04083099;0.0091473805;0.22025669;0.19922408;-0.13400695;0.08276672;0.02160157;0.19703743;-0.09282876;0.072280504;-0.021063695;-0.0045849346;0.06246498;-0.028491523;-0.060577787;-0.018252203;0.031885866;-0.22005375;-0.00293761;-0.07565281;0.07349229;0.019249102;0.026337706;-0.07704305;-0.047244187;-0.03545143;0.041104373;-0.049961865;-0.03921888;-0.019230185;-0.20840825;-0.04386897;-0.21763593;-0.08985271;0.07829091;0.07046514;0.12096041;-0.08978551;-0.0666922;-0.0110973865;-0.050673734;-0.06847241;0.046860058;0.1203818;0.074606165;-0.014249095;-0.013564139;0.08478063;-0.04672818;-0.070468254;-0.12413168;0.065462865;0.12528063;0.13657765;0.012014399;-0.09545999;-0.21435851;0.160192;-0.17397268;0.22855045;-0.09106316;-0.011344854;0.03167714;0.10648817;-0.03230899;-0.2354068;0.10145534;0.009812126;-0.08719137;0.0032650467;0.07950674;-0.029589405;0.11286298;0.18257135;-0.1605408;0.0636065;0.014267444;-0.021750119;-0.024653008;-0.050256375;-0.056562133;0.09462753;-0.040162172;0.072916776;0.0009593664;-0.106298506;0.034118854;0.03952001;0.013106057;-0.039741315;-0.047439165;0.015001219;0.17421012;0.15321098;0.16348328;-0.008002915;0.06438216;-0.14941041;-0.19844384;-0.016854145;-0.026446417;0.19239971;-0.0058968565;0.08010489;0.1016144;0.009341646;-0.038701173;-0.13271467;-0.14628091;-0.011468815;0.09299129;-0.041216444;0.113724135;-0.14088441;0.098624445;0.013114111;0.028480073;-0.12858008;0.031631973;-0.10543532;0.034247085;-0.012270647;-0.112111546;0.13532989;0.03301357;-0.051570512;-0.07111788;-0.18028656;-0.06405989;0.033433717;-0.08416107;0.0071095573;-0.009107207;0.09707572;0.05482494;0.049224578;-0.11586496;0.07813305;-0.021205721;0.0010899609;-0.011686871;0.05578527;0.09815048;0.15988946;-0.06576959;-0.090725;-0.09719382;0.040407654;-0.11589066;0.11690452;-0.04505787;0.14429572;0.052312184;-0.00090460974;-0.19649994;0.20587105;0.12956887;-0.05158731;0.019965254;-0.04434224;-0.20102847;-0.019675715;0.046911605;-0.10595529;0.1254294;-0.07632753;-0.2780863;-0.08427353;0.1587864;0.072422005;0.11667462;0.009771669;-0.0001331981;-0.019395575;0.037667554;0.045055877;-0.13681655;-0.065112665;-0.13986517;-0.0734327;0.06202079;-0.048558295;-0.23320061;0.0023715938;0.09152473;0.012687752;-0.23594114;-0.1535417;0.24086301;0.067631066;-0.13444771;-0.004117448;0.015631568;0.05704984;0.039404146;0.002065739;-0.3230461;-0.004497884;0.006381168;0.23108047;0.025451325;0.046751447;-0.30524325;0.020088902;0.15215111;-0.18557997;0.26403168;0.10624634;0.119788066;0.113869466;-0.022085508;0.029328546;-0.113904536;-0.053977896;0.068428434;0.13490906;-0.094665475;-0.061287437;-0.080080666;0.0317344
0.08290572;-0.029294323;0.029361047;0.16859809;-0.037496448;0.08672578;-0.1003103;0.08956186;0.0031396558;0.006797022;-0.030928705;-0.0374614;0.07304531;0.17087673;0.0056282156;0.02474579;0.09843768;-0.10729763;0.019207858;-0.099648185;-0.04639325;0.16782317;0.030767398;-0.045044046;0.007004836;-0.20880301;-0.12059461;0.08738741;0.053349897;0.060153108;0.22726245;0.14302799;0.057101667;0.092366636;0.12750527;-0.009583372;0.024234485;-0.0884764;-0.0279543;-0.03937407;0.1472841;0.02154954;0.15345709;-0.03613;-0.11398641;-0.06389367;0.03857348;0.16083813;0.117618866;0.057323437;0.14367816;0.0639325;-0.12633593;-0.11210164;-0.04945135;0.012478142;0.07291854;-0.002573723;0.211825;0.20944442;0.09952739;0.2000233;0.047533337;0.06716992;-0.16214775;-0.003380049;-0.00014494976;0.22450355;-0.06127613;0.039687946;0.038271178;-0.1374059;0.07806942;-0.030164316;0.14116253;0.082803376;-0.13421859;-0.0916147;0.13465068;-0.047693748;0.090140656;-0.088692166;-0.11943521;-0.021803254;-0.06546748;-0.06808893;0.16797692;-0.02433756;-0.02489093;0.20316516;-0.10351504;0.04598691;-0.14378016;-0.17741176;-0.0330913;-0.11496617;0.05208225;0.027064005;-0.09990258;0.05439989;-0.15260744;0.2681425;0.012126538;0.09740387;0.07432568;0.14039151;-0.0031770833;-0.017485423;0.09809975;-0.18877827;-0.16954714;0.0074562635;0.13169938;-0.09539246;-0.0995076;0.09657538;-0.12681948;0.14999835;-0.15102865;0.011700574;0.13122697;0.0071421107;-0.013926468;-0.0183765;-0.0042226333;-0.10122144;0.05950864;0.080009066;0.14076503;-0.052748594;0.0014575208;0.026015315;-0.055871274;0.020270294;-0.3744556;0.046427306;0.047881898;-0.12157673;-0.006585103;0.09298281;-0.07099856;0.057751313;0.0695811;0.022893323;0.035827268;-0.0681278;-0.13026485;0.21766911;0.0017248589;0.015953261;0.07843559;0.06334409;0.11743807;0.05682438;-0.06770839;-0.107485056;0.07064075;-0.15393475;0.080478325;0.10347551;0.13366319;0.028266985;-0.32366702;0.06178833;0.04230065;0.19629253;-0.14109237;0.102950506;-0.04297511;-0.0581909;0.061212033;0.051675506;-0.07061457;-0.18088877;0.06153208;0.08587002;-0.09650025;-0.08054123;0.008427931;0.06778588;-0.15781918;0.00047779383;0.004675546;-0.059891906;0.048797905;0.0075761457;0.10525858;-0.17670745;0.18486907;0.11026598;0.026923543;0.21224774;-0.0931301;0.06784614;-0.2700445;0.1153399;0.062259596;-0.06933764;-0.078273006;0.046320487;-0.12971842;0.07430365;-0.0888981;0.114163876;0.037055716;-0.051388897;0.025660243;-0.04750275;0.018740628;0.13724339;-0.22101043;-0.10852787;0.092214495;-0.14868475;-0.07021352;0.18642408;-0.017309414;-0.12964551;-0.027216973;-0.08367002;0.24318473;-0.031236622;-0.016144414;-0.019634858;0.059635337;0.1150121;-0.05946035;-0.009728147;-0.16480136;0.06717435;0.011606764;-0.060104195;-0.05195774;0.1288951;0.17837381;-0.03516281;-0.04059609;-0.04125189;-0.06362371;-0.047526665;-0.018017264;0.054458942;0.17589644;0.014550666;-0.1832691;-0.15523116;-0.055019084;-0.047143724;-0.007810948;0.01676275;-0.23753121;0.040501013;-0.09176088;0.043019906;-0.25914043;-0.1425318;0.15098538;0.014568987;0.048269145;0.051268745;0.06244854;0.14354786;-0.062097684;0.06638365;-0.1453349;0.06308433;-0.013287969;0.0035064267;0.0006746745;-0.007678465;-0.051735234;0.28007683;0.2392756;0.05805758;0.0767549;-0.042346425;0.10707989;-0.07289305;-0.023606177;0.1630694;0.008263434;-0.14988597;0.10540176;0.010400493;0.02780955;0.19494225;0.08885681;-0.0008725476;-0.07979155;-0.12501709;0.014418864;0.06700397;0.07528717;0.15006185;0.02054424;-0.036596525;-0.13439104;0.067500375;0.086261444;-0.27210903;-0.036811806;0.035881646;-0.056166127;-0.17176415;-0.12670757;-0.0037766804;-0.00498534;0.17634988;0.14506277;0.16211689;0.048838124;-0.010045053;0.0042384546;-0.030026626;-0.026122564;-0.04226772;-0.10465329;-0.076339565;-0.010440979;0.07861206;0.109461375;0.033502813;0.09800247;-0.083412975;-0.07807036;0.077044934;-0.04825239;-0.055980973;0.09438185;-0.16077934;-0.044650473;-0.0012532836;0.17357033;-0.032665152;-0.05957061;-0.064409606;-0.009400367;0.008228726;-0.058585797;-0.0012440464;0.17064261;-0.1504755;-0.15482628;-0.028547378;0.019202072;0.06793737;-0.09598766;0.06599163;0.018280847;-0.028300926;-0.25273693;-0.014615316;-0.29828873;-0.03301364;0.11277084;0.018124651;0.056843303;-0.059329804;0.19858122;0.17977187;-0.09847489;0.074296206;-0.035489943;0.14935419;-0.100491755;0.16035084;-0.036608182;0.0062301387;0.14912884;-0.102031015;-0.07285708;-0.05095116;0.16969247;-0.35603127;0.14329697;-0.22185771;0.12525518;0.038103703;0.08645546;-0.0010707059;-0.08513261;-0.054191343;0.0007024108;-0.08884621;-0.06325805;-0.04149345;-0.16594101;-0.018114436;-0.257635;0.052214153;0.18993774;0.15598486;0.19999705;-0.03958063;-0.04456238;0.10174788;0.08123574;-0.063846566;-0.030634094;-0.059763316;-0.022553228;-0.024166988;0.06254005;0.13152567;-0.049428668;-0.13322003;-0.08928138;0.048617236;-0.047942456;0.23715556;0.04221331;-0.28425503;-0.1816369;0.062280536;-0.1227766;0.28402123;-0.031175796;0.15276669;0.020382505;0.07775566;0.036566444;-0.1501393;0.14888734;0.082465395;-0.20158128;0.02132696;0.021861618;0.023831917;0.11057036;0.13084705;-0.09192206;0.049428366;0.13874334;0.03348637;0.0012217457;-0.010103663;-0.12679888;0.07669027;-0.106656395;-0.07768135;-0.08506935;-0.056555536;-0.016120564;0.019534769;0.06236207;-0.05520153;-0.10584626;0.05144268;0.06638001;0.10267036;0.19919534;-0.05502019;0.0284388;-0.10036982;-0.31818688;0.004460128;0.1004464;0.12868084;-0.018120447;0.13856803;0.08115375;0.030688403;0.06424835;-0.09338351;-0.04766214;0.020621905;0.13058679;0.025888503;0.027684957;-0.027893893;0.20513348;-0.09241971;0.13323905;-0.037722353;0.09403389;0.048694596;-0.032481536;0.08784947;0.03859191;0.1756091;-0.054425143;-0.030194873;-0.06257292;-0.17252567;-0.10904449;0.03445062;-0.10946469;-0.052066606;0.06668114;0.11712732;0.06098517;0.1639221;-0.119918585;0.055833545;0.036397208;-0.007040284;-0.107551284;0.121020526;-0.027806424;0.093853146;-0.045626007;-0.09511206;0.015908819;0.15570141;-0.1575843;0.053730577;-0.038674574;0.19084488;0.12815723;0.024146779;-0.1606073;0.19537425;0.12536764;0.06030413;0.02942306;0.015952287;-0.08316214;-0.020786492;-0.017552186;-0.16126613;0.20676589;-0.020541366;-0.35965645;-0.15918477;0.014244005;0.16824283;0.115172684;0.033036523;-0.057293884;0.109117284;0.08356256;0.068821736;-0.122919135;-0.14199613;-0.1240314;-0.16536501;0.11077813;0.0145261;-0.22820869;-0.0061212084;0.13397565;0.029245704;-0.18141614;-0.2203801;0.091741204;-0.018055186;4.2779175e-05;0.10929993;0.024508659;0.12355519;0.007350312;-0.096740484;-0.18189833;-0.13306922;-0.035317782;0.15749492;-0.025175856;0.04822418;-0.21077892;0.03600797;0.021912277;-0.23513411;0.15985394;0.016624937;0.142584;0.041253142;0.10879924;0.031362098;-0.2365379;0.025128715;-0.009781134;0.15454854;0.024980946;-0.08520994;0.052730855;0.11078054
0.12036274;0.07032355;0.029904418;0.16011602;-0.10485272;0.20997833;-0.028736288;-0.004039037;0.058064826;-0.040566664;-0.035800975;-0.014372416;0.085886866;0.18642735;0.07163323;-0.13177128;0.10378251;-0.04517554;0.07638066;-0.13126682;-0.19203068;0.18354484;0.038130276;-0.14062965;0.020516697;-0.11708583;-0.14905192;0.07909122;0.110427044;-0.003511201;0.11099056;0.104905546;-0.0052443496;0.043366615;0.122191325;-0.020439044;-0.058332372;-0.18556929;0.079067215;0.014647765;0.13233782;0.027726252;0.16608079;0.08818324;-0.02597512;-0.119787656;0.05563298;0.072723106;-0.005962948;-0.01489384;0.17697483;0.07717187;-0.18315518;-0.047680743;0.008364513;0.027559845;-0.0039776103;0.09745303;0.22576565;0.18604484;0.07416555;0.21665277;0.031163432;0.052404895;-0.24314831;-0.12515445;-0.08200956;0.13430549;-0.0476776;0.14510162;0.1922704;-0.088919446;0.046671417;-0.0597011;0.06806803;-0.11355614;-0.139993;0.002297868;0.111765295;-0.11204897;0.15884799;-0.011314399;-0.17472178;-0.10906903;-0.10132087;0.0033737049;0.14648515;-0.13538481;-0.116353385;0.096818276;0.036972098;0.018372973;-0.11037625;-0.21147491;-0.09966498;-0.010426795;-0.14471693;0.050472636;-0.0213741;-0.03539132;-0.21411005;0.12767561;0.036200948;0.10301176;0.037078273;-0.047107156;-0.10226097;-0.064129956;0.20680846;-0.17563084;-0.061374508;-0.104479;0.09144682;-0.3104733;-0.015114957;0.15370078;-0.049371917;0.15077262;-0.13640827;0.00725637;0.1849411;-0.020341123;-0.057287373;-0.051942233;-0.012903744;-0.09908534;-0.07087414;0.14620462;0.0144237485;-0.042616755;-0.034249492;0.03268097;0.12159815;0.0062644496;-0.3321614;0.076718874;-0.057797067;-0.051854;0.04024855;0.1920155;-0.08338971;-0.014217824;-0.014235585;0.1285463;0.04872723;-0.06677292;-0.044416226;0.15732048;-0.02460051;0.1359189;-0.042828646;0.06401752;0.09189857;-0.006384144;-0.16191478;-0.09706879;-0.0276355;-0.1617051;-0.06015297;0.1437527;0.11385104;0.048837215;-0.309501;0.16846946;-0.03324001;0.13120386;-0.041808445;0.0153532885;-0.0901934;0.0886078;-0.0634361;0.01373201;-0.107786976;-0.18362248;0.14972672;-0.033280045;-0.08407325;-0.18739441;-0.07529669;0.15883958;-0.08870356;-0.08975836;-0.043370202;-0.09629658;0.074556425;0.11787313;0.08877605;-0.13364515;0.03939249;-0.14550355;0.0054812273;0.18494384;0.07409267;-0.0047681294;-0.24804516;0.010762455;-0.03936031;0.03936896;-0.09184682;-0.0020067096;-0.24180546;-0.04115866;-0.19217841;0.06625109;0.10711916;-0.10871799;0.045906235;-0.13799417;-0.012131331;0.118334785;-0.1601829;-0.107385084;0.13068677;-0.16839576;-0.027383659;0.11659936;0.01261749;0.019728232;-0.07817247;0.011517538;0.25785473;0.03252167;0.0021147793;0.002164187;-0.11274171;0.096352585;-0.16153388;-0.018189305;-0.28055012;0.07694131;-0.025205178;-0.08133157;-0.11024498;-0.09523105;0.110377796;-0.09421548;-0.017650422;-0.17524798;-0.05542643;0.071731776;-0.16875549;0.07506304;0.099527374;-0.006311607;-0.08218768;-0.12897666;0.0700857;0.06260935;-0.119613566;-0.1047741;-0.10229782;0.13997905;-0.053279623;-0.024188902;-0.1471653;-0.0459743;0.12441851;-0.064241566;-0.10001786;0.09513928;0.03323768;0.12459294;0.035417166;-0.11918565;-0.09661549;0.15098147;-0.041631885;-0.020946603;-0.0227246;-0.08136845;0.04928627;0.20894665;0.20056935;-0.023128565;-0.032137215;-0.15021552;0.034851797;-0.098268405;-0.018821798;0.116150446;0.12752809;-0.10347382;0.12150743;-0.010718764;0.05588322;0.05896848;0.08525011;0.050434943;-0.10273394;-0.15949705;-0.07898462;0.011436274;0.16881125;0.21697147;-0.05203012;0.09880105;-0.11906963;-0.00043272987;0.062259454;-0.15695478;0.066786714;-0.05508619;0.0012655458;-0.12052194;-0.15235086;0.118871145;-0.009423858;0.058577523;0.03504314;0.103101894;0.06943408;0.1701598;-0.02977137;0.07696807;-0.1564686;0.0075726146;-0.101221465;-0.10905697;-0.051313765;0.052054256;0.15430501;-0.008595475;0.1346902;-0.1194943;-0.14248513;0.03296242;0.082793064;-0.14695758;0.2159457;-0.14074156;0.07095032;0.101535946;0.18523586;0.051311567;-0.13624075;-0.11834066;-0.1846221;0.048374373;-0.03757165;-0.022768417;0.23625991;0.035660043;-0.115595706;0.059868667;-0.057238143;0.047356524;0.007931055;0.1364233;-0.009751673;-0.17553093;-0.14019379;0.044519626;-0.28294945;-0.06888089;-0.052964218;-0.035375778;-0.054390453;0.077832736;0.24603054;0.17135851;-0.18213712;0.1270295;-0.14663252;-0.033438236;-0.12540746;0.087976255;0.03660069;0.0042106477;0.003413284;0.017130518;-0.17894901;0.023667935;0.20454445;-0.30264133;0.04108529;-0.03434936;0.19551368;0.04807426;-0.1204218;0.09786206;-0.034246124;-0.06376784;-0.0625176;-0.061447907;-0.048031922;-0.109036155;-0.06898793;0.001131563;-0.21510853;-0.018917512;0.09520986;0.12239935;0.053456485;-0.07131425;-0.053865295;-0.0789499;0.00736163;-0.042356055;0.07261504;0.11101152;0.079342894;-0.076788254;-0.11665513;0.19064303;0.057728205;-0.19350971;-0.19809832;0.09455767;-0.07221555;0.12779975;-0.07955442;-0.26481554;-0.23203583;0.05869196;-0.053773012;0.15649068;-0.058656923;0.08103339;0.04877881;-0.011148357;0.09308285;-0.09412458;0.029561792;0.11673234;-0.040880024;0.07933306;0.045799986;0.08784967;0.043807678;0.0146927005;-0.04021274;-0.030142803;0.14925662;-0.020130912;-0.10527273;-0.105732866;0.0479137;0.15045229;-0.19512284;-0.06904632;0.04403976;-0.0711475;-0.014921177;-0.10218556;0.032805067;0.103175536;-0.06089952;0.047053684;0.14171113;0.07150293;0.09965137;-0.11603875;-0.035610624;-0.16602437;-0.2526339;0.07225373;0.093944386;0.120473705;0.04106636;0.043909878;-0.05074646;0.050337274;0.058342677;-0.15373762;-0.0062865983;0.09157789;0.23480655;-0.02472283;0.13260333;-0.14639522;0.12415303;-0.12007861;0.033394948;0.042731173;0.019178282;-0.010685604;-0.056327015;0.13887532;0.067450024;0.13901936;-0.0339018;-0.13181992;-0.056133084;0.016377397;-0.052797608;0.022114212;-0.029166345;0.0351944;-0.047300175;0.1597267;0.15056983;0.067947425;0.028730856;0.06418372;-0.017102394;-0.113623;-0.09282813;-0.030065386;0.028761309;0.089039706;0.019061765;-0.014160205;-0.031487066;0.020269806;-0.16648316;0.0770727;-0.07525259;0.14472844;0.096508384;0.15177652;-0.16289796;0.25224558;0.06401747;-0.076588616;0.14475316;-0.1318947;-0.10452875;-0.0156585;-0.084676646;-0.08526426;0.12140136;-0.008081494;-0.220201;-0.041168258;-0.09085255;0.15973556;0.005421988;0.15998375;-0.02243278;0.026604822;-0.0049660113;-0.1361953;-0.06688672;-0.049399044;-0.058247067;-0.10909253;-0.07405618;0.03183285;-0.07065951;-0.010823363;0.08470372;0.17353415;-0.17026131;-0.30382115;0.17187567;-0.08535244;-0.07892935;0.085336015;0.14807191;0.18160206;0.090401895;0.046417717;-0.21245423;-0.033313494;-0.114715114;0.22511151;0.07911298;0.11018774;-0.15114526;0.04387926;0.088337675;-0.07164929;0.27912647;0.09525008;0.27424142;0.12631842;0.040965807;-0.15245621;-0.16710004;-0.008193301;0.101891965;0.2727456;-0.10935231;-0.086403735;-0.0098589985;-0.059098884
0.15905885;0.04603195;-0.08793487;0.21275803;-0.04803605;0.07841288;-0.07272409;-0.07416417;0.059704486;-0.17264824;-0.054750696;0.042853933;0.0814967;0.15473822;-0.007452703;-0.14398506;0.074258275;-0.00688094;0.027194818;-0.11845202;-0.07756821;0.18887176;-0.00025929467;-0.1467044;-0.1239159;-0.06840768;-0.210044;-0.028092258;-0.0070682596;-0.059588995;0.1392209;-0.011785987;0.008546234;0.05421956;-0.026168017;0.016447952;-0.1549635;-0.108696505;-0.0006739046;-0.033425357;0.10801796;0.047945846;0.11022195;0.06175986;-0.15700868;-0.056568567;0.114669874;-0.07123814;-0.02402318;-0.10278771;0.19260626;-0.033901487;-0.2943425;0.07570202;-0.027090251;-0.048796434;0.06306489;0.14410055;0.19417173;0.15154539;0.008306018;0.16823444;0.047100447;0.11999092;-0.25829306;-0.11249337;-0.043025006;0.013091719;-0.010612353;0.10077894;0.2606607;-0.17929369;0.07456128;-0.008009704;0.15985708;-0.07820792;-0.25199896;0.05027669;0.06922649;-0.07981606;0.12286564;-0.058172937;-0.12494903;0.06877704;-0.17624673;-0.020340417;0.030841468;-0.025975524;-0.09524033;0.22834347;0.12658389;-0.0819328;-0.10911599;-0.07367344;-0.042119138;-0.034678068;-0.041114427;0.10859678;0.04659088;0.030267332;-0.24017797;0.19180465;0.051195085;0.24634403;0.023756627;-0.0443201;-0.044756092;-0.009351392;0.12753403;-0.0068613393;-0.120687194;-0.06877725;0.16874108;-0.20387647;-0.04643638;0.07715777;-0.026247779;0.028744165;-0.13900901;0.05889645;0.05196062;0.004097444;0.02137363;-0.059689127;-0.092888884;0.03364797;0.019177428;0.04440051;0.14966635;-0.1696265;-0.111431904;0.07929934;0.09478706;-0.11976364;-0.444097;-0.061714824;0.02048457;-0.18524565;0.042438924;0.14192678;-0.10950364;0.12808293;0.061116874;0.09284652;0.0618492;-0.008440125;0.0014721799;0.104515314;0.026209708;0.12891676;0.12669764;0.10827355;0.1217651;-0.01730821;-0.2343821;-0.024689836;-0.006017893;-0.12820858;-0.11971039;0.090661936;0.09154194;0.033549037;-0.27204263;0.12826104;0.042152476;0.036135223;-0.072633974;0.12942398;-0.056365453;-0.0015823497;-0.082662985;0.08535755;-0.017369935;-0.07276189;0.038507633;0.013636186;-0.08879381;-0.08442488;-0.08032006;0.04277366;-0.10632436;-0.10208819;0.041239675;-0.07553832;0.07098209;0.079106055;-0.010168981;-0.21411948;0.02893007;-0.14517757;-0.05986821;0.23027572;0.049864788;0.118623614;-0.3026659;0.16880855;-0.13427056;0.039350033;0.028696094;0.02684751;-0.20153333;0.015041799;-0.17177582;0.10179791;-0.004480402;-0.059590176;0.066969335;-0.0535958;-0.014900462;0.11797751;-0.024063842;-0.009091728;0.1718631;-0.1886189;-0.0306078;0.06654883;0.122735634;-0.061698332;-0.037101395;0.06993008;0.14523378;-0.009007931;-0.0426625;0.000396309;-0.022135945;0.065119214;-0.024093475;-0.0619233;-0.2810848;0.13344665;0.038037557;-0.11492314;-0.004297212;0.0040861513;0.0956721;-0.13315795;0.022009583;-0.10150943;0.0077587673;0.057673305;-0.033675335;0.09192848;0.120669104;-0.04391285;-0.05705274;0.020312563;0.04388076;0.06486397;-0.01570894;-0.12053614;-0.23785032;0.035515323;0.06498136;0.030004298;-0.13652381;-0.07800031;0.060209177;0.035895947;-0.21351045;0.12413421;-0.016928213;0.1367856;0.05375565;-0.038691018;-0.08967729;0.1230463;-0.17428547;0.053761095;0.031030908;0.0056346324;-0.04411696;0.1863463;0.18588638;-0.043753233;0.082001634;-0.162047;0.016181434;-0.069909565;0.082044;0.12914819;0.0077694757;-0.057790965;0.045321316;0.054229427;-0.03378328;0.09786723;0.116479106;0.03290079;-0.028907482;-0.07424291;0.058730237;0.113575965;0.1531533;0.07689578;-0.17726803;0.14856982;-0.07446027;-0.13460068;0.014631187;-0.25399387;0.03213088;-0.006917777;-0.013307469;-0.0024471683;-0.13519184;0.14870946;0.033836015;0.07580405;0.122973405;0.095032595;0.06431427;0.13906384;-0.1117035;-0.022317303;-0.23193474;-0.06855087;-0.2654448;0.04526086;0.0935626;0.006736282;0.055047523;-0.033518318;0.023356786;-0.13215415;-0.29605585;-0.019973136;-0.03363082;-0.11164289;0.18707682;-0.21288745;0.05715391;0.06687383;0.23657395;-0.0968983;-0.10377085;0.008892046;-0.1178683;0.15329234;-0.048234463;-0.018507876;0.31527883;0.01631195;-0.16576545;0.024275023;-0.031985175;0.0662312;-0.091945045;0.10234481;0.007948404;-0.124625266;-0.21183021;0.07832532;-0.23300277;0.06964488;0.08839323;0.095371485;-0.08527757;0.017271884;0.20661587;0.29136944;-0.101810254;0.1624866;-0.10247868;0.094063744;-0.12584169;0.09219371;-0.030798236;0.054163422;-0.020016534;-0.15289529;-0.14516714;0.095009565;0.21022254;-0.26550975;0.0439818;0.019589962;0.21874505;0.021690942;0.031451233;0.067528516;-0.15432301;0.016388588;-0.1269159;-0.0014393622;-0.13359895;-0.08703298;0.025488809;-0.0095431395;-0.23156694;-0.11618882;0.17649868;0.2865456;-0.0013465363;0.018448379;0.030843621;-0.021472234;0.07204688;0.042463385;0.1320426;-0.013810593;0.12776911;-0.055215105;-0.09694979;0.06713333;-0.010163277;-0.19945972;-0.23494947;0.23819391;0.076374084;0.07565824;0.025585115;-0.21558094;-0.28193128;0.11066532;-0.13185571;0.18889093;0.0040720454;0.097024396;-2.1134452e-05;0.017025715;0.012537271;-0.15012802;0.02358089;0.005616627;-0.061996423;-0.00673666;-0.072461516;0.13227494;-0.004752716;0.11359776;0.12106756;0.13317898;0.09641926;-0.14518796;-0.1479967;-0.14269054;0.0145693235;0.040103246;-0.08475324;0.055092003;-0.013608134;-0.09275756;0.021330316;0.032096796;-0.13329528;0.069808766;-0.007825286;0.109398454;0.06428269;0.076367;0.21749717;-0.07223546;0.033163436;0.005681979;-0.15510966;-0.045447752;0.14712623;0.2485161;-0.008020988;-0.06436844;0.035956368;0.18509921;-0.03863698;-0.15342936;-0.10547329;0.045683082;0.15474054;-0.02052713;0.06450922;-0.094276145;0.061104268;-0.029436715;-0.056192268;0.024868416;0.016363475;-0.011102757;-0.034108907;0.041339807;0.058940794;0.12731081;-0.12142975;-0.07918163;0.03657983;-0.058978856;0.049520556;-0.03975467;-0.038215622;-0.08986155;-0.02374634;0.07191802;0.02277234;0.040232487;0.066573344;0.1021704;0.0025408242;-0.07109782;-0.0027988113;0.11314631;0.008371641;0.20588021;-0.12579502;-0.09026205;-0.048077386;0.029416118;-0.18522584;-0.021805396;-0.11669324;0.043625094;-0.05159689;0.11550937;-0.14829238;0.13509098;0.017500335;-0.017751142;0.23360087;-0.15696815;0.023470676;0.08634318;-0.0849668;-0.12026531;0.16923626;0.07683563;-0.2486063;-0.043871265;-0.028401067;0.155439;0.13750789;0.08632115;-0.02584387;-0.04457022;0.10014294;-0.13206312;-0.13670024;-0.060329244;0.013936189;-0.15791404;-0.09939326;-0.040016513;-0.14489856;0.06669872;-0.03397081;0.1146512;-0.14687142;-0.2870957;0.20226015;-0.010366027;-0.07131285;0.056147505;0.058295976;0.0892885;0.11684489;-0.04351282;-0.0902063;-0.03223287;-0.15746656;0.14756303;0.07422188;0.17183255;-0.25068098;0.063027166;0.20148116;-0.1917494;0.25381193;0.17877309;0.16098325;0.041445173;0.0036948007;-0.15132718;-0.2033648;0.09180373;-0.029404655;0.24288727;-0.07084042;-0.035381507;-0.18544582;-0.11745845
0.1537831;0.048758492;-0.10376985;0.27495837;0.0023092546;0.17865442;0.016773937;-0.0317967;0.06661687;-0.02231122;0.036690734;-0.036447957;0.04991979;0.24017836;0.037223276;-0.050933506;0.1786299;-0.003067611;0.121427774;-0.09503517;-0.076874025;0.25360656;-0.068673044;-0.14733616;-0.13339207;0.029336123;-0.07043041;0.005489536;0.060169917;0.13967407;0.19204867;0.083334476;0.064763196;0.054267984;0.08160974;-0.07154299;-0.05491539;-0.21377139;-0.074747175;0.022033902;0.25810412;0.035664637;0.10761555;-0.06929662;0.011546081;0.017734643;-0.045823965;0.008231905;0.15434569;-0.093519665;0.07158675;0.086384475;-0.1965134;0.07492057;-0.020843685;-0.065791145;-0.001146245;0.057462137;0.018078217;0.0856397;-0.068349645;0.23327923;0.107890636;0.053025864;-0.12391006;-0.079672955;-0.06878228;0.056251023;-0.08693582;0.129367;0.090412825;-0.21428886;0.16537276;0.05717179;0.1994575;-0.028972011;-0.22723389;-0.0032848048;0.10098345;0.054109138;0.09546882;-0.053595964;-0.16522188;0.12418395;-0.18006799;-0.011296759;0.08568371;-0.18257882;-0.14216371;0.2265857;0.06889294;-0.13508368;-0.075439535;-0.12730065;0.044693813;-0.037104663;-0.047086746;-0.027015718;0.08505317;-0.07876232;-0.13948482;0.15054591;0.0062697222;0.17036705;0.093618624;-0.029308224;-0.013923087;-0.040036265;0.22473879;-0.12266914;-0.09865449;-0.15295336;0.15185902;-0.29662526;-0.033536337;0.11838259;-0.014953369;0.045963593;-0.14252323;0.037976664;0.03651517;-0.07654756;-0.014440202;-0.06561937;-0.034432054;0.026898038;0.027138714;-0.014893742;0.06831385;-0.10122846;-0.024746252;0.040337656;0.07614453;0.06538496;-0.3417472;-0.06843269;0.059425663;-0.22204837;-0.030266799;0.08647692;0.023516957;0.05401584;0.059216317;0.07175064;0.056231763;-0.08870352;-0.12204813;0.2383736;0.022417204;0.11712109;0.14397319;-0.03892738;0.12377024;-0.08364483;-0.0687016;-0.08479126;0.06360233;-0.19447051;-0.024690554;0.05886259;0.097305335;-0.026134226;-0.13085899;0.1136036;-0.0034402052;0.13829777;-0.054569803;0.07573932;-0.036997795;-0.033905074;-0.021138428;0.0057079056;-0.185084;-0.036363304;0.19622457;-0.08217556;-0.18698516;-0.19709636;-0.019969964;0.015231156;-0.13426474;-0.07988879;-0.015031666;-0.03663412;0.10266226;0.055071894;-0.02387353;-0.2945166;0.028560553;-0.14003439;-0.0120747695;0.19454049;-0.05477453;-0.017872319;-0.23157726;0.105915;-0.18237188;-0.06781544;-0.013500359;0.07547135;-0.24851285;0.08674618;-0.2240401;0.13233925;0.043460313;0.02459721;0.11538315;-0.20513411;-0.063908;0.2545721;-0.045750994;-0.051868446;0.14720573;-0.18090077;0.01471857;-0.040980298;0.13723476;0.027928103;-0.109356485;-0.0019258973;0.20126651;-0.08761873;-0.07847818;-0.08692488;0.015682703;0.08084168;0.0042237868;-0.014366985;-0.22210549;0.056852784;0.057340637;-0.11598555;-0.024621716;-0.08237742;0.08068439;0.01892905;-0.02434576;0.024865871;0.04350359;-0.05336226;-0.13752945;0.068465985;0.09162709;0.049368657;-0.1344957;-0.14846645;-0.007298567;0.12996772;-0.020939695;-0.026348306;-0.17414917;0.16813101;0.11122055;0.029749922;-0.17458333;0.022713298;-0.01661794;-0.023612762;-0.1905791;0.02985395;0.054305624;0.01777809;0.014163622;-0.018677449;-0.10207567;0.061706603;-0.14233181;0.03055752;-0.05923245;-0.014617205;0.020718621;0.19491716;0.15302254;0.0029318475;-0.040338226;-0.083393686;-0.024417326;0.070228346;-0.023852916;0.16041766;0.10576382;-0.10030454;-0.006271027;0.113312125;0.041736346;0.023610534;0.08974982;0.09423116;0.019303178;-0.003162788;-0.04302387;0.12528145;0.15001562;0.19733824;-0.0938933;-0.019250091;-0.07411862;0.051981974;0.054303013;-0.22919023;-0.04991509;0.1006011;-0.09749572;-0.08845041;-0.119117364;0.0009931602;0.08642305;0.068017885;0.18253271;0.16328417;0.08362056;0.106577024;-0.044064905;-0.015731467;-0.12770864;-0.07206684;-0.15077691;-0.035172913;0.005024662;0.037865166;0.0638035;0.01736869;0.08284623;-0.008171892;-0.15450926;0.059313156;-0.10334183;-0.050017104;0.0710229;-0.16388668;0.10268499;-0.040077854;0.11927358;-0.031199496;-0.058920905;0.042154707;-0.21525282;0.098837115;0.047350626;-0.056314662;0.2897935;-0.121059194;-0.17733909;0.14054914;0.0036731786;0.08270841;0.012462957;0.029867064;0.03466092;-0.128624;-0.1362904;0.03813845;-0.15347824;0.08659157;0.0442339;-0.022781402;-0.054829888;0.001716513;0.14290395;0.27505824;-0.03536149;0.0045460006;-0.10196642;-0.031078596;-0.1417361;0.06381265;-0.08255383;-0.06715476;-0.11242216;-0.18347394;-0.14264408;0.07876469;0.17624995;-0.21428248;-0.047271572;-0.12868947;0.15968302;-0.006151655;0.0034463096;0.013529853;0.01760824;-0.020299243;-0.12516864;-0.037795037;-0.051202204;-0.09921207;-0.10527606;-0.12408925;-0.11362584;-0.009743411;0.060762096;0.16641569;-0.0059703067;-0.09322803;0.03228302;-0.03787021;0.068204165;-0.030806618;0.047629226;-0.038320445;-0.018813672;0.050477643;-0.06078261;0.018024791;-0.01561274;-0.08389342;-0.09042372;0.08072286;0.07120057;0.110073715;-0.11097878;-0.21192731;-0.17762898;0.011527136;-0.1280793;0.07903404;-0.014297401;0.1087883;0.12821122;0.052446533;-0.0667743;-0.025423385;0.14917272;0.009842545;-0.0151833445;0.0011773292;0.095214546;0.124479294;0.054132797;0.07717396;0.12374563;0.04135647;0.045627113;-0.16573323;-0.042861737;-0.0057020085;0.008083816;0.15577206;-0.14745824;0.013914289;-0.010644198;-0.08972339;-0.071049415;0.0607904;0.06350487;0.014788695;0.027062675;0.108313076;0.15119834;0.15872814;0.09782455;-0.113758154;0.09576464;-0.051323943;-0.2057816;0.041755423;0.21433534;0.18907925;-0.011121772;0.06698922;0.0130641395;0.17531514;-0.06970116;-0.059240885;0.01525407;0.18259531;0.07381437;0.0232366;-0.017610528;-0.17174152;0.097858556;-0.11191203;0.01775339;0.07248066;-0.07693462;0.063311696;-0.10077126;-0.006708887;0.07191651;0.12370077;0.0032089702;0.012757034;0.07347544;-0.075777635;0.0038261896;0.05971482;0.011019326;0.020040704;0.01560179;0.21957591;0.031553134;0.05256761;-0.015653709;-0.02723678;-0.057711072;-0.021290071;-0.11894685;0.106917195;0.053913258;0.093276925;-0.16783635;-0.06803195;-0.1012472;0.024036467;-0.19319147;0.04076093;-0.06299654;0.007178438;0.04470271;0.08977506;-0.022290435;0.20429903;-0.055244755;-0.09719051;0.2533117;-0.21539989;-0.014463339;0.0715243;-0.042565443;0.001909075;0.14895335;-0.06085923;-0.22423115;-0.043993924;0.07049875;0.16992325;0.08888983;0.08579782;0.04592581;0.033807535;0.1198371;-0.15993053;-0.06658909;-0.15031151;-0.04906521;-0.03154043;0.046531837;-0.090148084;-0.024717357;-0.00023141244;0.0563194;0.09441537;-0.20737645;-0.15782742;0.043533728;-0.108653516;-0.19488992;-0.013940221;0.027411183;0.05239362;0.04512128;-0.0066724904;-0.293465;0.046492107;0.0400814;0.18019159;0.0021729046;0.024045048;-0.17522092;0.02092552;0.20929912;-0.1579963;0.1562414;0.1109944;0.15386333;0.14907204;0.15803045;0.046744365;-0.14907527;0.113751866;0.0633217;0.30020243;-0.06468267;0.029225532;-0.06418018;-0.10633564
0.07811802;0.009898612;-0.1580162;0.32722968;-0.0032058468;0.14075306;-0.16103268;0.039553277;-0.050602637;-0.15407173;0.028281152;0.0011571782;0.06716555;0.152169;0.028657978;-0.077569954;-0.016153032;0.026949978;-0.020725034;-0.16967453;0.022168571;0.16403294;0.022723304;-0.13984558;0.0034495066;-0.0406985;-0.14294592;-0.039398786;0.06127922;0.13463524;0.101445384;0.08669354;-0.015374249;0.09163778;0.035728518;-0.10588434;-0.11553694;-0.20575745;0.020622902;-0.016619358;0.11115509;-0.00086712075;0.22122756;0.11625477;-0.051310208;0.039873797;-0.07027627;0.031204397;0.1785662;-0.0632901;0.21698155;0.06965663;-0.20778619;-0.060195044;0.0074172593;0.108504385;-0.10624546;0.17187554;0.06731957;0.22281088;-0.009582924;0.14142255;0.033568047;0.05840742;-0.1601863;-0.13972491;-0.0877184;0.15674207;-0.077704936;0.14872721;0.15421095;-0.12814634;0.1587047;0.10221899;0.07920014;0.03951276;-0.13106316;-0.02866685;0.1269535;-0.026895454;-0.04422443;-0.07355999;-0.0470793;0.14027068;-0.16657755;0.06721721;0.07389185;-0.021278925;-0.035579756;0.11456623;0.12387894;0.012565265;-0.040973905;-0.14279003;-0.07516837;0.062842615;-0.057885237;0.06455841;0.05829687;0.0016297115;-0.10474626;0.066261;0.15519619;0.083917156;-0.0717448;0.050606903;-0.032003902;-0.08865769;0.18342231;-0.02396985;0.02065922;-0.15012299;0.027370397;-0.08624212;-0.11287958;0.0574395;-0.011102335;0.056861367;-0.09573363;0.0050383275;0.041426904;0.00080687273;-0.03130311;-0.014959054;-0.024352076;-0.013219431;0.051643062;-0.056841176;0.08042499;0.072316706;-0.06635991;-0.07057985;0.051156875;-0.027080232;-0.4466434;0.0033178332;-0.019118126;-0.10447386;-0.05346176;0.17738354;-0.05515916;0.0863205;0.052051786;0.15203325;0.011848032;-0.058402374;-0.057735957;0.06933681;-0.015939187;0.07012416;0.15965627;0.057183903;0.05418747;0.027781745;-0.011209995;-0.05348352;0.07365385;-0.284359;-0.010475183;0.08223641;0.12315845;0.03201032;-0.21453765;0.13574725;0.030181717;-0.026763724;-0.27181146;0.026927928;-0.052831586;0.109199196;-0.09043142;0.033740804;-0.16807915;-0.00036484894;0.14241776;0.008904052;0.022507727;-0.196674;-0.067752644;0.026087336;-0.099127404;-0.15739782;0.06932078;-0.012729202;0.24923694;0.1411796;-0.019222992;-0.2212039;-0.0304462;-0.14628612;-0.024966795;0.28296003;0.06288238;0.09270782;-0.32868296;0.04195478;-0.19573532;0.04329061;-0.04351952;0.15979303;-0.16740425;0.10862607;-0.14191088;0.13952059;0.029828835;0.04357655;0.036513317;-0.10517597;0.027880123;0.21891508;-0.094455145;-0.14097159;0.12377429;-0.2258366;0.006995813;0.11791477;-0.0045815553;-0.053211782;0.009435787;-0.046377953;0.13740732;0.04701577;-0.028898245;-0.034837738;0.029226808;0.11404102;-0.11717481;-0.06344932;-0.16981418;-0.04310581;0.0682463;-0.10180127;0.018302497;0.018867578;0.08164614;-0.12325554;-0.11264984;-0.12519635;-0.009925357;-0.0883034;-0.06519096;0.08160822;0.09331575;-0.043780997;-0.083739206;-0.1803409;0.024684379;0.083343774;0.0053571532;-0.15701374;-0.119174935;0.18227011;-0.004623549;0.049679518;-0.14628866;-0.061257992;0.07115351;0.093180194;-0.14453033;0.00035251054;0.0047275773;0.16558287;-0.053474493;0.00574451;-0.0017032353;0.12212726;-0.06024878;0.04720834;-0.01045581;0.112526245;-0.04353319;0.21354891;0.026188198;0.02265389;-0.10015001;-0.0183852;0.09589056;-0.03997047;0.08219899;0.0681778;-0.076681115;-0.13017017;0.0151292775;-0.00068617344;0.03300394;0.113775514;0.04396995;0.061123412;-0.011552637;-0.12255123;0.061918993;0.07764699;0.22013254;0.10594854;-0.052531935;0.024398882;-0.02906645;-0.05735297;-0.08375648;-0.06331473;0.058613066;-0.03477279;0.052995067;-0.18483496;-0.083887525;0.033191584;0.14898704;0.12156644;0.18486798;0.1932727;0.06761696;0.01238676;-0.044567477;-0.030159555;-0.19617489;-0.10954374;-0.11884279;0.051889498;0.01107562;-0.04225755;0.021450786;0.0070822784;0.07766805;-0.14784859;-0.28721094;0.11239093;-0.11834211;-0.07620825;0.22393489;-0.0683975;0.010443981;-0.11848739;0.10616872;0.0128714675;0.051433176;0.03594471;-0.23402117;0.103654064;0.0027445306;-0.028877072;0.3575009;-0.03798079;-0.11512255;-0.0023551325;-0.037689935;-0.026411496;0.0015429099;-0.032258824;-0.049204383;-0.16864571;-0.17661855;0.029161459;-0.10971326;0.06319015;0.10216414;0.016160844;-0.10837059;-0.023090592;0.24762017;0.19808389;-0.08209051;0.07026321;-0.100183174;0.05702955;-0.09563161;0.07598275;-0.12889373;0.06974576;-0.03241306;-0.14645185;-0.13630018;0.05790989;0.21800084;-0.15652679;0.072626404;-0.018663535;0.08862825;-0.047279436;0.05994079;0.06530911;-0.055489782;-0.059364844;-0.03865129;-0.008227963;-0.043003406;-0.026609339;-0.07475857;0.04131565;-0.16650447;-0.07624359;0.120677374;0.17725903;0.110595874;-0.101567425;0.08265422;0.08345491;0.08753574;0.05066682;0.0132616935;-0.012241369;0.019283853;-0.03383837;0.067835264;0.06904605;0.027136274;-0.24273954;-0.16825368;0.21986541;-0.019552689;-0.00260769;-0.023804266;-0.27951086;-0.17215669;0.14366384;-0.028233737;0.023808591;0.078945704;0.085478775;0.17580321;0.039586663;0.0037270968;0.011493186;0.035759836;-0.035735898;-0.11599663;0.17550781;-0.057329178;0.1343931;0.1277148;0.15105186;0.1002258;0.046671916;0.09841655;-0.05946734;0.056308202;-0.032701388;-0.005728617;0.18203105;-0.18772072;-0.042253397;-0.07388811;-0.018380133;0.044448227;-0.0034776991;-0.1007932;0.11992536;0.11328525;0.045238018;0.18805318;0.077473566;0.19639084;-0.14864637;0.06680834;-0.027857054;-0.13971269;0.100350454;0.17580862;0.09384327;-0.057484724;0.06752955;-0.0317954;0.18011312;-0.03583299;-0.16446915;-0.01651212;0.122782506;0.10720589;0.045810584;0.023182811;-0.1324983;0.17298928;-0.054467045;0.013750631;-0.03655632;-0.021783005;0.11931745;-0.019954955;0.016976709;-0.013147374;0.11134077;-0.13437249;-0.0675942;-0.060359992;0.037181;-0.10880354;-0.010751003;-0.068174414;-0.038307376;-0.15015483;0.05112358;0.20686743;-0.060340494;0.030108474;0.022595596;-0.020360462;-0.041612186;-0.14697108;0.008427968;0.120596014;0.07377183;-0.111180775;-0.1452513;0.025519958;-0.011641319;-0.10857289;0.050348137;-0.056082416;0.14782849;0.053908743;0.062705524;-0.050019227;0.21121019;0.035746332;-0.08610047;0.26490268;-0.06668501;0.016546933;-0.048421424;-0.025022386;-0.13026708;-0.033317987;0.09415315;-0.3151604;-0.123326786;-0.015833644;-0.0025162809;0.071394056;0.030285029;-0.026265467;-0.0024736626;0.09722036;-0.11454542;-0.07225795;-0.055624317;-0.117846444;-0.11788707;0.0057933414;-0.08398923;-0.24817361;-0.08627572;0.06996732;0.096688405;-0.22020239;-0.2870254;0.2067681;-0.05171066;-0.10425365;0.09590314;0.14072324;0.083299026;0.08817596;-0.015103941;-0.19911608;-0.057474088;0.025108662;0.097131915;0.096307755;-0.061951153;-0.31179434;-0.04845897;0.14183044;-0.046427507;0.15737268;0.1710351;0.030447003;0.0725353;0.0015998287;-0.02835864;-0.23418733;0.0008456289;-0.030811654;0.18225673;0.03565088;-0.041296244;-0.018715305;-0.041389666
0.14666979;0.12528162;-0.17949872;0.206559;-0.07159044;0.2510979;-0.032937862;-0.07255258;-0.14077984;-0.22381553;0.070060454;-0.013012877;0.19801809;0.04371874;0.0048984755;-0.055093527;0.050822716;0.03690005;0.13787776;-0.06608129;-0.09873517;0.23208155;-0.050557517;-0.035408422;-0.018181855;-0.0884651;-0.10619665;-0.0046599586;0.08393682;0.005116787;0.16525799;0.011681603;0.11727607;0.08028502;0.03778292;0.01885392;-0.009995712;-0.24393152;-0.0023489415;0.02512565;0.2165039;0.042279895;0.071422905;0.015759908;-0.19792534;-0.06511939;-0.016642231;0.05089651;0.11183747;-0.010279197;0.04972828;0.13267627;-0.16148627;-0.042343672;0.05901953;-0.07895133;0.02958189;0.0764439;0.16884242;0.15275349;-0.05895155;0.18747;-0.0090499595;-0.025262715;-0.2475697;-0.055459864;-0.048866104;0.05690695;-0.087428585;0.021191731;0.059618797;-0.059543345;0.1186956;-0.023438348;0.069512196;0.030530639;-0.21109296;-0.18454595;-0.008175929;0.10587;0.13743886;-0.13664186;-0.081910945;-0.0009012354;-0.06460123;0.026080243;0.21570282;-0.11307465;-0.14501904;0.23698318;0.09046022;-0.04613499;0.041647807;-0.04603139;-0.12602232;0.054237884;-0.05896428;0.033037018;0.0147482;-0.0017780612;-0.11111956;0.09760148;0.09717086;0.23124753;-0.05062056;0.012082393;0.0006645124;0.043215256;0.1745061;-0.037913408;-0.048724707;-0.12982722;0.09572269;-0.16491278;0.007447927;0.03730959;-0.12626219;0.0069588074;-0.11290782;0.026815021;0.00092039106;0.043482434;-0.08657495;-0.0037502465;-0.07850749;0.01359197;-0.01214387;0.03309664;-0.03170631;-0.035488565;-0.10868816;0.04733409;0.041872617;0.034983188;-0.3163229;0.035674807;-0.061366916;-0.20043914;-0.016555963;0.2218783;0.012982785;0.15521322;0.067037456;0.09444675;-0.06998062;-0.08251116;-0.050137658;0.041244153;0.025847392;0.028273286;0.13278486;-0.04222871;-0.044916607;-0.012974028;-0.06584783;-0.17538548;0.10139945;-0.26437116;-0.17422307;0.2018314;0.1345479;-0.025876798;-0.097056285;0.06836011;-0.051304758;0.0060588163;-0.25711235;0.13344198;-0.09407355;0.031221446;-0.046985704;0.023585945;-0.06584512;-0.024000779;0.057165988;-0.075708486;-0.0031453439;-0.15626813;-0.11531805;0.07233832;-0.026147565;-0.15146513;0.09148342;-0.108529314;0.11848378;0.06845959;0.06017329;-0.12247784;-0.03482615;-0.12120668;-0.02380797;0.28894615;0.10789432;-0.012791005;-0.18902405;0.08188192;-0.19212472;0.03487705;-0.08697541;0.23517688;-0.21241538;0.101500146;-0.03306738;0.14601748;-0.049000613;0.076916516;-0.022211099;-0.07602896;0.014189325;0.23979102;0.028033387;-0.118927024;0.07463232;-0.17377812;0.06975964;0.06275795;0.1256121;-0.082753785;-0.14285292;0.06259927;0.084242314;0.022169143;-0.101184115;0.042894825;-0.02988011;0.123272136;-0.06537944;-0.044126227;-0.114892;0.005664957;-0.054816034;0.009141891;0.014267903;-0.016777089;0.1319007;-0.04831676;-0.14741293;-0.1243884;0.028831838;-0.015546839;-0.03591492;0.10327083;0.12858765;0.010049333;-0.093680836;-0.11556672;-0.013540048;0.124418214;0.04611364;-0.08785703;-0.21769634;0.21757376;0.15487275;-0.10658484;-0.26667178;-0.058331538;0.036183015;0.05610674;-0.07679297;0.05675641;-0.013795316;0.08180261;0.0739689;0.020975085;-0.1299566;0.21680321;-0.055295736;-0.021055201;0.0146184005;-0.049451128;-0.055574145;0.2341225;0.13557617;-0.08640146;-0.16213025;0.021037709;0.07343102;0.02542395;0.037220016;0.15485945;0.0651778;-0.0024819989;0.058247477;0.06595666;0.08632794;0.057633996;0.09087846;0.12368327;0.10816609;-0.06605457;0.046148602;0.03485909;0.15580168;0.20494288;0.050841305;0.0029806932;0.06677577;-0.027788833;0.04740451;-0.015765615;0.09148209;0.054166827;-0.04266697;-0.14244045;0.013955622;0.08787574;0.07384755;0.11137371;0.03815922;0.1177279;0.009876483;0.061936025;-0.08297978;-0.042854663;-0.12220157;-0.027798852;-0.14145932;-0.061421987;0.09672702;-0.04787422;0.11896054;0.13635424;0.22462952;-0.055908777;-0.10287365;0.02027573;-0.012985049;-0.075993404;0.116855815;-0.108680114;0.08411473;-0.12721804;0.16765898;-0.0035920946;-0.018741298;0.07865509;-0.12037862;0.15474603;0.093419425;-0.11034774;0.26358706;-0.0777861;-0.07639003;-0.023170125;0.019046457;0.07808266;-0.10924762;-0.047124717;0.0008320027;-0.12764546;-0.11467365;0.15844722;-0.09218558;0.019219032;0.11646192;-0.05637687;-0.042991534;0.049849417;0.18346967;0.2857502;0.05435821;0.05446382;-0.1377624;0.030988725;-0.092672385;0.05546509;-0.17793953;-0.010419373;-0.08004372;-0.12819414;-0.120962285;0.020456845;0.2113898;-0.22146882;-0.05841392;-0.10611255;0.2606096;0.018689405;-0.09067843;0.00031005754;0.043880977;0.049277354;-0.025819013;0.068169296;0.00866819;-0.13912235;-0.027061734;-0.008486254;-0.12606318;-0.007657349;0.17234443;0.18245612;-0.019636253;-0.08470986;-0.011036976;-0.00029353317;0.12446568;0.051139068;0.06323527;0.031123249;-0.03231566;-0.11820021;0.0059578684;0.007781274;-0.14219922;-0.10443908;-0.033494204;0.22654;-0.014979646;0.061057784;0.03980106;-0.29115355;-0.26305875;0.12290618;-0.1502382;0.020164669;0.042222377;0.00043938425;0.11733825;-0.08586362;-0.109283656;0.028679885;-0.026355695;0.106462896;-0.10627828;0.1557663;0.048159212;0.1014785;0.054699894;0.11962614;0.16234174;-0.058723114;0.112036854;-0.016440848;-0.02371107;-0.008133402;-0.027994566;0.06334049;-0.050994262;-0.030231806;-0.00058999116;-0.11118955;0.10605239;0.09346232;-0.023706412;0.008127769;0.06555723;0.23262182;0.09050486;0.103895426;0.08879788;-0.1969415;-0.015189372;-0.08310295;-0.25813234;-0.020077351;0.12649707;0.1343929;-0.043687504;0.042219535;0.067959495;0.1406732;-0.11316487;-0.15984985;-0.021358112;0.1223504;0.1314149;0.18939088;-0.023562215;-0.015335633;0.035508774;0.038926475;-0.065242596;0.048724946;-0.09280188;0.16985807;-0.07375742;0.054392897;-0.00038011858;0.10606014;-0.12178473;-0.028276986;0.02361779;0.07134674;-0.14558764;-0.015237957;0.02879319;-0.062892854;-0.11139715;0.13107356;0.20927776;-0.015312025;0.06735395;-0.08491446;-0.056512125;-0.09189957;-0.056062173;0.10839626;-0.06890099;0.09802427;-0.06863532;-0.047678586;-0.09338622;0.090914175;-0.19477515;-0.11437037;-0.1300375;-0.015371861;0.012541196;0.11927666;-0.06432786;0.2061985;-0.015564496;-0.17456692;0.24588962;-0.1685239;-0.017597474;-0.07304506;0.013994754;-0.08453282;-0.036095668;-0.04044296;-0.27046877;-0.056998745;-0.0279475;0.07004107;0.12118649;0.045792736;0.064979315;0.001652726;0.15286149;-0.09101274;-0.09135441;-0.11575763;-0.14595135;-0.05377083;0.084161624;-0.16570838;-0.1736183;0.0790916;0.0028187546;0.027821468;-0.13971126;-0.28774866;0.12915076;0.00054001284;-0.14696059;-0.052718468;0.11935789;0.17526509;0.06920846;0.0038156067;-0.22046375;-0.037979584;0.051370036;0.08516467;-0.01044643;0.0001980683;-0.20937449;0.037999757;0.1687589;-0.066968374;0.12664552;0.12521605;0.16986379;0.027403248;0.12545946;-0.03149421;-0.269942;0.03082147;-0.068393655;0.2740722;0.00050610583;-0.06702124;-0.13741133;-0.10825716
0.11442887;0.068372644;-0.16645947;0.1555095;0.0061327964;0.1507209;-0.057799533;0.06906171;-0.04040437;-0.06613998;-0.004137969;-0.038325876;0.16911508;0.05577547;0.018550077;0.10959045;-0.02218807;-0.006474379;-0.002151414;-0.09829943;-0.042365674;0.17751282;-0.1295327;-0.16326553;-0.086848125;-0.118257694;-0.039758693;0.07325749;-0.11460877;0.110210225;0.15077768;0.00328503;0.07980686;-0.05175474;0.06455689;-0.08326377;0.06503927;-0.23296346;-0.15342942;-0.034250423;0.20668575;0.13151745;0.2518654;-0.043180272;-0.15308115;-0.057201393;-0.03455606;-0.05433086;0.1505174;-0.081717595;0.14106292;0.077326834;-0.18719114;-0.12430871;0.092860416;0.028994793;0.018188115;0.1631289;0.07022731;0.2169721;0.05691124;0.07081872;-0.0002583482;0.0576043;-0.18228422;-0.10260983;0.021597857;0.12603433;-0.14352816;0.07382101;0.10134291;-0.13225953;0.11116018;0.068086006;0.116838545;-0.12488782;-0.1306766;-0.075255014;0.035603397;0.11116156;-0.081831805;0.0030000056;-0.10138868;0.065364406;-0.09681615;0.050924577;0.1300546;-0.082686454;-0.10522121;0.07768088;0.14065188;-0.14190933;0.049725063;-0.016432948;0.04098527;-0.0096266465;0.041841455;0.08611735;0.069175586;0.025604714;0.010512597;0.12479895;0.102243185;0.108676165;0.034727916;-0.0063451575;-0.06428838;0.043177955;0.2793712;-0.14855534;-0.12167122;-0.16616721;0.102157876;-0.049511325;0.030298742;-0.03529057;-0.015182735;0.08622055;-0.021038685;0.061303355;0.13767736;0.062769;-0.14355016;-0.03274733;-0.013641463;0.015044322;0.20520118;-0.0287826;0.12660104;0.10748086;0.09957084;0.021289852;0.10317894;0.10074904;-0.4102857;0.069713786;-0.014774069;-0.25023678;-0.0070129214;0.09846639;-0.11451511;0.13890497;-0.018961627;0.15367112;-0.19726107;-0.072758;-0.03625131;0.066042505;0.1512175;-0.016178142;0.1355461;0.1306669;-0.061848745;0.045803793;-0.050328683;-0.164123;0.05574462;-0.30851096;-0.061517134;0.266276;0.063753396;-0.033722594;-0.107178405;0.043235403;-0.043655124;0.07891056;-0.23295249;0.042811207;-0.07681515;0.05392535;-0.13934161;0.055851158;-0.0065616933;0.13301659;0.1419466;-0.08933383;-0.08551312;-0.05284606;-0.17861277;0.080034256;-0.2283041;-0.11679834;0.09544384;0.016143996;0.048778467;0.058640942;0.17902097;-0.08771888;-0.07043384;-0.12657024;-0.015278718;0.14533977;0.04470573;0.11576428;-0.3658947;0.048502225;-0.23750965;0.12291306;-0.12490954;0.2625055;-0.066912256;0.17277941;0.025074173;0.1949426;-0.02297804;0.023806289;0.08386814;-0.028015161;0.025154104;0.13435784;-0.0011522691;-0.1919487;0.15240744;-0.14596497;0.08486234;0.04570813;0.052058116;-0.02970823;-0.01669844;-0.046656076;0.19802788;0.043078274;-0.0807586;-0.030350046;0.22881101;-0.0019093129;-0.11303182;0.015830895;0.032899074;0.0031878494;0.114350945;0.048187274;-0.022925694;0.018606476;0.16502815;-0.003295176;-0.1126773;-0.01364849;-0.11639728;-0.15975568;-0.16060057;0.07771999;0.22662765;-0.027158456;-0.13213086;-0.19939362;-0.1329728;0.23619995;0.008652847;-0.19187663;-0.30229855;0.123783335;0.13308898;0.0011985961;-0.36707172;0.008160685;0.08212087;0.16381738;-0.16388568;0.15967734;-0.0369855;0.07495529;0.13097306;-0.06750376;-0.018831355;0.025033612;-0.04254157;-0.09544514;-0.06352706;-0.020141868;-0.05602925;0.2686699;0.16887501;0.06444848;-0.10810019;0.010408948;-0.013076909;-0.016110482;0.07300648;0.11297803;0.014400643;-0.05775368;0.036925778;0.12943634;-0.024106879;-0.05106214;0.112053595;0.040538788;-0.02075883;0.0122336205;-0.12843724;0.08580588;0.19967099;0.048191946;0.1138221;0.030077128;0.05904341;-0.024357654;-0.13778234;-0.07351783;0.032622337;-0.048037384;-0.028737752;-0.06146148;0.047522962;0.014116375;0.09890931;0.03641137;0.11570123;0.10875949;0.12029081;-0.035520222;-0.100995995;-0.040827762;-0.08496372;-0.0021228183;-0.25791112;-0.030124165;-0.0056723715;0.025409503;-0.036454644;0.10809468;0.20716445;-0.055738162;-0.14029561;0.046840757;-0.1258712;-0.05414598;0.13681431;-0.010513179;-0.043012206;-0.14271411;0.1701044;-0.037611816;0.17049843;0.19238424;-0.2514053;0.10125478;-0.024510033;-0.11562842;0.24042888;-0.15095651;-0.21606053;-0.04964245;-0.09269454;0.022838414;0.049501497;-0.19917;0.08032699;-0.10779795;-0.23897286;0.19059694;-0.0108933775;0.14748253;0.003194891;-0.07397515;-0.095212236;0.0026438439;0.07622149;0.25539953;0.023548162;0.027335515;-0.08734128;0.033055007;-0.073974825;-0.03875341;-0.09051811;0.024387063;0.08641406;-0.2486341;-0.059426624;-0.006272295;0.05253255;-0.06801956;0.048985846;-0.08334115;0.15640555;-0.023811515;0.120222226;-0.15387101;-0.14992742;-0.13349459;-0.08626044;-0.13236256;0.063376606;-0.08335819;-0.11198245;6.24041e-05;-0.27742133;-0.07720052;0.21773149;0.15397012;0.062103055;-0.10863215;-0.092324026;0.04659396;0.07359872;-0.10060586;0.040714268;0.03750038;-0.031193772;0.03384333;-0.05610498;-0.00048458576;-0.12761597;-0.15692177;-0.023685217;0.172041;0.1875434;0.06423914;0.031044617;-0.30436003;-0.19921073;0.12779798;-0.031735316;0.15978485;0.0064386493;0.06689066;-0.03400503;-0.07103028;-0.15658076;-0.15014267;-0.08665718;0.06261598;-0.29873;0.11186733;-0.045150876;0.07720554;0.06984745;0.15759574;-0.014456905;-0.0051957103;-0.01980559;-0.08873916;0.09717854;0.011686501;0.0558395;0.18527538;-0.15319176;0.059340537;-0.02077104;-0.0908806;0.06494007;0.013087379;0.052407973;0.14282575;0.0602086;0.1928039;0.12744288;0.11660127;0.18833838;-0.08066878;0.15467574;0.05142799;-0.12891771;-0.04603915;0.24048664;0.08752657;-0.012440967;0.1407524;0.16974369;0.1269944;-0.16220362;-0.028202228;-0.022497376;0.088719435;0.08363664;0.12869594;0.12284958;-0.041050382;0.13967079;0.027454728;-0.053466372;0.016670674;0.01992029;0.08912651;-0.02558676;-0.05250864;0.067479104;0.16855271;-0.06781814;0.03759587;-0.059654642;0.05080111;-0.13887109;0.09262313;-0.07583571;-0.001456309;-0.1536658;0.12600102;0.13339569;-0.07990588;0.11048189;-0.051213026;0.067520894;-0.053787403;-0.04714201;0.13047247;0.05529084;0.022911072;-0.12222807;-0.021639036;-0.08242779;0.15066834;-0.1485792;-0.14795913;-0.13144152;-0.0061801225;0.12213034;0.10147609;-0.039540943;0.16532648;-0.05459106;-0.08848825;0.25526196;-0.10219681;-0.022756126;-0.08178497;-0.12900262;-0.22970043;-0.020101013;-0.03099146;-0.376497;0.03965826;0.010052865;0.0057678306;0.19283809;0.1797187;0.02229836;0.1977012;0.1358915;-0.17825413;-0.028497137;-0.1055276;-0.15420385;-0.09888317;-0.005269841;-0.085615724;-0.18302807;-0.0015531757;-0.11636429;-0.0043684025;-0.058776483;-0.2742456;0.10849602;-0.050097417;-0.17534418;0.08428924;0.08114059;0.10403091;0.1344558;-0.027144294;-0.13608444;-0.032401487;0.103769;0.11868633;0.086189084;-0.08211237;-0.27672935;0.038036298;0.07581284;-0.13734761;0.061037406;0.11828715;0.13244276;0.0742939;0.12065722;0.10308461;-0.31368765;-0.014280736;0.0067757512;0.11434033;0.014831178;-0.07674268;-0.007424953;0.06519876
0.15217064;0.10517362;-0.10978241;0.20577776;-0.020111632;0.080261506;-0.13563097;-0.018141953;-0.107400075;-0.18689404;-0.10569213;-0.018527001;0.12449841;-0.04290606;0.08446342;0.057297606;0.016847434;-0.024658542;-0.008495718;-0.16629411;-0.042931054;-0.00377179;0.0013030915;-0.07086846;-0.014561804;-0.12441725;-0.08134996;-0.0029810956;-0.05661088;0.08939553;0.08469563;-0.06669662;0.14354382;-0.058456767;0.09549454;-0.11640035;-0.0068913377;-0.2938719;-0.0642076;0.009460916;0.13563961;0.17714626;0.21919845;0.010439588;-0.1956055;-0.089198746;-0.062292665;-0.16820145;0.1503075;-0.17728658;0.13797237;-0.0065070605;-0.22844853;-0.03636861;0.02687177;-0.010381896;0.06715813;0.14453962;0.023655254;0.16485924;0.07541578;0.10001681;-0.015159785;0.10789713;-0.14639477;0.0030848444;-0.13944599;0.031956602;-0.06654376;0.037915148;-0.0026427207;-0.10846298;0.059975546;0.07867757;0.048660178;0.014035899;-0.19503051;-0.13890535;-0.05256985;0.060924355;0.118352644;-0.06916666;-0.12519406;0.14875355;0.043822408;0.09282504;0.13267154;-0.16975811;-0.10138253;0.08073451;0.0928854;0.004718213;0.0037131105;-0.057912007;-0.032505825;0.13535354;-0.035242736;0.109479204;0.049938664;0.0713057;-0.036318127;0.11350336;0.04849277;0.18059167;0.05372019;-0.0850289;-0.036557525;0.021625292;0.17877725;-0.04655023;-0.055120368;-0.06834421;0.09514693;-0.17978212;-0.036299676;-0.012691332;0.02008967;0.04090435;-0.18813695;0.0147905415;0.025849368;0.054592825;-0.020833582;0.11292237;0.10249996;0.037081774;0.077092014;0.06880853;0.06090771;0.11561352;-0.012282277;0.009747078;0.088205956;0.031319432;-0.36396062;-0.02467724;-0.07976856;-0.10566594;-0.003681029;0.06122927;0.034336116;0.20450759;0.09309382;0.040842675;-0.12286096;-0.06563025;-0.19215174;0.104924195;0.0581306;-0.047170177;0.12895745;0.044714004;0.018620081;-0.060185052;0.067752704;-0.15297541;0.08828881;-0.098781645;-0.06861038;0.14577436;0.04902849;-0.073964365;-0.06614491;0.00085503294;0.06437274;0.087287925;-0.19805607;0.17835654;-0.024665054;-0.005830147;-0.09646998;-0.031680062;-0.051324185;0.0032683415;0.116616555;-0.03387248;-0.092218034;-0.12402338;-0.1325002;0.06816593;-0.07444002;-0.15543616;0.08080248;0.02758306;0.12489024;-0.045207676;0.21125066;-0.1014223;0.028849717;-0.14589965;-0.108241305;0.19411989;0.10247513;0.053901915;-0.2948296;0.03901023;-0.18001384;0.019931395;-0.05493406;0.18204163;-0.14143607;0.023209672;-0.11717734;0.15337346;-0.04232346;-0.00017737802;0.050550465;0.08487076;0.028445173;0.052343547;-0.10467977;-0.08807561;0.22388352;-0.18496287;0.09352894;-0.040657464;0.14005078;-0.09694578;-0.082532965;0.016156906;0.08763815;-0.032389753;-0.0522196;-0.097651385;0.20046699;0.09678977;0.007740005;0.08522968;0.014177486;0.08602295;0.1455148;-0.14766525;0.06025723;0.049850795;0.13238186;-0.023588052;-0.18135464;0.011096367;-0.007682769;-0.035993353;-0.08318968;0.09412;0.19025716;0.014554225;-0.14396954;-0.07541768;-0.039965834;0.19401023;-0.009892719;-0.11065081;-0.29305014;0.21478796;0.07926502;-0.025795966;-0.28175348;0.032349918;0.06410353;0.049132116;-0.11158006;0.1374549;-0.025688363;0.01894439;0.04576544;0.058125667;0.034262277;0.02011843;0.00994719;0.020415656;0.012523453;0.01579992;-0.07418126;0.16809975;0.13322416;-0.03793134;-0.17608018;-0.022162624;0.04036957;0.028810436;0.031008719;0.17268556;0.00598649;-0.046606075;0.08663894;-0.047959827;-0.0048152385;0.056581892;0.07812903;0.03529145;-0.034647785;-0.023659658;-0.12826493;0.036665887;0.25347003;0.062340524;0.048744723;0.046017297;-0.016958222;0.058034744;-0.121908516;0.05203013;0.11060501;-0.12986211;0.01890364;-0.079385966;0.054569133;0.032102283;0.14573021;0.03658224;0.09131004;0.10066541;0.092500195;0.039008964;-0.02476148;-0.10402213;-0.14485802;-0.1338268;-0.25680003;0.09684438;-0.003525488;0.042800453;0.11395637;0.13170362;0.16156976;-0.11792122;-0.07513368;0.01484125;-0.015083888;0.12861869;0.10098303;-0.08313827;-0.03592719;-0.057341326;0.15065797;0.023544973;0.12491191;0.1051533;-0.27450877;0.09234403;0.06965796;-0.13734642;0.28318876;-0.19609457;-0.20780888;0.07949561;-0.029114619;0.15036727;-0.020902537;-0.1438551;-0.07338643;-0.13129212;-0.08480037;0.11279872;0.13335873;0.14081119;0.14937863;-0.0038812438;-0.19212662;-0.037586;0.15698215;0.25224254;-0.04153773;0.013004853;-0.10073757;0.042875756;0.013533526;0.09499346;-0.098030485;-0.018692242;0.025479825;-0.16147874;-0.12144261;0.07285771;0.06569157;-0.22962864;-0.022690363;-0.090158395;0.20669143;0.01853806;-0.04923849;-0.09375477;-0.084749326;0.009567236;0.060925335;0.02754285;-0.032424908;-0.12212491;-0.021906469;-0.09607914;-0.1589485;-0.18081811;0.035199117;0.2232563;0.029974192;-0.005327199;-0.059213553;0.06746383;0.02858545;0.004014196;0.068271525;-0.054301694;0.01785084;-0.13328254;-0.026474595;0.06072163;-0.16249418;-0.24055144;-0.0051222676;0.20392159;0.011562459;0.09555682;0.026607037;-0.27369025;-0.20818923;-0.059345447;-0.022585751;0.13294344;0.077114835;0.057502314;0.0715313;-0.022405362;-0.0718903;-0.08187748;0.009004198;-0.066172116;-0.20373967;0.21771353;-0.093152456;0.015606857;0.033848274;0.09857138;0.07730769;0.09854736;1.2516484e-05;-0.09017128;0.07254678;0.016347064;-0.028250072;0.2066813;-0.09609276;0.057751782;-0.07902239;-0.10073887;0.048241206;0.10075788;-0.13687451;-0.007797952;0.07365491;0.11467095;0.0062125917;0.1905337;0.16893634;-0.16562547;0.060298417;-0.052340887;-0.14665331;-0.026326703;0.08202285;0.16102697;0.028134141;0.029523473;0.124139674;0.046101663;-0.24103722;-0.11722819;0.040550523;0.08438543;0.114486;-0.070419386;0.0037133;0.06617234;0.09848454;-0.04734422;0.017593129;0.017262759;0.07739565;0.050792005;0.045696788;-0.03675913;0.14880702;0.15266262;-0.12532994;-0.059109803;-0.047998358;-0.026865505;-0.01718549;0.032993615;0.0114429435;-0.060209054;-0.07274113;0.09020074;0.09996922;0.023041042;-0.024934791;-0.076204285;0.021609968;-0.10324;-0.07087481;0.12778556;-0.04923722;-0.05997088;-0.057116114;-0.0024717439;-0.060972832;0.1552339;-0.117243305;-0.23736161;-0.045917142;0.12231837;0.100135505;0.0620835;-0.023759725;0.08569658;0.049494553;-0.025395459;0.24773696;-0.11392091;-0.017514672;-0.03104277;-0.0428849;-0.058737803;-0.0072937123;-0.0028726235;-0.31089756;-0.08159257;0.021080565;0.107984565;0.052330296;-0.0023117913;0.06750477;0.18084535;0.031331774;-0.1842092;-0.115792945;-0.01633168;-0.17461692;-0.07262124;-0.020966865;-0.11754691;-0.19076146;-0.07866194;0.0051612654;0.035285387;-0.13575496;-0.30314833;0.14465554;0.09734056;-0.020605136;0.107165135;0.06201778;0.098368935;0.0020480226;-0.08136437;-0.17792386;-0.047834605;-0.08186772;0.10667474;0.07974665;-0.10763885;-0.29276916;-0.055381864;0.15831716;-0.17615859;0.12187064;0.13806856;0.1959937;-0.034459203;0.05508905;-0.019544482;-0.31963688;0.07171541;-0.04344494;0.21737076;-0.04969978;-0.092642814;-0.12107458;-0.0019353952
0.049911555;-0.001653892;-0.16943173;0.27133098;-0.042749964;0.15064451;-0.054862563;0.0402204;-0.05528726;-0.16609527;-0.027258553;-0.10008336;0.044253506;0.09665326;0.14664532;0.0381317;0.10012151;0.08043746;0.13715844;-0.14360604;-0.16964285;0.12180066;-0.08014034;-0.13297544;-0.09053809;-0.0039059508;-0.056657556;-0.029966589;0.088901475;0.070042334;0.09741764;-0.057404537;0.068828836;-0.092018455;0.14705421;-0.042756114;-0.112216786;-0.23213285;0.1019579;0.05718468;0.15213433;0.02548251;0.13409092;0.0136908665;-0.18670924;-0.07969556;-0.041862205;-0.15132593;0.10599068;-0.030801551;0.027412279;0.14684135;-0.20547408;0.021721954;0.007629304;-0.042716067;0.12901025;0.12186343;0.035297375;0.17169303;0.025564972;0.1315438;0.014602514;0.13442954;-0.22328205;0.063215315;-0.075117916;0.1389282;-0.021186024;0.08137529;0.017477833;-0.10065716;0.14863957;-0.08181441;0.05349284;-0.18339501;-0.17106192;-0.089939244;0.0034955891;-0.020974208;0.19447601;-0.024140852;-0.12567428;-0.0058675804;-0.026664123;0.056083437;0.10493571;-0.07302501;-0.09278102;0.06997111;0.09966292;-0.054053254;0.07668603;-0.040537994;-0.09960756;0.09242967;-0.022123724;0.12511058;0.07930636;-0.087178394;-0.1669419;0.0011070326;-0.01599289;0.12933865;-0.011875496;-0.14981043;0.050478447;0.02060556;0.11386187;-0.042771745;0.014132011;-0.11518681;0.038920753;-0.20026363;-0.009546994;-0.02188526;0.06687438;0.12009848;-0.23176545;0.035266735;-0.05084943;0.05307952;-0.011163685;0.028224755;0.018528402;0.050511938;0.033779003;0.09527577;0.034104526;-0.02287568;-0.060594227;-0.014873984;0.03579886;0.027963415;-0.3917204;0.06812736;0.0036755535;-0.25705355;0.055793162;0.15655221;0.12635326;0.22899842;0.03440763;0.2096338;-0.1735776;-0.029705627;-0.17001401;0.1768762;0.028181018;-0.016389666;-0.00087782764;0.054928735;-0.14962474;-0.03421905;0.040857825;-0.117330246;0.067074046;-0.17218995;-0.235122;0.23587862;0.14646459;-0.12832084;-0.094414674;0.1333379;0.03062704;0.09777319;-0.06777745;0.19257851;-0.032954406;0.070833065;-0.17002141;0.10415274;-0.16434477;0.10294723;0.11765785;-0.115209825;-0.12124668;-0.111924686;0.025929714;0.07852247;-0.09990816;-0.114960976;0.043854177;-0.055873133;0.24388064;0.02682255;0.13491502;-0.10964844;-0.07851207;-0.20212077;-0.13941604;0.13429235;0.20056078;-0.047844723;-0.16747284;0.021306204;-0.244723;0.026275141;0.030036397;0.15966503;-0.09858792;0.09352366;-0.1507661;0.14217661;0.09319435;0.052930456;-0.04887059;-0.06437181;-0.005846594;0.064679176;-0.094401084;0.024663998;0.19808903;-0.21291073;0.10062052;-0.120357975;0.05831691;0.022223976;-0.2122402;-0.055331383;0.086995736;-0.06688464;-0.11429362;0.08610624;0.14635736;0.10180574;-0.11651701;0.009427174;-0.07328255;0.07749158;-0.053215623;-0.0945405;0.050591853;-0.04262565;0.10910074;-0.033282094;0.048121773;-0.09240324;0.018563302;-0.028184637;0.008015848;0.16393688;0.046780728;0.00805673;0.09126416;-0.07580657;-0.028783388;0.088814296;-0.04443379;-0.03828361;-0.25908682;0.21161525;0.12347808;-0.112093285;-0.13931747;0.17387535;0.008228475;0.10290903;-0.08722086;0.16164088;0.08648642;0.07442646;0.13529257;-0.121292375;-0.053076144;0.043263078;-0.04355379;0.06488681;-0.06727169;-0.09539458;-0.0018759947;0.21294984;-0.018241573;-0.11951639;-0.049433477;-0.08210984;-0.005688642;0.0133124245;0.028999044;0.10229464;0.08610939;-0.08340234;-0.08646506;0.025718227;0.08326261;-0.045332722;-0.0029660552;0.14538202;0.08060824;-0.049791727;-0.09533774;0.108302884;0.31804675;0.07030829;-0.096326396;0.026781097;0.0144436695;0.07670265;-0.057392772;0.011596829;0.06862033;0.050941247;0.075409465;-0.18800677;0.095642336;0.13076214;-0.0154177295;-0.039287817;0.098784514;0.10967181;0.08232301;0.050368074;-0.05843066;0.023175055;-0.19768406;-0.1264027;-0.3250617;-0.011061099;0.12406489;-0.17118113;0.052119665;0.11251528;0.22527139;-0.18304218;-0.15180781;-0.07237013;0.071818866;0.016753595;0.0637351;-0.091744296;0.043740604;0.029108418;0.15176661;0.102863304;0.01563876;0.0047913785;-0.31888676;0.23142815;0.14746533;-0.08951052;0.15969554;-0.050357785;-0.069466576;0.107169926;0.006983064;0.13917339;-0.021542758;0.027901959;0.0281347;-0.025126494;-0.04050458;0.15828241;0.13381916;0.045225408;-0.028693069;0.01842708;-0.22228645;0.1369819;0.08221831;0.23201162;-0.028276034;0.11822044;-0.19238454;0.04148238;-0.10818007;0.13518357;-0.10276042;0.09960292;0.068483025;-0.18363999;-0.16893606;0.06542597;0.13115963;-0.17825516;-0.0021348349;-0.10866615;0.26557985;0.08635769;0.07868198;-0.049569823;-0.009564815;-0.0131271975;-0.043863736;0.12483343;0.08098502;-0.13464011;0.1847338;-0.08509832;-0.16405767;-0.044553395;0.12610182;0.22918676;0.07917373;-0.17281151;-0.04964284;0.1163216;0.09644949;-0.020260982;-0.07561709;-0.02689034;-0.038104296;-0.1517318;-0.10579723;-0.0018879459;-0.21196476;-0.19834486;-0.05469781;0.19281909;-0.01588981;0.13021454;0.10371486;-0.23888896;-0.27468026;-0.041962955;-0.042404346;0.13210694;0.16597962;0.008322217;0.12666097;0.024599304;0.03351387;-0.083306335;0.039428238;0.016130699;-0.06692537;0.22466351;-0.12136305;0.058516867;-0.016102867;0.09466841;0.21368557;0.11729663;0.0039143404;-0.05248713;-0.052090965;-0.03976813;0.026635487;0.10811631;-0.23828262;-0.0016465965;0.09459591;-0.030740477;0.08984709;0.061970588;-0.02129363;0.18050705;0.033270914;0.20508052;0.046730135;0.19890456;0.1649349;-0.12877749;0.022798179;0.005255509;-0.22002605;-0.066714674;0.07651208;0.22893949;0.010441013;0.078710824;-0.020274768;0.03207293;-0.2359393;-0.14220272;0.034666296;0.15111144;0.11425713;-0.15545805;0.026686847;-0.060449798;0.1811812;-0.00771261;0.026299762;0.07975255;-0.07394162;0.21706894;-0.15058719;0.019466257;-0.0038080597;0.13739319;-0.13893324;-0.15554972;0.04207407;0.0071547176;-0.03215113;0.017773295;-0.012221536;-0.0576208;-0.15891507;0.20180917;0.16355483;-0.061434735;0.053969998;-0.015279731;0.048641596;-0.13536213;-0.017521257;0.08559617;-0.1963397;0.12959553;0.07335422;-0.008074957;-0.18454629;0.059210457;-0.14476618;-0.22664092;0.030756775;0.013290701;0.0019498242;0.1474784;-0.13850646;0.21650012;-0.07101272;0.037173346;0.2026446;-0.20701066;-0.011947029;0.061732158;-0.09919032;0.058339857;-0.055722963;-0.07914381;-0.21635807;0.03565376;-0.032223437;0.07463824;0.07451584;0.15576214;-0.13070539;0.12049253;0.08692498;-0.16094793;-0.019076306;-0.055232145;-0.0201619;-0.2051857;-0.13817364;-0.12046357;-0.075617366;-0.059794873;-0.046073277;0.045723576;-0.08052237;-0.2524903;0.12071813;-0.037723426;-0.18427134;0.114106216;0.058688875;0.1045132;0.10500687;-0.01733903;-0.020120144;0.028025504;-0.117449075;0.10793102;0.0059394776;-0.066830404;-0.17469557;-0.09278569;0.16254626;-0.115022935;0.043980937;0.24416456;0.20910837;0.06185552;0.07581429;0.023621274;-0.20456807;-0.111274585;-0.044110376;0.26011193;0.022647463;-0.18129086;-0.07947013;-0.17344764
0.08982957;0.075780325;-0.09632383;0.14494614;-0.17528845;0.088294685;-0.18343067;-0.013392161;-0.01738329;-0.098851316;-0.06536947;-0.06122246;0.007667537;0.017171768;0.12616791;0.06161065;-0.07627045;-0.0011665496;0.04875632;-0.094650514;-0.04670787;0.03454703;-0.020145703;-0.1418618;-0.062985405;-0.07278437;-0.23439406;-0.043503888;-0.022095077;0.030252036;0.059931472;-0.08514789;0.11226248;0.022080852;0.024920326;-0.12873487;0.037250616;-0.2440247;-0.054586157;0.031098798;0.087700784;0.08721123;0.18049918;0.08028567;-0.14671;-0.0039718435;-0.05496756;-0.082833014;0.08218151;-0.08654316;0.2158309;0.11617295;-0.1103261;-0.07897229;0.098464765;-0.00036096244;-0.010838222;0.2527969;0.08881309;0.12540872;0.056417413;0.031875703;-0.02689233;-0.0705609;-0.11719008;0.028861476;-0.027506689;0.030201396;-0.17664966;0.016476909;0.012287631;-0.068432845;0.025813121;0.051168095;0.07453789;-0.023909897;-0.17765735;-0.14276527;0.0055297073;0.031990897;0.10147508;0.023906592;-0.016238943;0.18462312;0.09615387;-0.060033083;0.10566898;0.008081965;-0.0417006;0.12190163;0.035882927;-0.047327105;0.16492312;0.012327048;-0.0041410895;-0.020103566;0.040378932;0.1325099;-0.06978552;0.01381367;-0.13849269;0.04287513;0.062528975;0.10987815;0.018412296;-0.009651407;-0.009541932;0.15423334;0.123773605;0.034630984;0.017618982;-0.21019778;0.1046046;-0.08322299;-0.014742207;0.040460967;0.070774764;0.078734554;-0.16765876;-0.047126453;0.015886825;0.16805124;0.000372828;0.082123816;0.120212056;0.044842217;0.07331634;-0.005369846;0.11694348;0.019118235;-0.044491902;0.02986324;0.0419727;-0.0047385767;-0.3837398;0.09391266;-0.107774846;-0.21293448;-0.05584634;0.10795255;0.004396327;0.25092277;0.09297815;0.12326567;-0.19322607;-0.086518;-0.15654095;0.205756;0.10738768;0.026352571;-0.07945772;0.025617987;-0.12303415;0.039866034;0.022803634;-0.061119266;0.15692681;-0.024559684;-0.1298146;0.32968813;0.070785716;-0.14088361;-0.09511306;-0.059331864;0.058984824;0.016858712;-0.13550784;0.13466021;-0.12129803;0.092717916;-0.21541236;-0.005658725;-0.10546934;0.17860943;-0.01620742;0.0017429157;-0.037978742;-0.038008414;0.024984475;0.18615097;-0.14666933;-0.10027805;0.12353609;0.045433104;0.19949302;0.105572924;0.20092276;-0.0028396607;-0.05631335;-0.2322895;-0.20160395;0.23850657;-0.0002284127;-0.017226676;-0.30719638;-0.0009788366;-0.030562118;0.0855919;-0.030990468;0.2886608;-0.09555667;0.116153084;-0.06668343;0.015394312;-0.050301418;-0.074967355;-0.027780125;0.1253253;-0.031106373;0.07227818;-0.099701285;-0.07841382;0.25080746;-0.16158654;0.2776251;0.0075870217;-0.055701908;-7.614506e-06;-0.077070534;-0.11530147;0.1739955;-0.06414194;0.012629336;0.023976596;0.14411312;0.1825917;0.027793441;0.0915768;0.064286456;0.18126173;0.097262226;-0.09509432;0.14529371;0.019283256;0.07349475;-0.01098505;-0.12961826;-0.08494695;-0.09013738;-0.035970554;0.0365674;0.053741075;0.11743177;-0.086970724;-0.035137296;-0.09756655;0.02149052;0.13624609;-0.029070407;-0.07915749;-0.1398214;0.10299166;0.110279985;-0.0971943;-0.23924294;0.1339466;0.01682377;0.102195784;-0.078388676;0.10783599;-0.115280986;0.04601169;0.068795934;0.08730636;-0.053925723;3.5160527e-05;-0.018369405;-0.09732275;-0.05108185;-0.034915;0.009220353;0.20934516;-0.041883692;-0.13133125;-0.1469023;-0.032623354;0.014986518;0.034412857;0.23078747;0.07395494;0.04165569;-0.11135471;-0.019097544;-0.0797989;-0.07714449;-0.065856986;0.042219404;0.07066599;-0.028470336;-0.059937567;0.03778021;0.01688707;0.10628825;0.21639743;0.06531194;0.120737456;0.03556724;0.023141911;-0.10794936;0.07941407;0.06009966;-0.0050844364;0.022945289;-0.0101443;0.14050786;0.12109214;0.064038195;0.15627533;-0.007210465;0.19233468;0.13388982;-0.053064663;-0.04458155;0.030590367;-0.12759347;-0.0714705;-0.20415594;0.09398723;0.014734652;-0.041435648;0.07853142;0.08249113;0.13006006;0.03912354;-0.17839539;-0.007427518;-0.009179403;0.08650986;0.119642265;-0.06590292;0.056599513;0.008095397;0.2115746;0.090718254;0.13004358;0.1897836;-0.22735353;0.18905385;0.27175918;-0.039956555;0.16308378;-0.124464735;-0.2899602;-0.02991651;-0.051613264;0.1123399;-0.04901621;-0.14899907;0.00079470687;-0.11720085;-0.078768045;0.079532504;0.07841695;0.09708239;0.07123577;0.02540167;-0.20937958;-0.012794522;0.04007312;0.17763038;0.090891615;0.08677566;-0.12399002;0.13587719;-0.057422742;0.15108098;-0.09829248;0.001287586;0.08110963;-0.055199012;-0.21535788;0.051192448;0.21132664;-0.2879855;-0.041884854;-0.07351951;0.22618152;0.10586677;0.04492978;-0.20728892;-0.014438031;0.08702348;-0.021713002;0.0153657235;-0.06290157;-0.104465015;0.15531202;-0.027895637;-0.047052186;-0.08898881;0.068338856;0.13028489;0.22353284;-0.15644841;-0.042255398;0.0047119954;0.08089431;-0.00067764503;-0.03939644;-0.058637504;-0.022959132;-0.03739236;-0.06105984;-0.0117886765;-0.26417464;-0.2030672;-0.011152028;0.14020982;-0.05853947;0.03770865;0.13290551;-0.35107458;-0.2812373;0.035926517;-0.092277676;0.22917713;0.054870058;0.019593688;0.051652618;0.12822083;-0.184741;-0.036026046;0.0484362;-0.079721004;-0.22446558;0.2979216;-0.08978659;0.012629292;0.06140684;0.18190157;0.2545088;0.107737176;0.018089078;-0.081606366;0.052723695;0.07840226;-0.06996977;0.14386113;-0.048233487;0.03033286;0.046614744;0.03657579;-0.116802804;0.07393772;-0.11684111;0.11794395;-0.02407974;-0.025045807;0.17347719;0.06005624;0.0807422;-0.12929119;0.15004303;-0.06663871;-0.28308484;-0.16330676;0.079842344;0.20646064;0.11502117;0.06651868;-0.0019404449;0.010317863;-0.19538154;-0.15619546;-0.024290603;0.017383184;0.12079054;-0.2156378;0.0018063649;0.07151265;0.11468425;-0.026931133;-0.020705571;-0.06504448;0.10230434;0.07990334;-0.14848159;0.019431403;0.09009016;0.12753515;-0.2013017;0.093488745;0.04283283;-0.05634815;-0.049981393;-0.020415062;-0.09316599;-0.10245646;-0.05203269;0.06859114;0.05790032;-0.08709836;0.055473518;0.018902319;0.12195775;-0.014661873;0.10742897;0.13426751;-0.14690277;-0.059662092;0.0073593752;0.026862537;0.0247405;-0.0026325572;-0.123831056;-0.09945457;0.014011888;0.15124185;0.109368384;0.031168593;-0.2074809;0.1872273;0.039242707;-0.014987429;0.14778867;-0.20822085;-0.078012764;-0.1491817;-0.1558872;0.020069074;0.030049728;0.022069385;-0.19392668;0.01641701;-0.038202357;0.011269847;0.050460555;0.05580061;-0.058641747;0.25834778;0.015409472;0.025531676;-0.0067851553;-0.105640136;-0.1340515;-0.16728863;0.08101422;-0.27524596;-0.23944026;-0.11099373;-0.013263497;0.004441103;-0.07770035;-0.17426485;0.10001511;0.07336262;-0.021224158;0.11914319;0.15950483;0.06077925;0.052626748;-0.07739544;-0.10656405;0.015943943;-0.03825818;-0.009797238;0.11390791;-0.11593757;-0.19815405;0.033787772;0.01784982;-0.22104235;-0.051060088;0.18247731;0.11837872;-0.027319215;0.092065334;0.031087015;-0.2315836;0.024245394;-0.012979131;0.2237171;-0.00482763;-0.13595983;-0.013925598;-0.11631335
0.08005885;0.0854641;-0.058320362;0.2672869;-0.13315395;0.02250489;-0.06405261;-0.015189145;-0.020570815;-0.24114347;0.007821803;-0.0005359308;-0.04766746;-0.10977525;0.102401316;0.10925004;-0.0054071737;-0.016062729;0.156108;-0.022042993;-0.05913323;0.17598666;-0.08146462;-0.1340478;-0.039571688;-0.08357032;-0.17379035;-0.023469405;0.06224875;0.07315999;-0.0021735188;-0.0714618;0.12387866;-0.09106897;0.14808582;-0.04792192;-0.026826842;-0.16294584;-0.012392288;0.068799615;0.14011574;0.08820058;0.10650579;-0.03633035;-0.18441203;-0.027653696;-0.011037739;-0.12787504;0.14761709;0.007660292;0.1293116;0.07012909;-0.034648;-0.062790364;0.11202222;0.015429735;0.008103069;0.1350831;0.10676955;0.21591485;-0.018281262;0.068074554;-0.12702702;0.035386182;-0.09745968;0.056167297;-0.10604722;0.18605232;0.013858056;0.1214712;0.0029861701;-0.11203597;0.055107646;0.008947328;0.021546893;-0.16771689;-0.08526073;0.00040339216;-0.09565698;-0.06357926;0.09210231;0.12176268;-0.16676758;0.022888785;0.0851868;0.073381536;0.05824693;-0.12724243;-0.12349924;0.18562475;0.057342462;-0.07939759;0.12665936;0.03305322;-0.13208987;0.073457465;0.0068468475;-0.024737444;-0.11135718;-0.083541326;-0.17995384;0.14025806;0.013829443;0.06260752;-0.11498869;-0.10316399;-0.042543173;0.13668805;0.03559855;-0.015626568;0.11019074;-0.027827142;0.0667722;-0.1668764;-0.12685284;-0.103926115;-0.023997154;0.015503738;-0.16013284;0.052435648;-0.03714468;0.091494575;-8.292135e-05;-0.053433176;-0.04851799;0.06451689;-0.05250377;-0.012478854;-0.02220597;0.1415031;0.026100926;0.09755241;0.030622547;0.014232845;-0.4231005;0.13458988;-0.12320676;-0.21163647;0.034150127;0.118400276;-0.018554704;0.22570473;0.07883391;0.20939718;-0.17708395;0.054762017;-0.20991495;0.24684367;0.0991418;0.031826764;-0.09948714;0.10292884;-0.20402859;0.040508006;0.08096639;-0.06666479;0.1661323;-0.0068773557;-0.16466296;0.2087019;0.003996092;-0.01610552;-0.05019652;0.13725728;-0.059864108;0.07290895;-0.07337655;0.06597791;-0.05425523;0.0785799;-0.0077853887;0.065477595;-0.050580516;0.15097128;0.17119804;-0.033649664;-0.05874929;0.0840422;0.03671046;0.14422034;-0.046251945;-0.14806741;0.0652279;0.05970718;0.26354453;0.15193333;0.12834598;-0.03307823;-0.093885906;-0.12187423;-0.08897245;0.19782339;0.16451548;-0.006237606;-0.14117344;-0.0066612856;-0.06862142;0.11664017;-0.018434722;0.2779198;-0.21425095;0.16526869;-0.06988413;0.073127724;-0.07512666;0.050012678;-0.0533316;0.14466535;0.052628405;-0.015747538;-0.17936651;-0.077532716;0.194892;-0.23792562;0.17848511;-0.049914762;0.01964001;-9.537625e-05;0.02463885;-0.0004079039;0.18655087;0.046419427;0.0062219673;0.015908051;0.1654371;0.17915033;-0.05295034;0.06347067;0.063389614;0.09859949;-0.06727692;-0.017395131;0.05004851;0.058454543;0.12995476;-0.016123114;0.030914063;-0.11121136;-0.14402895;-0.14700964;-0.010872963;0.037498966;0.04416452;0.0037082983;0.12821722;0.008116255;-0.058992933;0.21888804;-0.050108533;-0.06361771;-0.219952;0.085562155;-0.019391546;-0.16506377;-0.24118297;0.0772927;-0.063075915;0.05280608;-0.012494539;0.120490305;0.025911776;0.10188747;0.064117245;-0.08179085;0.007733141;0.028700924;-0.06783334;-0.03459622;-0.037520792;-0.097858496;-0.015475057;0.200744;-0.01324684;0.0030468518;-0.11020267;-0.062050145;0.074348524;-0.10197322;0.09926669;0.12473747;0.11262203;-0.067276545;0.029367486;-0.07485542;0.085950695;0.06081792;0.013023967;0.08365829;-0.048925146;0.052107807;-0.007427923;-0.0028628719;0.12805533;0.16117479;0.062427327;0.08886978;0.033835042;0.116865985;0.03833035;0.025989236;-0.008435798;-0.13655396;-0.013290818;-0.03153785;0.024426917;0.19635737;-0.009946566;0.069562204;-0.03801021;0.1610095;0.1181658;0.1076728;-0.03989473;-0.04473452;-0.12219493;-0.102470145;-0.21748638;0.09665009;0.080324374;-0.16486715;0.0621833;0.13729818;0.14960226;-0.071268566;-0.1926816;-0.042903893;-0.041569017;0.0720659;0.10351778;0.033469006;0.111808404;0.010646386;0.24120906;0.007574205;0.02150207;0.114575624;-0.31853437;0.117951706;0.33475384;-0.030297374;0.15130493;-0.14724684;-0.07517473;0.029951835;-0.056828424;0.18147299;-0.01633948;0.003527983;-0.04156135;-0.099060036;-0.065002434;0.1548328;0.10028758;0.08597902;0.07502975;-0.03316908;0.0010989059;0.0863306;0.069175884;0.21370108;0.16014992;0.011618502;-0.10855211;0.11879134;0.04266936;0.09380961;-0.13259041;0.12602699;0.1370436;-0.14003395;-0.097907506;-0.009348704;0.19172099;-0.31273988;-0.02250424;-0.08545168;0.12835746;0.11406076;0.03685555;-0.19891825;0.05729954;-0.03490455;-0.084288366;0.06574709;-0.09209193;0.046443492;0.18730849;-0.05642116;-0.073834255;-0.07356773;-0.029987281;0.096610785;0.08690916;-0.14457111;0.12564388;0.04920683;0.044865113;0.05690269;-0.060277727;-0.17534491;-0.06386201;-0.11784096;-0.055198822;-0.0053892;-0.28512335;-0.14230682;-0.10438725;0.20365377;-0.00079953135;0.15522353;0.09536632;-0.40571997;-0.11602808;0.00947474;0.036576506;0.13407493;0.0695919;-0.12219452;0.14154355;0.027876576;0.0006913602;0.09243263;0.037643984;0.02066292;-0.12410198;0.22202995;0.0046409355;-0.0007426061;0.027249683;0.013566066;0.17576538;0.046311807;-0.031756476;-0.169489;0.0073223906;0.057036147;0.034790576;0.09084474;-0.1345799;0.019628402;0.06309706;-0.05294396;0.05451868;0.067882806;-0.069371514;0.01973103;-0.03045552;0.12783933;0.09922095;0.08107992;0.082259506;-0.18770498;0.10205981;-0.06432646;-0.15248872;-0.19504549;0.1839915;0.19472288;0.028413018;-0.030643735;0.084459215;-0.059692252;-0.080726184;-0.021251913;-0.030424288;0.05370573;0.10100681;-0.11367101;0.0051264;0.025187949;0.10872744;-0.13711448;0.009166275;-0.031103991;-0.10692663;0.12021609;-0.16521737;-0.09652451;0.13140936;0.023410369;-0.18708296;-0.037212122;0.026113283;-0.102609895;-0.033870675;-0.040445626;0.041437883;-0.027061911;-0.013702407;0.17791507;0.12511253;-0.11016168;-0.0075091156;-0.060480922;0.15665591;-0.050730456;0.02706964;0.12379155;-0.1537339;-0.03648424;0.006034173;0.009375784;-0.15576576;0.074747995;-0.20303015;-0.20513713;-0.04460655;-0.044080373;0.07633233;0.014696538;-0.12781873;0.113963746;-0.07580565;-0.05097115;0.12349102;-0.09949058;-0.019038146;0.035933025;-0.05459372;0.045836765;0.057190016;-0.017411524;-0.10361273;0.06814636;-0.07097653;0.050515756;0.18067461;0.026461443;-0.23821002;0.18209933;-0.0069939736;-0.016525306;0.03196508;-0.03405542;-0.08594816;-0.18264958;-0.060029455;-0.101848654;-0.15304704;-0.067247294;-0.13512167;0.03470919;-0.024194134;-0.2660252;0.009398303;-0.106836796;-0.06686912;0.11034047;0.057333164;0.080577664;0.06910054;0.009342365;-0.15374036;-0.0017513171;-0.008902928;0.023502415;0.059359618;-0.14072095;-0.19252227;-0.1212823;0.1498044;-0.29395792;0.09100203;0.13640869;0.14811659;0.016381491;0.07377802;-0.07954624;-0.20071806;-0.032881863;-0.058658972;0.17471923;0.09111586;-0.040212102;-0.042343527;-0.14533271
0.04287452;-0.029836323;-0.08819189;0.12766203;-0.12026309;0.14498392;-0.15356344;-0.0310633;-0.032116514;-0.14682835;-0.05036971;-0.0840273;0.054406364;-0.051155616;0.06593499;0.07261755;0.130141;-0.015335664;0.15594503;-0.17101687;0.00013826162;0.048458863;-0.049532853;-0.064992875;-0.07388455;-0.012020195;-0.09313266;-0.13499954;0.091574825;0.06393105;0.008022102;-0.027628703;0.093672745;-0.041775465;0.16553406;-0.13591433;0.01402036;-0.0037343989;0.025625255;0.047897935;0.11463543;0.13931882;0.079006664;-0.05061377;-0.05639797;0.06639333;-0.003507843;-0.03778468;0.0929831;-0.07485794;0.07203982;-0.025263935;-0.046043567;-0.03672231;0.20661186;-0.02666316;0.09738482;0.16991511;0.03649475;0.20056054;0.089341715;0.030868277;-0.09625924;0.03805204;-0.2208687;-0.06240672;-0.027784536;0.08188675;0.058327124;0.06741297;-0.14440344;-0.05738554;0.07803911;-0.09298477;-0.06281477;-0.14726928;-0.1767586;0.013443843;0.0887567;-0.13278194;0.113058;-0.024138698;-0.10349015;0.11944295;-0.0030086222;0.10427435;0.044075623;-0.011243781;-0.04619241;0.031102547;0.07553903;-0.013380038;0.09068957;-0.06954109;0.013440236;-0.07492808;-0.03337707;-0.013543657;-0.10756281;-0.06629319;-0.18282506;0.18739778;-0.065485254;0.19810002;-0.10514323;-0.00447865;-0.05092216;0.106424555;-0.016926391;0.077107705;0.09402292;-0.11074171;0.0048573837;-0.12525776;-0.10385559;-0.04965054;-0.030460639;0.0063170386;-0.21508728;0.050148986;-0.08543133;0.08936036;0.05586666;-0.05275221;0.06520411;0.06460341;-0.08117617;0.0039607445;0.010126572;0.057226736;0.06874268;0.13046801;0.034754634;0.035564143;-0.27526888;0.24439746;0.090524256;-0.31815362;0.065316364;0.10560024;0.031182662;0.18524526;0.023732267;0.16791914;-0.21329202;0.03788236;-0.07809201;0.22685221;0.07620566;-0.019806348;-0.041670572;0.081764445;-0.19193256;0.036494177;0.12742393;-0.1184152;0.1606046;-0.053232912;-0.181368;0.3276071;0.16551591;0.11020158;-0.08340664;0.10417777;-0.07253996;0.13974494;-0.11361824;0.040793683;-0.083347104;-0.023007102;-0.066285886;0.062403914;-0.13966903;0.03399135;0.12568408;-0.073923655;-0.06767013;0.05291494;0.015752994;0.1693155;0.030340249;-0.0014795394;0.13603878;-0.10793064;0.19852582;0.019840792;0.18305768;-0.030268164;-0.00034843592;-0.104355514;-0.15549874;0.20307484;0.013362564;0.05174703;-0.23448382;0.088263094;-0.1786433;0.03205319;-0.121301286;0.15206563;-0.2577118;0.20719808;-0.14409794;0.1785973;0.08068042;-0.02300295;-0.043118753;0.09645992;-0.046545375;0.0025024288;-0.2593408;0.047122702;0.21095362;-0.23979768;0.17956927;-0.0131573025;-0.034666087;-0.01272445;0.007095897;-0.009286943;0.1608719;0.05878949;-0.117596306;0.03849403;0.13293578;0.1201423;0.001907059;0.027684512;-0.048219923;0.056681566;0.0582686;-0.04707429;0.06923416;0.09244743;0.004849568;0.008569449;0.117773384;-0.0073925504;-0.16836153;-0.13717505;-0.1015408;0.14550382;0.0073324796;-0.00567759;0.064319886;0.008416536;0.038784806;0.2562566;-0.021881806;-0.057358064;-0.18976511;0.1762155;0.022720568;-0.2268979;-0.22734319;0.061981726;-0.027972246;0.045127206;-0.0823521;0.10428906;-0.04680843;0.102121696;0.044833302;-0.14135896;0.004316146;0.114208154;-0.04605172;0.10732487;0.029283915;0.025716932;-0.03359065;0.055627797;0.13059361;-0.13005255;-0.23882316;0.046416737;0.046730887;-0.11226514;0.08083095;0.0026166635;0.06669263;-0.06559047;-0.07657361;-0.091120124;0.05805818;0.051051352;0.045765392;-0.04311729;-0.012227181;-0.0443958;-0.037150227;0.045843393;0.24128415;0.112709105;0.07172591;0.14284283;0.053966247;0.14464322;-0.01741208;0.04170964;0.087897375;-0.0071799564;0.039584562;-0.063997835;0.06291519;0.218628;-0.021116262;0.0760916;0.13010113;0.17648228;0.09441022;0.07209668;0.04945384;-0.11205709;-0.13635778;-0.092677884;-0.31197888;0.13657287;0.13538718;-0.09947703;0.08292245;0.13115893;0.20374754;-0.062402185;-0.09723396;0.06372161;0.022728126;0.005958021;0.03971451;-0.07970848;0.086971544;-0.03148443;0.26469266;-0.022183616;-0.06511383;0.08194254;-0.27532223;0.15374236;0.26989323;-0.11179156;-0.00936587;-0.06228322;-0.23918563;-0.11565291;-0.060177915;0.11394481;0.0055546896;0.029662631;-0.0022009986;-0.0993441;-0.108644426;0.124789976;0.032454856;-0.03796883;0.13729122;-0.085971564;-0.059212174;0.03319737;0.08570109;0.19567254;0.24428046;0.12443001;-0.087153286;0.04684793;-0.0938536;0.113919936;-0.19794796;0.111909695;0.14609808;-0.1939155;-0.16723238;-0.020235294;0.17608029;-0.18701532;0.08033824;-0.031824823;0.1980677;0.050608166;0.062429305;-0.23171672;0.06294657;-0.0085243005;-0.11456429;-0.03468705;0.07933788;0.01434094;0.10647591;0.034925457;-0.14515379;-0.0913784;0.09467953;0.08024272;0.084729075;-0.053999722;0.11680323;0.015279226;0.023292622;0.0069854273;-0.039955746;-0.13232997;-0.004317147;-0.1263899;-0.12767495;0.061060164;-0.24594805;-0.22131401;-0.11084486;0.20631681;-0.08601609;0.17229441;-0.066906914;-0.23299593;-0.15319102;0.115931325;0.027576046;0.03766585;0.074784316;-0.10049683;0.010821393;0.008063503;-0.008220168;0.0070730764;0.020389834;-0.025333462;-0.08619727;0.31863672;-0.072817564;0.055481087;-0.02953214;0.09249408;0.22976558;0.14585795;0.032725576;-0.21977894;0.045211833;-0.019878909;0.026656283;0.102990665;-0.086741015;0.039957076;-0.03462442;-0.10106738;-0.0073038274;-0.00020672107;0.008043169;0.066908985;0.017175155;0.122169755;0.17243454;0.18070363;0.05651753;-0.19020721;0.006287355;-0.09418918;-0.2378485;-0.18360433;0.08286202;0.12386207;0.028338935;0.10545504;-0.013501983;0.09558647;-0.13700639;-0.11487226;-0.02447624;0.15209544;0.063329265;-0.2389275;-0.001744143;0.11006731;0.13239816;-0.19770482;-0.029610971;0.057147827;-0.0014564042;0.16383824;-0.09853954;0.0040997956;0.12605998;0.08696137;-0.14488253;-0.00223071;0.037115496;-0.05409802;-0.067602456;0.062464256;0.04293316;-0.11613491;-0.09335332;0.16049628;0.1356814;-0.12089699;-0.06283927;-0.098386355;0.07832867;-0.15841818;0.09297555;-0.00078669545;-0.25219905;-0.018285058;-0.004294797;-3.743676e-05;-0.10371981;0.1179259;-0.12095231;-0.11206859;0.056732457;-0.06251314;0.17924912;-0.04165334;0.02448956;0.19148225;0.09673806;-0.03872556;0.16683897;-0.14409916;0.029005839;0.08778044;-0.26655728;0.06298532;0.06201318;-0.009963844;-0.14201881;0.1842835;-0.14704412;0.02900844;0.14405708;0.09807639;-0.17217952;0.2459484;-0.028131675;-0.0025852078;0.021215156;-0.12961459;-0.16517016;-0.18628076;-0.10265522;-0.12972455;-0.1966025;-0.06078093;-0.10368658;-0.103146575;0.009445116;-0.14483254;0.08736663;-0.1260931;-0.10283135;0.095593646;0.14464349;-0.008783952;0.15640518;-0.09631957;-0.023677843;-0.08752712;0.04330605;0.17179494;0.01715435;-0.12426586;-0.24472116;-0.13372579;0.14691089;-0.19551569;0.09274148;0.19992794;0.22989962;0.11571688;0.20411132;-0.09985549;-0.34261033;-0.077590846;0.013125899;0.1518711;0.09998352;-0.10007738;-0.078845344;-0.039909072
-0.009607211;0.013446028;-0.044403937;0.23011796;-0.14720792;0.18953511;-0.03495183;0.03457982;0.020289736;-0.13109769;-0.0059352824;-0.01577058;0.018726386;-0.07185215;-0.007345592;0.061657112;0.027379883;0.05170646;0.11437083;-0.11033721;-0.0030563595;0.014574603;-0.031731673;-0.075235344;-0.034146514;-0.090537295;-0.11053372;-0.01406583;0.052101646;0.015128987;-0.0017613495;-0.14201635;0.13262072;-0.023323875;0.15161245;-0.17206661;0.048439477;-0.015611612;0.042861417;0.027785303;0.20818533;0.17675832;0.12788913;0.0566178;-0.05986039;-0.1026291;0.0638922;-0.09868112;0.031991456;-0.030874692;0.07710207;0.0036163528;-0.14454614;-0.10915937;0.16484272;-0.06659474;0.0844451;0.14568241;-0.15042834;0.047990326;0.13474552;0.09584612;-0.111947596;0.023051558;-0.07141993;-0.040853813;-0.0046883575;0.09506692;0.010757881;0.09150138;-0.0037305905;-0.010491274;-0.028440787;-0.028940134;0.006019243;-0.059800383;-0.02192865;-0.0061185504;-0.03136171;0.020461531;0.15971966;0.032170694;-0.13818534;0.11953215;0.09454032;-0.0146675;0.040299848;0.022058306;-0.023188328;0.10090144;0.011677466;-0.08423834;0.07713962;-0.058631778;0.010073032;-0.0622404;0.0089552775;-0.06637344;-0.23025364;-0.09465595;-0.08977257;0.1298347;-0.0044229557;0.013017676;-0.11759206;0.014932055;-0.02899926;0.19150503;0.027390819;0.1350565;0.105332606;-0.0892955;-0.070188135;-0.18384768;0.016583538;-0.095465794;0.15066725;-6.11891e-05;-0.17324714;0.078725286;-0.098689646;0.17480794;0.08382079;0.08154235;0.092627145;0.13352954;-0.07281064;-0.0028320884;0.04102003;0.106027104;-0.0049167112;0.12425834;0.07718822;0.063466705;-0.29654938;0.14855841;-0.03163805;-0.18313913;0.1299375;0.003740503;0.07603459;0.08526044;-0.04454533;0.18596609;-0.109031215;-0.014051594;-0.1477481;0.14718632;0.12503065;0.106397726;-0.005172516;-0.02435904;-0.17855006;0.14414604;0.14702474;-0.19701104;0.18376127;-0.075732894;-0.25089505;0.29978514;-0.0011507398;0.10479246;-0.007858499;0.097949;0.05552335;0.093383566;-0.16038279;0.042694576;-0.06561458;0.046765015;0.025906734;-0.024002453;-0.10504549;0.0086326;0.102634884;-0.07238389;-0.10996216;0.07323423;-0.02686287;0.17291729;-0.1014065;-0.05555192;0.064536;-0.03347846;0.098873176;0.08426585;0.17138873;0.10308927;-0.05562223;-0.12183982;-0.12877339;0.12218621;0.19424933;0.033522304;-0.17116727;-0.034060307;-0.021617554;0.13842168;-0.101647526;0.19548067;-0.18691328;0.17104222;-0.05372364;0.021336729;-0.0030952592;0.034919344;-0.08496802;0.018639958;0.012224093;-0.058490906;-0.27574974;-0.056351583;0.16576482;-0.19878839;0.08676729;-0.033644013;-0.07510797;-0.07300942;0.06824834;-0.061972383;0.034426797;-0.045999523;-0.04278507;-0.026513342;0.11282258;0.07856087;0.017614549;0.040601693;0.013221434;0.11069303;0.09091785;-0.009649979;0.0440878;0.03804352;0.1371117;-0.043695558;0.13004932;-0.057416555;-0.21160905;-0.0687428;-0.07559407;0.13473247;0.03262914;-0.12634324;-0.0005636104;-0.023786336;-0.016493019;0.2283383;-0.20703836;0.09975422;-0.088093005;-0.016286956;0.01582063;-0.16983679;-0.19980295;0.13296069;-0.01112938;0.056884237;-0.039308157;-0.046230186;0.002258167;0.087400414;0.09754507;-0.14653185;-0.034498394;0.028626341;-0.087671205;-0.019809943;-0.02871597;-0.053577606;0.0008357614;0.14577562;0.032776047;-0.04073409;-0.17252529;0.02157083;0.079263166;0.03308928;0.013303844;-0.026507841;0.052476674;0.023476308;-0.053287014;-0.119106844;0.0699146;0.06472278;0.10339286;0.028052865;0.045189183;-0.09587371;0.030299043;-0.08423437;0.18200742;0.070965484;-0.0518165;0.1397534;0.0061712097;0.09205681;-0.07927176;0.045644753;0.04168047;-0.018594516;0.027716722;-0.11758799;0.088172115;0.12309047;0.033318482;0.036345508;0.09192492;0.10779318;0.16174142;0.10518936;0.12855975;0.010557079;-0.15619795;-0.051066965;-0.23253457;0.1578458;0.13747044;-0.18382372;0.17135173;0.19317783;0.24035805;0.065842874;-0.0595515;0.045579463;-0.07193407;-0.053585734;0.21019615;0.017652981;0.07772376;-0.0625307;0.061338603;0.11946366;-0.0012885581;0.0646512;-0.13224359;0.06432473;0.22244053;-0.15481901;-0.024201011;-0.0058204294;-0.11360945;-0.09657117;-0.014482439;0.16125855;-0.11321067;-0.0039511924;0.03646579;-0.047377095;0.02700974;0.16919318;0.13116884;0.04615252;0.18235517;-0.045819715;-0.04810623;0.11916792;0.13013773;0.23009577;0.17948358;-0.0028215859;-0.102334775;-0.0022680352;-0.0028020542;0.22160013;-0.13741374;0.053325787;0.01508413;-0.13435662;-0.11055742;0.079589814;0.24937384;-0.33556056;0.018502383;-0.05665227;0.13988179;0.047284227;0.025006423;-0.09525621;0.06594699;0.07120691;-0.1823587;0.14854854;0.036621362;0.06599823;0.04707932;0.0052763824;-0.13144465;-0.10031449;-0.0120922895;-0.010327177;0.10667267;-0.13312571;0.20297465;-0.048042703;0.039229345;0.011408276;0.05760336;-0.06860689;-0.060285818;-0.12319302;-0.10298407;0.023464298;-0.3155891;-0.26486593;-0.10923117;0.09026641;-0.0063587534;0.15552981;0.032740586;-0.37652767;-0.10563121;-0.028688693;-0.0056986166;0.14706047;0.056916468;-0.096353814;0.07395162;0.013583398;-0.015882906;-0.013023165;-0.003945214;0.018727517;-0.14149535;0.33689144;0.0435334;-0.026564222;-0.05245641;-0.025895167;0.16415566;0.1665113;0.07240265;-0.19094728;0.078120716;0.07765224;-0.08247938;0.17152561;-0.070951216;0.05789433;0.03166847;-0.096568756;-0.08345799;0.121310405;0.02177957;0.12167148;-0.0414228;0.09601073;0.07422612;0.095952004;0.07543136;-0.1711135;0.051398665;0.039645366;-0.18488008;-0.09776261;-0.00177546;0.2154532;0.11152024;0.02922055;-0.07337813;-0.06324842;-0.12711436;-0.07506331;0.12953983;0.08974094;0.08854551;-0.21053821;-0.06233691;0.0852528;0.117609136;-0.05144176;-0.095408104;-0.065592885;-0.018235825;0.2648443;-0.22269447;-0.06268083;0.09303998;0.020627065;-0.1789393;0.0017010375;-0.035879206;-0.032168068;-0.04261179;0.07470734;-0.019070935;0.025642263;0.11282229;0.079866625;0.08972178;-0.025615048;-0.09245605;-0.15872175;0.04977225;-0.06502373;0.10525881;0.004653569;-0.12102985;-0.13628143;0.13392378;-0.023901286;0.055602822;0.055511378;-0.11376322;-0.03197209;0.1291542;0.10578378;-0.009933696;0.07896734;-0.029554449;0.0711872;0.14863391;-0.078108296;0.064559855;-0.09200448;0.113397226;-0.010796842;-0.13066797;0.15417133;0.03577718;-0.008777622;-0.24386914;0.13192123;-0.057497304;0.05924079;0.045310486;0.1448243;-0.1907868;0.21890695;0.06830359;-0.047832992;0.062409535;-0.17416908;-0.09877776;-0.06830357;0.004399102;-0.050267223;-0.137632;-0.008474882;0.015448301;-0.0060755797;-0.08814164;-0.15101698;0.15938671;-0.026857805;0.07814758;0.11455739;0.0155944545;0.11948577;0.093917035;-0.0665235;-0.10274265;-0.0054182857;-0.064665064;0.091304064;-0.022312025;-0.1997391;-0.17934266;-0.00039651597;0.051839642;-0.2845745;0.079356395;0.2093643;0.23526415;0.04187664;0.21353969;-0.111039154;-0.27901623;0.016383538;0.00023482421;0.1990697;-0.01739108;-0.12286283;0.060262118;-0.17485508
0.003371591;-0.006189973;-0.026122494;0.1216546;-0.026343012;0.18311664;-0.16948071;-0.0043182964;0.10907899;-0.034342207;-0.11942048;-0.10054332;0.14527382;-0.040192872;-0.12368105;0.12910591;0.043878943;-0.08960842;0.12387226;-0.028045587;0.0037385586;0.05514008;-0.11921363;-0.10073477;0.028377721;-0.12385391;0.004437127;-0.09175825;-0.12327623;0.09699;-0.100768745;0.09747006;0.0060522384;0.07922179;0.22247313;-0.08504958;0.031711925;0.0054198187;-0.044084135;0.13734983;0.1326895;0.12359138;0.114797615;-0.021397509;-0.043346398;-0.006055392;-0.01593291;0.10914643;0.12438325;0.065730624;0.12482722;0.07401028;-0.09517766;-0.018945158;0.20423819;0.04967198;-0.037078243;0.21426448;-0.108848006;0.1931114;0.020798264;-0.07192834;-0.20609243;-0.032016862;0.04679826;-0.16981697;-0.024230931;0.13575935;-0.09962725;-0.013612226;-0.11274113;-0.05494659;-0.08223816;0.15793727;0.10203416;-0.05895295;-0.114164606;-0.062274683;0.057099346;0.10738789;0.11257821;0.13361153;0.028828148;0.15138185;0.08512907;-0.035645086;0.04709707;-0.06728898;-0.0440702;0.05333408;-0.01886663;0.114800386;0.040955447;0.0061749034;-0.04715846;-0.005335487;0.1207883;0.04549603;-0.22019172;-0.1210602;-0.030398328;0.17512995;-0.07531236;-0.0058204853;0.04294261;-0.01543798;0.091295265;0.07139335;0.100000784;-0.028796019;0.014236308;-0.13494757;-0.026248436;-0.047562115;-0.0023212591;-0.06953084;-0.10378779;-0.081672;-0.12977038;0.02655839;-0.01708525;0.0019631486;0.040734276;0.16940904;0.08135303;-0.028385269;0.03709012;-0.010841359;0.012870909;0.21328925;0.04834336;0.22893587;-0.087589696;0.09721693;-0.108292684;0.16266295;0.14752223;-0.22614913;-0.02678644;0.031161271;-0.09946698;0.09353556;0.048587408;0.08252345;-0.27568552;-0.041193947;-0.27368647;0.14612284;0.1014288;-0.06369021;0.07079796;0.03590153;0.018635757;0.23703124;0.0983191;-0.3070446;0.05930367;-0.17075932;-0.010763718;0.22216594;-0.10593352;0.17738481;-0.01016988;0.106358066;-0.065647416;0.11380309;-0.11845885;0.05162757;0.008467107;-0.009620367;-0.057246175;0.006199385;-0.01843535;0.05897912;0.03500734;0.067636885;0.0061551663;0.15241197;-0.062931165;0.10710047;-0.09818065;0.03540327;0.17128278;-0.07608228;-0.05509783;-0.0791878;0.24328648;0.026306873;0.06146663;-0.013067843;-0.13713524;0.034493018;-0.001993339;-0.0119091375;-0.2511932;0.11258474;-0.121189184;-0.0027004785;-0.17720042;0.2041791;-0.19637734;0.25870204;0.027535807;0.027765714;-0.097073644;0.06285092;-0.084545836;0.09863421;0.15023713;0.011546006;-0.2525552;-0.07491767;0.17156188;-0.11649078;0.12985665;0.064611666;-0.0056161154;0.045148347;0.110222675;-0.25939655;0.15094493;0.031475093;0.03781186;-0.18634188;0.094909854;-0.030574331;0.03236695;-0.0465194;0.13084036;0.16658396;0.11899967;0.014698799;-0.018460391;0.07094766;0.20014127;-0.014764117;-0.040941108;-0.058412366;-0.22662377;-0.19428656;-0.19875076;0.12290239;-0.0021084254;-0.022724139;-0.20625015;-0.19340432;-0.15086362;0.2412178;0.0040840628;0.11121243;-0.18768165;-0.05117287;0.063746594;-0.10594625;-0.4078093;0.014857683;0.10753566;0.02512144;0.1345541;-0.06521611;-0.14487182;0.14383209;0.08733382;-0.11169868;-0.067112155;0.12857947;0.010475272;-0.09069455;0.05362859;0.104341775;-0.1351512;0.03610471;0.1371128;-0.006547829;-0.18213952;0.13348433;0.08002418;0.00047951197;-0.08982511;0.031460956;0.049450874;-0.16740522;0.024096025;0.024871966;0.04639412;-0.015512732;0.11504037;0.09992381;-0.032654874;0.050804906;-0.07469255;-0.008744544;-0.0020543917;0.11115601;0.014330535;-0.014765224;-0.010911448;0.1127972;-0.10022471;-0.024987344;0.047637142;-0.09743289;0.015950365;-0.051854853;0.021309726;0.05860905;0.01856764;0.20218728;0.05468692;0.16922913;0.19013608;-0.052788466;0.122314855;-0.10362638;-0.075994916;-0.11083202;-0.062727295;0.10051347;-0.03102339;-0.01149108;0.25587466;0.103874564;0.19748574;0.12874256;0.1415836;0.028011663;-0.08189688;0.1561588;0.1243767;0.053955037;-0.11069174;-0.04722982;0.22708978;0.022149146;0.032906592;0.019972496;-0.15591463;0.07297256;0.09878754;-0.1025732;-0.058099434;-0.054751966;-0.1669206;-0.15977317;-0.0059962617;0.143864;-0.023610312;-0.2521276;-0.05652998;0.011792614;-0.06578814;0.11852252;0.12527429;-0.031209372;0.14704265;-0.0150644025;-0.17513011;0.10046814;0.05423636;0.21119753;0.25820684;0.011748959;-0.008020595;0.03746136;0.08155118;0.15798533;-0.20339152;0.1795933;0.22772315;-0.0649447;-0.09263596;0.1117578;0.21427919;-0.22215691;0.087011635;-0.028422378;0.22927497;0.078190394;0.09850932;-0.16465062;-0.07795153;0.05487907;-0.13482542;-0.03451409;0.05730294;-0.03366978;-0.07336383;0.16657257;-0.16088101;-0.07795177;-0.02723368;0.025516642;0.10409394;-0.0726228;-0.035477784;0.045187317;-0.11496581;-0.107037924;0.021376066;-0.121484354;-0.13866071;-0.074110866;0.0876803;0.10956592;-0.21860613;-0.2973641;-0.036427893;0.010574591;-0.07613172;0.06937542;0.004407621;-0.21575202;-0.16010885;0.055500764;0.00484455;0.21216193;0.21012467;-0.039441355;-0.027458489;0.0739336;-0.10599876;0.051639263;0.049120884;-0.045660943;-0.14171465;0.31767103;0.14903805;0.012544539;0.15839028;0.16712569;0.07833486;0.066121295;0.092261724;-0.0035302793;0.19831482;0.048723508;0.090966016;-0.0533439;0.020589689;0.0092099495;-0.075790145;0.06568824;-0.22557668;0.012871523;0.0037888088;0.07250919;-0.019512706;-0.018610518;0.11728765;0.03847044;0.09754135;-0.21638384;0.08678308;-0.018233033;-0.1525533;-0.046091158;0.08986795;-0.011713502;-0.06126634;0.012884447;-0.009599287;-0.06730533;0.03054833;0.025776658;-0.07862211;0.04220647;-0.07475802;-0.2502585;-0.03192807;0.22744983;0.10570078;-0.013904371;0.06143996;-0.09086797;0.050583903;0.10089271;-0.09298799;0.0047260127;0.1556964;0.03463392;-0.19393341;0.09888786;0.07302436;0.02735236;-0.02352499;0.13647097;-0.071471706;-0.05148136;0.023760293;0.17466442;-0.03910698;-0.13224256;-0.0806745;-0.15717728;0.040557813;-0.103391156;-0.0023599237;-0.05254103;-0.21889736;0.005021614;-0.059494257;0.06781432;0.0456268;0.2663832;-0.21924667;0.10381971;0.12986502;0.21991333;0.043567188;-0.09502443;-0.120418064;0.08504678;0.19150098;-0.13143288;0.09713065;-0.018303476;-0.012683432;0.03616942;-0.27230555;-0.11604396;0.23432708;-0.009930139;-0.35159084;-0.018280065;-0.067441545;0.00504156;0.03078328;0.15892777;-0.11306011;0.21155654;0.0916905;0.115351714;0.11234816;-0.18733603;-0.098073274;-0.08398964;-0.017310994;0.06532227;-0.30292368;-0.15630546;-0.111795664;-0.019702738;-0.020234061;-0.09727734;0.25775743;0.06604997;0.11367919;0.054593854;0.048265755;0.06923998;0.096146874;-0.09460344;-0.26633406;-0.15819937;0.054549642;0.19025442;0.05637923;-0.23012437;-0.22937684;-0.060508944;-0.036437105;-0.27041677;0.028378883;0.14259171;0.16590405;0.084912784;0.13169815;-0.016382253;-0.39276803;-0.04939657;-0.0001550448;0.19423479;-0.007817912;0.003948928;-0.023107266;-0.069640204
0.0752066;-0.081231914;-0.032554872;0.09488886;0.0045599914;0.17903171;-0.17890817;-0.014193639;0.022070894;-0.17127769;-0.067834154;-0.09366101;0.15966439;-0.13481086;-0.09730058;0.10235191;0.03860142;-0.14117713;0.028922942;-0.08415884;-0.008633546;0.06702292;0.02422684;-0.084587805;-0.16757226;0.07437579;-0.0734733;-0.13903858;0.0123123005;0.14566278;-0.16995576;0.07942685;0.12848638;0.008452253;0.30650976;-0.021261917;0.020157216;0.044732757;0.03737644;0.1546799;0.14392564;0.049585864;0.12757039;0.08148606;0.034801144;-0.011524411;-0.07872709;0.10563036;0.18087167;0.0127578005;0.108083054;-0.00016454796;-0.062299576;0.0188141;0.08889997;-0.072712466;0.0058697336;0.14149897;-0.122270115;0.11686345;0.09551208;-0.031428102;-0.06915579;0.10620075;-0.10656088;-0.11078064;-0.01702691;0.09760169;0.0048344857;0.03486788;-0.15331408;-0.1282176;0.11669446;-0.0029090883;0.04668328;-0.13546756;-0.042987272;0.05603025;-0.08831887;-0.051897835;0.051925972;0.09686008;-0.106239974;0.08951842;0.06333407;-0.051430237;0.06127957;-0.10956761;-0.14876884;0.07838643;0.043946005;0.010299131;0.05609006;0.020748297;0.051307317;0.04613083;-0.042124543;-0.04136835;-0.1787286;-0.0048852996;-0.03206357;0.07988671;-0.037609614;0.16037317;0.00394321;-0.00062027614;0.07056843;0.20382762;0.03212623;0.15517187;0.029183308;-0.116301864;0.080110885;-0.021377055;0.018109089;-0.0233568;0.14176801;-0.077285424;-0.13297452;-0.012566105;-0.0863786;-0.0004764737;0.074524984;0.039484546;0.010032949;0.031390324;-0.049146026;-0.085427694;-0.08159721;0.17490804;-0.046905737;0.14848451;-0.11297724;0.07623939;-0.19764517;0.19269398;0.11702022;-0.19911249;0.15343513;0.10152811;-0.015536358;0.1872747;0.03744886;0.08314318;-0.18457763;-0.09451812;-0.17096364;0.13374087;0.16930227;-0.123186894;-0.058609545;0.0445575;-0.08501402;0.1953296;0.021566465;-0.08179336;0.15265237;-0.157296;-0.1295776;0.12697409;-0.016924683;0.08771674;0.10111444;0.067532875;-0.02343431;0.075240314;-0.112875074;0.18418455;-0.005346196;0.01587061;0.07264247;0.012619218;-0.029674787;0.046662107;0.12354174;-0.03442528;-0.010969146;0.123272754;0.017919943;0.23474039;-0.11682416;0.010475414;0.17492163;-0.13180149;-0.024321757;-0.040468775;0.16833667;0.05534735;-0.111083;-0.1592833;-0.0629071;0.1678919;0.14177202;-0.051076747;-0.26249084;0.06981664;-0.015039621;0.046290938;-0.03742459;0.073947825;-0.17560327;0.18079436;-0.102299206;0.07446153;-0.041329674;0.11645826;-0.12784414;0.04166656;0.107199244;0.017143136;-0.27872932;0.024397384;0.05689497;-0.1362787;0.16038089;0.053760547;-0.068379335;-0.0040988433;0.0824125;-0.17967094;0.13425799;-0.023824599;0.0064515853;-0.07051992;0.10846151;-0.004588397;-0.07962209;-0.117680795;0.15785238;0.029992227;0.08341287;-0.045440875;0.04847388;0.09742583;0.04391736;0.058061004;0.06539392;0.049741033;-0.27098873;-0.06137453;-0.1018606;0.13757595;0.027765362;-0.009425792;-0.045586236;-0.081608824;-0.07635373;0.23631902;-0.13955416;0.07480994;-0.21794336;0.14713952;0.122017965;-0.1540178;-0.38136965;0.007903181;-0.0339202;-0.041991826;0.022625342;-0.024748715;-0.07916032;0.16784377;0.08293213;-0.14162311;-0.061384257;0.042118195;-0.083760895;-0.0065969867;-0.02154755;-0.023537984;-0.06981391;0.05392315;-0.037531517;-0.066216566;-0.15897925;0.10974239;0.05929498;-0.059177693;0.0016036644;-0.10377868;0.046909586;-0.038193602;-0.10719107;-0.1032412;-0.005706074;-0.013373846;0.021439498;0.09073074;-0.0019754022;0.07145639;-0.016989056;0.03480268;0.18866497;-0.010851785;-0.018356377;0.10878157;0.007015244;0.1118293;0.049196403;0.09228124;0.15543422;-0.110852286;0.01791066;-0.07310201;-0.06807916;0.13207886;-0.07624557;0.0621452;0.04158553;0.06587789;0.10255177;-0.06489057;0.14394967;0.0034938075;-0.17746727;-0.19359946;-0.23234864;0.0022827913;0.031224012;-0.11925227;0.23425005;0.1581962;0.30393538;0.11343904;-0.02137122;-0.01675737;-0.052136727;0.04338059;0.09449651;0.10152848;0.08087946;0.014423605;0.08214954;-0.0011744895;0.01915269;0.046355136;-0.241311;0.029890984;0.050363556;-0.15914762;0.05179633;0.06574144;-0.088220336;-0.07080619;-0.128103;0.03574433;-0.043654654;-0.076095074;-0.08441169;-0.08367153;-0.0257145;0.16686164;0.14193058;0.06648989;0.11211326;0.003527626;-0.0507583;0.1116674;0.019525113;0.10362826;0.18678218;0.10718246;-0.1390592;0.05741569;-0.0013077804;0.22466724;-0.12165748;0.10743958;0.12900357;-0.21726452;-0.102233216;0.05600488;0.13695148;-0.20218915;0.06260222;0.057880823;0.1496039;0.071611255;0.07673368;-0.16347367;-0.14615476;0.01012871;-0.2861695;0.10378917;-0.04681967;-0.03328438;0.040886384;-0.00747417;-0.007343909;-0.07871084;0.020003548;-0.033508956;0.0810408;-0.06476897;0.13058388;0.04520624;0.008617076;-0.030877657;0.005475086;-0.14159872;-0.061544508;-0.0930606;-0.033416715;0.08225653;-0.20575368;-0.085131265;-0.0075586555;0.04378549;-0.03224667;0.09474421;0.043438263;-0.22147438;-0.11644588;0.11214269;0.044612106;0.12403876;0.1709475;-0.10270001;-0.14791407;0.027770765;-0.107734516;-0.008660774;0.063794464;-0.046519957;0.024293877;0.3340987;0.11751441;0.033176526;-0.0016714492;-0.0033719267;0.03660501;0.089060046;-0.014808559;-0.12656;0.12594947;-0.04467304;-0.012346314;-0.009130261;-0.06017833;0.03721748;0.03320037;-0.0010000229;-0.04438867;0.02617631;0.010104778;0.19490889;0.01774341;0.12859584;0.010022962;0.0625512;0.10067414;-0.20607516;0.07479071;0.019125726;-0.16792043;0.023782833;-0.06377355;0.122797444;-0.018961031;-0.0093857525;-0.0836014;0.06740786;-0.12150583;0.0053323023;0.06707556;0.026953649;0.03318783;-0.2632099;-0.06840373;0.09052612;0.0072700353;-0.06964665;-0.090664715;0.027994843;0.03863201;0.19996047;-0.13410877;-0.008665241;0.14703272;-0.011600378;-0.14075014;0.017847922;0.04967663;-0.032342836;0.05239138;0.03366735;0.09674025;0.13020244;0.05950749;0.15624523;-0.042951893;-0.11228276;-0.0845921;-0.117807396;0.0590654;0.012211522;0.1667076;-0.029713215;-0.14516205;0.021008808;-0.03370744;0.097909875;-0.009764492;0.049730927;-0.20641759;-0.07695045;0.09502296;0.10825205;0.030222055;-0.06428558;0.019006811;0.17903404;0.033450127;-0.14665668;-0.067668535;0.039217934;0.131838;0.07254748;-0.25920025;0.064292446;0.07740477;-0.042699732;-0.2441011;0.05426041;-0.06317008;0.026499012;0.04968363;0.12162713;-0.102488;0.17488913;0.036479365;0.10357184;0.16657554;-0.18903862;0.035736535;-0.21026929;-0.018980017;0.055708196;-0.19856128;-0.082076654;-0.0700436;-0.088965714;0.059027534;-0.20687337;0.12749638;-0.024884988;0.01627593;0.111225344;-0.039188106;0.0012878045;0.1051277;-0.008542322;-0.11042818;-0.112362914;-0.029306542;0.06030348;0.016714519;-0.056780405;-0.36623248;0.007548532;0.044993617;-0.08724365;0.19624928;0.2439297;0.22143279;0.088747695;0.17343163;-0.08625672;-0.29917386;0.046199024;0.057686232;0.16888915;0.003345785;0.017417403;-0.097829804;-0.12141775
0.05656542;-0.1449048;0.033499606;0.053652134;-0.0016471469;0.2164681;-0.13925716;0.06954744;0.08066196;-0.18470143;0.054896608;-0.030001579;0.045971226;-0.022754025;-0.069257244;0.08105647;0.067401305;0.008249035;0.02369811;0.0058667115;-0.020344177;0.17809431;-0.017791107;-0.05149897;-0.15514809;0.048015073;-0.129244;-0.012955829;-0.035236858;0.008686283;-0.010051678;-0.06037564;0.1472466;-0.08869852;0.2260755;-0.032798514;-0.07447846;0.081069976;0.039744638;0.06432721;0.11621671;0.09295634;-0.0027576438;0.109110154;0.054709814;-0.02270857;-0.07060516;0.017858721;0.095537074;0.043199707;-0.0120865125;0.041359406;0.00074167247;0.0816888;0.025821922;-0.15621762;0.024369024;0.11064085;-0.015821282;0.09846864;-0.04101318;-0.008272396;-0.116907924;-0.006253758;-0.17183556;-0.052736077;0.040438294;0.11861002;0.07374448;0.07368783;-0.0070303585;-0.04712321;0.05427197;0.011971583;0.06399214;-0.15161724;-0.043053187;0.09669516;-0.00323514;0.027325865;0.036453016;0.033564623;-0.16808592;0.1294661;0.06305114;-0.05932085;-0.00059043034;0.02580266;-0.03903511;-0.043593373;0.02414218;-0.053158082;0.09690866;0.009910516;-0.063260995;0.13452542;0.020982128;0.07791148;-0.16923104;0.096164435;-0.03505101;0.05538778;0.061889596;0.093904965;-0.039010875;-0.0042985864;0.01507292;0.20533104;-0.10974581;0.066990085;0.04993895;-0.11213317;0.074938245;-0.0520327;0.0061942246;-0.09915352;0.061396863;0.05692654;-0.053355876;-0.05578147;0.016545808;0.04764579;0.10165947;0.04935496;-0.05693417;0.15498962;-0.11265892;-0.039545886;-0.030707551;0.07508137;0.044358335;0.006023559;-0.021673469;0.012581547;-0.22173427;0.14010787;0.14410822;-0.21099673;0.045417905;0.057752565;-0.021491546;0.13043575;-0.07583244;0.06478901;-0.1728262;-0.07535628;-0.10079878;0.10040821;0.17652318;-0.0050175637;-0.01969889;-0.0026169103;-0.21152982;0.18343864;-0.11717107;-0.15428652;0.072646074;-0.064162046;-0.074650906;0.20244154;0.025197644;0.037257385;0.15389068;0.051522266;-0.004263767;0.050339885;-0.04740809;0.042572044;-0.030954553;-0.06478247;0.031777915;0.14511247;-0.03774199;0.046539575;0.11729732;-0.007316842;-0.113376625;0.11380474;0.05521026;0.09928297;-0.04187029;0.096968554;0.096112914;-0.07311614;0.08353696;0.045472626;0.123809375;0.022290172;-0.04907519;-0.12464974;-0.13627285;0.09526496;0.09837817;0.08276583;-0.12016278;0.10165469;-0.024027666;-0.050755844;-0.06514856;0.06377466;-0.05991909;0.07139931;-0.04792729;0.038750287;0.032490104;0.048786536;-0.012368188;-0.0046462845;-0.008604382;-0.06587086;-0.18685386;-0.046700843;0.11396195;0.0068958174;0.19448529;-0.023032768;-0.049881812;0.16740923;-0.01844231;-0.14171332;0.008960521;-0.035299726;0.08294478;-0.118017994;0.021608239;0.059819948;-0.102379024;-0.12636246;0.16887666;0.13137472;0.10225262;0.054793432;0.11093965;0.067715526;0.06108812;0.013052528;0.06661636;-0.06841672;-0.22435315;-0.052772395;-0.13171455;-0.013174099;0.064096704;0.06921081;-0.025825245;-0.20720194;-0.06483671;0.11879152;-0.09431302;0.1145223;-0.036699966;0.07048317;0.054974087;-0.13743195;-0.35451102;0.007887623;-0.11254542;-0.057301898;-0.10976728;-0.04073349;-0.113478154;0.118608594;0.081136644;-0.2129019;-0.11199497;0.062255923;-0.08597002;0.07230737;0.04056448;0.030460175;0.012680345;-0.06296083;0.03629055;-0.07936652;-1.7960101e-05;0.07187423;0.042436842;-0.052381072;-0.16377616;-0.042034518;-0.01175453;0.08166501;0.045035217;0.037648696;0.078791246;0.02425532;-0.039662257;0.15515542;-0.043584503;0.12397831;0.122731075;-0.06269483;0.10759451;-0.00349264;0.06171424;0.14645402;0.062488094;-0.091469646;-0.08152746;0.014570923;0.060575962;-0.11030823;-0.045612797;0.034395028;0.0074748844;0.12001444;0.029225385;0.09870921;0.14086746;0.2164708;0.016427828;-0.055682804;0.09852588;0.120227255;-0.0521116;-0.162061;-0.25619942;0.08123774;0.007124594;-0.19697604;0.24390124;0.06427756;0.26187304;0.14577931;0.000804453;-0.0037126187;-0.044992667;0.030894123;0.113814496;0.073078066;0.0716483;-0.018000768;0.057430573;0.10410066;-0.098809086;-0.026219497;-0.16037443;0.12878601;0.025081014;-0.060025822;-0.07365759;0.120211706;-0.08096775;0.06951937;-0.1523904;0.02249665;-0.05068703;-0.1752122;0.015587732;-0.02617623;-0.095550776;0.16868404;-0.002588841;-0.02243963;0.06550413;0.12516046;-0.12805675;0.06572409;0.18824676;0.2282387;0.26944292;0.004745574;-0.14566448;0.0017710685;-0.06316307;0.18906523;-0.23103665;-0.026727172;0.021315938;-0.1815887;-0.10104296;0.06137511;0.20677236;-0.15982386;-0.07267078;0.094168454;0.14334998;0.10476906;-0.07681886;-0.2287304;-0.16157101;0.06338918;-0.3149339;0.05114908;4.641095e-06;-0.16226698;-0.044444297;-0.021417726;-0.094987266;-0.02128557;-0.02172751;0.023221072;0.020989595;-0.08112602;0.040094122;-0.031147676;-0.034986116;0.0052256063;-0.010648754;-0.06039631;-0.018846387;-0.04805729;-0.04718924;0.14011057;-0.29505002;-0.07437081;-0.022636808;0.074419126;-0.022171538;0.17550896;0.019872282;-0.19322039;-0.09438405;0.032321498;0.046101104;-0.009995144;0.129508;-0.1322348;-0.1487771;-0.03165311;-0.18566117;0.06176274;0.06916545;-0.034137677;0.028286498;0.27313343;0.033472206;0.023589056;-0.024182271;-0.027447393;0.12975498;0.08122398;0.04442731;-0.09717733;0.08483422;-0.09220689;-0.10002199;0.04582034;0.087610684;-0.06589701;-0.017832423;-0.008435253;-0.14054053;-0.005697525;-0.009661811;0.09421859;-0.070455894;0.053790435;0.032489907;0.16293782;-0.03229472;-0.102177806;0.0016091195;0.038285423;-0.2501323;0.054585163;-0.07955779;0.012284592;-0.08933127;0.023477146;-0.048764654;0.08752023;0.0066538737;-0.05884794;0.05790817;0.08370942;-0.0019346954;-0.2261971;-0.13396077;0.06638747;-0.048233744;-0.1260299;-0.044562485;-0.102501765;0.075965375;0.18965714;-0.16320375;0.0346995;0.1435655;0.046300527;-0.09422044;0.027887914;-0.071727976;0.034288544;0.047202043;0.08334441;0.14411615;0.1299066;0.11697753;0.079868056;0.12541153;-0.13015819;-0.08223925;-0.17934681;0.04394649;0.012941184;0.07011773;0.023983015;-0.12171183;0.042958017;-0.058615666;-0.004445993;0.09324046;0.09582794;-0.094895154;0.061760575;-0.00868803;-0.014865995;0.07113354;-0.043433163;-0.019007174;0.15090318;0.088551074;-0.100013666;-0.078399144;0.004516648;0.16680321;0.038716182;-0.10961564;-0.058772713;0.129329;-0.07750775;-0.051152263;0.054633174;0.0074280216;0.009379208;-0.030340528;0.04683359;-0.08353687;0.21632804;0.10105744;0.026100274;0.058115225;-0.082384184;-0.0078671;-0.25694174;-0.06212621;0.08875508;-0.06518207;-0.094550505;-0.081794195;-0.058085874;-0.07140938;-0.12520182;0.06581628;-0.023907624;0.06971862;0.04371465;-0.034316223;0.056063816;0.013663458;0.013989167;-0.17543691;-0.14655542;-0.037114333;0.12693083;0.074148364;-0.10739936;-0.2058185;0.031702764;0.12592112;-0.21092454;0.14103727;0.11791659;0.10915162;0.12606408;0.11596298;-0.16418597;-0.20172435;-0.02603777;-0.06653486;0.19296464;0.0035355121;0.013585694;-0.07295619;-0.14634292
0.08864045;-0.061456677;-0.036664598;0.11182765;-0.01773503;0.16564764;-0.19855757;0.13672289;0.070987664;-0.20142817;0.059352353;-0.11628664;0.14109509;-0.121597745;-0.05397856;0.13383253;-0.02970682;-0.011647275;0.061016988;-0.027800094;-0.007595469;0.15716992;-0.0105435215;-0.021186855;-0.054413855;0.041368756;-0.010430129;-0.07029503;0.030127695;0.09154192;-0.05772382;-0.06602258;0.11441118;-0.06270748;0.25767142;-0.10844031;0.010017386;-0.057824157;0.12000449;0.056082714;0.1355357;-0.084174536;0.07266856;0.011037142;-0.07106712;0.049722545;-0.011534291;-0.059377912;0.089093305;0.10055345;0.025845842;0.08694544;-0.09393891;-0.0049708094;0.134163;-0.030824967;-0.007905086;0.16991723;-0.08644713;0.006032577;0.091331;-0.02316377;-0.16482602;0.054900665;-0.15804605;-0.033703364;0.024301795;-0.019978745;0.059663244;0.06534386;0.022941012;0.039943177;0.04955159;-0.038452383;0.02269772;-0.19606192;-0.06698672;0.012026744;0.012570845;-0.052356046;0.0026839129;0.03587836;0.009905853;0.15115449;0.0154806385;-0.049128175;0.069227405;-0.049259312;-0.16215713;0.051113475;-0.06328611;0.007961281;0.12725298;0.033806972;0.01229971;0.1428046;-0.00698075;0.14094916;-0.19290122;0.13592787;0.034123484;0.11047524;-0.009209347;0.10130825;-0.0029941106;-0.04228494;-0.0821675;0.116925955;0.050718352;0.2194899;-0.0007541831;-0.111490324;0.11153409;-0.15973334;0.021839965;-0.010575662;0.1633332;-0.019416306;-0.17864212;-0.013179641;-0.07794942;0.04121853;0.024309337;0.16701356;-0.08142287;0.009134846;-0.0077271014;-0.035646107;-0.035034675;0.11319931;-0.0021425427;-0.028062448;0.004363458;0.018365493;-0.04782052;0.2326325;0.105003625;-0.07253659;0.05537489;0.13335773;-0.05116271;0.22288369;0.027850907;0.033302143;-0.10691575;-0.136929;-0.21226099;0.07676216;0.107651666;-0.14315988;-0.111947075;0.13828722;-0.0019858612;0.04890326;-0.12127512;-0.13269301;0.17693096;-0.18580516;-0.1234279;0.10030191;-0.038550526;-0.052816074;0.15591404;0.068438165;0.014240158;-0.048326444;-0.13825566;0.08230311;-0.085966304;0.030289445;-0.09101808;0.07445336;0.03102294;0.088751376;0.004536969;-0.006563869;-0.079664566;0.07649528;0.094025716;0.18244758;-0.05471718;-0.016111812;0.12182935;-0.080466956;-0.058617707;-0.011201855;0.062038396;0.092665695;-0.023838473;-0.10489099;-0.124135934;0.20534562;0.09270088;0.0033533126;-0.13347036;0.084767886;-0.022371255;0.012565275;-0.09487775;0.068479165;0.03525173;0.10280992;-0.07192561;0.037733722;0.043081608;0.11188376;0.0019847213;0.027074333;0.067105725;-0.012363856;-0.18042408;0.05465112;0.094526894;-0.071988024;0.19772825;0.015738;0.0017948332;0.117207274;0.016687958;-0.22662205;-0.076852635;0.03561708;0.03235783;-0.043900296;0.12318152;0.12826501;-0.11969285;-0.09324531;0.1347982;0.011115159;0.013083562;0.016904349;0.095377766;-0.00076298695;0.010714283;0.054065354;-0.035263456;-0.0348907;-0.17447974;-0.08304476;-0.124652244;0.12871273;-0.07416883;-0.014868995;-0.05336916;-0.22136363;-0.16955258;0.2225931;-0.1335843;0.081488885;-0.17036483;0.1520711;0.14185023;-0.08893532;-0.30084428;0.010541259;0.059630524;-0.06634761;0.011110873;-0.059854515;-0.023787957;0.2199608;0.13669139;-0.07306156;-0.07632593;0.064960055;-0.14909884;0.09725068;0.087106645;-0.06917579;0.020497529;-0.18008344;0.030482061;-0.11798935;-0.04664808;0.12259075;0.16368088;0.10564189;0.03492345;-0.0022322836;0.06827575;0.016150812;-0.034155548;-0.04944985;-0.055620946;0.052678883;-0.10603002;0.11640807;-0.03984018;0.015724381;0.1447269;0.06391575;0.052820582;0.092837505;0.058587227;0.1407476;-0.04153931;-0.118469246;-0.045069534;-0.0013426484;0.041674353;-0.08927696;-0.07359508;0.0057581896;0.01311157;0.0984947;0.111872554;0.040912613;0.04572897;0.11332994;0.15252365;0.037540607;0.11734278;0.15593386;-0.08597278;-0.06388071;-0.22454189;0.14602347;0.014964154;-0.16039558;0.2837162;0.06617732;0.25273278;0.08151425;-0.074941315;-0.07503051;-0.035013717;0.061736647;0.23956005;0.010309287;-0.021399068;-0.040674288;0.05018718;0.09749338;-0.10001965;0.032293763;-0.16418837;-0.016500816;0.08314156;0.0144734485;-0.01905193;0.16025673;-0.16025437;0.019781176;-0.124617085;0.17107408;-0.0047269627;-0.21692894;-0.103733234;-0.044805937;-0.044493712;0.020083452;0.11346173;0.011241869;0.121787824;0.07035895;-0.03772338;-0.011191182;0.15227436;0.20820668;0.18356015;0.049399454;-0.0040607788;0.008012048;-0.04132598;0.15095586;-0.23151709;0.09144451;0.053157367;-0.13710986;-0.17775686;0.10179681;0.12249596;-0.16130084;-0.03613184;0.11448946;0.19691359;0.04917645;0.042748976;-0.22059931;-0.14149426;-0.031684164;-0.2973359;0.099653155;0.030467061;-0.2105506;0.0063184113;0.08982624;-0.05371694;-0.14268175;-0.0733594;0.029035557;0.019949859;-0.04722408;0.13484453;-0.05965123;0.013567005;-0.07744007;0.013719514;0.010567523;-0.0048318617;-0.077028394;-0.08638742;0.008844946;-0.34506238;-0.10332363;-0.1699043;0.08827567;-0.031771384;0.07078854;-0.039651655;-0.03159464;-0.07850524;-0.05249083;0.02213395;0.15245773;0.12473939;-0.114244916;-0.2555819;0.1043942;-0.18268347;0.04849055;0.06961084;-0.05381866;0.074758805;0.18523467;0.053330787;-0.03138198;-0.027391467;-0.017605826;0.08817821;0.108583555;-0.06860506;-0.017156681;0.087059826;-0.02501273;-0.010131378;0.007984076;-0.03710366;-0.10716834;-0.040679537;-0.026161563;-0.23234147;0.13094604;-0.08363922;0.07964402;-0.09881543;0.0059892517;0.06478673;0.0034144847;-0.023873543;-0.13371345;0.0647732;0.10562173;-0.20281923;-0.018394765;-0.11981832;0.029979676;-0.06691292;-0.04055583;-0.14740756;0.076485075;-0.04766446;-0.05207024;0.06772181;0.044321314;0.10238188;-0.23395735;0.014851645;0.057876088;0.07076297;-0.021718122;-0.009668591;-0.07217226;0.062188238;0.16325313;-0.17885035;0.028063951;0.21509524;0.041388974;-0.14341117;0.053849507;-0.116460025;-0.04475138;0.011130046;-0.055478107;0.011010542;0.070529416;0.15691909;0.103621274;-0.0088824155;-0.118701816;-0.05780355;-0.12680596;0.19118223;-0.02827926;0.21666612;0.012744193;-0.08846209;-0.030117804;-0.051348608;-0.008438302;0.15796275;0.11750611;-0.15382321;0.0062777656;0.087440714;0.066588804;0.0805204;0.010968837;-0.04740412;0.09525999;0.02713693;-0.08418578;-0.16436376;0.04424822;0.16656755;0.0027635728;-0.048422087;-0.065734036;0.103780136;-0.037410345;-0.06950695;0.14400053;-0.10669111;-0.063900396;0.040372424;0.15760426;-0.110067494;0.13343963;-0.0014731075;0.06669328;0.056401048;-0.1638017;-0.06277057;-0.1192721;0.03423265;0.062725455;-0.15260246;-0.22508852;-0.05798341;-0.011058104;0.03864914;-0.081532195;0.13524546;0.05135825;0.014401664;0.004411231;0.004805626;0.121040046;-0.0133542195;-0.042639926;-0.26019236;-0.03644505;-0.06019261;0.108294964;0.039107118;-0.06993629;-0.3061843;0.008190249;0.054591984;-0.19720596;0.1479454;0.13792585;0.11924313;0.02343206;0.017796205;-0.14163834;-0.19452111;0.042523313;-0.08561219;0.27144733;-0.075292505;-0.07625847;0.0025086126;-0.08733793
0.17739213;-0.05570589;0.024937607;0.13726048;-0.10077078;0.0118537145;-0.2560296;0.09312072;-0.006739474;-0.2186868;0.064073384;-0.010792441;0.19157375;-0.05917134;-0.065313384;0.14724956;0.0954704;0.039700955;0.04270307;-0.07412249;-0.11466619;0.18228818;-0.15737496;0.008505698;-0.086050294;-0.04715029;-0.020205446;-0.10951542;0.120203406;-0.059666127;-0.17648254;-0.10249733;0.048821237;-0.061131604;0.22911684;-0.072597876;0.015890189;0.05221994;0.025472915;-0.08706587;0.084187075;-0.086722225;-0.0061315987;0.1824845;0.030521933;-0.043046348;0.013698854;-0.061654;0.10836163;-0.0022556507;0.103904136;0.09453415;-0.033250786;0.028820207;0.09672248;-0.11440799;0.1620993;0.17861368;-0.051282216;0.014091461;0.0051735346;-0.008761996;-0.09121159;0.033946004;-0.18591027;0.0048899907;0.021912418;-0.003588292;-0.04877999;0.06541403;-0.103575476;0.014371214;0.13890254;0.00709873;-0.0017862171;-0.117133476;-0.041306816;0.08805243;-0.019288067;-0.15945145;0.14890261;-0.045162708;-0.047170885;0.083608024;0.03795196;0.02474093;0.012206925;-0.028051328;-0.107705854;-0.11628202;-0.090688854;0.052203655;-0.0032581394;0.002057862;-0.04058075;0.052732162;0.04223523;0.008741847;-0.18605705;0.09084567;0.020660745;0.12773536;-0.021903373;0.13750996;0.06988189;-0.048458133;-0.017430803;0.14790975;0.01668033;0.045800235;0.118334256;-0.05874501;-0.026226321;-0.056701884;-0.016683524;-0.14872186;0.15070333;0.06665985;-0.14493851;-0.038189813;-0.019560708;0.17015211;-0.045336287;0.18260916;0.008220962;0.016143901;-0.14417998;-0.12391945;0.018627467;0.08864384;-0.036071494;0.10596866;-0.032134615;0.09849512;-0.14565213;0.19558929;-0.016538741;0.005717958;0.16632517;0.12086186;-0.014724326;0.22468728;-0.084959924;0.087365195;-0.23449033;-0.0493473;-0.16797882;0.12739755;0.053091146;-0.16907194;-0.0822863;0.08784829;-0.118187346;0.12640637;-0.101257525;-0.0720938;0.09524351;-0.107134685;-0.17751728;0.20177497;-0.010214382;0.0383096;0.13320902;-0.027111247;0.04679123;-0.11664138;0.013475874;0.19175513;0.014810143;0.07275523;-0.072478056;-0.04852841;-0.0549377;0.102532335;0.12511697;0.03264956;-0.02713315;0.14903657;0.14126088;0.064246684;-0.18096653;0.035426926;0.090829015;-0.010163754;-0.05442533;0.0111852735;0.10236704;0.021124259;-0.01500322;-0.10569212;-0.014307284;0.1980558;0.08621944;0.117185645;-0.19300176;0.074159324;-0.1137805;0.042624317;-0.063202456;-0.053162098;-0.077660695;0.047065154;-0.13965108;0.14514573;0.09735424;0.11596409;-0.013442815;0.09757713;-0.05115196;-0.014402034;-0.081682086;0.03568577;0.02021851;0.037049;0.2513781;0.03322694;-0.06766725;0.20265609;-0.033687796;-0.15238564;0.037285276;-0.069391415;-0.03400418;0.016894413;0.09078012;0.08654326;-0.021745542;-0.11937213;0.027287576;0.052161872;0.08040439;0.04507902;0.027902938;0.076971084;-0.002628981;-0.049246486;-0.098124616;-0.2018269;-0.13158882;0.008976069;-0.16230476;0.11866812;0.020309525;0.013340482;-0.031717476;-0.15094493;-0.13457882;0.2526082;-0.12024786;0.13528277;-0.07032854;0.15531887;0.066392116;-0.040851947;-0.29186052;-0.026705831;-0.07482644;-0.004631243;-0.0049650627;0.004356715;-0.10313899;0.21858858;0.096106224;-0.12104984;0.00018130708;0.057615884;-0.14761192;0.11618201;-0.020741928;-0.0986312;0.0028623631;-0.20807002;0.058604825;-0.07489292;0.012173106;0.063210495;0.15270771;0.039678518;-0.0774838;-0.12177609;0.06290342;0.062560864;0.11114294;-0.08145889;0.03703005;0.09831061;-0.084788874;0.12543644;0.02008929;0.045467287;0.057625614;-0.07739324;0.08500291;-0.0036222031;-0.06410228;0.1875958;-0.016195016;-0.04921902;-0.099139936;0.0004988629;0.08333482;-0.18881854;-0.142618;-0.14348812;0.060440745;0.108155765;-0.036327448;-0.029003948;0.110039525;0.07406436;0.07087764;-0.03745489;-0.028354835;0.019088797;0.0031668239;-0.07788386;-0.13804808;0.121160455;-0.013073137;-0.11057516;0.16142622;0.03551683;0.24434857;0.14368199;0.006985029;-0.036443345;-0.034779005;0.031564694;0.2199026;0.01338586;0.040306654;-0.011007484;0.03965045;0.1616082;-0.06260637;-0.006918067;-0.21098047;0.026916876;0.06040572;-0.082514055;0.058399335;0.2383658;-0.099516824;0.0069882954;-0.01242423;0.14893681;-0.0035307822;-0.1759541;0.018540729;-0.056871608;0.034794036;0.010568524;0.03074777;0.056280002;0.16684265;-0.016881322;-0.07745832;0.007035385;0.06303175;0.065991975;0.13558637;-0.023697736;-0.14288442;0.04737033;-0.09868702;0.09003307;-0.105176024;-0.043715905;0.10868487;-0.14648014;-0.14296085;0.04266382;0.13617009;-0.2483797;0.025526762;0.23379873;0.172406;0.14826022;-0.012044455;-0.06470247;-0.12973619;0.08813243;-0.1923758;0.08391514;0.005602686;-0.16746125;-0.082565576;0.085790604;-0.10363557;-0.06661827;-0.046370007;0.061754957;0.1467274;-0.12408736;0.14336394;-0.01957973;-0.018427685;-0.04627687;-0.040872283;-0.003710693;-0.11708039;-0.09028509;0.055937517;0.02957951;-0.29239202;-0.042388216;-0.084078684;0.22155207;0.0039604614;0.15147501;-0.023531286;-0.1030077;-0.099263094;0.062863454;0.0022209166;0.19749658;0.013435361;-0.1673737;-0.26264137;0.09315725;-0.16228223;-0.024617225;-0.14718336;0.11191291;0.14419721;0.1428111;-0.020196188;0.11376842;0.005335417;-0.035913453;0.08712945;0.16324228;0.09184031;-0.083158806;0.05276064;-0.07565188;-0.021817196;0.059084117;0.017517496;-0.14289379;0.010542904;0.01732699;-0.20336339;0.09955092;-0.0025827924;0.076355875;-0.095623344;0.122704305;-0.01760389;0.027757285;0.0698934;-0.22218241;0.051882543;0.0487583;-0.17669234;0.10269552;-0.0031967093;0.02196099;0.039711185;-0.034383763;-0.12304336;0.0066975285;0.041593358;-0.045720674;0.063171215;-0.01990379;-0.045880985;-0.21393377;-0.12185949;0.024249006;-0.01571047;-0.13893852;-0.009866005;-0.124276;0.16368808;0.15438662;-0.12572145;0.07215212;0.16056794;0.1471507;-0.1296514;0.09152799;-0.07509319;0.084142774;0.032015286;0.0049557528;0.073860146;0.06392393;0.18226609;-0.07154118;0.088452674;-0.25469974;-0.08893685;-0.051798094;0.18462606;-0.030788124;0.24361245;-0.027958509;-0.22140975;0.044630896;-0.14736055;0.12572561;0.1452855;0.10184062;-0.08677293;0.015451365;0.10715945;0.042336617;-0.047918692;0.073737174;-0.048988864;0.11013185;0.15786013;-0.13014466;-0.17211322;-0.024062496;0.19076402;0.017851183;-0.09953887;-0.046430584;0.116516;-0.11398361;-0.04947826;0.2189447;-0.12977442;-0.14607456;-0.07541205;0.18674485;-0.041174315;0.16732502;-0.01465932;0.12048054;0.18227266;-0.041871108;0.022160705;-0.08837521;-0.07612617;-0.0014943267;-0.0018779923;-0.19854112;-0.108817175;-0.06154015;-0.078930676;-0.13150376;0.144203;0.06131404;0.13616255;0.05080722;-0.054087985;0.1023772;0.009826207;0.05053689;-0.099088944;-0.118290044;-0.08885744;0.13516343;0.14544402;-0.1298466;-0.23108174;-0.011465027;-0.01865905;-0.17289917;0.12285053;0.21700522;0.15628387;0.08405116;0.019994432;-0.037495855;-0.21411201;-0.020489093;-0.098213986;0.32779634;-0.123137645;0.018081058;-0.08622036;-0.18991567
0.19988124;-0.078159705;0.06571817;0.042351555;-0.0612854;0.19473398;-0.111232065;0.02860828;0.053683586;-0.12513413;0.058746267;-0.06751951;0.1967255;-0.0911269;-0.12167092;0.0062302793;0.089242734;0.012042619;-0.013345015;0.03212885;-0.14007348;0.10217832;-0.1563067;-0.09027423;-0.13295661;0.032573335;-0.0076933;-0.17309564;-0.027553383;-0.00052695675;-0.09752599;-0.0060615637;0.010875899;-0.11738028;0.16424373;-0.06849024;-0.0019790153;0.013058016;-0.0038480936;-0.06395701;0.13210289;-0.055221513;0.15512244;0.10533606;0.046008587;0.043478347;0.0030119321;-0.013400385;0.09699212;0.10158636;0.09752919;0.20854296;-0.13969591;0.01590011;0.1396035;-0.1142072;0.056158736;0.13672596;0.030745653;0.0669703;-0.018693287;-0.11766258;-0.089163005;0.064215444;-0.1834433;-2.1574682e-05;-0.05819344;0.10513477;0.05557235;0.10743995;-0.041372854;0.084877685;0.10858505;-0.025764277;0.10985981;-0.0646853;0.015456326;0.043514144;0.09115474;0.045386434;-0.05914067;-0.046683066;-0.047890715;-0.0015001989;0.070989005;-0.080637045;0.01574532;0.10342352;-0.048267577;0.046630826;0.028842561;0.035861954;0.14759864;-0.04379453;-0.06600334;0.011135714;0.07910168;0.042344444;-0.087307125;0.10738091;-0.075632945;0.06328304;0.116503865;0.016257618;0.07903928;0.06573022;-0.16162649;0.03534587;-0.07435522;0.073486924;0.11270145;-0.035207186;0.05109385;-0.05216401;-0.080241956;-0.16602492;0.048803605;0.06975301;-0.023205759;-0.060720664;-0.037068315;0.01791884;0.035174426;0.14123823;-0.07059638;0.11524037;-0.13161987;-0.07446784;-0.08636118;0.038525913;0.013742995;0.065410085;-0.010644228;-0.004354015;-0.1992837;0.14399044;0.031005943;-0.19424696;0.12305669;-0.027784113;0.020021789;0.22005312;-0.1389948;0.07294214;-0.2427419;0.051346797;-0.08983232;0.105411805;0.1226227;-0.029808113;-0.040891565;0.03583675;-0.12425535;0.010670042;-0.13509183;-0.20330691;0.1224504;-0.18467014;-0.06897412;0.082055025;-0.026958842;-0.032056294;0.06099352;-0.06495743;-0.03216641;0.0110111125;-0.096167125;0.16472885;0.027631123;-0.03293422;0.06767116;-0.03070921;0.008365087;0.062260732;-0.0003665663;-0.117742345;-0.027203958;0.118452884;0.003936377;0.052965663;-0.1770796;-0.069941655;0.087512255;-0.11615285;-0.088370994;-0.038625725;0.053892557;-0.011903766;-0.06938378;0.07279246;-0.05955608;0.15904057;0.19620351;0.12764798;-0.2079716;0.14334829;-0.11978597;0.007582878;-0.11873702;-0.08240517;-0.11174699;0.07108726;-0.09812423;0.01705086;0.011785578;-0.018098341;-0.01988024;0.092113644;0.040227674;-0.039791595;-0.1184752;-0.009953498;-0.052152853;-0.06665831;0.16395052;-0.0008523873;-0.041185293;0.11383336;-0.08436532;-0.098778844;-0.0038456994;-0.08011888;-0.025095696;-0.054170705;0.10716224;0.031128405;-0.10907245;-0.06128339;0.051098377;-0.0015554979;0.15776718;0.08643322;0.020986002;0.09915444;0.01952731;0.11136573;-0.04081154;-0.16450734;-0.1670391;-0.030239167;-0.18066336;0.12842931;-0.07828813;0.021250073;-0.06915451;-0.14651532;-0.07560168;0.118314244;-0.04256359;0.043533113;-0.19078377;0.17226833;-0.024036119;-0.019892395;-0.1828219;-0.12935004;-0.051699586;0.0015079571;-0.009036578;0.0063070413;-0.029320728;0.18043104;0.15183678;-0.09833337;-0.04462051;0.04329589;-0.047745764;0.05889771;0.073030695;-0.16539487;-0.03720398;-0.0793384;0.057796262;-0.13477781;-0.03832477;0.12936914;0.104125656;0.117287286;-0.11437337;-0.13766068;0.08476821;0.07772782;0.0862982;-0.03360183;0.02629302;-0.05982341;-0.046731304;0.32456696;0.0072429096;0.13833746;0.05126435;0.074394606;0.06595163;0.063673005;0.025307652;0.062148027;0.08254763;-0.026168838;-0.056466457;-0.06737613;0.015118981;-0.24931678;-0.11151767;-0.1018988;-0.07093525;0.0879433;0.10775998;-0.026065437;0.066124596;0.15151483;0.030424459;0.055213623;0.024172083;0.07838355;0.024763213;-0.20511594;-0.21693404;0.053531937;0.07566951;-0.071561284;0.21582374;0.106066;0.28951055;0.08101557;0.0031451099;0.018347627;0.021755809;0.028931938;0.20065929;0.0032555822;-0.02987002;0.030676777;0.10851385;0.0018811423;0.038628824;0.02625744;-0.18993065;0.08000537;0.08482211;-0.008498993;0.05885975;0.20141578;0.032846134;0.0014847385;0.009568162;0.022973824;-0.0010474952;-0.06013011;0.03844684;0.054661714;-0.0077622007;0.06550144;0.014534618;0.08966083;0.1083929;0.012936093;-0.05114607;0.106488466;0.14056276;0.16110525;0.11202607;0.016252365;0.0025843042;0.06824142;-0.13335691;0.017215185;-0.13553713;0.1138008;0.008866844;-0.17260727;-0.15239134;0.1405856;0.15500547;-0.17134154;0.057289775;0.117529534;0.2698099;0.085925415;0.052917667;-0.13754928;-0.15928036;-0.04051581;-0.2455428;0.14899793;-0.100852765;-0.19459498;-0.060604144;-0.0104632545;-0.18665557;0.0074725314;0.022530518;-0.010110813;0.040119193;-0.06717175;0.14595285;-0.06748172;-0.08816068;0.0015355777;-0.0018615512;-0.067306176;0.0045859474;-0.11431306;0.06025871;0.0050223353;-0.32376432;-0.10717811;0.0149730295;0.10773281;-0.055323005;0.13770668;-0.007583271;-0.05008405;-0.050333742;0.067554645;0.09476281;0.011188517;0.15369488;-0.18999466;-0.30412453;0.064861074;-0.10848743;-0.0810514;-0.08739333;-0.018833563;0.09289669;0.24468063;0.043674387;-0.019579202;0.06200348;0.07365695;0.056269;0.047060728;0.034126267;0.011400831;0.07596748;0.04287415;0.0077768704;0.12363962;0.04641125;0.004510096;-0.035356894;-0.019071147;-0.090550594;0.07020652;0.06345754;0.08754578;-0.00960309;0.04215526;0.04844034;0.08113968;-0.05474834;-0.11143045;0.13093688;0.03112128;-0.10647614;0.15496598;0.0048406054;0.09591503;-0.07484502;-0.02291803;-0.12526037;0.026065253;0.07791124;0.015471957;0.011714315;0.035137687;-0.035450302;-0.26169938;-0.015151411;0.09694549;0.025875458;-0.086689875;-0.0598133;-0.064345874;0.12496444;0.1820992;-0.07990648;0.032309264;0.07912138;0.18933423;-0.13763134;0.039743207;-0.10669731;0.05149012;0.02507422;-0.00145344;-0.07067307;0.08610828;0.1183811;0.02967686;0.016279096;-0.26652932;-0.033115692;-0.2118847;0.052925564;0.01901403;0.19270389;-0.07251896;-0.09783696;0.052731074;-0.23248065;0.070599124;0.12123136;0.19759648;-0.08171366;0.08720576;0.14888604;0.03632248;0.0126341395;-0.11023979;-0.04308846;-0.023977673;0.07032527;-0.14020996;-0.059783354;-0.03207471;0.18958482;0.0026472611;-0.06147936;0.034736566;0.09765056;0.0033870828;-0.068895735;0.21577466;-0.06275073;-0.06809789;-0.07292532;0.033626597;-0.07047524;0.21115483;-0.040477525;0.1522748;0.18630959;-0.087389246;-0.021719277;-0.16798681;-0.03652369;0.13402447;-0.010523928;-0.19026753;-0.14102414;-0.0152399475;-0.015280037;-0.07070682;-0.009442009;0.06927014;0.09855854;-0.043889966;-0.0017833834;0.15108074;0.02419603;0.06856444;-0.12438522;-0.08073876;-0.0047520017;0.12767674;0.021911805;-0.0060516996;-0.13620405;0.036249828;0.044502325;-0.14869617;0.10114334;0.22422583;0.18765244;-0.004104395;0.12225714;-0.018514594;-0.11942723;0.013225098;-0.06459777;0.29177052;-0.10518749;0.075284354;0.030446302;-0.07157482
0.124161884;-0.0883551;0.02916442;0.005222037;-0.008154504;0.032602068;-0.20839809;0.112968065;-0.06967802;-0.25766316;0.08557676;-0.118880376;0.045259837;-0.11306055;-0.066963814;0.12901598;0.060944833;0.06992665;-0.010479402;-0.03137981;-0.03724392;0.20856136;-0.065528125;0.045062568;-0.09967372;-0.008222392;-0.043508653;-0.052211747;0.1171327;-0.08881985;-0.07958648;-0.09730515;0.12433913;-0.2085332;0.1274773;-0.0075718025;-0.11405727;0.02084283;0.034207396;-0.12455863;0.15729919;-0.007141248;0.12521327;0.08876673;-0.055512317;-0.048980985;0.03023409;0.028120501;0.066719346;0.14665169;0.061136413;0.18444808;-0.07160017;-0.0051407632;0.0529287;-0.18797408;0.12086062;0.25805694;-0.0074194516;0.07756013;0.019126533;-0.1013956;-0.0653131;0.11558947;-0.19087023;-0.0780715;0.028377244;0.08191549;0.0010829688;0.16410264;0.046383575;0.076909095;0.15642075;-0.11836225;0.11132561;-0.18207611;-0.030935984;0.13666646;0.122563995;-0.060929097;0.044775896;0.09691469;-0.09892289;0.107671924;0.16486177;-0.013560691;-0.011008812;0.069122896;-0.104125895;-0.039798457;0.121617794;0.06428179;0.044271417;0.06267583;-0.0018743165;0.19600724;0.02553817;0.090851694;-0.101038575;0.1485296;-0.08032092;0.06865289;0.09794036;0.074058466;0.09852691;0.03314556;-0.038535915;0.08390607;0.09774374;0.14349334;-0.00031430123;-0.13027965;0.06580523;-0.1565981;-0.053020652;-0.13226531;0.14273146;0.0155791445;-0.0969437;0.07842015;-0.025431367;0.07962695;0.07018256;0.10590239;0.07676205;0.11401641;-0.12176552;-0.20481667;-0.077972;-0.124515966;-0.073897935;-0.005602465;-0.104336545;-0.014287607;-0.17468786;0.15333539;0.08706331;-0.13282222;0.10636329;0.08611196;0.17994425;0.2061156;-0.117883906;0.030052828;-0.14794758;-0.023746554;-0.047590535;0.101054996;-0.030743223;-0.026491992;-0.11090703;0.06898275;-0.20582697;0.089910164;-0.2876434;-0.17322674;0.12984315;-0.14447613;-0.15949318;0.08977588;0.028875066;-0.09420386;0.08687178;0.010474244;0.06293825;-0.10020816;0.007528259;0.082285956;-0.03346799;0.043898616;0.042506136;-0.04302878;0.10199005;0.10521222;0.15047628;-0.10184414;-0.07809353;0.0999478;0.078389764;0.061995365;-0.16850224;-0.07154208;0.13158187;-0.01357716;-0.12883052;-0.009466219;0.050443225;0.026579022;-0.21515372;0.049562123;-0.098400496;0.13908337;0.12735964;0.036213744;-0.16259867;0.12253045;-0.052447435;-0.023921445;-0.07820109;0.017302735;-0.06720385;0.026541047;-0.11513158;0.09638075;0.04074383;0.10000206;-0.09805553;0.022059081;0.007537327;-0.04689059;-0.17521985;0.0033473102;0.06172793;-0.113664374;0.24474058;0.01363859;-0.032501444;0.2545837;-0.020963058;-0.01499113;0.043611806;-0.14423035;0.02226731;0.025836762;0.084314644;-0.026960047;-0.076585986;-0.12792926;0.015867522;0.10202505;0.15675461;0.10385288;0.13141888;-0.021301234;0.114952266;-0.028868359;-0.09451786;-0.15208519;-0.20545237;0.08781876;-0.19205528;0.017184434;-0.05401219;0.05873544;-0.048788127;-0.042151354;-0.07505672;0.14507107;0.0695704;-0.017753147;-0.09877779;0.18099943;0.07351836;-0.13074188;-0.28028953;-0.11710859;-0.12193487;-0.025185648;-0.052863464;-0.041730367;-0.112094715;0.17404027;0.018081103;-0.080531836;-0.041735213;0.0005702501;-0.17774741;0.12390724;0.09454037;-0.21017139;-0.031341117;-0.19240977;-0.03377533;-0.056446783;0.029404812;-0.04356055;0.06479245;0.16301572;-0.14801234;-0.082264975;0.11408377;0.123338215;-0.010969493;-0.13452755;0.026162634;0.14115661;-0.1294285;0.30313906;-0.053976096;0.07425207;0.10070583;-0.06929647;0.17669219;-0.023025235;-0.12465701;0.07092472;0.057263378;-0.088897675;-0.038943008;0.022914778;0.09902596;-0.3012545;-0.07840635;-0.04952614;-0.063484944;0.079184815;-0.024328312;0.08703575;0.21953052;0.025233401;-0.04347118;0.08436026;0.07624272;-0.0013833395;-0.015468193;-0.08054583;-0.25826797;0.029954027;0.05118334;-0.087154545;0.18970114;0.07459013;0.17366631;0.23893915;-0.082369335;0.08056981;0.054937303;0.1145337;0.18782729;0.084765874;0.06998749;-0.067085035;-0.012384458;0.118536025;-0.09663115;0.010301275;-0.09161207;0.16576429;-0.0162978;-0.024820223;0.07247151;0.22231716;0.010130861;-0.017754968;-0.06781147;0.12418948;-0.063887335;-0.18519929;0.002758558;-0.07719842;-0.0739809;0.058401495;-0.014942394;0.09958572;0.056694243;0.009906562;0.06148795;-0.05312329;0.1300372;0.10575299;0.08186043;-0.021567782;-0.1481036;-0.039231885;-0.056546967;0.12119806;-0.054453284;0.05816977;0.082555905;-0.12736496;-0.06179219;0.07393205;0.078186035;-0.14711717;0.038771674;0.18471839;0.24233127;0.10501531;-0.102823034;-0.14391866;-0.2258608;0.017320953;-0.25080383;0.11100406;-0.19616811;-0.11688322;0.0049295835;0.02076006;-0.16707435;0.0034599544;0.07551087;0.08646296;0.054691218;-0.025259774;0.18254615;-0.08660686;-0.050533354;-0.1096735;0.103866614;0.0487405;0.03286167;-0.0970388;0.090802394;0.033817746;-0.18859072;-0.001127677;-0.13508627;0.069574594;0.054959193;0.033087768;-0.033114932;-0.117867604;0.012068351;-0.035791874;0.035910197;0.14768845;0.110768676;-0.12205974;-0.16489893;0.0097162;-0.13946745;-0.08678615;-0.082683325;0.08884314;0.10065213;0.19819212;0.07489981;0.066594005;-0.062139627;-0.063633636;-0.053828612;0.22210492;0.06221935;0.06760823;0.09552758;-0.02700186;0.018057398;0.028192574;0.03369611;-0.14173079;0.068905964;0.005490382;-0.19341084;0.060672086;0.008756713;0.11823767;-0.07535092;0.037648633;-0.08612921;0.09007759;0.026108634;-0.24280167;0.15200491;0.11824785;-0.053536333;0.14961965;0.039371498;0.19196688;-0.10785235;-0.1324428;-0.16176935;0.07011923;-0.026347209;0.010084104;-0.03433974;0.11681902;-0.01709343;-0.28172094;0.07142561;-0.023575492;-0.0026922668;-0.13960336;0.013252698;-0.06917193;0.08366462;0.19957447;-0.27422336;0.040675234;0.1257809;0.18006933;-0.108739205;-0.063531145;-0.016400343;0.04814433;0.15279527;0.009820341;0.046561632;0.007792088;0.12346891;0.050679058;0.08165774;-0.38312352;0.0011440993;-0.08405799;0.08900874;-0.06317849;0.070529915;-0.043779958;-0.096175574;-0.043617345;-0.120388;0.15454884;0.037735607;0.15765503;-0.210946;0.078340136;0.1340444;0.06158725;0.07522336;0.0038693317;0.030906126;0.013929001;0.0024936362;-0.13220645;-0.09280196;-0.08130653;0.16097131;0.098721385;-0.21655804;0.060289934;0.23129165;-0.004818513;0.032536276;0.20414737;-0.08406115;-0.1222071;-0.07351341;0.10786798;-0.07924145;0.11552805;0.011288155;0.0066202027;0.14042978;-0.07709475;0.12533087;-0.24995644;0.0034809273;0.2078918;-0.06715717;-0.2099323;-0.17832527;0.05897002;-0.15558237;0.096698456;-0.04502704;0.030795664;0.058228485;-0.12866981;0.09437466;0.17741603;-0.09780801;0.13803494;-0.107166514;0.00024849776;-0.17697084;0.14734258;0.0026306086;-0.102545865;-0.175052;-0.09998101;0.11457322;-0.1470816;0.0899937;0.18326855;0.05183666;0.050806154;0.08041161;-0.05697774;-0.14524938;-0.011616376;-0.15702397;0.35174507;-0.13971364;0.070667386;-0.07867218;-0.13583204
0.096196204;-0.08596088;0.023093639;0.04181083;0.054963525;0.18905383;-0.15406625;0.004332264;0.07416605;-0.19594932;0.06218933;-0.055401135;0.073189326;-0.14955518;-0.10235881;0.12938999;-0.036396608;0.10160395;0.03669632;0.12821266;-0.05036506;0.11383606;-0.17566511;-0.09855512;-0.19265567;0.076579645;-0.010828035;-0.10606648;0.13839988;-0.0678275;-0.08072073;0.02803372;0.025590008;-0.14375986;0.29233003;-0.005300396;0.009327859;-0.045906793;0.11570857;-0.11369743;0.18073712;-0.15813081;0.030075347;0.20587473;0.024755932;-0.04521882;-0.042383116;-0.11085458;0.11133992;0.03729197;-0.050560154;0.092075296;-0.13412681;0.12329288;0.18977119;-0.08983198;0.18254222;0.07479101;0.108999245;0.09274234;-0.108730316;0.0043224255;0.030265419;0.14389785;-0.20679483;-0.12090208;-0.07360631;-0.0019227393;0.015405021;0.17200924;0.07813107;-0.040873148;0.12143684;-0.0448233;0.103026554;-0.019738982;-0.10820549;0.11480154;0.09185096;-0.007419411;0.056391615;-0.0598968;0.004724747;0.052099776;0.09214668;0.0032998584;0.0018581674;-0.052125223;-0.003596428;-0.02797424;0.108136564;0.061240707;0.12272131;0.09641169;-0.03408444;0.20249358;-0.052053984;0.1467804;-0.06492452;0.1064826;-0.13215451;0.12567739;-0.059210695;0.048421107;0.024557779;0.18255699;-0.11387315;0.22246954;-0.02677588;0.1970373;0.06300084;-0.06756934;0.0764944;-0.13857149;0.034261115;-0.20103705;0.12600343;0.052103017;-0.12018617;0.10572977;-0.059736542;-0.011431485;0.108682334;0.10735625;0.0062476364;0.16093989;-0.23567185;-0.14157161;-0.06889927;-0.11233314;-0.13994637;0.11393503;-0.13086866;-0.07098339;-0.2576501;0.206704;0.07942952;-0.16728985;0.09775967;-0.029151512;0.20870587;0.1640228;-0.052859988;0.07170845;-0.18511793;-0.0074715917;-0.04033531;-0.052298065;0.121981174;-0.13560615;0.050650954;-0.03955355;-0.07929406;0.034041286;-0.21370046;-0.06427413;0.16271617;-0.105656795;-0.1340261;0.1647879;-0.043941516;-0.05844169;0.14982298;0.027997088;-0.056040663;-0.15124452;-0.011259562;0.20475344;-0.0190026;0.029073637;0.11309874;0.0037938873;0.07776593;0.093409404;0.15688439;-0.14717187;0.02245931;0.10903503;0.15542251;0.14523703;-0.026762858;-0.10920945;0.059089772;-0.12577866;-0.06288882;-0.09184108;0.019478612;0.018928878;-0.17896435;0.007429405;-0.054702073;0.15628383;0.23247524;0.10212552;-0.033532254;0.21065556;0.023162648;-0.06569841;-0.036649987;-0.1340774;-0.17225914;0.03430113;-0.1489118;0.17063269;0.039395764;0.06222852;-0.20770632;-0.0029306384;0.034223698;-0.027162349;-0.027354544;0.126275;0.08647035;-0.04591492;0.22906435;0.0122401565;-0.08605719;0.17092763;-0.01989142;-0.0976114;0.1197895;-0.006720651;-0.0038967726;0.009039204;-0.022659782;0.06979781;-0.013123028;-0.13052335;-0.0035147453;0.0024359967;0.114769734;0.1803392;-0.0446558;-0.03682978;-0.07150088;-0.016138855;0.011320712;-0.28483745;-0.05162166;0.07730159;-0.27721527;-0.0140255345;-0.14578192;0.09070376;0.068201035;0.008060557;-0.041348524;0.23453146;0.041800328;0.1076041;-0.12747514;0.10491594;-0.00061918795;-0.119591825;-0.2119008;-0.049688656;-0.018964961;-0.046029434;-0.070165604;0.09793732;0.028655564;0.26439783;0.0053041996;-0.2500264;-0.12736607;-0.02559541;-0.19452903;0.05597092;0.14097498;-0.15485844;-0.046460144;-0.20995103;0.0429078;-0.125565;0.103747785;0.11900782;0.15308279;0.11331718;-0.113231;-0.11053441;0.10511836;0.11230456;0.011336491;-0.10032972;0.08588726;0.030957786;-0.14802176;0.3212662;0.041499197;0.10156799;-0.009908242;-0.00398691;0.20838852;0.0396566;-0.050248876;0.19312903;0.058223203;-0.070836514;-0.033122808;-0.030607637;0.16141133;-0.20407091;-0.13939948;-0.07429126;0.026016783;0.17326942;0.048467956;-0.09653908;0.20081347;0.15096149;-0.14643194;0.10449469;0.00040428052;0.025513675;-0.010110639;-0.13718538;-0.20038366;0.20129621;0.14731342;-0.15749574;0.06968294;0.08936199;0.14642529;0.22402854;0.060661647;-0.05726204;0.10229774;-0.070935935;0.23610288;0.009381769;0.13130324;0.07344099;0.10041456;-0.049228214;-0.1514654;-0.023911089;-0.20677087;0.0954876;-0.032060236;0.01435954;0.06163136;0.1258874;0.1098978;0.011104986;-0.06827557;0.17235905;0.07409995;0.010809574;-0.04708298;0.03313803;-0.03866783;0.10755386;-0.019912433;0.055755846;0.07701479;0.023309836;0.10594959;0.068240575;0.04963386;0.13235366;0.15209906;0.1542447;-0.14099546;0.018851178;-0.11823074;0.07214157;-0.07666395;0.058384538;0.12968062;-0.074996926;-0.041298006;0.020741563;0.14688955;-0.20058419;-0.10485945;0.12834117;0.1587981;0.11709734;-0.14431404;-0.14036;-0.1938685;0.09363316;-0.20943628;0.056922805;-0.13674682;-0.17635931;-0.09433873;-0.088860296;-0.16087024;0.033577282;-0.07215443;0.009297591;0.017565714;-0.16311005;0.14746125;-0.024891531;-0.044153042;-0.12067571;0.089061834;-0.0015611516;-0.03532761;-0.099008046;0.057560403;-0.053397827;-0.27451047;-0.17434083;-0.15250349;0.23870204;-0.04844839;0.14442195;0.09608186;-0.032791756;-0.10276798;-0.13328166;0.12021512;0.16614701;0.11770981;-0.31057355;-0.2240217;0.027662853;-0.003099532;-0.1314215;-0.17023672;0.07117725;0.06635918;0.23499212;0.09385538;0.09250022;0.020582208;-0.03871363;0.036013544;0.19526312;0.039910633;0.055490084;0.011708115;-0.103771396;0.051328473;0.1862396;0.06707386;0.0034880843;0.047159348;0.009774457;-0.17160793;0.00037717607;0.05546541;0.008089713;-0.16518362;-0.040271796;0.06674573;-0.037773695;0.0093682725;-0.23486571;0.03363247;0.14899985;-0.14794739;-0.02180622;-0.14942229;0.22357528;-0.13215251;-0.013661433;-0.27090108;0.07754015;-0.051425096;-0.10195622;0.0028137278;0.11829446;0.012153147;-0.2676852;0.13268259;-0.048179932;0.07635909;-0.09371496;-0.048757285;-0.12228357;-0.076584265;0.2596089;-0.31345546;0.06533878;0.22918053;0.16349304;-0.08877334;-0.029365543;-0.01857399;-0.06954673;0.016357522;-0.027596189;0.0518944;0.045011036;0.10905749;0.041157108;0.102250285;-0.39493355;-0.08377249;-0.14452457;0.13752218;0.02352924;0.061743595;-0.09501864;-0.08052059;0.048009034;-0.13298994;0.21103826;0.051862225;0.20772031;-0.17352921;-0.0010373471;0.0904484;-0.094820455;0.058388125;0.023254387;0.009342923;0.08428057;0.10769186;-0.041049074;-0.17931454;-0.037333626;0.13860853;0.13902064;-0.20415303;-0.0646718;0.18208846;-0.07711063;0.04198633;0.2204301;-0.1601903;-0.050110757;-0.061112724;0.076323785;-0.13880642;0.16617753;0.047815;0.06735411;0.038719594;-0.024203168;-0.003685082;-0.26714587;-0.11904755;0.15137199;0.08128918;-0.11776955;-0.051889602;0.03423902;-0.042641908;0.09358367;-0.046810545;0.029657714;0.07639335;-0.08729812;0.17484507;0.10718846;-0.06802127;0.19813403;-0.035306655;-0.053980034;-0.095320106;0.052327305;0.038064588;0.008757237;-0.06526231;0.054902114;0.019940121;-0.11599319;0.13959539;0.22357412;0.10716002;0.057654344;0.25180423;-0.1332173;-0.084775366;-0.013818411;-0.01181782;0.22787498;-0.088619664;-0.0006362012;-0.07010621;-0.08624434
0.08955464;-0.10877875;-0.0029537661;-0.01786624;0.027830232;0.15373877;-0.09786697;-0.039806943;0.04740248;-0.21768369;0.07674301;0.07522356;0.18930277;-0.110269845;-0.18549728;0.070927665;0.0014347765;-0.146115;-0.0928247;0.07800814;0.03634719;0.15441377;-0.008997816;-0.010589928;-0.0070073977;-0.10900906;-0.07217264;-0.04647;0.0026952114;-0.028567143;-0.076384716;0.013238367;0.14291263;-0.20272799;0.18088293;0.041466255;0.05881048;0.027734423;0.03636184;-0.1726408;0.14342985;-0.2201348;0.019108368;0.1838831;-0.048298463;-0.03177242;0.046382923;-0.035779323;0.1452159;0.1382765;0.08842956;0.14740774;-0.25927562;0.022176906;0.11613863;-0.07613267;0.17964981;0.09199031;0.10939231;0.013774967;-0.074750625;-0.124824196;0.00043430628;0.041707646;-0.19060127;-0.046328813;-0.050485943;-0.014161751;0.011890693;0.07697354;-0.0788704;0.051339354;0.20187205;-0.060903233;0.13785765;-0.012714837;-0.15253307;0.09639149;0.01128346;0.053673975;0.04351454;0.0054738233;0.06790592;-0.04465741;0.020865032;-0.06509898;0.116894886;0.034943033;0.03575669;-0.0048706755;0.13781472;0.027504645;0.11563431;-0.0075442526;-0.123670064;0.10221721;0.00046285498;0.08551105;-0.21157582;0.20632946;-0.115152046;0.12945026;0.07070607;0.052844997;0.18759365;0.115854464;-0.069989145;0.03211274;0.06738887;0.20074642;-0.011696135;-0.18636064;0.00526929;-0.12533681;-0.08062365;-0.11735062;0.12273006;-0.09137858;-0.023715392;-0.02249919;0.0050556296;-0.05955358;-0.01949345;0.09443536;0.05053298;0.043211237;-0.119485475;-0.07777701;0.035955217;-0.0030574335;-0.17337646;0.1894658;-0.18291096;-0.025935024;-0.16135883;0.10534837;0.18500787;-0.11584928;0.057323;-0.16086824;0.0064955135;0.18113083;0.09642188;0.11400445;-0.11499715;0.004414623;-0.0440651;0.068797916;0.02772586;-0.008677726;0.03198261;-0.05017183;-0.12898463;0.008907622;-0.31066507;-0.21791053;0.0711724;-0.24894772;-0.05162249;0.15918554;-0.113623805;-0.013053734;0.17009309;0.02267854;-0.005024936;-0.08341026;-0.04061069;0.020701634;-0.080341704;0.051424738;0.12370351;0.035452515;0.029293912;0.038075775;0.10005223;-0.10645353;0.014968725;0.26631236;-0.017999165;0.17576906;-0.18701494;0.08415917;0.081858866;-0.068241544;-0.07998562;-0.18690284;0.1520553;-0.0030072588;-0.10472325;0.046263054;-0.034425776;0.015618846;0.08536706;0.13400958;-0.04439329;0.14283936;-0.023255968;0.07557817;-0.0690711;-0.040925402;-0.054335065;-0.053955063;-0.0459267;0.15336135;-0.058335148;0.11543014;-0.1621544;0.02865185;0.051666774;-0.05385139;-0.15783994;0.0125971185;0.13250434;0.07098894;0.1270521;-0.04632313;0.04667365;0.16647592;0.06801593;-0.13862696;0.028022248;0.03155489;0.070903294;-0.14380884;0.0523091;-0.09144899;-0.10725807;-0.08743541;0.11881318;-0.06327625;0.02231732;0.14417319;0.023409516;0.0071103205;0.11468702;0.11455796;-0.00905563;-0.16859221;-0.22543092;-0.078691654;-0.13396567;0.0298304;-0.14387752;0.011165079;0.035542164;-0.1234132;-0.046468202;0.14251705;0.13275114;-0.023004403;-0.12139161;0.18917729;0.07652163;-0.08003979;-0.18994795;-0.07221472;-0.13496724;0.04006656;0.024330592;0.09561126;-0.10115552;0.25605273;-0.03876217;-0.09331026;0.028346455;-0.07876529;-0.15098125;0.01681431;0.061226696;-0.04920163;-0.019304458;-0.078474335;0.07021178;0.013702643;0.08752362;0.052051887;0.065179504;0.18125643;-0.1553607;-0.20389254;-0.13016205;0.045269348;-0.02918177;-0.07338011;0.004865607;0.13212506;-0.08558822;0.22048628;-0.054220498;0.17989841;0.041776232;-0.008610075;0.15216805;0.08840482;0.06185249;0.1388272;0.0677023;-0.0015155536;-0.051241096;-0.11406536;0.12651093;-0.31017458;-0.13666688;0.03537835;0.030563502;-0.020379614;-0.021463979;0.10958291;0.20953918;0.2030918;0.017696805;0.038659822;0.10222831;0.06727561;-0.0187177;-0.089379266;-0.123294905;0.1749748;0.10703927;-0.13035458;0.08211945;0.041475113;0.21102855;0.14194326;0.051124495;-0.07224718;0.017578479;-0.006063516;0.23041761;0.03180108;-0.07845995;0.029367479;0.07890487;0.073757164;-0.032736044;-0.007051242;-0.18536466;0.028058544;-0.160116;-0.06550866;0.11432968;0.13207184;0.00045090233;0.021931298;-0.14606851;0.19644843;0.01593307;-0.112105966;-0.0081823915;0.0546284;0.029144734;0.14627075;0.015778905;0.09113084;0.0684015;-0.003877716;0.00096712034;-0.017857023;0.0574264;0.13272864;-0.027193107;0.019228274;-0.021650713;-0.0045223357;-0.18255113;0.06771533;-0.16627912;-0.032178525;0.20248449;-0.17541505;-0.052501816;-0.011101592;0.033652704;-0.12523045;-0.035823952;0.09763728;0.045223504;0.1328148;0.03626668;-0.18386483;-0.211501;-0.1756307;-0.21379869;0.124961324;-0.063344255;-0.19263932;-0.2004283;0.053127512;-0.08354242;-0.065051846;0.01824282;-0.013518716;0.1449912;-0.10380237;0.020582005;0.07968331;-0.0016229785;-0.052113093;0.028116899;0.026426602;0.0140169505;-0.031197315;0.040686406;-0.05329064;-0.28334284;-0.21131782;-0.16002172;0.22653477;0.047511037;0.15813762;0.039239295;-0.0013394457;-0.06211183;0.013932523;0.12406666;0.15211682;0.00899607;-0.16805214;-0.39088696;0.069193736;-0.054204427;-0.15847903;-0.08474004;0.080100544;-0.076834194;0.24924862;0.15425724;0.04033018;0.0024071722;0.06458041;-0.1422368;0.22776191;-0.0068781376;0.0137282275;0.17460388;-0.036512874;0.08681073;0.041285813;0.09819873;-0.065001935;-0.018810488;-0.0056510232;-0.0999889;-0.0010687667;0.05956203;-0.025111001;-0.27203456;-0.07641692;0.14302099;0.053052735;-0.032846138;-0.058490828;0.11631625;0.115632854;-0.1213768;0.04154468;-0.080326095;0.047727738;-0.10430873;-0.061750162;-0.17697817;0.096619785;0.04447537;-0.13119738;0.06578057;-0.07401224;-0.1826447;-0.15352964;0.061529066;0.08073491;0.066128395;0.0451133;-0.020685567;-0.15275212;-0.059801698;0.16339204;-0.16110721;-0.058232516;0.06401428;0.055689275;-0.049434297;-0.023068508;-0.007209834;-0.010292529;0.015343787;0.094921045;0.032203745;0.1853091;0.1259227;-0.027228197;0.051538285;-0.383296;-0.1035985;-0.08787349;0.094807275;-0.014659784;0.0395032;0.01951991;-0.12374403;0.022299843;-0.21047191;0.25843704;0.0045679067;0.2381519;-0.12913148;0.11523646;0.039585825;-0.02889707;0.13857313;-0.098847516;-0.104428746;0.06149644;0.14479841;0.016537637;-0.31063983;0.073593885;0.22389789;0.049479906;-0.2244928;-0.07918641;0.27263474;-0.018384675;-0.087418094;0.1461863;-0.08821886;-0.046243917;0.0054988414;0.118233435;0.016534032;0.25075078;0.02459692;-0.040065646;0.18953727;-0.13598207;-0.0033049264;-0.0772738;0.037483703;0.11731557;-0.014778476;-0.19741867;-0.04133132;-0.07426394;0.07205601;0.10744617;0.12658978;0.056779;0.07873127;-0.13332504;0.09164558;0.11048054;-0.07022976;0.10346649;-0.06758897;-0.091205046;-0.12094364;0.08118894;0.085910745;-0.04672831;-0.16044682;0.018509045;0.11039668;0.025566746;0.051378578;0.042049628;0.15648165;0.030965263;0.23614144;-0.0115291765;-0.06980654;0.06257658;-0.026577594;0.24093226;-0.022946445;0.04814118;-0.034428824;0.023117684
-0.03292959;-0.06431473;0.12253314;-0.023713488;0.033059314;0.1456507;-0.10014871;0.1055901;0.022268381;-0.24621737;-0.027260134;0.01977951;0.041442215;-0.036805537;-0.1934115;0.078282475;-0.0804221;-0.09017726;-0.0477209;0.13512012;0.026424421;0.113680124;-0.070170864;0.029197982;-0.15161185;0.044328943;-0.096361324;-0.049079098;0.0021910926;-0.06218112;-0.1357858;0.0006883656;0.028772147;-0.09482843;0.29189155;0.01951704;0.02777241;-0.03356804;0.05705927;-0.18380569;0.07772031;-0.20509395;0.023390856;0.042602018;0.07281245;-0.003261704;-0.09171127;-0.013179482;0.098443;0.17728417;-0.025181698;0.017807042;-0.09036349;-0.03767077;0.12704624;-0.11682378;0.19324255;0.045696646;0.15985128;-0.08837637;-0.00377233;-0.10711597;0.18228132;0.043805588;-0.09708257;-0.014600283;-0.05245966;-0.009045229;-0.08660367;0.23643209;-0.015073729;-0.0024283377;0.11426526;-0.105789036;-0.014374465;-0.029427905;-0.13039604;0.1752325;0.062488258;0.014075089;-0.015862292;-0.0068491297;-0.0060174265;-0.01246855;0.016768513;0.045314495;-0.043367893;0.123639576;0.12001293;-0.03289221;-0.01861566;-0.028101474;0.06068084;0.07400095;-0.054792657;0.17547992;-0.010740841;0.0750864;-0.18755929;0.19161306;-0.011707964;0.033797603;0.030712262;0.08578985;0.06898353;0.11280926;-0.10121296;0.047191184;-0.09185824;0.16019666;0.09451362;-0.2041622;0.05778645;-0.16724333;-0.049456928;-0.10941289;0.09864527;0.0046938895;-0.15704389;-0.018141264;-0.09806428;-0.01201044;-0.01728301;0.119251065;-0.011591268;0.004201641;-0.14660016;-0.11175831;0.048865054;-0.108051635;-0.15788391;0.16945165;-0.17713651;0.006723204;-0.28061634;0.15369576;0.16931312;-0.08077781;0.104679234;0.015409164;-0.027166406;0.21832217;-0.05230391;0.11600409;-0.08683652;-0.0278722;-0.1035163;0.047993306;0.05394958;-0.07865935;0.05835469;-0.07407767;-0.1143007;-0.08829095;-0.31243405;-0.10742479;-0.019190459;-0.09004387;-0.14440405;0.16841269;0.046358064;-0.02785276;0.123906955;0.067844935;-0.07795481;-0.117950834;-0.09530043;0.05027677;-0.066865884;-0.031125538;0.1797061;0.016001085;0.13675407;0.058435097;0.11937531;-0.12674175;-0.011258346;0.15731104;0.07854192;0.06125536;-0.013511858;-0.10829262;0.08112129;-0.11523642;-0.02063974;-0.018462334;0.12414196;-0.058425438;-0.038937427;-0.015454605;-0.09468878;0.11646165;0.1624296;0.010824918;-0.10815359;0.113230415;0.07860213;0.011919005;0.07400974;-0.1754042;-0.1894528;-0.001882867;-0.21807252;0.11615122;-0.06801841;0.077754445;-0.1880106;-0.048952267;-0.042624295;-0.050037168;-0.020746663;-0.026287599;0.04436617;-0.0976688;0.12051914;-0.017404476;-0.008617707;0.12633187;0.07022352;-0.016587235;0.049122695;0.015781892;0.07449026;-0.14057004;-0.06359507;-0.013729207;-0.038425725;-0.2032404;-0.05221835;0.024282059;0.046256658;-0.0071702055;-0.038854215;0.07846522;-0.029290853;0.0036041776;0.079413556;-0.114562966;-0.24787335;0.061850213;-0.16995528;-0.08684251;-0.1587372;0.13684712;0.017746935;-0.046387654;-0.038309693;0.14882371;0.042265132;0.10146167;-0.03501012;0.24107423;0.025088828;-0.07511895;-0.091391034;-0.18176332;-0.13656266;-0.07731102;-0.1187391;0.14052232;-0.036870223;0.3215225;0.04443745;-0.2228197;-0.014358141;-0.07186458;-0.1618024;0.14006382;0.15488692;-0.07878442;0.017188286;-0.13843763;-0.054695226;-0.12245774;0.15405765;0.054407917;0.14214444;0.15428405;-0.1924345;-0.21221389;0.03619585;-0.02187379;0.05964035;-0.16779715;0.08120154;0.2057554;-0.07171548;0.118334144;0.003098265;0.1084006;0.056633733;0.040650386;0.063289076;-0.05515616;-0.08654556;0.09904444;0.11455409;-0.06793765;-0.13251904;-0.11647826;0.1490008;-0.21918291;-0.043857332;0.03591396;-0.10277578;-0.024984632;-0.006558423;0.00177402;0.15151414;0.122578636;-0.0077713006;0.01062208;0.04947498;-0.025612747;0.017536037;-0.0728883;-0.113394864;0.08266655;0.12655813;-0.08445511;0.21317576;0.0427261;0.14263247;0.25641054;-0.0075238813;-0.012042543;0.10311899;-0.016170694;0.18566437;0.07926231;0.11076898;0.020075727;0.08706348;-0.03603524;-0.05214686;-0.020032134;-0.16992106;0.096596576;0.04878159;0.06335509;0.103420965;0.23903018;0.0720426;-0.05335678;0.018765792;0.2735204;-0.11310598;-0.010974613;-0.008149516;0.0005558566;0.0017270856;0.08283291;-0.009245252;0.014961985;0.039384417;0.041775543;0.020840995;-0.08026715;0.14149348;0.2126915;0.015192868;-7.165913e-05;-0.073574714;-0.02228215;-0.029342212;-0.009754945;-0.17487095;-0.10458534;0.0019992155;-0.1004738;-0.036879804;0.09399878;0.15663181;-0.17014492;-0.058168896;0.18414183;0.015191944;0.19191207;-0.01815484;-0.14404278;-0.23554194;-0.03606405;-0.29149035;0.1909836;-0.060791004;-0.11984213;-0.059976663;-0.08973165;-0.07617998;0.048129972;-0.02784056;0.0511779;0.071886964;-0.15522228;0.1742845;0.050320562;0.04177485;-0.0903938;-0.035637345;-0.031452496;0.049009465;-0.13058923;-0.017023023;0.033821695;-0.18775275;-0.124401286;-0.08687101;0.28814444;0.15237059;0.23776944;0.11624723;-0.036404632;0.037866365;-0.08431478;0.11675159;0.19471063;-0.03312039;-0.17870344;-0.18347193;0.06455116;-0.08418001;-0.106324926;-0.040711466;-0.00699404;0.09816153;0.12705684;0.1705834;0.040651932;-0.019915832;0.06404106;-0.011897729;0.08798381;-0.019532645;-0.007836317;0.015222074;-0.014107294;-0.11031157;0.11363817;-0.0037632128;0.008490761;0.012045502;-0.02556647;-0.24241853;0.065888815;0.032877058;0.014829503;-0.14753786;-0.0843333;0.14476682;-0.00082206714;0.038079612;-0.19419655;0.06654369;0.16487195;-0.11287567;0.14715396;-0.17533599;0.08781759;-0.1739903;-0.043204114;-0.36627153;0.0029192572;-0.05523977;-0.15893883;0.0672371;-0.0008223555;-0.05983436;-0.10850302;-0.054354448;-0.0072314576;0.15512593;-0.02459593;-0.07258892;-0.06462938;0.09477291;0.27382165;-0.22505887;0.041836828;0.15615624;0.012983414;-0.022048792;0.06729863;-0.09286856;-0.043384638;0.02840469;-0.03980908;0.016114974;0.22226913;0.1215264;-0.06361734;0.14765538;-0.40430045;-0.12758078;-0.17807184;0.068054296;-0.03448344;0.20135073;-0.0065798936;-0.14553884;-0.033368163;-0.20024738;0.2182093;0.08073502;0.21204555;-0.13097568;0.074895665;0.09407705;-0.023054728;0.001961775;-0.014282987;-0.09273555;0.13342936;0.043216582;-0.1154822;-0.27217448;-0.054015182;0.29534268;0.034114134;-0.1175112;0.041505758;0.2268976;0.028747704;0.041912645;0.09909565;-0.23053959;-0.012756805;-0.09392517;0.1553566;-0.028027756;0.24741322;-0.035134118;0.059101567;0.19413348;-0.04765697;0.09895074;-0.1384977;-0.07512873;0.20044148;0.109503694;-0.11654402;-0.08054903;0.04787286;0.0008478692;0.0048132944;0.02506069;-0.0064577996;0.17173584;-0.017233312;0.24821147;0.22916822;-0.106335066;0.06932431;0.021884613;-0.019619908;-0.12759568;0.1079803;0.12515979;-0.016676404;-0.041381583;0.087318204;0.108475864;-0.053801324;0.18520962;0.08857438;0.06080525;0.114531584;0.25521797;-0.1390887;-0.0463968;0.010858338;-0.045291368;0.14691654;-0.049136247;0.051094577;-0.05524962;-0.10177709
0.12904601;-0.15683432;0.045029912;-0.05275184;0.13932408;0.120322466;-0.059341684;0.015661947;-0.005924999;-0.16507731;0.11195753;-0.077181384;0.043130964;-0.08983235;-0.23138727;0.03483774;0.022888403;-0.113123566;-0.11933814;0.06776228;-0.10539684;0.05357563;-0.18628581;-0.08131605;-0.09019048;-0.1095372;-0.004857998;-0.08155777;0.06606421;0.07598656;-0.12946294;0.010388245;0.15446581;-0.12228783;0.29555774;-0.009269492;0.021758862;-0.07168965;0.117165394;-0.2459827;0.022253951;-0.19260374;0.011503204;0.16543046;0.06446643;0.07049047;-0.017161421;-0.082795165;0.06267651;0.18145566;0.08885388;0.11028562;-0.21539481;0.02383801;0.15871225;-0.082147285;0.18905762;0.09004466;-0.020970792;0.052118413;-0.03461435;-0.14230837;0.10402931;0.1257235;-0.075134635;-0.033861477;0.055820536;0.080378935;-0.061649844;0.15811126;0.027325049;0.09818246;0.12306595;-0.019490425;0.14076513;0.039347097;-0.20006643;0.07968222;-0.004853554;-0.054022808;-0.03288959;-0.078998476;0.0783264;-0.015359966;0.14732404;-0.120900586;0.01388069;0.05001631;0.058159847;0.076865174;-0.0074068727;0.077515714;0.19730832;0.059055217;-0.04116989;-0.0025045266;-0.048831806;0.12602656;-0.2299703;0.14044972;0.025257569;0.07693991;0.1275792;0.056200977;0.076551676;0.26181254;-0.15203157;0.117493905;-0.017041309;0.21733472;0.057034284;-0.19854018;0.03748555;-0.13547166;0.055280786;-0.09897216;0.11775656;-0.052533623;-0.10929409;-0.014496646;-0.0021696275;0.18028203;-0.07876024;0.08415984;-0.058662;0.14488433;-0.13492745;-0.13677378;0.08197991;-0.06645833;-0.23649828;0.1422534;-0.043629043;-0.06302324;-0.035173047;0.14678895;0.21265529;-0.16917874;0.110162064;-0.026483318;-0.013847669;0.2627479;0.13173832;0.10661533;-0.12220739;-0.15152878;-0.11280416;-0.016963268;-0.008894545;-0.065107055;0.0869704;0.057202462;0.055635255;0.02072087;-0.27025503;-0.07766977;-0.06190553;-0.10114702;-0.12996364;0.13283364;0.043128848;0.03064827;-0.059338555;0.101287544;-0.02431917;-0.13801749;-0.062396258;0.14626244;-0.14039516;-0.055477966;0.11592911;0.008883979;0.16917227;0.12496186;0.042179003;-0.1066378;0.072035424;0.17001377;0.03450648;0.18413348;-0.19460979;0.0015077025;-0.018931651;-0.05595717;-0.13525726;-0.16411348;0.07952832;-0.018764498;-0.1735151;-0.029631102;-0.100749545;0.015453006;0.12851635;0.09227523;-0.18458928;0.12610136;0.035127223;0.09628463;-0.010339822;-0.15330751;-0.1804413;-0.05526168;-0.07159324;0.11062117;-0.09369052;0.051289774;-0.18107815;0.07738384;0.124398984;-0.045635585;0.03151152;0.043831985;0.13724758;0.07167228;0.22222194;0.09911984;-0.017997546;0.13985369;0.05623176;0.027579766;0.00616622;0.021956319;0.00500987;-0.17231147;0.01992237;-0.09201813;-0.06438678;-0.12651591;0.061217543;0.016057191;-0.010049353;0.101809114;-0.064713486;0.009961815;0.10067194;-0.049880795;0.06653052;-0.121157415;-0.16497096;0.12041129;-0.16270597;-0.07910901;0.02298934;0.027618738;-0.0059467447;0.028035872;0.038685367;0.21297686;0.006330446;0.153107;-0.1424445;0.051203202;0.059754446;-0.12848246;-0.23154855;-0.13529757;-0.06721554;0.014596315;0.056102898;0.040513277;-0.13710982;0.1793493;0.009288974;-0.04358264;-0.06623991;-0.055966027;-0.052415602;-0.03871187;0.12205106;-0.13469517;-0.09208065;-0.21813948;0.033325665;-0.012971569;0.08118876;0.17204127;0.040851347;0.1536468;-0.052623548;-0.09283984;-0.19762196;0.0009908515;-0.009182531;0.02805252;0.005895255;0.2037453;-0.06355587;0.23112331;-0.11347341;0.102045454;0.11738956;-0.016027436;0.0023372208;0.025116956;-0.043265186;0.05960605;0.1376195;0.0658884;-0.20206898;-0.06623913;0.077254586;-0.24278586;-0.081216976;0.014507187;-0.04335705;0.0024330486;0.14824437;0.008726655;0.16760533;0.11396694;0.004659104;0.050538324;-0.02604256;0.064779885;0.025920669;-0.12112784;-0.053987082;0.09108968;-0.009982139;0.008612126;0.24527977;0.13100591;0.16032884;0.1454701;0.014487145;0.029561609;-0.08313152;0.0053055845;0.11236888;0.121093445;-0.11548626;0.045928683;0.0071034175;0.04941789;-0.14522047;0.055610944;-0.12434291;-0.00050456385;-0.03169022;-0.095690496;-0.038491216;0.18673706;0.091696;0.02585672;-0.07118246;0.2647983;-0.022589644;-0.011199868;-0.012515643;0.025389388;-0.07656808;0.040316857;-0.051775802;-0.0013753762;0.023793621;0.10005892;0.08130531;-0.08252747;0.071763575;0.13493283;0.0040369607;-0.08876666;-0.050684333;-0.06901789;-0.14078838;0.07838407;-0.17412472;-0.065570295;0.06569014;-0.026595993;-0.094230026;0.011020233;0.08752202;-0.083971;0.013613334;0.07969567;-0.014614894;0.04074033;-0.046091776;-0.119418904;-0.2879273;-0.07547484;-0.18510178;0.05421256;-0.17866586;-0.14150523;-0.19502595;0.08772805;-0.051865477;-0.041822497;0.060371622;0.01889531;0.14667259;-0.03947461;0.13422544;-0.088489436;-0.05863909;-0.17293692;0.036893476;-0.0323473;0.005933396;-0.08562669;0.0038879549;-0.026984297;-0.17424986;-0.26547825;-0.02717566;0.18686934;0.030526554;0.118724816;0.04951952;0.003981809;0.013108605;-0.070590936;0.018900126;0.079493396;-0.041396115;-0.10228081;-0.35550082;0.13493074;0.017625608;-0.05731662;-0.14698762;0.077705204;-0.05449696;0.1652001;0.09036935;0.036823455;0.0033861857;0.05715736;-0.14534132;0.0838441;0.055835914;0.0852228;0.20688404;0.022732144;-0.02637591;0.031547677;0.046920624;-0.10102968;-0.11036322;0.07697937;-0.23109561;-0.023867669;-0.008417268;-0.015779715;-0.1980365;-0.06492829;0.13910148;0.035677947;0.028312182;-0.05516451;0.038927678;0.027075205;-0.13916048;0.19317824;-0.19867773;-0.03873527;-0.109785505;-0.06347632;-0.24297585;0.07785663;0.024136027;-0.16393976;0.076856814;-0.0737479;-0.21568117;-0.25670537;0.06815735;-0.12794586;0.15960991;-0.042583164;-0.052538794;-0.034163862;0.048662;0.2082133;-0.1288595;-0.020238945;0.18434809;0.119545914;-0.05275869;0.00089977134;-0.10286044;-0.04863072;-0.04359328;-0.044051528;0.0923315;0.21827526;0.15953435;0.031467225;0.070072904;-0.4350597;-0.15753399;-0.10017047;0.07565812;-0.19365855;0.21664564;-0.06687416;-0.0693131;-0.04450887;-0.17007734;0.17259598;0.23006676;0.11958015;-0.081642926;-0.057692725;0.14489943;0.06399291;-0.1054397;-0.027492648;-0.047366977;0.031248866;0.045715936;-0.078384526;-0.31644163;-0.06842078;0.24060497;0.026467115;-0.10776274;-0.01892247;0.2931483;-0.012802027;-0.11089471;0.14630984;-0.23033956;-0.10688903;0.0035939866;0.08136643;-0.050581284;0.13510442;-0.04107319;0.083613485;0.27444232;-0.061589632;0.10384004;-0.09584618;0.078749746;0.1265176;0.0073565836;-0.18161234;-0.089686684;-0.05514766;-0.019868964;-0.032483224;0.10272536;0.11808476;0.22937669;-0.038757887;0.13487159;0.26638782;-0.021566266;0.095332496;0.03656103;-0.12841287;-0.072457425;0.08634108;0.17602374;-0.034467317;0.011666167;0.15059914;0.025028009;-0.107775226;0.14189667;0.084801406;-0.027123047;-0.059760384;0.19249463;-0.11613908;-0.15202448;0.08585289;-0.11184833;0.25595507;-0.062802285;0.1623118;-0.098412916;-0.020412914
0.06052113;-0.0922606;0.05569421;0.0037100436;0.11002702;0.21925402;-0.096937895;0.08466137;0.029795118;-0.16933824;-0.0049333046;-0.010200431;0.06760895;-0.096578255;-0.095950946;0.017655082;-0.04626571;-0.026265534;-0.13689408;0.0026904207;-0.035709552;0.04428878;-0.07860747;-0.004272943;-0.044811685;0.049027797;-0.007726694;-0.08994268;0.062668554;0.088197626;0.03626593;0.06120939;0.07508253;-0.1370839;0.29279813;0.056051932;0.07007605;0.0103497505;-0.007808288;-0.1704995;0.11383894;-0.27926695;0.083323434;0.11639363;0.080336824;0.07330643;0.044189904;0.036625985;0.07523081;0.28599396;-0.038757525;0.14219913;-0.19579814;0.1443997;0.17387508;-0.08126341;0.11984996;0.09357599;0.08002305;0.021248389;0.028197203;-0.018242532;0.08912764;0.07792597;-0.0021876972;0.03299732;0.10333259;0.066329114;-0.02882294;0.07214841;-0.0809124;0.07777503;0.11831166;-0.04263074;-0.010387078;0.083662264;-0.16057189;-0.0067837597;-0.07275325;-0.003020232;-0.0581491;-0.15234938;0.020407757;-0.039381817;0.040362492;-0.039326593;-0.053390827;0.14297798;0.13605998;0.07022695;-0.062389333;-0.038977526;0.0555618;0.054124873;-0.13334604;0.046323538;-0.109555565;0.004454367;-0.2773113;0.15708263;-0.08390102;-0.014223055;-0.029076805;0.052905757;-0.000973993;0.11702915;-0.08914453;0.0011055317;0.050674763;0.09795813;0.008292802;-0.19383088;-0.030403024;0.031252477;0.028706621;-0.1317197;0.045332212;-0.1468687;-0.19634663;-0.10051838;-0.05684043;0.043766804;0.0029642025;-0.06219571;-0.061900392;0.11244127;-0.20124595;-0.19891511;0.092861176;-0.05317682;-0.24633683;0.1404304;-0.21251906;-0.013225709;-0.15726353;0.116066165;0.22904223;0.005591939;0.10914794;-0.05550362;-0.014870281;0.1374941;0.077360645;0.07755999;-0.17962223;0.019350186;-0.079909146;0.02767592;0.07674996;-0.08105274;-0.031840596;0.019060766;-0.036852524;-0.067288935;-0.34658495;-0.18598357;-0.052393652;-0.038338486;-0.13710874;0.12593102;0.16148296;0.018106654;-0.02611466;0.074773215;0.060766116;-0.15589562;-0.0537011;0.06479532;-0.12003123;0.022293929;0.20468533;-0.04613366;0.058371723;0.11074675;0.012866868;-0.05519057;0.023608403;0.10648728;-0.038000643;0.071881175;-0.13946952;-0.081244625;0.06178539;-0.089566074;-0.0093801925;-0.15538612;0.10853177;-0.12104323;-0.18936107;-0.15467814;-0.025710223;0.07250117;0.12899877;0.05431718;-0.084986195;0.034381904;0.0020602883;-0.02383352;0.09138865;-0.20966485;-0.1302767;0.08707796;-0.08831377;0.01174779;-0.04324531;-0.090647645;-0.15896456;-0.052950572;0.04219526;-0.016204644;-0.11027803;-0.0427872;0.106439985;-0.054117355;0.18427011;0.061163973;-0.02560939;0.22516663;0.002684872;0.0743154;0.038131606;-0.050877515;0.020579187;-0.2044808;0.024730135;-0.07761729;0.054685984;-0.08758139;-0.045471273;0.06355673;-0.02255132;-0.034181595;0.07439239;0.15810473;0.07442869;0.07242639;0.029933868;-0.05706054;-0.22545284;0.073377885;-0.19280766;-0.032225598;-0.182167;0.1297246;0.08181222;0.04836743;-0.040548082;0.13753049;0.15307248;0.20243788;-0.10187911;0.14837174;0.08873541;0.01114242;-0.141173;-0.10954206;-0.01782496;-0.058151446;0.05434511;0.07953627;-0.13190375;0.2833968;0.019387003;-0.099363744;-0.083765745;0.037670065;-0.06634486;0.14386034;0.04545306;-0.044455882;0.017828114;-0.16587846;-0.027520392;-0.026403943;0.11069975;0.14045878;0.034917507;0.14411975;-0.09906787;-0.22131293;-0.04769263;0.044911124;0.084506735;0.0079121385;-0.030366318;0.13366233;-0.020497983;0.2470962;-0.059092924;0.11576002;0.20083915;0.053642742;-0.00011245055;0.051904466;0.022299051;0.09748113;0.13266349;-0.032607887;-0.11367465;-0.07404033;0.049078047;-0.17336379;-0.17353456;0.08472141;-0.07224557;0.08268856;0.0805387;0.10541649;0.10583995;0.08713235;-0.047555353;0.030409439;0.050360434;0.07414217;0.059983958;-0.12568305;-0.17836525;0.0052455403;0.051423848;-0.10636465;0.13707757;0.082792364;0.13904135;0.26981422;-0.04725988;-0.088667475;0.09762787;-0.036944624;0.13699672;-0.019782973;0.08515563;-0.06786238;0.035409596;0.084877476;-0.10536545;0.07255907;-0.12210981;-0.09842307;-0.076880135;-0.009037386;0.013470929;0.17526652;0.060312912;0.021114321;0.055654034;0.3547048;-0.0024485842;0.021566901;-0.03813111;0.027479842;0.011107269;0.058679186;-0.0027617763;0.03721843;-0.04062634;0.19223869;0.005237266;-0.024824107;0.07483801;0.16497569;-0.02553747;-0.0034977244;-0.1567752;-0.12551731;-0.065653875;0.08734542;-0.1716408;-0.095238216;-0.036309533;-0.11171152;-0.061508194;0.12839206;0.13094881;-0.14515847;0.10252169;0.10725134;0.07850886;0.044563122;-0.0056607146;0.017550763;-0.16606514;-0.068484746;-0.21961817;0.120073065;-0.026668567;0.01305576;-0.11301794;-0.042250566;-0.1499448;0.033595543;0.03897606;-0.08299498;0.22885229;-0.051463902;0.06663113;0.04735624;-0.07743191;-0.2001674;0.082405;0.01837964;0.06665567;-0.10693967;0.091619566;0.12901242;-0.25573435;-0.23124368;-0.07312651;0.16219181;0.0252132;0.12543146;0.14938469;-0.15034622;0.13281022;-0.19864121;0.124181435;0.10460494;0.043117996;-0.24881658;-0.24816696;0.08086804;0.047894076;-0.104584835;-0.028899929;0.046587557;0.025030164;0.2690994;0.18547292;0.019214926;0.037948944;-0.024586605;-0.10468542;0.03131281;0.10489409;-0.0063061714;0.13147566;-0.020842908;-0.10669662;-0.0021476194;0.091537915;-0.021758229;0.022614025;-0.107731104;-0.25729463;-0.07589648;0.058306385;0.055832196;-0.057008505;0.037174292;0.10035048;0.07389742;0.027592493;-0.0110395895;0.038928717;0.02174963;-0.13687886;0.15694976;-0.096477434;0.05257549;-0.08005271;-0.021590453;-0.23981343;0.024558434;0.08724789;-0.15887715;-0.08696778;-0.061180256;-0.14973262;-0.25445008;0.0019952809;-0.0029573962;0.09115024;-0.06281259;0.10538703;-0.13062847;0.1350797;0.17482136;-0.28718856;0.04074706;0.16145886;0.052209217;0.054425433;0.11065972;-0.0041794125;-0.13823058;0.09893625;0.03084106;0.11916973;0.23786701;0.11459124;-0.004742078;0.05663596;-0.37633926;-0.08718763;-0.140855;0.008716468;-0.14950158;0.20382121;-0.08945746;-0.07736961;-0.024910808;-0.22208585;0.09087035;0.078622095;0.2096063;-0.11353525;0.056854066;0.04712799;-0.048007965;-0.06963723;0.041356854;-0.09684116;0.096944146;0.058055993;-0.12304838;-0.28693524;0.003564407;0.095275864;0.123434946;-0.17289853;-0.019595653;0.25698662;0.03724721;0.008536964;0.14657098;-0.11569141;0.03911938;-0.13715692;0.21974905;-0.12158847;0.19891416;-0.12702912;0.12210348;0.14321987;-0.14227542;0.120701164;-0.11247594;-0.03544554;0.19854681;0.033085506;-0.15480226;-0.11256358;0.03406544;0.012640938;-0.018077709;-0.02924666;-0.004148007;0.15878549;-0.04703641;0.270245;0.27412912;-0.073990315;0.04467868;-0.0665574;-0.21227181;-0.03580851;0.18281412;0.03504583;0.023335122;-0.030389898;0.1026451;0.09617719;-0.07889193;0.0018338609;0.036326516;0.039284978;0.047560465;0.23194654;0.01236747;-0.1983357;0.10325879;0.003943509;0.2010548;-0.077214085;0.17456639;-0.0036042067;-0.10093473
0.1085467;-0.04543642;0.061394814;0.012273067;-0.004811117;0.11825935;0.013283967;-0.036415562;-0.06636144;-0.033045407;0.030568792;-0.11604442;0.12010571;-0.14407691;-0.11751843;0.026948703;-0.10227231;-0.0845468;-0.03953043;0.0766441;0.030194808;0.11944285;-0.19505501;0.07885797;-0.022099607;-0.11942183;-0.00988569;-0.011126106;-0.02548973;-0.052047122;-0.04312887;-0.005922564;0.13388884;-0.08267357;0.3509078;0.13643359;0.16051464;-0.016645554;0.031742252;-0.10583506;0.042075727;-0.311991;-0.052950583;0.05890138;-0.009557696;-0.00375855;-0.029420935;0.011573651;0.06440712;0.3099577;0.11244137;0.061570786;-0.055360522;0.124583;0.20325208;-0.026770243;0.08939086;0.17633632;-0.023766158;0.055287212;0.03993621;-0.014144393;0.16448255;0.073800385;-0.05903193;0.04997252;0.10589828;0.0045622326;-0.1450903;0.13365817;-0.007988915;-0.029456144;0.13694875;-0.121447295;0.0036808832;0.06956712;-0.214853;-0.06925395;-0.12214828;-0.15537597;-0.084195286;-0.10751322;0.11478683;0.058017906;0.064198606;-0.14322166;-0.11685791;0.2243859;0.11016113;0.10917462;0.06508157;0.07263734;0.019585023;0.030584915;-0.05105619;-0.02270234;-0.106447585;0.09511015;-0.29982713;0.09078283;-0.012709009;0.09519005;0.0027424393;0.09065401;0.044416044;0.23628084;-0.18739775;-0.061340265;0.06176554;0.20963328;0.0844001;-0.15291755;0.028071504;0.022099476;0.07689852;-0.19928342;0.15888876;-0.031279445;-0.25212115;-0.028049618;-0.03858244;0.2147525;-0.11501218;-0.025274483;0.07719294;-0.036327537;-0.08889159;-0.1724199;0.16594625;-0.17773074;-0.19157365;0.10866465;-0.20649241;0.08080065;-0.074820764;0.22675428;0.2573761;0.065606125;-0.03838517;-0.12751675;-0.06764628;0.1501143;0.014278434;0.076860316;-0.06813906;-0.13804874;-0.06635635;0.11493226;0.0600931;-0.09333229;-0.024838643;-0.012936143;0.100653864;0.0034991927;-0.33681813;-0.12379923;-0.14864017;-0.05759498;-0.15782677;0.07328143;0.043079983;0.07902478;-0.042290036;0.056710277;0.06451344;-0.09690169;-0.16455393;0.16679527;-0.005580318;-0.03698756;0.2192959;0.07984179;0.12715535;0.14710793;0.026526576;-0.100436695;0.09122306;0.18142064;0.040033635;0.0019202813;-0.07677515;-0.16182882;0.03698397;0.04197628;-0.07363852;-0.030314911;0.14422166;-0.078306906;-0.18086936;-0.17185171;-0.017309338;0.05885007;0.11233501;-0.08728433;-0.16552985;-0.013903706;0.025534598;0.106899425;0.052551266;-0.22219962;-0.25343436;-0.007997866;0.055951014;0.00067495374;-0.10487493;-0.037895586;-0.26129028;-0.022291245;0.10234983;-0.046266917;-0.016547903;0.010535645;0.10543431;0.056406666;0.16125625;0.12885603;0.032453474;0.1314337;0.06383635;0.048006058;-0.021808034;0.012690629;0.095461234;-0.13374338;0.11505982;-0.01772625;0.08137392;-0.14192897;-0.01295656;0.010706508;-0.066040836;0.0101806745;0.09127329;0.20589545;0.025427775;0.10485717;0.053359903;-0.13731995;-0.1424892;0.09756904;-0.102315366;-0.15481834;-0.059638746;0.11181275;-0.055224452;-0.039811388;-0.0808782;0.15443374;0.15144168;0.07855675;-0.08654517;0.08247893;0.052131776;0.009667657;-0.10614318;-0.21664022;-0.10787705;0.1267434;-0.049512424;0.015284981;-0.105905026;0.29307827;0.07779027;-0.05084947;-0.055966385;0.043748792;-0.053580754;0.0013488153;0.057232514;-0.094822586;0.00365033;-0.1618717;-0.048569404;0.0652276;0.049606983;0.13410668;0.094495185;0.091082714;0.069696896;-0.20867097;-0.2108491;-0.050838903;0.033805486;-0.036209457;-0.096554406;0.16702664;0.06890394;0.1430321;-0.1266711;-0.015710698;0.15398394;0.030182688;-0.04407444;0.15529475;-0.01581467;0.030256942;0.059998203;0.018406259;-0.03428587;-0.050667323;0.17859341;-0.22629285;-0.138435;0.09437182;-0.07882673;0.04261124;0.07199543;0.06987365;0.083313316;0.13469706;-0.007874155;0.08981846;-0.059499435;0.026931968;0.026018124;-0.13959567;-0.044092674;0.15054484;0.021209376;0.034473646;0.24011321;0.13788407;0.12927908;0.34379688;-0.1135343;-0.11915885;0.043057077;0.019855939;0.11372589;0.11309494;-0.067647;0.028084764;0.02066418;0.021923425;-0.016486611;-0.046701528;-0.19299991;-0.027262026;0.01298699;-0.10428591;-0.019224068;0.15534607;0.027364638;-0.005257484;0.05758544;0.26955453;-0.13295062;0.043510526;0.06415894;-0.06307626;-0.08897482;0.084880844;-0.05904151;0.07529401;-0.025502417;0.14275433;-0.044816766;-0.028212983;0.26237518;0.15251234;-0.076554514;-0.116463564;-0.00014463303;-0.0017797883;-0.083066344;-0.002045206;-0.16034956;-0.090582;-0.038723726;-0.011894621;-0.051078454;0.10818168;0.084500775;-0.2078549;0.10342287;0.048991483;-0.02538395;0.13248129;-0.079907015;-0.043228533;-0.19911703;0.05587971;-0.17614937;0.07790078;-0.10495885;0.04494399;0.027336236;0.103544146;-0.017878983;0.13823815;-0.060682405;0.014203438;0.29494593;-0.061013583;-0.03775383;0.06379295;-0.09104791;-0.2584761;0.11903498;-0.0059049227;0.03869441;-0.010358968;0.058250178;0.075614594;-0.19287944;-0.2728502;-0.043445457;0.2436065;0.041181836;0.139136;0.101771556;-0.12470671;0.12292174;-0.1295162;0.0721788;0.14780681;-0.005979427;-0.19486037;-0.15121149;0.09352818;0.004308179;-0.0030034645;-0.07611478;0.056003097;0.1031909;0.10266721;0.12185766;0.07409189;0.0050011384;0.017063538;-0.08304579;0.013106719;0.100224145;0.057856433;0.09240898;-0.052275367;-0.13358375;-0.014033355;0.13140218;-0.16006888;0.044281438;0.04096038;-0.3766755;-0.04695537;0.047008913;-0.07758668;-0.08910583;-0.052599028;0.064447105;-0.037126813;0.049876794;-0.047869183;0.19214629;0.010083083;-0.22266503;0.110761784;-0.06778952;-0.017591897;-0.050039474;-0.04105102;-0.29981917;0.017846925;0.005647007;-0.016701505;0.063238755;-0.03695652;-0.20331165;-0.25056523;-0.0800923;-0.1822957;0.065625586;-0.0038114486;0.07291484;-0.06768989;0.27060956;0.16902952;-0.22004047;0.11855379;0.09028836;0.09057488;-0.07962378;0.059667207;-0.0117201805;-0.08406913;-0.013771626;0.13565606;0.07837295;0.32787016;0.25590295;0.057958573;0.012649181;-0.3212632;-0.13580254;-0.07373009;0.1564851;-0.12739623;0.10627778;0.005438057;-0.03951881;-0.1596233;-0.14250162;0.21086742;0.25472662;0.19051597;-0.1298776;-0.088903554;0.13122216;-0.039221633;-0.105538964;0.07438306;-0.09615579;0.027185969;-0.021765763;-0.1138168;-0.28050038;0.022385344;0.15432577;0.19887392;-0.040524203;-0.04070429;0.2419575;0.048864722;-0.10589863;0.14955093;-0.074375235;-0.084492736;-0.21008275;0.18315198;-0.05420911;0.27721587;-0.2511307;0.15006012;0.2536987;-0.1223121;0.16079073;0.033242475;0.058686662;0.19542792;-0.026916355;-0.21082892;0.108177446;-0.02359907;0.016186213;0.020482937;-0.018620774;0.1397116;0.35969752;-0.05471513;0.20493434;0.20381907;-0.07060575;0.035302766;0.025369627;-0.255624;0.08267247;0.18833004;0.19675526;-0.03988134;-0.0174697;0.19115414;0.016906718;-0.058204077;-0.0067366804;-0.020649914;0.0075889626;0.033075646;0.21160345;-0.045485664;-0.16975118;0.08446932;-0.0679417;0.08325615;0.080190204;0.29242432;-0.1443938;0.060313303
0.03550949;-0.13114046;0.14710486;-0.07831074;0.17473136;0.14655966;0.07535305;0.026053257;0.07652181;-0.05784146;-0.0025890449;-0.07911068;0.09979661;-0.023606263;-0.18272924;0.09357859;-0.05733758;-0.19968183;-0.10982332;0.030040564;0.01917809;0.11401863;-0.017223582;-0.009710955;-0.04494142;0.03576301;0.07038384;-0.13044302;0.0055698613;-0.071680635;0.037411254;0.050323106;-0.0049989563;-0.14534761;0.3609806;0.061846834;0.07535986;-0.07108632;0.024033645;-0.06635038;0.06656051;-0.26643175;-0.038396057;-0.10413925;0.04312029;0.03148456;-0.024440218;-0.009969908;0.1454058;0.33650908;-0.030002309;0.0024362975;-0.11470236;0.12032145;0.18382402;-0.119880244;0.13350786;0.15101898;-0.07397928;0.10704066;0.11537669;-0.009963211;0.19214803;0.10766265;-0.07674239;-0.07474874;0.08175039;-0.014936308;-0.09342824;0.06950881;-0.072745636;0.115159795;0.046138912;-0.042287786;0.010244444;0.10361613;-0.13829994;-0.076767296;0.014134621;-0.04512943;-0.076108076;-0.12582073;0.15099539;-0.015322723;0.007252535;-0.12094703;0.048710674;0.12539744;0.05442721;0.08797172;-0.05739439;-0.014669842;0.098220676;-0.091391616;0.04836395;-0.10451119;-0.14281216;0.049248315;-0.19662347;-0.05225252;0.0041455347;0.059339434;0.0066503044;0.0049718446;0.08148004;0.28634042;-0.19793892;-0.02222975;-8.770554e-06;0.16996531;-0.03854586;-0.047519956;0.08075864;-0.1005308;0.08663479;-0.22001158;0.004209284;-0.051482536;-0.22000176;0.059676364;-0.081253946;0.12537764;-0.048839204;-0.074940294;0.012920165;0.09260752;-0.191187;-0.14625151;0.17671876;-0.106517926;-0.07106775;0.061862756;-0.32074177;0.046242528;-0.15799646;0.14946209;0.20931406;0.017119315;-0.051573154;-0.105833285;-0.105507344;0.08893082;-0.022214849;0.057268035;-0.010424893;-0.059165504;-0.15164329;0.1732626;0.14312641;0.03779033;0.06284466;0.0304095;0.07762731;-0.054636;-0.37765676;-0.09021895;-0.08831553;-0.05770274;-0.06820833;0.059147116;0.14287338;0.057464983;0.018134085;0.19445492;-0.03345999;0.036755964;-0.16071671;0.031213919;0.021429235;0.08628341;0.31030676;0.099187404;-0.0016597761;0.014663009;0.09324169;-0.1722453;0.015116256;0.11152385;-0.04448894;0.03639;-0.08000508;-0.0652107;0.058628775;0.01795954;-0.14037456;-0.11524731;0.1547509;-0.040939428;-0.14282355;-0.073325664;0.06146441;-0.0583562;0.035971668;0.008056143;-0.1403579;0.05215147;0.06130376;0.025165694;0.06026038;-0.19928375;-0.24412091;0.1661277;-0.06348045;0.072984226;-0.005860598;-0.06559958;-0.21417247;-0.011492277;0.006529098;-0.016760383;-0.047761053;0.021913854;-0.011760283;0.044261508;0.13213979;0.019590892;-0.025846938;0.2021128;0.048163466;0.06336716;-0.19308025;0.043565616;-0.057844706;-0.24467199;0.052899968;-0.11178152;0.07851331;-0.22203258;0.020275734;0.06918593;0.032880723;-0.07300088;-0.070316605;0.09143642;-0.028583823;0.15672106;0.040445637;-0.070887454;-0.21146147;0.039973754;-0.099497154;-0.1593446;-0.08890423;0.12541002;0.046740457;-0.07973421;-0.02689515;0.052096132;0.098539434;0.16257548;0.046280373;0.074096166;-0.05129621;-0.110487804;0.049105763;-0.09156798;-0.17038105;0.07470329;-0.07740849;0.04577525;-0.12558027;0.24340819;0.13139676;-0.19199593;0.051030174;-0.028802281;-0.05130332;0.06989687;0.014739964;-0.04039071;0.0143786725;-0.22378677;-0.06409554;0.00022019737;0.18399118;0.12051612;0.044898756;0.104677714;0.0013348651;-0.09278071;-0.16818121;0.10499056;0.06599838;0.11343682;0.086679295;0.08808532;-0.06026137;0.15855072;-0.043086015;0.115799494;0.1854732;0.06509295;-0.04353123;0.0027246047;-0.045621205;-0.030301973;0.04989225;0.05405078;-0.025579128;-0.064100474;0.05260424;-0.24958032;-0.10694745;0.13450347;-0.12328778;-0.1439742;0.052504886;0.08274522;0.26296613;0.015697515;-0.011209746;0.12788999;0.008162011;-0.001048218;-0.0035764927;-0.112354435;-0.15319814;0.015878435;-0.051226936;-0.07875087;0.18319899;0.12953885;0.010268912;0.24646197;0.0066962317;0.013935627;0.07796671;-0.14840692;0.0032751665;0.013685695;-0.008903121;0.03781887;0.11424833;0.0295829;-0.09793394;0.074437484;-0.18891643;-0.009806297;-0.05068319;-0.056362797;0.012688901;0.08203973;0.10961483;-0.028950129;0.041909397;0.27251592;0.05478615;0.0025549247;0.046863858;0.034485944;-0.17266314;0.07962726;-0.014457207;0.04631415;-0.06557764;0.20717166;0.064342305;0.08030023;0.20081192;0.23279467;-0.08528855;0.013552607;-0.041036386;-0.1594731;-0.041405126;0.020149399;-0.233902;0.039701343;-0.011208141;-0.03057815;-0.031623635;-0.030388506;0.08404413;-0.19049376;0.048336737;0.2067675;-0.0858529;0.00023740559;-0.05395147;0.0839684;-0.17203608;0.007404723;-0.19572696;0.03436212;-0.017264232;0.019202134;-0.030767752;0.011367855;-0.025821405;0.15691435;0.047074623;-0.055393655;0.13900323;-0.06634563;-0.15538931;0.04499788;-0.030573023;-0.17158997;0.00059218094;-0.114603035;0.08616502;0.005684986;0.05383824;0.10152776;-0.29951775;-0.09633548;0.026382085;0.14448807;0.12590986;0.04484739;0.17920184;-0.10716173;0.077032804;-0.13668323;0.15700088;0.16169728;-0.044745393;-0.20190087;-0.2479088;0.107292205;0.06313067;-0.06904489;-0.098050125;0.10096396;0.071884915;0.10975176;0.13249832;-0.050614364;-0.12321988;0.075681;-0.15504186;-0.060622368;0.08598073;0.09334695;0.20241451;-0.031036887;-0.102666505;-0.044571623;0.12210823;-0.032850064;-0.03134567;-0.017222963;-0.20413251;-0.17740415;0.101557985;-0.036050446;-0.07687541;-0.049855374;0.051805664;0.1410487;0.05480747;0.008418971;0.19357431;-0.009520281;-0.13939512;0.11424102;-0.08544417;0.022326779;-0.23020805;0.04351349;-0.28596145;0.079447314;0.073894955;-0.06440288;-0.023888232;-0.07606085;-0.2791174;-0.060200408;0.006555998;0.004364107;0.13269709;0.037745725;0.058262568;-0.16360845;0.15447344;0.03874227;-0.18263787;0.096641086;0.0060864384;0.04991204;0.16386735;0.18038;0.101674855;-0.23240407;0.05343296;0.110987194;0.036885962;0.28583303;0.09089141;0.15093036;-0.032703865;-0.3188857;-0.17480588;0.049785543;0.016900027;-0.1829154;0.025566094;-0.052983306;0.0814339;-0.081933826;-0.0981557;0.035073757;0.16577998;0.16193262;-0.08575312;-0.002284574;0.083053425;0.026311645;-0.04653985;-0.12523092;-0.03482207;0.13720682;-0.041440267;-0.18821654;-0.27944404;-0.04960792;0.18743457;0.10018174;-0.08487927;0.02260661;0.21948838;0.17541513;-0.0032348086;0.21568179;-0.055729892;-0.030621015;-0.05689678;0.123398766;-0.012035684;0.13477726;-0.21518423;-0.038131453;0.15992558;-0.09462618;0.16470756;0.02709;0.039117508;0.18360054;-0.018291142;-0.096579455;-0.0007784728;-0.05520409;0.044652842;-0.031577554;0.019744989;0.07485997;0.34466222;-0.048354387;0.2256073;0.1528535;-0.096311696;0.13706999;0.006044273;-0.17766756;0.107255235;0.19390075;0.15450275;0.067941144;-0.023729203;0.10917942;0.014546487;-0.10173087;0.12180803;-0.06298333;0.021492068;0.112995125;0.20932926;-0.006726675;-0.12185379;0.039835196;0.020511473;0.18173344;-0.045029435;0.2725893;-0.07543906;0.099842295
-0.008065297;-0.08177011;0.21824697;-0.091882445;0.06719108;0.1562887;0.05713312;0.021526136;0.064743385;-0.107672624;0.067969285;-0.053354736;-0.0047123423;-0.036228433;-0.23238888;-0.0045740115;0.013462807;-0.16961251;-0.094187364;0.028935563;0.05296607;0.09242633;-0.03403366;0.08745124;-0.15432212;0.016053528;0.012057808;-0.037063558;0.089671806;0.041231915;-0.031301916;0.03851029;0.040520273;-0.21618706;0.26259664;0.040801514;0.036402807;-0.1579951;0.03217825;-0.01591915;0.06368931;-0.33706644;-0.12908038;-0.080947116;0.008610476;0.09267398;-0.043454878;-0.10547864;0.083490275;0.2496728;-0.014042388;0.10127363;-0.18196641;0.061288737;0.24071056;-0.08232658;0.0771344;0.0840255;0.06412195;0.008290254;0.035821725;0.02106955;0.14678515;0.095281325;0.043324705;0.018638268;-0.03417152;-0.0032661129;-0.037356168;0.17653921;-0.007015481;0.15647674;0.19254132;-0.03924044;-0.051544897;0.054128245;-0.20435266;0.09375746;-0.02930222;-0.15857707;-0.10078773;-0.2650018;0.13562763;0.13489413;0.03741978;-0.10381759;-0.11183416;0.06365406;0.15901412;0.10830636;0.029357588;-0.009988691;0.08393771;-0.021864975;0.046570033;-0.021905648;-0.02342104;0.056085642;-0.3436901;0.034909584;0.0013065332;-0.07649099;0.03929551;0.13747267;0.031199886;0.15849622;-0.17369533;-0.08700468;0.10648091;0.14012673;0.00331797;-0.10893793;0.07713248;-0.027131539;0.04574798;-0.19391577;0.10836843;-0.049198773;-0.12377846;-0.044268254;-0.085858636;0.13091384;-0.061416995;-0.024876993;-0.0068202484;-0.028295647;-0.078866504;-0.14799187;0.12713495;-0.13845645;-0.119138904;0.15176262;-0.18538323;0.013539999;-0.04671521;0.1986961;0.26653233;0.097837664;-0.04157053;-0.028294055;-0.2595169;0.1523966;0.11547885;0.13587387;-0.10500348;0.003117407;0.014108362;0.0038568203;0.075974956;-0.13653283;-0.06401742;0.10247469;0.05911882;-0.05038967;-0.2740022;-0.18275385;-0.15668362;-0.075601846;-0.028131261;0.14845467;0.17226748;0.074545726;0.032244448;0.11467681;0.06205843;-0.083595544;-0.07050139;0.06057691;-0.10273123;0.030593444;0.29060686;0.06463934;0.006061998;0.06277183;0.028729994;-0.23192173;-0.015901756;0.10092062;0.05533991;0.004162569;-0.036928173;-0.14532545;-0.12046676;0.0402038;-0.09170998;-0.16160554;0.052019518;-0.06463579;-0.2562671;-0.09108965;0.06348922;-0.074739456;0.09936859;-0.07583204;-0.04700201;0.052314404;0.029031258;0.065794006;0.15215391;-0.21173172;-0.2513461;0.036485355;-0.0809185;0.10789091;-0.09754388;-0.06537168;-0.26019457;-0.068314694;0.0822544;-0.018980525;0.011908174;-0.10241391;-0.05459495;0.0260649;0.09253585;0.061708394;0.041319653;0.102451056;-0.048562966;0.03164342;-0.2494643;0.108951904;-0.05694168;-0.23955108;0.029973706;0.048350286;0.07901002;-0.16797891;-0.13552438;-0.022776032;-0.06920523;0.019544434;-0.08302602;0.058050092;0.04692645;0.056721766;-0.07807392;-0.13404451;-0.1680242;0.12059913;-0.048085254;-0.07460469;-0.066583924;0.23823898;-0.021831976;-0.05668167;-0.12445636;0.10015741;0.16669546;0.15707895;-0.048966233;0.21169293;0.020193022;0.006584363;0.102008194;-0.21613261;-0.052768413;0.0758232;-0.040354628;0.1188376;-0.095662594;0.27504092;0.06771126;-0.19055147;0.044220373;0.09285354;-0.10034925;0.11708654;0.03467611;0.04898233;0.056791715;-0.24843052;0.020849606;0.0027056353;0.1295365;0.029859176;0.1139433;0.2003467;0.04068362;-0.15648974;-0.1718808;0.019568298;0.06768341;0.02496281;-0.075211965;0.050418142;-0.1170791;0.051504996;0.018091282;0.019645642;0.17824353;0.05455607;-0.010478887;-0.0059358263;-0.059992544;0.06581941;0.093701474;0.064144745;-0.10886402;-0.00975077;0.17691891;-0.2605785;-0.13936675;0.11022904;-0.06828505;-0.044225633;-0.009771049;-0.03933447;0.28994122;-0.027844971;-0.071013786;0.013414124;-0.08025108;0.10083588;0.006563117;-0.15184146;-0.07458636;0.077826865;0.021499157;-0.03390819;0.13807145;0.057269547;-0.0162797;0.11521871;-0.07222402;-0.06872424;0.07850454;-0.057115797;-0.0140709365;-0.02419772;0.040084474;-0.009501258;0.16470017;0.009581183;-0.05339546;-0.029163288;-0.15438345;-0.008630663;-0.18991628;0.03189502;0.043818306;0.2526445;0.1709042;0.06237002;0.009704893;0.30661458;0.08724104;0.067441195;-0.044228982;0.064948395;-0.099234626;-0.02139914;-0.029912608;0.02660001;-0.011031507;0.2360835;0.17569573;0.051976208;0.18472613;0.1976257;-0.15736483;-0.030149247;-0.097777985;-0.11787321;-0.019350193;0.058409147;-0.2735544;0.038074497;-0.20787525;-0.11177811;-0.0011386926;0.11831593;0.16736403;-0.23999624;0.14202228;0.15492055;0.025425483;0.15762608;0.0025809365;-0.0033525703;-0.16715136;-0.05004739;-0.11081028;0.017812507;0.0692459;-0.02581307;-0.014152779;-0.044802316;-0.089224175;0.19394097;0.077266134;-0.11901065;0.14849146;-0.18381245;0.00033453398;-0.037331123;-0.02056862;-0.12418157;0.084504016;-0.12807834;-0.0625204;-0.03398396;-0.010230448;0.007522927;-0.20866992;-0.23717181;-0.03976355;0.17421836;0.040729355;0.15630078;0.1476576;-0.14900473;0.058382403;-0.085886784;0.13392542;0.15738727;0.06730297;-0.20248103;-0.1961946;0.05493656;0.027850764;-0.004458818;-0.013660768;0.1233857;0.012289496;0.054169096;0.13124663;0.021670159;-0.028754748;0.07009806;-0.10838296;-0.007759264;0.035326976;0.13325962;0.108615376;-0.01014636;-0.032284472;0.09565637;0.11110477;-0.0980535;-0.078286305;0.014860938;-0.24837871;-0.18686548;0.106106855;0.047020208;-0.03548567;-0.06435372;0.08087374;0.02874763;0.027984923;0.028365457;0.056110952;-0.022505652;-0.084829874;0.13098103;-0.058812793;0.054602608;-0.14967167;-0.00820706;-0.36862096;0.08022107;0.050908122;-0.092563175;-0.020878935;-0.1431839;-0.17743538;-0.08598228;-0.15285593;-0.13894217;0.07192323;0.020078566;0.1398672;-0.115586504;0.1913174;0.14679658;-0.17419593;0.028198322;-0.00901305;-0.023936663;0.024150863;0.061169196;0.004085302;-0.20905235;0.042570252;0.132386;-0.025492141;0.3076818;0.09880866;0.127511;0.020755546;-0.24193528;-0.20706135;0.030461613;0.117396474;-0.23730953;0.098657586;-0.08458345;-0.010857633;0.009382362;-0.22856548;0.08432459;0.21155967;0.10666369;-0.006178118;-0.1953957;0.013194208;-0.0045520137;-0.15347423;0.03685336;0.0034923947;0.1402037;-0.053095166;-0.11706263;-0.24899684;0.02160715;0.27877057;0.23026644;-0.0069235032;0.027679635;0.18425317;0.19079977;0.058218766;0.16782008;-0.1123682;0.077328056;-0.23756057;0.23173282;-0.07558035;0.2261759;-0.20603965;0.07249574;0.071548626;-0.07829294;0.19068496;-0.056672085;-0.03857992;0.10515371;0.17376894;-0.11420814;-0.0131071815;-0.020807823;-0.0028565445;0.008863052;0.10067527;0.09184206;0.24788357;-0.12161871;0.14633511;0.1907881;-0.12991346;0.12505694;0.028972745;-0.05314778;0.038884677;0.19494481;0.11924202;0.026882585;0.025376132;0.15671629;0.048613578;-0.06784217;0.098988466;-0.0121197915;0.038861427;0.058886267;0.20446685;-0.04709139;-0.06279954;0.17623429;-0.019479252;0.17316465;0.049103003;0.22265585;-0.22420989;0.08251368
0.014527739;-0.07315165;0.050930306;0.023011526;0.08097179;0.18850264;-0.017071294;-0.01174805;-0.10732494;-0.02306642;-0.0012250498;-0.17473912;0.07150563;-0.09186732;-0.24718547;0.06188619;-0.0059111062;-0.1910046;-0.17620184;0.070546664;0.15381196;-0.027966423;-0.10392302;0.1474542;0.003877325;-0.011806128;0.11270107;-0.0762107;0.03761879;-0.041886136;-0.0864914;0.15518913;0.12134004;-0.16038604;0.27773184;-0.0493583;0.040354937;-0.13260534;-0.041153815;-0.0663685;-0.107851185;-0.26534545;-0.056810573;-0.12586847;0.02921693;0.045246378;0.06187458;-0.043943714;0.08056603;0.26847455;0.06898618;0.1496665;-0.09216518;0.073410936;0.19159262;-0.04348072;0.11712263;0.08034315;0.098257564;0.026808515;0.10036308;-0.034640297;0.042258535;-0.032773692;0.13442144;-0.030147174;0.048178557;0.009901785;-0.12314698;0.17386009;0.025994288;0.11739466;-0.011013482;-0.089267366;0.082337126;0.021890065;-0.16175365;-0.15974078;-0.13131514;-0.0005572776;-0.16291516;-0.18023084;0.12658377;0.1782207;-0.05785501;-0.12360416;0.0145295;0.11958233;0.08192909;0.11212736;0.04210196;0.11412364;0.13344902;-0.014965704;0.029137071;-0.023014953;-0.09964948;-0.011489647;-0.3790463;0.007263147;0.08042509;-0.10651406;0.10773188;-0.038721107;0.06108398;0.17864105;-0.2034295;-0.0412172;0.00738646;0.041622926;-0.0054056165;-0.09494814;-0.0809665;0.04554953;0.21183562;-0.14510892;0.061995614;-0.026434124;-0.20848384;0.04345091;-0.1978248;0.12406783;-0.09697782;-0.03847573;-0.02061267;-0.0075770146;-0.045429822;-0.10932839;0.112821795;-0.06363291;-0.18563366;0.03491765;-0.30227363;0.07121644;0.08349461;0.19081303;0.21228819;0.1963396;-0.055102617;-0.08416587;-0.19689374;0.04790034;-0.005453836;-0.006969686;-0.12238293;-0.08247635;-0.06478573;-0.0055850106;0.113172494;-0.16622598;0.09209398;0.05267099;0.20945853;-0.03295926;-0.14936984;-0.13463953;-0.16926718;-0.14657694;0.060581703;0.035643917;0.16894469;0.090119936;0.09031845;0.118908875;0.13146216;0.041274108;-0.12502296;0.06900483;0.06501392;-0.08921562;0.29877692;-0.07039383;0.05394811;0.10704705;0.09567386;-0.108311325;0.14591506;0.046218626;-0.076459184;-0.006257091;-0.10107705;-0.09115804;-0.07302493;-0.032351114;-0.17648019;-0.16239576;0.099040665;0.025769709;-0.20108022;-0.0487062;0.14797653;0.0062694442;0.151128;-0.091557585;-0.03630467;-0.004167449;-0.05639073;0.09213005;0.057761848;-0.10777672;-0.24283701;0.13258328;0.07459731;0.015961295;-0.2003964;-0.07296253;-0.13215967;-0.093528226;0.030330058;0.088504985;0.052834753;-0.04709549;-0.11371759;0.020272724;0.15859139;0.16424328;0.13461617;0.20305161;-0.027368035;-0.032907553;-0.251645;0.042347487;0.07608518;-0.19734834;-0.011632091;-0.016208531;0.15313555;-0.106587894;-0.09492028;0.0062505784;0.078711316;0.0031443362;0.015951568;0.21717797;0.058393728;0.13308838;-0.118501626;-0.08798316;-0.15229477;0.04886006;0.04699689;-0.16771019;0.05343262;0.2193697;0.023660986;-0.0019407516;-0.18271165;0.066144384;0.094229795;0.12568219;-0.006242732;0.13200562;0.0059940345;0.016155742;-0.05437449;-0.105815195;-0.16028593;0.08722362;-0.10233785;-0.041751187;-0.08223877;0.19599864;0.049875304;-0.13296622;-0.060463734;0.124105364;-0.08042034;0.05020034;-0.017566087;0.045635518;-0.10329566;-0.19907917;-0.115732625;0.006024697;0.045911167;0.003399333;0.2043093;0.2663091;-0.008552311;-0.27528566;-0.21326154;0.111761615;0.0654068;0.09740565;-0.08599743;-0.11763554;0.05283156;0.08927204;0.0031670004;0.12571448;0.15815614;0.00016952037;-0.08986323;0.013999642;-0.06576819;-0.019409759;0.15684688;-0.046062134;-0.106528476;0.043031503;0.11539057;-0.08832742;-0.18214163;-0.03364997;0.00876046;0.0021634286;0.10566726;0.15196256;0.19311762;0.041473016;0.0568624;0.019919936;0.05773347;0.057291463;0.04984293;-0.24971136;0.027358541;0.072410166;-0.1299506;-0.045314036;0.2439587;0.20933056;-0.037890088;0.22085494;-0.07690954;-0.007523082;0.09370048;0.05117601;0.0516211;0.030574417;-0.06710041;-0.00243541;0.049560122;0.1614334;-0.107069984;0.033255316;-0.08793899;-0.052891836;-0.113975346;-0.016759513;0.07519248;0.1338561;0.15078716;-0.054175444;0.032747723;0.21927404;0.09232099;0.052436244;0.064555466;0.095403135;-0.13910025;-0.07509651;-0.14502269;0.01652499;0.038863152;0.13724615;0.06805786;0.14510474;0.23968847;0.19186123;-0.1025332;-0.030960953;-0.01258739;-0.09599594;-0.07105376;-0.092871234;-0.30000556;0.003338558;-0.23069693;0.048112165;-0.11001541;0.009785608;0.019732827;-0.36039954;0.15450495;0.045902316;0.008509081;-0.0027146582;-0.08219454;0.06893059;-0.2529469;0.009520033;-0.0663528;-0.029333139;-0.04625361;-0.025040241;-0.1578201;0.02673928;-0.10126476;0.20468299;-0.07377709;-0.18367013;0.32331243;-0.21718258;-0.12702481;-0.04028447;-0.042232983;-0.19378051;0.070242666;-0.15118939;0.06721969;-0.069887;0.08074684;0.064016044;-0.33630496;-0.26223505;0.083482035;0.12944338;0.124531575;0.073412694;0.084808566;-0.0064051957;0.12947306;-0.04401047;0.037460197;0.17751653;0.054067954;-0.09154447;-0.26272234;0.16991453;-0.10912489;0.112651035;-0.054282784;0.15738551;0.009672389;0.15749879;0.21593091;0.018688224;-0.16142234;0.15360792;-0.12061145;-0.08511567;0.0940023;0.10698628;0.18227077;0.01404891;-0.024835097;0.08753364;0.14525856;-0.07791723;-0.1123462;0.0022051528;-0.39642256;-0.12434534;0.07122904;-0.06726788;0.056474064;-0.025050584;0.040104114;0.027879097;0.116377115;-0.014985081;0.14837751;-0.041663457;-0.19609646;0.19086339;-0.08522775;-0.10102449;-0.06289051;0.048241623;-0.25394282;-0.037870716;0.16089067;-0.009833569;-0.007911658;-0.055828933;-0.2683195;-0.063936315;-0.16127412;-0.10314895;-0.009935577;0.014135235;0.18006226;-0.04074038;0.27084166;0.10324604;-0.14739372;0.07483771;-0.0030166241;0.132085;0.19350867;0.12422951;0.068493806;-0.3361366;0.04872853;0.12300149;-0.0055735167;0.2194271;0.17857759;0.13125908;-0.07193981;-0.23095316;-0.13732433;0.0426649;0.048108913;-0.22122264;0.12045894;0.09557062;-0.029219732;-0.13451257;-0.15673043;0.0930949;0.2526103;0.040281687;-0.15523012;-0.19515425;0.15023917;0.032806944;-0.16925792;-0.067239165;0.0012704808;0.03882265;0.008672756;-0.1141321;-0.128454;0.057840396;0.23924382;0.22486505;-0.047782615;0.029797656;0.17002822;0.14013518;-0.033884127;0.11393969;-0.13588391;-0.02087033;-0.11057391;0.17320304;-0.052873798;0.27207127;-0.19749898;0.066362426;0.107921116;-0.16142164;0.10365899;0.000559495;0.17276604;0.19596672;-0.0084675485;-0.18309246;0.0697966;-0.057701204;-0.05114943;-0.0311181;0.061390538;0.07548029;0.35254303;-0.14943378;0.07586457;0.21772097;-0.03970002;0.09159864;-0.05032007;-0.11784229;0.107471675;0.06762733;0.18219616;0.0003175244;-0.005669377;0.13119864;-0.1000723;-0.18097728;0.011464348;0.016681273;-0.09047115;-0.013614196;0.23554619;0.13488534;-0.18155764;0.18912758;-0.04709611;0.17349574;0.063107066;0.3325379;-0.014720414;0.0045591653
-0.039230388;-0.048217;0.10166959;0.039916135;0.20117688;0.21988952;0.015145928;-0.022160143;0.0064086597;-0.11771732;-0.004530355;-0.10296799;-0.010861246;0.0021754405;-0.19637041;-0.04083714;-0.06856545;-0.028324643;-0.124188356;0.09928914;0.16732362;0.094381616;-0.05280081;0.13830476;-0.030786244;0.07234279;0.03152836;-0.09111649;0.07240749;-0.0066075656;-0.0871339;-0.026832005;0.063900344;-0.24251723;0.2080739;0.06752412;-0.06591412;-0.111475155;-0.03478307;-0.105513625;0.0352618;-0.19443403;-0.15910162;-0.038861588;0.14302595;0.047762234;-0.031687316;-0.0023535774;0.03982172;0.1256885;0.005220641;0.13672033;-0.0631926;0.04344834;0.21653576;-0.16326554;0.22156835;0.17339478;0.005400884;0.014025047;0.05786191;0.0655775;0.030187868;-0.020108277;0.13792586;-0.017298076;0.030710485;-0.024334714;-0.03702833;0.07327085;0.097538784;-0.017380806;0.07356419;-0.07270885;0.13941243;0.0647952;-0.07336949;-0.11931147;-0.16211559;0.0070230537;-0.02327958;-0.08373866;0.02460865;0.23129122;0.06244034;0.0004659453;-0.05483307;0.14080665;0.07876602;0.08931105;-0.020731078;0.1444697;-0.011016821;0.009787873;0.021360407;-0.08205949;-0.011770911;0.03313402;-0.2916507;-0.10403996;0.042407166;-0.09984355;0.11867553;-0.0013761299;0.077309705;0.297898;-0.16033706;0.06791156;-0.064296894;0.020521509;0.15838888;-0.10323605;0.04768361;-0.051948782;0.13551958;-0.1492251;-0.0944387;-0.1120393;-0.18571469;0.014248306;-0.12254462;0.10559251;-0.015904043;-0.13905558;0.034603253;-0.0471311;-0.08432944;-0.15625449;0.18226951;0.007878075;-0.09625274;0.11483138;-0.30784813;0.053623587;-0.06964581;0.14154753;0.23809348;0.0074313283;0.06079907;-0.113159336;-0.22759168;0.060869984;0.0071967244;-0.036003485;-0.064881876;-0.026418103;-0.017520422;0.020167023;0.12677044;-0.044883914;0.014826381;0.10285869;0.10453671;0.026529063;-0.09538182;-0.08785963;-0.03331383;-0.021140601;-0.046831604;0.19453548;0.20361328;0.049829606;0.033711676;0.11315956;0.02155128;0.0074050054;-0.02565066;0.12471124;0.030147314;-0.026934724;0.2892408;0.04470993;-0.06338368;0.11719629;0.095671244;-0.15005769;0.047087543;0.09929222;-0.04535157;-0.08138663;-0.07722088;-0.103311226;-0.013681152;-0.038322102;-0.1907434;-0.19177791;0.139484;0.053622615;-0.21287669;-0.027940376;0.16565573;-0.03121377;0.12527192;-0.14945297;0.050258525;0.0021132028;-0.03994689;-0.029647933;0.090848505;-0.16226855;-0.17573716;0.12112748;0.035137944;0.03803855;-0.06805408;-0.17223763;-0.25386983;0.014933938;0.047194276;0.025101783;-0.049005862;-0.023203854;-0.026460232;0.096006;0.015569462;0.09233139;0.11283215;0.07734005;-0.02120912;0.03747699;-0.28538385;-0.018341051;-0.07379843;-0.2841445;-0.04747146;0.03631179;0.17191544;-0.15250976;-0.09799636;-0.0049510016;-0.08726509;-0.08641353;-0.09839555;0.093673065;0.048731517;-0.0055078636;0.047576655;-0.09918545;-0.0050938204;0.080658205;0.013255441;-0.22126512;0.010580535;0.026944825;0.09545955;-0.0029822271;-0.21525854;0.10024496;0.13736874;0.10707544;0.01842217;0.11769035;-0.16426525;-0.07274256;0.01552312;-0.15308881;-0.18210006;0.15462711;-0.14076138;0.034430563;-0.12775481;0.17564012;0.07717886;-0.17869289;-0.06518355;0.11736667;-0.03231918;0.031967748;0.0019799834;-0.10630919;-0.048078008;-0.13133389;-0.03963201;0.049416404;0.14035763;0.08471725;0.25185025;0.18522489;0.04932461;-0.21199019;-0.24647953;0.039222483;0.0040966365;-0.013272132;-0.048360117;-0.103165336;0.07607617;0.22138199;-0.05199293;0.054557376;0.22241814;-0.06774582;-0.012929238;-0.00370776;-0.09021714;0.05254794;0.20330536;-0.048513766;-0.0031194;0.024704915;0.07092027;-0.15455137;-0.13850293;-0.064821705;-0.089483485;-0.025204694;0.077571385;0.03371369;0.19297631;0.06676789;0.0023217725;0.08126331;-0.039724763;0.096510224;0.12821998;-0.25540218;-0.104636095;-0.052357074;-0.0068322737;-0.022125483;0.16547516;0.18547292;-0.027886173;0.1832375;-0.03933832;-0.005065454;0.012286492;0.004258697;0.008309196;0.08298424;0.0637696;0.0034320634;0.15702313;0.10021656;-0.10714793;-0.10304317;-0.15637659;0.00037384516;-0.10413523;0.052385926;-0.061378982;0.1549906;0.19820876;-0.018673582;0.06689281;0.20233902;-0.020419678;0.15769643;0.020270819;-0.005262504;-0.030813172;0.06262778;-0.1097856;-0.09464902;0.04891517;0.111486554;0.15713787;0.10551448;0.24503411;0.162515;-0.004380543;-0.00015552464;-0.05641004;-0.10669999;-0.06957768;-0.004870556;-0.2332746;0.05818583;-0.15460971;0.009031025;-0.039138548;0.06335033;0.120783456;-0.37830645;0.1423135;0.103938855;-0.014628479;0.10020624;-0.1092151;0.037675973;-0.24144198;-5.8739173e-05;-0.22789688;0.113594405;-0.04471677;0.07994762;-0.19979276;-0.10024239;-0.042724352;0.28592432;0.02218624;-0.12749054;0.27629334;-0.18047883;-0.08763681;-0.027026743;0.066925906;-0.1513285;0.16198727;-0.24465385;0.008140272;-0.04869403;0.037714113;0.13458239;-0.21173012;-0.3707613;0.18688081;0.13055936;0.11213139;0.10228622;0.20564753;-0.1744085;0.121962994;-0.18153934;0.14334776;0.059575804;-0.0038493269;-0.181287;-0.24070734;0.11157973;0.07021859;0.03954857;-0.022956928;0.21453018;-0.02408789;0.08531393;0.12975454;0.016566273;-0.14840804;0.11585291;-0.23531027;0.060904194;0.010647392;0.24132775;0.18805695;-0.07688594;-0.042617697;-0.028582377;0.06538395;0.009091012;-0.0063368436;-0.04125625;-0.29491222;-0.22866707;0.07675768;-0.12878978;-0.029013298;0.09361967;0.12283592;-0.008236321;0.058275074;-0.05809415;0.09295893;0.015723309;-0.10958139;0.23794407;0.018259788;0.03268649;-0.111395136;-0.018126573;-0.17975113;0.0457149;0.045374036;-0.0648371;-0.05540969;-0.11424136;-0.26930818;0.04251409;-0.12929773;-0.118172355;-0.06402194;0.14080058;0.09058523;-0.07564744;0.124512605;-0.00066085876;-0.25665838;0.1942172;-0.029800639;0.021725731;0.13751857;0.084414795;-0.011411315;-0.35752353;0.0630286;0.07878079;0.08411001;0.29398802;0.17423494;0.018933576;0.10373409;-0.13265017;-0.12966129;-0.024386097;0.023577882;-0.1291937;0.10333646;0.023424488;-0.085003816;-0.1273546;-0.25339267;-0.026596196;0.18383105;0.10207567;-0.113207065;-0.1132818;0.16768895;-0.05463224;-0.2149053;0.024830177;0.053499114;0.1739266;0.08639604;-0.04863415;-0.06616392;0.07636822;0.3351695;0.21939014;0.11491171;-0.09940783;0.123038694;0.04967799;-0.12839617;0.087815955;-0.112267256;-0.10783804;-0.2652551;0.09829662;0.01978142;0.19231962;-0.25404468;0.12887995;-0.03398268;-0.2028778;0.068001166;0.118653305;0.12969305;0.045120925;0.08415655;0.008489116;0.029683856;-0.079145096;-0.027773054;0.046561696;0.06487827;0.052994065;0.26938745;-0.16812892;0.14226598;0.23803806;-0.10478569;0.08015181;0.010891663;-0.13960394;0.1178672;0.06912223;0.010152873;0.06136965;0.048052628;0.26732886;-0.03991304;-0.26657528;0.088711366;0.0630642;-0.124267116;-0.07339187;0.09563044;-0.030471409;-0.13955319;0.07979777;0.009259836;0.26455334;-0.1099629;0.20386867;-0.09061366;-0.023424262
0.05784427;0.006678967;0.06853127;0.02397273;0.13229126;0.14833628;0.043997094;-0.058524124;-0.010479738;-0.10361352;0.18387;-0.1520311;-0.0646514;0.03773656;-0.2525357;0.033385642;-0.08961588;-0.012424078;-0.106036246;0.087185785;0.12944326;0.075867735;0.027529348;0.09514852;-0.15667248;0.13814612;0.052134383;-0.2240072;-0.0221131;-0.03651706;0.04628827;0.074935906;-0.006655695;-0.24610405;0.046004664;-0.13461927;-0.14133403;-0.16101754;-0.12431563;0.040409226;0.0042075273;-0.21453136;-0.1998266;-0.13863517;0.05577007;0.16495644;0.018481726;0.045926817;0.012800612;0.14831741;-0.0283881;-0.01293962;-0.007895019;0.24500287;0.22923626;-0.12270599;0.25029474;0.16445392;0.18734159;0.073629364;-0.052199155;-0.04232535;0.012683674;0.13416934;0.0037926603;0.042007778;0.03432495;-0.06552259;-0.0014760103;0.20939982;0.124374904;0.07858284;0.06511117;-0.16127202;-0.042211723;0.08235204;-0.04439219;-0.01708719;-0.13716228;0.039007496;-0.13521713;-0.11275173;0.10761914;0.16080186;-0.11581085;-0.0074608466;0.00047509122;0.10455196;0.050695352;0.2521494;-0.052691054;0.033666857;0.13610846;-0.057569724;-0.05915128;0.004652893;-0.0011733259;-0.0843426;-0.2806733;-0.073888086;-0.10954718;-0.08240115;0.0718427;0.1602684;0.029075049;0.34537858;-0.17665768;-0.028787458;-0.00055321556;0.059407897;0.06445605;-0.032299165;0.13007824;-0.08620673;0.1317015;-0.22081906;-0.021569028;-0.09825902;-0.04381331;0.075670175;-0.14069693;0.05577749;-0.013392642;-0.20923305;-0.106798686;0.018671406;-0.14550865;-0.09104806;0.09220754;-0.08415216;-0.14317395;0.043944046;-0.34184104;0.09652174;-0.14147641;0.06727276;0.1794429;0.017305987;0.018438047;-0.19924824;-0.1098695;0.14687118;0.15635002;0.15717398;0.02211881;-0.03655015;-0.07602561;0.05124227;0.17222813;-0.061597984;-0.024718333;-0.060605235;0.124934055;-0.042635422;-0.12076912;-0.015242048;-0.12383835;-0.17596501;0.06395277;0.19826044;0.21504322;0.13341613;0.07707575;0.082604654;-0.088075936;0.06296974;-0.0067006913;0.07791071;-0.02744503;0.054291904;0.2194635;0.0974382;0.06472126;0.08382673;0.146996;-0.25170726;0.016548026;0.024580818;-0.027341962;-0.05668339;-0.041546997;-0.06831175;-0.15884197;0.08342983;-0.18556164;-0.15730561;0.044461418;0.14855273;-0.23063658;-0.10523971;0.095124625;-0.19105276;0.2600501;-0.0149143785;-0.004684321;-0.05433068;-0.058392584;-0.01583382;-0.005997898;-0.17506278;-0.2177269;0.12722161;0.08057062;0.067761704;-0.04982487;-0.11149346;-0.22612463;-0.12616295;-0.07361721;0.02887192;0.0960396;-0.0487505;-0.16503607;-0.0042446647;0.04587694;-0.0135281645;0.020520333;0.2323177;-0.052529506;0.112606935;-0.17020202;-0.04999045;-0.07858312;-0.27319542;0.061903;0.03573216;0.12640011;-0.26110545;-0.19094972;-0.051063225;0.024622798;-0.14042404;-0.02375134;0.103763945;-0.01022534;0.19672121;0.048550814;-0.1468258;0.02125273;0.15761578;-0.038477525;-0.10977087;-0.18576896;0.10274811;0.10373301;0.018530868;-0.16430649;0.0704635;0.27701348;0.04232347;0.07491631;0.14203061;-0.11697233;0.06462268;0.07198045;-0.12356817;-0.10763049;0.08094722;-0.15537232;0.08790078;-0.009021509;0.13743497;0.22880925;-0.116680354;0.06513597;-0.019714136;-0.062588096;-0.027023926;0.089368224;-0.06915472;-0.069049574;-0.13105097;-0.11184803;0.03515777;0.15999553;-0.08515153;0.18846138;0.1966823;0.03858567;-0.26873854;-0.19484521;0.093229346;-0.011714327;0.10711954;0.054225545;-0.118974425;-0.06333625;0.14712681;-0.047479838;0.079721875;0.20923416;0.056078333;-0.028970752;-0.13561682;-0.08760297;-0.07834793;0.08925885;-0.118017145;-0.052444007;0.018540503;0.07409187;-0.084037304;-0.064771175;0.030594671;0.026481932;0.122607894;0.061666586;0.006925458;0.27833346;-0.006181495;-0.013730627;0.0554603;-0.10734267;0.14413494;0.15629439;-0.13778521;-0.078138515;0.0020393685;0.081416495;-0.14863628;0.06404199;0.057406057;-5.749464e-05;0.16160937;-0.03063179;0.06605559;0.06624656;-0.063395895;-0.027404683;0.006376729;0.03890129;0.08629853;0.0962502;0.09170531;-0.15263131;-0.10208935;-0.067252584;0.034872256;-0.20911328;0.12232436;0.08500696;0.16908066;0.30240515;0.03505674;0.03800628;0.36110666;0.0807448;0.051457696;-0.004681877;0.022841714;-0.16005926;0.13508688;-0.037267756;0.00735412;-0.12467257;0.16244847;0.25173402;0.1429419;0.047544077;0.19949022;-0.08982417;0.10800441;-0.13711871;0.035490353;-0.03298865;0.0336101;-0.25262162;-0.104021706;-0.23608865;-0.045817707;0.07736795;0.05043266;0.305938;-0.44068122;0.07899035;0.086531006;-0.08430169;0.015980525;-0.15525363;-0.103876196;-0.26254407;-0.07366629;-0.090577595;-0.005588464;-0.06153983;-0.037367236;-0.21723138;-0.11062343;-0.027394447;0.25870177;0.007989321;0.022697702;0.26811957;-0.19337095;-0.15450814;0.0058766883;-0.012427553;-0.07426175;0.027304176;-0.30294812;0.0045116176;-0.26335016;-0.015296871;0.0975196;-0.33306816;-0.24820615;0.14130335;0.20139362;0.18157957;0.16673401;0.120023854;-0.042628337;0.1119473;-0.028188903;0.024966562;-0.045451056;-0.101842895;-0.08322533;-0.18970156;0.015786469;-0.028005607;0.030991575;0.0035420696;0.17353632;-0.0848234;0.11082927;0.022961956;0.1379133;-0.18451169;0.01759383;-0.10552548;0.014162218;0.021291716;0.22063175;0.19221121;0.003849965;0.068603314;0.09464379;0.035494167;-0.02610828;0.038634468;-0.053589;-0.2352272;-0.217701;-0.032538414;-0.07076105;0.09695069;0.018074661;0.0058932425;0.1798532;0.075970516;-0.12248937;0.14328103;0.13290368;-0.054774273;0.16303906;-0.016676066;0.0029510362;-0.1378361;0.09365674;-0.31862277;-0.04633698;-0.0020985731;0.061059643;0.00083746156;-0.06541077;-0.25397152;-0.022100944;-0.20180011;-0.08172262;0.080498725;0.05241135;0.1616306;0.07405652;0.1302832;0.049805213;-0.29658803;0.041719634;-0.0716671;0.09980242;0.3370872;0.105848454;-0.027791966;-0.33749902;-0.09634511;0.07094915;0.16140224;0.36517116;0.12333464;0.16781168;0.013542234;-0.20960744;-0.07624776;0.031434957;0.11673142;-0.060683966;0.20055377;0.07095259;0.0106547605;-0.06887051;-0.21278058;-0.008350408;0.079671144;-0.033895444;-0.048393324;-0.12759;0.13745417;-0.13430463;-0.26705378;-0.021796338;0.034886893;0.11265893;-0.051307127;-0.009007841;-0.15025342;-0.042631276;0.18991746;0.25284675;-0.03342884;-0.12540619;0.12216698;0.18566109;-0.017303398;0.24803409;-0.07275868;0.109550215;-0.11102702;0.14942025;0.020966146;0.07775501;-0.09862559;0.022886774;-0.06841502;-0.118674174;0.06928361;-0.058840662;0.041071393;-0.00021372337;-0.03445082;-0.06567539;-0.043298114;-0.06588262;-0.01586683;0.06045948;-0.055433355;0.03024483;0.20015958;-0.17145014;0.17624587;0.12346731;-0.10818695;0.054460246;0.020007381;-0.004653408;0.13740781;0.053308673;0.110871226;0.10114471;-0.08596064;0.13587853;0.00891559;-0.11639171;0.035146665;0.10532995;-0.010613864;0.039527155;0.12557445;-0.038314763;-0.04707142;0.10622911;-0.0411592;0.2962772;-0.014402271;0.22754353;-0.08920521;0.019849006
0.0854698;0.01724017;-0.026163267;-0.07374994;0.1900365;0.23235282;0.07107705;0.03233819;-0.091184005;-0.024858497;0.12222931;-0.19801156;-0.060767468;-0.10742118;-0.24449615;0.095843926;-0.16824935;-0.017334487;-0.10876079;0.015929632;0.20504436;0.053925827;-0.015919207;0.14695191;-0.18551682;0.03085444;0.099220656;-0.2223319;-0.0052152737;-0.022564553;-0.043478746;0.13109712;0.12948456;-0.11419352;0.10148753;-0.015361282;0.049394876;-0.010840063;-0.041150544;0.027621912;-0.004622847;-0.26849952;-0.17522551;-0.17760375;0.0644273;0.17940858;0.0015883812;0.04239179;0.07816576;0.07737288;-0.03691989;0.15397403;-0.13165505;0.025675552;0.26825893;-0.17510355;0.093109705;0.12785746;0.09916631;-0.0501664;-0.025774805;-0.09391235;0.116724566;0.06414917;0.046479292;-0.033024687;0.05774287;0.058868825;-0.04893761;0.2513862;0.02295988;0.11175831;0.11875017;-0.060954798;0.025267523;-0.0051683425;-0.015997332;0.044524282;-0.076047026;0.09655406;-0.16144226;-0.06684969;0.09821284;0.06061133;-0.17172417;0.124203935;0.0026408343;0.07259397;0.1741961;0.23142067;-0.08545524;0.005849614;0.075545155;-0.025866758;0.0011400505;-0.07853593;-0.09201963;-0.09974191;-0.35610032;4.9156322e-05;-0.0014521284;-0.05437152;0.07323847;0.060459837;-0.010688153;0.28642565;-0.11017181;-0.08578432;0.06925155;0.1580772;-0.0057107927;-0.07391323;0.094279855;-0.09225421;0.13236949;-0.23787397;-0.0198417;-0.038926948;-0.12258104;0.08009927;-0.17025548;-0.021806972;-0.08164969;-0.07514817;0.014982418;-0.06026423;-0.07222951;-0.16161408;0.1804715;0.06888024;-0.0986708;0.14735653;-0.32933813;0.06430663;-0.12513232;0.1405989;0.24087644;0.0036348505;-0.05393392;-0.23471011;-0.19168413;0.04613933;0.19655515;-0.037892997;-0.005488492;-0.014382532;-0.111877695;0.02784408;0.15576646;-0.056126367;-0.048448067;0.05168118;0.12465571;-0.115649365;-0.048919152;-0.14544278;-0.073047936;-0.134524;0.074519485;0.1493281;0.19930477;0.037854973;-0.023204703;-0.009089278;0.1153919;0.0020623903;0.06737593;0.029300028;-0.076505646;0.06366173;0.33592123;0.104940735;0.029426502;0.23491712;0.073940694;-0.22804041;0.12320894;0.04458389;-0.11718279;-0.056883443;-0.099946074;-0.20510405;-0.11240929;0.06698816;-0.1556869;-0.11613886;0.10273161;0.087436326;-0.31247857;-0.0758039;0.02103814;-0.24070437;0.22819953;-0.14400801;0.063977376;-0.13368106;0.039842248;0.069519274;0.04939066;-0.21491046;-0.20208116;0.25084612;0.105212614;0.10408149;-0.23252165;-0.14672028;-0.1270841;-0.08059146;0.09333392;0.112313904;-0.01881494;-0.040001366;-0.10247822;0.031659808;0.13089791;0.132039;0.08611923;0.14814366;-0.03735659;0.08925638;-0.06861367;0.023819827;0.070640355;-0.32310593;0.18462764;0.016506886;0.1915679;-0.23077056;0.0111390455;-0.04088548;0.020357063;-0.013701688;0.022022469;0.12844492;0.08974508;0.064113766;0.094422296;-0.10706577;-0.02561596;0.08294701;0.055791546;-0.23110282;-0.01079501;0.15491435;0.1220677;-0.12622194;-0.21070442;0.13018808;0.25557968;-0.020396747;0.01622342;0.18205513;-0.10054785;0.044887505;-0.0025700238;-0.18953893;-0.12625405;0.08345676;-0.11363092;0.17334376;0.0019179883;0.20157602;0.18380998;-0.108197816;0.0553113;0.0032486832;0.038745694;0.053661298;0.09469289;-0.0067756134;0.018463789;-0.21742932;-0.11328175;-0.0096233;0.039720602;0.07182854;0.089889176;0.06486887;-0.03567738;-0.23020065;-0.18685809;0.0562472;0.115139894;0.087170586;0.07073697;-0.12020197;-0.037012506;0.1894561;-0.04117214;0.09080229;0.26708496;0.040631738;0.11962314;-0.106265016;-0.05597191;0.026525395;0.10278152;-0.025771284;0.019463163;-0.07922016;0.120648876;-0.077592745;-0.07653361;0.01003385;-0.052788187;0.021917028;0.11689797;-0.013964064;0.06369445;0.053570073;-0.044748012;0.06384742;-0.17797369;0.09316371;0.15129797;-0.22189854;-0.13998562;0.07612859;-0.054085378;-0.119715646;0.06543888;0.015817016;0.09064029;0.0777085;-0.080888584;-0.07369123;0.15563755;-0.0038755336;0.030410089;0.03679801;-0.035932943;-0.06146714;0.17249875;0.046776813;-0.10093935;-0.034166336;-0.24369828;-0.119393095;-0.25864103;0.101489805;0.11774424;0.051862407;0.26069695;0.05298704;0.15051082;0.2854622;0.08717695;0.08466412;0.045652717;0.122670986;-0.06838429;0.1408866;-0.028322533;0.015068555;-0.049802117;0.054483395;0.25087795;0.077004135;0.16555251;0.24176368;-0.048969273;-0.082736745;-0.04518563;-0.044094764;-0.08045386;-0.08667399;-0.20696335;0.009366778;-0.25967124;0.011265463;0.17229092;0.058860645;0.29241958;-0.47066054;0.17641707;0.10592625;-0.030685222;-0.041825946;-0.17384128;-0.08041325;-0.1028562;-0.030881895;-0.12275674;-0.015312832;0.043588925;-0.034605138;-0.13291666;-0.06478688;0.047423594;0.1541093;0.15228705;-0.046452645;0.30363902;-0.21945004;-0.11453477;-0.01259601;-0.037130054;-0.12296679;-0.03308591;-0.34061167;0.012262947;-0.2785116;0.15328015;0.10070642;-0.26555082;-0.31562528;0.15743163;0.18481274;0.16084555;0.113344185;0.1774066;-0.14383444;0.04428122;-0.037693422;0.12962316;0.058349866;-0.008616617;-0.12345312;-0.19905627;0.03425576;-0.004491455;0.12444199;-0.034281738;0.13873361;-0.058435697;0.17101333;0.087723255;-0.0038556512;-0.0628863;0.15921669;-0.24925643;-0.041083813;0.076583505;0.09628535;0.14716722;-0.10254489;0.072656706;0.028380966;0.033464026;0.016349459;-0.013098966;-0.07024252;-0.14018606;-0.23403221;0.06742212;-0.14834258;-0.012818833;-0.109745845;0.08060716;0.136277;0.05428915;-0.01069927;0.05324985;0.08032709;0.00397921;0.14997745;0.019647073;0.050121285;-0.1561592;0.119974524;-0.24198447;0.0022816644;0.051134825;0.032372497;-0.055403356;0.07175493;-0.27447492;0.06515217;-0.16157833;0.09187045;0.101405844;0.10814925;0.15146661;0.11704478;0.14274564;0.039732672;-0.27227014;0.12414612;-0.0030679707;0.0012757779;0.3526386;0.18370293;0.07919537;-0.40275556;-0.1387041;-0.0017669428;0.09256254;0.2252664;0.064424224;0.038959667;0.02975763;-0.23267272;-0.17178601;0.061729547;0.05409233;-0.17374077;0.046149265;0.12450145;-0.010541366;-0.08985638;-0.27142107;-0.00767605;-0.03368193;-0.013417826;-0.14851487;-0.20167257;0.05968781;0.017653238;-0.22903709;-0.03398929;0.016178934;0.17281379;0.079128765;-0.00920038;0.009324935;0.026368333;0.2688766;0.22236016;-0.06254804;-0.11208014;0.12043014;0.13567907;-0.15782256;0.14690447;0.0016720789;0.011401143;-0.103962354;0.28190994;0.078465864;0.15941143;-0.14969237;-0.057475112;-0.066037625;-0.09947269;0.11956118;0.05554216;0.07805768;0.103186436;-0.05073457;-0.0893956;-0.02692023;-0.13611726;0.009578972;0.022190968;-0.04582366;-0.0965365;0.23368481;-0.049030196;0.12502487;0.19420886;-0.1232168;0.03437836;0.008390739;-0.10466009;0.14631477;0.14461455;0.052325603;0.028773338;-0.068697624;0.20735194;-0.030124348;-0.15978488;-0.067186795;-0.021374464;-0.11315687;0.09972489;0.13910115;-0.041084703;-0.08002857;0.09242437;0.11679715;0.16252215;-0.08760816;0.23786935;-0.18958986;0.0122765815
0.0634149;-0.04365966;0.1200926;-0.0062228;0.087053925;0.10146491;0.10826148;0.021707179;-0.06848055;-0.074345864;0.03689757;-0.15916151;-0.13093913;-0.037745662;-0.158441;-0.071797326;-0.116203174;-0.065737434;-0.16306919;0.07312743;0.21093556;-0.14364511;-0.050148636;0.1967482;-0.14990903;-0.039531898;0.11645567;-0.18909138;-0.01465589;-0.13977443;0.054485045;0.0137359835;0.0017628738;-0.087241165;0.06660964;-0.10072779;-0.010942423;-0.15995514;0.04838374;0.07693099;0.04896719;-0.3190612;-0.15727298;-0.116570905;-0.023894465;0.16059636;0.009498689;0.05079902;-0.059309002;0.19615494;0.009455063;0.057908557;-0.007478343;0.10475826;0.24004567;-0.13765861;0.10120853;0.06958197;0.021684984;-0.045356914;-0.005963766;-0.077461205;0.09030717;0.15198578;0.041185774;0.11023418;0.012190033;0.023973912;0.026162557;0.20094644;0.10932356;0.14558488;0.12037599;-0.16568205;0.112516;0.018193815;-0.1139215;-0.030103436;-0.14680925;-0.0020272806;-0.12999353;-0.065467104;0.16259612;0.21349995;-0.12670845;0.08345217;0.028128585;0.10928577;0.09624653;0.1501623;0.052425116;0.1548489;0.028771354;-0.047260046;0.023335865;-0.11019182;-0.01519696;0.00970112;-0.43263325;-0.026244586;-0.054963127;-0.120548956;0.08745005;0.023303732;0.057604883;0.30789813;-0.1918057;0.038877334;-0.051350962;0.1625329;0.09825429;-0.042211313;0.09387354;0.048505075;0.23154132;-0.29306778;-0.0022210265;-0.105335385;-0.21560527;-0.065706156;-0.120744795;0.011804964;0.064844824;-0.24071683;0.03796586;-0.009650487;-0.08246054;-0.052017473;0.14454049;0.03022154;-0.15273792;0.1931931;-0.25095987;0.15243882;-0.03517013;0.18210155;0.22344577;0.041567866;-0.10263289;-0.26308963;-0.09511573;0.05176418;0.18307324;0.07821263;-0.0719527;-0.049228124;0.008686804;-0.013596407;0.17967574;-0.18064016;-0.05654831;-0.01973166;0.18984982;-0.13425532;-0.00032731588;-0.043667637;-0.20045564;-0.014522144;0.047488485;0.18697678;0.21220864;0.17479266;-0.05034541;0.006966095;0.047939304;-0.0143248355;0.044803012;0.088948354;-0.097231925;-0.0044506025;0.29263595;0.11627109;0.04483945;0.19936682;0.059773386;-0.21531968;0.124371134;0.08075402;0.026796471;-0.117616884;-0.020741973;-0.21638362;-0.14183794;0.06906632;-0.1481303;-0.07379738;0.11651442;0.21339475;-0.2916977;-0.16674484;-0.02644551;-0.20467396;0.17066698;-0.09142007;0.116544336;-0.045862652;0.040527333;-0.04726067;0.11256614;-0.20040753;-0.29223534;0.20832203;0.067634955;0.10748044;-0.2780424;-0.2817548;-0.2796734;-0.09617443;0.067781426;-0.0628782;-0.048057966;-0.0025278172;-0.0117451735;-0.13818213;0.1380717;0.026114212;0.05861607;0.18089375;0.08614053;0.029011887;-0.08467549;-0.052049417;-0.012519462;-0.2079898;0.11671846;0.048397068;0.079092875;-0.24908237;-0.13675542;-0.115508966;0.042500194;-0.07800185;0.0848846;0.07780044;-0.0075622047;0.06075037;-0.04670696;-0.132171;-0.01965049;0.0718638;0.19127469;-0.10271322;-0.010853128;0.12786643;0.063508004;-0.07549713;-0.15585957;0.0129013695;0.27934575;0.0009940397;-0.06466435;0.15032919;-0.13739578;0.012019333;0.10458913;-0.20227122;-0.12050074;0.096554585;-0.101876594;0.14618926;0.05061929;0.15090613;0.14118421;-0.1613789;0.01249612;-0.04792941;-0.05882736;0.060434163;0.03913533;-0.038169716;-0.056860153;-0.16623287;-0.08078567;0.11025543;0.053093147;-0.08376079;0.14201978;0.15623479;0.06775883;-0.24999624;-0.22046344;0.1474212;-0.0025059443;-0.023289274;0.06635235;-0.07754094;-0.09876163;0.12452151;-0.06772025;0.012832837;0.20367157;-0.025609486;-0.02317173;-0.08859545;-0.012534221;-0.008484425;0.12050308;0.018979631;0.08374095;-0.010237526;0.11993126;0.05040923;-0.11384136;0.06447969;-0.03758368;0.05999163;0.047694623;-0.0015268946;0.12850979;-0.07433756;-0.040397014;0.055336386;-0.08969779;0.23074503;0.10241824;-0.16310623;-0.1456432;0.042415082;-0.060382236;-0.036713865;0.007536457;0.055422813;-0.024002334;0.09469162;-0.06594477;0.030549044;0.13808641;-0.08132679;0.048860762;-0.047224104;0.10679239;0.058933966;0.1079331;0.047415204;-0.122738235;0.0034838868;-0.20455483;0.021955883;-0.24239291;-0.00826811;0.033388942;0.16363241;0.28348368;0.08275373;0.15367109;0.31195694;0.067075595;0.15495077;-0.04826203;0.111361444;-0.05314746;0.15022649;-0.11478104;-0.035380024;-0.009507304;0.15377823;0.2505936;0.040114984;0.19513114;0.13039248;-0.16680098;-0.08094595;-0.07669237;-0.06503359;-0.0113079855;-0.1608295;-0.23166704;0.07572279;-0.14626127;0.0039524417;0.091405064;0.036258873;0.294603;-0.46914253;0.15390584;0.19353954;-0.036801133;0.03613577;-0.20285922;-0.054875966;-0.17396319;-0.11097021;-0.14419524;0.018457739;0.022664573;0.005133597;-0.18936044;-0.0343185;0.065999776;0.21609065;0.106283605;-0.09653081;0.265386;-0.334125;-0.17250112;-0.0781071;0.048967887;-0.015133459;0.17428905;-0.2788372;0.07125606;-0.28215727;0.1424979;0.062468424;-0.24996026;-0.4084682;0.03243015;0.16950548;0.062677845;-0.0074080247;0.16926475;-0.15821052;0.09739199;-0.04043869;0.045820855;0.10238377;-0.11298135;-0.22745818;-0.20306681;0.057331864;0.019565923;0.057788417;0.05664438;0.15784918;-0.10791518;0.095451735;0.15891701;0.013419311;-0.11418344;0.06368951;-0.061267078;-0.13759755;-0.032669224;0.19903687;0.14304762;-0.07646017;-0.07078717;0.1587851;-0.15682869;-0.03531454;0.056166165;-0.032295506;-0.19567747;-0.15511587;0.0129563175;-0.09677043;0.024210008;-0.10040696;0.049788535;0.10564886;0.07585984;-0.07853102;0.0426869;0.10363817;-0.14313075;0.01502684;-0.107619055;-0.008193597;-0.016847055;-0.044923633;-0.3227074;-0.052008018;-0.08874269;-0.079347566;0.020370036;-0.088335164;-0.22281763;0.07950148;-0.0936143;0.029936817;-0.051240638;-0.010139942;0.1255298;0.118270144;0.20887703;0.081796624;-0.2183889;0.19284134;-0.108665965;0.08807467;0.38359347;0.19374602;0.045599602;-0.34334937;-0.09730515;-0.026670143;0.2043883;0.3663639;0.15157098;0.01987548;0.14239521;-0.1923306;-0.08742921;-0.010051525;-0.03299379;-0.07077461;0.10225603;-0.0004828359;-0.18242171;-0.025839306;-0.08841704;0.09118225;0.08156092;0.019265775;-0.13794388;-0.20633008;0.020160628;-0.0074258503;-0.24652913;-0.078249134;-0.0009356292;0.10722594;0.012165554;-0.017713226;-0.056145344;0.044304863;0.14298224;0.16932298;-0.016484493;-0.11850744;-0.023811951;0.19732974;-0.012591328;0.13522647;-0.020707592;0.07053619;-0.1318767;0.30056387;0.043353632;0.1848385;-0.34510672;-0.08305005;-0.026078818;-0.03612013;0.09402646;0.1334319;0.040635265;0.015270133;-0.07039406;0.030823354;-0.122100815;-0.06253497;-0.034166597;-0.096031785;-0.09840502;-0.050621532;0.13197713;-0.0243574;0.08354559;0.20325041;-0.11138752;-0.026497751;0.13801964;-0.08621991;0.05913881;-0.022592403;-0.0034166363;0.015578931;-0.005151934;0.3121014;0.069288455;-0.22600053;-0.047626637;0.02353318;-0.18050314;-0.016749581;0.098272316;0.097748175;-0.042698648;0.16726412;0.11581109;0.18851185;0.021882981;0.1804746;-0.104136325;0.14697804
0.10943241;0.05974844;0.11775356;-0.1069629;0.09997836;0.114913225;0.20949343;0.073186964;-0.16891102;0.009204343;0.12816715;-0.14257737;-0.06561629;0.06142124;-0.23048843;0.020532314;-0.12783474;0.0411594;-0.07103403;0.19296107;0.1259429;-0.0715176;-0.059526443;0.054283515;-0.17768969;0.11988059;0.106465206;-0.18896796;0.07893518;-0.05063852;0.08314132;-0.06974752;0.15826215;-0.19442211;0.13030268;-0.1240673;-0.012476311;-0.107225664;-0.02763858;0.0708563;-0.03472846;-0.31059375;-0.22328655;-0.15917525;-0.02327362;0.030933738;-0.006361189;0.08519023;-0.022393351;0.09715964;0.058241043;0.11848354;-0.17166747;0.0752448;0.29163596;0.029905904;0.16132876;0.18186395;0.13229235;0.02987686;-0.001137513;-0.003975029;0.045234963;0.030274333;0.15739116;0.036277324;-0.019610807;-0.03787039;-0.054989096;0.21487927;0.02659276;0.22500262;0.19587094;-0.10084303;-0.029685296;0.043907028;-0.051154375;-0.018376818;-0.2213828;-0.003782671;-0.0318323;-0.2269488;0.17044774;0.23033415;-0.17547506;0.13196366;-0.055767678;0.025613274;0.1629689;0.23615748;0.12399732;0.06289006;0.06973807;-0.014009254;-0.06284056;0.005729605;-0.041426785;0.015636947;-0.291958;-0.021668864;-0.025557442;-0.18860473;0.039776053;0.012877955;0.05816528;0.23047936;-0.17123996;0.055819105;0.11034558;0.18869832;0.07306923;-0.12399494;0.047774166;0.09366286;0.08159801;-0.22692975;-0.07636344;0.036131173;-0.14581886;-0.10297284;-0.15254594;-0.024245987;-0.058953255;-0.21129358;-0.035505045;-0.06689942;-0.06494466;-0.16179387;0.12154099;0.04651992;-0.16771947;0.11757827;-0.37773684;0.18104604;0.00414844;0.13284339;0.19592819;-0.022034;-0.00973257;-0.17012808;-0.1690781;0.047344647;0.24559048;0.15519635;-0.062856354;-0.047016002;-0.08259212;0.0034706802;0.14744963;-0.039418112;-0.09332666;0.012410583;0.070931636;-0.12821658;-0.07855916;-0.11609443;-0.10950992;-0.23486936;0.06564996;0.15736939;0.13539788;0.0064764665;-0.054342795;0.011581782;-0.0650585;-0.018586487;-0.026081676;0.102349035;-0.05065539;-0.01428543;0.16967225;0.16973759;-0.0026913157;0.2531772;0.15778875;-0.27922505;0.028056955;0.017075865;-0.0023816389;0.02670595;-0.039363954;-0.25681022;-0.17546605;0.17692657;-0.16497073;-0.14583385;0.08840372;0.29465812;-0.29271412;-0.21862648;-0.038102765;-0.110585965;0.21316923;-0.068290144;0.09109436;-0.10005879;-0.052448355;-0.011920961;0.011384825;-0.22029354;-0.22492844;0.19475397;0.027000671;0.09358458;-0.2209137;-0.27283254;-0.21020259;-0.07986101;0.07145576;-0.021994997;0.068209805;0.029496389;0.013239696;-0.14976558;0.07824156;0.061535608;-0.004266216;0.059517544;0.059466448;0.024928259;-0.1100708;-0.049426056;0.132934;-0.24523337;0.08209977;0.028484201;0.17599832;-0.10041838;-0.19168943;-0.16899702;-0.08425711;-0.07113364;0.027345078;0.23221539;-0.078853585;0.17075226;-0.06341838;-0.08033514;0.036799062;0.050579965;0.015656626;-0.22646022;-0.17416903;0.1122961;0.018023202;-0.095140666;-0.2023579;0.00951655;0.25771883;-0.20987241;-0.05129881;0.25105998;-0.03672426;0.09811656;0.023968834;-0.20432036;-0.18183999;0.22268432;-0.18701881;0.099649474;-0.0018369227;0.24995385;0.13343649;-0.12130552;0.13903655;0.057120267;-0.039481837;0.09170958;-0.038510595;-0.0027246992;-0.007928738;-0.13778831;-0.09690461;0.12368603;0.068649024;-0.06038269;0.18205209;0.072581954;0.022205042;-0.25215358;-0.17421494;0.07117485;0.003057949;0.13863005;0.0028365152;-0.16162615;-0.043153692;0.1578257;-0.04740879;0.08548042;0.15200494;0.072649255;0.11681539;-0.1204819;0.06342179;0.08629579;0.15500523;0.09015545;-0.052732375;0.084151044;0.07435382;-0.04296636;-0.038518555;-0.034398492;0.008717421;0.15904957;0.23520812;-0.05150183;0.022160409;-0.0774237;0.09163406;0.0112280715;-0.034047518;0.35617274;0.064236954;-0.062006988;-0.10274059;0.08094331;-0.05569296;-0.04028445;0.07212349;0.048358392;0.054056365;0.036065042;-0.032596122;-0.14489762;0.057645753;-0.020355549;0.022869784;0.035591483;-0.00031034427;0.021909827;0.13358739;0.13301213;-0.14858927;0.034616314;-0.1820521;-0.010009057;-0.19627722;-0.021136075;0.10121473;0.13826469;0.08027427;-0.0033826362;0.045677975;0.33090457;0.0008788319;0.04878508;-0.022324847;0.07377212;-0.12111222;0.16921476;-0.0068813767;-0.0034332424;-0.12938905;0.15090993;0.27863446;0.039979815;0.14775732;0.23382227;-0.27357188;0.060806394;-0.020386674;0.057881102;-0.093782686;-0.037732046;-0.14711258;-0.055477288;-0.18770932;0.019352818;0.13565405;-0.028898088;0.20569009;-0.4563918;0.019023389;0.14949037;-0.010658417;0.01730887;-0.1263379;-0.11585859;-0.1336293;-0.17057724;-0.020655317;-0.0030403032;0.00020538675;0.06424274;-0.23130934;-0.063926235;-0.0028195821;0.17799842;0.13798699;-0.042541098;0.38041505;-0.2896012;-0.2565602;0.028372874;-0.09128995;-0.06413571;0.1545381;-0.2493365;0.055465184;-0.2217943;0.07531283;-0.03964697;-0.18684284;-0.27976212;-0.023320798;0.0689916;0.020921187;0.069883116;0.20705028;-0.037654012;0.0010001673;-0.18966337;0.10770613;0.08234355;-0.0106508555;-0.17021455;-0.2714908;0.021973208;-0.06673858;0.02092047;0.081886485;0.16986625;-0.28122255;0.08956513;0.085202955;0.11598638;-0.22905542;0.15618755;-0.09584457;-0.06999981;0.00041666225;0.17480218;0.14927456;-0.008739704;-0.015862336;0.21785784;-0.033887293;0.0396785;-0.0053823176;-0.03972014;-0.08472904;-0.16437602;-0.028599571;-0.059744082;0.017018836;-0.14382121;0.010563549;0.133875;0.011088386;-0.017684845;-0.0021385823;0.12208822;-0.022729471;0.083313316;-0.13610405;0.007425954;-0.14535081;-0.039048776;-0.26862302;-0.14963564;0.045382548;-0.05347549;0.03703851;0.014736485;-0.122193255;0.11592689;-0.040487707;-0.013494863;-0.040061202;0.03341207;0.18610813;0.10197509;0.14886977;0.037931234;-0.19872232;0.05742571;-0.077451296;0.15649499;0.3356602;0.09745998;-0.029999996;-0.2745002;-0.09501101;0.06687999;0.23376887;0.22422463;0.044162914;0.1397491;0.13871194;-0.25908667;-0.1926536;-0.014349027;-0.020405056;-0.12698513;0.17521709;0.047137532;-0.10095388;-0.111407205;-0.13594808;-0.02421853;0.09421946;0.021895925;-0.14038058;-0.3300921;0.052016754;-0.042038023;-0.34775478;0.019959847;0.057598524;0.20091806;0.033567604;0.12341543;-0.094747655;0.06751284;0.2816587;0.2358386;-0.10056416;-0.078654446;-0.0034022362;0.21140744;-0.06922029;0.3387688;-0.09751057;0.12221578;-0.18276513;0.29686978;0.047906153;0.24572109;-0.32094547;-0.07220101;-0.037849784;-0.12378295;0.12326872;0.10735209;-0.008991769;-0.10510089;-0.09100957;-0.039780337;-0.20395872;-0.1651201;-0.044382893;-0.015838685;-0.09448624;-0.13838924;0.063363045;-0.0999923;0.13151892;0.31793416;-0.02866505;0.09334846;0.08868954;-0.14968437;0.14722423;0.0072012115;0.16628969;0.0992973;-0.08646091;0.25374267;0.09550329;-0.09317645;-0.11085845;0.06805352;-0.20799302;0.0429717;0.0058572134;0.011430531;-0.065447256;0.10127866;0.103838846;0.1486728;-0.04845336;0.1358089;-0.1711173;0.06452418
-0.020106584;0.08160679;0.05761211;-0.11273648;0.1564002;0.09738855;0.14803037;0.07754461;-0.16865392;-0.07205627;0.14840584;-0.113786444;-0.12386521;-0.0022312957;-0.23963149;-0.13687314;-0.107447945;-0.094468705;-0.12379156;0.024857933;0.07221162;-0.18404277;-0.03221694;0.13159989;-0.12521994;0.008314789;-0.029221134;-0.2960894;-0.023028288;-0.17197879;0.028233115;0.046488494;0.16929261;-0.14610013;0.017178664;-0.028057633;-0.030211234;-0.08825075;-0.043373078;-0.024502646;-0.01715573;-0.281611;-0.13106954;-0.09622107;-0.10611601;0.0248685;0.1310303;0.104793236;-0.12024354;0.081634834;0.0762259;0.09822187;-0.20753156;0.02491322;0.2832471;0.026374988;0.07155456;0.15275571;0.04015928;-0.12760308;0.09544029;-0.07822686;0.0777884;0.11147805;0.07344573;0.16311102;-0.01783033;-0.08127936;-0.05277782;0.20263246;0.024314461;0.168052;0.19076537;-0.25546694;0.026810214;0.072920546;-0.15658729;-0.063799806;-0.15987103;0.05496323;-0.021206891;-0.27671447;0.015587642;0.06604879;-0.21646133;0.12158905;0.08388668;0.067129664;0.100868076;0.31567588;0.03628518;0.110201485;-0.004515688;0.07890334;-0.042714678;-0.005076593;-0.18066242;-0.029414184;-0.43478382;-0.10690738;-0.06493755;-0.20206127;-0.016078327;0.057554834;0.0069179665;0.15713336;-0.12308621;0.11683832;0.17505792;0.19028059;0.122478366;0.018398192;0.1513612;0.081801064;0.11075681;-0.37358272;-0.046252538;-0.079030074;-0.16748099;-0.02672105;-0.15393291;-0.03794748;-0.030028848;-0.27032658;-0.0710215;-0.012564719;-0.070746;-0.059437074;0.06235137;0.062926725;-0.12939666;0.064416975;-0.38140163;0.156985;-0.14117432;0.23762085;0.2589414;-0.010109556;-0.038864937;-0.22442147;0.002257173;0.098488584;0.2750997;0.17351668;-0.13632998;-0.10767963;0.03263287;-0.04779705;0.034185376;-0.13402864;0.03831342;0.04957672;0.103726715;-0.2018873;-0.054557357;-0.08392256;0.022532532;-0.15981913;-0.020378688;0.31356722;0.27637482;0.1539796;-0.1997982;-0.08731636;0.08076302;0.1370442;0.025793606;0.12059645;-0.016652443;0.0530352;0.29815876;0.16746604;0.036065277;0.17568977;0.21650645;-0.3404487;-0.01992992;-0.05286269;0.02766579;-0.034383938;-0.06477144;-0.28449818;-0.08460195;0.03301521;-0.032906666;-0.1353786;0.029086873;0.2756086;-0.39282677;-0.2733007;0.0109477695;-0.22533216;0.30607992;-0.055904504;0.038470786;-0.24517217;-0.012390591;0.04478222;0.07030926;-0.23945001;-0.28714365;0.075522125;0.042039838;0.14596999;-0.24172197;-0.27955145;-0.2692492;-0.0012477101;0.052627634;-0.039640635;0.0144467885;0.07921278;-0.10993756;-0.11590864;0.09086429;0.06435241;-0.038034696;0.15262899;0.08609813;0.04752865;-0.019568125;-0.037796292;0.10482235;-0.2128095;-0.031686917;0.080332585;0.14046007;-0.18820739;-0.18620971;-0.12293823;-0.02319555;0.069261216;-0.0024960497;0.20627414;0.025936682;0.074239485;0.049931522;-0.130928;-0.05305937;0.120856665;0.044103533;-0.14223155;-0.040461097;0.17914099;0.12291467;0.07661446;-0.18190686;0.111998975;0.3312592;-0.22721456;-0.0909111;0.2683004;-0.04113723;-0.099249676;0.035635903;-0.15085305;-0.12136271;0.19313948;-0.2614496;0.24092793;0.024359405;0.18396693;0.025765058;-0.13609236;0.10165391;0.02492366;-0.028944846;0.046296276;-0.067704275;-0.0986222;0.12061122;-0.06697096;-0.20525047;0.070155285;0.10152882;-0.040058754;0.091510594;0.016825661;0.002599585;-0.32757097;-0.24467634;0.14489919;0.063653596;-0.031963363;0.09345924;-0.03053874;-0.019109;0.20182142;-0.04566893;0.05593872;0.08449749;0.0017218523;0.102915294;-0.16860063;-0.01849338;-0.02043551;0.12891443;0.03166793;0.06840618;0.09375737;0.19756824;-0.07982609;-0.015209729;-0.07985353;-0.027883818;0.09599556;0.06418268;-0.08885775;0.13887052;-0.025415735;-0.035408873;0.1195886;-0.14054985;0.25364256;0.032125268;-0.07577488;-0.2909258;0.06531905;0.009476453;-0.047635473;-0.058461633;-0.060926653;-0.028488671;0.13150153;-0.1412662;-0.057469603;0.17362419;-0.14191039;0.08184919;-0.078918375;0.013114347;0.05937568;0.10463294;0.20308301;-0.024408955;0.09114072;-0.108677775;0.030089937;-0.13460433;0.01206458;0.15353763;0.041799273;0.083442524;0.1025993;0.12758996;0.38765246;-0.008228049;0.10482033;0.0419779;0.09824517;-0.123156264;0.13887864;-0.06820862;-0.091893785;-0.14632976;0.19041017;0.21371761;0.067865826;0.06875118;0.26670226;-0.14108993;0.08195078;-0.13558076;0.08331932;-0.039156236;-0.09621979;-0.16819446;0.0401529;-0.25572944;-0.0061594546;0.1783855;0.039921638;0.31584764;-0.35270825;-0.041673783;0.28140244;-0.0891653;0.098782316;-0.14278221;-0.043705445;-0.1714105;-0.02777833;-0.04186764;0.084096685;-0.07105872;0.048591953;-0.24054252;-0.033804096;0.070341855;0.20348838;0.12731677;-0.11799124;0.41774458;-0.3768892;-0.2350243;-0.0974031;-0.056966294;-0.045595724;0.07479018;-0.3866958;0.07251356;-0.34747964;0.06320041;0.12003215;-0.27506056;-0.39769918;0.04025832;0.045131005;0.040023472;0.04595055;0.15850614;-0.0843931;0.005889862;-0.09958281;0.12100659;0.13435006;-0.10598046;-0.29392076;-0.2581172;-0.06428003;-0.066082075;0.075760335;0.04352943;0.23924248;-0.32088545;0.064827956;0.06457033;0.056569148;-0.19022277;0.050440654;-0.15465578;-0.006057041;0.11894236;0.21150468;0.094556205;-0.07042565;0.0037250824;0.12572207;-0.17449279;0.059995007;0.05619466;-0.026981484;-0.036586806;-0.21946782;-0.07610476;-0.038518596;0.16284616;-0.07406916;0.074782595;0.15836631;0.056738164;-0.056032993;0.04385576;0.08992993;-0.11764338;0.017073933;-0.071888246;0.021373773;-0.052084625;-0.020106103;-0.23494199;-0.16095291;-0.05430046;-0.11389208;-0.00026986172;0.1436214;-0.21363376;-0.016324487;-0.16606861;0.054804735;-7.1823466e-05;0.15617347;0.14729507;0.20788245;0.10959596;0.09477908;-0.35242617;0.17590603;0.00556432;0.013809613;0.36403316;0.19471574;0.0076613813;-0.30475757;-0.061832916;0.021967882;0.24390458;0.23123454;0.07934575;0.014322704;0.18301788;-0.28962943;-0.16659702;-0.009222626;-0.02518103;-0.02269845;0.119806096;0.12518007;-0.21060406;-0.007957036;-0.1805424;0.10559272;0.031850286;-0.012493575;-0.120572604;-0.34892583;0.13427266;-0.033942588;-0.2619773;-0.030887704;0.041076794;0.17107777;-0.029266637;0.16164355;-0.14253196;-0.043443713;0.22556303;0.2900036;-0.035898194;-0.09298274;0.0064760223;0.17799962;-0.0512147;0.35645315;-0.05125259;0.096714124;-0.13578114;0.24811748;-0.024913872;0.28508705;-0.12572803;-0.1902288;-0.09725024;0.058378797;0.1331968;0.10098542;-0.020838454;-0.08265584;0.021743376;0.039867837;-0.148757;-0.1476728;-0.0057054334;-0.1793951;-0.08324288;-0.28849524;-0.007821435;-0.07877728;0.1040009;0.27059036;-0.20543605;0.093620375;0.12920997;-0.12391441;0.17286359;-0.048236296;0.13492279;0.09734006;-0.008618166;0.21392186;0.05351631;-0.12963521;-0.119033836;0.059126955;-0.114297494;0.15061045;0.016307;-0.044346184;-0.0019100484;0.024096599;0.08549515;0.17171474;-0.06853493;0.1136391;-0.25151077;0.014139028
0.13294488;0.109295525;0.086108625;-0.021214306;0.09511355;0.113258876;0.27828377;-0.024611004;-0.15732157;-0.016884597;0.064569645;-0.1958548;-0.28453574;0.05791164;-0.27968705;-0.17163236;-0.16223767;-0.06080882;-0.051154498;0.04728833;0.12124957;-0.21573478;0.006016693;0.037308477;-0.115017734;-0.0648045;0.005201016;-0.24924871;0.014103764;-0.11499399;0.08448861;-0.070348226;0.21729009;-0.17686282;0.04035548;-0.04349235;-0.0016663806;-0.03234557;-0.11203409;0.019166889;-0.043171037;-0.39411932;-0.21209893;-0.18605906;-0.07987532;-0.025903009;0.18489172;0.04732076;-0.09592176;0.17354934;0.013144453;0.046554226;-0.17544918;0.051684286;0.29925776;0.12361143;0.15183035;0.24134056;0.1656591;0.054104205;0.03173935;0.025106812;0.09449411;0.115500234;0.10048428;0.1459782;0.08581351;-0.07737191;0.077852316;0.1791156;0.057461;0.18042389;0.12659872;-0.092426404;-0.042289104;0.20998693;-0.11892538;-0.16349263;-0.0880884;0.079702206;0.018711621;-0.24957603;0.0996098;0.13432166;-0.19964895;0.03657078;-0.02407926;0.12523971;0.2433481;0.2774997;0.101741284;0.19583711;0.037813213;-0.050409846;-0.0016794035;-0.12214005;-0.15634479;-0.08640075;-0.27650306;-0.10483942;-0.08069815;-0.3267053;-0.02883092;0.12196913;0.09413333;0.17042142;-0.10678122;0.07766876;0.16650677;0.1724194;-0.08194955;-0.117611915;0.16908473;0.11732516;0.13051069;-0.33100307;-0.11610062;-0.018481983;-0.0688176;0.0033297308;-0.16658702;0.0038994271;-0.010151594;-0.24045588;-0.0782003;0.027201189;-0.06961986;-0.20465958;0.13576697;0.07305939;-0.22649635;0.1564361;-0.37997434;0.18610679;0.032500852;0.09701254;0.26931518;-0.017748954;-0.020924319;-0.19221829;-0.10380031;0.027377643;0.27512494;0.13998558;-0.022086887;-0.03099778;0.031524997;0.074168034;0.08522483;-0.075932704;0.0055644447;-0.025890114;0.19288795;-0.2696626;-0.08848243;-0.15475196;-0.075454734;-0.24263242;0.1050007;0.2483328;0.1482693;0.09708813;-0.08701161;-0.039672118;0.09457215;0.035381228;-0.10593972;0.19946;-0.0452336;0.06380159;0.2682278;0.038178455;-0.018386219;0.30926606;0.24166222;-0.17239206;0.08441256;0.078441106;-0.018158408;-0.14058581;0.010469855;-0.23766829;-0.03450763;0.1497144;-0.17768183;-0.3166355;0.11670488;0.26013178;-0.34136128;-0.23943426;-0.03583987;-0.18663412;0.22825843;-0.1524468;0.054725844;-0.14554787;0.07821451;0.05774015;0.1407189;-0.062471423;-0.26516718;0.18414833;0.029693877;0.1850193;-0.28297627;-0.23700772;-0.20907418;-0.013223328;-0.10905638;-0.086194135;0.0324147;-0.06588092;-0.061945662;0.008024146;0.16475023;0.08260727;-0.13259843;0.1916594;0.10113541;0.17806572;-0.110724345;0.037089128;0.05444236;-0.1805355;0.028067932;-0.11719233;0.19849475;-0.2304126;-0.087076016;-0.20954569;-0.0152335735;0.060066078;0.07953642;0.17802745;-0.029586101;0.084257536;0.078375995;-0.14125797;0.054839686;0.13253261;0.028571054;-0.17931062;-0.12857854;0.17567651;0.085385956;-0.0918331;-0.18747064;-0.0555666;0.28734103;-0.25207523;-0.109903514;0.28093645;0.034115657;0.026127089;-0.040996175;-0.20472683;-0.0076342546;0.16060777;-0.19598468;0.1865376;-0.0289326;0.13415432;0.13797893;-0.097612;0.16604453;-0.11245137;0.07471302;0.09066385;0.00474239;-0.0013512148;-0.014310446;-0.076235436;-0.0988974;0.11298129;0.061418332;0.02254486;0.15869993;-0.0002623618;0.074738786;-0.3374462;-0.33313227;0.07420839;0.18154016;0.014528907;0.09665725;-0.16871393;-0.059124913;0.13361914;-0.1388256;-0.052636426;0.1787298;-0.007714133;0.1260486;-0.22412966;0.08144488;-0.061938986;0.15612161;0.079286486;0.022216503;0.026959531;0.17822413;0.052971102;0.06128755;0.009414538;0.059300315;0.08763813;0.12730947;-0.009113094;0.098226056;-0.110733375;0.038127773;-0.011824824;-0.13928035;0.37784368;0.0064321146;-0.05550843;-0.13234386;0.021247106;-0.082647435;-0.00926807;0.08400116;-0.023015117;0.060464185;0.08983494;-0.058462292;-0.13695699;0.008644166;0.018793557;0.09288215;-0.01859582;-0.08489132;0.03489587;0.18422116;0.18880697;-0.058252063;0.09542518;-0.1479154;-0.009999421;-0.15562277;0.06301895;0.18473;0.0575419;0.14799103;-0.014300094;0.051685955;0.40090927;0.0005609548;0.11256675;0.041943792;0.075942576;-0.054578993;0.07284007;-0.1357629;0.07782219;-0.15529256;0.15111007;0.32078576;0.017714562;0.11401185;0.16705148;-0.26066643;-0.04639437;0.012395129;0.0031388018;-0.04514243;-0.10542238;-0.28873226;-0.0047680424;-0.11238811;-0.029897958;0.104481146;-0.066496074;0.31978068;-0.38909325;0.09418121;0.17775877;-0.068236955;0.03249301;-0.06597584;-0.17310902;-0.14968434;-0.11259194;0.031740814;-0.013847891;-0.033060234;0.019096792;-0.24255463;-0.062080678;0.04799402;0.1535556;0.08338049;-0.11672219;0.46238285;-0.25664788;-0.26913762;-0.08540985;-0.04798921;-0.090566546;0.14890768;-0.39358228;-0.011320487;-0.32539216;0.17069134;-0.034113422;-0.28046805;-0.41622683;0.12087918;0.049954988;-0.004182879;0.1118611;0.2435635;-0.10247934;-0.02954509;-0.043865845;0.07933251;0.021888776;0.020068837;-0.11180372;-0.18733874;-0.02426369;-0.026703198;0.09907416;0.10790267;0.0787528;-0.4224449;0.10403664;0.04290372;0.10395241;-0.17873177;0.19989313;-0.14348382;-0.15551713;-0.025794053;0.31128725;0.2115286;0.017174874;0.01966474;0.2734983;-0.06913244;-0.02261356;0.055117555;-0.014134175;0.005616261;-0.18170105;-0.12908699;-0.13080028;0.113852955;-0.21333665;0.06853466;0.057506472;0.119988635;-0.12844142;0.04085517;0.06739829;-0.051910978;-0.05815791;-0.066575214;0.096110344;-0.061961155;-0.006475306;-0.27307317;-0.11063334;0.08227397;-0.072740026;0.079368725;0.043361545;-0.17383972;-0.021569563;-0.0048531783;0.1826576;0.086232215;0.22532405;0.2744647;0.23555306;-0.00905885;0.044499032;-0.34991774;0.05870769;-0.04554808;0.12845543;0.39579082;0.24276643;-0.07855317;-0.23639844;-0.031291705;-0.0029188232;0.23320763;0.21719018;0.0319871;0.015705507;0.2970673;-0.25564826;-0.21464717;0.16704959;0.016730044;-0.12553483;0.11134673;0.12314992;-0.1850072;-0.09984923;-0.09024851;0.051460188;0.047936484;-0.10644844;-0.18648079;-0.28141287;0.03497445;-0.020444684;-0.28994364;0.048715957;0.06873806;0.21407475;0.0064063114;0.2019251;-0.14940742;0.11038922;0.25556862;0.3169717;-0.085651465;-0.18236057;-0.124345824;0.24655592;-0.21367736;0.38600114;-0.07655858;0.14443734;-0.09116482;0.23598808;-0.016084451;0.19583923;-0.17175558;-0.10857194;-0.12587582;0.03058348;0.032416392;0.18564431;0.065654576;-0.11522447;-0.028694754;0.035079695;-0.1696909;-0.10241882;-0.017930893;-0.07701377;-0.084258966;-0.21860872;0.07850179;-0.08564585;0.15180388;0.31914526;-0.08774675;-0.029119547;0.24890666;-0.21845789;0.24672778;-0.11722181;0.07865511;0.074963525;-0.099619016;0.3076933;0.010464347;-0.1430355;-0.1534721;0.06599428;-0.15045162;0.08756656;-0.029175403;0.11074193;-0.06097865;0.017343778;0.16320589;0.20292188;0.08997851;0.010158555;-0.17787114;0.016437134
-0.2563381;0.09564509;0.057369787;-0.056794737;-0.1258765;-0.12864532;-0.15315644;0.11668781;0.04757693;0.11277777;-0.11184862;0.087516315;-0.2390862;-0.3199984;-0.2621445;0.118073255;0.12111;0.093455255;0.07641978;0.14735194;-0.1315232;0.00052808167;0.06730369;0.10623744;-0.031210555;0.032381024;-0.04161937;0.01924548;-0.16849557;0.19729264;-0.030085644;0.02444807;0.030953389;0.058151238;0.29858166;0.06553956;0.12073728;-0.1962281;-0.051678803;0.204102;-0.11923896;0.029946037;0.028254159;-0.21707188;0.014920878;0.32328466;-0.005896938;-0.3832306;0.022781719;0.0088168895;0.061186753;-0.17412175;-0.1241957;0.14307994;0.16309392;0.09128704;-0.023837976;-0.2582728;-0.00068619713;0.21921782;0.22348943;-0.06055048;-0.19008277;-0.01287625;0.15543188;0.01380588;0.03572281;-0.1454304;0.046705488;0.06912016;0.22439222;0.23030747;0.13115884;-0.24717967;-0.33457807;-0.10856076;0.3105993;0.08215692;-0.0099366745;-0.17285055;-0.040646248;-0.038824033;-0.18359905;-0.093391225;0.052002583;-0.10900847;0.16496998;0.26673016;0.07741686;0.17864327;-0.25645235;-0.31348813;0.1278646;-0.19586232;0.0958104;-0.031618048;-0.26634058;-0.03053534;0.0046567335;0.05337048;-0.15417323;-0.27284;-0.04976837;-0.16222556;-0.06495063;-0.37531736;0.32487854;-0.06727472;0.0019222915;0.114394695;-0.118637376;0.018289328;-0.03329669;0.25841495;-0.038214825;-0.28350174;0.18384533;-0.18283013;0.22336374;0.10059184;-0.0959579;-0.20504583;-0.2880317;-0.106519945;-0.035214175;0.13052414;-0.22757712;-0.033334527;0.32701817;-0.13189901;0.3143946;-0.17682901;-0.24067242;-0.008100037;0.054742288;-0.17753841;0.072056554;0.004622967;-0.0855929;-0.17987949;0.20793904;-0.0022965027;0.16959448;-0.14099605;0.09881008;-0.0042169136;-0.034340132;0.20746538;-0.23077692;-0.069375716;-0.2063187;-0.13530734;0.21968383;0.17227514;-0.38257766;0.15204242;0.058436677;-0.40748897;-0.13362359;0.064762056;-0.14243543;-0.15403834;-0.31713217;-0.38301075;-0.09598176;0.17570074;0.061049346;-0.0248017;0.063411824;-0.073481046;-0.1297348;-0.080402315;-0.14116427;0.045848176;0.13342157;0.13863896;-0.09853786;0.025438664;-0.055494122;-0.0024377867;0.08470672;-0.1175052;0.04200792;0.14043748;0.06857998;-0.18523616;-0.2201959;0.1444923;-0.0711427;-0.38436714;0.0099850325;-0.18725565;-0.10284022;0.016820626;0.080979735;-0.3677875;-0.31836462;-0.0047665983;-0.0028719518;0.022661928;0.20313653;0.24698968;-0.037228655;0.07158338;0.050819706;-0.06274791;-0.0749271;0.067633;-0.093433306;0.15189794;0.07659515;0.09087916;0.026813364;0.06331946;0.13241437;0.11909165;0.03319483;-0.03560961;-0.14478953;-0.096795365;0.0074544535;0.01282805;0.008689539;-0.12316352;-0.093288735;-0.21986149;0.0794324;-0.01925544;0.1555305;-0.24384862;-0.094316974;-0.16689776;0.007289924;0.1596223;-0.14920662;0.07117371;-0.19323087;0.2310088;0.027234698;0.002022376;-0.22726634;0.03583354;0.22359577;0.16441199;-0.37986472;-0.13345382;-0.02877865;-0.09317792;0.03428591;-0.0687738;0.10934631;-0.04006414;-0.22224228;0.060780097;0.06278966;-0.19071263;0.050607182;-0.23632829;-0.03152119;-0.13811736;0.12862465;-0.07280019;0.061940476;-0.032546338;-0.036625665;0.14302924;0.2199863;0.07327281;0.00067705783;0.119252786;0.06561133;0.2277643;-0.13791461;-0.035093497;0.051927235;0.0050853877;0.014407638;0.12412362;-0.05925377;-0.054321304;-0.05428436;-0.05993642;-0.24833378;-0.071154974;-0.032255538;-0.10067059;-0.27817798;-0.12318668;0.008020491;0.040395465;-0.19894464;0.03613031;-0.022250012;0.094362326;0.055094168;0.03797687;-0.08990807;-0.16499521;0.08689021;-0.06452717;0.07753908;0.0153798945;0.3171429;0.19016889;-0.07299578;0.081492804;0.11628921;0.19818369;-0.15815079;0.25700054;-0.07494976;-0.0072674113;0.217638;0.026717486;0.051500037;0.079375416;-0.15578431;0.015899293;-0.06397862;-0.12065907;-0.1456007;-0.011622018;-0.022790512;0.019717779;0.017328113;0.263024;-0.06811188;-0.07084117;-0.22449614;0.10304263;-0.18270929;0.06633057;-0.1430734;-0.058067888;-0.12383637;0.027077325;0.10062163;0.27823058;-0.19072533;-0.07988285;-0.01659112;-0.07119485;-0.2534684;0.045913704;0.09908187;0.2985601;-0.010562377;-0.10109956;0.032628756;-0.061456755;-0.19888958;-0.06784032;0.24307483;0.056325182;-0.16424806;-0.06863481;0.08839996;0.10302;0.12957838;0.0064168787;-0.10447875;-0.09970413;-0.096495114;-0.09104041;0.08790586;0.07623511;-0.20475334;0.1458475;-0.22395878;-0.2670648;-0.056457665;0.0006307671;-0.17938752;0.21245268;-0.09325718;0.25914967;-0.2520681;-0.025518578;-0.042934854;-0.13762873;-0.16481265;-0.08957991;-0.009641406;-0.18249087;0.1432923;-0.16245458;-0.32207447;-0.12491509;0.04610401;0.03175607;-0.22333142;0.1534375;0.066376;-0.23046833;-0.040928148;-0.16739072;0.06732938;0.18023957;0.062176522;0.064205885;0.12153156;0.17098287;-0.059406675;-0.01246628;-0.017091516;0.03597331;-0.20351341;0.1655117;0.15855256;0.05779628;0.06235227;0.3451303;0.26771784;-0.0015027903;0.05709869;0.06007148;-0.21105343;-0.14626731;-0.33988917;-0.019069884;0.016148247;-0.010845711;0.010477676;0.1424561;0.102568805;0.027567104;-0.104887165;0.06418155;-0.28742865;0.029704329;-0.023312561;0.020330396;0.13696246;-0.008452222;-0.0865286;0.020209754;-0.22911642;-0.095460296;0.13059023;0.018087314;0.010345456;-0.23693627;-0.030988198;0.014210932;0.09061516;-0.12828705;0.09917143;-0.14966364;-0.07738654;0.025564266;-0.28391045;-0.03234471;-0.034516193;0.024472572;-0.0023493927;-0.063931584;0.037563633;0.09138366;-0.060429487;-0.1030943;0.006195802;0.08808551;0.06882234;0.039289378;0.0017451352;0.12043134;0.0653838;0.1446903;0.119438544;0.16784307;-0.12156789;0.010642356;0.25279564;-0.12579484;0.00042931197;-0.12828039;-0.04720242;0.04445813;-0.007911125;-0.3258942;-0.32981646;0.13191502;0.15425757;0.029690675;-0.09166051;-0.039885286;-0.18490131;0.021508658;-0.13648242;0.18580662;0.03619407;-0.29458722;0.07739194;-0.20151183;-0.027889794;-0.10812058;-0.24235183;0.050430354;0.0054898667;0.2013627;-0.21648948;-0.062700115;-0.24878083;-0.25696477;0.20527507;-0.15078782;-0.108054906;-0.15049286;-0.31382877;-0.16600874;-0.054898247;-0.16910642;0.058732174;0.009621233;-0.12194733;0.017540397;0.00861112;0.17893378;0.22157015;-0.34218737;-0.37611768;0.18711646;-0.096066184;-0.17162658;0.032402266;-0.04953578;-0.030809619;0.13268684;0.017253224;-0.1547523;-0.054081;-0.041453335;0.34065595;-0.21885626;0.07909493;0.030940628;0.00038048418;-0.1722326;0.17763557;0.39407158;-0.10793945;0.15712053;0.1993218;-0.11899615;-0.08864967;-0.18968974;0.04001408;-0.26120672;-0.027384838;-0.07051953;0.08254384;-0.07003953;0.18930486;0.11835071;0.061571464;-0.38132888;-0.22041951;0.17954168;-0.09633338;-0.005586732;0.060866144;-0.19313762;-0.24870105;0.04112518;-0.002612161;0.105454825;-0.37138328;-0.085683994;0.164891;-0.15962893;0.13578896;-0.054998826;0.08555353;0.11700933;0.1528876;0.0035294862
-0.27643353;-0.007173399;0.23937416;-0.009758207;-0.1121255;-0.19941328;-0.15982696;0.14353193;-0.014876306;0.05575882;-0.049285185;0.18414693;-0.13784906;-0.36235207;-0.28673834;0.20420541;0.14225481;0.15386291;-0.06081036;0.13778287;-0.050999638;-0.06612117;0.10305728;0.18886484;-0.13890254;0.098753564;0.007832217;0.035798874;-0.05268207;0.107264556;0.030045241;0.12104613;-0.028688515;0.022408338;0.32790622;-0.0864949;-0.11793652;-0.17542614;0.08511357;0.14628544;-0.040087927;0.1603032;0.05529833;-0.13911076;0.09599697;0.2220234;-0.13528267;-0.29935756;-0.10292891;-0.005990189;0.011234182;-0.08571039;-0.034368414;0.22259971;0.059367783;-0.13557778;-0.01959435;-0.28265363;-0.091284215;0.10137386;0.119004555;-0.09709094;-0.18267791;0.08992344;0.22333127;-0.059816293;0.116896376;0.10935278;0.1383891;0.077728994;0.21233313;-0.055665027;0.098539084;-0.27239013;-0.2444196;-0.15040828;0.24747889;-0.080239736;-0.06769134;-0.09014861;0.034529947;-0.06523519;-0.10234577;-0.06411055;0.12797074;-0.06779704;0.116937615;0.10994927;0.15244126;0.12161899;-0.27800176;-0.16319025;0.045837518;-0.21457018;0.036135495;0.08186191;-0.1949539;-0.19234718;0.08541799;0.1159283;-0.027662186;0.051401395;-0.19240916;-0.08749069;-0.045009162;-0.36477315;0.24538001;-0.039682183;-0.18277533;-0.074537925;0.10735688;0.030130405;-0.08556752;0.08375308;-0.032738578;-0.34549412;0.0046592564;-0.23119654;0.19318806;0.08693328;-0.040571857;-0.066132925;-0.12738866;-0.20249236;-0.11341019;0.087088585;-0.076549925;-0.24935126;0.24690022;-0.083371975;0.1246874;0.108590476;-0.0397282;-0.108157314;-0.023155764;-0.04581012;0.029569615;0.052249115;0.07736963;-0.12354402;0.19641517;-0.13968723;0.21292864;-0.20860484;0.1709525;-0.007313069;-0.08524111;0.22972459;-0.13283665;0.02877455;-0.06655831;-0.062931985;0.075115174;0.13571176;-0.17000988;0.08478095;-0.058501415;-0.11434942;-0.15273355;-0.020929074;-0.22504072;-0.12978654;-0.12518752;-0.22495076;-0.11252662;0.13904965;0.16765927;-0.12299146;0.056759823;0.049383227;0.016430361;-0.05081499;-0.074678585;-0.08935445;-0.042326637;0.16551898;-0.110145256;-0.004598928;-0.00077639904;0.10598382;-0.0025975318;-0.18923269;0.103791974;0.16688873;-0.098729394;-0.23132601;-0.17923178;0.1946316;-0.103431456;-0.29795665;-0.035847325;-0.19544192;0.038661327;0.06553931;0.064025395;-0.2765284;-0.25526553;0.08401946;-0.093600325;0.026391214;-0.0047689485;0.16733298;-0.0014029146;-0.014876817;0.05197797;-0.29399863;-0.11818811;0.14031608;-0.13413377;0.20831746;0.16930997;0.2141034;-0.078292705;-0.045722548;0.051976196;-0.07851361;0.040680535;-0.2790868;0.020482909;-0.008797282;0.13962443;0.064647816;0.07578237;-0.03490463;-0.15179002;-0.21729024;0.0009383494;0.041242607;0.025604466;-0.078808434;-0.08868296;-0.09816267;0.0333449;0.0748628;-0.08540031;0.10381864;-0.36784947;0.20633587;0.19407392;0.14660968;-0.17583805;-0.107145965;0.094767384;0.16854566;-0.16141899;-0.034977008;0.03061733;-0.04937323;0.035312407;0.047413535;0.26481462;-0.23236609;-0.16774778;-0.060560748;0.0018686185;-0.21385556;0.11293525;-0.2108059;0.019621076;-0.12756163;0.029017841;-0.21326362;-0.041767243;-0.14055721;0.047794536;0.23350006;0.1086656;0.028429966;0.09891429;0.003979361;0.047285702;0.034554224;-0.08696525;0.08201004;-0.031056555;-0.11646878;-0.010110797;0.10397387;-0.17180537;0.054305144;0.096981086;-0.022745099;-0.06639888;-0.011875901;-0.07502863;0.15262325;-0.2742436;-0.07870552;-0.10225695;0.16520047;-0.06948713;0.06730921;-0.1179513;-0.0045791413;0.10428569;0.013510007;-0.013981105;-0.061251804;0.13649592;0.0694216;0.16106156;0.07637307;0.14564532;0.1453489;-0.06424596;0.041473195;0.007341644;0.19307524;-0.22241034;0.3688403;-0.041167416;-0.0066085174;0.04981789;0.15512401;0.10601175;-0.004100317;-0.050470598;0.03226618;-0.12697999;-0.11452174;-0.0711297;-0.12470118;0.11076022;-0.12151794;-0.035544053;0.25460583;-0.0701335;-0.26418474;-0.113049015;0.06306401;-0.11834221;0.16100153;-0.11206167;-0.022802256;-0.26805335;0.087193444;0.012277542;0.1523594;-0.10093361;-0.023766302;-0.1128893;0.033825558;-0.12889138;0.03688043;0.010065118;0.033434473;0.13214433;-0.14664161;-0.0065083792;-0.0898895;-0.16937621;0.1010079;0.21746299;-0.17023963;-0.01712377;0.060777254;0.16496468;0.11873066;0.10945013;-0.117196694;0.062105183;-0.047010984;0.018890727;-0.31917652;0.09426792;0.29157406;-0.092868686;-0.0019854375;-0.19322576;-0.056088384;-0.03105055;-0.0021059525;-0.11904352;0.07181716;-0.07151473;-0.0030384613;-0.25205275;-0.103022955;0.01520827;-0.20615411;-0.07936854;-0.06401921;0.0113338595;0.053382397;0.18882143;-0.09250228;-0.10058054;-0.12335907;0.00086467096;0.04790883;-0.14013031;0.18112874;-0.069557;-0.28083307;0.0061983922;-0.27769935;0.15123965;0.28971028;0.05947558;-0.03111842;0.060163464;-0.04191649;-0.13065006;-0.025250124;0.10175279;-0.027501658;-0.14498578;0.16709724;0.13629861;0.033737272;0.042684995;0.18850298;0.2348115;-0.12397492;0.10288076;0.050021023;-0.076581165;-0.028442431;-0.25213432;0.11957004;-0.064265765;0.011717419;-0.054476634;0.076519124;0.15109763;-0.086719625;-0.051100515;0.05978947;-0.07553808;-0.122252785;-0.12089359;-0.03977938;0.069937795;0.019666407;-0.0483565;0.04898454;-0.115024604;-0.13738523;0.17172608;0.005414168;0.060368787;-0.15591384;-0.022978079;0.021258697;0.1695578;0.031635128;0.15445375;-0.05031216;-0.08673824;0.1004146;-0.24548368;0.024284782;0.005586515;-0.151856;-0.15356176;-0.04045115;-0.07213735;0.04236836;-0.09455368;-0.10836203;-0.05557091;0.034785766;0.15821904;-0.10822674;-0.04802282;-0.049678862;0.026714023;0.068416536;-0.04780862;0.14712042;0.0067969393;-0.20809071;0.173314;-0.17671213;0.07994469;-0.17272668;-0.108078934;-0.01212958;-0.10052956;-0.2193016;-0.32292324;0.044297688;0.120549895;0.009688279;-0.13731045;0.06485405;-0.0737601;-0.082119465;0.10929349;0.06206243;-0.11713753;-0.1514573;0.037401404;-0.28614566;0.011544348;0.003922716;-0.13885334;-0.10853426;0.066610746;0.034615908;-0.3438331;-0.17084068;-0.19103906;-0.08658618;0.20640348;-0.26640323;-0.09686602;-0.20692644;-0.25590122;-0.063314386;-0.04341994;-0.12749144;-0.0077044936;-0.05009772;0.10880358;-0.046374813;-0.04272932;0.27587128;0.056559972;-0.17806849;-0.244433;0.07801961;0.17108928;-0.41754457;0.1579899;-0.09602525;-0.060957793;0.17141156;-0.007997549;-0.14273444;-0.06512088;0.09666935;0.27417052;-0.2570706;0.14423758;-0.06031091;-0.11157476;-0.0558562;0.20677407;0.21417765;-0.054970365;0.116961844;0.049387753;-0.19541986;-0.1253424;-0.09888848;0.014846282;-0.18246081;0.10128493;-0.023308018;0.03457086;-0.07180783;0.1619026;0.023970088;-0.03104532;-0.18362738;-0.26862282;0.20560911;-0.079798505;-0.089802764;0.06669529;-0.45027378;-0.0836984;0.034379523;-0.10472428;0.10967168;-0.24774788;-0.041942798;0.034268677;-0.061965562;0.020457897;-0.050682414;0.13704303;0.15377943;0.26116505;0.08205296
-0.11926315;0.034214526;-0.015347604;-0.09151338;-0.2162556;-0.14011116;-0.16187824;0.18592514;0.10077552;0.012363188;0.003343308;0.032184727;-0.16584545;-0.21424824;0.0027348173;0.10512714;-0.015792834;0.04719733;0.0685102;0.09005397;-0.069617435;0.041779768;0.16831054;0.08039812;-0.08819446;0.028154816;-0.065703325;0.08375799;0.058410514;0.23367937;-0.050946835;0.11171101;0.013052674;0.06265767;0.057340812;-0.06121871;-0.12130749;-0.28123894;0.14661746;0.17014246;-0.07512249;0.07083143;0.06620418;0.041292194;0.10132192;0.042847816;-0.04918398;-0.20183522;-0.113086365;-0.12983924;0.03508268;0.022153694;-0.18941566;0.15100604;-0.14858858;-0.008787684;-0.071807675;-0.38193256;-0.028002331;0.013112545;0.1777415;-0.05150487;-0.15519586;0.038176697;0.037599985;-0.022235906;0.01472984;0.05054819;0.018397335;0.23164545;0.20294714;-0.020726575;-0.025049543;-0.22745469;-0.3395864;-0.10843295;0.26774624;-0.069186956;0.008014726;-0.22537585;0.2231087;0.03210762;-0.16418733;0.028359631;0.1940039;-0.10046919;0.10719406;0.12030438;0.060620915;-0.07973246;-0.23843291;-0.09530131;0.063446894;-0.30969226;-0.07334622;-0.026574047;-0.09965236;-0.28745618;0.085082516;0.1517582;-0.1506364;-0.15372403;-0.102176346;-0.06098112;0.03892641;-0.15888168;0.0501572;-0.10420335;-0.12308398;-0.08785189;0.123723485;0.13970144;-0.08244646;-0.031491768;0.11498446;-0.4639275;-0.047442526;-0.0889357;0.11949049;0.14192817;-0.14822069;-0.23536164;-0.09310423;-0.15530668;-0.022807887;0.14504018;-0.04719259;-0.029685704;0.19497982;0.012793726;-0.040339895;-0.009741325;-0.038225934;-0.0031255397;-0.047848444;-0.037015423;-0.112187564;0.07215575;0.1270125;-0.054669544;0.16907406;-0.091295816;0.17328513;-0.108671196;0.18971142;-0.049815014;0.01244384;-0.0013728996;-0.33893257;0.08472259;-0.12557255;-0.03901758;0.19019505;0.13703214;-0.0069132396;0.07114753;-0.01755879;-0.1748036;-0.113079086;-0.118902735;-0.08488307;-0.16006471;-0.1273376;-0.08161;-0.06965752;0.11704695;0.07306992;-0.023524668;0.057954285;-0.038984038;-0.06714986;0.07915967;-0.05545158;0.055314854;-0.036062557;0.07947472;-0.04617148;-0.018558692;-0.1082129;-0.14024793;-0.03533562;-0.14075279;0.06978103;0.12886503;0.013567627;-0.11616747;-0.3450359;0.03698893;0.030531825;-0.3736823;0.05800533;-0.34236616;0.23935494;-0.08760055;0.1011208;-0.29342133;-0.13180882;0.13249607;0.0007012858;-0.038563117;0.08157575;0.1492691;-0.042079672;-0.0014705585;0.011659357;-0.23679912;-0.06162047;0.18778282;0.017668135;0.12164447;0.1834456;0.03849368;-0.08918342;0.10602512;0.07981939;-0.053168528;-0.0260575;-0.32218635;0.08858458;0.02684848;0.029979613;-0.04018861;0.082133345;-0.07364048;-0.075444825;-0.13068438;-0.023242699;0.16640097;0.13870333;-0.058641147;0.030769413;-0.23087397;-0.13126571;-0.027370894;-0.063078105;0.10601618;-0.3147816;0.178378;0.15593451;0.06959772;-0.14529568;-0.054305136;0.091477044;0.08614603;-0.08947882;-0.01915673;0.056758698;-0.10969758;-0.11946329;-0.0796374;0.091518626;-0.14066418;-0.20360173;-0.07614907;0.041700102;0.025927488;0.15222958;-0.048350323;-0.048005275;-0.17969729;0.025756834;-0.34969655;0.09230734;-0.1347022;-0.025840165;0.18971281;0.13659099;0.14703418;0.18890557;0.04274036;0.035725288;0.0059613874;-0.06100772;-0.01686487;-0.07450661;-0.020772189;0.008491367;0.028157964;0.009444335;0.14256568;0.17464313;-0.043658774;-0.009078196;-0.04138411;0.012817775;-0.0144505305;-0.29676569;-0.07955671;-0.011404576;0.07480177;-0.045780484;-0.019454658;-0.047502965;0.10192655;0.019507818;0.058900367;-0.06348724;0.13350725;0.15637602;0.13149895;0.254162;-0.03909904;0.15982701;0.06554522;-0.10466293;0.17892721;-0.061630603;0.017862638;0.041618746;0.32357264;-0.06215689;-0.12063445;0.11246064;0.034423064;0.13544428;-0.05720108;-0.02355122;0.0024122864;-0.13587692;-0.05389261;-0.14644288;-0.12975226;0.017768033;0.0843315;-0.056236826;0.14603704;-0.050074477;-0.26263368;-0.091950186;-0.03455887;-0.008677867;0.10408259;-0.22779772;-0.14211193;-0.20018312;0.08296924;0.06180151;0.32858726;-0.1511663;0.094244294;-0.23383303;-0.0070791133;-0.011838215;0.04333646;-0.036000315;0.03346028;-0.016854085;-0.04724844;-0.014907226;-0.13986915;-0.06717783;0.035056803;0.30764169;-0.09896307;-0.13869862;0.14520952;0.18221402;0.034943778;0.18893494;-0.023417208;0.043565728;0.021599337;-0.037420794;-0.21931474;0.06169227;0.2589668;-0.12295143;0.09082242;-0.07783586;0.18286362;-0.006312072;0.040542036;0.003355975;0.14367396;-0.13590595;0.031276386;-0.21708539;-0.0900085;0.08069936;0.01848798;-0.06370061;-0.033361547;-0.011080902;0.023692528;0.081800126;-0.20295818;0.0016695019;-0.09105724;0.040808164;0.058277454;-0.2287282;0.07073721;-0.109413706;-0.2563711;0.13074692;-0.13533401;0.13147914;0.2854369;0.09811513;-0.07163479;0.022863567;0.030582473;-0.10867007;0.08682456;0.13164781;0.10506145;-0.03804525;0.15931812;-0.0592228;-0.0048859743;0.022530088;0.13045174;0.3045405;-0.04943461;0.03531777;0.03917109;-0.044525694;-0.05591164;-0.09084438;0.08906699;-0.009660132;-0.031117173;-0.13259919;0.027647393;0.16459835;-0.16166997;-0.02860196;0.099150926;-0.09097459;-0.059384264;-0.07387512;-0.06287913;-0.13287263;-0.016528461;-0.09821751;0.02588462;-0.12972045;-0.0713712;0.12820618;0.04179736;-0.023634518;-0.04338967;-0.040912464;0.03110856;0.17503524;-0.17243016;0.14990103;0.083940186;-0.17787698;0.008051107;-0.1324977;-0.06353967;0.02324902;-0.042943127;-0.10942983;0.03361927;0.01493166;0.012473424;-0.022567086;-0.019771345;0.021207428;0.01415445;0.08795777;0.023314688;-0.03838573;0.0029557038;0.12405605;-0.032687146;-0.098179325;-0.074950896;-0.09849688;-0.15274991;0.14658764;-0.081692904;0.049808603;-0.04001848;-0.054235063;-0.02218243;0.09631003;-0.121264555;-0.33598986;-0.06511267;0.107470855;-0.081008315;-0.11072412;0.0027722975;-0.06242732;0.060157735;0.063969396;0.04620718;0.030777637;-0.079237014;-0.061167203;-0.30299804;-0.07304683;0.027204618;0.04089327;-0.057143483;-0.054939143;-0.094033115;-0.07957451;-0.03295814;-0.10520648;-0.28120962;0.073857546;-0.2134385;-0.05520051;-0.24075434;-0.35066864;-0.026714655;-0.14080137;-0.100416444;-0.07479307;-0.110408366;0.04667614;-0.0054759765;0.11941204;0.1088834;0.18755904;-0.09889364;-0.44493267;0.005545306;0.1792372;-0.31917447;0.1417609;-0.10869758;-0.15959264;0.08376217;-0.002545622;-0.057559248;-0.12064425;-0.005241771;0.24127324;-0.14941263;0.18960372;-0.011139335;-0.015639164;-0.08144013;0.09568863;0.23403065;0.03545383;0.026310977;0.09978694;-0.25538045;0.0028543756;-0.17927536;0.11108567;-0.22647329;0.059524998;0.016974412;0.04623886;-0.13835065;0.10091723;0.0015625973;0.10522429;-0.18584128;-0.19129544;0.22485305;-0.11976981;-0.10130449;0.021762963;-0.2514181;0.088167526;0.019659199;-0.0822688;0.016469102;-0.20052765;0.07998088;-0.15896416;-0.0711146;-0.04866039;-0.02471172;0.068092726;-0.041560553;0.17244785;0.08229524
0.007006265;0.05341433;-0.047130056;0.030581621;-0.19377846;-0.12697227;-0.17351209;0.08552266;-0.05370199;0.026177952;-0.22351934;0.18885095;-0.070304334;-0.27557504;-0.03657169;0.08643129;0.08255124;-0.01566374;-0.018698536;0.26171845;-0.108599834;0.12582071;-0.04921481;0.0630933;-0.031137843;-0.08957558;-0.17765136;0.14427966;-0.08195432;0.16300178;-0.032869678;0.12223898;-0.10658242;0.15592673;0.107101515;0.026353719;0.052721355;-0.31095004;0.13186242;0.080251254;-0.079618074;0.0071208277;0.0046238843;-0.023910718;0.030166207;0.13947771;-0.089687385;-0.18785302;-0.06857694;-0.055209007;0.049992625;-0.08812161;-0.05798342;-0.119908445;-0.17103055;0.010351702;-0.090784065;-0.34672242;0.02941096;0.18674251;0.17470704;0.03570627;-0.17187871;0.060880836;0.03223023;-0.0532446;0.12670894;0.12982748;-0.09369806;0.16228825;0.28004944;-0.17566712;-0.032534607;-0.1527479;-0.25070652;0.10378677;0.15543044;-0.19620118;-0.12464953;-0.0074462793;0.1644907;0.06306622;-0.05914098;0.019630743;0.109629795;0.04348757;0.21983083;0.24256444;0.13628054;-0.12193273;-0.25328523;0.10613084;0.10290298;-0.26821402;0.19677575;-0.09817926;0.108705804;-0.23330978;0.05672486;0.04478853;-0.044506498;-0.065012604;-0.054000814;-0.09104536;-0.12897047;-0.1424917;0.2150544;-0.09040399;-0.30218825;-0.18251154;0.051214583;0.052735265;-0.041814998;0.16636129;0.06790846;-0.5726913;0.026381496;-0.1107106;0.1201492;0.15608177;-0.1335389;-0.19841044;-0.21049744;-0.08943581;-0.0638245;0.044064805;-0.014709615;-0.22514841;0.38278246;0.15385345;0.038483992;0.021877903;-0.08600942;0.035780035;0.12948471;-0.061847057;-0.09540069;-0.10936027;-0.027836611;-0.11210017;0.018804641;0.10402445;0.22564559;-0.11043687;0.08118409;-0.11108222;-0.06277841;-0.130913;-0.5021308;-0.023445254;-0.13576864;-0.03976358;0.17793812;0.057010606;0.22405584;0.016001571;-0.00026845414;-0.1117354;0.06805999;-0.09981168;0.02108327;-0.0008944894;-0.0337225;-0.083234034;-0.0054141283;0.023459252;0.0052471953;-0.038938053;0.012936364;-0.049057353;-0.11153848;-0.19588292;-0.021034833;0.01376551;-0.04857937;0.17729522;0.024278454;-0.2047523;-0.09947284;-0.113069266;0.018610602;-0.1926726;-0.04474741;0.07065658;0.061588254;-0.08366412;-0.14028849;-0.012467584;0.071473174;-0.199364;-0.010526862;-0.24490613;0.22657439;-0.10574787;-0.060244624;-0.2518846;-0.06497919;0.17632373;0.09591624;0.051890153;0.015982943;0.055425514;0.022794714;-0.08158218;-0.19459021;-0.07445905;-0.15938486;0.14776188;0.035901893;0.11353065;0.06502239;0.011952468;-0.006390436;0.2531439;-0.02304585;-0.042553335;0.048641745;-0.38192806;0.19316252;-0.16895682;0.006854153;0.06485841;0.13390265;-0.09564936;-0.0022338354;-0.1689872;0.008645707;0.030590441;0.29776075;-0.07512699;0.029717527;-0.25826183;0.008362167;0.02476046;0.03268542;0.13305782;-0.20048597;0.20299861;0.07904207;0.11667701;-0.15995556;0.0064775767;0.16037518;0.026392542;-0.13911498;-0.07444816;-0.07651087;0.024510475;0.0025674682;0.0034349754;-0.0047145304;-0.26047042;-0.026738107;-0.017373255;-0.012977265;-0.1293287;0.1923934;-0.0017771483;0.1551813;-0.13631131;-0.17157663;-0.39583594;-0.026596267;-0.0120577365;0.027478065;0.10946241;0.3059886;-0.03116962;-0.04383692;0.080754034;-0.09818284;-0.03744473;-0.11733209;-0.037355393;-0.22348242;0.05030072;-0.005236885;0.15361886;0.006328891;0.11303833;0.18209042;0.00070585764;-0.003286442;0.042409733;-0.07549956;0.105272315;-0.0061312937;-0.0192041;0.015081138;-0.025019823;0.04187111;-0.05358962;-0.08869616;0.11601707;0.22445768;-0.022252167;-0.22673161;0.15869428;0.15179478;0.2552579;0.105372824;-0.006916191;0.0623346;0.15467998;-0.20272666;0.22505184;0.05000487;0.1714495;-0.032983918;0.18162295;-0.08346601;-0.016833877;0.10684384;0.10425732;0.15324514;-0.10130633;-0.0935575;-0.09379492;-0.11914343;-0.048619237;-0.24178156;0.033161722;0.032253455;0.0058354256;-0.077650584;0.18138438;-0.1085432;-0.10141072;-0.07640386;0.022170395;-0.15726103;-0.15956597;-0.29438862;-0.028596273;-0.1348236;0.027031763;-0.0118670035;0.23817243;-0.08272609;0.025524665;-0.38993925;-0.013572281;-0.23836234;-0.022524802;0.1371797;0.0044436282;-0.008628623;0.0827756;0.0647441;-0.15990397;-0.0368712;-0.07023357;0.2280595;-0.010171662;-0.16762307;0.058207504;0.0849975;0.031037005;0.18127342;-0.108819515;0.0445404;-0.07599482;-0.05814264;-0.26462117;0.114415705;0.0188257;-0.15132599;-0.041203797;-0.06319858;-0.0069928723;0.00096284755;0.074631244;-0.114157215;0.06956361;0.12622172;0.013040192;-0.28792042;-0.042836905;0.22735833;-0.102964476;-0.062944494;0.027583579;-0.060656685;0.1626735;0.2241036;-0.18474877;-0.08340353;0.10107164;0.06576674;-0.031653635;-0.23502621;-0.0067974883;-0.069031686;-0.27447385;0.16418159;0.08430147;0.14676005;0.28884906;0.04883484;0.10809988;-0.011338778;0.049636893;-0.07397233;0.0800772;0.0579423;-0.05161139;0.085382916;0.16918202;-0.0057211514;-0.21833587;0.011613481;0.11251784;0.08948985;0.10740429;-0.017557703;0.03648003;-0.021858599;-0.062177747;-0.019078778;0.093653776;-0.029503005;-0.10881421;-0.015480879;-0.028671289;0.011850225;0.00613657;-0.037133064;0.20825358;-0.084309295;0.012204041;-0.031242711;-0.07504997;0.020220267;-0.018301759;-0.034759782;0.11937044;-0.12782736;0.14221677;0.270433;-0.059787292;-0.003311497;-0.086733766;-0.05585423;-0.042375997;0.17853281;-0.19515543;0.14863423;0.03213345;-0.12196798;-0.0532766;-0.16591096;0.08492747;0.14576676;-0.12532131;-0.15965945;0.059554778;-0.0034548333;-0.065608196;0.17293665;0.057953037;0.11559738;0.2330522;0.28123757;0.07586117;-0.016840788;-0.1254489;0.05115273;0.042865913;-0.22390124;0.10406714;-0.27272695;-0.015248697;0.18351683;-0.10293357;-0.14232157;-0.14061423;-0.18455765;0.03963287;0.020834664;0.0754588;-0.34989557;0.090049885;0.18152435;-0.025553636;0.06832367;0.12765518;-0.050755728;-0.019102316;0.15564525;0.124939404;-0.14586495;-0.1098608;-0.005318491;-0.2531566;-0.056004293;-0.12829123;-0.065189034;0.06466051;0.053274192;-0.050239336;-0.24214934;0.103211835;-0.13177313;-0.29265273;0.097241476;-0.08611524;-0.1992362;-0.088347025;-0.23229271;0.0034498759;-0.3427818;-0.20936708;0.10101458;-0.12252749;0.105609104;0.015191286;0.14027311;0.100778714;0.13400516;-0.1098049;-0.28492522;0.1243166;-0.015212478;-0.26916918;0.2231256;-0.17723188;0.026438847;0.051808972;0.0034248992;-0.05869376;-0.12378177;0.08386471;0.17525263;-0.06410621;0.112834126;0.02752166;-0.00018879774;-0.015073253;0.1948011;0.1802939;-0.0032149632;0.0677554;0.19178088;-0.13826378;-0.030302979;-0.16676234;-0.022669995;-0.008298563;-0.10329122;0.070944816;0.05254882;-0.06667965;0.024598595;-0.06187544;0.1200007;-0.35126293;-0.16462018;0.11137409;-0.029008204;-0.0060805045;-0.100482;-0.30593106;0.074779905;0.05668585;-0.18690963;0.040313825;-0.1930032;0.0012355895;-0.16831852;-0.04506911;0.052984323;-0.07777302;0.05020291;-0.004748498;0.19115469;0.19131754
-0.14336981;0.11873512;0.015797725;0.058208715;-0.21804403;-0.0029499375;0.003117927;-0.016027495;-0.0074584642;0.044689517;-0.13537487;0.19895214;-0.0673587;-0.14809078;0.03373854;0.24271503;0.08607848;0.066047415;0.042899437;0.11830905;0.009918055;0.10254866;0.030544417;-0.022903875;-0.067883015;0.10284465;-0.13513434;0.10263016;-0.049005687;0.19264655;0.044808492;0.059665926;-0.06346515;0.1996293;0.098478235;0.029344596;0.047035154;-0.21329021;-0.0895245;0.19725278;0.06296164;0.008814978;0.054756686;0.091427445;0.13414395;0.027189605;-0.05281943;-0.29283243;-0.014156497;0.070526585;-0.097059615;-0.00423983;-0.26299134;0.058178257;-0.07125971;0.0032780357;-0.15979241;-0.09413813;-0.005413854;0.11406994;0.16370665;-0.011714355;-0.026103053;0.15409394;0.084795535;-0.00055002363;0.025431983;0.07557233;-0.128109;0.10955756;0.15201528;-0.09396191;-0.01541377;-0.10974197;-0.2444954;-0.07924677;0.26953378;0.009346823;0.08360424;-0.09962897;-0.031236378;-0.014251392;-0.050151337;-0.114889875;0.03276481;0.071991794;0.2677099;0.119692706;0.08297889;-0.058171533;-0.062386528;-0.14595596;0.17214668;-0.2264351;0.023359006;-0.005137546;0.066632815;-0.15192145;0.20253931;-0.04402452;0.018282942;0.04181141;-0.12688105;-0.09846409;-0.15149768;-0.30994016;-0.0057315435;-0.023407966;-0.07766561;0.06062004;-0.10864369;0.0016812804;0.10612297;-0.019155439;0.08745863;-0.46251735;-0.034847498;-0.05369865;0.124363385;0.10865503;0.10468348;-0.23750761;-0.23165804;-0.19709603;-0.17958891;-0.025750512;-0.015920619;-0.16811079;0.3600295;0.07274221;-0.01697896;-0.048332673;-0.13155836;-0.15060805;-0.016581284;0.06744432;-0.09942085;-0.078300856;0.08110831;-0.08571274;-0.14871024;0.078370586;0.12199052;-0.048726246;0.030069033;0.11571333;-0.038122848;-0.024094049;-0.47558197;0.09278108;-0.07249589;-0.023913708;0.21252356;0.045214787;-0.05882674;0.050578993;0.06489193;-0.29193532;-0.10093271;-0.06692798;0.08046509;-0.10408916;0.079915866;-0.22989573;-0.05383908;0.008973205;-0.021983048;-0.105575256;-0.01865389;0.00086636783;-0.10931143;-0.05189895;0.0788222;0.063239016;0.029138668;0.0007528961;-0.009912052;-0.17451507;-0.20920946;-0.14301631;-0.029137008;-0.17353195;-0.065207265;0.07108274;-0.04348855;-0.15647759;-0.2531793;0.03546165;-0.020975746;0.06307468;0.1845033;-0.18428524;0.06087593;-0.116799325;-0.0028987094;-0.05557969;-0.29912868;0.17081608;0.08380703;-0.06143254;-0.11898916;0.047644503;0.08322472;0.060256563;-0.07788419;-0.014723595;-0.066614434;0.15620561;0.08835883;0.26915973;0.010034979;0.058029886;0.050285403;0.0700013;0.034584153;-0.15710403;0.037588432;-0.17008606;0.012162961;-0.18788178;-0.0028338293;0.085913226;-0.12278598;-0.06430764;-0.086308286;-0.11185368;0.074389406;0.042158872;0.32321018;-0.39291117;-0.16183607;-0.024214711;-0.10886978;-0.032588843;-0.14254019;0.1564555;-0.07786473;0.14429478;0.12370305;0.15124694;-0.18742175;-0.06296147;0.17267276;0.03836659;-0.22954676;-0.071632974;0.01542835;-0.054986484;0.21358015;-0.15039113;0.19065316;-0.023480916;-0.26260328;0.018738102;0.053209126;-0.059605468;0.066197634;-0.07765153;0.051570248;-0.07893309;0.01992398;-0.28429142;-0.038494933;-0.046699896;0.14412943;0.18684317;0.13184237;0.14006014;0.12014692;0.099078715;-0.051977456;0.057621937;0.022350328;0.11071738;0.021582773;-0.051575013;0.07294504;0.16635641;-0.17049849;0.15751433;0.040776424;0.0021458266;0.001781034;0.17759515;0.081137866;0.12766862;-0.13754398;-0.050037373;0.1880166;-0.042654503;-0.099938534;0.08203103;0.053197477;-0.0053257765;0.10946707;-0.038896456;-0.11025324;0.15202056;0.049306218;0.026956642;0.26899272;-0.04125221;0.15145352;0.0646172;-0.20483144;-0.041363943;-0.03695561;-0.0072341603;0.11004256;0.089047335;-0.0820374;0.012899352;-0.09872539;-0.037364967;0.10964862;0.124081485;-0.12951429;-0.022503337;-0.06218706;-0.1099663;-0.3696306;-0.044243593;0.093136474;-0.08403057;0.057494745;0.3866469;-0.035919946;-0.2180214;-0.07038965;0.10048761;-0.23813452;0.0029748594;-0.12000346;0.13828626;-0.19998662;0.039898816;-0.074481145;0.32700044;-0.09246797;-0.14461619;-0.046952985;0.08177008;-0.11686014;-0.06897146;0.15092888;0.09259074;0.04581029;-0.045160953;-0.063556045;0.015619299;-0.066794336;0.0551596;0.1845559;-0.045677952;-0.20520471;-0.026889328;0.032361995;0.05748754;0.0710496;-0.039262377;-0.14019507;0.014238142;-0.19278948;-0.22195761;0.0950421;-0.059168343;-0.10222783;-0.057064325;-0.0029353034;-0.0073490315;0.09419661;-0.058844388;0.28069147;0.14583531;0.12089289;0.045178007;-0.14792222;-0.14803205;0.10341941;0.0039215344;-0.20177187;-0.059975084;-0.19022115;0.034877874;0.026559036;0.031568736;-0.17374024;0.13050912;-0.082784265;-0.017479815;0.03730731;0.15290488;-0.089667045;-0.10381022;0.1342984;-0.14247772;-0.012306982;0.24224888;0.07283584;0.058353912;0.16119361;-0.048700955;-0.12179817;-0.10178063;0.09322316;0.10953037;-0.17151801;0.24813847;-0.10019361;-0.082507975;-0.0072255973;0.08902496;0.092653565;-0.031438462;0.036142018;0.04612981;-0.065071434;-0.12262972;-0.19716822;-0.03727105;0.033227004;-0.105950296;-0.09563554;0.0669762;0.065528885;0.11545716;0.09054368;0.18387143;-0.049281076;-0.14570348;-0.117618516;0.06922697;0.056123544;-0.03436906;-0.06060109;0.14217536;0.037629344;0.013981085;0.22134976;-0.0023823737;-0.055441823;-0.1274311;-0.04592957;0.045073178;0.007627005;-0.05060731;0.23348247;0.054179005;-0.117966205;0.11826781;-0.14160874;0.013683698;-0.067153074;-0.1458672;0.123515874;-0.028491102;-0.046824295;-0.029943502;0.023116436;0.053869966;0.06320583;0.19696763;0.18236682;0.023151295;-0.07401622;-0.044210263;0.037563607;-0.00666121;-0.07613478;0.14046086;-0.12849218;-0.018779662;0.06473409;-0.056480367;-0.16527417;-0.25605017;-0.20479034;0.05097947;-0.029541876;-0.0981084;-0.11301727;0.17154095;0.12302263;-0.06694982;0.041585717;-0.12968391;-0.09611402;-0.08446533;0.14662302;0.17269462;0.15130043;-0.17105038;0.12921318;-0.28564957;-0.07573852;-0.11241321;0.04185972;0.06165655;0.062484942;0.039795082;-0.25446212;-0.1316009;-0.22203468;-0.070330285;0.062337507;0.059552006;-0.13853206;-0.14571834;0.13725728;-0.16520709;-0.10032209;-0.0026245974;0.09127646;-0.11596497;0.072443396;-0.0758315;-0.041844286;0.14771;0.0015498033;-0.2718491;-0.12043371;0.010747196;-0.026017133;-0.21176814;0.20096457;0.09666119;0.19247809;-0.08642109;-0.16873628;-0.15696114;-0.19611557;-0.089890145;0.14084312;-0.072438255;0.20998713;0.06399135;-0.0933875;-0.1372274;0.22801834;0.28822562;-0.21698242;0.1961543;0.14828916;-0.005177715;-0.13159315;-0.26299718;-0.1511685;-0.03435667;0.050581176;-0.24248098;0.20115134;0.058860756;-0.10892899;-0.033582553;0.12445496;-0.34194696;-0.37656054;0.06890001;0.16235998;-0.057588086;0.07079466;-0.15426199;0.20957735;0.01797651;-0.15614678;0.11540188;-0.19926432;0.026185758;-0.14741965;-0.07136419;0.023131087;0.002868604;0.108750045;-0.07818424;0.18828629;0.124507144
-0.08548227;0.09756594;0.06639672;0.037550025;-0.13631675;0.019172115;-0.09756397;0.060493723;-0.04172107;0.05642296;-0.21207131;0.097469546;-0.11144528;0.011163805;0.012026709;0.16012777;-0.0055760723;-0.028651627;0.15052642;0.13983564;0.03677988;-0.022521092;0.100242;0.047664694;-0.009087599;-0.068850525;-0.16341737;0.10388507;0.06640913;0.24646087;-0.12965092;0.005621184;-0.03658834;0.10408673;-0.11797112;0.1664551;-0.025257427;-0.160085;0.12116571;0.044487078;-0.118667506;0.045702245;-0.014749784;0.120157875;0.046896163;0.016490273;0.006360433;-0.24225214;-0.0007023811;-0.021074925;0.041717093;0.05293643;-0.2017832;-0.13643461;-0.10431311;-0.050181504;-0.15246345;0.037322994;-0.07410084;0.17923643;0.24173357;-0.01907722;-0.020748535;0.09478131;-0.08583383;-0.07921889;-0.0647105;0.12190805;-0.09448353;-0.0118687125;0.0692484;-0.22405446;-0.16142432;0.031695217;-0.14957963;0.060193878;0.2507662;-0.052871875;0.060925346;-0.10116389;0.10519503;-0.11036921;-0.035164684;-0.047815498;0.072433434;-0.037187275;0.17929871;0.25083673;-0.06265147;0.107126765;-0.06246171;0.035501365;0.010961045;-0.16697986;0.10247204;-0.0484552;0.02296937;-0.19273145;0.012085299;-0.0014502307;0.11195474;0.03407619;0.060678855;-0.049125947;-0.0017913886;-0.24991953;0.07204003;-0.07243092;0.033246387;-0.03487787;-0.14510214;0.044746112;0.08209105;0.17385446;0.03155691;-0.43410364;-0.068332344;0.08343397;0.0902961;0.08308028;0.07452367;-0.103489764;-0.19245796;-0.05808491;-0.14729826;-0.071953155;-0.053421065;-0.22029886;0.46678966;0.10372303;-0.02424606;-0.0035990714;0.002186274;0.07417759;0.035189804;0.1253994;0.09331228;0.122893326;0.17175595;-0.026307791;0.049031354;0.008254994;0.12024146;0.0434106;-0.11927471;0.012568031;-0.024998175;-0.08438822;-0.3863289;-0.027504504;-0.10259584;0.031340234;0.19603142;0.08463582;-0.0011517477;-0.020553356;0.12240822;-0.10070136;-0.06728116;-0.111616075;0.062350675;-0.22548756;-0.055544212;-0.09513034;0.08045643;-0.071357876;0.0019748295;-0.111858584;-0.0047168643;-0.037835937;-0.10837055;-0.09725104;0.0958824;0.1554486;0.031048154;0.16039208;-0.017594462;-0.2553147;-0.21969382;-0.2176119;-0.012031683;-0.27533686;-0.053304136;-0.011295166;-0.052416198;-0.057604663;-0.16591202;-0.0181059;0.06991674;0.056238953;0.04823682;-0.2218502;-0.09518009;-0.09720173;0.0125103;-0.046558168;-0.10781155;0.05637581;0.101196766;-0.043702062;-0.09999641;-0.015720846;0.05946677;-0.07149019;-0.19023256;-0.19620632;-0.08148883;-0.0038215376;-0.09328741;0.18629679;0.11546039;-0.048451632;-0.016061008;-0.029171202;0.04837577;-0.14464167;-0.010057069;-0.21757285;0.081537545;-0.12944104;0.06482122;-0.09445802;-0.09963954;0.08411773;-0.15724841;-0.13424645;0.22574861;0.103597015;0.27596626;-0.19492511;-0.022490945;-0.2717055;-0.10047084;0.09360203;-0.12747034;-0.020025393;-0.11530164;0.12542571;0.014576603;0.12565167;-0.18652877;-0.048262462;0.13464288;-0.04041708;-0.1989926;0.118409716;-0.05914362;-0.16426268;0.17491943;0.08421429;0.07173065;-0.14240731;-0.28410527;-0.10112911;0.1819727;-0.05204371;0.08130268;-0.074091814;0.15217853;-0.04899013;-0.005252399;-0.30051965;-0.045036815;-0.04656152;0.09903824;0.05763379;0.12317373;0.06217734;0.043565847;-0.08174387;-0.037836723;0.026072055;0.24874392;0.036341652;0.050805688;-0.05371407;-0.06190297;0.08219433;-0.1243434;0.11399034;-0.06380434;-0.11612636;0.0012139202;0.13542363;0.017992653;0.14936927;0.024645386;-0.065266855;0.109798536;-0.100784376;-0.058408935;-0.028709268;0.05238944;-0.037257656;-0.03686779;-0.03207444;-0.25267228;0.24377882;0.101213224;-0.13733098;0.12792636;0.06420872;-0.04997512;-0.0019020125;-0.13200676;-0.11115768;0.06716015;0.003047955;0.011573151;0.08161531;-0.06651647;0.03314079;-0.22402821;0.05307835;0.035958394;0.08295071;0.01198642;-0.064744785;-0.10323009;-0.09449173;-0.18445076;0.051608443;0.058731128;-0.014384712;-0.06751544;0.26365098;-0.13480847;-0.090568826;0.09529767;-0.003656802;-0.1832113;0.14106673;-0.13165446;0.015299245;-0.20739923;0.104878716;-0.103391804;0.29445708;-0.08179495;-0.08056403;-0.14776811;-0.020907981;-0.07599517;0.010877588;0.14913788;0.09311767;0.030479629;0.017082829;0.067201644;-0.110947564;0.013403852;-0.020988684;0.17359471;-0.08916215;-0.036912493;0.002118828;0.047654454;-0.059563104;0.03037162;0.028560247;-0.08538609;-0.0622339;-0.09398625;0.049440634;0.013589549;0.06009686;-0.009158011;0.08181566;0.07439989;-0.0038949999;-0.22176233;-0.034210395;0.08545635;0.017890198;0.09925419;0.02288444;-0.03194788;-0.123448685;0.036057767;0.0366489;-0.011670604;-0.057376117;-0.0012217786;-0.05692164;0.1674073;-0.04931594;-0.15137693;0.0016600488;-0.080191635;0.08538527;-0.1344543;0.11664082;0.09496643;-0.082331985;0.059955146;-0.004251671;0.027783442;0.13179709;0.061366417;0.020985508;0.0681371;-0.020822046;-0.06949668;0.05410763;0.12985292;-0.14089799;-0.065074205;0.095579445;-0.057879604;-0.07169293;0.07100179;0.03676333;0.06850673;-0.11257608;-0.09577002;0.0053880094;-0.009396867;-0.0834553;-0.045981143;0.035210583;0.07492822;-0.044603013;-0.15201075;-0.052719805;-0.13351342;0.06264161;0.11954956;0.19706735;-0.053856254;-0.070368834;-0.14047316;-0.027888404;0.079358295;0.037516154;0.14728999;0.12921706;-0.08484221;0.012728543;0.13362333;0.13345784;0.03376263;-0.07916111;-0.04299754;0.0054723043;0.11225193;-0.09236574;0.22651888;-0.055419765;0.08981995;0.05459329;-0.100625284;-0.11995926;0.09795485;0.08901631;-0.002847962;-0.14836662;-0.002244288;-0.0037175457;-0.030105216;0.0042264434;-0.021043334;0.09194136;0.217107;-0.0383744;0.008782228;0.002872364;0.005013909;-0.033286076;-0.17573385;0.03226522;-0.15475059;0.031168902;0.09582018;-0.15736327;-0.083730906;-0.06020541;-0.078500316;0.058891777;-0.059528884;-0.042790323;0.10295606;0.23465085;0.102336034;0.031440344;0.16011912;0.059298087;-0.11404898;-0.06859345;0.16137247;0.0669621;-0.036089454;0.003644805;-0.033323415;-0.24104282;-0.021153608;-0.040685963;-0.027771417;0.12321305;0.06563247;-0.035494134;-0.20882429;0.016562229;-0.16827215;-0.24724293;0.10745176;-0.10970129;-0.28907;-0.12883887;0.047236256;-0.038140718;-0.23267241;-0.049758445;0.16947827;-0.14650883;0.07934969;-0.011367604;0.006762112;0.029750062;0.070320204;-0.00981882;-0.14493272;0.07388404;0.0072719213;-0.19867094;0.18573296;0.04127082;-0.03912596;0.07965532;-0.151341;-0.11983224;-0.22106312;-0.08542512;-0.013683766;0.18158574;0.057489;0.04694377;-0.004995882;-0.12461706;0.033583414;0.21964295;-0.16979186;0.11535361;0.102750346;-0.08145181;-0.08790052;-0.19898139;-0.031627018;-0.0011936445;-0.0026589741;-0.0024745418;0.21436472;-0.004878555;0.0046960157;0.062353127;0.018010376;-0.33833775;-0.2297532;-0.033391174;0.06633712;-0.045815203;-0.09617173;-0.29990932;0.06496146;0.023707079;-0.12942563;-0.07949559;-0.30541804;-0.034138903;-0.29833147;-0.14364634;0.07801563;-0.026789986;0.067645214;0.026901588;0.05295998;0.11547262
0.009595977;0.07886724;0.023231441;0.03485618;-0.119209304;0.0018343495;-0.122364916;0.08845024;0.1944254;-0.018400084;-0.22087844;0.2664001;-0.07838798;0.027073855;0.07475619;0.10551037;0.05664435;0.009705248;0.006558689;0.10369704;-0.10866224;0.04142174;0.07990866;-0.19165659;0.046024103;0.04119781;0.010711236;0.039207213;-0.010282931;0.16741799;-0.026058726;0.062196918;0.027673626;0.2422454;-0.09862429;0.10736307;-0.048053738;-0.17329267;0.08370168;0.038251065;-0.106525145;-0.061366197;-0.054359447;0.04368905;-0.014250605;0.1378627;-0.18244746;-0.1002446;-0.116368;0.0533235;0.05518939;0.12698324;-0.3517399;-0.048544936;-0.16624084;-0.09286881;-0.070261635;-0.024459597;-0.015075804;0.2271684;0.29529554;-0.1649872;-0.030692024;0.11224817;-0.1563948;-0.005001697;0.0035266231;0.026902376;-0.02991016;-0.09766355;0.020914147;-0.14333852;-0.08502325;0.10395579;-0.2808137;-0.078657515;0.22460662;-0.02935615;0.0756215;-0.0029564947;0.12984891;-0.06807537;-0.08954478;-0.06517328;0.06373803;0.004049031;0.2023585;0.19334589;0.03927185;0.020117851;-0.009927841;0.025130248;0.054943003;-0.027235446;0.005766501;0.03569024;0.0034486167;-0.22568692;0.051256046;-0.10352723;-0.034697335;-0.026557252;-0.15005504;-0.12985316;-0.05672691;-0.24604903;0.12941189;-0.048259273;0.10152542;0.018345565;0.043646924;-0.08186684;0.06889234;0.01488636;0.07762851;-0.43277737;-0.10846534;0.20609294;0.16674866;0.09955937;0.013275031;-0.14868645;-0.08682361;-0.050184935;-0.049130697;-0.16380751;-0.029729517;-0.2328361;0.37173638;0.008931567;-0.02797541;0.05709635;0.064756855;0.08408878;-0.00807333;0.07415139;-0.060850974;-0.09592739;0.062492877;-0.062736966;0.043589994;-0.08529455;0.052254107;-0.0034479632;0.01737796;0.008186867;0.006669383;-0.14348939;-0.2854978;0.017774936;0.006191819;0.019611157;0.042921443;-0.006271476;0.046793982;0.06974076;-0.025743177;-0.09306948;-0.1825516;-0.14329615;-0.0031943955;-0.20896797;-0.18078905;-0.19494987;-0.024852533;-0.038447276;0.056190234;-0.06738822;-0.0325881;0.12744187;-0.19105676;-0.16507812;-0.059913814;0.097034134;0.0988101;-0.08595991;0.020275127;-0.27395254;-0.188264;0.013473562;0.03867264;-0.15619728;-0.10730064;-0.053946048;-0.14718814;-0.13988821;-0.15351704;-0.022887891;0.079615995;0.08941049;0.1241516;-0.25600478;-0.031536017;0.07710738;0.109784104;-0.08662317;-0.26600698;0.09880252;0.04029193;-0.037558973;-0.07282197;-0.07272568;0.058932308;-0.093070455;-0.05663667;-0.11580595;-0.021431826;0.1344202;-0.13704161;0.062893495;0.004496382;0.017427668;-0.0039005731;0.064113274;0.011695627;-0.24414916;-0.065406054;-0.29368347;0.022226205;-0.14929032;0.02888263;0.06031213;-0.081305265;0.019138556;-0.24750958;-0.24087536;0.12135392;0.054973308;0.14431666;-0.3374257;0.0026608033;-0.23678179;-0.06242745;0.029930813;-0.1104318;0.045352336;-0.10566446;0.24559408;0.20084725;0.13054487;-0.21773736;0.10929463;-0.10137927;-0.07048955;-0.16404848;0.010095766;-0.043946005;-0.24163172;0.20634678;-0.12634064;0.060087945;-0.16609825;-0.16344044;0.1604048;0.027220827;-0.014779921;-0.05673083;0.02221184;0.12611623;0.092552155;-0.005300049;-0.32814154;0.022960823;-0.18195076;0.114832334;0.13444605;0.10489898;-0.063822985;0.08402513;0.049284626;0.07626683;-0.053266987;0.15420963;0.15513344;-0.019252483;-0.09715004;0.012256507;0.19179285;-0.09145872;0.12420459;0.12840252;-0.041768312;-0.009429146;0.08995037;0.017949244;0.16958195;-0.02832366;-0.008954682;0.04938015;-0.14255045;-0.10491406;0.08173771;0.051023364;-0.15779471;0.010705431;-0.004612461;-0.22567795;0.100115776;0.031458687;-0.10404934;0.16110313;-0.09706278;0.031700913;0.064956106;-0.14212781;0.026027761;0.060181316;0.038458925;0.11259881;0.12132513;-0.030679213;-0.047064587;-0.16034071;9.571153e-05;0.013786481;0.15076995;-0.0643758;-0.065592185;-0.11994586;-0.07725525;-0.09364941;-0.09566961;0.0064781196;-0.11618771;-0.0159006;0.2315135;-0.07782519;-0.07560909;-0.018987186;0.1466774;-0.04685391;0.16521285;-0.039005827;0.024165533;-0.11153665;0.0027177122;-0.058176517;0.31169456;0.05997004;-0.10783719;-0.011987596;0.045029975;-0.09479555;0.03593767;0.003424421;0.1448718;0.04469822;-0.009672813;-0.028182758;-0.07961208;-0.12648618;-0.00076563057;0.050497755;0.049137134;-0.14193301;-0.076252885;0.10580904;-0.022168014;0.08917618;-0.04701137;-0.07581041;0.08599918;-0.05841677;0.015661351;-0.005716696;0.09767102;-0.0838518;0.037954893;-0.009370371;-0.11759481;-0.098393194;-0.10236054;0.141821;0.15564597;0.13954373;0.12027676;0.05160043;-0.08219259;0.19853105;-0.1538029;-0.047713924;-0.15141317;0.021259865;-0.043495197;0.1099371;-0.07563959;0.0065354113;-0.086098924;-0.018477472;0.10113954;-0.08507037;0.26479724;-0.049266566;-0.01116175;0.043851633;-0.06549852;0.007591968;0.23399325;0.040795952;0.03415185;0.0830108;0.013966528;0.05752934;-0.062488526;0.07291444;-0.0026756176;-0.19866252;0.20471068;-0.093993045;-0.0072187036;0.13310564;0.13172868;0.09901212;-0.058539145;-0.0055191433;-0.07547841;-0.17114764;-0.08323269;-0.033946924;-0.0004529887;0.016502786;-0.2415263;-0.14464581;0.027402064;-0.044752125;0.19111677;-0.025980193;0.09094345;-0.015277767;-0.1159226;-0.09950693;-0.029301949;0.044632494;0.09521421;-0.023614561;0.13609083;0.0082537625;-0.055954464;0.0967369;0.15197615;0.027243903;-0.12441474;-0.03740942;0.09993815;0.027108494;-0.040193297;0.26291493;-0.06398754;0.015619804;-0.03812377;-0.029016031;0.00023562656;-0.0054984945;0.24460296;0.04993792;-0.11316434;-0.11865752;0.11134051;-0.04714041;0.099705234;0.062202703;0.05851632;0.11919539;-0.0127141755;-0.087624736;0.11236451;0.06276974;-0.08772155;-0.13261287;0.08818926;-0.13975145;-0.09558413;0.15931644;-0.0035438268;-0.16563804;-0.05819482;-0.13533747;0.04999522;0.07722219;0.06339864;0.101715796;0.20051476;0.05499772;0.04105229;0.03244841;-0.008827376;-0.0974712;0.105808064;-0.07840721;-0.010917859;-0.054336794;0.025418328;0.09442962;-0.19740428;-0.06577114;-0.007878575;0.0027482586;0.021047609;0.05255305;-0.03125192;-0.29721987;-0.10924101;-0.14743607;-0.20981428;0.025441447;-0.046326023;-0.23863375;-0.15879354;-0.029451648;-0.13220239;-0.1801558;-0.010388867;0.13688998;-0.15470286;0.050198186;-0.108986676;0.11452413;-0.08212556;0.09246753;-0.17062125;-0.27751833;-0.011021088;-0.02264963;-0.070930056;0.14759396;0.012841432;0.080012485;0.12870534;-0.12087313;-0.038367778;-0.2739629;-0.1516863;0.09407037;0.08484147;0.10647259;0.10734645;-0.017362263;-0.23181003;0.1114212;0.166519;-0.18206409;0.21072648;0.1574566;-0.11270411;-0.06202217;-0.29099408;-0.262108;-0.06895163;-0.008329728;0.047414757;0.26743388;0.13529502;-0.021230113;-0.040193547;0.14066128;-0.24975319;-0.19505641;0.048085526;-0.025427569;-0.059871316;0.07797979;-0.3160567;0.0717594;0.11316958;-0.02451143;-0.0044675414;-0.38723218;-0.090390585;-0.17031416;-0.14398342;0.12928618;-0.031188289;0.07157178;-0.10060685;-0.0712061;0.16312079
0.03889485;-0.02578875;-0.031657655;0.0535729;-0.084501274;-0.102576844;-0.2512268;0.01969337;0.121047206;0.15422548;-0.20689291;0.26039204;-0.16833688;-0.06808601;0.005120152;0.01848539;-0.078581974;0.03213747;0.018185625;0.13287033;-0.045364667;0.106387824;-0.020497922;0.025454408;0.18033639;-0.044114783;-0.055049855;0.19853847;0.017573878;0.16714981;0.05255269;0.035731;0.033634424;0.14262544;0.016376782;0.04596468;0.051162034;-0.23314886;0.010603861;-0.024193296;0.001986614;-0.18994527;-0.13345057;0.109681614;0.03643062;0.030722799;-0.08791217;-0.07761981;-0.03427515;0.10582905;-0.026245791;0.16484821;-0.25988254;-0.11083304;-0.11061559;-0.08927971;0.0037262598;-0.09168645;0.0010141758;0.119556405;0.26984763;-0.011923706;-0.1951541;-0.03763219;-0.03284731;-0.05562186;-0.018737985;-0.04979753;-0.003571113;-0.18324226;-0.06414942;-0.15431699;-0.018960245;-0.015718646;-0.1802177;0.04413816;-0.004036623;-0.05194506;-0.018458325;-0.05706249;0.096017085;-0.1491609;-0.052519336;-0.13852479;0.08241169;-0.10662995;0.09408665;0.24737327;-0.037532676;0.03978062;-0.07328751;-0.008867277;0.02928162;0.06165505;0.058763396;0.14432782;0.029676663;-0.2482179;0.0071236845;-0.047635954;-0.037386596;-0.09549965;0.03520662;-0.21222903;0.013379032;-0.2257455;0.10160939;0.026927598;-0.07006879;0.016262531;0.14541247;-0.058888372;0.07337218;0.023064962;0.1501741;-0.46303275;0.013904893;0.22154735;0.07084814;0.034057654;-0.044129144;-0.044838782;-0.14394823;-0.10682975;-0.050877888;-0.07597472;-0.102767855;-0.2443078;0.27102616;-0.1388082;-0.040706165;-0.14110179;-0.036712494;0.13124244;0.021270707;0.109310925;-0.1563303;0.07771566;-0.054590747;-0.07810359;0.22322941;0.0658524;0.31573284;-0.06030506;-0.10151676;-0.025876548;0.08413125;-0.1954903;-0.30384228;0.049119134;-0.041670986;-0.005587663;0.26254216;-0.100361936;0.04223943;0.15491731;0.014626816;-0.14782828;-0.20031056;-0.16861236;-0.21225111;-0.20510639;-0.04617864;-0.01692764;0.08919939;-0.012422749;-0.080820635;-0.052667167;0.089167744;-0.030686522;-0.10166362;-0.17588131;-0.07487984;0.15950586;0.10788493;0.0020217746;0.018909527;-0.39293516;0.018202543;-0.13747656;-0.06023809;-0.2721372;-0.058976885;0.021431055;0.020836033;-0.13114947;-0.08174087;-0.12967615;0.029203707;0.0045898044;-0.03704927;-0.12907091;0.10436646;0.060031936;0.023461003;-0.13973828;-0.0986278;0.26413125;0.13175733;0.1384713;-0.030336073;-0.01440575;0.0746505;-0.027691586;0.1596363;-0.21481103;-0.0040831026;0.2005922;-0.1390214;-0.025856538;0.20043507;0.031660568;0.09523354;-0.10906923;0.049259488;-0.080826774;0.021532515;-0.2619389;0.12563029;-0.19435348;-0.017885674;0.1319253;-0.10977894;-0.021618403;-0.18687631;0.038066;0.011785281;0.1521389;0.097229995;-0.3273254;0.080005065;-0.35032365;0.006186002;0.0864021;0.0329502;-0.15399279;0.08072199;0.21467826;0.21825212;0.23273708;-0.13314296;-0.061526;0.19334894;-0.051673114;0.004133199;0.024700528;0.041778218;-0.094946444;-0.09630872;0.090567335;-0.06818945;-0.30085316;-0.077625915;0.20258585;-0.08369237;-0.08963696;0.16316944;-0.11204321;0.15425128;0.024418602;-0.058656212;-0.31995204;-0.22160827;-0.13108164;-0.013551638;-0.044406023;0.06624078;-0.06343764;-0.009481819;0.09093237;0.0007380296;0.014827292;-0.067861386;0.23026547;-5.5001037e-05;0.00028226292;-0.118435696;0.01245862;0.064823516;0.13765548;-0.08735013;-0.15030758;-0.004270303;0.11107112;-0.087284096;0.15727356;-0.040203605;0.0021201398;-0.221064;-0.11389918;0.12361352;-0.14171019;0.043668907;-0.016964577;0.058716033;0.028236102;-0.23202838;0.05563877;0.03960885;-0.04149307;0.2703361;-0.108069405;0.025123088;0.18496196;-0.0794796;0.07648595;-0.024186987;0.0749461;0.06656916;0.034238957;-0.09195783;-0.026594805;-0.14640078;-0.02357548;-0.16047807;0.1485595;0.16138723;0.02259621;-0.13408129;0.07901223;-0.12331504;-0.04359216;0.030834796;-0.069227695;-0.04545959;0.04983756;-0.122843325;0.13727893;0.20769738;0.089801535;-0.045791708;0.061944824;-0.06476275;0.08075057;-0.17114371;0.04812756;-0.06840205;0.26876307;0.15600942;-0.2555199;-0.10842219;0.072586164;-0.09105374;-0.089840755;0.016465183;-0.19958133;-0.12622492;0.019634506;0.007811148;-0.09903236;-0.13903895;-0.0048899613;0.0972927;0.049475875;-0.08672682;-0.03591739;-0.043775514;-0.065256946;0.14171945;-0.1711376;0.008515207;0.006944574;0.06910383;0.07569698;0.24975502;-0.053761162;0.119417906;0.016219147;-0.08724935;0.10882523;-0.19844829;0.06342053;0.054730084;-0.009871629;0.0689296;-0.044488225;-0.07515739;-0.03249833;0.16868736;-0.15787727;-0.20229271;-0.1404234;0.100040644;-0.16731901;0.024507202;-0.17218412;-0.13003762;0.19215004;-0.025315024;-0.122063056;-0.07183578;0.13745473;0.13739762;0.025682528;0.08105757;0.0075169723;0.11102299;0.19827747;0.0066313636;-0.097850926;-0.1044628;-0.12305704;0.027727926;0.0721757;-0.003443634;-0.046612274;-0.11540245;0.15346484;-0.12434352;0.06544268;0.099859685;0.13736872;0.046619177;-0.21009794;-0.17666578;-0.19033325;-0.16880816;-0.10916391;-0.096873075;0.071052805;0.03985492;0.0014927568;-0.18286349;0.0017908501;-0.14201327;0.08944025;-0.07237946;0.0151039725;0.027878959;0.07450681;-0.018766448;0.1088839;-0.052519385;-0.0060176537;0.07121311;0.2842382;-0.110684805;0.0655597;-0.08849202;0.056673214;-0.011464697;0.066316076;-0.0046690907;0.13941902;0.09790505;-0.02430276;0.14993335;-0.03231535;-0.03517355;0.064327225;0.019587036;0.0028344581;-0.04506952;0.32438815;0.0056977766;-0.03263651;-0.11733376;0.16219813;-0.05346897;-0.07102355;0.086542346;-0.07814606;0.16962226;-0.03301278;0.049453966;-0.16307926;0.09912599;-0.022947347;-0.2147592;-0.08191828;-0.15691306;0.016532812;-0.018640433;0.08124764;-0.10362886;-0.05939805;-0.1417325;-0.0718477;0.016192405;0.10198754;0.09886168;0.21471941;0.17420796;-0.036337573;0.1659281;0.00025672384;-0.11929505;0.027732342;0.0077721314;-0.013074186;0.015457777;0.098399214;0.1672481;-0.035775345;0.061989967;-0.053455744;0.07008626;0.094887696;0.011212562;-0.1398377;-0.06902968;-0.0322277;-0.114888474;-0.18634976;0.20398343;-0.12196036;-0.0957107;-0.22440325;-0.089949824;-0.18848729;-0.03296746;-0.026917312;0.13819802;-0.0046886196;-0.04795048;-0.09812346;0.112217546;-0.054814965;0.1611716;-0.019153316;-0.32092443;0.015452516;-0.048557647;-0.085794255;0.20554604;-0.0018296398;-0.010356916;-0.06887282;-0.16458732;-0.14224303;-0.26090336;-0.05493584;0.1604598;-0.07872781;0.09880823;0.14927593;0.07474777;-0.26279157;0.109114744;0.027017646;0.027441762;-0.07385709;0.20689635;-0.0012745787;-0.061670568;-0.18117118;-0.26802593;-0.13558888;0.04794833;0.13267936;0.11845145;0.011665196;0.056964222;-0.08186714;0.025585692;-0.33924004;-0.1223814;-0.14704221;0.044025443;0.10260989;-0.06527102;-0.2933329;0.05885334;0.0975299;0.10125617;-0.10432278;-0.54673195;0.041927762;-0.18908443;0.028712464;0.053630184;-0.029462874;0.02630549;-0.22416234;0.031032111;0.26380667
0.081656255;0.06481937;-0.0075263674;0.087895535;-0.16184387;0.04155311;-0.22279237;0.046364427;0.16179241;0.15810919;-0.2266741;0.14710686;-0.072815776;-0.046517737;-0.077100605;0.19598918;-0.06021067;0.061814953;-0.0015071331;0.07125022;0.29056376;0.051098492;0.04918673;-0.04031425;0.1383469;0.013523449;-0.047171295;0.13700913;-0.09908314;0.21322417;-0.0029629602;0.089015245;-0.014215704;0.19600767;-0.00590445;-0.015244902;0.026807649;-0.14889815;-0.1463419;0.08375017;0.08784469;-0.14001434;0.010471855;0.096974224;0.03454065;0.025262518;-0.07051106;-0.08343522;-0.058346108;0.107485205;0.101391986;0.13285743;-0.074850105;0.014049603;-0.0071304985;0.08708365;0.047065772;0.08445291;-0.1770768;0.16800642;0.18696834;-0.017075587;-0.106310874;-0.0755347;-0.02297554;-0.11738205;0.040013548;0.08083899;0.006424103;-0.081218496;-0.04222034;-0.19062583;-0.060706373;0.034922764;-0.13041985;-0.00074348756;0.019031959;-0.0410487;0.17562824;0.046051692;-0.07616462;-0.12340905;0.04242678;0.06757731;0.033941723;-0.07760849;0.10385519;0.093799904;-0.055626467;0.02782004;-0.009257691;0.0063743433;0.1357668;-0.09401447;-0.02694855;-0.032125562;0.025408482;-0.25218365;0.06352042;-0.13079336;0.06505774;0.1535917;0.015172885;-0.19413112;0.22280417;-0.09426083;0.17929274;-0.0069069327;0.0032730536;-0.11661222;0.024486925;-0.10288786;0.02474178;0.03873684;0.04984773;-0.47667232;-0.028630396;0.053553488;0.03796033;0.04265925;0.14185773;-0.07189517;-0.21203397;0.010021632;-0.04261022;-0.23451251;-0.046614863;-0.17437033;0.23159353;-0.14473692;0.030654864;-0.02433064;0.039554212;0.20498234;0.0062086224;0.18253723;-0.08825469;0.13580987;-0.0014765738;-0.1514844;0.17874749;0.035295323;0.1662522;0.08784945;-0.08867001;-0.107125826;-0.044125132;0.025154492;-0.05718167;-0.029042931;-0.060808014;0.08267776;0.24967808;0.03279404;0.08090618;-0.020462306;-0.08530903;-0.15435372;0.050113842;-0.0100595765;-0.2808626;-0.018693421;-0.043741375;-0.11961366;0.074907586;0.15181734;-0.16708;-0.14439058;0.039996695;0.027689397;-0.030219419;-0.15782091;0.10092314;0.17772034;-0.078196585;0.01879537;0.1390789;-0.27936894;-0.09993867;-0.031587247;-0.1360126;-0.12859462;-0.07901521;0.062781475;0.048459467;-0.17101188;-0.09869957;-0.105689846;0.11429387;-0.10179028;0.02827256;-0.24999931;-0.017448962;0.053470258;0.054044176;-0.06626083;-0.030851675;0.2047478;0.2382468;0.1310862;-0.14757411;0.09824462;0.22659008;-0.08305789;0.22871648;-0.23742807;0.08546867;0.25302958;0.1384546;0.09625848;-0.036339376;0.06184258;-0.018872716;-0.03218864;-0.02425886;-0.098510735;-0.116480395;-0.23016791;0.12237292;-0.25186294;-0.03630252;0.12652436;-0.076532856;0.05181188;0.018183703;-0.09775545;0.07252765;-0.033991307;0.15206349;-0.29150817;0.09779592;-0.31529894;-0.03630499;0.08373294;0.0897373;-0.06038601;-0.08440562;0.25817013;0.14780661;0.011344109;-0.15389094;0.034538455;-0.13226575;0.12136675;-0.050292525;0.009378456;0.046839643;-0.0009152146;0.08701326;-0.03158219;-0.036498345;-0.31637073;-0.0543051;0.3392069;-0.091051996;-0.2163764;0.0846905;0.0032619913;0.09592295;-0.095054224;-0.020672332;-0.3885463;-0.08062069;-0.053697977;-0.060190775;-0.08296978;0.14290692;-0.13583983;0.026029654;0.14177543;-0.14573923;-0.0060969186;0.15106323;0.1569315;-0.14108637;-0.00520748;-0.119432375;-0.04406001;-0.117136925;0.04880724;-0.096545905;-0.10498918;0.037418224;0.18042788;-0.0963685;0.1710014;-0.00071595854;-0.020084877;-0.15711047;-0.109728314;0.020026146;-0.082148254;-0.1591843;0.05142603;0.109806925;-0.020616738;-0.07561547;0.16419357;0.08370302;0.008118624;0.23167524;-0.032292232;-0.15296735;0.19886051;-0.05175904;0.032771826;0.23109213;-0.040021647;0.098131225;0.07046739;-0.09204393;-0.073363274;-0.26144603;-0.15013894;-0.027506152;0.06773796;0.046942327;-0.029424706;-0.14935446;0.01862529;-0.124052085;-0.049907457;0.028351232;-0.34454107;0.064631216;0.113252774;-0.19901085;0.117227666;0.065770596;0.12691131;-0.09583343;-0.033133857;-0.07975764;-0.032114245;-0.13514556;0.12306212;-0.12471338;0.25687134;0.062382795;-0.24927731;-0.13376392;-0.08773669;-0.27522215;-0.095605664;-0.009100159;0.017737491;-0.025360024;0.051586185;0.03771093;-0.01432769;-0.22914253;-0.04790048;0.05829031;-0.014018533;-0.18279666;-0.10058592;-0.05357297;0.05293377;-0.032434378;-0.09889178;0.14568023;0.055793185;0.013201486;-0.06646943;0.19859345;-0.100590125;0.014688945;0.07349175;0.004715446;0.103904836;-0.20735753;-0.11728191;-0.10154038;-0.021566356;0.014795744;-0.15394425;0.039071254;-0.2607308;0.25797123;-0.20781101;-0.15117934;-0.12934333;-0.0061404374;-0.09875489;0.24797313;-0.17001621;-0.09080703;0.07478007;-0.014992687;0.030080453;-0.050505638;0.19040096;0.038723283;0.02072425;0.044567402;0.0603074;0.004548343;0.21008456;-0.092486605;-0.10819393;-0.14318967;-0.008526474;0.06835873;0.05625606;-0.078007646;-0.06345652;-0.07162776;0.22019714;-0.05313982;0.12623945;0.073743284;0.20973869;0.108233854;-0.055452056;-0.03656232;-0.09263547;0.15209438;0.014340778;-0.019226609;0.12260024;-0.08728676;-0.084547155;-0.11764098;-0.08918136;-0.041152183;0.16459;0.1618781;0.041021977;0.12564765;0.020304136;-0.0040934132;0.022381177;-0.15156662;0.26313567;0.042317145;0.31304574;0.034176458;-0.09919955;0.004237278;0.0662862;0.0033555464;-0.07461714;-0.082332924;0.089514524;0.20028974;0.21725866;0.02269715;-0.14154892;-0.029852282;0.13239542;-0.08349738;0.12735781;0.041698884;0.16114932;0.00010976036;0.1463677;-0.06757615;0.099894725;-0.014011503;0.05130876;0.08372952;-0.05073121;0.060817752;-0.04763362;-0.022908023;-0.14274684;-0.016579565;-0.12311528;-0.24168877;0.039258238;-0.14857928;0.14278185;0.052251916;-0.23146915;-0.19119975;-0.147836;-0.14794332;-0.073423855;-0.05240917;0.07817597;-0.13651489;0.1907435;0.15623505;-0.046374045;0.20699267;0.019237176;-0.18082964;-0.026763102;0.19906233;0.097416244;-0.27101383;0.14203349;0.0025572882;-0.059960086;0.12866397;0.050804637;0.08377135;0.033393815;0.043895166;-0.017396133;-0.1397748;-0.031903356;-0.25221545;-0.048999276;0.16854033;0.003787168;-0.26271054;-0.039436426;-0.06326149;-0.34934548;-0.09516625;-0.020560913;0.039487742;-0.058645297;0.06468676;-0.09663867;-0.08565981;-0.10659225;-0.01715874;-0.11080584;-0.028187055;0.01150846;-0.21749067;-0.29606274;0.08685668;0.048212465;0.107983515;-0.006366047;0.008116176;0.037370138;-0.15325862;0.09719115;0.090153046;-0.06487992;0.2040415;0.094752744;0.15368281;-0.20027237;-0.01895453;0.083546214;-0.20067328;0.12825787;0.23764801;0.11567412;0.07687425;-0.16231975;-0.10969541;-0.08055524;0.084118746;-0.014061019;0.22941215;0.050953552;-0.046870615;-0.050226536;0.014474625;-0.24267414;-0.2001278;-0.105441846;-0.03456688;0.08938183;-0.02298454;-0.22574323;0.16811238;-0.025891537;0.09906793;0.06999547;-0.37330174;0.011399713;-0.055438176;-0.016299304;0.024516767;-0.03769994;0.053069074;0.020852325;0.047410324;0.25315654
0.19168845;-0.015091329;0.0143243205;-0.088490315;-0.056354847;0.049079236;-0.13913938;-0.025988815;0.038686533;-0.07201457;-0.13709041;0.086431704;0.13184735;-0.021343667;0.063434824;0.14371134;0.0096264;0.08985526;0.12150106;0.046319798;-0.040569838;-0.14792216;0.0797707;-0.062078428;0.0346998;-0.05591109;-0.17849563;0.06618509;0.09595857;0.01461327;-0.029231144;-0.03651971;0.03496602;0.06549296;0.063961826;0.018018292;0.1430579;-0.07852363;-0.03351528;0.07305164;-0.019291988;-0.19816944;-0.21756119;0.16694526;-0.010857447;0.011734445;0.020193115;-0.101663806;0.060884133;-0.06857547;-0.013378062;0.07927974;-0.14817205;-0.056352;0.14959991;-0.044699714;0.095120415;-0.022737458;-0.19285965;0.14943908;0.23911163;-0.06955299;0.08834215;-0.038184367;-0.024023864;0.061611127;0.04368307;-0.050126918;0.102679096;0.02667392;-0.033831466;-0.13280477;0.04665763;0.11349983;-0.27800262;-0.018649613;0.11764197;0.02445269;0.019180002;0.15452866;-0.046271455;-0.24603024;-0.023579562;-0.05129784;-0.03754568;-0.04150588;0.15116234;0.18566693;-0.09389709;0.064932086;0.055995338;0.08164124;0.09661453;-0.15370604;0.17558189;-0.033643965;-0.04291946;-0.27478263;0.082093306;-0.12684174;0.1652141;0.026320368;-0.1458371;-0.13971658;0.07025085;-0.073333584;0.17932202;-0.0778545;0.068024956;0.008480202;-0.05598675;-0.04031261;0.031353418;-0.017975854;-0.08501714;-0.4763138;0.009276;-0.057181764;-0.043184083;0.065266445;0.043797396;0.0015479795;-0.09768193;-0.14776744;-0.188791;-0.22955126;-0.041683756;-0.34964603;0.113846175;-0.100582704;-0.070789844;0.21236256;0.13747971;0.27764568;-0.19802082;0.07622014;0.075675644;0.045520864;0.034675263;0.07203838;0.18400624;0.078134574;0.18238586;0.0652813;-0.13467275;-0.1735452;-0.03654488;-0.14391929;-0.109430894;0.04236252;0.03188379;0.018143965;0.11953226;-0.10065598;0.024754446;0.059464775;-0.12547302;-0.16926555;-0.12616658;-0.14160773;0.04472612;-0.00755471;0.037916396;-0.056341253;0.11608103;0.08587708;-0.07919611;-0.23705791;0.0595388;0.06490413;-0.11247611;0.059558745;0.09846155;-0.008633695;0.10524429;-0.087362505;0.077113956;-0.21122754;-0.094140254;-0.19752643;0.14646548;-0.18225975;-0.09044634;0.012765804;0.044254765;-0.081465274;-0.029621536;-0.10474511;0.1418031;-0.2564764;-0.008206508;-0.3581882;0.013004254;-0.0069086924;0.1561274;-0.10851708;0.04263541;0.089826226;0.2462636;0.019255381;-0.13245131;0.07378405;0.15303828;-0.10150113;0.21463692;-0.28056386;-0.08189206;0.13705702;0.15380912;0.0975213;0.017657503;0.14742926;-0.057043254;-0.08620747;0.061368722;-0.07168585;-0.091963865;-0.18693402;-0.008160336;-0.0049900855;-0.05663316;-0.063631654;-0.016842077;0.03090086;-0.064997464;0.011699094;0.04967775;-0.0680445;0.20472462;-0.26957402;0.050891638;-0.23668247;-0.0538327;0.04841376;-0.012599181;-0.09229505;-0.02147156;0.19968866;0.1122353;0.11794492;0.03314989;0.001983005;0.03313803;-0.03675653;0.058471642;0.19590816;0.2054042;-0.0475907;0.014551779;-0.07908654;0.07842581;-0.13954371;0.1139162;0.23241234;0.09000289;-0.053391617;0.0052650105;0.05626678;0.039785653;-0.00029955662;-0.022237543;-0.41627675;-0.034444325;-0.109138474;-0.050662946;-0.01964913;0.14358315;0.014455907;-0.08769797;0.12587729;0.07225244;0.096418746;0.012356749;0.027436879;-0.1286448;0.09008495;-0.054465234;-0.011927551;0.0015328384;0.055912126;-0.08756908;-0.05290922;-0.11279717;0.18120193;-0.133386;0.21632403;-0.08161008;-0.13078232;-0.19912;-0.07829531;-0.009198343;-0.0373875;0.0074771335;-0.0055967965;-0.029146962;0.03566932;-0.050860226;0.20575981;0.1063014;0.18706872;0.15742224;-0.1311892;-0.09010024;0.13847563;-0.20138206;-0.086133815;0.06609325;0.01634203;0.038732745;0.12316761;-0.22172995;-0.08092993;-0.34052357;-0.09781068;0.15070266;0.1458023;0.0685378;-0.0025377402;0.025047118;-0.067420706;-0.13414505;-0.10638324;-0.0648234;-0.33138236;0.087783836;-0.0009039955;-0.23198178;-0.052755766;0.1582211;-0.05970013;0.0051298914;-0.025981477;-0.14296086;-0.15687375;-0.025227085;0.04298797;-0.17697136;0.09816299;0.18424858;-0.058210395;-0.04319419;-0.044602953;-0.068787396;0.07420865;0.03991169;0.084476106;-0.051956743;0.21064237;0.01627968;-0.02158033;-0.24307103;-0.04660764;0.08883431;-0.13485697;-0.3760537;-0.051417436;-0.10961283;0.04622689;0.103984155;0.048363164;0.077263445;0.032201424;-0.05017125;0.016773315;0.08125914;-0.017871348;0.0832305;-0.0062973564;-0.05163673;0.07481669;-0.09441494;-0.056621853;-0.046101954;0.13319552;-0.042222187;-0.15568143;-0.013737292;-0.095291935;0.082888916;-0.04063964;0.009748677;0.11492553;0.095833495;0.058373008;0.035923526;0.024043854;0.01486844;0.09122333;0.1859185;0.014347473;-0.1932078;0.15034388;0.0008749357;-0.017386684;0.1229434;-0.081116125;0.080415666;0.13439302;-0.028535577;-0.31978703;-0.12587756;0.05077883;-0.07728311;0.22362612;-0.05670814;-0.007976454;-0.23455997;0.08309917;-0.108450696;-0.020641444;0.16012864;0.102132306;0.1594926;0.039997324;0.05511072;0.010172276;0.055092324;-0.04769664;-0.030182645;0.07295589;-0.022978479;0.029785298;-0.024294894;-0.15034135;0.13809125;-0.016123677;0.124638095;0.04621098;0.13498257;0.033412136;0.061368458;-0.0005603987;-0.07793247;0.007762283;0.06532588;0.19463705;-0.10455157;-0.14611883;0.10247422;-0.07451257;-0.036369354;-0.11088627;-0.042994995;0.03264694;0.07221541;0.16741495;0.12844124;-0.1388918;0.18459176;0.06683229;-0.0937139;0.14555708;0.041324764;0.22934817;-0.03638681;0.22825736;-0.01207564;0.0057381885;-0.054243885;-0.08526044;0.0421505;0.078007974;-0.14023942;-0.030259892;-0.04154367;0.00299624;-0.05062276;-0.1473411;-0.30435318;-0.08906381;0.004612186;0.023662798;-0.07492849;-0.08520179;-0.19430013;-0.06472469;-0.049825177;-0.052631564;-0.001320346;-0.027676495;-0.12399037;0.24306042;0.23202544;-0.04945137;0.10364593;-0.07079673;-0.14971246;0.009345362;0.2852254;-0.0231726;-0.07489164;-0.08652674;-0.037265655;-0.085305475;-0.014437706;0.022585731;-0.018549405;0.041463576;-0.070406765;0.0039407406;0.043890398;-0.081617415;-0.19195047;-0.054796543;0.05403743;-0.114337645;-0.14509593;-0.2535593;-0.12890926;-0.06944587;0.039330065;0.0366158;-0.08612016;-0.055665735;-0.00022603819;-0.35913405;-0.014362213;-0.0017557464;-0.07477087;0.034392375;-0.06940175;-0.023902047;-0.08923663;-0.20641312;0.003379404;0.01146457;0.101797186;0.17111439;-0.1556527;-0.044136856;-0.26598173;0.025760718;0.09446865;-0.07033424;0.1533843;0.011060334;-0.0071524815;-0.024542691;0.20705268;0.0752823;-0.0727209;0.055132635;0.16914131;-0.0950047;0.047907416;-0.25755528;-0.291839;-0.10238457;-0.010668444;0.08243662;0.09598409;0.09490049;-0.0074150423;-0.06481398;-0.008570837;-0.1223553;-0.110024296;-0.04348012;0.1873147;0.19540122;-0.086712055;-0.16810164;0.20756002;0.022931308;0.08563191;0.05176479;-0.33999035;0.10757657;0.045447566;-0.2407775;0.08612854;-0.21278296;0.07901067;0.08450761;0.017622517;0.22392993
0.08776609;0.087214865;-0.010766014;-0.030855129;-0.04915407;0.10870765;-0.20449011;-0.1055081;0.14248408;-0.0006733713;-0.123422414;-0.03499787;0.008242224;0.075569816;0.0036539375;0.08216675;0.07265347;0.015585818;0.05785511;0.060609743;0.03132125;-0.11948817;0.076407544;-0.14008653;0.011016346;0.0411271;0.025238303;0.12791385;0.116121836;0.07134558;-0.04875873;-0.10175491;0.029112233;-0.059651032;0.09194444;-0.04982258;-0.057487078;0.057665184;-0.13005558;-0.011159234;-0.02016156;-0.21364206;0.010581816;0.16796337;-0.07477741;-0.007830513;-0.08299574;-0.15235344;-0.00044071517;-0.10011679;0.01054759;0.060159266;-0.19089232;-0.040353213;-0.07283442;-0.019712105;0.15746847;0.0042605074;-0.33403766;-0.011585595;0.17547065;-0.11063447;0.091295004;0.06909225;-0.002998426;0.029730698;-0.110167384;-0.13782467;0.07214952;-0.06956291;0.11136988;-0.10950139;0.06356174;0.08213916;-0.23610118;0.0026170418;-0.011304543;-0.0070499196;0.10654138;0.09805393;0.050403904;-0.11477318;-0.115183696;0.020448199;-0.13842404;-0.074919485;-0.073248;0.13527992;0.007905535;0.12338157;-0.122575395;0.1081576;0.05039646;-0.13705161;0.082329705;0.014459028;-0.04193889;-0.116347924;0.07802787;-0.13071457;0.1329064;-0.003930205;-0.05460229;-0.07191579;0.026458543;-0.09931585;0.09262416;0.03216386;0.07421009;0.07415745;-0.061097916;-0.090424865;0.074828975;-0.0995412;-0.029328654;-0.45248994;0.05760745;-0.038603902;-0.011618504;0.15113954;0.04430498;0.024922064;-0.024790395;0.14075097;-0.13989046;-0.17534977;-0.06349955;-0.3916318;0.07293913;-0.115947105;-0.023510037;0.17345941;0.1428424;0.14820747;-0.14078286;0.06762016;-0.05600538;-0.14794129;0.16883874;0.08237638;0.026376694;0.0012155578;0.21957137;0.117402665;-0.06922508;-0.13562481;-0.023000363;-0.09581642;-0.047521405;0.020945897;0.03265589;-0.01744989;0.08720527;-0.103468835;-0.00638636;0.006399471;-0.120958515;-0.17350121;-0.039655507;-0.13713485;0.10955811;0.0719806;0.025508417;0.010316504;-0.014706339;0.0070681646;0.083871454;-0.07013579;0.026772927;0.099120446;0.039204642;0.015805218;-0.02270385;0.18704319;-0.019667653;-0.12787893;-0.030591264;-0.25888118;-0.21976504;-0.14742428;0.067924075;-0.1132838;-0.10598907;0.008480655;0.05153704;-0.15150857;0.08685397;-0.019115346;0.028425718;-0.28281546;-0.16615193;-0.39731976;0.06348771;-0.03629585;0.10123183;-0.16861731;0.0824741;0.19228433;0.1501117;-0.09834099;-0.040304434;0.05990517;0.10095449;0.03804429;-0.01726144;-0.12160636;-0.08167296;0.032844838;0.04372987;0.0068622003;-0.0067856293;-0.08919132;0.030180378;-0.035353865;0.073690005;-0.10163621;-0.06834057;-0.32384366;0.014713587;0.0007762414;-0.04072977;0.070365906;0.044713277;0.038656514;0.038107395;0.03719734;-0.008982409;-0.07419297;-0.0023106227;-0.16989765;0.06088123;-0.30308038;-0.14788929;-0.12868898;-0.054473482;-0.07011639;-0.09166938;0.21880901;0.15179561;0.2798005;0.01342982;0.050015956;-0.13979895;0.0031100318;0.05870223;0.30752668;0.15301412;0.02884261;-0.13390559;-0.16919604;-0.04112875;-0.14737903;0.0854973;0.25345746;-0.037995834;0.047590055;-0.0023723375;0.050992284;-0.057989635;0.04235131;0.058166604;-0.46813554;-0.07572147;-0.15579571;-0.037222255;0.04093062;-0.005749326;0.07859109;-0.059778612;0.10185554;-0.018929126;0.01221443;0.0319378;0.06847738;-0.01121244;-0.018501528;-0.1129974;-0.035486866;-0.0050586974;0.007516548;0.13405314;-0.015485203;-0.16803814;0.17289835;0.015925668;0.29310098;-0.06734787;-0.024472525;-0.21539085;-0.10629741;0.13215879;0.003806841;0.025005555;0.036220968;-0.07823199;0.17734215;0.011002738;0.16137925;0.050029777;0.107791446;0.14565629;-0.18197592;-0.022683172;0.010920176;-0.25774962;-0.09375498;0.0073034544;0.0065887594;0.042037133;0.026205001;-0.11563083;0.009460856;-0.17707624;-0.031286564;-0.043002844;0.122158945;-0.10630449;-0.004786007;0.04947436;-0.14667869;-0.12581699;-0.11591319;-0.056293707;-0.22657941;0.03305593;-0.0006048088;-0.18962826;-0.026135668;0.1919746;0.025688455;0.07596671;0.029684188;-0.06626471;-0.123305336;-0.018688157;0.07491936;-0.14025328;0.12250469;0.25358784;-0.08879021;0.15330343;0.18496785;-0.22864395;0.0961197;-0.013239219;-0.09783062;-0.14356194;0.012003098;-0.08390078;-0.05120816;-0.17937796;-0.037288696;0.13441165;-0.09917002;-0.31735477;-0.13515066;-0.1274925;-0.053652056;0.08410886;0.025561055;-0.10709251;0.07437602;-0.07575607;-0.08309034;0.1356913;-0.062111404;0.1779583;0.0052257464;-0.20020086;0.0035549724;0.05430839;0.03903369;0.047352035;0.183673;-0.11495909;0.0051411944;0.15917724;-0.030696612;0.14166841;0.122526824;-0.036397275;0.109057695;-0.022032635;-0.03560526;0.08107597;-0.021895235;0.058706883;-0.17462635;0.10504921;-0.029890617;-0.10756402;0.058787808;-0.10949603;-0.15434438;0.19760595;0.011524205;0.10702215;0.14461018;-0.06309424;-0.34312138;-0.038258288;-0.21258266;-0.13793878;0.18029973;-0.028519833;0.072988;-0.05603278;0.1952129;-0.097849704;-0.10828671;0.05179544;0.2122104;0.06831935;-0.0630245;-0.059165962;0.07375239;0.08607923;-0.13440242;0.024521045;0.0012071743;-0.0723513;-0.09987731;-0.088592075;-0.038228236;0.20296235;-0.15996796;0.027769605;0.022228528;0.05842094;0.0017475598;0.0686929;-0.050661713;-0.15248974;-0.04706278;0.0005433044;0.11466499;0.05369832;-0.044114556;0.07938984;-0.10660254;-0.035434045;-0.0025994014;0.077010326;0.029906288;0.004003795;0.06250979;0.20922498;-0.18427281;0.3141398;-0.027054202;-0.13875794;0.009752;-0.07886922;0.2649724;0.093438916;0.18137504;0.002316265;-0.15424292;-0.10620991;-0.086568125;0.0051355488;-0.022050936;-0.1276218;-0.14000492;-0.043428265;0.026222581;0.06170522;-0.17746906;-0.26841837;-0.06904707;-0.014642068;-0.09918439;-0.095769756;-0.036658566;-0.16894579;-0.05398343;-0.016512059;0.18974878;-0.01093101;-0.10251955;-0.08355681;0.24389067;0.13274634;-0.02953558;0.15381257;0.014754253;-0.087620415;-0.0562741;0.10538435;-0.046188373;-0.15443158;-0.05716515;0.052914053;-0.19227235;-0.05331966;-0.14447953;-0.16748908;-0.05302293;-0.10611494;0.09160923;0.08284863;-0.01944222;-0.20558135;-0.087041564;0.13310617;-0.15234971;-0.14172594;-0.006042166;-0.06469636;-0.082669355;0.1676065;-0.0385763;-0.120842226;-0.054187976;0.05768543;-0.04246779;0.05963785;0.052131496;-0.06683276;0.12725867;0.028218325;-0.051726058;0.08195745;-0.13398571;-0.05718151;0.11004376;0.089956164;0.121848546;-0.12295619;0.018082255;-0.2113192;-0.12712672;0.13117811;-0.21130121;0.16853723;-0.0065666735;0.07415041;0.0037598943;0.19354497;0.04633604;-0.20609276;0.013837174;0.09716824;-0.0038696763;-0.087529846;-0.17508422;-0.062724404;-0.08941254;0.051523298;-0.017443769;0.0833253;0.0042532706;-0.02046147;0.03694595;0.09046519;-0.118563324;-0.20457248;0.11893658;0.12434132;0.048107743;-0.02760772;-0.3313971;0.18170883;0.035492036;0.23529042;-0.10066805;-0.1008297;-0.0015296488;-0.007957811;-0.2921962;0.05687254;-0.15769686;-0.050353564;0.0330576;0.110745884;0.16479278
0.045846757;0.006165402;0.07834098;-0.024511741;-0.089848;0.22324525;-0.19285718;-0.09446757;0.10391963;-0.13443607;-0.067215025;-0.0895716;0.09132931;-0.06223326;-0.06537157;-0.12792106;0.06818954;0.055482976;0.06068404;0.027235214;0.13624556;0.056182317;0.1457635;0.07121514;0.06758627;0.058473673;-0.06661931;0.08703283;0.02485292;0.0054216343;0.10471147;-0.09797223;-0.02052089;0.04938266;-0.051469106;-0.042644158;-0.023932362;0.114367574;-0.06754182;-0.03237077;0.1496607;-0.1631108;-0.11927712;0.021027891;0.08796437;-0.046178408;-0.103725925;-0.140168;-0.052952204;-0.037279252;-0.15254514;-0.047482263;-0.20273139;0.06372494;-0.04884073;-0.00055253983;0.16793834;-0.040884055;-0.38901016;0.17531833;0.17975046;0.08877481;-0.020210346;0.11804949;0.1319807;0.14844371;-0.03924226;0.08507978;0.1874807;0.01640335;0.03302316;-0.2157734;0.15002705;-0.1266152;-0.18391964;0.11679147;0.060357966;-0.0044970037;0.14187652;0.2071481;0.08010846;-0.069109336;-0.13207142;0.07798099;-0.10578653;-0.06330938;0.02798408;0.14543694;0.039794292;0.12157455;-0.13604999;-0.0021445116;-0.04117253;-0.18665034;0.049600337;0.1274894;0.11045677;-0.2724995;0.019668534;-0.13589612;-0.008128039;0.012184084;-0.09079204;0.104078755;0.012927608;-0.087161;-0.053383816;-0.004128618;-0.08181646;0.05276992;-0.08772377;0.05087895;0.051378734;-0.18692155;0.020956343;-0.4946686;-0.026066747;0.1081795;-0.06941008;0.19260195;0.08264792;-0.051911104;0.13926457;0.053507004;-0.15478595;-0.21718626;-0.1761581;-0.3774124;0.12330286;-0.033656955;0.0097891865;0.076670654;0.084134735;0.3323665;-0.13955542;0.05129053;0.00843967;-0.12950248;0.20663448;0.09909404;0.13430671;-0.12401883;0.08731996;0.22514749;0.008098164;-0.0033973788;0.010594682;-0.076118484;0.053615328;0.109265245;-0.05101078;-0.09532283;0.0019856794;-0.06815173;0.14529756;-0.09619202;-0.01622495;-0.16446467;0.048748814;-0.12961781;0.028534444;-0.04471289;0.033129584;-0.03559042;-0.017450605;0.11860515;0.049752127;-0.08632098;-0.11087051;-0.024648566;0.02203977;0.13119467;0.008391701;0.16334532;-0.03515105;-0.1482059;0.077397615;-0.3020599;-0.18588126;-0.16235311;0.13855787;-0.09801984;0.056309;-0.019038131;-0.1161643;-0.08123773;0.10477906;-0.17782243;0.12712419;-0.10356255;0.04078697;-0.40364856;0.010170633;-0.09158839;0.118101195;-0.09968758;0.15708235;0.13053718;0.23042075;0.14412072;-0.060877934;0.09159572;0.040828727;0.008473125;0.15046684;-0.011688361;-0.11471083;0.04858725;0.20931269;0.07898809;-0.10270437;-0.063872166;-0.058871515;-0.016722284;0.14724614;-0.099097446;-0.06436294;-0.3190988;-0.05953599;-0.057962935;0.08020857;-0.044186372;0.046462663;0.13366735;-0.031616062;0.08524162;-0.07751725;0.077692546;0.17198648;-0.13126601;-0.01594006;-0.29664364;-0.013631042;-0.045560837;0.029208595;0.044068698;-0.024542088;0.0778481;0.14193632;0.11431159;-0.14382009;0.040334925;-0.09424719;0.034159567;0.027478538;0.15017171;0.14796902;-0.022398995;-0.029768048;-0.12389809;0.19601436;-0.036538914;-0.08568726;0.082942426;-0.13220793;0.16012317;-0.009658646;0.026903551;-0.16666849;0.0798413;0.083209425;-0.3890251;-0.014010403;-0.02467791;0.05477709;0.06223536;0.072057605;0.013978083;0.08570453;0.20155282;-0.09836338;0.21350251;-0.06698106;0.1827446;-0.1897022;0.039732087;-0.19510567;0.020179817;-0.12787774;-0.08082053;0.16114664;0.02114543;-0.1846454;0.08896192;-0.057457346;0.11923131;-0.053653885;0.011337823;-0.07549425;0.00693242;-0.036797803;0.0011369506;0.007643353;-0.0445253;0.050232746;0.052586254;0.057678282;-0.006961066;0.09718873;0.066686094;0.07745821;-0.18595731;-0.114934556;0.093520276;-0.068779714;0.2235991;0.007868601;0.04333239;0.197852;0.055760935;-0.16853417;0.12253575;-0.13237907;-0.15712318;0.006019714;-0.0020972427;-0.058189508;-0.03599514;-0.080189385;-0.01464311;-0.27221957;-0.15906672;-0.05943249;-0.34134644;0.007948596;-0.099222176;-0.20905234;0.14013542;0.0135886185;0.045436822;0.03633354;0.14329045;-0.14028883;-0.011268452;0.07731137;0.10817537;-0.079946935;0.046697143;0.3283505;-0.102672294;0.11149701;0.087990396;-0.2626114;0.0076706926;0.029635802;-0.10533108;-0.06181118;-0.10606069;-0.04214623;0.057636626;-0.23801413;-0.0028488224;0.15275618;-0.18315785;-0.430626;-0.012729749;-0.0674057;-0.027195344;-0.102554604;0.07581068;-0.043110505;0.03167117;-0.0002592074;-0.113619655;0.12428302;0.0072315536;0.17676827;0.04127567;-0.26766288;-0.118947335;-0.092023656;-0.036936916;0.12024285;0.11519952;-0.12752776;-0.039160836;0.1542441;0.07260954;0.06399611;0.003988864;-0.07483959;0.19802292;-0.14564368;0.029965118;0.074028775;-0.044492338;0.014711588;-0.11739846;0.12400388;-0.108355016;-0.100147374;0.02666021;0.0020590096;-0.20360476;0.09103879;-0.014661679;0.07218512;0.08883328;-0.088990435;-0.24748965;-0.008735269;-0.087331206;-0.12813629;0.22880763;-0.10444303;-0.024761135;0.0030159042;0.049084023;-0.18782574;-0.06068527;-0.0010142556;0.026379643;0.15653816;0.031955305;0.012453757;0.019561836;0.08488464;-0.29824558;-0.022849953;0.014838828;0.035714548;0.11558527;-0.12453044;-0.16510604;-0.04968599;-0.14147839;0.093238965;0.052190293;-0.021560833;-0.009507086;0.028645128;-0.10087461;0.0029037232;-0.028526621;-0.14411546;0.045729514;-0.06835843;-0.054470126;0.017483432;-0.021987434;0.01360558;-0.12140753;0.12195838;-0.09131965;0.010085863;0.06829534;0.055820655;-0.10090786;0.09612457;0.03273131;-0.17276475;0.15244368;0.06176923;0.155687;0.10971688;0.039964657;-0.00913859;0.0020545973;-0.07999237;0.0036698647;-0.031726625;0.11172023;-0.008820954;-0.004964893;0.0741851;0.04925854;0.00018986262;-0.086580254;-0.27238965;-0.054751024;0.05444172;-0.032598358;-0.032492608;-0.17724666;-0.09910074;0.030534305;-0.16530374;0.13282658;0.040336218;-0.20910525;0.039109357;0.15656629;0.17029716;0.056982778;0.0519275;0.025484111;-0.0034159927;0.088217594;0.10716711;0.009425511;-0.057375446;0.05144796;0.00089606765;-0.07506906;-0.1565566;-0.11809782;-0.082455054;-0.15240683;-0.07657239;0.05794847;-0.0001979571;-0.14005291;-0.15892664;0.09856055;0.16238885;0.09222458;-0.14932397;-0.18216491;0.14031588;-0.06475622;0.24031739;-0.15393224;0.0024950916;-0.12396184;0.10016717;-0.1487926;0.10114837;0.040852558;-0.17272782;0.00945748;0.019345682;0.021416044;0.027547874;-0.055500973;-0.055301823;0.052602995;0.037621334;-0.060720675;-0.17648193;-0.06182499;-0.117133;-0.13661593;0.15408018;-0.1854378;0.20145561;0.06404575;0.019835;-0.0056202244;0.040397666;0.130496;-0.3402598;0.1382387;0.025239756;0.051463492;-0.25117466;-0.20051907;-0.24921244;-0.06437124;0.065482765;-0.017931506;0.17638835;0.027886681;0.12966138;-0.09664153;0.080193676;-0.11895082;-0.22373518;0.20216663;0.024362857;-0.13392408;0.08576419;-0.25842297;0.13788456;-0.0017423256;0.20569567;-0.09042923;-0.052262366;-0.058757186;0.058872443;-0.27827695;-0.03728211;-0.040253334;0.08789768;-0.100145124;0.16317445;0.21672346
0.13274927;0.024308339;-0.03724015;-0.06571729;-0.048679583;0.0069847293;-0.02957817;-0.2335234;0.23751868;0.08319548;-0.10274668;-0.071821734;0.08656115;-0.16980255;-0.04605704;0.12884164;0.17240994;0.16548213;0.13047889;0.003363922;0.15471822;-0.079950586;0.150686;-0.05139255;0.112062916;-0.021438647;-0.0020314867;0.015916651;-0.07825562;0.03697933;-0.026167177;-0.07945081;-0.011572266;0.002933923;0.079011925;-0.16499163;0.1431977;-0.055482533;-0.177857;0.11227282;0.0504333;-0.11284957;-0.045350753;0.09991492;-0.08390901;0.11369848;0.08886021;-0.04903641;-0.032225758;-0.12352079;0.018139109;0.078606345;-0.225377;0.106226884;0.06985561;0.11153614;0.06416052;-0.02752191;-0.24911018;0.06583914;0.055113014;-0.09079975;-0.05270477;0.050357662;0.18137795;0.025748922;-0.13938929;0.07734606;0.010196056;0.014319444;0.13655014;-0.12861368;-0.06982388;-0.0019422057;-0.15128866;0.04450636;0.066750385;0.06624512;0.2780948;0.083100595;0.0023860142;-0.19844161;0.002604682;0.026698517;-0.120031185;0.030989042;0.034827564;0.12037726;0.032701857;0.1410017;-0.0602191;0.022304641;0.023028107;-0.1693987;-0.045114566;0.13589598;0.023620944;-0.05494361;0.06441362;-0.04053141;0.1915327;-0.06114533;0.08159625;-0.06601348;0.01760348;-0.1510073;0.07527886;0.012745062;-0.042711306;0.017723065;-0.10755648;-0.10846554;-0.024398915;0.028080573;-0.121510744;-0.3031543;-0.07239593;-0.058648173;-0.06981352;0.2231117;0.04880712;0.06504434;-0.031095097;0.007833071;0.053264935;-0.1148944;-0.017264213;-0.042475935;0.17640449;-0.02467365;0.08857663;0.1492299;0.018005412;0.31339025;0.05866673;-0.009579034;0.0014514609;0.046020083;0.17651492;0.009471772;-0.13411686;-0.07779833;0.11392426;0.14057921;0.21876213;-0.15922183;-0.04925555;0.10786558;0.035406485;-0.06055598;-0.14363629;-0.03493951;0.0764069;-0.0871851;-0.034295667;-0.045365285;-0.13519998;-0.13027082;0.018883092;-0.08223339;-0.12187618;-0.17017606;0.025557104;-0.13682511;-0.0051872903;0.13194045;0.049575873;-0.15372017;-0.04884127;0.109647445;-0.26909545;-0.07085601;0.06838253;0.10391219;-0.1330854;-0.03702466;0.20312488;-0.171839;-0.00087648665;-0.124746874;0.0346024;-0.20150091;-0.026065653;0.07678647;-0.19991939;-0.096355855;0.16683301;-0.07036214;0.0534682;-0.19955803;-0.059290413;-0.08486319;-0.01673068;0.10974441;-0.012482301;-0.023974745;0.018683305;0.1149313;0.14509706;0.19713278;-0.074905716;0.113920145;0.21272959;0.03450591;0.06285423;0.0069475323;0.12290298;0.08762253;0.14140315;0.10867921;-0.06499243;0.076801635;-0.08249835;-0.11229995;0.047870018;0.15389326;-0.13687284;0.036682453;0.004442235;-0.16703583;0.018919284;0.006931926;-0.104247905;-0.095241494;0.07713415;-0.06215006;0.014141987;-0.03964624;0.14494403;-0.20153305;0.031822864;-0.2827936;-0.07132126;0.083767295;0.089795;-0.13620605;-0.15704787;0.1473708;0.054801393;0.081477895;-0.050750755;0.04328873;-0.024724707;0.0070317094;-0.12138398;0.056534585;0.057378784;0.04573848;-0.07347446;-0.096097685;0.07982163;-0.064359255;-0.07282086;0.34007132;-0.20188792;0.108936444;-0.02858619;0.034388945;-0.11021797;-0.21137936;-0.010561123;-0.2656899;-0.054694824;0.070877105;0.04858895;-0.022982405;0.10505702;0.054050528;0.11755076;0.25070086;-0.13312662;0.1711776;0.20250525;0.20795472;-0.07453074;0.0011050637;-0.108704105;-0.14947796;-0.031683788;-0.075301975;-0.03962621;0.016927585;-0.09110435;0.16886021;-0.1466006;0.014014897;-0.10200873;-0.13127019;-0.16593166;-0.055773493;-0.074355796;-0.18119954;-0.10825345;0.14243588;-0.06544662;0.07291267;0.07543302;0.0046970597;0.088802785;-0.050220802;0.11801166;-0.3056036;0.016211646;0.008328757;7.6142736e-05;-0.020467605;0.22370102;0.010698526;0.10866812;0.054581903;-0.10979005;-0.060104404;-0.11178465;-0.115723185;0.03709545;0.122300155;0.19382638;0.10824246;-0.06915502;0.13543966;-0.12177277;-0.14977092;-0.047598794;-0.27876574;0.061852977;-0.014409708;-0.19389084;0.06314937;0.056755558;0.07606424;-0.16543369;0.12614281;0.059018224;-0.056072883;0.005527243;0.121407226;-0.07985612;-0.017056622;0.17051806;-0.17190915;0.2577296;0.2173901;-0.21365213;-0.123090245;-0.03747642;-0.13441174;-0.065984905;-0.08105245;-0.009909829;0.04404321;-0.12281505;0.0513558;0.11329875;-0.12451589;-0.3780519;-0.15789731;-0.15784931;-0.04132628;-0.0044365046;0.076841444;-0.32094547;0.033109806;-0.16909635;-0.058547754;0.19849733;-0.092051186;0.18833464;0.03404337;-0.0436119;-0.085571714;0.03833232;-0.12335945;-0.04088252;0.052990768;-0.026575694;-0.028836556;0.08624924;-0.08630113;0.123465754;0.058241673;-0.20290957;0.09626263;-0.10855972;0.01049963;0.10254594;0.0058911038;-0.017047357;0.0093074115;0.03394428;0.010824643;-0.03742089;-0.05133413;0.08243681;-0.083675645;-0.043451615;-0.009337628;-0.10907441;0.11022654;-0.207789;-0.058486253;-0.05399191;-0.16633898;-0.1437905;0.17249276;-0.17465037;0.032566566;0.056497086;0.08011033;-0.012119087;0.08140377;0.08071984;0.015296192;0.17896591;0.019663122;-0.09082527;0.03206437;0.124231786;-0.053301353;-0.08427533;0.07643494;-0.09669184;0.038400378;-0.21386129;-0.22463769;0.066108815;5.1669544e-05;0.06873722;0.103473;-0.09873724;0.09945243;0.007110345;0.05595057;-0.07183998;0.07404059;0.020583186;0.2374891;0.017197425;-0.12907112;0.05882843;-0.059914898;-0.022155039;-0.0012268409;0.031436313;0.029859344;0.021336531;0.0044133966;0.05557291;-0.19339477;0.26307836;0.1550225;-0.23590404;0.08322203;0.028235797;0.1267849;0.101664;0.051702436;0.024951786;-0.023372255;-0.18612178;-0.083764546;-0.09480701;0.049678463;0.04116684;-0.047969196;-0.012446104;-0.027811203;0.028648952;-0.11291006;-0.0034381445;0.053633206;-0.15987404;-0.101884976;-0.028406419;-0.22627002;0.091280445;0.006053097;-0.09246715;-0.074901074;0.12968755;-0.2918435;0.03666199;0.048876174;0.14938948;0.20889837;0.1548401;0.036615375;-0.055334426;0.08267593;0.08018562;0.03700374;-0.34421453;0.02227107;0.056278948;-0.010535356;-0.007557223;-0.13403665;-0.09681081;0.016483717;0.12434958;0.047642652;-0.010529922;-0.030482603;-0.18060245;0.024996236;0.16084088;0.12064859;-0.2787778;0.1218336;0.1326391;-0.07844647;0.082129516;-0.008009289;0.016626341;0.0250941;-0.13141562;-0.0112514505;0.012599614;-0.022848275;-0.017785748;0.004125792;-0.08913741;-0.0513077;-0.012480277;-0.0774685;-0.11823723;0.14560935;-0.04996142;-0.0006237256;0.061454143;-0.16039965;-0.27254057;-0.002563316;-0.026819773;-0.026501046;0.052712884;0.10399493;0.15741177;0.13768011;0.045370135;0.09636764;-0.20961118;0.061961405;0.107890405;0.030133976;0.019255044;-0.011714782;0.0363499;-0.033753168;0.012769439;-0.056605943;0.09009096;-0.08314648;0.0052644657;0.042355403;0.009149149;-0.19638571;0.08512638;0.16042554;-0.03736293;-0.0002731761;0.06212741;-0.1639528;0.07138459;-0.042790726;0.2151863;-0.13789718;-0.23810652;0.08512239;0.06925014;-0.3065759;0.0909277;0.0567583;0.02169493;-0.06747572;0.12654565;0.19628102
0.11670116;0.07434175;0.078800716;-0.14509332;-0.06285847;-0.033907972;-0.057650868;-0.12525108;0.110901624;-0.00034888313;0.07282811;-0.14336202;0.007276135;-0.05139789;0.022009818;0.15918285;-0.15563478;0.18381567;0.12457544;0.08371161;-0.08653495;0.06961216;0.0993377;-0.011675306;0.10793593;-0.06555454;-0.12567633;0.16070975;-0.09787697;-0.11631005;0.07338014;-0.11841776;0.17712301;-0.009187054;0.025389848;-0.060839552;0.14555131;-0.15927623;-0.14913914;0.07452646;-0.08584711;-0.2534122;0.027987279;-0.0005733903;-0.15266313;0.055999957;0.20184453;0.12014549;-0.016982663;-0.20292737;0.09673374;0.027636807;-0.14288062;0.090885304;-0.0140452245;0.113580264;-0.08699036;-0.07606116;-0.14604056;0.106120616;0.099562444;-0.028126491;-0.14636502;-0.054128923;0.09344532;0.05287428;-0.02350904;-0.1679189;-0.046856895;0.03469769;0.14437294;-0.21411242;0.06529723;0.03059181;-0.22829401;-0.0154123185;0.0325238;0.06360544;0.031001035;0.12021563;-0.04186032;-0.08689255;0.07237361;0.11613074;-0.02892002;-0.28370187;-0.043583676;0.03760815;0.042309117;0.03270178;-0.06334081;-0.07633896;0.09636226;-0.06425449;-0.05168412;0.13379698;-0.07777528;-0.0024959885;0.006932063;-0.06744942;0.1572432;-0.07273761;0.1847111;-0.05792958;0.084252074;0.0016373448;0.021948665;0.078883454;-0.095651664;0.012233288;0.058210734;-0.19657359;-0.1351368;0.13310668;-0.03284907;-0.19730055;-0.13070013;0.18056267;-0.12218555;0.2716306;-0.06984262;0.059647154;0.012918001;0.020147678;0.13785931;-0.007443862;0.17953217;0.05725166;0.15641895;-0.11849135;0.17561379;-0.08018394;-0.07014183;0.18716256;0.024507156;0.016913902;-0.051649008;-0.061715;0.024567902;-0.09289423;0.03284886;-0.07575255;0.16459851;-0.006579925;0.16451918;-0.227878;0.08358081;0.024350204;0.0058244285;-0.18927674;-0.14000973;0.170264;0.16254354;0.020762704;0.07636344;-0.0940306;0.033840697;-0.05324295;-0.010154162;-0.0660406;-0.2836478;-0.21886538;0.1350609;-0.07390881;-0.004888157;-0.049286973;0.0041108695;-0.12144837;0.017351674;0.00975908;-0.16851711;-0.17455518;0.079587415;0.16292936;-0.06323112;-0.042957634;0.1762757;-0.19993547;0.12163898;-0.08446331;0.06136265;-0.15917662;0.07633017;-0.06750841;-0.15190637;-0.13684477;-0.11589943;-0.09926807;-0.0014291854;-0.26592162;0.045330815;-0.15592483;0.06649118;0.011851199;-0.032539554;-0.021144105;0.1319975;0.21395032;0.1454331;0.095290005;-0.15089338;-0.032355085;0.11995809;-0.04108152;0.07658783;0.024710167;-0.08257687;0.12667455;0.17262189;0.14892569;-0.09834551;-0.003828393;-0.12011172;-0.12823084;0.13306658;0.20314163;-0.123550795;-0.05884065;-0.048896365;0.015266544;0.027852476;0.13936083;-0.040410582;-0.09770871;0.054357413;0.0010737575;-0.09367022;0.04355516;0.24229485;-0.09594027;0.02063316;-0.29332703;0.05894888;0.18097582;-0.01930424;-0.16900326;-0.16072659;0.11535904;0.17892508;-0.027309667;0.055874873;0.110407636;-0.14423503;0.09340177;-0.14137146;0.098224424;0.02662298;0.045612343;-0.18055896;-0.009314552;-0.053167872;-0.17394988;0.08778663;0.22863607;-0.1281815;0.0923692;0.072927125;0.024003785;-0.027681312;-0.09014859;0.014890614;-0.12632534;-0.11540172;0.11825857;0.13802192;-0.08022028;0.0824823;-0.0041864635;0.07233753;0.064880006;-0.11285965;0.108341776;0.077616036;0.20835686;0.04956181;-0.0036533452;0.0021576602;-0.08452417;-0.019424008;0.11048458;-0.06358337;-0.1498151;-0.043435887;0.18270415;-0.2557603;-0.008834731;-0.02616691;-0.067860074;-0.2121193;0.084071256;-0.023766499;-0.20938224;-0.07539528;0.19932778;-0.01724271;-0.00086309836;-0.053771257;-0.055655118;0.1195881;0.04377336;-0.018052492;-0.08173561;0.1736247;0.060893863;-0.077140436;0.034983255;0.17467386;-0.0114278;0.025595902;-0.10628954;-0.04669088;-0.094188966;-0.017329333;0.018850716;0.011677656;0.10848902;0.19433077;0.13310751;-0.24140312;0.040433727;-0.063111454;-0.055862486;-0.15302871;-0.21780452;0.19027889;0.04886288;-0.07458353;0.13437429;0.16326144;0.13816816;-0.018825347;0.26770753;-0.124648176;0.034847647;0.13097343;0.11476085;-0.024630703;0.09221547;0.17324677;-0.10013356;0.17165878;0.076645955;-0.037689816;0.0033814884;-0.09220888;-0.11151937;-0.19924808;-0.3288481;0.021820618;-0.0020259824;0.081768215;-0.04728923;0.03828645;-0.057954136;-0.19478017;-0.09054427;-0.110222615;-0.15428197;0.11165339;-0.12676722;-0.35694963;-0.052830327;-0.13476323;0.050494738;0.22522818;-0.15107673;0.19156797;-0.09084169;-0.106850185;-0.22063906;-0.1053964;-0.0029082429;0.027102439;-0.055238735;-0.03691411;-0.062393434;-0.017244415;-0.11314078;0.049962148;0.05293256;-0.16467217;-0.064032435;-0.08121311;0.046967022;0.019162353;0.06859308;0.07185615;-0.034733273;0.13151875;-0.05515993;-0.14198695;-0.1485942;0.07146116;-0.2990403;0.041114736;-0.14391822;0.121203855;-0.019917788;-0.10930701;-0.16263326;-0.01497429;-0.12887008;-0.095983915;0.026387278;-0.06728354;-0.07724437;0.1278513;0.10524767;0.013341591;-0.02232802;0.060900215;-0.0032942123;0.18898013;0.01947684;-0.19711693;-0.1424046;0.09795236;-0.037929013;-0.041742615;0.052053932;-0.10899097;0.12052081;-0.09708188;-0.075751945;-0.1507976;-0.11157664;0.047686834;-0.07023276;-0.095758185;0.08221989;0.07047988;0.0451139;-0.20007926;-0.014721323;0.0447456;0.14530681;-0.16097769;0.058862388;-0.038801312;-0.11501936;0.046895616;-0.020838367;-0.17206633;-0.025694072;-0.030496908;-0.046658807;-0.0617026;-0.047799997;0.15673436;0.020829314;-0.20943876;-0.08429917;-0.031062623;0.03981447;-0.069614805;0.02823603;-0.014160425;0.05858702;-0.025705988;-0.12400875;-0.08442458;0.08673931;0.05768488;0.021507476;0.046904907;-0.102508865;0.0054551;-0.23452148;-0.10741723;-0.08337803;-0.1375288;0.13037226;-0.0063469256;-0.080165885;0.08952377;-0.007303028;-0.017531632;0.15168868;0.13104968;-0.07228396;-0.049079265;0.12380561;0.22136995;0.04673561;0.14468244;-0.06251209;-0.15252838;0.008110926;0.03727353;-0.061618067;-0.38501775;-0.048643164;-0.040373348;-0.041913506;-0.09723009;-0.14481094;-0.14167045;0.06420951;0.019420914;0.029953318;0.049585745;0.16833553;-0.05240521;-0.120717354;0.21974203;0.172045;-0.15176368;0.20347159;-0.1427053;-0.03773059;0.040615205;-0.24005558;0.08994584;0.0002457651;-0.066980824;0.06146194;0.041325156;-0.06250305;-0.017933508;0.09659408;-0.13073683;-0.09539346;0.0715191;-0.07592693;-0.22163297;0.14991143;-0.078294195;-0.027981684;-0.052047666;-0.15230551;-0.30514246;0.06088068;0.10864753;0.00921305;0.0779744;-0.016518366;0.30212018;0.14388391;-0.23443526;-0.006584954;-0.17309594;0.11969309;0.08165388;0.08124264;-0.080792725;-0.0035911105;0.0765688;0.103152126;-0.051486142;0.071803086;-0.017455326;0.042364895;0.025347095;0.09823213;0.09771876;-0.26161748;0.08363845;0.051076263;-0.07155018;0.03868267;-0.061630987;-0.25092408;0.17641881;0.065139666;0.061935883;-0.20903386;-0.33017194;-0.15883557;-0.0755945;0.041407533;-0.13498656;0.053930882;-0.008370394;-0.17072318;0.07903246;0.19519368
0.11656651;0.03827946;0.06636994;-0.17184159;-0.11319424;-0.06925294;-0.049509265;-0.02851149;0.09334515;0.056387853;-0.09863508;-0.07064236;0.09129349;-0.08849663;0.023279564;0.22038412;0.09277418;0.07950576;0.17658369;-0.08650396;-0.11868129;-0.08287856;0.04456783;-0.014312289;-0.006636444;0.017806318;-0.021919807;0.11856002;-0.14810438;-0.04356161;0.035257492;0.033129912;0.027812712;-0.014818294;0.19558421;-0.13126582;0.2990725;-0.03391182;0.07681219;-0.019495912;0.011420433;-0.18231213;-0.0022782078;-0.05352957;-0.13817905;0.19245568;0.0030271935;-0.08617599;0.053266898;0.033538193;-0.002837974;0.010482453;-0.12378834;0.090687506;-0.03764653;-0.09023985;-0.110007785;-0.08668601;-0.2758386;0.024756186;-0.0070798327;-0.05488162;-0.04994961;-0.07161377;0.055741087;0.13497235;-0.07195396;-0.034459636;0.043571442;0.00983735;0.1303924;-0.21388154;0.033145893;0.069574066;-0.038979344;0.018653698;0.18586142;-0.15646178;0.09005318;0.132629;0.027490323;-0.058253188;-0.09981087;-0.023108348;0.070504315;-0.13796082;0.0062873727;0.1496792;0.061237607;0.09562985;-0.09738921;-0.012354841;-0.0017115109;-0.004220372;0.06781636;0.07094375;0.028480656;-0.104339875;0.042962886;0.022630936;-0.016494352;0.10010999;-0.040042084;-0.09859632;0.037201054;0.04978337;0.07931158;0.104017965;-0.23977803;-0.02677931;0.040616304;-0.1230426;-0.14619486;0.14659348;0.044105873;-0.11256635;-0.18774743;0.12728892;0.06899036;0.09124876;-0.15025245;-0.05311557;0.121423826;0.05555225;0.050679576;-0.042747874;0.15088813;0.14335732;0.24993385;0.027338121;0.17287336;0.15031795;0.036333714;0.20130229;-0.059467282;-0.08122558;-0.015732152;-0.08255399;0.18454725;-0.066468775;0.1824215;-0.19653901;0.08356898;-0.07204483;-0.014428047;-0.11346235;0.07950061;0.16384149;-0.03419625;-0.07526766;0.08746865;0.022116315;0.10244264;0.062115643;-0.022836028;-0.11142786;0.050946634;-0.17365561;0.07261815;-0.19477223;-0.43423837;-0.21938226;0.25752243;-0.18569444;0.06685897;-0.039518297;0.019177929;-0.06869066;-0.037260156;0.085856736;-0.101209186;-0.086031534;-0.02743935;0.028735526;-0.048762064;-0.034224402;0.054126702;-0.07092684;0.05021371;-0.1149673;0.14142986;-0.19275373;-0.007639138;-0.08135206;-0.26637405;-0.18026523;-0.10895403;-0.07408031;0.14814071;-0.12731843;0.0026936536;-0.080309294;0.02943279;-0.045146782;0.053154994;0.009400177;0.0700783;0.08722114;0.06581776;-0.046768475;0.03794996;0.05531181;-0.019791773;-0.27940947;-0.08206662;0.039812528;-0.050570644;-0.0011242386;-0.039626326;-0.067238994;-0.15480638;0.18606079;-0.11809253;0.11347736;0.06307868;0.014141104;-0.09242921;-0.034478977;-0.04842886;-0.005229503;-0.017916111;-0.063497834;-0.16485894;0.10960734;0.006140366;-0.10746362;0.10469652;0.0641388;0.3101293;-0.12680224;0.08256859;-0.25548035;0.0580412;0.2880438;-0.1271928;-0.13718818;-0.0658858;0.17955552;0.12786666;-0.14477383;-0.006099614;0.05704212;-0.1521614;0.010571619;-0.30475107;-0.047958363;-0.056002535;0.16088761;-0.032991376;0.04033976;0.10414005;-0.037036855;-0.13105807;0.11923783;-0.27600014;0.029911425;-0.095969126;0.08439547;0.061335467;-0.020482691;-0.04145929;-0.2353214;0.07880675;0.012060381;0.014662598;-0.08721289;0.104604125;0.065741286;0.122065365;0.18561916;-0.15923922;0.0145961;0.023686683;-0.029988872;-0.1117861;-0.098770484;-0.060816836;0.05069142;-0.16418248;0.012443225;0.036374133;0.11483514;-0.018998347;0.1797332;-0.15245456;-0.21784312;-0.030999267;-0.106177196;-0.109005556;-0.009285077;-0.06244609;-0.1669808;-0.06539728;0.042753693;-0.08298068;-0.16995351;0.045906566;-0.0048780967;0.11306215;-0.098578066;-0.09146661;-0.08158634;-0.014641849;-0.033953145;-0.008146964;0.023416627;0.06397094;-0.06895008;0.026307622;-0.03979284;0.098449394;-0.0035094684;-0.089482896;-0.08250735;-0.04442319;0.005850883;0.11596935;0.05162404;-0.12851341;0.021811305;-0.13724038;0.054309983;-0.22881684;-0.2688741;0.05573501;0.08335151;-0.19314912;-0.03514561;0.117053635;0.00796588;0.018977927;0.31950074;0.009882963;0.045300514;0.029345226;-0.10383325;-0.015224437;0.11413887;0.02669264;-0.058089517;0.114848025;-0.012071441;-0.10114196;0.041809496;-0.19003117;-0.25010222;-0.07297706;-0.18099153;0.01173116;-0.07012336;0.035299707;0.053908315;-0.09552297;-0.06526336;-0.093301944;0.03746073;-0.06096424;-0.018254392;0.06335196;-0.13079739;-0.19139853;0.09267818;-0.16011971;0.008292839;0.18659085;-0.13527101;0.1890275;-0.115937665;-0.13604102;-0.22818108;-0.1237929;0.013195366;-0.052781355;-0.01712811;-0.017628506;-0.21892148;-0.02816102;0.024101771;-0.027427157;0.062237687;-0.24041885;0.040928904;-0.10568091;0.044528507;0.1602902;-0.1284888;0.060021807;0.08341894;0.13945512;0.25120032;-0.066617884;-0.111956716;0.15526228;-0.42822796;-0.0007179879;0.017522942;-0.124114886;0.08941585;-0.046108272;-0.12538163;0.013333859;-0.14426753;0.0013144278;-0.09107654;-0.087508254;-0.012233625;0.17528725;0.07992988;0.01083382;-0.015047287;-0.10002235;-0.06044345;0.24190474;-0.081013985;-0.13930547;-0.14204367;0.13163501;-0.09359365;-0.17110284;-0.075474516;-0.06736002;-0.00019354041;-0.19006687;-0.038655862;-0.24506065;0.03652535;0.07885351;-0.042546414;-0.028026948;0.09341646;0.033430062;-0.15577424;-0.08747388;-0.092721656;-0.00922335;0.09676497;-0.15855636;0.0403453;0.10780131;0.038585097;-0.08869635;-0.082723565;-0.047910444;-0.09185985;0.07678817;-0.045953173;0.039925676;0.0061342767;0.13535462;0.046093028;-0.16238506;0.13420862;0.042662464;-0.042715088;0.073885955;0.023786495;0.047275044;0.0030838728;0.0321137;0.053758416;-0.070918426;-0.13355277;0.008180853;-0.036291484;-0.006160705;-0.17060447;0.19056168;0.0057959254;-0.11697198;0.08488473;-0.18280305;0.088814706;-0.049185287;-0.097280286;0.06633846;0.06336546;0.061461568;0.089147374;-0.07697633;-0.025617067;0.11277291;0.15280199;0.20210294;0.054133456;0.11999351;0.0015104744;-0.16945189;-0.0460082;-0.059591085;0.07588271;-0.3275338;-0.05531471;-0.037646763;-0.13821818;-0.22703339;-0.010329397;-0.02298673;0.056906562;-0.049325224;0.12463426;-0.13704552;0.16500568;-0.11974103;0.047319844;0.048250742;0.11984137;-0.15112408;-0.04543911;-0.06757973;0.012941001;0.14578897;-0.19616072;-0.1402732;0.033419;0.07394405;-0.018251307;-0.025970163;-0.055900544;-0.17691995;-0.109398566;-0.09065077;-0.21192548;-0.0448086;-0.097825214;-0.04857587;0.013291924;-0.07073526;-0.022806652;0.07334509;-0.1490324;-0.27147588;-0.00958163;-0.11674945;0.09441341;0.07169711;0.09865887;0.092086636;0.15107103;-0.1208862;-0.101127364;-0.18134713;0.04725419;0.120775744;0.110315956;-0.05049065;0.038067557;0.026217494;-0.051697772;-0.12529476;0.017890263;0.04637689;-0.0020940187;-0.15735087;0.0679043;0.12101321;-0.28001222;-0.054197688;0.09661959;0.14925288;0.08981421;-0.02487183;-0.22930394;0.14862259;-0.08005155;0.10133602;-0.029183395;-0.32335758;-0.068364576;-0.03119103;-0.118196614;-0.12972711;0.002434107;-0.1568148;0.010638587;0.0021867664;0.13914151
0.034017917;-0.05556637;0.031215379;-0.14792986;-0.034870088;-0.08315513;0.02662007;-0.036056276;0.19279258;-0.07851333;-0.08967095;-0.17533647;-0.047805533;0.05124225;-0.035304595;0.208721;0.064109005;0.11031112;0.09493377;-0.004770779;-0.13369007;0.011275335;0.19548297;0.1086545;-0.014553606;-0.04895763;-0.11481621;0.03476471;0.086560205;-0.081260696;0.05354481;-0.031503953;0.17300889;-0.06927581;0.21735652;-0.03511472;0.2516612;-0.17259818;0.15156111;0.0065308353;0.17548202;-0.09513302;0.00080996344;-0.15165491;-0.10507259;0.25199062;-0.01688363;0.052896563;0.010482542;0.00015614631;-0.0023089044;0.15671438;-0.21432053;0.06974097;-0.19732249;-0.089894414;0.07910736;-0.0052342825;0.01082943;0.06980343;-0.0845099;-0.017905155;-0.0189342;0.08886612;-0.09733079;0.19220948;-0.052213717;-0.10801029;0.14828329;0.077378064;0.1798052;0.038682036;0.02216406;-0.03151397;-0.21658328;0.009799431;0.080576055;0.10157548;-0.014332232;-0.08652809;-0.17244115;-0.09523716;-0.20109458;-0.13239884;0.011463367;0.21264933;-0.1607771;0.061744552;-0.014304914;0.12521596;-0.00861393;-0.15975478;0.0017039452;-0.10798034;-0.042183507;0.086825624;-0.27766758;-0.03703904;0.001341078;0.0708401;-0.12326178;-0.028182138;-0.058183532;0.055858158;-0.04334088;-0.20233308;0.1303533;-0.0002354618;-0.1580485;-0.08536265;0.14137474;0.08017661;0.05059265;0.19292714;0.080195345;-0.051661268;-0.10997961;-0.027500082;-0.10198188;0.10741768;-0.20506737;-0.09198801;0.0014188787;0.091894895;-0.13094845;0.0013270061;-0.04347017;0.23383999;0.20482919;-0.046929095;0.09410403;-0.082654916;-0.046965998;-0.030668784;-0.21171129;-0.055113766;-0.19256727;0.0011120627;0.1367988;0.056867644;0.14702873;-0.25060076;0.16755052;0.05509871;0.11298854;-0.033223487;0.20144296;0.17576489;0.1353687;0.051792745;0.07890789;-0.046712745;-0.16995507;-0.14860839;-0.1136116;0.07160133;0.008307639;-0.12404378;-0.08906056;-0.24850751;-0.33287224;-0.29708767;0.19922;-0.11142335;-0.17085937;0.08300459;0.07162779;0.09069207;0.044962578;-0.0057382304;-0.08150046;-0.068706155;-0.057017054;-0.0072218054;0.0024905894;-0.054687366;-0.077771865;0.07030565;0.07018307;-0.18899986;0.03811357;-0.1548855;-0.044875048;-0.07005564;-0.19469112;-0.018096775;-0.09539128;-0.12414008;0.018395185;-0.34711146;-0.019708097;-0.05212102;0.034446478;-0.024139538;0.14660347;-0.061315615;-0.10556169;0.093220614;0.06089289;-0.13380724;0.09732773;-0.0484464;-0.034513295;-0.24257931;-0.19541144;0.0025284602;-0.14564705;-0.10399877;-0.1285362;-0.0779734;0.014455093;0.1376844;-0.17387246;-0.004435109;-0.09255779;0.066216834;0.06817986;0.10916638;-0.11909643;0.08286346;0.16776694;-0.015032332;-0.17221487;-0.018656677;-0.14580919;-0.08426365;-0.021941328;0.013133075;0.11643336;-0.10908565;-0.0036069807;-0.19998956;0.001051461;0.13333602;-0.15890622;-0.058065005;0.023742;0.12651671;0.10147373;-0.06299911;-0.054449864;0.098140545;0.08036092;0.121587634;-0.20699245;-0.14155751;-0.049750105;0.14045995;-0.052850317;0.016409134;0.11663507;0.011468481;0.02286541;0.014826363;-0.07929673;0.036446817;-0.07197058;-0.04233617;0.021944761;0.012637668;0.02229863;-0.020830307;0.00621609;0.02832898;0.022456566;-0.0008832282;0.11081182;0.10618899;0.22318769;0.06923138;0.08311449;-0.038257763;-0.21194889;-0.036023773;-0.15391296;-0.03357041;-0.13646355;-0.051725723;-0.006277991;0.086115554;0.15763544;0.19164483;-0.16536903;0.04543996;-0.012920929;-0.14433314;0.04627427;0.055866215;0.0259409;-0.015298188;0.082156196;0.00546865;-0.04890019;-0.0016903058;-0.1654158;-0.22236124;-0.009509141;0.01081096;0.09097539;0.035430852;0.008659151;-0.08874725;-0.00518276;0.007968705;0.012838167;0.0031072057;-0.043621745;-0.09021328;0.057093218;-0.04709082;0.054607432;0.07582274;0.0034376078;0.022409141;0.08728306;0.12437608;-0.061144777;0.10794843;0.0052749948;-0.10146043;-0.11594283;0.0004484755;-0.09522212;-0.27115327;-0.1032023;0.04397779;-0.0571259;-0.07348547;0.039652735;0.061649017;-0.0628562;0.26804328;-0.07252577;-0.07679624;0.055276766;0.10194638;-0.025187457;0.07523799;0.18681042;-0.05348886;0.24446756;-0.007472237;-0.16915825;0.15740386;-0.112918586;-0.19094859;-0.042502366;0.03049559;0.024786321;-0.039979987;-0.16696471;0.0710309;-0.09591551;-0.09177109;-0.23538828;0.021653734;-0.06502283;0.047042143;-0.016650552;-0.11378787;-0.14994615;0.052787807;-0.22851117;-0.09929088;0.09055622;-0.035258513;0.01372659;-0.057478335;-0.26976973;-0.14183404;-0.052877486;0.032885842;0.0040384135;0.050022997;0.016790884;-0.1471136;0.23157415;0.105775245;0.02495498;0.14595169;-0.16026157;-0.094125465;-0.07096537;-0.03850157;0.13023376;0.03302985;0.15593047;0.0714889;0.2059664;0.15383129;-0.16574316;0.0135536725;0.047051363;-0.40187576;0.09440489;-0.041605763;0.22057958;0.18373321;0.018641349;-0.14924066;-0.04237764;0.045950744;-0.054118462;-0.07621437;-0.03990727;0.08675445;-0.066158034;0.13858964;0.04763089;0.11450366;-0.082406834;-0.08627217;0.1882949;0.03985688;0.055662982;-0.0672391;-0.01682834;0.039060038;-0.08292536;0.06154209;-0.04468247;0.09845536;-0.10944547;0.024283687;-0.21472673;0.03769674;0.055756316;-0.1350237;-0.01768936;0.11380439;-0.013938392;-0.023969965;-0.13568527;-0.17698711;-0.0920375;-0.05857657;-0.038598876;0.03362952;0.067783296;-0.023646852;0.034607496;-0.12947984;0.064556375;-0.113915764;0.05856537;0.02485539;0.1581757;0.03988722;0.30524474;0.12687819;-0.21898422;0.09068022;-0.006721408;0.22860445;-0.012184182;0.12985805;0.004554897;-0.0041582547;-0.018315597;-0.09189389;-0.09971958;-0.07889093;-0.0032644356;0.007903913;0.005612489;0.006701595;0.13992284;-0.01618601;0.06532904;-0.01189383;-0.03841417;-0.09586858;-0.13341929;0.104298405;0.045121264;0.061571512;-0.07403979;0.06957893;-0.042817358;-0.20528652;0.074283175;0.019187937;0.19601049;-0.03546997;0.07821511;0.0817701;-0.03826665;0.08820161;-0.13047977;0.06646183;-0.14490664;-0.11522216;-0.022690864;-0.09716403;-0.21651794;0.075367734;-0.19468573;-0.18879277;0.026566619;0.005892982;0.062060513;0.020878911;-0.06455128;-0.057381246;0.19255258;0.06903539;-0.07735352;-0.057347815;-0.056711093;0.021704737;0.060333163;-0.09384929;-0.091710955;0.15024854;-0.07197785;-0.045847457;0.15694313;0.101049356;-0.01569767;0.033559904;-0.19522232;-0.1777301;0.039128184;0.08196071;-0.07795312;0.057998814;-0.16774964;-0.18587582;-0.112455904;-0.2579305;-0.11570272;0.08841273;-0.02266537;0.054171655;-0.094669424;0.11211799;-0.053831495;0.2339557;0.020386333;0.020760404;-0.1524609;0.12837856;0.046486042;0.01292663;-0.19267169;-0.18954216;-0.10037756;-0.070149094;-0.09378763;0.008992148;-0.00067632116;0.091000386;-0.016615331;0.10308364;0.049320046;-0.25908732;0.015689693;0.0073962654;0.018254483;0.18823935;-0.01372172;-0.18903933;0.34712064;-0.03517559;0.1272631;-0.07989691;-0.44970745;-0.083375454;0.06558625;-0.027636938;0.0329885;-0.038851675;-0.12890272;-0.041059036;-0.04694071;0.1514231
0.06514912;0.030432934;0.115810245;-0.06310567;-0.16607551;-0.08857882;0.053805288;-0.0041506644;0.09370439;-0.113252334;-0.029702164;-0.121791646;-0.018298933;-0.012542162;0.075243436;0.28104752;0.17966741;0.07247807;0.075613685;0.0426926;-0.1299687;-0.060668245;0.08573343;0.13590127;0.13175067;-0.09608076;-0.050314628;0.12340568;0.024733124;0.14106832;-0.07229772;0.04353321;0.10541347;-0.12494947;0.28603777;-0.032365654;0.10652709;-0.11050578;0.1288979;0.08932751;0.11979408;-0.22736312;-0.021592107;-0.16762547;-0.16323434;0.12263345;0.11261953;0.029734889;0.00923463;-0.054515045;0.026812142;0.19473422;-0.13190699;0.030848522;-0.10296396;-0.06292531;-0.019526448;-0.11769547;-0.07583927;-0.043559145;-0.08213035;0.064304434;0.12077169;-0.1051783;-0.060930364;0.19895884;0.039996553;-0.060617365;0.023296528;-0.009764863;0.13076192;-0.006456409;-0.049776934;-0.11072078;-0.02001113;-0.060531445;0.15353972;0.11410309;-0.17062832;-0.039021637;-0.040806286;-0.22255783;0.0055396724;-0.12056347;0.10334004;0.10882645;-0.12335678;-0.04268187;-0.123480946;0.13500026;-0.032839812;-0.07608071;-0.092607856;0.06484859;0.056164254;0.16151704;-0.15050645;0.00981584;0.04881037;0.016103638;-0.059781272;-0.040907882;-0.061444923;-0.1560925;-0.086717136;-0.07345305;0.028846933;0.004248423;-0.11792207;-0.17256686;-0.008358892;0.004743248;-0.07362885;0.2963837;0.1462468;-0.035301097;-0.12888174;-0.037634354;-0.17622945;-0.029924465;-0.18567127;0.038328175;-0.10354943;0.0586988;-0.02333915;0.057715897;-0.0072813863;0.35906047;0.020620968;0.04548238;0.17910588;-0.06905106;0.14752614;0.123571835;-0.0953251;-0.084412575;-0.06670227;0.121497735;0.07694736;0.054257713;-0.005850282;-0.15353027;0.06826048;0.02196203;0.22569112;-0.019355854;-0.007245706;0.06220664;0.094121456;0.05531859;0.15553251;-0.025807835;-0.22282654;-0.06320118;-0.14582402;-0.050911505;-0.05852807;-0.23764443;-0.021955296;-0.29986387;-0.36636567;-0.27654654;0.05251603;-0.2176954;0.009615878;-0.06962044;0.08705023;0.11326374;-0.0016257932;-0.055043615;-0.08756777;-0.06294405;0.04346104;0.047466893;-0.029475026;0.15248777;-0.10573737;0.07530662;0.08324318;-0.19466776;0.060851935;-0.30235744;-0.06853993;0.018226732;-0.29722247;-0.18402413;-0.0710887;-0.055285808;0.057049654;-0.36937365;-0.0013091151;-0.0015612526;0.07517486;-0.166004;0.05093007;-0.100224845;0.05636303;0.06618213;-0.022638371;-0.038531676;-0.05648081;0.028648542;-0.040912464;-0.2907214;-0.049178846;-0.06175016;-0.14875874;0.0095424345;0.06451613;0.12571965;0.076194875;0.123472884;-0.1885251;-0.21264634;-0.10733202;0.028665457;0.021974629;-0.107998244;-0.003965668;0.09530068;0.112972006;-0.080832176;0.10269627;0.14588106;0.01010069;-0.1514532;0.018181449;-0.002075802;0.012970954;-0.07774072;0.0737292;-0.15137178;-0.042683527;0.14229394;0.06610313;-0.17649588;-0.060276646;0.016280735;0.2025517;0.019776445;-0.08819007;0.11964227;0.028499773;-0.018287305;-0.20123394;0.07226042;0.025667984;0.08469461;-0.13627426;0.2106707;0.016841104;-0.005357805;-0.025565049;0.111274354;-0.055303607;-0.015887992;-0.046379175;-0.0067327935;0.013423139;-0.029672278;-0.034146283;-0.11634528;-0.07492704;0.054000225;0.13290271;0.004733396;-0.11412525;0.11129794;0.065727554;-0.008290471;0.0803522;-0.17970088;-0.21316504;-0.2042966;-0.10830134;-0.044755798;-0.13748406;-0.09100431;0.025406206;-0.017424263;0.0022798425;0.0071549076;-0.020169035;-0.030887086;-0.080039605;-0.09261173;-0.113644496;0.08874667;-0.13815111;-0.10371755;-0.030459946;-0.06318371;-0.10798158;0.01605504;-0.17979985;-0.21476275;-0.08057881;-0.0057427716;0.004472642;-0.03603173;0.026385358;-0.11026197;-0.02303563;-0.0511345;0.008816486;-0.06394591;0.061704036;0.011701764;0.045297626;-0.048361402;0.011723504;0.011385121;0.1827414;-0.021611251;0.0298851;-0.0002842235;-0.06153283;0.122075155;-0.17606866;0.040080704;-0.04411615;0.03146116;-0.038575094;-0.2709738;0.02179601;-0.027549375;-0.19430071;-0.12687518;0.053411137;-0.07121503;-0.089215554;0.20349336;-0.21386781;0.01549825;-0.043624107;0.10030045;-0.07746472;-0.043458294;0.084494166;-0.0006373131;0.17956975;0.050769005;-0.22494246;0.22253536;-0.10723563;-0.25121835;-0.009841945;-0.00319491;-0.056080796;-0.021841085;-0.011350757;-0.020456119;-0.060524203;0.08530401;-0.12428439;0.010368339;-0.10881419;-0.08436196;-0.05270781;-0.042841982;-0.25069928;0.05993785;-0.17126912;-0.08573466;0.08154985;0.057266053;0.1094672;-0.08617934;-0.005954873;0.03483351;-0.04906346;0.15614666;0.0069903517;-0.10366035;-0.13511032;-0.07348064;0.090587765;0.1684293;-0.07961671;0.11611419;-0.16471612;0.0073592556;0.031753484;-0.021267584;0.05886576;-0.03125717;0.053854503;0.0010187291;0.21661085;0.09530054;-0.12839377;0.07754636;-0.12488461;-0.46501583;0.062229026;0.010047268;0.12599938;0.14996463;-0.06427766;-0.29691094;0.0841026;-0.01869572;-0.055538513;-0.1212696;0.08532416;0.10294996;0.04683773;-0.050260026;0.14826126;0.033795275;-0.14104207;-0.024381703;0.16046996;-0.1464872;-0.1748855;-0.03838079;0.12434914;0.1953479;-0.014728268;-0.040324297;-0.002667177;0.11698235;-0.070988365;-0.029652111;-0.15241876;-0.028487928;0.117248856;-0.09192364;0.08977712;0.11543796;-0.02211708;-0.0812931;-0.14212903;-0.16409649;-0.11054077;-0.07895105;-0.1263313;0.041315645;0.017401991;-0.045040417;0.055817794;0.053978063;0.023297928;-0.123460546;0.108892925;0.00023011322;0.08045568;-0.15110873;0.2597796;-0.027461909;-0.22376306;0.10318154;0.002468639;0.15002514;-0.011453635;0.011442742;-0.00599947;0.0010955373;0.12015422;-0.13200887;-0.07379575;-0.120065406;-0.08040592;-0.056773882;0.09599856;-0.07755046;0.10977509;-0.04137947;0.0041907947;-0.10889314;-0.10167512;-0.02360692;-0.088731825;-0.13000317;0.122823894;0.173372;-0.011153553;0.25136673;-0.01408678;-0.085804634;0.1611691;-0.03286528;0.10604832;0.10100321;0.07596644;0.08185057;-0.033022113;0.011466664;0.08545883;-0.012990821;-0.2181408;0.010451034;0.014135493;-0.13628006;-0.037689477;0.033142682;-0.032351002;-0.122236125;-0.043692224;0.10182435;-0.0721442;-0.01083112;0.09967633;0.06359001;0.09724946;-0.06853165;0.037826132;-0.06527348;-0.02290409;0.16554992;0.07365284;-0.2154702;-0.05554053;0.11256364;-0.075583935;-0.008824547;0.03831461;-0.005276456;-0.047620635;-0.03442678;-0.14088702;-0.22056249;0.0070998;-0.058380343;-0.014701124;-0.039822705;-0.145301;-0.116865404;-0.08522833;-0.09279763;-0.21672255;0.09341709;0.07843575;0.023289444;-0.07570943;0.09565004;-0.08470029;0.17766805;0.0061600297;0.016339075;-0.07252625;0.14846258;0.09247249;-0.07952245;-0.12949167;-0.04962075;-0.015580376;0.11020695;-0.044813946;0.106706135;0.1199696;-0.074689806;-0.04535064;0.16324607;-0.023852533;-0.17803065;-0.0245553;0.12298127;0.07366791;0.06790038;-0.04852786;-0.07927357;0.3190391;0.09157271;-0.00879044;-0.10383555;-0.20155464;0.05439075;0.08684173;-0.09805322;0.012115673;0.06596468;-0.113965474;-0.044187695;-0.019082632;-0.020912867
0.07435061;-0.07430336;0.16477509;-0.25992683;-0.16216394;0.10498038;-0.0050823176;0.022904528;0.13583775;-0.09831128;-0.11205634;-0.09526034;0.17720596;0.07875114;0.065934666;0.18869348;0.17057934;0.081966706;0.089626506;-0.033633;0.01909549;-0.15042427;0.14344545;-0.04679359;-0.060552478;-0.03348461;0.008932245;-0.044176064;-0.03591613;0.16354345;-0.012465211;0.059018034;0.15676364;-0.089832194;0.19875385;0.044268128;0.08837209;-0.165124;0.23183261;0.051300995;0.06461204;-0.043865815;-0.013084239;-0.15126194;-0.18197554;0.050636318;0.16510193;0.12754127;0.038118623;0.04339182;-0.00064967776;0.06518923;-0.14962186;-0.043817736;-0.14213584;0.021751054;-0.072734006;-0.095743634;0.008434924;0.013431562;-0.25834447;-0.027166927;0.015972216;-0.028797233;-0.051699787;0.19010688;0.008659946;-0.114389695;-0.052185368;0.108432665;0.023405876;0.15041451;0.038632195;0.1596234;0.040088635;-0.09408123;0.11863841;0.152219;-0.14206834;-0.044697005;0.008644968;-0.20148396;0.04415703;-0.120966665;-0.015637528;0.03895915;-0.025778562;-0.061392292;-0.02709236;0.08006154;-0.036769625;-0.10168257;-0.03929083;-0.061552607;0.019774487;-0.006302846;-0.16254176;0.003994545;0.08561235;0.15074626;0.03479949;-0.11181489;0.023417275;-0.088405326;0.2196707;-0.19251089;0.11655795;0.0047964803;-0.12075271;-0.07653647;-0.025149832;0.022735195;-0.014219625;0.3187618;0.074159384;-0.060334273;-0.044158928;-0.14878145;-0.14011891;-0.07310349;-0.18044156;-0.09653607;-0.08224761;0.045362987;0.07283425;-0.25643304;0.014947882;0.45798764;0.017094035;0.01806378;0.28384867;0.025886498;0.043052446;-0.00847939;-0.16539595;0.041288394;-0.022563595;0.14818163;-0.0076160748;-0.07644269;-0.20296276;-0.22767852;0.2513107;0.10626842;0.081517786;-0.07926269;0.110384114;0.1588006;0.17454578;0.030204253;-0.005980858;-0.17712022;-0.20300333;-0.16095556;-0.17722927;-0.14408019;-0.21809196;-0.09556242;-0.107918836;-0.14867069;-0.1701314;-0.318386;0.010807867;-0.18730679;-0.022170428;0.038506776;0.008164479;-0.096074596;-0.02322191;0.0749262;-0.20607138;-0.027948195;0.123250775;0.05738693;0.04855021;0.06747143;-0.028639577;0.2445845;0.073087074;0.0048918827;0.060393658;-0.2934255;-0.014713678;0.03669389;-0.1709045;-0.18616167;-0.15600893;-0.11271177;0.10039174;-0.30067715;-0.06983263;-0.014675301;-0.026050081;0.048006084;-0.027303327;-0.15570347;0.029787954;0.0071068523;0.019222854;-0.098587506;-0.03915552;0.025234498;0.045965783;-0.23789516;-0.124296926;0.01125581;0.011257781;-0.15773837;-0.11364949;0.0824026;0.03148967;-0.09715146;-0.05812652;0.08847194;-0.07125194;-0.024522142;0.025514493;-0.0091779325;-0.04353564;0.086311765;0.53056425;0.0668753;0.002500596;0.098219104;0.120921806;-0.18946931;0.07562571;-0.10354759;0.2202086;-0.03766952;0.009443876;-0.14665942;-0.11368558;0.06227616;-0.14424609;0.03761668;-0.084369615;0.19125634;-0.09264748;0.116090745;-0.07308063;-0.12746343;-0.0072174463;0.20979388;-0.061459318;-0.18216474;0.034712926;0.0063884095;0.07594033;0.04627648;-0.057615653;-0.051794514;-0.122921765;0.00817282;-0.044508893;-0.14697722;-0.09052073;-0.13320479;0.12658891;0.09856164;-0.1265797;-0.22207047;-0.07083126;-0.07257778;0.19006729;0.0430769;0.07731845;0.028977193;0.20938453;0.15998183;0.04162468;-0.1202693;-0.08888393;-0.08501851;-0.1996525;0.14526242;-0.17581451;-0.12772253;-0.12877321;-0.05094308;-0.023709025;-0.009239584;-0.05671612;0.17028809;-0.089618616;-0.12582064;0.118498266;-0.0844957;0.07421722;0.091217406;-0.029315975;-0.08280922;-0.018054046;0.0428101;0.08086059;-0.062430512;0.01059356;0.1540445;-0.062625065;-0.22169735;-0.015524296;0.0033731693;-0.102150835;0.115725;0.050080497;-0.17462307;0.023913197;-0.09295723;0.1486951;0.04740092;-0.11020892;-0.012609262;0.11438818;-0.20872627;0.16608766;0.14012305;0.0072372905;0.19499743;0.010145039;-0.15822296;-0.16595715;-0.017054735;0.085640386;-0.29889506;-0.012957381;0.05710234;-0.068196416;-0.10509119;0.07014456;0.024275996;-0.0998295;0.02465931;-0.16378719;-0.07601017;-0.047999263;0.056048132;0.020706493;-0.01638146;0.07144221;0.041279677;0.17274395;0.030924082;-0.12629285;0.017398354;0.040158894;-0.023723422;-0.012824756;-0.029032907;0.055690844;0.006105727;-0.26223904;-0.02927036;-0.14429279;-0.056676324;-0.14302242;-0.21437693;-0.0060807792;-0.008739192;-0.008996783;0.08401506;-0.23686044;0.049273632;-0.22458392;-0.21745984;0.042989183;0.04097226;0.13763292;-0.044758875;0.10736565;-0.025845096;-0.04834492;0.010727363;0.03890318;-0.019021349;-0.14728115;-0.07516324;0.06422106;0.17846148;0.11515036;-0.08005257;-0.26468566;-0.06290005;0.017277695;0.06606165;0.105750374;0.038021304;-0.06626553;-0.084102064;0.030253615;0.18597485;-0.11939203;-0.024110878;-0.099790595;-0.26938236;-0.01572482;0.13464685;0.043557707;0.10726575;-0.15160623;-0.24831331;-0.06952845;0.22496891;-0.020138104;-0.1633242;-0.075403005;-0.0021528048;0.0043685674;0.22238412;0.30408898;0.1565889;0.022010282;0.025778878;0.19755146;0.2228689;-0.107048765;-0.10819122;0.037463095;0.22836404;-0.024707112;-0.11963867;-0.06684872;-0.05919805;-0.0236017;-0.0803701;-0.109687485;-0.041296806;0.17552333;-0.24498342;0.14983468;-0.11151379;0.012912472;-0.11511208;-0.05050527;-0.08025272;-0.22597918;0.016732614;-0.012625958;0.017266678;0.20407878;0.05738633;0.026860021;-0.059678517;-0.027943248;-0.043203697;0.09643782;-0.042501293;0.09533928;-0.24618654;0.34142005;0.12664619;-0.3160011;0.17560385;-0.03376766;0.11546714;0.009042819;-0.19484463;0.07831595;-0.14136924;0.03075649;-0.15259705;-0.012773751;-0.029556554;-0.04097398;-0.12743141;-0.104855284;-0.028799755;0.09511666;0.031940013;0.10690858;-0.14540692;-0.116499595;-0.1109438;0.07965461;-0.10139331;-0.007530091;0.1293896;0.056894112;0.10873825;0.059248976;-0.16230854;0.21311463;0.16887914;0.31709215;-0.020566834;0.028317835;0.0041339477;0.014762283;-0.012073984;-0.16213317;0.03457045;-0.117881216;-0.03619858;0.109245315;0.01428858;-0.13034101;0.061493367;-0.13712288;0.041189793;-0.02624334;0.15160392;0.09258554;0.03693274;0.10113178;-0.03157525;0.19614412;0.062328786;-0.02439751;-0.18575984;-0.060932852;0.041603927;0.07624932;-0.0427683;0.006205062;0.1355195;-0.18556985;0.054432787;0.069402575;-0.02856701;-0.09781714;0.0014185775;-0.11311438;-0.024247423;0.02628286;0.06440171;0.08556891;0.096138656;-0.13537015;0.088481426;0.0027709354;-0.1778726;-0.2152041;-0.02990432;0.1277709;0.025809722;-0.25361237;-0.07764488;0.031053023;0.117367074;-0.09423225;0.00059971306;-0.11788726;0.16815922;0.27679083;-0.176828;-0.18999864;-0.120322615;-0.11384973;-0.0460056;0.05734956;0.00042414543;0.16009867;-0.014963689;-0.124793105;0.08008041;0.11060546;-0.23908627;-0.034915302;0.04838797;-0.10408007;0.17059171;0.14155947;0.04634606;0.243373;0.036137775;0.16034095;0.06528503;-0.14983732;0.034066934;0.13371669;-0.079285786;0.021113781;-0.20062746;-0.0475175;-0.10818516;0.07151453;0.11479493
0.13105713;0.028409263;-0.008452428;-0.091937065;-0.2879934;-0.09471657;0.03922937;0.054563582;0.13829108;-0.0754205;-0.18275791;-0.055839986;0.038234107;-0.13590874;-0.105133235;0.2079995;0.0017805733;-0.035301674;0.046685386;0.19324225;0.11622806;-0.10508797;-0.017931003;0.006194549;0.09747993;-0.106159166;-0.13919678;-0.04993165;-0.05932815;0.16405477;-0.08484357;0.13290393;0.030657249;-0.12446738;0.022841388;0.03158586;0.01810211;-0.0804063;0.030941704;-0.015573461;0.06443224;-0.042059347;-0.033665154;-0.03296501;-0.078156725;-0.04793628;0.13969722;0.121209785;0.14054544;-0.06940867;-0.049546495;0.019408837;0.024069058;-0.12417341;-0.014183069;-0.0217375;-0.117177255;-0.17872867;0.09902383;0.05435992;-0.10698605;0.051130492;0.06509959;-0.06499671;0.03477817;0.11508382;0.11604644;-0.14303616;-0.16222583;0.10950601;-0.016380781;0.1049324;-0.06904889;0.15264629;0.09204094;0.06894232;0.059802033;0.23129651;-0.110745065;-0.023640214;0.033091594;-0.1440698;-0.08005135;0.003934944;0.13161013;0.07681758;-0.11780651;-0.1924547;-0.00829495;-0.11561738;-0.051188517;-0.14457035;-0.26381826;0.014969129;0.03424612;0.1766596;-0.14512834;0.05112905;0.0029282167;0.14583373;0.028276196;-0.08751895;0.14406902;-0.034011528;-0.037897494;-0.10981643;0.024567286;0.20865244;-0.1793553;-0.10554114;0.057521183;-0.052460037;-0.061327387;0.16148353;0.08437162;-0.18261454;-0.0036666675;-0.04690268;-0.23492621;0.09378172;-0.14102252;0.030700164;-0.12689614;0.0712804;0.029660497;-0.004738167;-0.023920497;0.24175481;0.085227296;0.053786065;0.25136888;0.07316944;-0.13649777;0.13345185;-0.27977836;0.10417739;0.0068222564;0.07829373;-0.106507294;-0.04096579;-0.1332451;-0.19283396;0.10231802;0.04162483;0.052067142;0.028747447;-0.053228255;-0.043488827;0.1336695;0.06887814;-0.06743793;-0.057362866;-0.024570618;-0.061605137;-0.030798933;-0.07965422;-0.008601886;-0.100611314;-0.160729;-0.16805279;-0.21716766;-0.2897524;-0.006763346;-0.176453;-0.013129538;0.07761762;-0.027923381;-0.006476034;0.13584188;-0.087217495;-0.10285572;-0.083372414;0.06795299;0.21037798;-0.031969693;0.11788499;0.003977714;0.19538319;0.019967273;-0.15416974;-0.104446165;-0.21369314;0.06999115;-0.14592068;-0.13611469;-0.2534944;-0.011521618;-0.15794325;0.07872136;-0.35600626;-0.035999358;-0.15508427;0.05502533;-0.14570647;-0.043236163;-0.069236405;0.106343254;0.09449538;0.118758634;0.06348068;0.052217346;0.020678999;0.03492415;-0.32024854;-0.03609039;-0.0026943588;-0.101507604;-0.03448742;-0.0016624355;0.10315935;-0.002486131;0.096135035;-0.13960922;0.055065043;-0.15235256;-0.06663721;-0.013460187;-0.13749243;0.0730854;0.033498317;0.3071951;0.020262374;0.14119774;-0.004849465;0.09556521;-0.17442639;0.08820631;0.14846882;0.17193393;0.025247533;0.119492166;-0.13497734;-0.054446787;0.08944067;-0.07027701;-0.115902826;0.053482793;0.13878752;0.088338576;0.17828362;-0.044584032;-0.04396784;0.06555557;0.0766322;-0.13242953;-0.23358776;0.005346565;-0.026138226;-0.23493332;0.11090967;0.11169375;0.02270522;-0.30679896;0.051631946;-0.060899653;0.032294914;-0.03333333;0.008330077;0.12625548;-0.106860235;-0.1662812;-0.2281576;0.008074218;-0.014992748;0.2696768;-0.19261795;0.10558547;-0.02629345;0.022150248;-0.025707623;-0.04738392;-0.16333653;-0.10632662;-0.038463965;-0.056022123;0.13923912;-0.17536305;-0.1099973;-0.19448848;-0.03739437;0.022883207;-0.004959727;-0.09243896;0.013373933;-0.19717574;0.009429585;0.04258188;0.0027517076;-0.10626195;-0.06608525;-0.04419476;-0.12124423;-0.092132404;-0.06334644;-0.0059313974;0.057480343;-0.04579399;0.036971796;0.019439947;-0.20607926;0.09301242;-0.081454374;-0.006199786;0.08687613;0.1542367;-0.031760957;0.001020113;-0.022125082;-0.03895979;0.12503412;-0.026859295;-0.019226171;0.037825372;-0.15617625;0.005713769;-0.004190825;-0.02399038;0.23024195;-0.06474973;-0.18776804;-0.13830665;0.053174533;-0.06705728;-0.2546962;0.04460497;-0.06953455;-0.20710246;0.01294995;0.16216435;-0.00036959953;-0.030433442;0.09327296;-0.1675714;-0.018611336;-0.0057824603;0.06641167;0.03226198;0.06908513;0.1708496;-0.010285326;0.06396729;-0.12168839;-0.15748551;-0.100490876;0.05099272;0.049478415;-0.0287807;-0.08472355;-0.028598659;-0.12229366;-0.054616928;-0.107530035;-0.15553148;-0.07079031;0.018508818;-0.11323909;0.010355599;-0.123358;-0.04273137;-0.06949401;-0.21437177;-0.009211649;-0.26312873;0.044281486;0.13893725;0.040316705;0.13993776;-0.09654777;0.043059066;0.004965876;-0.14033498;0.096423306;0.08776073;0.08148552;-0.17761312;-0.14906117;0.10034921;0.099890746;0.0739604;0.1279925;-0.22250883;-0.09843173;-0.03652542;-0.09829429;0.03171794;0.17034258;-0.20564505;-0.0020211844;0.014322625;0.13228986;-0.070957154;-0.07810292;-0.08228036;-0.30419672;0.044056244;0.071014546;-0.07341009;0.10834762;-0.014219176;-0.18840417;-0.015246324;0.07851796;0.12023752;-0.10038709;-0.034106303;-0.011406498;-0.03410688;-0.0073850555;0.076761425;-0.04710224;-0.09199752;-0.14315961;0.073737286;0.055241827;0.031356245;-0.025506046;0.106036924;0.10043951;-0.049521867;-0.095827304;0.023697821;-0.019022176;0.14259368;-0.03573454;-0.08275173;-0.20814;0.23284899;0.048768174;-0.061099928;-0.03896326;-0.07655154;-0.023665342;-0.087845616;-0.026506849;-0.009929246;-0.051661555;-0.09528366;0.063976415;0.12741311;-0.07102416;0.016024033;-0.12709194;-0.061796296;-0.0909353;0.09925056;-0.059627023;0.06791352;-0.18178253;0.23366204;0.043179944;-0.27160472;0.09552311;0.02583609;-0.05045921;0.1629024;-0.042256087;-0.085996434;-3.5928533e-06;0.05800369;-0.040100638;0.0025658691;0.09915108;-0.002630007;-0.042239744;0.040755216;-0.03081833;-0.06556927;0.10646685;0.032537736;-0.08299691;-0.113648385;0.03783113;0.03107649;-0.14981136;0.06905163;0.12961005;0.123481154;-0.09381022;-0.034682363;-0.10140492;0.09986681;0.16811764;0.18867639;0.15416808;0.05829847;0.18392822;-0.099317506;-0.08683803;-0.12598264;-0.023699306;-0.25901207;0.03757727;0.08308333;-0.1827197;-0.118124835;0.05668266;0.004785733;-0.11499973;-0.034534447;0.08687042;-0.040304776;0.12133262;0.096789;0.04463849;0.13663323;-0.03224505;-0.01198995;-0.16403951;0.03144987;0.103929125;0.031458937;-0.13943227;0.013660908;0.20176509;-0.15480042;0.08094933;-0.10977013;-0.07053953;-0.036221422;-0.092747666;-0.1280833;-0.15007351;-0.08462468;0.07568483;-0.027139008;-0.00677532;-0.1924154;-0.023121448;-0.040862013;-0.07546134;-0.11511218;0.062119268;0.07327278;0.030711992;-0.034009367;-0.024571672;-0.018318182;0.17930092;-0.10298316;0.08003795;-0.19260542;0.065167606;0.077863455;-0.15217277;0.0062094415;0.011221617;0.044063874;-0.107677445;-0.0005593467;-0.11445128;0.020221837;-0.13081469;0.009989389;-0.030545108;-0.11038831;-0.055200744;-0.006186364;-0.08002461;0.1508426;0.20021853;0.027649304;-0.09642865;0.02442414;0.044651434;-0.16752158;0.050679754;-0.24360444;0.14879803;-0.061198965;-0.17794774;-0.10583274;-0.022225609;-0.11052532;-0.09093862;0.09913911;0.13670285
-0.087337516;0.11583237;0.04791112;-0.0014984687;-0.19882423;-0.01995251;-0.09183669;-0.023227131;-0.042241797;0.08493308;-0.29157573;-0.08284538;-0.010456081;-0.20493235;-0.17078787;0.048245035;0.10940001;-0.0096485205;-0.05716009;0.14575416;0.07308762;-0.030588254;-0.019750042;0.07330462;0.0668432;0.049702715;-0.041328702;0.05296859;0.112985685;0.16344833;-0.1513293;-0.06799004;0.043646544;-0.19791286;-0.022915227;0.043867085;0.092755154;-0.12421429;0.18711941;0.0007089446;0.12380659;0.004121281;-0.036426276;0.13954791;-0.2560396;-0.15623835;-0.003656335;-0.021669291;0.12725984;0.02942084;-0.1275059;0.12356475;0.047189213;-0.09349487;-0.23139495;0.102267504;-0.19377172;-0.039148357;0.015156466;-0.0022408452;0.011715186;0.012268785;0.0024410747;-0.098736934;-0.02951921;0.074136056;0.08850397;-0.059967846;0.024224365;0.10090838;-0.026372;0.13971801;0.055317994;0.14835402;0.07186527;0.102029644;-0.017758258;0.08465079;-0.058941346;-0.1343101;0.121973865;0.010105535;-0.011884807;-0.0811695;0.12916;-0.0029929164;-0.18064332;-0.0699501;0.04322695;-0.095775574;-0.027498329;-0.27986518;-0.2639146;0.13947493;-0.00720394;0.13804078;-0.23415984;0.10243816;-0.0022964226;0.11992382;0.02347288;-0.17530239;-0.013657879;0.06742933;-0.06682551;-0.07907255;0.013488353;0.09724062;-0.11238948;0.15856928;0.18631604;0.04111934;0.020285988;0.18457954;-2.587685e-05;-0.10017351;0.109100804;0.12064162;-0.3466249;0.024633422;-0.21832618;-0.05625452;-0.10734216;0.062206056;-0.02252859;0.14412156;-0.18176073;0.24936031;0.3235243;-0.07574652;0.23661764;0.092379525;-0.012480564;-0.05553194;-0.22440456;0.07788108;-0.09935079;0.15985557;-0.08928564;-0.0352809;0.14131565;-0.13516986;0.1728967;0.09864085;0.07151463;-0.0035950944;-0.07795909;0.040098563;0.09704659;0.056707658;-0.034236815;-0.06460585;-0.0047439467;-0.23628563;-0.15164019;0.047687728;0.04393185;-0.11884799;-0.13900934;-0.10420232;-0.18433517;-0.12821744;0.07393145;-0.1934279;0.09677504;-0.06482658;-0.028666267;-0.06339713;0.078087226;-0.116255976;-0.14108433;-0.01356021;0.1359305;0.16951552;-0.08436268;0.037054814;0.03881995;0.16205579;0.048828065;0.013847485;-0.0142931435;-0.079472065;0.03407289;-0.065967545;-0.12208024;-0.20609467;0.019584471;-0.016950892;0.079637446;-0.25729087;-0.008529533;-0.17902218;-0.022993721;-0.1493798;-0.054632943;-0.113989614;0.05552181;0.102920875;-0.01701629;0.041792195;-0.10018977;0.016623836;-0.015474928;-0.15648092;-0.07134316;0.07908624;0.0382718;-0.0126866605;-0.10397762;0.0407398;0.104640126;0.08275154;0.034915805;-0.029330058;-0.28329477;0.008958316;-0.031169746;-0.04105202;0.1496108;0.16202377;0.31437618;-0.044568595;0.14364456;0.082398266;-0.07151609;-0.0021014751;0.17196299;0.1791718;-0.047509383;-0.111770116;-0.013386893;-0.18817447;-0.077718854;-0.03792855;-0.059231818;-0.12627186;0.080805145;0.08527718;0.01635401;0.15365423;-0.15032493;0.077563204;0.14682448;-0.07103554;-0.19192871;-0.025802432;0.16017805;-0.046073202;-0.18048415;0.02978882;0.2657847;0.05487545;-0.22228669;0.060332343;0.10311115;-0.020877603;-0.08672691;-0.013590282;0.13408919;-0.03775455;-0.10561182;-0.0965443;-0.090590045;-0.045122147;0.21619627;-0.09774452;0.079726234;0.041894477;0.0004746901;0.014519769;-0.026692914;-0.008836077;-0.14946152;-0.03799433;-0.039616678;0.19715275;0.043579318;-0.20330308;-0.23398094;0.0061462354;0.019842034;0.07216567;-0.08003932;-0.07216116;-0.10956165;0.12324341;-0.08518235;0.07809213;0.017638896;-0.124213606;0.031776886;-0.06757031;-0.10541512;0.05524752;-0.1127824;0.054703455;0.095116265;-0.03658616;0.15507178;-0.229982;-0.049078766;-0.013032318;0.21319422;0.0833343;0.112406686;-0.0018100893;-0.05692939;0.05005742;0.10538156;-0.030288532;0.043652825;0.02236748;0.13896656;-0.033156775;-0.044124693;0.045354307;-0.05967581;0.11444771;-0.073759384;-0.04206403;-0.21474081;-0.028288277;-0.16666503;-0.16067877;-0.06591494;-0.17705312;-0.236264;-0.15613815;0.20976345;-0.00089225156;0.10020569;0.074647665;-0.17324625;0.036022823;-0.11837371;0.012462893;0.05319691;-0.0057085045;0.14307357;0.029489757;0.1030436;-0.11909577;-0.24030377;-0.07994333;-0.0003429116;0.00974512;-0.19644722;0.045093875;-0.064713664;0.018818753;0.17087385;-0.011139089;-0.16620578;0.07078578;-0.047020014;-0.019386802;-0.065505154;-0.057753485;0.009540275;-0.11373964;-0.27130377;0.003721849;-0.22288483;-0.02460879;0.12896922;-0.18886769;0.19056028;-0.022875981;0.01575281;0.031058855;-0.05081951;0.05737809;0.04438359;-0.037406255;-0.15211397;-0.043680925;0.19153251;0.1430093;0.08574986;-0.029375313;-0.091840014;-0.08498894;-0.020752728;0.09404723;0.023597158;0.18934432;-0.035463136;-0.051013723;0.080380574;0.10404154;-0.04592926;-0.050441556;-0.012104307;-0.23233058;0.076988086;0.13032927;-0.035848092;-0.03577927;0.021034652;-0.20870738;0.108187065;-0.05228907;0.0042306124;-0.08888994;-0.081892215;0.24530824;-0.094466545;0.08320544;0.012182905;-0.046744976;-0.16826102;-0.057497565;0.02322013;-0.03084158;-0.08999998;0.011251559;0.02232791;-0.09229382;-0.07185238;0.08375509;-0.033942804;-0.043592688;0.037297405;0.13039678;-0.020264566;-0.16084176;0.16985478;0.22718783;-0.0251907;0.023671465;-0.107221276;0.06991522;-0.04278515;0.02808744;-0.050765168;-0.044951867;0.00918742;-0.011601707;0.05245429;-0.11748293;0.011226769;-0.10060214;0.07824311;-0.038507022;-0.087711155;0.0495723;0.012099822;0.021193124;0.18485947;-0.02468115;-0.17691652;0.14588064;0.0038957766;-0.0025330705;0.09201873;-0.27290338;-0.07761813;0.08787815;0.1944268;-0.008764574;-0.020700855;-0.050236925;0.029728165;-0.19975908;0.07924483;-0.0885579;0.108584;0.022212591;0.008176874;-0.06806815;0.047704287;-0.01909844;-0.113524236;-0.07934507;0.062245082;0.19381215;-0.06996946;0.13284558;-0.0073494553;-0.042375654;0.07101253;0.21326628;0.17581742;0.05333546;0.054041468;-0.039244276;-0.1311323;-0.15182473;-0.22416325;-0.09912081;-0.084264465;0.024863215;-0.0131346565;-0.14548777;-0.10028283;0.012397724;0.07992948;-0.016989129;-0.21440181;0.08770634;-0.03948563;0.0070861713;0.11453108;-0.055916656;-0.0026837206;-0.06730637;-0.05825791;-0.15985899;-0.014750944;0.17987701;0.12201082;-0.121374406;-0.1579101;0.13345858;-0.17358339;-0.009324127;-0.11610667;-0.061216425;0.065478474;-0.044917654;-0.11466778;-0.16094929;0.14478451;0.21725173;-0.07610036;-0.040640347;-0.15092817;-0.075521596;-0.15460761;0.010950055;-0.24252519;0.024365254;0.032636024;0.12146689;-0.10696635;0.032446787;-0.004410824;0.096857004;0.0042451937;0.05398983;-0.24571833;0.10909393;0.028680174;-0.19096847;-0.07855247;-0.16830987;-0.22553347;-0.07291045;0.114081934;-0.044041596;-0.010648219;-0.093933865;0.051944595;-0.13752127;0.011777837;-0.1100747;-0.08416086;-0.028371729;0.1897031;0.059530362;0.098902054;-0.1849571;-0.03464949;0.08499718;0.01811726;-0.11805884;-0.28880405;0.07921365;0.15867163;-0.06362612;-0.05522417;0.16965944;-0.096866906;-0.03293496;0.045040652;0.07039301
0.03132856;-0.09754561;0.018250244;-0.030316211;-0.087982625;-0.09286341;-0.009921903;-0.017905498;-0.04937416;0.032170754;-0.28991446;-0.046599545;0.05941062;-0.2625735;-0.13273822;0.14462608;-0.025105078;-0.04779891;0.13950148;0.079723045;0.10593406;0.04729725;-0.09022313;-0.054636855;-0.008155795;-0.009561402;-0.12647237;0.13571538;-0.014531049;-0.10978884;-0.116356514;0.08228362;0.14030859;-0.039683886;0.06296055;0.11289912;0.12149116;-0.20794462;0.11835649;0.07374884;0.0015671398;0.061038945;-0.02065607;-0.15266982;-0.2240577;-0.05047878;0.08993362;0.028508104;0.1727313;0.0060783313;-0.06603201;0.07648017;-0.11743791;-0.121794455;-0.27594754;-0.0033407982;-0.05605995;0.0012330925;-0.02578659;0.057867054;0.022476878;-0.027601065;0.029456086;-0.096065864;-0.015117642;-0.17856508;0.15690625;-0.033219934;-0.034745462;0.10639387;-0.021947341;0.35791218;0.035623737;0.17278661;-0.039521668;0.084336005;0.036415234;0.17751896;0.048063602;-0.096883;0.112171255;-0.02803347;0.15708508;-0.06284859;0.1456398;-0.10568615;-0.055424813;-0.07627653;-0.006804399;-0.023849525;0.11622764;-0.28389823;-0.11351346;0.058003128;-0.06280713;0.0048288405;-0.15668719;0.14273916;0.12098102;-0.007448677;-0.08261891;-0.145173;-0.09917233;-0.025213668;-0.1101823;-0.17407799;0.0792956;0.01820572;-0.0062629455;0.101648465;0.1540641;-0.07847727;0.021582697;0.0982394;-0.10485309;0.009595096;0.06313147;0.11330234;-0.08333429;0.11589835;-0.25394773;-0.03640632;-0.15473951;0.112358704;0.11220256;-0.013644686;-0.119261965;0.2205185;0.13280356;0.06592875;0.25677076;-0.055046715;-0.13404006;0.10978804;-0.20244007;-0.04245036;-0.06889929;0.1363323;-0.059532;0.009225475;0.13498738;-0.12076594;0.11586042;-0.005725272;-0.02447323;0.009134719;-0.09012091;0.069468774;0.07253112;-0.09498853;-0.08476539;-0.102951415;0.030679684;-0.1743907;-0.092150554;0.0110752825;-0.007264029;-0.094720736;0.0052017486;-0.07877938;-0.16969725;-0.11879618;-0.067817;-0.042940278;-0.003544946;-0.033055026;0.0044100294;-0.040838074;0.0154017275;-0.11077179;-0.29108542;-0.21031357;0.03243238;0.19263346;-0.10840953;-0.06509338;0.045759704;0.14371426;-0.048112098;0.01969417;0.01179085;0.008480013;-0.09229485;-0.01981968;-0.15453891;-0.09897741;0.047659058;-0.054941222;0.056668043;-0.20813952;0.041356884;-0.08250533;-0.2960243;-0.045024563;0.07191312;0.070926435;-0.087299906;0.12410431;-0.07698924;-0.05736305;0.11385134;0.18950883;0.058382127;-0.30334744;0.060337916;0.08458896;0.07543071;-0.08564279;-0.029327868;-0.025047254;0.18120131;0.029318558;0.090260364;0.12112552;-0.3038742;0.01056421;0.081307635;0.123641185;0.10910057;0.1659041;0.13406305;-0.0010950313;0.19718258;0.038967025;0.09839897;-0.026103856;0.017099312;-0.0432278;-0.16882312;-0.11495718;0.069842674;-0.058725294;0.0036604698;-0.08411716;-0.16326812;-0.13655174;-0.03220627;0.17072774;-0.049203865;0.094391316;-0.12489139;0.02363559;-0.009894463;0.07028376;-0.28206056;-0.012988499;-0.05306335;-0.16187814;-0.16721837;0.06384121;0.13754901;-0.048792373;-0.16491006;0.00319592;0.0097638285;-0.0466002;0.033584896;0.11211901;0.1536808;-0.052000787;-0.2249707;0.057821326;-0.03617141;-0.018141165;0.27605283;0.03739861;0.18282804;-0.08743206;-0.03928283;-0.03050359;-0.1506917;-0.15505965;-0.15189455;-0.05210669;-0.11112825;0.24757032;0.027787345;-0.0624165;-0.12292482;0.05251995;0.033105195;-0.025696633;-0.07464451;0.097891815;-0.17376487;-0.13865672;-0.027496511;0.093035124;0.0107707465;0.007827307;-0.092312515;0.027653873;-0.25846404;0.0153838815;0.0738753;-0.04795416;0.05828159;0.027078561;0.04596228;-0.24590799;-0.04834259;-0.08416589;0.15626769;0.097954474;0.040902678;-0.11704969;0.066463;0.057443425;-0.026989337;0.10776287;0.13686325;-0.16633584;0.22141898;0.008111046;0.13199249;-0.005020094;0.060894284;0.034304317;-0.025980495;0.04843109;-0.12026429;-0.053723965;0.07897933;-0.16383699;-0.05342806;-0.03774598;-0.07936735;-0.15088265;0.034453403;-0.025310779;0.061420377;0.119038925;-0.16726123;0.052703116;0.024243476;0.039895214;0.04816043;0.17260556;-0.029014288;0.012537882;-0.037200436;0.033863887;-0.25104612;-0.1421103;0.015032598;0.03606844;-0.0674177;-0.1910232;0.029784743;-0.092852324;-0.078814246;-0.100125544;0.03676973;-0.014118955;0.07385495;-0.05083149;0.09502103;-0.11332833;-0.004899728;-0.03336018;-0.2193508;-0.12043511;-0.06149228;-0.13641128;0.07927719;-0.16226807;0.08580501;0.05277796;0.07260166;-0.043877345;-0.1758657;0.012246127;0.18260501;0.052686088;0.02075684;-0.017175026;0.18005586;0.17609476;0.11247346;-0.022842662;-0.11733529;-0.1108179;-0.049037647;-0.01672605;0.04569619;0.04046215;-0.084378816;-0.16572657;0.027545057;0.020366004;-0.012581817;-0.0895679;-0.097804785;-0.17069122;0.091279395;-0.005863713;-0.09816495;-0.037946522;-0.023312882;-0.16675496;0.09943594;0.2184817;0.05409778;-0.14779736;-0.16105478;0.3009621;-0.1324627;0.12748821;0.004141646;0.08384603;-0.2554457;0.063544974;0.05491909;0.045717873;-0.15536764;0.07008343;0.0062479153;0.11404371;-0.2325832;-0.06279179;-0.04888586;0.051132064;-0.022626733;0.072319254;0.034311585;-0.11238827;0.15128711;-0.009607758;-0.0007564915;-0.19459246;-0.032169327;0.0029252789;0.018684147;0.07376107;-0.055599287;0.021732677;0.040533673;-0.09261794;0.087603286;-0.0037975593;-0.021056432;-0.120693035;-0.14856926;-0.05170206;-0.033050057;0.031103482;-0.13128299;-0.022545593;0.3679314;0.025156075;-0.12607132;0.24180709;-0.1489369;0.10389277;0.12485973;-0.19056962;-0.04745578;-0.018579466;0.20547841;-0.037948873;-0.043117486;0.018267097;0.17290768;-0.083577126;0.058977593;-0.18594465;0.07429649;0.030757494;0.21899386;-0.07600275;-0.16611536;0.029996028;-0.0008023229;-0.035909276;0.035632987;0.046270583;0.120471075;0.013881766;-0.041602693;-0.20592542;-0.06239121;0.16773473;0.14091101;-0.034412965;0.043661356;0.032976955;-0.08318385;-0.09446386;-0.21670115;-0.027657934;-0.029951852;-0.10014106;-0.07626389;-0.13979897;-0.14600036;0.07746414;-0.06409984;-0.03302113;-0.108290784;0.14874436;-0.032541458;0.11731347;0.116946906;-0.03552464;-0.040568177;0.03027449;-0.021363953;-0.1720727;0.061044063;0.122157656;-0.0059948405;-0.10085286;-0.17659546;0.026901608;-0.12221366;-0.057442114;-0.2172034;-0.08464895;-0.045248024;-0.102301314;-0.22719668;-0.18080395;0.10539602;0.18414281;0.14439411;-0.026971847;-0.128164;-0.04396039;-0.012808979;0.03250496;-0.20864946;-0.002046779;0.045199636;0.16822901;-0.13904794;0.0042063664;0.015604521;-0.016465906;-0.18577577;0.030676339;-0.115126446;0.18902163;0.12580533;-0.25605378;-0.05887085;-0.11835657;-0.23264639;-0.11008649;0.10171156;-0.07375108;0.026921734;-0.0033231429;-0.074379385;-0.057608392;-0.019421779;-0.35485438;0.060173545;-0.10394844;0.049113058;-0.01654179;-0.0074599963;-0.14518788;-0.008686151;-0.0014615987;-0.0658697;-0.12254406;-0.31041712;0.094330795;-0.06866133;-0.06391456;-0.026498217;0.012296822;-0.025769908;-0.039313167;0.09568419;0.029893452
-0.04256912;0.0786169;0.03225785;0.17301823;-0.18856364;0.043531112;-0.07865994;0.16885696;-0.14392556;0.091641955;-0.07119975;-0.09780641;0.0150627;-0.3347361;-0.3060702;0.18643291;0.11752181;0.10356002;-0.080121905;-0.029084086;0.04815232;0.1844388;-0.13869019;-0.18024404;-0.033967923;0.06227828;-0.07276041;-0.06033265;0.07097307;-0.10228876;-0.016317243;-0.025870087;0.087159455;-0.10921864;0.06299445;0.114517964;0.17342773;-0.20445313;-0.011331168;0.16280416;0.12081484;0.13167936;-0.29518095;0.04030685;-0.095965356;-0.0309453;-0.0027565863;-0.06302973;-0.0739392;0.083259724;-0.060477205;-0.023606943;0.03195997;0.11242147;-0.1347556;-0.047331467;-0.06353773;-0.13054843;-0.0983204;0.0045836023;0.057184577;0.07440103;0.071270876;-0.10899584;0.02518556;-0.11663988;0.053638384;-0.0418922;-0.11267586;-0.0070954673;-0.16945429;0.13380027;-0.062283345;0.13055511;-0.0040394356;0.091558345;0.12636103;0.1303506;0.066021055;-0.12809248;0.121678025;0.0060936064;-0.051047005;-0.24282683;0.0966519;-0.038327597;-0.03983191;0.0065784743;-0.05935424;-0.029086139;-0.0115256915;-0.24197325;-0.14799017;0.12367068;-0.10461297;-0.042860188;-0.11362098;0.053053375;0.06415092;-0.033647086;-0.16300079;-0.104448594;-0.23742624;-0.040792145;-0.14572309;0.07812506;0.02384585;0.14812031;-0.17178567;0.0010946393;0.026922742;0.18032409;-0.17886746;0.13665652;-0.017543284;0.008650967;-0.075887926;0.1332402;-0.058097612;0.085001744;0.014122302;-0.14957438;0.03505067;-0.060764976;-0.08957167;0.18720107;-0.15944898;-0.05005193;0.08227431;0.026308881;0.18794313;-0.108689785;-0.15399869;0.20009439;-0.07915479;-0.17818774;-0.13257949;0.10075856;0.11214412;-0.14751388;0.27722988;0.015614982;0.019706076;0.022559311;0.16601026;0.088504516;0.036104947;0.122461125;0.10612078;-0.05774154;-0.10282114;-0.15081188;-0.032427203;-0.13136242;0.011150809;0.02761314;0.10455479;-0.19464968;-0.08798279;-0.15058498;-0.034883164;0.030580504;0.07226646;0.004517588;0.09951764;0.009395517;-0.11758205;0.116837874;0.10601423;-0.083341554;-0.017131945;-0.022846594;0.041522253;0.16058318;0.028940925;-0.08337152;0.011379634;0.07908828;0.1320273;-0.020505577;0.12263626;-0.04620594;0.015706506;-0.052872952;-0.35322684;-0.21803448;-0.0070903385;0.006145109;0.04507401;-0.2876359;0.037422694;-0.16396976;-0.24453884;-0.017487954;0.05062914;-0.19238426;-0.049985655;-0.025019871;-0.079384245;0.00083991745;0.07858743;0.18713109;0.015805377;-0.2009514;-0.027682118;0.1376564;-0.07897117;0.019494575;0.06426954;0.08608558;0.00989865;0.040101178;-0.11741379;0.017253753;-0.29953477;-0.08523664;-0.046801157;-0.073565476;0.10532349;0.15637492;0.14956537;-0.09199829;0.066431604;-0.051147178;0.034766756;-0.08927225;0.08781248;0.0014153261;-0.23397166;-0.026732495;-0.05778064;-0.028157901;0.09688541;-0.17132065;-0.21632275;-0.08839992;-0.022110777;0.036807485;-0.0157689;0.025686665;-0.16266498;0.03319235;0.056125253;-0.042918723;-0.13783154;-0.17863452;0.010998773;-0.057169;-0.006101963;0.05046933;0.30807;-0.06896278;-0.071045525;-0.06526094;0.032467905;0.08205631;-0.19061472;-0.024222353;0.1299712;0.22400272;-0.15012766;-0.08462451;0.12942997;-0.15453152;0.17409612;0.13330597;0.08394891;0.008092905;0.038841;-0.0596587;-0.09912326;-0.04509502;-0.061903708;0.15423217;0.055270866;-0.039731927;0.031033758;-0.1501678;-0.34049168;0.02473065;0.04206221;-0.03377561;0.027728893;-0.11339142;0.07095989;0.037261885;-0.08058687;0.13779745;0.07289682;-0.17392865;-0.09939363;0.054274544;0.009070638;-0.21626835;-0.02179194;-0.10549062;0.051021356;0.03189157;0.1546846;-0.45377156;-0.09988719;0.10090959;0.13221271;-0.031984374;0.1768484;0.096361935;-0.123443685;0.096164726;0.06647848;0.13954154;0.15650384;-0.06624252;-0.060382336;-0.06851968;-0.033885565;0.082925946;0.08689892;0.088020094;-0.038437;0.02630781;-0.057033345;0.04824248;-0.04670796;-0.101921044;0.11120218;0.023965377;-0.18030722;-0.008166055;-0.06836866;0.021336244;0.032356195;-0.055761263;-0.17233188;0.022371503;-0.18016282;0.031099023;0.052237388;0.2245906;-0.21060951;-0.10063767;0.046746936;-0.18186617;-0.28370193;-0.058102615;-0.08782127;0.0147736715;-0.03274874;-0.17386614;0.051670324;-0.11926579;-0.051614188;-0.13396867;0.014359118;-0.15290159;-0.041745182;-0.024582278;0.008465545;0.020498652;0.024764687;-0.18717691;-0.09810726;-0.059654225;-0.0342876;-0.03482325;0.1037424;0.044011388;-0.04566536;0.04778224;0.094665125;-0.06552465;-0.0020242487;0.042168144;0.10813108;0.0033498483;-0.08719022;0.024791077;0.039732423;0.04085648;-0.010868596;-0.06271137;-0.04780633;-0.06740418;-0.09396833;-0.15428406;0.09421018;-0.06837059;-0.21398179;0.0034975274;0.12023599;0.0045120036;0.099019505;-0.103164084;-0.16057046;-0.17555885;0.042717956;0.005010358;-0.08269851;-0.08477483;-0.013992652;-0.28162518;0.14158642;0.14819394;-0.12676956;-0.13559373;-0.07645619;0.16332722;0.026802083;0.054274544;-0.14583068;-0.045928527;-0.23020363;-0.024337454;0.08226885;0.044771165;-0.07055447;-0.07534359;0.16290608;0.078695856;-0.099148646;-0.08032706;-0.042126052;-0.0021268;0.02120444;0.076781765;-0.01173197;-0.19596119;-0.038401235;0.16586536;0.042656444;-0.123059325;-0.12925364;-0.05046352;-0.03075056;-0.058199372;-0.016284846;0.03678331;0.08088596;-0.02460538;-0.088978924;0.116587885;-0.01634525;-0.3773941;-0.037118588;-0.062904984;-0.069685325;0.021421166;0.026916733;0.06754185;0.14185295;-0.017146071;-0.15609883;0.24459851;-0.08494577;0.013991425;0.07951886;-0.20140615;0.104473844;0.24620561;0.15245956;0.08326819;0.06943661;0.04827548;0.13021368;-0.02416576;0.12311647;0.024501031;0.16775298;0.00018755444;0.0153725725;0.10785127;-0.054180443;0.063984334;-0.08894672;0.011724927;0.076313026;0.12977234;-0.03381456;-0.019205695;-0.15194419;-0.040194638;0.0686577;0.11166501;-0.007150836;0.07337098;0.065427415;0.02648533;-0.054937325;-0.14745861;-0.1717825;0.15432827;0.12142576;-0.06476142;-0.0040166033;-0.1627691;-0.1376917;0.21208538;0.049465243;-0.065958746;-0.15637134;0.12270872;-0.08758239;0.10857876;-0.11884302;-0.026756717;0.046660833;0.031607118;-0.023839049;-0.11960096;0.050412707;0.024236545;0.038366914;-0.1406216;-0.18933262;0.074980535;-0.014385948;-0.093180925;-0.116289064;0.10692627;0.027986372;-0.021744791;-0.076193325;-0.081154786;0.13293105;0.16826642;-0.025842458;-0.09426964;-0.048774935;0.012365502;-0.09586023;-0.0069994996;0.0179542;-0.061661627;0.056819137;0.045857023;-0.13257182;0.017199168;-0.12943444;0.045592483;-0.13121824;0.12126174;-0.21812157;0.045631986;0.10642626;-0.2454838;-0.00046488407;-0.11511015;-0.28912038;-0.13879061;0.16383855;-0.22415397;-0.05570596;0.014594825;0.016895512;-0.07355105;0.088685215;-0.092824616;-0.09614308;-0.05643671;-0.048607267;0.026503962;0.057566904;-0.21566468;-0.066445075;0.03034855;-0.038125772;0.022179699;-0.14789067;0.102944225;0.14118557;-0.14415881;-5.4480668e-05;0.19034697;0.031221444;0.019331899;0.2132676;0.034042936
0.054973334;0.033413492;0.08462605;0.08039166;-0.3253733;-0.15281197;-0.14170742;0.07576248;-0.13497107;0.012701586;-0.16880418;0.08014102;-0.11605193;-0.32554117;-0.29649004;0.12573038;-0.13323025;0.021032486;0.0010782351;0.0395463;0.28962535;0.1016637;-0.012250169;-0.2355122;0.08890262;0.017863631;0.07184589;0.062674865;-0.034650173;0.026814433;-0.04457952;0.084846064;0.020478623;0.021347862;0.098161794;-0.07194072;0.023435391;-0.29482105;-0.012017678;0.05531441;0.12849881;0.026381418;-0.19803305;-0.056493655;0.03952309;0.15499482;-0.05731333;0.09131569;0.06700092;-0.018585393;-0.1182869;-0.03087911;0.0027722935;0.015580219;-0.0150701;0.1801078;-0.13043356;0.083154626;-0.2671715;-0.054363523;-0.03669781;0.14185715;0.061064143;0.099882655;0.08811393;-0.21939771;0.039856642;-0.17009532;-0.15162997;0.027399275;-0.063445345;0.20026428;-0.010813027;0.18040447;0.011987667;-0.00016697649;-0.03236618;0.12594688;0.16375193;-0.12858789;-0.07701625;0.1771684;-0.044190224;-0.06250362;0.028362714;-0.13832854;-0.023920465;0.04044505;0.045833405;0.04995049;-0.039631087;-0.11128156;-0.09910581;-0.07978846;0.012892082;0.0073976857;-0.06004787;0.06793065;0.1328454;-0.021044746;-0.13274206;0.04705925;-0.20302305;0.029806837;-0.018954784;0.080409534;0.1269822;0.21894775;-0.12680365;-0.035325203;0.0693593;0.004205802;-0.09387775;0.10176093;0.0015064314;0.028167866;-0.045032818;0.06079442;0.03144323;-0.057086777;-0.06358198;-0.08369559;-0.04535935;0.054173265;0.007374326;0.06413242;-0.027189426;-0.11962566;0.093502074;-0.077514395;0.2137941;-0.15542151;-0.18092096;0.14644691;0.064480886;-0.10954629;-0.12491843;0.21562433;0.004181927;-0.28631222;0.10412008;-0.0061389115;0.11452285;0.112298936;0.09953367;-0.058391716;0.06841724;0.0064576217;-0.039527882;0.025076931;-0.03146115;0.0060969447;-0.048925977;-0.07206357;0.04957905;0.061725214;-0.025690958;-0.18067256;-0.09860687;-0.1231249;-0.046414327;-0.10517742;0.11108571;-0.0016752196;0.08577399;-0.0024788873;-0.16862781;-0.06262533;0.0917633;-0.013853696;0.00542073;-0.07442048;0.016297834;0.18605201;-0.16178823;0.028203608;-0.014273139;0.07428817;0.08825061;0.13257971;0.030200036;-0.05892659;-0.0478833;-0.023298223;-0.39866674;-0.20030355;-0.024272202;0.13670526;0.1042321;-0.25176984;0.04165589;-0.2048925;-0.28444773;0.1120608;0.087429084;-0.08099388;-0.02539748;0.13909557;-0.060692552;0.06657595;0.28482023;0.08343299;-0.023271501;-0.20565799;0.029046241;0.030977117;0.01631788;0.022513274;0.09862712;-0.042432703;0.019707026;0.037046056;-0.004059214;0.12964667;-0.0708313;-0.018563855;0.04291607;-0.063598186;-0.026520004;0.04703928;0.14514971;0.0006013478;-0.06686281;-0.0501814;0.11553045;0.013493063;0.12465304;0.006866252;-0.2301682;-0.15833911;-0.049328193;-0.017758831;0.15171221;-0.15020944;-0.06544848;-0.045904707;-0.038106825;0.06612399;-0.07788438;0.05958945;-0.2424742;-0.040609892;0.1329462;0.013645089;-0.17392072;-0.22739646;-0.20753522;-0.03055935;-0.12827484;-0.024783097;0.21705617;-0.12227021;0.091848634;-0.007275174;0.10136851;-0.16822426;0.047019154;-0.011930481;0.1210781;0.07823776;-0.13976373;-0.116490714;0.033011556;-0.03399902;0.23459569;0.07283742;0.117422156;-0.081959695;0.030687487;0.16588119;-0.09982504;-0.045547556;-0.0007729811;0.18090612;0.09004047;0.09122176;0.032792542;-0.16911304;-0.26721498;-0.016415536;-0.09423801;0.011022984;0.042968914;-0.049941048;-0.18994074;-0.13097715;0.021773607;-0.056150008;-0.08134017;0.03302903;-0.06717435;-0.06993319;-0.20871119;-0.04426665;0.0709899;0.09289054;-0.015401721;-0.06624947;-0.058359824;-0.2592453;0.013339413;-0.0017241269;-0.029947363;0.16785817;0.3071525;-0.10075721;0.101629235;0.07110677;0.016764784;0.037307594;0.09490579;-0.11464886;0.22061507;0.08890827;0.15966329;0.090538576;0.19580166;0.061247367;-0.06721124;0.11248389;-0.12518515;0.15069216;-0.068840876;-0.026591038;0.013488465;-0.16863161;-0.19012526;0.12039156;0.049484544;0.08689638;-0.12034578;-0.08065585;-0.21355918;0.10570214;0.149253;0.083817504;0.1266368;0.25763738;-0.2396647;0.017278682;-0.011385064;-0.05491031;-0.20136186;-0.0036545699;-0.07947447;0.011061911;-0.11512608;-0.11549337;-0.008464066;0.03097559;-0.05652858;-0.14062965;0.1194628;0.02352359;-0.04156117;0.016093034;-0.09258218;-0.15461199;-0.007350761;-0.039282024;-0.215531;-0.09702619;-0.21012901;-0.1588612;0.052257076;-0.13780087;-0.10527273;-0.17937008;-0.010244341;-0.032359593;-0.18181367;0.12873426;0.117964804;-0.018281315;-0.08511703;-0.04299643;0.12216814;0.063346;0.17426993;-0.07288659;-0.19362703;-0.09037006;0.10573069;-0.25332937;0.12672551;-0.026398405;-0.19875313;0.095573194;-0.029766465;-0.0058514182;-0.084414326;0.0005467544;-0.1150846;-0.15841398;-0.11087456;0.06840406;-0.0110811945;-0.11872689;-0.046637524;-0.046105735;-0.028139772;0.09344422;-0.062444873;-0.111425266;-0.06100251;-0.010814797;-0.021832207;0.15454327;0.1099208;0.042806238;-0.16521023;0.24311969;0.05127203;0.10731328;-0.009924604;-0.1593808;0.12201208;0.07871739;-0.23068511;-0.052321527;-0.18920097;0.040274307;-0.013470775;0.057123914;-0.045690257;-0.11470568;0.12316355;0.08597821;0.034568146;-0.0766435;-0.26081547;0.124989524;0.05508085;-0.030692365;0.06282028;-0.03118972;0.11546109;-0.0007114884;0.041565895;-0.07696667;-0.10903176;-0.19300188;0.006952666;0.037781537;0.05613322;0.06207945;-0.07510758;0.047410257;0.19170083;0.07681061;-0.092876166;0.12213643;-0.017376779;-0.0033359663;0.012349622;-0.17822905;0.08870927;0.089429654;0.03340372;0.051532246;0.0034792204;-0.06854209;0.042737544;0.16024546;0.068635084;-0.18766665;-0.024211776;-0.014513458;0.04400211;0.07845181;-0.1766732;-0.049140435;0.02999411;-0.03590631;0.1797252;-0.09582114;0.16693659;-0.022933628;-0.06059299;-0.11446114;0.015663177;0.1906029;0.16038804;-0.1781979;-0.039720967;-0.0986087;-0.23273773;-0.23669924;-0.14003484;0.07295068;0.006462826;-0.089683816;0.058319714;-0.11758114;-0.0026517718;0.12751295;0.17511956;0.04710661;0.04528075;0.054018397;-0.051015265;0.0072965063;-0.10082382;-0.02591552;0.15153083;0.040310495;0.17724465;-0.1136621;-0.010653596;-0.018117942;-0.20169322;-0.114100896;0.050888278;0.16558978;0.03245352;-0.012993506;-0.27620575;-0.11618268;0.14055355;-0.20322835;-0.16553983;-0.084557995;-0.013128711;0.04142095;0.0148831;-0.054536298;0.09993712;-0.02555598;0.18202241;0.025051108;0.06948407;0.000701296;-0.035548866;0.07182268;-0.11241928;0.06072056;-0.013426735;0.036232688;-0.090286106;0.10553132;-0.10508521;0.1612112;0.04772478;-0.1659085;-0.03498457;-0.030804481;-0.21132815;-0.04559119;0.25208423;-0.090157725;0.029407086;-0.07196728;-0.13884947;-0.12631063;0.027809462;-0.12707494;-0.090607285;-0.20722967;-0.22114071;0.032369435;0.069686525;-0.18627714;-0.0066438606;-0.108423285;0.0024856373;-0.1305279;-0.16344;-0.04320507;-0.08511247;-0.112973265;-0.033049386;0.10012705;0.06875039;-0.1228068;0.12201148;0.14593928
-0.0025528774;-0.06175912;-0.11406388;0.029282635;-0.28807092;0.03235252;-0.11079591;0.08605241;-0.15553163;0.019197041;-0.08154842;0.07216879;0.1860932;-0.24265878;-0.14754085;0.051401414;0.050150532;0.01002027;0.1195302;-0.043635763;0.17343685;0.13092138;-0.07474071;-0.1730661;0.025897212;0.032344546;-0.144914;0.02058621;-0.03540629;-0.005746495;-0.13100822;0.058774505;-0.08011243;0.012403773;-0.067171134;-0.076933265;0.12931772;-0.32523775;-0.11412552;-0.048766345;0.10353242;0.032116733;-0.18323848;0.05295669;0.04212712;0.16763908;-0.04942528;-0.10894153;0.03870928;0.07319848;-0.10803291;0.063586876;0.007701825;-0.03133841;-0.025488608;-0.009597139;-0.1749043;-0.1467869;-0.16526777;0.04445407;0.025438866;0.06248782;0.013192382;0.00028255064;-0.059737947;-0.18699287;0.15675694;-0.05881645;-0.18740298;0.06446003;-0.1673458;0.04089127;0.015830839;0.1335786;0.14848089;-0.016849745;-0.054074794;0.23923431;0.15082708;-0.052900728;-0.032226678;0.23717771;-0.08085147;-0.15901227;0.038632635;-0.15753654;0.077404656;-0.0025220534;0.034980446;-0.10938729;-0.17059016;-0.02537431;-0.22490387;0.02566885;0.037115443;0.088944316;0.029023862;0.026569588;0.042204816;-0.08847008;-0.14126569;-0.05551701;-0.2038828;-0.07535981;-0.12466743;0.07429159;0.03560809;0.11771434;-0.25695947;0.006546376;-0.019050425;0.059092883;-0.08788248;-0.07793386;0.06409114;0.009583796;-0.018185353;0.158003;0.028513996;0.089022264;-0.13362098;-0.103393875;-0.10683378;0.029296456;0.0092989765;0.057603434;0.02747005;-0.25912848;0.005657921;-0.10471045;0.10371804;0.026731584;-0.07154144;0.10172742;-0.011097145;-0.115374774;0.010435787;0.14636779;-0.11617801;0.036109354;0.07072584;-0.023801008;0.13477153;-0.070327125;-0.1242753;0.011275061;0.025055807;-0.028759256;-0.024021834;-0.011727231;-0.024608647;-0.13892631;-0.108131915;-0.1633945;0.07142587;0.102653965;0.057446387;0.027296258;-0.26727223;-0.056239076;0.049348596;0.017861474;0.036774255;0.034974355;0.1328422;-0.008912585;-0.040072367;0.027359588;0.032724183;-0.16548908;0.011893789;-0.13387994;0.17516609;0.24127916;0.033390246;-0.01928656;-0.05124527;0.081729725;0.08384329;0.1531276;0.02052125;0.10480583;-0.02432802;0.04640563;-0.22895451;-0.015296469;0.019316735;0.021025281;0.00485526;-0.32754502;0.1521593;-0.21059379;-0.096909165;0.0608718;-0.016154753;-0.24553795;0.04593518;-0.013677543;-0.0034316531;-0.021758808;0.17001224;0.02076344;-0.06391945;-0.061419066;-0.07588854;0.2144651;-0.11472313;0.010501378;0.10106325;0.102116525;-0.030989103;0.049767572;-0.09973567;0.11748328;-0.08410672;0.008677892;-0.06397778;-0.16168892;0.063366026;0.048223104;-0.057083488;0.056168545;-0.018692512;0.049919777;0.04152334;-0.10352587;0.16956976;0.08542164;-0.27061543;-0.014535243;0.008110382;-0.16115235;0.061469246;0.008705839;-0.06515351;0.039244153;0.10987221;0.1695238;0.06170395;-0.027109759;-0.01733599;-0.06613179;0.046236575;-0.14687923;-0.051484186;-0.10837073;-0.044477414;-0.02673669;-0.13738112;-0.088337064;0.1453772;-0.22525834;-0.015672574;-0.13305709;0.025091782;-0.20798878;0.0083041405;-0.03153326;0.027384931;0.12703219;-0.03348901;-0.19699828;0.13905889;-0.03909416;0.023946384;0.09294471;0.025560156;0.04429083;-0.07292034;0.09150579;0.036559455;0.09981587;0.06285778;0.17157923;-0.01065618;-0.0718735;-0.03636286;-0.00118144;-0.20418869;-0.08344716;-0.025022252;-0.049164508;0.016527295;-0.021678576;0.020776318;-0.099822275;0.005274734;0.05745867;0.069580115;-0.1345054;-0.097545885;0.0073540076;-0.15075418;0.028315527;0.060068432;0.12684488;-0.06856992;0.02209765;-0.028817482;-0.28341267;-0.034234457;-0.044957034;0.06889968;-0.020124685;0.29825625;-0.012779515;-0.07638213;0.019211484;0.06991791;-0.07418108;-0.023908919;-0.09099977;0.06756038;-0.07243535;0.08913625;-0.021315627;-0.102071166;-0.036728088;-0.048558712;0.0055509866;-0.20990348;0.19723292;-0.05688292;-0.019056862;-0.0744685;0.052111942;-0.039821148;0.094264045;0.05530594;0.04283168;0.106672935;0.059185114;-0.26489943;0.16605046;0.13157752;0.07825449;-0.01998878;0.17258684;0.071476005;-0.09249384;-0.13735248;-0.11944971;-0.17792591;0.02212166;0.05374013;-0.047876164;0.0010800658;-0.11454979;0.021814048;0.038881246;-0.13315585;-0.006985295;0.12554513;-0.008004685;-0.056134935;0.0015267155;-0.044364054;0.041867394;-0.021944163;-0.12005698;-0.1187714;0.020408707;-0.08163087;-0.15345448;0.037936427;0.0022509722;0.07321512;-0.014878186;-0.16159703;-0.1312182;-0.1920704;0.013278358;0.0017618822;-0.065702766;-0.067870654;-0.09981302;0.031083584;0.08486688;0.10453657;-0.05401721;-0.12603247;-0.0735744;-0.11582783;-0.09008634;0.13621031;0.026456049;-0.026922297;0.08325043;0.12386056;-0.027783876;-0.0809808;0.04920591;-0.28806;-0.19245015;0.02813756;0.13131896;-0.054239307;-0.21574277;-0.017400604;-0.23891895;-0.06995487;0.12460701;-0.08906857;0.017756002;-0.12883872;0.037080612;-0.08493969;0.089082584;-0.10610014;-0.0849509;-0.11989508;0.20403388;0.020134158;0.037675496;0.025785418;-0.071483284;0.10999779;-0.13446327;-0.02392085;-0.14704451;-0.13087818;0.00020728796;-0.05387985;0.003929237;0.15015252;-0.039004155;0.08344247;0.21169823;0.13681999;-0.22243856;-0.09740335;0.1732034;-0.024038808;-0.032603856;-0.22473583;-0.072377026;0.08674107;-0.03278003;0.0951995;0.006874387;0.051654685;-0.15729538;-0.16674115;-0.045754235;0.06006002;0.040426973;-0.12625262;0.116037555;0.14120483;-0.12445769;-0.0144749135;0.112839;-0.09180042;-0.103760004;-0.051088434;-0.042708304;0.049254406;0.09931928;0.026784733;-0.03326177;0.1645986;0.0039601936;-0.08291956;0.057780135;0.057597697;-0.046876125;0.07064676;0.14356892;-0.025468836;0.0750347;-0.19227685;-0.22960119;-0.020418515;0.031554252;0.06965918;0.009970536;0.1721036;-0.05666363;0.018792246;-0.10751926;-0.25304407;0.19758153;0.0722658;0.06726132;0.11215514;-0.059232567;-0.119885676;-0.06596948;-0.09687229;0.123734444;-0.10688539;0.05268293;0.19509327;-0.14003657;-0.15477413;0.08490822;0.11422268;0.07687398;-0.12921384;0.06612271;-0.021189133;0.07911901;-0.06313327;-0.031193933;0.10245817;0.106221646;-0.07808087;-0.002724374;0.16439791;0.048373193;-0.054115687;-0.11622684;0.14254881;0.102806084;0.054617494;0.040073555;-0.07947678;-0.03247331;-0.009526115;-0.06427417;-0.10186304;-0.1330443;0.06332709;0.052238632;0.00966416;-0.22386377;0.12779841;0.0056416215;0.22495914;-0.0152484095;-0.10373364;-0.14814748;0.06039986;0.043641515;-0.021780882;0.036232058;-0.08242372;-0.023526309;-0.13701463;0.1145278;-0.1478157;0.13303536;0.09054132;-0.17362902;-0.16873202;0.003315174;-0.17088021;-0.06894537;0.1806995;0.040596686;0.03813488;0.043870505;-0.06692891;0.04406636;0.0985372;0.0040220004;-0.13730924;-0.08647263;0.003393659;0.010306617;-0.01418912;-0.1503208;-0.066730656;-0.08116792;-0.09431107;0.010643795;-0.021595147;0.08622181;-0.10685684;-0.19000003;-0.13926584;-0.15332255;0.18389623;-0.08051718;0.1843882;0.091021575
0.03026832;-0.023239499;0.008631538;0.10522336;-0.15513824;-0.09050598;-0.16222356;0.056420833;-0.096478336;-0.048244793;0.06263596;0.02335278;0.08040244;-0.16555211;-0.10117172;-0.07773123;0.09173038;0.13677303;-0.039035715;0.061539132;0.24359795;0.06365754;0.05484731;-0.103020504;-0.022471188;-0.0015118218;0.064358026;0.14537443;-0.060268644;-0.2097473;-0.137519;0.013546665;0.057375498;-0.10242789;-0.1433878;-0.04606888;-0.045169767;-0.38478115;0.0014448109;-0.11888025;0.083200365;-0.026872901;-0.14719324;0.14052588;0.16743486;0.13770081;-0.12933002;-0.04466165;0.03208093;-0.042321775;-0.22300714;0.0758618;0.08580191;0.15313767;-0.031409457;-0.060207218;-0.14546324;-0.18233924;0.011281864;-0.015345136;0.048365895;0.2272626;-0.017149892;0.028088603;0.06273589;-0.047240857;0.101438746;-0.23564738;-0.09764576;0.17355125;-0.083624594;0.081833445;0.09946399;-0.034209326;0.0006409813;-0.056470387;0.032312788;0.14204425;-0.012783745;0.025299361;-0.07130567;0.20104861;-0.078180306;0.031000968;-0.05939069;-0.14508559;0.04397496;0.0730632;0.0352304;-0.025809055;-0.2014297;-0.03442127;-0.07357915;0.16812402;0.0644895;0.32615715;0.027484614;0.07398904;-0.07409282;0.057010215;-0.022102667;-0.32467994;-0.18414026;-0.01451984;-0.22966522;0.18929817;0.2583694;0.11966548;-0.1853582;0.00932006;-0.015542849;0.13115354;-0.109887846;0.13557586;0.08248546;0.009753254;-0.004337611;-0.046999436;0.025894007;-0.083806455;-0.17197236;-0.098825105;0.029024297;-0.025995655;-0.15469693;0.22215755;-0.069081895;-0.16378225;-0.009717419;-0.115868255;0.043018065;-0.07195469;0.007199543;0.08313889;0.08305384;0.06788527;0.0691252;0.07204318;0.03859796;-0.029061252;0.045128487;0.16022527;0.19967149;0.04307618;-0.01639273;0.077975154;0.052412573;0.11736347;0.10158093;-0.12752722;-0.10353409;-0.22522424;-0.018982928;-0.13212487;0.12653832;0.11327759;0.017186135;-0.068153284;-0.162228;-0.17722806;-0.0720428;-0.13057692;0.05184566;-0.019100077;-0.07588182;-0.099223144;0.022175469;0.099945396;-0.023893656;-0.099452324;-0.18519461;-0.0051446036;0.19738074;0.1322549;-0.0035881845;-0.07576541;-0.003718518;0.10291239;0.051248655;0.07329234;0.029379705;0.26688874;0.008424468;0.021338223;-0.2780597;-0.119969;-0.064839475;-0.033495184;-0.004224348;-0.32069796;0.079887666;-0.24464506;0.00085106096;0.0047467817;-0.034083758;-0.17046902;-0.008940256;0.08298996;-0.0811851;-0.0464443;0.13078548;0.12195986;-0.03557831;-0.08083994;-0.040217977;-0.00879278;-0.17425627;-0.033898715;0.04407277;0.09204076;0.21962151;0.051741198;-0.01971262;0.018612707;0.011907424;-0.0016691197;-0.11931613;0.08100107;-0.0058340174;-0.07247925;0.024654375;-0.011255961;0.17710465;-0.0724553;0.03127515;-0.10104973;0.25331548;0.12026187;-0.20062582;-0.07877381;-0.062307302;-0.07670373;0.09322607;-0.11577568;-0.13869803;0.011386469;0.035399146;0.13045816;0.10257867;0.14672738;-0.13119262;-0.077763624;0.12886877;-0.09153909;-0.11779402;-0.28502712;-0.0476189;0.064139;-0.13515472;-0.076460905;0.16112147;-0.1327299;-0.122491695;-0.09882661;-0.12072712;-0.07324137;-0.11603455;-0.18761334;-0.022580033;0.01921835;0.016397685;-0.13430052;0.13508268;-0.11748906;0.121308364;0.090263784;-0.02281571;0.018690558;0.059852652;0.15556177;-0.010508554;0.1740135;-0.11652728;-0.030408906;0.16022578;-0.043183718;-0.017562075;-0.15945444;-0.15650356;-0.11748905;0.050742928;0.123605594;-0.076820195;-0.06590231;0.087208025;0.020780604;-0.029009866;0.0058364314;-0.04976392;-0.06903807;0.04256952;0.1038153;-0.044095427;-0.12515582;0.069006294;0.20342194;0.08921564;0.012405362;0.18646128;-0.2480754;0.17531355;0.02213064;-0.06535078;-0.019572617;0.30727628;0.11059307;-0.07747751;-0.07572622;0.037806116;0.0100277085;-0.05716465;-0.08941727;0.22162256;0.0323727;-0.015575704;0.10458331;-0.050070126;0.089376725;-0.17432754;0.07508913;-0.19323608;0.051222753;0.11378549;0.05085737;-0.032510273;-0.018765392;0.012132854;-0.010473797;0.0136152925;0.07958519;-0.0872769;0.059007954;-0.26331428;0.016200654;0.13271631;0.13001238;-0.09019235;0.10967994;0.07346334;-0.12639487;-0.18029866;-0.1904503;-0.11072181;-0.01731111;-0.011926819;-0.105413355;-0.033978943;-0.14492874;0.0020642153;0.0016273493;-0.015143358;0.026230572;0.006569127;-0.11228047;-0.11885325;-0.05313614;-0.014248986;-0.0048813876;-0.02649642;-0.06509348;-0.27408782;0.025181798;-0.09744863;0.02038486;-0.0050542476;0.015455954;0.09682714;-0.14111522;-0.08344612;0.032497164;-0.06782973;0.10769859;0.077990785;0.040618815;-0.1027191;0.068792365;0.0076034046;0.008095781;0.021071386;-0.02739357;-0.1947174;-0.039046634;0.041098613;0.03363287;-0.01721834;0.0029760804;0.08447748;-0.078195326;0.020993147;-0.12027163;-0.1609785;0.21089731;-0.1493722;-0.18038796;-0.05812933;0.103549145;0.123190045;-0.26603663;0.13978054;-0.19346444;0.04954187;-0.079272784;-0.15053988;-0.058400013;-0.0634121;0.016751127;0.06908735;0.007765876;-0.003575947;0.06244053;-0.13070825;0.12174826;0.010147594;0.114079915;0.035616923;-0.02595319;0.14086717;-0.054026373;0.020303596;-0.04354321;-0.08104923;-0.11885812;0.08583298;0.09671721;0.191694;-0.07289704;-0.068589695;0.15882227;0.1390935;-0.2466845;-0.057775028;0.17386605;-0.0712093;-0.028664172;-0.088844724;-0.11789774;0.05101708;0.078701764;-0.019563721;-0.0007788455;0.009133418;-0.16804217;-0.14132369;0.030782826;-0.05921059;0.08913606;-0.13872303;0.107183546;0.2223054;0.0488536;-0.11383889;0.07705833;-0.18412188;-0.08974771;-0.053247083;0.063140236;0.082060106;0.16940816;0.10027263;-0.05824363;0.019967709;0.017097587;-0.10959536;-0.007020452;0.11040515;-0.13228783;0.023202531;0.04709026;0.057628427;-0.09816384;-0.044443745;-0.010877726;-0.118223295;0.052378304;0.095772944;0.13047957;0.19263731;-0.002171799;0.1771478;-0.121236205;-0.0968654;0.19512573;0.052370105;0.13985026;0.05859272;0.0035538625;0.036659144;-0.09886471;-0.10003255;0.046351183;0.1142094;0.011112189;0.23400225;-0.05563881;-0.08419273;0.13992772;0.16246684;-0.0051405453;-0.22832426;0.10013088;0.07650186;0.044677828;-0.10096358;-0.010583799;-0.026591921;0.019666635;-0.037775993;-0.06746863;-0.013948102;-0.031537183;-0.03561052;-0.06513887;0.055317987;0.11777214;0.041855056;0.12861302;-0.038930185;-0.031881623;0.033367068;0.035984553;-0.06359892;-0.22036456;-0.038002495;0.03843796;-0.055685747;-0.2187815;-0.06399713;0.010409496;0.23028013;-0.03017677;-0.029099822;0.01510148;0.026208902;0.12213771;0.10567052;0.010531316;-0.14902492;0.013470249;-0.08949779;0.19861908;-0.10947861;0.0012744919;0.085867025;-0.006979255;0.01325019;-0.17941852;-0.09699181;-0.11611716;0.21538399;0.1660809;-0.041656613;-0.041878413;-0.06330705;0.019461492;0.026118213;-0.2319925;-0.1250525;0.09374311;0.019146025;0.028733887;0.00020919016;0.052734032;-0.13218157;0.15721323;0.08342207;0.027102368;-0.0722334;-0.05391207;0.03617744;-0.2748733;-0.01774519;0.06580829;-0.017026195;-0.078661494;0.013957914;-0.045304842
-0.06510372;0.06346436;0.04309017;-0.09341357;-0.14573023;0.073289074;0.022591103;0.12503146;-0.13711238;0.0072529814;0.021816071;0.015639396;0.29298958;-0.04499688;-0.13855511;0.038747024;-0.045117278;0.17216153;0.17471853;0.03081651;0.13456309;0.1762182;-0.057651155;-0.03280553;0.015915874;0.089433;0.14424057;-0.0829656;-0.11027638;-0.16393481;-0.09396415;-0.059054133;0.034225047;-0.003366382;-0.18051691;-0.051021844;-0.06734163;-0.40990576;0.031692024;0.02363064;0.026491106;-0.060376264;-0.1745112;0.09237634;0.12950067;0.058452386;-0.19257863;-0.07506589;0.022598138;-0.044034723;-0.25627795;-0.066152856;0.1797942;0.05282674;0.052931286;-0.10009974;-0.08738945;-0.11810943;0.04324028;-0.055064093;0.1792098;0.20104218;0.0020827218;0.048758898;0.12757856;-0.042309858;0.19004865;-0.11134574;-0.1369379;0.1796991;-0.17543836;-0.20009989;0.0079006525;0.07375395;0.05753273;0.00033376078;0.06671754;0.12775414;0.07054355;-0.015088851;0.026450265;0.10028037;0.025423268;0.05032324;0.10219817;-0.10400457;-0.059153304;0.07232576;0.106730014;-0.07099485;-0.18527536;0.053414907;-0.21206327;0.15008615;0.06139491;0.13434099;0.116527945;-0.016902324;0.12944181;0.10345948;0.020961287;-0.115450375;-0.26426575;0.08666324;-0.172506;0.14460106;0.12163123;0.10087524;-0.18928608;-0.06609768;-0.06388112;0.16194895;-0.09162464;-0.0060524656;0.17219707;0.071985304;-0.062168304;0.077554956;0.011344256;-0.10870475;-0.06974013;0.04044531;0.0685117;0.02341381;-0.19055514;0.22167806;-0.07713051;-0.041482672;-0.06754374;-0.005204344;0.06040627;0.15953325;0.013264654;0.049068343;-0.027787838;0.05414028;0.07634385;0.03588289;0.05110536;-0.00884741;0.07448106;0.14645566;0.20454918;-0.15488602;-0.038361326;-0.035352357;0.04880183;-0.010410525;0.03039654;-0.1204671;-0.024510613;-0.15291908;-0.10799555;-0.004400457;0.11217122;0.101738855;-0.077136725;-0.031332977;-0.2089582;-0.2535819;-0.02930608;-0.17177762;0.114413574;-0.21634026;-0.02377784;-0.056917798;0.054751266;0.03349747;0.13445549;-0.07677724;-0.25306982;0.030705167;0.1358499;0.13190508;-0.081493154;-0.08475742;0.02972855;0.05207372;0.10354306;0.036898278;0.057367697;0.14110489;-0.085782886;0.05437188;-0.3263968;-0.088690944;-0.14987157;-0.093526006;-0.019025305;-0.1924845;0.12860096;-0.16532423;0.12848388;-0.05127712;0.02854952;-0.1258563;0.07051519;0.025408654;0.022140281;0.112650834;0.19517344;-0.0060416753;0.10845571;-0.23127095;0.06360284;0.122267045;-0.119697906;-0.16129644;0.053083126;0.089723706;-0.0041127745;0.069641404;-0.1089689;0.1551147;-0.03588574;0.023109324;-0.037393287;0.019848842;-0.057600327;-0.06467251;0.06720138;0.022488976;0.11546898;-0.11296613;0.08706427;-0.118050106;0.18905607;0.026350148;-0.17599145;-0.17497052;-0.14795068;-0.12106195;0.06907758;-0.0018013007;0.0301973;0.055071067;-0.010505582;0.10294025;0.03508177;-0.03788328;-0.029107055;-0.055092476;0.014383205;0.016168823;-0.19075906;-0.18092789;-0.042946924;0.07293967;0.052932847;-0.037195038;0.09039519;-0.041159295;-0.08541063;-0.0066535412;-0.049588177;-0.13122992;-0.15277173;-0.14237113;-0.007976459;0.058255255;-0.050782055;-0.22794227;0.11216849;-0.060117073;0.026795618;0.10204216;0.048897;0.06633788;0.133497;0.2345339;-0.0072280974;-0.10593014;-0.040011376;0.011062293;0.059182066;0.10400501;0.022539334;-0.04091107;-0.12245754;-0.1331488;-0.16471776;0.15392311;-0.12037481;0.047556937;-0.042805348;-0.07646426;-0.020569645;-0.016752694;0.07151024;0.007867335;0.09724301;0.078992866;-0.12351297;-0.0817615;-0.05002936;0.19587249;-0.051194686;0.011927451;0.11176477;-0.2995526;0.12283143;0.054397125;0.1323076;-0.041307308;0.153163;0.011313428;-0.0024583223;-0.030269552;0.22536226;0.08040318;0.1558157;-0.10184993;0.19668145;0.034856476;-0.0115972515;-0.08529448;0.026011704;0.12849866;-0.11104231;0.07944231;-0.10210774;0.0012028939;0.013457017;0.012462611;0.18034379;0.024416177;0.10482698;0.044250596;-0.018650198;0.0063823415;-0.044628844;-0.043371834;-0.24719302;0.097695835;0.05412714;0.101271145;-0.051195752;-0.03046768;-0.08567208;-0.10131025;-0.15813015;-0.117587686;-0.042221136;0.08366821;-0.10524412;-0.08159678;0.04112612;-0.1528184;-0.072123855;0.023368757;-0.038992267;-0.048506092;-0.16180928;-0.100237705;-0.119223185;-0.042817608;-0.09830943;0.14699802;-0.015805537;-0.06568016;-0.16510075;-0.070451714;-0.16906983;-0.14825349;-0.03936984;-0.25220612;-0.071839556;-0.012711344;-0.055812374;-0.009549863;0.17362526;0.04849431;0.041422278;-0.033011746;0.11158852;-0.0044022957;-0.10214691;-0.09848709;-0.053210076;0.054061625;-0.055690873;-0.112609364;0.019769266;-0.049680296;0.17631827;0.038253635;-0.03909625;0.077708796;0.13573974;-0.03337498;-0.0516975;0.1706157;-0.243679;-0.25227636;0.054740164;0.10862602;-0.13707091;-0.08212249;0.054202948;-0.12794207;0.09626767;0.06817903;-0.19334988;-0.043318823;-0.075040616;0.043436054;0.08853273;-0.021245595;-0.06485276;0.055123057;-0.05797746;0.024116077;-0.075397104;-0.09719221;-0.027606698;-0.11583041;0.19604553;-0.22863387;-0.068156354;-0.13164623;-0.014245302;0.0063621947;0.11133316;-0.048882995;0.12937407;0.07648032;0.075795576;0.1645177;0.04176354;-0.2293965;-0.29177323;0.07540918;0.0336645;-0.085064225;-0.22988518;-0.14798245;0.034900207;0.062843546;0.08069518;0.12970984;0.08507033;-0.3434874;-0.0689276;0.05740652;-0.032195676;0.13224672;-0.091318406;0.10306568;0.16066115;0.044641897;-0.08221984;0.20667939;-0.01751162;-0.14047177;-0.094746865;0.056395855;0.09635183;0.06244424;0.07379179;-0.06983908;0.017786048;0.13105588;-0.13662653;0.14775142;0.06536014;-0.10474657;0.0092452;-0.018925387;0.06602939;-0.07957915;-0.1026488;0.010388316;-0.07519373;0.02500648;0.022987803;0.118694834;0.18268722;0.086150885;0.10799751;-0.13589872;-0.017915294;0.15443943;-0.0054884236;0.23243505;0.021592582;0.12147474;-0.029445196;-0.09481606;0.08011511;0.09218701;0.085815;0.13659546;0.2565246;-0.09094835;-0.122068256;0.18452953;0.096212365;-0.049454503;-0.15908581;0.068653345;-0.08039271;-0.09082788;-0.062995106;-0.074288964;-0.11926906;0.1478083;0.06456605;-0.12478436;0.12442556;-0.112748794;0.0034158232;-0.08176828;0.030816602;0.11808834;0.026970861;0.20529318;-0.019501781;0.0145889055;-0.066661514;-0.08406712;-0.14162467;-0.17938772;-0.0054331715;-0.08267555;-0.05645507;-0.20618194;0.08969474;0.14401802;0.09477564;-0.10754522;0.111128405;-0.041466516;0.0044065164;0.14123894;0.18964387;0.0251355;0.043587025;-0.041288596;-0.20413895;-0.0042231297;-0.12494009;0.10589538;0.06546632;-0.09574324;0.097711876;-0.010819231;-0.12497455;-0.24853908;0.11031827;0.058124848;0.0022760273;-0.07490218;-0.17132235;0.06931777;0.06721414;-0.1637661;0.009238105;0.07119063;0.13392204;0.058098;0.11486471;0.14200336;-0.17433763;0.13420059;-0.12163042;0.009876743;0.17420956;-0.066332564;-0.085760176;-0.13573878;-0.08619476;0.03047908;-0.06577082;-0.0344963;-0.00068320817;0.01087147
-0.103191696;-0.00475061;0.08213906;-0.12623933;-0.13242635;-0.0030662527;0.0049758055;0.08266106;-0.116870366;-0.047060292;0.09698854;-0.07339472;0.23679945;-0.22096883;-0.21426179;-0.045959897;0.042651854;0.19281651;0.069789045;0.054061536;0.20400292;0.08985582;-0.025597684;-0.045689713;0.047780856;0.08927726;0.090594575;-4.364189e-05;0.012215261;-0.039559755;-0.12685934;0.071721174;-0.08003855;-0.09718697;-0.034538317;-0.002097004;0.074581064;-0.4309569;0.05964372;-0.062039893;0.07548027;-0.20944524;-0.16238911;0.017317228;0.030438863;0.21732283;-0.17605272;0.06635748;0.06832693;0.056173187;-0.2657462;-0.12172718;0.045742102;0.14549385;0.19496725;-0.2002829;-0.116724536;0.12613256;0.10694792;-0.030019924;-0.0027524664;0.07453473;0.006907428;0.048853416;-0.021229746;-0.03463572;0.1425454;-0.087443374;-0.14591143;0.2264147;-0.30844897;-0.24988273;-0.010423391;0.0574007;-0.10670611;0.09217248;0.03988993;0.11493763;0.10091712;0.027844343;-0.12297222;-0.09052563;0.010751044;-0.023115441;0.06636334;-0.16333973;-0.011899309;0.12167302;0.049777158;-0.00608472;-0.08499969;-0.08331485;-0.18144044;0.057964418;0.0625552;0.23163953;-0.0009554443;-0.097089924;-0.02188687;0.01834248;0.041992463;-0.14931878;-0.047011554;0.051860616;-0.07092117;-0.024941199;0.05708371;0.0032928172;-0.115950346;-0.011258986;-0.053058326;0.16695762;0.024132144;-0.02387333;-0.020565737;0.07043786;0.17733444;0.049271435;0.10227291;0.06149176;0.044883676;-0.11445688;0.01885364;0.020706829;-0.14140998;0.17135705;-0.20398074;-0.002670238;0.1018538;0.13142537;0.18962888;0.058081344;0.019415088;0.19528969;0.07031714;-0.029148523;0.059145007;-0.015089627;-0.013646342;-0.05333203;0.054667946;0.097054504;0.23260623;-0.1027457;-0.08303025;-0.0053871553;-0.016214449;0.093650185;0.07513574;-0.07498028;-0.16429034;-0.017874848;-0.07904606;-0.1252875;-0.07981323;0.036115333;0.036033653;0.008186476;-0.09830673;-0.16123225;0.06531042;-0.29077464;0.12150607;-0.25558063;0.046660855;-0.0757213;0.018232869;-0.011529658;0.024874516;-0.072901554;-0.33715022;-0.035401803;0.11745998;-0.025021598;-0.096540734;0.061190587;0.017661372;0.074594796;0.10358106;0.13608685;-0.10789737;0.06599318;-0.063930996;0.07300811;-0.14474212;-0.101030834;0.07058347;0.07521414;-0.0364703;-0.1553127;0.12658949;-0.13694501;-0.12292439;0.0305583;-0.07480685;0.00755499;-0.0066760094;0.14006877;0.083312415;0.15421258;0.18135265;-0.05255531;-0.0023023298;-0.115157455;-0.1295322;-0.021371504;-0.1428976;-0.12517273;0.0060816165;0.025775831;0.13678078;-0.0543143;-0.0024879435;0.0460872;0.0065649706;0.08332286;0.051629342;0.22485207;0.015667496;-0.0058454406;0.039848566;0.052923243;-0.029054714;-0.016979119;0.033239447;-0.08179681;0.17316288;0.23648702;-0.14933364;-0.23050645;-0.046587367;-0.1380681;-0.025589127;-0.14809476;0.007905375;0.104176946;-0.1641479;0.114938304;0.11099521;-0.11211114;-0.03076916;0.0045500183;0.035685107;-0.081541374;-0.16723354;-0.24146278;-0.024400659;0.15210263;0.015198037;-0.19392903;-0.017202483;-0.18647453;-0.19364943;-0.014744243;0.04644954;-0.024567004;-0.100870356;-0.075740814;-0.0011690421;-0.07106497;0.022918439;-0.07481741;0.032099888;-0.043382686;-0.06048332;0.12492647;0.027738895;0.066459216;0.040518925;0.13134375;-0.06098059;-0.045711074;-0.14327757;-0.011073455;0.06417424;0.02863791;-0.1164051;-0.101401776;-0.08874775;-0.034168534;-0.113169745;-0.00045500003;-0.09437123;0.049522504;-0.10793695;-0.15464965;-0.022120798;0.040770616;-0.031441923;0.071928196;0.09432249;0.11716719;-0.27364862;-0.11011115;0.05365225;-0.012188123;0.06368594;-0.07857068;0.15926489;-0.3547116;0.026523897;-0.012105561;-0.055803824;0.011165309;0.2871833;-0.18315746;0.16633198;-0.08518049;0.13289936;0.041758947;0.06630796;-0.1513233;0.19806795;-0.026078647;0.11808297;-0.007253177;0.057138678;0.15417653;-0.079765044;0.044087756;-0.09461848;0.011174888;0.08090019;0.048876103;-0.05290276;-0.06349523;0.087602094;0.1394501;-0.15324867;0.04558483;0.034727287;-0.06902044;-0.12315141;0.024719652;-0.0017957926;0.061734736;-0.074402325;-0.0062929387;-0.05975196;-0.067894444;-0.09683758;-0.14756836;0.088502906;-0.1373333;0.024103543;0.041244633;0.039265376;-0.20588231;0.013319704;0.049658217;0.12011532;-0.010722211;-0.109492436;-0.11745491;-0.02283625;-0.0028092593;0.01716433;0.09607672;0.07120774;-0.091156036;-0.20151931;-0.14506634;-0.02932983;-0.11023382;-0.12895766;-0.24060562;-0.0897196;-0.004422746;-0.078155175;0.046066593;-0.005610428;0.04772739;0.1305913;0.07317167;0.1735823;0.05516231;0.048190363;-0.082618415;0.08888629;-0.10163462;-0.10670237;-0.063761555;0.093575746;-0.027274376;-0.0060655503;0.04951962;-0.042351272;0.058332354;0.10352178;-0.119890355;-0.19205803;0.050621968;-0.23533314;-0.14070494;-0.027491998;0.00446127;-0.17101303;-0.04945037;0.0833031;-0.08624495;0.10057477;0.06407395;-0.116729885;0.1360735;-0.05902667;-0.06756164;0.08338127;0.08924625;-0.020879664;-0.01623838;-0.016250797;-0.08703227;0.0050248588;-0.09617753;0.033615835;0.032798834;0.2056663;-0.1950445;0.0035854145;-0.12787816;0.05055384;-0.012471974;-0.052369315;-0.068005845;0.21061032;0.057732303;0.036556292;0.0038166314;0.15862097;-0.24681006;-0.19354497;0.13078651;-0.039563466;0.013252471;-0.15532924;0.025828945;0.22859688;0.0078989435;0.03331684;0.0012031104;0.0127388565;-0.24955688;-0.026942465;0.109342515;-0.005792174;0.11266338;0.0027492305;0.19845653;0.13788295;0.05584444;0.042028364;0.20272928;-0.023989156;-0.091109544;-0.10989734;-0.10459723;-0.082254894;0.043212105;0.10084805;-0.009038818;0.017980129;0.1487001;-0.09816046;0.027786955;0.069017;-0.0739585;-0.050319362;-0.0864794;0.21729106;-0.11888541;-0.22073153;0.14289531;-0.0722106;0.005189715;0.051392455;-0.09482194;0.14103784;-0.036316838;-0.06877123;-0.0995742;-0.28911254;0.027880894;0.16454017;0.13463496;-0.07515838;0.106995754;-0.04376062;-0.0025694175;-0.045227006;0.105799094;0.0050028707;0.07881254;0.2082889;-0.05774204;-0.042292684;0.10867194;0.16607139;0.024740493;-0.023049101;0.03414553;-0.018146297;-0.1267033;0.09022204;0.049415644;-0.14384374;0.050399207;0.16991541;-0.07448101;0.07679274;-0.14064874;-0.043314252;-0.018389171;0.07714886;0.11495624;-0.10694658;0.07993085;-0.15456367;0.001047794;0.1407812;-0.1784514;0.10287202;-0.06058111;0.041000754;-0.2151143;-0.072517596;-0.17877841;0.15480433;0.0985732;-0.04076872;0.16694376;0.080177166;0.008759691;0.079264395;0.018790327;0.15886952;0.05874804;-0.041236896;-0.005652134;-0.091442846;0.03626714;-0.035494916;0.10676375;0.09197557;-0.023141537;0.061930466;-0.06628778;-0.09584057;-0.107421264;0.12206128;-0.038157273;-0.042025156;-0.080074586;-0.006022989;0.13425873;-0.0019116974;-0.14590347;0.0444354;0.07070099;0.057204034;-0.071530685;-0.019271232;0.13778442;0.0035899228;-0.021419402;0.08345625;0.048159942;0.044722546;-0.023997385;-0.027755529;-0.026502805;-0.0071160514;-0.026343169;-0.11202598;-0.044212382;-0.019033652;0.001209498
-0.10645836;-0.089478016;0.041852966;-0.15846816;0.099697195;0.049919352;-0.005595197;0.032788463;-0.036436975;-0.03992871;0.1548111;0.086205624;0.23164079;-0.046350915;-0.047664292;-0.16156924;-0.09065292;0.13009648;0.022630895;-0.015678912;-0.14465886;-0.05252802;0.074384175;0.022998767;-0.022044012;0.120090686;-0.111555226;-0.054856207;0.078876;-0.0065458356;-0.024135105;0.07485466;0.002185333;0.055031236;0.027729698;0.0199871;-0.010359999;-0.5111734;0.1730286;-0.12982029;-0.00095616514;-0.2626122;-0.21320218;0.010692904;-0.048315417;0.27147847;-0.19749591;-0.15080649;0.035918597;0.037502673;-0.23344988;-0.06112392;0.046388295;0.112158135;0.009546507;-0.052039236;-0.13221432;-0.12422571;0.0416383;0.10150461;-0.06571606;0.15836808;0.08878197;-0.048756123;-0.1342926;0.04049937;0.012191373;-0.014408644;-0.083850235;0.16834913;-0.27496108;-0.3025467;0.03623909;-0.087100886;-0.008654539;0.04350321;0.037575692;0.036389187;0.079811156;-0.028480379;-0.048995852;-0.15036832;-0.20440237;-0.008420805;0.011385504;-0.10151087;-0.08298335;0.08658185;0.114539936;0.008948063;-0.14150324;-0.0159402;-0.041668724;0.041346516;0.14849435;0.18296105;-0.038807876;0.05091523;-0.015437202;-0.010745788;-0.085936;0.015411566;-0.0019800204;0.03461261;-0.09262921;0.18654042;0.057624012;0.09890129;-0.050159834;-0.099200696;-0.0459269;0.19562496;-0.030121442;0.06881829;0.008402954;-0.023445446;0.200071;0.14544167;-0.009472121;0.016398324;-0.046433497;-0.06539712;0.18918969;-0.04750604;-0.17355385;-0.00089687144;-0.06722868;-0.03673981;0.18329006;-0.07869734;0.12094777;0.093823224;0.07892472;0.012445052;0.04923272;-0.06570971;0.056621972;0.03623597;0.109789126;0.14999665;0.034299213;0.09016135;0.15859953;-0.05385621;0.026705325;0.05555204;0.076116905;-0.037313532;-0.007028689;-0.1387755;-0.22634543;-0.17894073;0.0023557164;-0.108478196;0.07092854;0.084931;0.04468345;0.07239263;-0.21481732;-0.10793936;0.063930444;-0.291981;0.09278444;-0.15229568;0.07735646;0.124683745;-0.016023679;-0.01620834;-0.055339154;0.012263252;-0.22095515;0.018345809;-0.020263059;-0.07678348;-0.085476026;-0.1444245;-0.058707576;-0.043987907;0.045755327;0.14892583;-0.038761653;-0.08500073;-0.006778589;-0.0928261;-0.090114124;0.08747408;-0.013991752;-0.051703706;0.015606101;-0.16501549;-0.0056329975;-0.18870813;-0.08857631;-0.000473255;0.11797065;0.14002714;0.12741733;0.07145945;-0.0064713806;0.15995882;0.067547955;-0.003682745;-0.15448588;-0.017389892;-0.07329958;0.20397238;-0.22871087;-0.014910354;-0.061231922;0.043975648;-0.060612563;-0.023837997;-0.07116027;0.078478776;-0.038333584;-0.09221098;0.070843816;0.0465;-0.009710166;0.029405283;-0.031959906;-0.03988717;-0.029658733;0.103244826;0.07730528;-0.051506925;0.11014002;0.15130265;-0.15976626;-0.12620345;-0.01897585;-0.2880502;-0.025343765;-0.15499741;0.028934747;0.09102439;-0.0825313;0.015306565;-0.033821657;-0.1705665;0.054780427;0.03161881;-0.051102724;-0.035582837;-0.06199945;-0.06662697;0.038994394;0.07133792;-0.0374009;-0.2124078;0.11281884;-0.19956668;-0.048974108;-0.1607653;0.07033796;0.16859956;-0.11764423;-0.15518579;0.049485404;-0.06685414;0.13486157;-0.21100459;0.19718035;0.016342431;0.042317327;0.11705437;-0.016761554;0.14474101;0.1989278;0.0072109066;-0.029711263;-0.12042184;-0.041327573;0.12737174;0.07591461;0.13851835;-0.18812878;-0.04558122;-0.068681434;-0.13620175;-0.015834609;0.020338023;-0.10099482;-0.05425532;-0.089234665;-0.14478488;-0.002896661;0.037389454;0.07211045;-0.020108722;0.013874704;-0.067033194;-0.1287682;-0.081467815;0.03740222;0.08971991;-0.12435863;-0.06368138;0.09803969;-0.13002;0.098998964;-0.003110721;-0.02701602;-0.019028524;0.24533844;-0.15109481;-0.09584935;0.024279786;0.11839677;-0.04119795;-0.0051675816;-0.02004741;0.19014236;-0.15585889;0.09562828;0.06677343;0.08921976;-0.015021315;-0.1055729;-0.15825903;-0.08597548;-0.062500745;0.0093916645;0.033649333;0.11570917;0.070710294;0.02375689;-0.005138835;-0.1082713;0.040946994;-0.009516906;-0.054668847;-0.14374912;0.11346456;0.13884182;0.060576465;0.08097466;-0.023923716;0.079192296;0.12063715;0.0077802744;-0.038537;0.056438215;0.059786003;0.09608705;0.034882274;-0.054665662;-0.1422366;-0.052182242;-0.06295329;-0.07695595;0.04060741;-0.14589252;-0.18670164;0.010883181;-0.07984465;-0.07264617;0.1289663;-0.097879305;0.028131386;-0.17775251;-0.056539476;-0.22859168;-0.14553128;-0.020465536;-0.18495914;0.05561664;-0.0033419884;0.016431969;-0.10977281;0.02500919;-0.031522576;0.02136943;0.1629715;0.14926453;-0.1201628;0.064247705;-0.0814914;-0.03262952;-0.0581927;-0.01673942;-0.079888485;-0.047249503;-0.05697151;0.10667453;-0.056485076;-0.02279086;0.22879745;0.10532666;-0.024446422;-0.29933742;0.0818516;-0.13008758;-0.03397179;-0.027603293;0.06368361;-0.13986206;-0.096741885;-0.030840483;0.16439469;0.04993969;0.16455832;-0.1586235;0.13721113;-0.043535464;0.021278702;-0.0501114;-0.12592012;-0.011605117;0.13245077;0.014282801;-0.054574803;-0.053020556;0.010396399;0.015437825;0.08979791;0.067132115;-0.07699124;-0.04978441;-0.12756231;-0.04416669;0.018225053;-0.10140067;-0.11251168;0.07630025;0.2106754;0.12642498;-0.064401954;0.01193249;-0.11867914;-0.1750149;0.023257297;0.00754291;-0.14035583;-0.21648414;0.1279768;0.12186194;0.06479327;-0.0737632;0.032004412;-0.0063552284;-0.23277226;-0.123566836;0.056696586;-0.14330693;-0.09216949;0.037030283;0.076924264;0.038507048;-0.057697218;0.116250895;0.33306578;0.043705698;-0.1581665;-0.0625599;-0.09086724;0.076607965;-0.043774303;0.034111924;-0.08095226;0.11523068;0.11375342;0.0066565517;0.026832212;0.004176211;-0.100639395;0.04979572;-0.08264674;0.12104329;-0.042961158;-0.18871792;-0.12551825;0.04740438;0.07368513;0.16250826;0.0866696;0.16552909;0.011890802;0.014121125;-0.21742521;-0.2461906;0.13769603;0.15968868;0.16784455;-0.096547104;0.09892074;0.027938439;0.0066956664;0.05058656;-0.06752869;-0.0027598073;0.10285797;0.14697634;0.061090283;0.05638571;-0.046424802;0.116625294;-0.14720055;-0.07600519;-0.036799643;0.0066129146;-0.05836388;-0.036674615;0.1569774;-0.009624069;0.1637363;0.08654438;0.009543231;0.23895782;-0.11324674;-0.07565925;-0.1378031;0.19450222;0.107677676;0.020502623;0.09625401;-0.14167114;0.06305202;0.029287262;0.035208452;0.07347253;-0.19784246;0.033706617;-0.30061924;-0.0068008653;-0.11939307;0.13306344;0.199889;-0.1406847;0.06343937;-0.042069603;-0.0077500083;0.050302472;-0.012529562;0.14587532;0.12444667;-0.024135303;-0.16267076;-0.101181634;-0.07460263;-0.1497649;0.07392209;-0.013423608;0.09253145;0.12301437;-0.01737099;0.011345093;0.07804477;0.15254411;0.05732902;0.068188645;-0.027759878;0.057615913;0.0651668;-0.051821;-0.13452578;-0.16081043;0.015246405;-0.013532075;-0.10804501;0.053378005;-0.035213225;0.09530662;0.06712059;0.11212066;-0.08419177;0.10097503;-0.12649968;-0.07511713;-0.13168459;0.114217244;-0.068132184;-0.073173776;-0.1350886;-0.016716054;0.07945499
-0.0072670407;0.021741943;-0.08017563;-0.008834133;0.020799778;0.107389994;-0.108506784;0.11209361;-0.20423317;0.008728012;0.034031063;-0.086382024;0.10346069;0.041382484;0.03357824;-0.09552235;-0.10021079;0.07375158;-0.08207811;0.14663292;0.09746022;0.15432799;0.03448967;0.07172648;0.1717156;-0.027254175;-0.18906851;0.050590422;0.0898563;-0.03017591;-0.049048744;-0.07222905;-0.093255155;-0.053976186;-0.1515461;0.09986331;0.019723777;-0.51233405;0.18175119;-0.0878256;-0.034884207;-0.23313345;-0.25738275;0.23652023;-0.029829513;0.22200741;-0.058547676;-0.11913133;-0.001328375;0.12328257;-0.08073007;0.02939691;0.0847014;-0.031559173;0.112976454;0.026822334;0.001597654;-0.09004613;0.15745348;0.06141057;0.017029995;0.26972067;0.18823516;0.031076008;-0.049683638;0.059731565;0.03105529;-0.09718588;-0.16871813;0.065146156;-0.16433553;-0.17810932;-0.12180099;-0.0046330253;-0.01440727;0.13282496;-0.04586161;0.087279715;0.019356506;-0.046427943;0.12774713;-0.15070127;-0.13512532;0.14364626;-0.019987008;-0.04697773;-0.12414733;0.017700342;-0.023681052;-0.08373837;-0.086500615;0.059070956;-0.021736652;0.12293329;0.06389882;0.12778714;-0.05567852;0.105817735;-0.0009818869;0.051194463;-0.019648897;-0.046710357;0.08623248;-0.13356987;-0.19660345;0.17888273;0.038806763;0.01834531;-0.19354235;-0.2596048;0.030624928;0.04350822;-0.07753995;0.14460897;0.07447379;0.00037869357;-0.0023139806;0.27114305;0.013840963;0.12690884;-0.22877605;0.03941108;0.26247606;0.0475929;-0.15700796;0.09560591;-0.19514357;0.01618884;0.14605705;0.019637646;0.033132777;-0.015364295;0.1451817;-0.082591295;-0.046272192;0.12327388;-0.050213195;0.08420595;0.11116174;0.058875646;0.16605596;0.17877959;0.23000531;-0.16068387;-0.078635834;-0.08876353;-0.09469647;-0.07467733;0.017470086;-0.08050822;-0.19026057;-0.121962264;0.098705135;0.012035593;0.018629624;0.13795893;0.17573498;0.088114195;-0.32144994;-0.17392756;0.060055178;-0.32910246;0.18877366;-0.1789111;-0.024829915;-0.05355223;-0.075673014;0.084990375;0.041983806;-0.11575018;-0.27553466;-0.11368505;0.24070887;0.06692615;-0.11804808;0.028896274;-0.047050323;-0.13282606;0.004352968;0.08778708;-0.019800385;-0.09073285;-0.042210974;-0.100878365;-0.04684;0.04016539;-0.08410794;-0.020076917;0.10845496;-0.23517774;-0.09891078;-0.2249837;0.030266503;-0.009630008;-0.11039861;0.13874762;0.0404738;0.14186482;0.16160764;-0.0042366437;0.1847419;-0.13082767;0.025846584;0.021825809;-0.18901624;0.049846664;-0.27930325;-0.11922124;-0.09027256;0.041175466;0.10861952;-0.0500324;0.05368891;0.07319475;-0.13007887;0.0025116175;0.12172693;0.065875374;-0.061627056;-0.17467318;-0.0441588;-0.020823501;-0.063730836;0.13030422;0.046205673;-0.008674419;0.14809734;0.25580624;-0.14689046;-0.06773302;-0.06587273;-0.23304963;0.08887726;-0.13868804;0.018620769;0.0751351;-0.19787176;0.017155452;0.20402612;-0.08818742;0.014086065;0.06908686;-0.03726194;-0.035132714;0.047226865;-0.07451227;-0.09362699;0.040718168;-0.119729005;-0.16798125;0.047750883;-0.25705612;-0.048913375;0.046680514;0.058159325;0.12418492;-0.023176614;0.05065142;-0.0002643226;-0.15168917;-0.056322776;-0.26981276;0.16958833;0.12645084;-0.02724829;0.022379516;-0.20198913;0.023901185;0.017755063;0.015830593;0.0494717;-0.07200035;-0.12266552;0.092856444;-0.03701285;0.18017535;0.06266686;0.03404181;0.057766583;0.03589059;0.018118042;0.005227284;0.10716225;-0.20931408;-0.086299345;-0.16627373;-0.08937629;0.043106873;0.07022915;-0.07708236;0.21859424;0.013852815;-0.109947264;-0.012811137;-0.07972908;0.08976299;-0.158735;-0.08547508;0.0035738782;-0.037334677;-0.010988991;0.026590379;0.043526173;0.04215508;0.20507929;0.0021965308;-0.06571376;-0.03855586;-0.052514866;-0.11775171;-0.03831437;-0.0022187382;0.09357319;-0.07276852;0.09012514;0.14783731;0.060254417;-0.0086238235;-0.048591062;-0.11442191;-0.05785357;-0.11564934;-0.10746015;0.020334138;0.01846099;-0.039279595;-0.019651117;0.079844296;-0.03585507;0.12582138;0.03006533;0.033323754;-0.19228457;0.103928074;0.19496009;0.22492966;0.07426942;-0.08252713;0.24542879;-0.0040143155;-0.08427365;0.020555189;0.21371701;0.038030025;0.13419303;-0.11459722;-0.07778505;-0.25595137;-0.0630058;0.0039655487;0.093475565;0.008521914;-0.15628828;-0.12919964;0.09356848;0.17472644;-0.11436528;-0.05432937;0.036708526;-0.095744796;-0.15171704;-0.16361547;-0.078781486;0.082232885;0.048607543;-0.110207446;0.05086935;-0.038676366;0.064426914;0.019716335;0.012250394;0.105418645;-0.03641377;0.084347904;0.042878207;-0.24161407;0.13536158;-0.04880686;0.06108823;0.07662641;0.022911541;0.03991385;-0.04080445;0.025437888;-0.06877033;0.010252806;0.09974162;0.064406924;0.12845995;-0.028621648;-0.3267521;0.017067984;-0.11886367;-0.06851962;0.011025092;-0.0028174997;-0.08937251;-0.092634976;0.09104224;0.21749355;0.075598106;0.16646345;-0.031642374;0.18426345;-0.01648138;-0.0019230865;-0.017024701;-0.09403506;-0.010345136;-0.10024906;0.024204656;0.015606837;-0.06405795;-0.12011072;-0.09642284;-0.14219028;-0.022251897;-0.21197945;0.044879094;0.05862291;-0.02095023;-0.07720554;-0.13726956;0.15482555;0.07025521;0.15702488;0.13399197;0.18602362;-0.05880889;-0.09215218;0.04000105;0.05140566;0.03308091;-0.009671944;-0.19902232;0.082047574;0.067189924;0.11626879;-0.0045593167;-0.15638612;0.006140224;-0.11507779;-0.063635804;0.124999374;-0.032408252;-0.059366424;0.012037414;0.1513739;-0.0478289;-0.1819641;0.10806809;0.109390825;0.115994066;-0.07020506;-0.064724155;0.07219778;0.005219746;0.16276887;0.09442631;-0.14674315;0.07025303;-0.034084756;0.11047945;0.0057386835;0.05724988;-0.0408452;-0.090426385;0.11168289;0.16336146;-0.17756534;-0.2683897;-0.114571825;-0.008045117;0.044981748;0.10035954;0.20883594;0.17299846;0.017773487;0.01299793;-0.017575856;-0.23166405;-0.0014560751;0.044813603;0.27446127;0.039791882;-0.048219103;0.090609;-0.017089587;-0.0015421264;-0.0005281741;-0.092178;-0.005101492;-0.0022864824;-0.025688726;-0.087163575;0.050543725;0.037999175;0.016559413;-0.051970493;0.022502031;0.02034959;-0.16715038;0.1621678;-0.00972592;-0.16934985;0.19538471;0.023408612;0.10310434;0.17387138;0.023855949;-0.06251006;-0.24760194;0.17449291;0.1068986;-0.10154002;-0.017629767;0.088665746;-0.11487977;-0.045865852;-0.022396619;0.04313097;-0.16787627;0.086536385;-0.20945476;-0.09645036;-0.22681278;0.21518594;-0.08314195;-0.015067468;0.14703953;-0.088027194;0.10379064;0.040513;0.0437765;0.12580004;0.17531936;-0.046297576;-0.08405968;-0.04278662;0.015659882;-0.012643001;0.12671772;0.015489977;-0.021654528;0.12840946;0.10821677;0.1415248;0.06320547;0.15713982;0.12952936;-0.026299255;0.14633992;0.08194189;0.0626632;-0.057870016;-0.08097533;0.02322785;0.10090495;-0.01738009;-0.07188594;-0.05520731;-0.046617646;-0.051023792;0.12958038;-0.033065327;-0.17843977;0.11371184;-0.217082;-0.2124952;-0.08263365;-0.09268119;0.10995102;-0.16070546;-0.16058654;0.008123002;-0.0067113345
-0.26913202;-0.037809476;0.01478092;-0.09522265;0.041748706;0.10650795;-0.04082759;-0.011595167;-0.19712563;-0.08974137;0.100385055;0.018637484;0.22742125;0.12293223;0.020081695;-0.08374038;-0.10332985;0.10563901;-0.02363672;0.017727701;0.044676714;0.2407181;0.06608551;0.045744777;-0.010098116;-0.0064081843;-0.011341282;-0.041906897;0.022504669;-0.079331346;-0.08808113;0.050820746;-0.10452765;0.0023298392;0.043645628;-0.03166591;-0.06602849;-0.43421325;-0.04105346;-0.09553913;-0.044142302;-0.23711482;-0.13625544;0.28143495;0.07609116;0.10217279;-0.19507895;0.10310855;-0.100044094;0.17726663;-0.13047962;0.054535247;-0.023608072;0.05282932;0.12842852;-0.004203608;-0.052169174;-0.014291793;0.054630637;0.10471994;-0.16195366;0.05492737;0.24819222;-0.055351425;-0.1551408;0.10081037;0.1481132;0.13875863;-0.18829982;0.23633935;-0.14855385;-0.18016998;-0.1322304;-0.034047898;0.08828375;0.043132007;0.091049895;-0.022712559;0.07759318;0.09230912;0.06878347;-0.05114478;-0.18816197;0.0025944451;-0.06626068;-0.017348973;-0.10827587;0.13548152;0.039897833;-0.008629681;-0.056732576;-0.1255506;-0.019875178;0.01384779;-0.017117443;0.09297969;0.0066882274;-0.11387892;0.15979797;-0.18178906;-0.06698325;0.062768206;0.078671046;0.112312995;-0.10834059;0.17958672;-0.18752621;-0.03443547;0.041122504;-0.42155567;0.07122091;-0.009237522;-0.0037066848;0.051581934;0.11586304;-0.06749438;-0.025546357;0.07184638;-0.007439395;0.2053475;0.005947598;-0.041108385;0.33926395;0.0450636;-0.13613443;-0.0144479405;-0.16280974;-0.014901855;-0.046811413;0.08425735;-0.016255006;-0.060977157;0.063374735;-0.06323974;-0.12783732;-0.05670916;0.020348523;0.15696682;0.17043237;0.14889506;0.2510606;-0.006295874;0.039845936;0.05767201;0.05482529;-0.022973394;-0.111132935;-0.17697637;0.19621585;-0.08944151;-0.029349776;-0.06731;0.0045789727;-0.09451584;-0.11002649;-0.06889093;0.10956047;0.10976505;-0.26962033;-0.050218217;-0.13515085;-0.21641104;0.124021366;-0.11620238;0.082011044;-0.020883773;0.0512232;0.04140655;0.03805822;-0.03749026;-0.12126882;-0.11320954;0.089773536;0.01712052;-0.20990835;0.0516455;-0.0121382065;-0.17581204;-0.06760646;0.044841494;0.038092468;0.027642189;-0.01985677;-0.09908401;-0.0716078;-0.0206958;0.09727999;-0.037036065;0.10568016;-0.111697614;-0.0601628;-0.31309322;-0.15409595;-0.000247727;-0.05357598;0.15179631;0.0033554593;-0.100055665;-0.027063075;0.010387993;0.18290398;-0.048814755;-0.09428761;0.070178755;-0.0071506477;0.18719718;-0.19174127;-0.09356894;-0.035456143;0.038703773;0.122922406;-0.07848103;-0.024776353;0.26462474;-0.15743549;-0.01846927;0.2023006;0.0020790594;-0.05079857;-0.20051463;-0.034111373;0.027861167;-0.067075625;0.09266723;-0.097677216;-0.06524745;0.0331204;0.08795634;-0.21710615;-0.060244195;-0.09099761;-0.3037116;0.021280546;-0.08620566;-0.08399654;0.11619244;-0.12279368;-0.0977601;0.1295742;0.01651988;0.07135898;0.09009893;-0.20017436;-0.020727813;-0.017123299;-0.001427803;-0.053819213;-0.004029043;-0.018572787;-0.22206703;0.09146206;-0.12229801;-0.14572312;-0.063468024;0.07417912;-0.034107126;-0.15930746;-0.025427729;0.019709881;-0.20470035;-0.014587081;-0.38799584;0.051930238;0.024521858;0.03607791;-0.033970214;-0.054295786;0.07392585;0.06559257;-0.14800626;0.05112062;-0.052432198;-0.09161703;0.15315667;0.046185806;0.15158856;-0.01200272;-0.015243377;0.051637486;0.034068525;0.30923486;0.07823808;-0.16571602;-0.1681148;-0.0049026087;-0.30649662;0.038911466;0.051509093;0.021961752;0.0060217124;0.13147995;-0.023870453;-0.08476561;-0.08378944;-0.080236785;0.16516393;-0.11290445;-0.025070824;0.10887891;-0.07507471;-0.04250635;0.16086195;-0.13817075;0.07602322;0.20266405;0.004684518;-0.025160907;-0.13132684;0.05316216;-0.11189832;0.09207745;0.047675434;0.15026066;-0.052210435;0.16694969;0.19928816;-0.023100745;-0.13503215;-0.085298635;-0.027810583;-0.18145208;-0.18457328;0.0071023586;-0.067722924;0.06571206;0.06398152;-0.026893955;0.14041704;0.09221919;0.13880415;0.1088635;-0.05018635;-0.20208709;0.043124046;0.023832735;-0.042354982;0.03414374;0.06749178;0.1517184;0.21971636;0.08518784;-0.16874483;0.20244882;0.18927035;0.05014513;-0.06436598;-0.010438381;-0.33331403;0.04239437;0.025095627;0.051261142;-0.112281844;-0.071075596;-0.144019;0.10557573;0.1552079;0.005798815;0.039647724;-0.058662295;-0.10458847;-0.13661571;-0.053315464;0.072242655;-0.020963605;-0.04255764;0.104285374;0.037680738;0.03805732;0.12475106;0.05546901;0.003742816;-0.042609937;0.05306901;0.20035607;0.1462051;-0.22516376;0.075778656;-0.16445975;-0.068866335;0.022154398;-0.023210369;-0.12603605;0.14503257;-0.03579454;-0.0073927203;0.0033964948;0.20075996;-0.0796269;-0.041420728;0.03033096;-0.076663435;0.1956739;-0.11067769;-0.0036518183;-0.05069611;0.01798461;-0.015088448;0.06828815;0.06627355;0.47106642;0.032675747;0.16265993;-0.071995236;0.10030253;0.0645937;-0.07278104;0.16107029;-0.13414846;0.0875965;-0.014228839;0.060435545;-0.0034087333;-0.032557543;-0.024869215;-0.104218364;-0.0951064;0.06412258;-0.062749155;0.0064693424;0.06251709;-0.06843678;-0.03139267;-0.11805199;0.12779428;-0.18556331;0.17543769;0.16981718;0.05841575;0.0133200195;-0.13812862;-0.25790665;-0.16678728;0.17249677;-0.08920562;-0.11092535;0.124002814;0.15025906;0.038085017;0.028205357;-0.08994933;-0.05292363;-0.11806033;-0.15051882;0.0724098;-0.01830425;-0.00829701;0.016219854;0.0016590187;0.089796335;-0.079611;0.15077008;0.19168347;0.025331538;-6.603965e-05;0.007903781;0.03602587;0.008266479;-0.014297407;0.108943924;-0.0049211564;-0.095800616;-0.055740498;0.023143386;-0.077423394;0.08001922;0.00177836;-0.07154343;0.033014093;0.33833236;-0.09132325;-0.07326265;-0.117174655;0.040131386;0.11366673;0.08548532;0.13206871;0.05032232;-0.054737743;-0.0031449732;-0.08702804;-0.190975;0.010629384;0.009476815;0.11911499;-0.04699166;0.11231182;0.020473514;0.07420069;-0.12824027;-0.060315266;-0.24201204;0.071138054;0.059260204;-0.034340337;-0.11169966;-0.068459995;-0.041606624;-0.014698853;-0.06871564;0.11766044;-0.034952495;-0.1300202;-0.047188465;0.0021491402;-0.10631334;0.19676067;0.14121673;-0.0010689724;0.2262801;0.12211461;0.051522456;-0.059093095;-0.011037228;0.058713708;-0.03519057;-0.0670311;-0.02058243;-0.10411775;-0.11947391;-0.022838414;0.1429684;-0.038735542;0.2273042;-0.27960226;-0.107394576;-0.21487665;0.13879737;0.1426703;-0.08470681;0.07711244;0.016351193;0.093859635;-0.09958337;0.005344913;0.18879242;0.07990223;-0.019491471;0.05800662;-0.11441182;-0.013014568;-0.06319077;0.1577776;-0.03953258;-0.06502269;0.0067117875;0.08028008;0.02055921;-0.07269002;0.17377898;0.10965195;0.003261418;0.06022792;0.001568484;0.17474245;-0.044923525;0.026775101;-0.10992361;0.091795236;-0.07879008;-0.2074919;-0.07877773;-0.14510842;0.13576959;0.01160726;0.05352687;0.00734612;0.13476911;-0.09426806;-0.14612858;-0.11896033;0.007907204;0.014357203;-0.14631964;-0.031436566;0.054756183;0.030565735
-0.36149704;0.012827149;0.043257672;0.06802184;0.11065086;0.15408236;-0.115031905;0.11782035;-0.025815897;-0.024946913;-0.012027042;-0.098815344;0.33728883;0.11973259;0.053421836;0.0004929807;-0.12966315;0.016216114;-0.08999789;-0.053852197;0.013190553;0.018426444;0.034243323;0.015249571;0.01367711;0.16791278;-0.0012268645;-0.15173335;-0.042783648;-0.050085917;-0.0019953593;0.074139886;-0.14603287;-0.05555004;0.023432137;0.016981542;-0.08249419;-0.396933;-0.014135894;-0.010210803;0.095351994;-0.20353423;-0.12477115;0.16941601;0.022631014;0.2508408;-0.13139197;0.058789;0.010149222;0.20466469;-0.11020484;-0.027103452;-0.009751947;0.021681866;0.105498336;-0.15457982;0.0029764988;-0.020130549;0.07524771;0.075592175;0.014054827;0.078172594;0.08373256;0.055064067;-0.09441551;-0.030543009;0.07270518;0.10631332;-0.09399557;0.26991647;-0.18903296;-0.24779753;-0.16984867;-0.10036373;0.043896556;0.060725372;0.19945161;-0.1075986;0.01715837;0.05012669;0.05000312;0.019290652;0.020734109;-0.07780442;0.14304902;-0.003777873;0.011307492;0.2747664;-0.018083172;-0.066985376;-0.12412273;-0.098882064;-0.024248917;-0.07952182;-0.0027010362;-0.031166818;-0.042744;-0.0979003;0.019983696;-0.11461313;0.023218459;0.10951263;0.07393237;0.045302816;0.004848013;0.22988424;-0.24332462;-0.13816;0.08787947;-0.36533;0.07604438;0.002711656;-0.107637465;-0.020753339;0.14957032;0.039650735;0.018538123;0.07855724;0.09155503;0.09596987;-0.051480185;-0.016382085;0.1406409;-0.03580239;-0.10588864;-0.06601721;0.0948312;-0.110954344;0.111121476;0.07267666;-0.007914184;-0.10389801;0.104725465;0.03263213;-0.20123374;-0.043017536;0.1676389;0.004129551;0.07331418;-0.10203209;0.20052066;0.052860964;-0.1682066;0.008533022;-0.21570387;0.068542;-0.0028138102;-0.054728776;0.105660304;-0.044668064;-0.17356165;-0.095314264;0.07761893;-0.034541104;-0.15907289;0.07091912;0.06655571;0.07867301;-0.11826533;-0.043151833;-0.01842615;-0.13774827;0.16549459;-0.0110803135;0.14336586;0.019351793;0.012020067;0.08537896;-0.0070871026;0.02445341;-0.017039388;-0.054070894;0.1255276;0.056893867;-0.07453145;-0.081114054;-0.085650705;-0.2810737;-0.09015992;0.037821896;0.06296196;0.10481378;0.024761638;-0.06644402;-0.20793107;-0.062377267;0.006203359;-0.120129265;0.052427635;0.025029445;0.042726193;-0.24582095;-0.16711089;0.040619098;0.04079125;0.05755531;-0.0015665181;0.10760084;-0.043856025;0.031914487;0.25630444;0.08258761;-0.17945988;0.009425602;-0.014280082;0.106920086;-0.071132;0.038738243;-0.103974134;0.083112024;0.040829677;-0.036341205;0.02881298;0.32285488;-0.03362335;-0.1498164;0.05281757;-0.02479034;0.029140973;-0.1759165;-0.064190544;0.09804946;0.16259725;0.2051662;0.111906774;-0.06148718;0.06781913;0.2135346;-0.1010851;-0.19516699;0.07475926;-0.123495676;-0.0065489896;-0.14222708;0.015217648;0.0553235;-0.054198906;0.042956874;-0.011050466;0.01340134;-0.05058;0.15162091;-0.24402209;0.097678624;-0.009657006;-0.121214435;-0.029818036;0.17740765;0.0019103705;-0.09122982;-0.0041690352;-0.16323173;-0.11283598;-0.13206118;-0.094163686;-0.0103247855;-0.20009203;0.19386429;0.063129626;-0.1127065;-0.057588976;-0.3487097;0.15828122;0.04354552;-0.0050796145;0.13952301;-0.026482727;0.09893961;0.038630072;0.0014365708;-0.009482046;0.006994154;-0.021350553;0.09576725;0.06331284;0.1518584;-0.06630642;-0.04578843;-0.010841941;0.044812635;0.20225273;0.080468036;-0.17233141;-0.0035189746;-0.08285418;-0.17938185;0.032339897;0.06357443;0.11634526;0.037900887;0.12540361;0.14324377;-0.018287286;-0.019593254;-0.08574414;0.0017953888;0.0016123141;-0.03777766;0.011619316;-0.15335561;-0.057573885;0.045579806;-0.03807807;0.056447912;0.08400158;-0.13336323;-0.024002688;-0.13665815;0.21025024;-0.056325696;0.0039125;0.070080996;-0.15981583;-0.13963266;0.17224373;0.16159791;-0.004868505;-0.13147877;-0.042761233;-0.06187263;-0.25479853;-0.13185321;0.06131308;-0.019438738;0.1611402;0.09537398;0.13543361;-0.00085321127;0.05176524;0.022076903;-0.017600939;-0.11432074;-0.012854445;0.045191888;0.031906098;-0.03969889;0.08679818;0.040738393;0.00942405;0.23419988;0.11627442;-0.107212916;0.12367004;-0.036539968;0.1250714;-0.005169263;0.14481056;-0.144086;0.015443253;-0.006748479;-0.0686983;-0.03270591;-0.2141701;-0.09519595;0.0069300714;-0.030413933;0.04632974;0.09611857;0.009035035;0.051053204;-0.03882961;-0.035735805;0.10847552;-0.025276564;-0.06747103;-0.005849683;0.06311288;0.1477223;0.09500895;0.036768492;-0.03977408;-0.047002666;-0.1577685;0.20492715;0.1204947;-0.13502924;0.089308724;-0.26435134;0.031587437;0.028713638;-0.13060167;-0.13965221;0.118926264;-0.09563121;0.04411983;0.014866037;0.12924142;-0.13758413;-0.071551114;-0.013906896;-0.17300421;0.011797998;-0.049837943;0.042557616;-0.0041379114;0.16277298;0.06380845;-0.056237333;0.0403137;0.33031893;-0.07334631;0.1790887;-0.043737523;0.024635753;-0.07236133;-0.12687135;0.14704046;-0.117009796;0.0813467;0.08005071;0.14020924;0.030162077;0.0294901;-0.13470481;0.055173915;-0.13892813;-0.027752;0.095604196;-0.022046018;0.045404296;-0.11604866;-0.06945023;-0.1302996;0.014127914;-0.091388464;0.21351542;0.13903679;-0.06398057;-0.03775562;0.0069687087;-0.25229245;-0.16119792;0.033666458;0.06401254;-0.13152094;0.13788685;0.029083375;-0.0701473;-0.04222112;-0.09308875;-0.082320064;-0.14374794;0.027652262;-0.012176217;0.1291223;-0.03537845;-0.04929391;-0.04605645;0.08447883;-0.089383624;0.060643543;0.16855928;0.06363401;0.05266419;0.09502768;-0.0555709;0.08165572;-0.12291632;0.029067336;0.066867605;0.03896793;0.009750258;-0.062611334;-0.03579797;0.10341387;0.10210745;0.039400738;0.030152777;0.27074808;-0.00034461246;-0.11146517;0.04138178;0.08206184;0.04119831;-0.050255544;0.10944854;0.16721636;-0.060819633;-0.01119556;0.06741643;-0.10039326;0.09620382;0.18194248;0.07339325;0.08919735;0.07826884;0.016708422;0.1423847;-0.066161215;0.098502755;-0.20842879;-0.06829819;0.06189599;-0.053401753;-0.12651391;0.08072971;0.0025405576;0.29165867;0.027151322;0.01830504;-0.07482677;-0.101804495;0.026028698;0.07823285;0.0037912796;0.038804043;0.026534712;-0.14028132;0.25599727;0.07225103;-0.061603505;-0.20083076;0.08888105;0.055127375;-0.066310585;-0.051488448;0.01019315;0.007584632;-0.033658992;0.005169857;-0.00815908;-0.16034833;0.15968502;-0.09876782;0.14423724;-0.07771989;0.22699074;0.019055627;0.116825774;0.17089593;-0.05069853;0.103975706;-0.18328844;0.07740336;-0.045140717;0.11315437;-0.082406946;0.11161145;0.030455131;-0.026374482;-0.20696564;0.08493716;0.0908028;0.028420357;-0.058591075;-0.030916067;-0.09138999;-0.06753509;0.12581879;-0.08076538;0.013887206;0.053333662;-0.08380538;0.05688123;0.054924235;0.111261666;-0.12119127;-0.06941722;-0.16219567;-0.12428546;-0.017896697;-0.08519151;0.0046380428;-0.0064171003;0.01647482;0.04985481;0.10072844;-0.06515306;-0.06993042;-0.2311344;0.05881067;-0.14754379;-0.031082712;0.014327213;-0.0015410435;0.109438874
-0.27341235;-0.020154465;-0.032672107;0.017492909;0.0034505955;0.15072839;0.09445311;0.040240023;0.03047929;-0.10127047;0.20185862;-0.08383808;0.15845814;0.1390719;0.05866525;0.07127088;-0.28967437;-0.070582464;-0.16615853;-0.09475511;0.02749024;-0.027620241;0.08183992;-0.019396206;-0.062246766;-0.054497387;-0.12834936;0.06494201;-0.073987834;0.029746458;-0.014917631;0.043579947;0.0027717047;-0.06879354;-0.0014328008;-0.0072585135;-0.12551008;-0.3156596;-0.027986795;-0.059340175;-0.00876882;-0.1069518;-0.019616803;0.109465495;0.07486614;0.042385332;-0.24820542;0.07633477;-0.20708884;0.17411989;-0.10714235;0.08880925;0.07962575;-0.024386013;-0.023018321;-0.07043364;-0.08498725;0.10359034;-0.04018093;0.11685785;0.03560911;0.1525791;0.09399682;0.0818079;-0.13904381;0.053526804;0.1293299;0.03652056;-0.20741001;0.076804444;-0.09350176;-0.21210314;-0.107275784;-0.08321648;0.15257081;-0.008309021;0.16045423;-0.063185565;0.08152748;-0.24387728;0.14701256;-0.027081205;-0.06432219;0.14572029;0.05749314;-0.10926639;-0.107978076;0.108820505;0.009055955;-0.008542058;-0.19181688;-0.18141103;0.018386891;0.02393198;-0.038901795;0.10875788;-0.12877251;-0.12956037;0.04839754;-0.2338806;-0.059206046;0.0103214765;0.16814171;-0.0286304;-0.06360315;0.217572;-0.15360318;-0.056904964;0.13813102;-0.35306433;-0.0034760933;0.015067477;-0.063034505;0.13032228;0.1301902;-0.07072396;-0.09863591;0.13407075;-0.043875404;0.10676786;-0.016333472;0.008587865;0.061901275;0.0150978295;-0.04152247;-0.09579284;-0.13865122;-0.10246897;-0.08530612;-0.026682496;-0.10163825;-0.058104612;-0.010231602;0.007080906;0.013660263;0.03466288;-0.0060473047;0.0006578028;0.16130644;0.109449245;0.10630139;-0.09857472;-0.061303515;0.038316812;-0.18028684;0.017608058;-0.081073456;-0.103032626;0.07696791;-0.20221578;-0.23720427;-0.042088386;0.05112075;-0.056087326;-0.31124064;-0.021089189;0.01891188;0.009222753;-0.24677894;-0.054518834;-0.1091668;-0.14421782;-0.010921625;0.032358672;0.09827606;0.004033562;-0.052326493;0.026078608;0.13245854;0.03822009;-0.069248036;-0.10757149;0.026719129;0.0863871;-0.06584565;0.022233782;-0.053172246;-0.21472578;0.010727291;0.012830118;0.041910894;-0.048338313;0.029784296;-0.12670767;-0.23639472;-0.034092795;-0.06977831;-0.03799417;-0.0034358164;0.04714453;0.042342816;-0.2971062;-0.21840425;-0.007835498;-0.07239335;0.06806849;-0.0033928694;0.03384842;-0.065170094;0.02543981;0.17214228;0.034223646;-0.013261726;0.05943624;-0.054111823;-0.029672127;-0.10752037;0.05374286;-0.023378206;0.028134098;0.055354685;-0.15967509;0.065687515;0.080616325;0.007638839;-0.06287074;0.08406434;-0.17184982;-0.010173609;-0.24142417;-0.05753693;0.05452169;0.2393605;0.024957763;-0.0058480063;-0.04020528;0.0715294;0.21224315;-0.25576922;-0.13346249;-0.02313808;-0.082866;-0.140309;-0.03274985;-0.103493735;0.055541135;-0.05942301;0.12572752;0.028553573;0.0683559;-0.081905365;0.20241573;-0.18636349;0.071169175;0.15643193;-0.12075952;-0.08806891;0.1944954;-0.04290404;-0.16297193;-0.16461511;-0.15363656;0.09634778;0.037828255;-0.17160596;0.035727393;-0.055110995;0.1692675;0.1487601;-0.13597162;-0.052397806;-0.41075155;0.028791636;0.12400636;0.110657014;0.031552523;0.026418658;0.0343543;0.04726643;-0.08281916;0.02558994;-0.09939312;0.080394246;0.201827;0.06737292;0.041187562;0.10089143;0.009254076;0.15622577;0.13141407;0.10573157;-0.16753142;-0.16132063;-0.046566088;-0.07020973;0.031967673;0.08825177;0.10671958;-0.13446066;0.017295944;0.13236095;-0.05308177;-0.13165203;-0.07186806;0.012527959;0.110486194;-0.15989564;0.020527974;-0.04829083;-0.17980927;-0.024262264;0.06215018;-0.09848923;0.06765349;-0.044806384;0.049020756;-0.07231429;-0.0625821;0.10442304;0.03311582;-0.013699484;0.09898342;-0.19173922;-0.17804392;0.07853025;0.16477075;0.19585192;-0.05351286;-0.021820279;0.022344397;-0.14135103;-0.030816535;0.034799024;0.03807576;-0.07551831;-0.038680263;0.028386028;0.09115607;0.17156966;0.09174527;0.11284231;0.08846194;-0.08929345;0.1550953;-0.028432284;0.056544065;0.033705212;-0.00855925;-0.04020744;0.1948787;0.09562844;-0.13405924;0.06393497;0.044744104;0.03759891;0.08194456;-0.027808823;-0.24619338;0.046382453;0.08000491;-0.037770107;-0.12493154;-0.23190978;-0.11988995;-0.09909292;0.11137814;-0.04851839;0.053547803;0.007444111;-0.10544443;-0.11968668;-0.04118981;0.049753517;-0.028364196;0.010703592;0.15426657;0.18395494;0.052666586;-0.06802472;0.0934574;-0.10465948;-0.03436585;-0.006337239;0.19974865;0.06892456;-0.08740738;-0.075271584;-0.16122788;0.07065202;0.025885254;-0.09546647;0.037853826;-0.044181503;-0.05736717;-0.074434005;0.13043298;-0.046678104;-0.040365662;0.040260516;-0.026023438;-0.1307049;0.104200006;0.05251963;0.033975955;0.16950786;0.124502026;-0.02777745;0.014260655;0.13992535;0.40175837;-0.056194745;0.24320835;-0.0221093;-0.048675146;-0.0104857385;0.030247036;0.10029986;-0.17481215;0.091690406;0.049413256;0.05826607;0.085327245;-0.02633197;-0.06547225;-0.08724461;-0.2440422;0.091964744;0.072640575;-0.008063923;0.008982696;-0.06425818;-0.15763618;-0.11321548;-0.02896481;0.023604274;0.02136531;0.1870783;-0.092718855;-0.039539922;0.03310385;-0.09109398;-0.15776898;-0.08126672;-0.09865966;0.047328018;0.19935472;0.018802866;-0.0042656725;-0.08135162;-0.14404684;0.042680413;-0.20303835;-0.0072206696;0.1142127;0.14945012;0.0667512;-0.20400696;0.14820977;-0.054031353;-0.07623738;0.12504911;0.0733636;-0.015466235;0.2247068;0.16496262;0.09288875;0.056510434;-0.06962291;-0.040283006;-0.0032741677;0.03694882;-0.17815064;0.03785035;-0.07432578;0.1422938;-0.020403622;0.0513813;-0.045432024;0.20426014;-0.023942199;-0.1470645;-0.053329874;0.077746384;0.15314324;0.028536076;0.14556721;0.2594285;-0.11741173;0.15562478;0.15562338;-0.018621134;0.014067862;0.12792057;0.095330074;0.1128114;0.09370763;0.079081394;0.13007453;0.043658618;0.05403095;-0.1489474;-0.13395572;-0.15765111;-0.07152212;-0.20528162;-0.018962206;-0.028804079;0.14642546;0.14076334;0.019894492;0.025928034;-0.05943734;-0.020887796;0.16458978;0.0055619455;0.13358186;0.0076761786;-0.049299445;0.040849447;0.08133993;0.021569092;-0.17661685;0.06476722;0.1826532;-0.0106016295;0.009230619;0.03551007;-0.19806166;-0.115643665;-0.02423596;-0.095797226;-0.09356802;0.031228371;-0.11892589;0.0071283295;-0.07143867;0.17102744;-0.13429488;-0.0153507;0.10356965;0.00030590873;0.12191326;-0.10615479;0.0233383;-0.014763288;0.13606305;-0.13683486;0.05706109;0.027862707;0.0059289914;-0.16367045;-0.058321327;0.08895242;-0.009059253;0.02340897;-0.065805055;0.017126407;0.053474605;0.12486149;0.022361057;-0.029995501;0.16898689;-0.088859186;-0.007801722;-0.09682292;0.07261666;0.0073179225;-0.13506101;-0.025100693;-0.09188286;-0.1834708;-0.09081612;0.27801183;0.048677906;0.012279764;-0.03649449;0.117166266;-0.025758326;-0.10503367;-0.014924389;-0.11299053;-0.112847574;-0.06258876;-0.039714538;-0.092213035;-0.10865224
-0.0931769;-0.003206378;0.069231115;-0.109081715;0.057009097;0.03482926;0.0367697;0.025481787;0.030535784;-0.10177423;0.18224104;0.008317554;0.20915827;0.20187302;0.08646271;-0.22008169;-0.06165075;0.04185057;-0.22144035;-0.050770506;-0.027185269;0.14190495;0.27878514;0.06343903;0.020767698;-0.040089637;-0.17658445;0.00032672985;-0.029129745;0.009154148;0.003703782;-0.10929303;-0.050643045;-0.08459796;-0.0014128084;0.058004104;-0.087825336;-0.32953423;0.016341882;-0.06564307;0.005881289;0.007947713;-0.05396163;0.066561826;0.019493725;0.24666035;-0.10327323;0.034146257;-0.12074964;0.19864568;-0.0956054;-0.06132572;0.14636467;-0.09972783;-0.011807256;0.024448043;-0.10785489;0.08687117;-0.19259846;0.1566076;-0.11407161;0.11599948;0.068795435;0.044532087;-0.0066075544;-0.023634518;0.11297537;0.115440406;-0.23631524;0.3784517;-0.05683626;-0.14020978;-0.13027032;-0.18574873;0.060307987;0.05626787;0.1471652;-0.17944156;0.09394246;-0.0067852605;-0.015334234;-0.107568204;0.024284918;0.10303907;0.098394535;-0.08067859;0.009136311;0.08505736;0.05318377;0.051294345;-0.030500399;-0.090931356;0.11922898;-0.05296896;0.08265195;0.0033815724;-0.11433176;-0.17565091;-0.011679846;-0.10794825;0.11513541;-0.15595278;0.07797725;-0.075852506;0.025939703;0.17559712;-0.10308834;0.04003765;0.15486676;-0.10533331;-0.020928264;-0.06013124;-0.035879314;0.07471097;-0.02654196;-0.12529518;-0.026331117;0.0052749906;0.16085546;0.15510121;-0.05206733;0.049384058;0.1064044;-0.06708596;-0.011608452;-0.11073412;-0.018528596;-0.24354331;-0.14141731;0.038174834;0.11575931;-0.2909624;0.11591;-0.007254092;0.055864606;0.068378754;0.00870806;0.085440345;0.050119467;0.015469682;0.09790221;-0.1048694;-0.07925888;-0.030531293;-0.05923362;-0.11877062;-0.10469706;-0.02068457;0.11089646;-0.15452828;-0.15527296;-0.046406414;0.16153114;-0.0051888763;-0.17982022;-0.046626855;0.033529;0.018199142;-0.1790281;-0.10700809;-0.21208262;-0.17537308;0.09444396;-0.09214404;0.027121145;0.1210953;-0.16435917;-0.017352505;0.084370375;0.122874245;-0.011549524;-0.113834724;0.1238401;0.029461531;-0.1399271;0.010524151;-0.025699165;-0.13746576;-0.023901299;0.08900924;-0.11364231;-0.112218015;0.0677513;0.017770153;-0.11848573;-0.021684824;0.062651;-0.2272771;-0.085836;0.07472198;-0.023499358;-0.33453557;-0.05878688;0.115926474;-0.12767163;-0.04647053;0.043385543;-0.026566291;-0.14548704;-0.03628552;0.17253129;0.0073495763;-0.07032456;-0.0049012126;0.040035073;0.024770105;-0.15971647;0.11192928;0.028590186;-0.09760992;-0.047055352;-0.14269358;0.10265046;0.11110575;0.062485237;0.09629256;-0.14302737;-0.14413224;-0.044891402;-0.11319587;-0.15166211;0.21429761;0.33785978;0.0023671158;0.036950585;-0.06252071;-0.04360967;0.018121362;-0.18160173;-0.1447753;0.037587177;-0.17834008;-0.095005356;0.069086224;0.059806798;0.11563573;-0.06908896;0.094072044;-0.117073715;-0.04411415;-0.037099343;0.10629006;-0.31352875;0.15810946;0.08485873;-0.06633832;-0.1079202;0.22840698;0.053163376;-0.04472628;-0.17705944;-0.23551583;-0.090526514;0.18873397;-0.12899451;-0.030482978;0.018025381;0.071978204;-0.044256493;-0.18851638;-0.07200937;-0.3870822;0.04533431;0.043592256;0.084617205;0.058977034;0.07068781;0.099719204;0.051369313;-0.13527088;0.009132267;-0.06703061;-0.07905194;0.1582644;0.04493098;0.06629092;0.0023841828;-0.039607055;0.1580933;0.09235902;-0.017530663;-0.10572675;-0.21714045;-0.07462582;-0.098307446;-0.12928124;-0.040153455;-0.015600953;-0.011738691;0.0736547;0.118830755;0.09891108;-0.1002404;0.07973714;0.029376818;0.009515842;-0.074397095;0.019799324;0.07688839;-0.14487474;-0.22399609;0.1420092;0.04869733;0.08602138;0.07038221;0.040689647;0.113332294;-0.14956985;0.17737181;-0.045829527;-0.044420123;0.09991488;-0.051427316;-0.071249396;-0.012594229;0.16181335;0.06417672;-0.105210885;0.07234845;-0.054215547;-0.04278029;-0.16806987;0.27828914;0.120226495;0.026053471;0.07346782;0.058903616;0.03549924;0.11421752;0.10578078;-0.11063282;0.12000014;-0.10707189;0.023267213;-0.04095258;0.064800665;0.10296251;-0.041400697;0.0061115944;0.105429664;0.05698775;-0.21857235;0.077003114;-0.03536556;0.012496176;0.076647855;-0.040349044;-0.2183985;-0.047731586;0.06107098;0.09477154;-0.13274428;-0.2829306;-0.08406233;-0.018015262;0.17265533;0.038453013;0.075686626;-0.06766066;0.013091748;0.014187895;0.07953817;0.033157572;-0.06007425;-0.0048059556;0.03959228;0.17113382;0.08777705;-0.0074895346;-0.099133074;-0.010692721;0.097693294;-0.005227631;0.13013323;-0.0029300118;-0.045695283;0.044903923;-0.19175799;0.054698694;-0.19589828;-0.08016462;-0.1483605;-0.042008378;-0.078686975;0.027448606;0.07476747;0.047465984;-0.0935356;-0.0030621341;0.05595721;-0.1298778;-0.037837405;-0.073649906;-0.009731765;0.0052173994;0.024826052;-0.14379449;-0.10327632;0.03741391;0.3432893;-0.16440123;0.2223628;-0.012982524;-0.08064468;0.0029134082;-0.109010555;-0.020620203;-0.09225967;0.041826766;0.15640287;0.11969763;-0.020652307;0.09554297;-0.03998479;0.04101963;-0.23669402;0.0753063;0.07681598;0.08315329;-0.039971806;-0.010721257;-0.1391594;-0.15231004;-0.045699097;-0.17808074;0.18146616;0.17648634;-0.28173417;-0.11083069;0.117745765;-0.10825031;-0.216998;-0.10961572;0.06346417;0.0012832709;0.25162703;0.11943063;0.09174537;-0.13186654;-0.02985603;-0.07145414;-0.11381966;-0.06801908;0.16181621;0.009050782;0.03176586;-0.13426502;0.065211415;-0.067469135;0.03172605;0.154799;0.26098087;-0.0353475;0.23874275;0.13446069;-0.063545294;-0.077533476;0.033037573;0.070118524;0.025845923;-0.035231158;0.06499416;-0.19046439;0.109730035;0.102156;-0.08777049;-0.04317065;-0.01658552;0.16960116;0.17417319;-0.05604894;0.024977857;0.17977431;0.15454476;-0.05886275;0.13646062;0.07188938;0.050771896;0.12484438;0.14616774;-0.25191483;-0.13206293;0.2688889;-0.050600447;0.006725654;0.056648593;0.0934297;0.13864635;0.006551269;0.025859566;-0.23059943;0.049023796;-0.05688046;-0.10864345;-0.04551852;0.14039046;-0.0313688;0.17510754;0.12824114;0.19380106;-0.13115533;0.009021388;-0.016087264;-0.058121268;0.084810294;0.044132426;0.0955974;-0.023940222;0.084048115;-0.01895218;-0.014737729;-0.005610888;0.14042729;0.1471739;-0.17898713;0.1067659;0.042808086;-0.31120872;-0.058517773;0.0010472584;-0.028156726;-0.0039639203;0.073741056;-0.035141755;0.07612706;-0.062031623;0.1280927;-0.0745522;-0.0894085;-0.058529686;-0.044259157;0.22289927;-0.03496893;0.06281807;0.03562791;0.15162547;0.04488503;-0.044130355;-0.08308935;-0.12903886;-0.09193612;0.046863355;0.12188671;0.02631139;0.15175922;-0.013083403;0.046978626;-0.03339508;0.05438081;0.06542031;0.024318933;0.10035406;-0.18612899;0.014191532;0.056220174;0.045847133;0.0035486214;-0.10958885;-0.030355437;0.0034592908;-0.09338809;-0.021621129;0.24342397;0.01266518;0.0035559433;-0.02986201;-0.053945355;0.0037970378;-0.06750003;-0.07377162;0.107541546;-0.21379124;0.080891;-0.107798606;-0.0783262;-0.0032334258
-0.03770224;0.08493769;-0.0049176044;0.04445611;-0.17294458;-0.013162497;0.05135404;0.0076265037;0.13930178;-0.12829414;0.075015925;-0.021800697;0.08758698;0.21682513;0.15622215;-0.2976945;-0.16342318;0.095128275;-0.26803318;-0.011638656;0.09430995;0.10682466;0.15007657;0.14002281;0.034103494;0.11488198;-0.14131638;-0.028051715;0.03446221;-0.05342174;-0.045874078;-0.19145273;0.028707398;-0.16649225;-0.009962835;-0.10725851;-0.03249263;-0.27668074;0.07003107;-0.057581794;-0.043327905;-0.10094472;-0.15709767;0.21822442;-0.07557187;-0.026688479;-0.15990965;-0.023326444;-0.056150243;0.0024337524;-0.054851133;-0.04624181;0.118108526;0.07068658;0.044009373;0.05075537;-0.06864467;0.0027536307;-0.05751713;-0.09352787;0.013777043;0.078282945;0.17604932;-0.03731157;0.022905188;0.20738074;0.067282826;0.02714354;-0.19638604;0.36496064;-0.019350292;-0.14629778;-0.06476595;-0.15788293;-0.03257955;-0.032208297;-0.063992456;-0.15061627;-0.06832718;0.074186295;0.07472455;-0.03545075;0.011261472;0.20688006;0.0177089;-0.20871395;-0.08762632;0.07512588;0.08741818;-0.044891965;-0.19946364;-0.058421843;0.004868648;0.078034244;-0.09412215;0.23918927;-0.18489106;-0.101382755;-0.027571838;-0.03820772;0.006744475;-0.16757047;0.03529424;-0.08968562;0.12194299;0.032538965;-0.16088483;0.025232404;-0.05270188;-0.15717769;-0.073880844;0.024921242;0.11336133;0.028934855;0.12722386;-0.09697811;0.0677388;-0.03538509;-0.02465622;0.07508587;-0.08314233;0.15889019;-0.049107425;-0.118860215;-0.07436302;-0.00075047155;0.08765175;-0.12295631;-0.08906087;0.2070635;0.01868961;-0.27455682;0.023353927;0.11947915;-0.1083467;0.15442175;0.02874682;0.14141706;0.05309149;0.15081969;-0.015726874;0.034509707;0.071803;-0.1248209;0.11951331;-0.049924664;-0.19283143;0.0532014;0.19334489;-0.1996851;-0.26762053;0.032867335;0.028689163;-0.0237989;-0.17481707;0.07879145;0.17270751;0.01390188;-0.05069671;-0.06131604;-0.09589059;-0.013019995;0.09834585;0.0050412607;0.002910017;0.008765332;-0.0947313;0.039227277;0.09513984;0.010894003;-0.093925945;-0.049169272;0.19995631;0.15500338;-0.23280722;-0.01970882;-0.08316943;-0.2064252;-0.025913268;-0.15106714;-0.04805151;0.010617829;0.14248374;0.019471323;0.0049825697;0.123771;-0.09082558;-0.1603328;-0.0046177492;0.06690675;0.05029024;-0.18624538;0.14360802;-0.0023982541;-0.14301126;-0.21089625;-0.010672846;0.012403995;-0.092563905;-0.0088342745;0.09869048;-0.047953013;0.023966568;0.013269656;-0.0077407816;-0.07980101;-0.21240532;-0.023883745;0.084422834;0.0133625725;0.058473468;-0.13080248;0.0014834353;0.036080334;0.21051535;-0.020233745;-0.13569823;-0.3021538;0.065581694;-0.18430415;-0.032840177;0.11419188;0.34717005;0.061838858;-0.040609732;0.047562905;-0.016350279;0.06521045;-0.18883087;-0.08707355;-0.05909091;-0.04246562;0.0150093;0.031945646;-0.015234612;-0.03554506;0.042824086;0.10406883;-0.064650334;0.11714275;0.17645153;0.08821405;-0.24840456;0.07426885;0.14967953;-0.103774;-0.0008990386;0.13907737;-0.17374694;0.048883826;-0.1333595;-0.07949763;-0.029751169;0.08914343;-0.058052454;-0.000113495524;-0.017070832;0.05968655;-0.03159079;-0.29934755;0.036648147;-0.32177034;0.09916324;0.08368429;-0.027648227;-0.06821655;-0.041320153;0.09224162;1.0820804e-07;-0.14059511;0.10480505;-0.11229375;-0.11814421;0.098008975;0.14733803;0.045930218;-0.013746376;-0.04554154;0.15764736;0.15825364;-0.016908517;0.014500858;-0.21554786;-0.0042671203;-0.067607656;0.082734644;0.060790278;0.0028635163;-0.12578788;-0.019765733;0.25842685;-0.065509744;-0.111391455;-0.04659698;-0.14761205;-0.063800246;-0.17962775;-0.08315951;0.058923244;0.13708827;-0.086574435;0.042183645;-0.029867832;0.016192107;0.031611063;0.13780776;0.038038142;-0.16123398;0.10192484;-0.16160956;0.00034929323;0.13021478;-0.20835307;-0.12287077;-0.11332335;0.18498541;0.015916072;0.05361665;0.08555347;-0.15443152;-0.10101658;-0.16124584;0.108860664;0.087866366;-0.039856967;0.014052563;0.044772834;0.06382304;0.081179164;-0.03027938;0.041596845;0.05991502;-0.060744133;0.0075052143;-0.1102208;0.132132;0.03584374;0.029433107;-0.08756622;0.1942177;0.03563987;-0.16516672;-0.03539921;-0.08897438;0.1041743;0.15744577;0.056617253;-0.020213181;-0.08995913;-0.023343042;0.13715202;-0.18346822;-0.103127606;0.14195722;-0.08905546;0.10609634;-0.06875579;-0.0933312;0.06594165;0.028008685;-0.16518192;-0.07998228;0.11251726;-0.06630199;-0.0011971765;0.049899142;0.25886685;0.01293636;-0.11322911;0.018848093;-0.20504737;0.057270803;-0.11758724;0.1987545;0.09262375;-0.09258357;-0.13919;-0.11692919;0.15707889;0.078424215;0.11900107;-0.035738032;-0.15634178;0.053038392;-0.0939231;0.0224961;0.092661284;-0.044136893;-0.048437003;-0.068010904;-0.22382326;-0.10785419;-0.011520806;0.05850007;0.15900391;0.092051774;-0.064596236;0.0452321;0.09815373;0.18623859;-0.04916468;0.17982127;0.08284048;-0.020861657;-0.03747389;0.065465145;-0.03289439;-0.23788044;0.08406621;0.14818116;0.16056204;0.069697306;0.18995902;-0.017545948;-0.009978674;-0.23333271;-0.068557;-0.062321898;0.11527411;0.06594972;-0.094503485;-0.04769261;-0.13244745;-0.043322813;0.057238966;0.07423434;0.046716068;-0.0594085;-0.21746449;0.03025257;0.04152939;-0.114263475;-0.16319758;-0.020096488;-0.021444589;0.124814406;-0.022191027;0.18724073;-0.08818834;-0.10278811;-0.020179532;-0.04512193;-0.12650727;0.18317907;-0.097953275;-0.020057738;-0.06981858;0.03803207;-0.02707891;-0.14443928;0.18037136;0.07865593;-0.078717105;0.2031767;0.06478194;0.08053011;0.022454971;-0.04458776;-0.05983149;0.005083754;-0.10829629;-0.06314441;-0.007995917;-0.021341408;0.16448602;-0.16139641;0.047637366;-0.08543412;0.14011705;-0.027262997;0.0076955585;-0.004381848;0.058660023;0.04942515;0.0581925;0.13852003;0.03967982;0.012486095;0.053268187;0.0618975;-0.3441507;-0.055815347;0.080393985;-0.04059927;0.09975881;-0.17062317;0.16387415;0.016144397;0.10978016;-0.11000487;-0.13494617;-0.10047167;-0.1749691;0.093747005;-0.18468064;0.13774008;0.15138072;0.12638853;0.07745331;0.059135042;0.17217125;0.0041404916;-0.015327999;-0.029524801;0.065559864;0.04678935;0.07237038;-0.032692093;-0.07048876;0.1847444;-0.093603;-0.11906243;0.06949295;0.12556991;-0.11746493;0.11077541;0.13213734;-0.35694736;-0.13004437;0.11973289;-0.17916583;0.019116709;0.15787098;-0.053984668;0.015753482;-0.051369943;0.10309514;-0.010332341;-0.10966199;0.018958999;-0.1644936;0.16397172;0.037043106;0.23372826;0.11513845;0.06873636;-0.04920026;0.071686596;-0.04542191;0.039491676;0.07425889;-0.028396403;-0.021572364;-0.11376405;0.016182795;-0.12563866;0.038159423;0.076843545;0.003578929;0.11051118;-0.050612487;-0.020770812;0.05381119;0.002725635;0.03848424;0.00696088;-0.048281807;-0.051012732;0.10461446;0.07240336;-0.21466094;-0.09490743;0.074148536;-0.12074369;0.025699235;-0.0059220395;-0.11210687;0.06826082;-0.16888167;0.05971481;0.009237215;-0.09621471;0.11118742;0.017328767;-0.013389791;0.030822363
-0.12528193;-0.06127305;-0.104850724;0.031767134;0.069006436;-0.066831715;0.02859318;-0.0065759392;0.0123203695;-0.0038931202;0.107791565;0.0341065;0.025512282;0.08901034;0.0357596;-0.14495067;-0.032385748;0.025146404;-0.068017505;-0.08350646;0.03741118;0.113749504;0.15901531;0.0017666066;-0.08292822;0.08853725;-0.10383894;0.06904193;0.0049995324;0.026719265;-0.034994513;-0.035730038;-0.028477907;-0.03426741;0.07909863;0.04374298;-0.084998265;-0.23439942;0.0034107792;-0.08488204;0.0018450746;0.06579641;-0.11191678;0.11096042;-0.15254714;0.02251542;-0.11213699;-0.11416078;0.008746806;0.08318112;-0.085929975;0.036297984;0.10594993;0.035128262;0.008198545;0.03433986;-0.039327335;-0.036944967;-0.32022977;-0.001961613;0.036399405;0.037188772;0.033304084;0.06987152;-0.08898602;0.023159722;0.005743271;0.029510181;-0.14239614;0.31671086;-0.040350907;-0.21435037;-0.0649288;-0.054576904;0.06675275;-0.015829481;0.03527698;-0.19085868;-0.23520885;-0.064036325;0.029519016;-0.08507822;0.050131865;0.08416339;-0.09154057;-0.008928543;-0.018116241;-0.082346834;0.08316138;0.099428646;-0.21344899;-0.114576966;-0.03372205;0.08729132;0.027091872;0.19842742;-0.2888953;-0.24957472;0.17200212;-0.06242335;-0.049620163;-0.10178706;0.102807246;-0.01019216;0.18587345;0.034565743;-0.209248;0.006460667;0.07959559;-0.12618898;-0.08351454;0.1485595;0.12966876;-0.095703624;-0.02033351;-0.12087915;0.11214322;-0.19387595;0.028536994;0.077238254;-0.061936907;-0.03041598;0.078227796;-0.05182409;-0.08564431;-0.075146236;0.009186065;-0.076954566;-0.06928579;0.01926679;0.018084664;-0.04739871;-0.013713212;0.24362491;-0.1407548;-0.045047265;0.07262446;-0.084182635;0.07958234;0.021620922;0.032002248;-0.15947779;0.050966322;-0.033421244;0.017513175;-0.11337808;-0.032469492;0.116514474;0.20507875;-0.11336127;-0.03678663;-0.10580442;-0.053735595;-0.02848619;-0.21988617;0.04050666;0.032898698;-0.04787967;-0.040164627;-0.04088705;-0.051845394;-0.16983764;0.12604171;-0.101833984;-0.001496512;0.023674257;0.055627637;0.035393815;0.14474337;0.1770153;-0.051319845;0.046403933;0.1332778;0.15846662;-0.12842813;-0.17170583;-0.1656198;-0.06813908;0.025069417;0.043292284;0.13666962;0.057304375;-0.0076981722;0.08729503;-0.0011804126;0.07332522;0.06335092;-0.14843704;-0.033693347;0.082005255;0.03226783;-0.06012892;0.060670882;0.07710381;0.028492985;-0.05290213;0.06796737;-0.048652273;-0.106878355;-0.045059208;-0.0049597207;-0.038364068;0.0015499066;0.18892197;-0.1311315;0.0059568267;-0.123396106;0.025942052;0.094210565;-0.0008204093;-0.014259131;-0.1216324;0.111513436;0.18520743;0.124955155;0.016391361;-0.1969389;-0.35829636;0.028826585;-0.13072126;0.034850355;0.034151983;0.34555647;0.0065491213;-0.018568538;-0.121893495;0.13605508;0.026978709;-0.061933517;-0.15166548;0.08826571;-0.038963858;-0.13381533;0.004693242;0.1075364;0.109399825;0.051071934;0.055223018;0.09631248;-0.09019104;-0.03827937;0.08188571;-0.0744649;0.16566138;0.06452365;-0.04383294;-0.023141826;0.16844341;-0.03460279;-0.07275043;-0.03015777;0.0073766788;0.06715322;-0.06574128;-0.10276585;0.05968057;0.020259105;0.103398986;-0.22993696;-0.32025594;0.06102309;-0.4618304;0.04891337;0.1240638;0.08410852;-0.012841897;0.032825448;0.17144054;0.047708713;-0.06675565;-0.06754809;-0.054124504;-0.10318586;0.07059503;0.1779011;0.15155509;0.016036347;-0.07581632;0.08663708;0.042268362;0.06114008;0.13058512;-0.09624215;0.059342228;0.027965004;-0.02730913;0.0018012712;-0.09442237;-0.044388816;0.08048724;0.104534626;0.08710781;-0.004324496;0.04975855;-0.08354112;-0.13149631;0.01667983;-0.03390086;0.1570211;0.06938049;0.006659812;0.1460704;-0.079858854;0.16114475;-0.021392183;-0.10897338;-0.030334728;-0.0466525;0.024074672;-0.004942199;-0.112404585;0.014369903;-0.19600736;-0.081731744;-0.09101515;0.13471042;-0.044894144;0.0015496009;0.03527165;-0.14617357;-0.07458176;-0.09820663;0.054500107;0.16084038;0.043831345;0.08791113;-0.114419036;-0.15753599;0.0024936767;0.00645155;0.10580559;-0.018516885;0.027823405;-0.047297884;0.016883455;0.104086906;-0.008692082;0.09155126;-0.07174665;0.0900916;0.10210626;-0.113050066;0.012268332;-0.15324923;0.10285338;-0.007137739;0.09755092;-0.0419752;0.07405543;0.12047726;0.010770137;-0.09108079;-0.011410542;0.1309325;-0.045697965;0.22540343;0.03410266;0.097229384;-0.109746054;0.08325005;-0.17236719;-0.007777053;0.02264239;-0.1579144;0.037085112;0.09706509;0.22049592;0.22769384;-0.21552926;0.016820736;0.08665787;0.055413224;0.014704109;0.19663925;-0.09480038;-0.028355962;0.06535777;-0.16663952;0.044196036;-0.028489346;-0.025117783;-0.011981202;-0.21519996;-0.14802481;0.07143024;0.07055453;-0.07832559;-0.08511094;-0.101470195;0.017920338;-0.09415258;-0.030892678;-0.12999152;-0.045913685;0.03911848;0.18498556;-0.054632008;0.22978258;0.03907294;0.28543568;-0.1650009;0.16867515;0.029168703;-0.018006196;0.0053828154;0.041526843;0.035066273;-0.082160145;0.08792478;-0.036464453;0.11620177;-0.002981169;0.15762965;-0.11935023;0.15208156;-0.08239379;-0.068740845;0.12023679;-0.010895173;-0.13198504;-0.10371371;-0.18548687;-0.059051957;-0.09330678;0.08192763;0.12860422;-0.037699386;-0.031598616;-0.16083884;0.05066272;-0.047663353;-0.1307611;-0.21381503;-0.12528911;-0.027102038;0.08876774;0.08316225;0.04117369;-0.1305973;-0.04084689;-0.0056323144;-0.13864893;-0.14637074;0.1983312;0.043797188;-0.031347673;-0.040304694;-0.057745602;-0.025974952;0.008822537;0.19063134;0.119784646;-0.055703185;0.17949721;0.0915855;-0.02207881;-0.07536354;-0.1121916;-0.09259118;0.10592581;-0.12976275;-0.02791254;-0.16618696;-0.11623213;0.18465179;0.03026403;0.009978317;0.02748592;0.14528123;0.10508095;0.06342006;0.07071298;0.10240533;0.10808653;-0.03785739;0.1356108;0.040065676;-0.057920586;0.11204168;-0.07888638;-0.08493012;-0.019533616;0.1621481;0.030624775;-0.013359173;-0.05330121;0.12511997;-0.07504451;0.15313488;-0.018088285;-0.0511797;-0.041212145;-0.14842814;-0.051731642;-0.13755354;0.09442055;-0.015634237;0.11477546;0.10195097;-0.038336735;-0.003342836;-0.028646994;-0.06707146;0.09547212;0.049282692;-0.013840364;-0.17829971;-0.08202182;0.09938109;0.0031884043;0.16982974;0.031221626;0.013247684;0.094649106;-0.010116765;0.10198286;0.16610914;-0.2247338;-0.1362656;0.060599506;0.055607658;-0.09838761;0.04828235;0.00028224767;-0.017449345;0.07579758;0.06083775;-0.006897688;0.03565715;0.1081079;-0.17881179;0.060708035;0.09233671;0.16699538;0.20186888;0.08177333;0.0031689017;0.059036765;0.027569834;-0.050904337;-0.17834985;-0.020444762;-0.03649729;-0.11031425;-0.037379097;-0.1260584;-7.483682e-05;-0.009759481;0.028577678;0.03770896;0.08535941;0.12839071;0.0408425;-0.03101216;0.018914936;-0.025353646;-0.08070414;0.05910535;0.11495422;-0.14403155;-0.09570374;-0.07581788;0.12954547;-0.10879943;-0.005376079;-0.023252485;-0.007328394;0.11086038;-0.31904677;-0.115998626;0.06021262;-0.0303211;-0.04925309;0.026825536;-0.05897345;-0.054774173
-0.038188513;0.026426129;0.002745497;0.049752004;0.053285304;-0.111202165;0.007438965;0.030514348;-0.009768029;-0.12523144;0.059802722;0.054216694;-0.16998279;0.012227734;-0.0013216699;-0.10803979;-0.09755049;0.036694214;-0.15061562;-0.004499977;-0.024869824;0.093392015;0.067367196;-0.010482078;0.055636764;0.05379278;-0.13503143;0.088419504;-0.0035359918;0.1520056;-0.038298864;0.022883587;0.021341776;-0.026968708;0.02926781;0.08421125;-0.042205844;-0.21342587;0.00072752166;0.0512509;-0.054534327;0.099853404;-0.14270644;0.04738982;0.013867558;-0.04932863;-0.027844658;-0.17740911;0.0718897;-0.08011376;-0.15013234;-0.071955;0.17639773;-0.076457225;0.12961079;0.07043029;-0.02371487;-0.021966554;-0.35175636;-0.044734888;0.12694766;-0.04097092;0.23875627;-0.09576734;-0.062491246;0.12529123;0.07354994;0.13985936;-0.1266481;0.18968561;-0.04325066;-0.121294215;-0.12877372;-0.14714633;-0.089656964;-0.011780947;-0.034608364;-0.020133877;-0.2881568;0.009946295;0.10679654;-0.025894487;-0.07187936;-0.020942667;0.0016799351;-0.05732975;0.03768123;0.13122058;-0.008998898;0.071995646;-0.27670956;-0.062687896;-0.09171958;-0.07072608;0.050940517;0.1202185;-0.17410235;-0.21210805;0.116340086;0.056374364;0.09251795;-0.20116009;0.040778548;0.020671578;-0.009192822;-0.0031315812;-0.16454394;0.105200954;-0.0074855583;-0.15806817;-0.021335028;0.107801124;0.10910572;0.08015287;0.08782199;-0.027231127;-0.008745543;-0.050258256;0.033377174;0.22325377;-0.08860432;0.099395916;0.039592728;-0.034055453;-0.06306217;0.017716026;0.13853844;-0.21746878;-0.106205285;-0.024848709;-0.023507748;-0.010023839;0.058649383;0.20561393;-0.06961703;-0.02125083;0.07181163;0.04986887;0.21101068;0.070877;-0.08855634;-0.06251853;0.025770314;0.049422864;0.117555834;-0.016702905;-0.03856325;-0.0387924;0.25176263;-0.0015936246;-0.16845262;-0.07388284;0.012599136;-0.11760748;0.009155061;-0.05220079;0.11291878;0.07636837;0.033209193;0.025000496;-0.0773563;-0.17943779;0.0073808264;-0.08079959;0.019009877;0.019719258;0.13330983;-0.052201726;0.11750321;0.029959137;-0.12735993;-0.031133058;0.1562941;0.09881717;-0.030053584;-0.14950907;-0.0148613695;-0.15169166;-0.059443533;-0.04296245;0.10227718;-0.16096267;0.11234245;0.09681434;-0.059127036;0.05444586;-0.047256943;-0.10916467;-0.061473474;0.042885326;0.09068388;0.025443323;-0.069273554;-0.1158985;-0.0027027158;-0.15146661;0.032682575;-0.018140472;-0.010087773;-0.06467815;-0.039126765;-0.098073095;-0.07913184;0.024955941;0.00024992062;-0.0416644;-0.22088097;0.07337181;0.078673914;-0.008317548;-0.045181368;-0.044489495;0.1274544;-0.027198453;0.039034672;0.041137144;-0.018310696;-0.38254836;0.06280887;0.120137215;-0.07100252;0.040224403;0.29370183;0.032316726;-0.0032841146;-0.08540333;0.21573704;-0.027515953;-0.1265522;0.008175323;0.09017368;-0.10748046;0.027236274;0.16566671;0.095970295;0.10530132;0.03038038;0.024505997;-0.0038774328;0.092931904;0.15235558;0.10502037;-0.12015529;0.08103714;0.14455637;-0.07779008;-0.2072834;0.15773174;-0.0669492;0.07287105;0.11498757;0.16216895;0.08476429;-0.12347872;0.038174737;0.12261699;-0.01189583;0.11586233;-0.14434212;-0.22775526;0.038807485;-0.3948239;0.0038896322;0.2161358;0.05105;-0.12254813;0.032352634;0.08577142;0.03614658;-0.100145854;-0.078229055;-0.049263597;-0.21857837;-0.00870154;0.20747621;-0.048601247;0.06834471;0.02302855;0.0036976354;-0.10233817;0.08221728;0.11870196;-0.085557185;0.061636593;-0.016734505;-0.03653377;-0.15854941;-0.010959451;0.06547107;0.048886262;0.27105513;0.15204476;0.0027493658;0.15015566;-0.02453682;0.027784398;0.09885556;-0.048694298;0.21743743;0.10669489;-0.019533087;0.13730589;-0.09034635;0.056838363;-0.044135712;-0.077401616;-0.20034894;-0.11721485;0.016847476;-0.015009126;-0.080268115;-0.030985005;-0.10203619;0.08892407;-0.061238017;0.11666677;0.06921685;0.06537242;-0.11756464;-0.07674347;0.07670683;-0.021907773;-0.06864053;0.20993093;0.15958829;-0.034171782;-0.09204187;-0.003079124;0.0921808;0.021295745;0.13958271;0.0028270592;0.059781272;0.0665053;0.076737136;-0.01297591;-0.060299683;0.05528024;0.09502414;0.18343121;0.02337302;-0.12589704;0.1714967;-0.030238923;0.067280784;0.004374593;0.07320598;-0.0521579;0.07504657;0.13522579;0.020934895;-0.08223163;0.037976544;-0.011838247;-0.067362435;0.094735615;0.04939444;0.09534635;0.014283238;-0.028750807;0.038050402;0.06658381;0.055444546;-0.090285294;-0.018612308;0.121592805;0.13621685;0.08402839;-0.03951283;-0.07763499;-0.06235521;-0.028264444;-0.087541305;0.028479973;0.06497704;-0.012316038;-0.1289949;-0.053815708;0.13556205;-0.08762488;0.01261946;0.03586167;-0.082730904;0.094823025;0.04642626;0.008814362;0.08025024;-0.13845529;0.07337493;0.026356338;-0.12772687;0.04788855;0.026908917;-0.068448685;0.036365986;0.14435013;-0.109864384;0.039785657;0.05044409;0.20614794;-0.019174524;0.06821505;0.08728069;0.13240142;0.006881398;0.00019917931;0.010154643;-0.15035382;0.12836823;-0.01966056;0.13417633;-0.084403984;0.14776593;-0.13878678;0.0065723704;-0.045550287;0.022294374;0.07664294;0.11892135;-0.064861864;-0.019953799;-0.01690642;-0.19408123;0.04958395;-0.008564437;0.09372254;-0.090106934;-0.0726117;-0.1793531;0.12494239;-0.03162802;-0.091191284;-0.09078019;-0.11586056;0.008016682;-0.003056727;-0.1147744;0.056771506;-0.17076524;-0.05301934;0.0006568412;-0.14189656;-0.2158101;0.24224131;-0.025394807;-0.014120743;-0.02998107;-0.20727281;-0.18537302;-0.03364137;0.16935287;0.11238106;0.08514238;0.2520082;-0.03861934;-0.030902456;-0.13972914;-0.1437103;-0.15815356;0.014030747;-0.10224688;-0.11361857;-0.10061901;-0.19345923;0.16509731;0.004604847;0.008281175;0.034978867;-0.04790014;0.10979837;0.062342018;0.0028486075;0.046448845;-0.056219798;0.02146498;0.18754154;0.09057413;0.02941017;0.093474515;-0.048973363;-0.09660984;0.11393622;0.034554787;0.014739642;0.15634592;-0.19823976;0.08779234;-0.0059298645;0.1288383;-0.03828883;0.06870043;-0.008764168;-0.24307673;-0.05736847;-0.15263958;-0.003814509;0.096627936;0.029305799;-0.02368092;-0.05784174;-0.07006805;0.044846203;-0.061305624;-0.064152114;0.04786426;0.082049906;-0.06789894;0.0047323056;-0.07451428;0.024328576;0.0989803;-0.026447887;0.058609586;0.037530355;-0.08973414;-0.060062673;0.13201325;-0.3212241;-0.26667258;0.1384405;-0.18720421;-0.086337015;0.13816072;-0.025542626;-0.07129816;0.02016754;-0.02536199;-0.04938096;0.050676756;0.03492463;-0.16368584;0.02713915;-0.06642877;0.14011979;0.091535;0.12631771;-0.03976536;0.17568912;-0.07090716;0.017617438;-0.1138769;-0.020869378;0.11201909;-0.021572255;0.036496937;-0.10686623;0.14332692;-0.08073834;0.08640199;0.101970814;0.015281322;0.04716152;-0.019751197;0.048627105;0.021789506;0.00041698356;-0.012745396;-0.060892507;0.050115597;-0.18751618;-0.10300268;-0.10068187;0.09115341;-0.1327717;-0.04177901;-0.15632522;-0.15277663;0.16117457;-0.20084547;-0.15502736;-0.015041213;-0.03291819;-0.0493748;0.018473683;0.05347347;0.085203476
0.008829967;0.055930976;0.12614526;-0.047988877;0.088967346;-0.18642603;0.016177028;-0.1335793;-0.0372536;-0.04039527;0.06941582;0.1294692;-0.14788109;-0.016716575;-0.078491665;-0.093439415;-0.1878934;-0.07025102;-0.10288064;0.05296988;0.0247708;-0.048795905;-0.05595476;-0.06807108;-0.09451572;-0.046570417;-0.015118663;-0.08873986;-0.09365284;0.10375879;0.008313156;-0.07944707;-0.08118487;0.062199853;0.23759058;0.044508338;0.111831;-0.3359429;-0.02536381;0.0040007927;-0.20782757;0.09934191;-0.017221482;-0.06474595;0.10151839;0.1694924;0.0637785;-0.16443644;0.14603475;-0.058900777;-0.19492868;-0.14081536;0.09285891;-0.02941138;0.099259794;0.084802955;-0.22203925;0.10297798;-0.19445436;0.01153229;0.031777814;-0.03713361;0.07034169;-0.07224301;0.114321075;0.0027168815;-0.010626409;0.09592958;-0.06640211;0.11034443;-0.040628728;-0.22029498;-0.098381504;0.024436662;0.039891817;-0.07313163;-0.107026994;-0.112274215;-0.0064854333;-0.03667334;-0.0037085013;0.07069851;0.15075283;-0.066922486;-0.0713008;-0.0825553;0.0035627375;0.04791201;0.06066388;-0.020817792;-0.1565084;-0.1464087;0.08106616;-0.053815678;0.25251278;-0.09888408;-0.05875858;-0.12916788;0.096739285;0.07600318;-0.011402438;-0.0028054016;0.11862569;-0.03268148;0.0911237;0.30243856;-0.13541374;-0.010502063;0.08617964;-0.22699688;-0.10184713;-0.079719916;0.009530173;0.23668674;0.0221785;0.07901933;-0.050096937;-0.2136618;0.08220272;0.20834744;-0.014615037;0.025185922;-0.1174266;0.092802785;0.012473385;-0.029704517;0.26447275;-0.00223223;0.07887515;0.04330321;-0.010980718;-0.042922348;-0.02583607;0.22092667;-0.025180306;0.019355489;-0.0375793;0.12649308;0.08626967;0.016338607;-0.23507826;0.03373842;-0.06600085;-0.0542776;0.056173757;0.09382786;-0.015082665;0.01720635;0.10253997;-0.062933095;-0.08341044;-0.056320135;-0.023458514;-0.08604852;-0.08181942;0.008720058;-0.042972896;0.19611646;0.07875492;0.100870274;0.044682328;-0.17147078;0.0645318;-0.20573635;0.18232328;0.04015199;0.060277827;-0.06844147;0.016555725;0.13121079;-0.19825134;-0.08796854;-0.05945302;0.2265041;-0.04571648;-0.20285346;0.039708916;-0.19531408;-0.1974985;-0.012764212;0.053754818;0.021810016;0.08305411;0.081931345;-0.2073338;0.065427266;-0.013016838;-0.00025233335;0.06484132;0.05807391;0.020250529;0.050837487;-0.08674272;0.09537253;-0.07695559;0.049303748;0.13559385;-0.0050523477;-0.0051293387;-0.0944457;0.035920806;0.01710189;-0.009497731;0.00030610032;-0.043847214;-0.034333967;-0.14790578;0.13158461;0.014799413;-0.02523223;-0.13324896;-0.13702664;0.049645226;0.11681922;0.15622808;-0.020227633;-0.092571944;-0.14605;0.019637752;-0.0709661;-0.14189194;0.10533033;0.19315165;-0.021499416;0.137857;-0.081943646;0.16974086;-0.040825553;0.07926125;-0.10376488;0.036675207;-0.11196327;-0.06846636;0.16831458;-0.057990275;0.12230122;-0.18064968;0.102087356;-0.17361577;-0.113149285;0.14168566;0.117407;-0.076706804;0.077554;0.04944594;-0.062367324;-0.24482344;0.122290045;0.048625436;-0.052899666;-0.09346362;0.21125293;0.12929992;0.058124956;-0.046966277;0.060738366;-0.13825308;0.15438625;-0.19260773;-0.1722342;-0.029578421;-0.30286646;0.08028151;0.2293563;0.06858766;-0.103725925;-0.00606017;-0.042392816;-0.044597127;0.051317725;-0.0828447;0.063422;-0.006103556;-0.09201523;0.121781245;-0.008793567;-0.07884337;0.005741231;-0.16911186;-0.036764227;0.07904032;-0.072389886;0.07674349;0.16319452;-0.12783511;-0.20993789;-0.040655106;-0.11925034;-0.009418719;0.07378687;0.12556341;0.03133572;-0.020007264;0.089896;-0.024311883;-0.11765818;0.04418221;0.020510834;0.06786315;0.09857168;-0.18625757;0.02985243;-0.035374966;0.06946601;0.012577126;0.03794852;-0.024459798;-0.07831007;0.052374575;-0.009744452;0.007317031;0.067331456;-0.15033877;0.072583646;0.043192603;0.022122419;0.18413359;0.04492849;-0.09175762;0.033198636;-0.045407116;0.05853442;-0.038916588;-0.023624277;0.13381915;0.119422734;-0.079891905;0.0584414;-0.1110747;0.1453186;0.05642404;-0.14713508;0.05988798;-0.046902735;0.22770122;0.01068102;-0.22498572;-0.07607187;-0.08879615;0.17617728;-0.06760258;-0.031928267;0.17968027;-0.06139685;0.026067508;-0.17158653;-0.041159935;-0.18966356;0.08311778;0.13308468;0.06760399;-0.10503107;0.15446271;0.13660233;0.01775071;-0.08339564;0.11473762;0.044133108;-0.03995973;0.02879514;-0.09631974;0.0020329847;0.1515248;-0.07403722;-0.003552463;0.048273496;0.15331434;0.1251652;-0.10612213;0.05265672;-0.09617034;-0.13293804;-0.13933396;0.042608444;0.22229274;-0.04832621;-0.23083976;-0.12511258;0.26692045;-0.1332769;-0.02506384;0.099786416;-0.12106849;-0.024557909;0.12026835;0.19980551;0.012769353;-0.006877335;-0.04565188;-0.13504022;0.018067949;-0.042563174;0.11310036;0.096880436;-0.058361124;0.13319576;-0.1774941;0.11411679;-0.035751153;0.102601744;-0.16821712;0.21038438;0.15650377;0.037261512;-0.014384062;-0.069534644;0.056225207;0.039920222;0.17439237;0.0029816816;0.17887676;-0.16063884;0.20748234;-0.09896599;-0.06629225;-0.1743633;-0.01113348;0.09921737;0.04436908;0.008111803;-0.039983947;-0.08946557;-0.17143421;-0.05844623;0.0060248375;0.012058476;0.035956364;-0.03979323;-0.044740055;0.26657662;-0.19312893;-0.14381063;-0.0969901;-0.03373511;0.05908119;0.02793933;0.02209538;-0.06884643;-0.07327405;-0.0058255596;0.03419826;0.00876611;-0.2046478;0.28083774;-0.062140536;-0.09449865;-0.097041324;-0.18827437;-0.0585669;-0.073357634;-0.014795682;0.09299597;0.041444376;0.10286546;0.04353517;-0.043965317;-0.05333139;-0.12670892;-0.08720378;-0.11247218;0.058438446;-0.15004614;-0.15666756;-0.11883258;0.10086565;0.090987235;-0.058030587;0.019561397;0.0283203;-0.01721315;0.06302356;0.032086395;0.113584414;-0.017484022;-0.01374337;0.03670094;0.22951728;0.012328548;-0.012051484;-0.05736381;-0.06741296;0.052545767;0.1323343;0.07836799;0.041831665;-0.05331043;0.12049445;-0.023490965;-0.0023190693;0.061541047;0.107397765;0.024121325;-0.075005606;0.0014014263;-0.042391323;0.020168595;-0.029121459;0.18249083;0.045337662;-0.041705113;-0.11869611;0.04640075;-0.20614618;0.17227958;0.093457356;0.040649377;-0.1185094;-0.016971013;0.02190826;0.029411038;-0.08096395;0.028680991;-0.16886653;0.019133873;-0.13631332;0.03779236;0.062274076;-0.4759688;-0.29151616;0.041134268;0.036884997;-0.08180673;0.11984038;-0.09355406;0.02454476;0.045530714;0.029237866;-0.18335298;0.06490549;0.10220361;-0.17393519;-0.06586678;0.088326715;0.17622821;0.011006061;0.045597047;0.054730397;0.10063343;-0.109280445;-0.012179233;-0.17744973;0.04219578;0.19740596;0.13290739;-0.099112086;-0.120938666;0.17093337;0.07632997;0.07107437;0.021572724;0.07127514;0.022394164;-0.08504085;-0.06782731;0.00011571833;0.020133317;-0.039421577;-0.015046049;-0.08863837;-0.020788655;-0.13980421;-0.051241096;-0.0470912;-0.282642;-0.18499778;-0.14350067;-0.08674743;0.1633093;-0.148561;-0.20921636;0.041285828;0.03474505;0.07603924;-0.0014933231;0.0302084;0.1619568
-0.18412894;0.043937154;0.1685938;0.14395532;0.081874356;-0.18710114;0.018248849;-0.04935313;0.15373741;-0.0008234549;0.15873067;0.08804118;-0.15840767;-0.0024042646;-0.16766186;-0.08396571;-0.07030733;-0.03137678;-0.07787532;0.025383124;-0.089835;0.112110466;0.10771595;-0.20487873;-0.0110291755;-0.089448914;0.06433329;0.10359106;-0.02258886;0.022429276;0.20119187;-0.051407184;0.0074489336;-0.059053533;0.23810889;0.13771473;0.060944617;-0.2057509;-0.06528708;0.014894113;-0.12694892;0.07954885;-0.039950516;0.06548783;0.054923713;0.10423989;-0.15231071;-0.035429474;-0.051373534;0.044531472;-0.20970035;-0.120690726;0.12609099;0.029060377;0.19004051;0.20441122;0.07423282;0.13943222;-0.13201344;0.07076802;0.08771333;0.012852727;0.021600027;0.041683216;-0.028811939;0.08714264;-0.067710966;-0.081331536;0.0036840718;0.14515781;-0.058483943;-0.09465926;-0.017120346;-0.1595157;-0.13372909;0.058251895;-0.19666298;-0.18344703;0.059056357;-0.014231867;-0.002369851;0.02215714;-0.0054626493;-0.019252531;-0.010799104;-0.08297641;0.010066671;0.0046133692;0.025988668;0.03321852;-0.09424926;-0.1674829;0.013862623;0.112855114;0.073557176;-0.06766883;-0.13604888;-0.11494223;-0.012256501;0.11767107;-0.07387541;-0.13727967;0.029602822;-0.03781782;-0.04861602;0.20094936;-0.07678933;0.08067583;0.18897681;-0.025024341;-0.16991255;-0.047636196;0.09538813;0.13768592;-0.060853947;0.021950752;-0.060224425;-0.06429502;0.034468673;0.22278027;-0.13055313;0.108064175;0.07958471;-0.04723094;-0.070649035;0.22775292;-0.08364585;-0.029447833;0.030538183;-0.00024327656;0.112688296;-0.065125026;-0.029821774;0.06341657;0.094247505;-0.006673261;-0.008526209;-0.0025938204;0.2098596;0.07492741;0.07485898;-0.11257221;-0.036392923;0.06818593;0.19755064;-0.17875126;0.062046267;0.030486448;0.29020107;-0.148096;-0.18690781;-0.022269262;0.044440225;-0.1423267;-0.10150462;0.03630651;0.0080121;0.100991964;0.045634497;0.032127287;-0.03689714;-0.016945284;-0.009347274;-0.06817215;0.09137766;0.09613782;0.043865927;-0.038613822;-0.11779133;0.18939316;-0.091474466;0.13285805;0.0039145113;0.13674188;0.050551903;-0.050632637;-0.00778523;-0.2231101;-0.042069297;0.10502752;0.08402328;0.07980404;-0.07104527;0.01614503;-0.22763246;0.029372308;-0.103293434;0.03874322;-0.015850358;0.20063104;0.114686996;0.14060615;-0.036078166;0.13791524;0.001090907;-0.050023593;-0.06737162;0.10593721;-0.077379845;-0.026795601;-0.028476333;-0.083036356;-0.006822682;0.12111091;0.055599086;-0.062028978;-0.057837807;0.026510626;0.07488129;-0.063408315;0.09083224;-0.038752995;0.068659484;-0.034688078;-0.106879786;0.004857889;-0.009457257;-0.026552508;0.029811459;0.033428095;-0.1487135;0.16459978;0.080121964;0.011495725;-0.121006906;-0.12876534;0.17955402;0.0066735544;-0.023732765;0.016351277;0.022026287;-0.056700144;-0.010343264;0.21262126;0.063366115;0.01385407;-0.15836537;0.02185623;0.079037815;-0.07450553;0.22019145;-0.06917094;-0.05870936;0.0019440837;0.028546484;-0.027140455;-0.041218508;0.0016146566;-0.092757694;-0.036994256;0.07255852;0.10142778;0.123697184;-0.12868915;-0.0038224105;0.16033679;-0.05131555;0.061639786;-0.17942056;-0.16294105;0.12974702;-0.28271815;-0.040858336;0.16526988;0.17082188;0.01962943;-0.055230193;-0.0037732199;-0.016532736;0.09479834;-0.12334076;-0.04750976;-0.03795963;0.032391343;0.095152766;-0.11075676;0.06321138;0.11317354;-0.17901342;0.061969187;0.061002605;-0.04449462;-0.057701148;0.123591065;-0.0053395447;0.055260587;0.016590832;0.04336862;-0.09496895;0.103845395;0.17968602;-0.060268298;0.039538354;0.039290976;0.005968369;-0.16196278;-0.0326341;0.0140558295;0.020750102;0.08369559;-0.088974394;0.09276164;-0.018156014;0.032072145;0.10083672;0.06496923;-0.091650784;-0.17371741;-0.013248295;-0.18961582;-0.08109267;-0.04720239;-0.012899538;0.1276335;-0.008415275;0.1390765;0.16528589;-0.027535832;-0.07286834;0.17078471;-0.079537116;-0.06749836;-0.1939686;-0.007230021;0.120810874;0.057951525;0.010994274;0.13827945;-0.05857661;0.0568299;-0.04500928;0.08867192;0.0077597555;0.053555213;-0.040245477;0.08337039;-0.039311524;-0.1120109;0.01656922;0.22799186;-0.042649522;-0.16077378;0.18688405;0.016353132;0.061007567;-0.07361579;0.019481285;-0.013059406;0.031646404;0.20181186;0.05955488;-0.061093546;0.08654427;-0.05996127;-0.05100396;-0.03841556;0.23652177;0.02634485;-0.067043185;-0.070623845;0.015290993;-0.08070488;0.10812614;-0.04723393;0.10229851;-0.020377347;0.19014266;0.041799285;-0.23324575;-0.11297149;-0.0616038;-0.12648733;-0.15159377;0.007671835;0.1618189;0.04580156;-0.02278408;-0.022547785;0.11085567;-0.017256696;-0.13492621;0.14446242;-0.08172961;-0.031703312;0.0108022075;0.08642219;-0.1929307;-0.06703122;-0.003495036;-0.18069607;0.009015297;-0.0010908272;0.050474934;0.07498856;0.0143186245;0.023782233;-0.13065277;0.013596979;0.04088284;0.20894288;-0.17612043;0.12440701;0.11160043;0.022458924;-0.06896606;0.010942634;0.11780747;-0.058846213;0.24192151;0.062397335;0.097013116;-0.18593723;0.32769454;-0.12484085;0.051778287;-0.17475317;-0.05138129;-0.007846099;-0.08499512;-0.039931472;0.0047101458;-0.05570722;-0.17348334;-0.0022393863;0.11884354;-0.022965461;-0.16534933;-0.043039303;-0.080832876;0.15102346;-0.18131916;-0.03064827;-0.12132044;-0.09900467;-0.023580581;0.04721362;-0.039369117;-0.06865269;-0.12682724;-0.0072905547;0.013606015;-0.114357136;-0.20843966;0.14686456;-0.061887585;0.032668885;0.0073989197;-0.087073505;0.013861585;0.08747428;0.08608534;-0.0371688;0.035235196;0.13162486;0.19293082;-0.050949577;-0.069749445;-0.053499527;-0.08621138;-0.07002088;-0.0027567598;-0.024902115;-0.08503853;-0.02575676;0.15270774;-0.04066241;-0.07291618;-0.007898457;-0.16986763;-0.1256072;0.039121244;0.08904541;0.07542293;0.015104268;-0.029235397;0.025245665;0.10888106;-0.02816816;-0.13964751;-0.09022767;0.17701459;0.06773298;0.104701765;0.13989371;-0.07923287;-0.080547415;0.15375312;-0.12590428;-0.103320725;-0.060829677;0.0922589;0.025360279;-0.16819087;-0.089033976;-0.10941461;-0.08004546;-0.07195742;0.007063326;0.19182697;0.053257342;-0.10227692;-0.018801214;-0.15139371;0.095040165;0.053944167;-0.08491539;0.06415935;0.024613092;-0.0976217;0.022057459;0.03156224;-0.013451448;-0.2367116;-0.12704447;-0.005540432;-0.04158355;0.1607106;-0.28456703;-0.03253574;-0.0049513993;-0.09366037;-0.121955544;0.2027859;0.03467974;0.017172122;0.04663599;-0.01009876;-0.04685332;0.027673027;0.17770562;-0.10158147;0.0064705713;0.07322541;0.16887322;0.025174748;0.04317755;-0.08426558;0.04171189;-0.0021032384;-0.12540601;-0.16670188;0.038156983;-0.01049176;-0.045499526;0.036846437;-0.020166364;-0.021146916;-0.1285048;0.16555488;-0.16777119;0.024721175;-0.009190915;0.052835915;-0.10673333;-0.033037063;-0.0103386035;-0.11493756;-0.07969981;0.10543624;-0.07377345;0.05569643;0.073928826;-0.04992052;-0.12965785;-0.09113385;-0.19190821;-0.15122627;0.05113267;0.0056494507;-0.13199884;0.0656527;0.10210467;0.07239006;-0.12294198;-0.036341287;0.23303567
-0.11066367;0.039214805;0.1629204;0.13881418;0.020430906;-0.101165704;0.028028768;-0.041714523;0.0034833576;0.069662124;0.00698599;0.10303822;-0.13344917;0.018922558;0.01067058;-0.15923269;0.07347191;0.077233575;-0.07924984;-0.10423532;-0.034403853;-0.03272968;0.027676258;-0.027920462;0.09763437;-0.0548537;-0.10388974;-0.14268196;-0.05551426;-0.11068596;0.042259354;0.04394401;0.070319355;0.022788089;0.1475504;0.14244102;0.06336349;-0.42777875;0.07224903;0.07981084;-0.119069636;0.07321075;-0.14679201;-0.06808702;-0.05670324;0.123476334;0.03440822;0.023986325;0.08139581;0.047676608;-0.24005392;0.034720715;0.07873529;-0.005404304;0.15150495;0.13499896;-0.0044453605;0.07891724;-0.0047578234;0.084461294;0.0843601;-0.10398064;0.10517881;-0.045464475;-0.1461465;0.29896337;0.007463966;-0.0135207735;0.08309263;0.123688534;-0.16071242;0.08467943;0.08035543;-0.055412684;0.0020101145;0.071978785;0.0042536147;-0.0005907301;-0.0901814;-0.12144406;-0.009650909;0.022518052;0.09472674;0.016302317;0.009718625;0.021555826;-0.015478439;0.06971187;0.08137192;-0.02783924;-0.1854596;-0.20246188;0.016507588;0.14717434;0.04077961;-0.04143975;-0.15009592;-0.06556468;0.031033918;0.017054208;-0.095748805;-0.1332437;0.045588408;-0.018780332;-0.11919549;0.18794487;-0.11584214;0.0678797;0.07957232;-0.020444268;0.03379409;0.0033218602;0.034945413;0.16484724;0.019384725;0.026990341;-0.08739076;-0.009774744;0.008827073;0.11673645;-0.13876109;0.13404042;0.054102816;0.010092213;0.0069789565;0.13527797;-0.030852905;-0.065779746;0.033968575;-0.05612053;0.05210476;-0.23467876;-0.065633245;-0.010498676;0.02280521;0.13093913;-0.09022838;0.11147717;0.16346018;0.053873736;-0.06450781;-0.0143159535;-0.04872978;0.068895355;0.23514086;-0.04255024;0.1407513;0.06878707;0.07913016;0.053959448;-0.08876484;-0.090143226;-0.074237406;-0.20751755;-0.1289792;0.051784374;0.012563959;0.19475669;-0.077209376;-0.1414582;0.09222928;-0.0268027;-0.0162613;-0.005166593;-0.09087728;0.129896;0.19089279;-0.0007713001;-0.038301885;0.05969826;-0.10714352;0.024637604;-0.021139937;0.015026862;0.09551423;-0.07573072;-0.03758094;-0.15600543;-0.041561194;-0.10284504;0.091208756;-0.030351175;-0.05178524;-0.018799216;-0.2094769;0.052929357;-0.008896138;-0.07289666;0.09701418;-0.03899712;-0.045166682;0.03916475;0.020833146;-0.10151524;0.0034954667;-0.11982118;0.09263406;-0.025772804;-0.008932565;0.07108804;-0.019422695;-0.0113452235;-0.029839057;-0.0968964;-0.04090799;-0.114437446;0.007312243;-0.13315524;-0.121407405;0.007816175;0.079200715;0.014995855;-0.07236574;0.0397675;-0.00066563353;-0.07488413;-0.0066747195;-0.15006103;-0.054470878;-0.052295104;-0.20104441;0.0876432;0.145414;-0.01667085;-0.09084346;-0.09916743;0.20738223;0.072960526;-0.012500916;0.033988763;0.005568737;-0.047143515;-0.092392504;0.08918006;-0.053935353;0.05860884;-0.077570036;-0.06915109;0.055689808;-0.16492337;0.18831836;0.07518848;-0.16051543;0.033537958;0.10585813;0.12520567;0.004748537;-0.049027137;-0.124394365;0.021251535;-0.027686086;0.0664864;0.20918252;-0.06591066;0.05520615;0.20595002;-0.1320905;0.015498573;-0.02683881;-0.1295654;0.1256775;-0.23401172;0.13078369;0.0965256;0.08428901;-0.11928233;-0.06309814;0.039589427;0.09120498;-0.05493874;-0.038997978;-0.11032387;-0.16722552;-0.1989939;-0.12089204;0.03579419;0.11791793;0.15814444;-0.1729423;0.031962402;0.033107474;0.013064188;-0.09251223;0.08078497;-0.02263822;-0.029518055;-0.034359634;-0.00958757;-0.12358188;0.0817754;0.14791316;-0.16227888;-0.019257866;-0.090080164;-0.0028940814;-0.17099345;-0.032169625;-0.013134924;-0.09069936;0.09706935;-0.18451884;0.116530284;0.055849478;0.07572423;0.08286858;0.04184392;-0.14911775;-0.09176524;0.04058994;-0.28683606;0.00064902205;0.17000356;0.10347001;-0.08518349;-0.025662612;0.13109165;0.06760162;0.09828417;-0.041368656;-0.049275868;-0.13831736;0.02594983;-0.013161309;0.031122388;-0.031229714;0.02223342;-0.12794118;0.09562175;-0.042454544;0.05740654;-0.11496071;0.100302994;-0.05428495;0.13089196;-0.062995486;0.06616044;-0.0504341;0.028336847;0.022129053;0.15281595;-0.085066184;-0.055277504;0.20480298;-0.045462344;0.100055106;-0.12692752;-0.056135092;0.050528683;-0.0781615;0.08186921;0.12044508;0.04548341;0.038104873;0.089131385;0.040451158;-0.06933002;0.10481634;0.06048499;-0.08314697;-0.09606837;-0.06663237;-0.00047839375;0.06633076;0.13831387;-0.067587525;0.18362325;0.23844321;-0.019062407;-0.2520648;0.043602023;-0.11272055;-0.10516065;0.0015972388;0.06934398;0.0077612973;0.034871943;-0.06735234;-0.035638675;0.055933945;0.11389957;0.08806099;0.13018471;-0.0098914895;0.1678584;0.07829022;0.13779455;-0.022810182;0.042562895;0.010944166;-0.083152436;-0.09260106;-0.14067528;0.078439415;-0.069130436;0.038255997;0.1267815;-0.072879896;0.022085914;-0.018508244;0.19028737;0.0067505217;0.22507104;0.022384487;-0.03641347;0.03728743;0.034041252;-0.076583624;-0.15198898;0.17525533;-0.04415775;-0.0016260993;-0.13284536;0.37277433;-0.13123275;0.010799227;-0.21245696;0.05913716;-0.116452016;0.033520177;-0.008597617;-0.052161366;-0.014077034;-0.15619715;-0.0026121966;-0.018627036;-0.037736185;-0.20839785;0.057404432;-0.0271715;0.038757667;0.0730312;-0.101887114;0.0022644948;-0.04616916;-0.13305321;-0.029968536;-0.17318283;-0.039060917;-0.063554525;-0.1893155;0.06969959;-0.14729767;-0.19781445;0.17380741;-0.049127873;0.091134034;0.08157821;0.08964902;-0.026535483;0.07716001;0.021005476;-0.17248404;0.16783437;-0.0038770163;0.046222623;-0.13616149;0.052968316;-0.047504187;-0.022010582;-0.16351636;-0.13293855;-0.0020268082;0.045714244;-0.05486072;0.10364622;0.0025063152;0.01593875;0.070598006;-0.15908954;-0.077935584;0.14419515;-0.042275496;-0.029419888;0.1504307;-0.09342812;0.16044503;-0.05322509;0.00020921433;-0.07055689;-0.04923057;0.038009465;0.03125557;0.06418672;0.109010905;-0.04344388;0.05408146;0.11586795;-0.053237826;0.015901983;0.023025757;0.19660744;-3.8195303e-06;-0.10085733;0.07952261;-0.079598084;-0.061561026;0.020329626;-0.021176714;-0.021638053;-0.017892372;-0.04853556;-0.044052128;-0.08843102;-0.014356348;0.056648426;-0.11676032;0.18050288;-0.11811843;-0.24004109;0.060847066;-0.013668299;-0.15676995;-0.09547675;-0.018816559;0.068017714;0.0005591298;0.18764728;-0.30197105;-0.065671496;0.016906247;-0.29579887;-0.16593869;-0.003950756;0.014332512;-0.008935494;-0.02902454;-0.21773258;-0.042766653;-0.2559461;0.140467;-0.034518763;-0.049699098;-0.01791359;0.10261113;0.018415662;0.006837635;-0.065434135;-0.053870272;-0.0618888;-0.079995275;-0.15670247;0.021032888;0.001561057;-0.056994133;-0.104180805;-0.10435235;-0.025295926;-0.07652592;-0.059546556;0.0069855545;0.023200989;0.0107200695;0.06092957;-0.12576053;0.00060891925;0.10807722;-0.08529172;-0.13550666;0.08361292;-0.100031935;0.0067924;0.0652244;0.02582553;-0.17288628;-0.025950052;-0.17303011;-0.22118855;0.0671803;-0.13425082;-0.09962849;0.0049733133;0.20738402;-0.016428998;-0.015934117;-0.06769351;0.058036115
-0.017308343;0.12890257;0.17256908;-0.018491564;-0.03912091;-0.18155281;0.01119887;-0.044049628;0.011666823;0.028187301;0.064157724;0.061168153;-0.035758026;0.14033334;-0.14993027;-0.04654131;0.1190476;-0.08082891;-0.054861058;-0.028475227;0.012909283;-0.15015091;-0.040123936;-0.1304726;0.008453598;-0.079431176;-0.0002761659;-0.1596501;0.006081513;-0.07104168;-0.0077311024;0.026895612;0.11456506;0.105725296;0.24697924;0.12609875;0.12083085;-0.26530883;-0.016845085;0.01163988;-0.08168109;-0.014614111;-0.01572266;0.04136261;-0.06330672;-0.009867858;0.08365132;-0.04092299;-0.0046969918;0.13592936;-0.12475739;0.069496244;0.112841845;0.07598139;0.15441218;0.20059407;0.030178893;-0.04411899;-0.21013314;0.08233333;-0.05091536;-0.2413618;0.01318284;-0.078187175;-0.032965377;0.13323067;0.0891372;0.017353553;-0.0039343117;0.058427744;-0.072176374;-0.0636132;-0.059721973;0.023988886;-0.017528422;0.021745427;-0.066741586;-0.19253127;0.010596898;-0.07802645;-0.10190597;-0.0010209712;0.15747857;-0.23779838;0.07146355;-0.12177886;-0.020624163;0.05842579;0.03687264;-0.13211837;-0.25322685;0.03852031;-0.07586911;0.17301926;0.045107085;-0.15882064;-0.003711139;-0.089579955;-0.215194;0.074564144;-0.010376756;-0.07815297;-0.018654207;-0.081998944;-0.03203204;0.20777228;0.025575222;0.044307444;0.046859715;-0.11525898;-0.086226806;-0.16580985;-0.017264029;0.18630789;0.043352608;0.09321064;-0.12025767;0.011657919;0.019539881;0.03630271;0.0032761726;0.08174353;-0.065564536;0.16938302;-0.046744414;0.0064104483;-0.051358156;-0.031845886;-0.074318804;0.095714346;-0.041011263;-0.09141434;-0.09271692;0.014170565;0.17453577;0.07251438;-0.07266502;0.13345213;0.14500599;-0.0072266986;-0.025446892;0.06512319;-0.100118324;-0.16785172;-0.028105158;-0.08382508;0.06970963;0.045308203;0.037398957;-0.09474894;-0.1533795;-0.12533589;-0.008337713;-0.14820117;-0.18335903;-0.11981418;0.010394636;0.15944777;0.090297684;-0.07328142;0.02426372;0.002939151;-0.055289235;0.019338027;-0.00855449;0.042367112;0.14882886;0.015457884;0.0055325055;0.033636983;-0.04771659;0.03539323;0.043577615;0.15987651;-0.015637016;0.019735167;0.16164503;-0.23764862;-0.1276755;-0.18784969;0.103404805;0.02525546;-0.033969127;0.042741977;-0.22490445;0.056087427;-0.054679763;-0.0011890997;0.01153172;0.026043233;0.075974196;-0.12363607;-0.10490091;-0.00035522005;-0.051392242;-0.0051360377;0.22825019;0.04056377;0.089937;0.02807695;-0.11962659;-0.044350233;0.05576066;-0.118427575;-0.06408377;-0.09342907;-0.04346099;-0.18032396;-0.10279795;-0.056684706;0.00061805296;-0.03063241;-0.21520144;0.13261953;0.019805694;-0.08726645;0.10535495;-0.18442358;0.10533026;-0.012820388;-0.08865665;0.008543363;0.044669084;0.11631549;0.019590767;-0.10141842;0.16636759;0.03901103;0.19937505;-0.012222753;-0.11151181;-0.1822953;0.0087093925;0.12891196;0.060800087;0.08448486;-0.09699704;-0.06373894;-0.06565599;-0.19546272;0.24862614;-0.07371126;-0.080665015;0.14044383;-0.0614131;-0.05943809;0.00964903;0.052559126;-0.026201297;0.02724115;-0.082318716;0.030144025;0.14492762;-0.048551247;0.05922894;0.08834987;0.024098486;0.10110568;0.10277238;-0.15031652;0.012412681;-0.39394182;0.07143416;0.11366584;0.20527525;-0.08398441;-0.034948982;0.0070899073;0.05809619;-0.09505072;-0.09555287;-0.049452096;-0.12434857;-0.14770418;-0.08762537;0.103191234;0.09068145;0.06895416;-0.17968589;-0.00058712263;0.03133285;-0.08200369;-0.034285944;0.05084607;-0.09585885;-0.07616914;0.19433752;0.0037747836;-0.029987168;0.065287165;0.030815072;-0.15106723;-0.112165265;-0.013279519;-0.11859311;-0.28315783;-0.075956464;-0.05110715;-0.011465631;0.023538265;-0.07193577;-0.119152665;-0.09229365;-0.023094295;0.0018245633;0.017345479;0.09048321;-0.11044169;0.010893095;-0.3660287;0.07416034;0.07172752;0.17298378;-0.18084341;-0.010423166;0.06313957;0.17435214;0.1089161;-0.13134582;0.096239395;-0.04318904;0.17140903;-0.133062;-0.122134216;0.11836573;0.10721591;-0.09379937;0.07156912;-0.11641489;0.04814344;-0.17567457;0.16809075;-0.0700615;0.13034481;0.10528359;0.08348232;-0.025695404;-0.13695745;0.044768028;0.24995777;-0.14399292;0.13008806;0.13497177;-0.1440197;0.15646031;-0.030807285;-0.10000345;-0.27362937;0.06939048;0.1148632;0.04749164;-0.14243262;0.061588567;0.08325728;0.14780769;-0.10298663;0.0546856;-0.06833811;-0.24715716;-0.06851423;0.030560259;-0.01820095;0.044753976;0.13309987;-0.009078656;0.062698044;0.14640711;0.012961391;-0.10636332;0.04101694;-0.030915914;-0.03393852;-0.1260169;0.12327313;0.0119595295;-0.19166735;-0.07769172;-0.17482771;0.015082688;0.11224236;0.04539617;-0.12745956;0.08062699;-0.03399538;-0.02777204;0.06483033;-0.086195216;0.12862217;-0.041543797;-0.048634253;-0.08880472;-0.13821395;-0.02322717;-0.016595423;-0.110019274;0.12183823;-0.12342939;-0.032434214;-0.00935619;-0.06623904;-0.007714288;0.1600124;-0.0299143;0.042500075;0.00788769;-0.057644237;0.08132633;-0.11993433;0.18629774;0.058277395;0.035751108;-0.18319371;0.25427127;0.11985653;-0.038385734;-0.07843063;0.0131865395;-0.1761015;0.081074424;-0.016763818;-0.06559911;0.050533935;-0.14141363;0.07725719;-0.08088921;0.015615223;0.017142711;0.09060726;0.07067939;0.21457565;-0.07224889;-0.056169532;-0.062347848;0.1316778;-0.05189374;-0.072990134;-0.18262465;-0.052285496;0.0020988258;-0.13961768;-0.0125840865;0.12051309;-0.16911647;0.096147776;-0.005605041;-0.09284611;-0.00034785047;-0.07355497;-0.06771957;0.087784305;-0.077690385;-0.052508015;0.17708424;-0.17452699;-0.104528464;-0.12629257;-0.07916678;-0.1045064;-0.052124593;-0.16420473;0.0018202243;-0.07047553;-0.044736136;0.10831932;-0.008671764;-0.19636573;-0.075446665;0.07731321;-0.1792415;0.11899931;0.023660796;0.09693388;-0.013956438;0.095351815;-0.003277824;0.15950043;0.053959783;-0.006935987;-0.28094888;0.04975515;0.022125605;0.06972144;-0.0069557456;0.018354883;-0.062336616;0.042833406;-0.076294415;-0.03241851;0.053042177;-0.08646203;-0.063103646;0.1394861;-0.20321196;0.0129107125;0.034446035;0.046893;-0.047542732;0.0006781014;0.08635032;-0.03568719;-0.18327942;0.09692063;0.08775681;0.02591854;0.036664665;0.027642407;0.19138631;0.16198379;-0.02401714;0.02487249;-0.038131487;-0.27782142;-0.15783572;-0.03637812;0.037032157;0.07966179;0.18438701;-0.20517033;-0.16407907;0.0663342;-0.038826887;-0.2445463;0.044886846;-0.06303086;0.066457875;-0.11700805;-0.20789297;-0.12065728;0.03160657;0.13858908;-0.063076235;0.010043484;-0.13118142;0.060515933;0.031396914;-0.02794874;0.076735325;-0.008437675;-0.1694134;-0.08957149;-0.23894832;0.0076318616;0.027683022;0.021567192;-0.11850751;-0.025370209;0.011095633;-0.087402076;-0.061366007;-0.14179076;-0.054087233;0.027792823;0.0032004272;-0.07034084;0.16466779;0.11683738;-0.014576882;-0.13366137;0.06697177;0.02155785;-0.080355726;0.06422344;0.13439697;-0.13351017;-0.011145723;-0.24936068;0.05513018;0.14410724;-0.024535308;-0.0020652825;0.011071331;0.12567465;0.058917306;0.08755578;-0.13140585;-0.030527418
-0.13504554;0.1719013;0.25350663;-0.0143810315;-0.10111802;-0.19562778;0.16014044;0.07251155;0.00981068;0.16028453;0.010482177;0.025342694;-0.08257376;0.02806791;-0.086220376;-0.07594582;0.0068854215;-0.114803925;-0.15847445;-0.06848131;0.106099315;-0.168346;0.0119130425;-0.21938482;-0.029838972;-0.17029713;-0.023103483;-0.11313065;-0.123430096;0.026874045;-0.0089101065;0.003991958;0.14262338;0.12604898;0.19993123;0.2058906;0.19572198;-0.21246383;-0.045674745;0.01870468;-0.1320411;0.04400959;0.07761425;0.08732442;-0.09527977;-0.014380361;0.10036051;-0.019314978;0.008106752;0.16326387;-0.1720066;-0.016229285;0.13721238;0.07286964;0.18690926;0.110728726;0.044741265;0.057157848;-0.14187229;-0.10405858;0.03974525;-0.21129134;0.012438428;0.028162502;0.09944567;0.23745674;-0.021970002;-0.042326976;0.009165449;-0.019471647;-0.21475238;-0.10881478;-0.06487934;0.087463304;-0.01618494;0.09735693;0.039224874;-0.25088644;-0.14258844;0.00096058694;-0.13651164;0.109947935;-0.0051223836;-0.12684591;-0.10141918;0.0074380925;0.03430548;0.17438178;0.044446953;-0.11918981;-0.08348075;-0.006359279;-0.002304667;0.10494532;-0.0063621164;-0.19818847;0.05234423;0.14644258;-0.09419783;-0.063662425;0.025666978;-0.089525275;0.116398506;-0.18066679;0.111666255;0.09202386;0.12208368;0.09511078;-0.017318407;-0.005942005;0.05262785;-0.060973756;0.011616429;0.27161506;0.0059485515;0.118732415;-0.07250972;0.06658465;0.0051273;0.13455531;-0.056334622;-0.10314142;0.011389949;0.20415586;-0.06570449;0.05179401;-0.03551094;0.053317685;0.020938778;0.20099546;-0.03761156;0.035524383;-0.10966892;0.076097794;0.08696967;-0.06618494;-0.035440575;0.052446924;0.13271931;0.043785043;-0.18312484;0.16311605;0.037456118;-0.06971566;-0.0026971898;-0.08952832;0.0680882;-0.057657447;0.004363605;-0.19449307;-0.1740905;-0.15866102;-0.09828548;-0.12021609;-0.16271034;-0.08226351;-0.07684733;0.13377558;0.1704286;-0.10785011;-0.07839964;0.031768233;-0.2045129;0.07668188;0.112351164;0.11047972;0.12615871;-0.039217893;0.14185916;0.10487033;-0.080604255;-0.06439784;-0.12672168;0.08449757;-0.049455144;0.05976762;0.025756173;-0.06545365;0.044034883;-0.105146326;0.01944774;0.08128618;-0.057521287;0.11827538;-0.13370606;0.02975271;0.04346466;-0.047319613;-0.076434195;-0.050253615;0.084919706;-0.08590883;-0.17424726;-0.06981663;0.13563603;-0.0740622;0.20585664;0.093062185;0.009458748;-0.061720017;-0.06373734;-0.048775394;0.010088105;-0.14691117;-0.22816233;-0.17743169;0.08257565;-0.1656217;-0.07119013;-0.062057797;-0.09185756;-0.20983802;-0.096734546;0.11285855;-0.046359316;-5.8175377e-05;0.033955567;-0.04791685;0.016728636;-0.07346229;-0.173277;-0.09150023;0.08955101;0.10958293;0.0737785;-0.19117145;0.17534755;-0.08709384;0.22339772;-0.02595957;-0.08210694;-0.2232422;0.04343067;0.27015585;0.07102139;0.08062703;-0.14489843;-0.04646876;0.025706366;-0.14793514;0.20001239;-0.09528729;0.005159447;0.043119773;-0.1959208;0.12303868;0.013116463;0.120763876;-0.083847165;-0.15687004;0.00072787685;0.0078367945;0.12819344;-0.07748893;0.2047971;0.1474925;0.036003716;0.1453087;0.15158316;-0.15825672;0.058073714;-0.18239751;0.102639005;-0.017924396;0.11302275;-0.07625136;0.037429705;-0.05048624;-0.0110271815;0.11016856;-0.14208782;-0.13007462;-0.13932997;-0.25263155;0.0042327875;-0.0099504925;0.118731126;-0.00057168474;-0.19145975;-0.047377706;0.01406105;-0.031948306;0.1910003;0.114444725;0.053531595;0.014479992;0.13277505;-0.044744667;-0.042960633;0.0106909275;-0.12585048;-0.14477785;-0.16259556;0.025203574;0.03379763;-0.24879842;-0.06297082;-0.03565479;-0.13095486;0.010924369;-0.11572564;-0.13428678;-0.04018701;0.11860337;-0.01083899;-0.053616248;0.01135144;0.030462382;-0.20457478;-0.20205471;0.15416187;-0.011871649;0.10096668;-0.20628357;0.04320658;0.066965766;0.02733676;0.20219316;-0.119906075;0.19067356;-0.17226434;0.15635264;-0.27751306;-0.051564444;0.11210921;0.031166632;-0.18256287;0.04510146;-0.16918522;-0.042249378;-0.02986191;0.121465065;0.009940106;0.1591303;0.05989465;0.10567287;-0.10894815;-0.20815085;0.056539938;-0.025026832;-0.14533046;0.054787204;0.16480955;-0.16421732;0.118400976;0.057795037;-0.08621165;-0.19422743;-0.011538694;0.03356824;-0.008631663;-0.08849713;0.054318167;0.23406948;0.05979561;0.09678209;0.06574104;-0.07863219;-0.1813093;-0.03011714;-0.16681376;-0.023491723;0.13003922;0.20377971;-0.042723924;0.12617008;0.1911859;-0.049021438;0.06503899;0.083848864;-0.033019084;-0.12417032;-0.21533966;0.08480623;0.12759697;-0.038878486;-0.15701503;-0.14847185;0.06591294;0.1020846;-0.030438643;-0.01222166;0.10487136;0.015461592;0.06379737;0.11278012;-0.052253433;0.20951892;0.006508922;-0.12333372;-0.066068724;-0.13359468;0.14979409;0.013774839;-0.0010531262;0.17971182;-0.15499674;-0.06881178;-0.049286295;0.018468881;-0.07392073;0.12762107;0.011002576;-0.116283;0.09382866;-0.05543472;-0.084836416;0.05082754;0.086464375;-0.07776683;-0.15368256;-0.098204456;0.117590904;-0.040038142;-0.061562635;0.02970551;0.065555364;-0.16702947;0.046456806;-0.0694006;-0.009828425;0.055882838;-0.053038538;0.1361875;-0.10757254;-0.074938275;-0.1005627;0.1502573;0.1276065;0.30424854;-0.06497613;-0.054613136;0.018105526;-0.023258554;0.0055431454;-0.06490306;-0.19035143;0.03370332;-0.10728847;-0.10435816;-0.0005439291;-0.087275624;-0.11401289;-0.01593444;-0.11853361;-0.07184552;0.0813174;-0.02616191;-0.063555494;0.028611137;-0.10504084;-0.009463434;0.30070627;-0.19999938;0.009629692;-0.12984444;-0.06383535;-0.1384203;0.03972745;-0.10228665;0.097710066;-0.08101544;-0.099811554;0.025872612;-0.012145686;-0.1203836;-0.04859484;0.18585475;-0.2286927;0.09420777;-0.11098915;0.11853095;0.14538676;0.02948887;0.02366461;-0.007391357;0.093276165;0.028933732;-0.13010632;0.11172149;0.045725897;0.04374411;0.0868868;0.012801309;-0.104288235;-0.030179497;0.087730825;0.016741354;0.09991501;-0.10358748;0.0058803917;0.008545984;-0.22618796;0.05719965;0.0019000168;-0.105014846;0.08114266;-0.055778056;-0.019603847;-0.069323;-0.17904131;0.07910004;0.1306104;0.12781687;0.021046976;0.02605986;0.19928879;-0.068805404;-0.09245184;0.017204987;0.057129532;-0.22301123;-0.0040268386;0.025207428;0.0513012;0.13597412;0.084903255;-0.22573869;-0.06790181;0.018356634;-0.123054944;-0.04003141;0.144021;-0.100374654;0.043370932;-0.018619116;-0.26262861;-0.11770144;-0.12142615;0.03922553;-0.114144;-0.010344257;-0.035000946;0.1715019;0.10263864;0.103329934;0.0029258723;0.033507388;-0.019209426;-0.071675695;-0.05604288;0.034861095;0.037511967;-0.071056806;0.039148673;-0.06430876;0.017828006;-0.10805828;-0.076615915;-0.09209176;0.109723955;0.09295431;0.029539095;-0.07584945;0.14011621;0.020122714;-0.123779275;-0.18762882;0.09563576;0.026253652;-0.081977285;0.13925661;0.06979762;-0.19759223;-0.075042196;-0.20746154;-0.1309867;0.019381454;0.01745667;-0.036052436;0.09243203;-0.010985701;0.07429182;0.013644686;-0.15436937;0.041187696
-0.021079024;0.17939192;0.17675257;0.06312175;0.04943752;-0.064554684;0.14516069;-0.047432836;-0.06962497;0.032172687;0.10852984;-0.06287658;-0.086305596;-0.0723493;-0.17805852;-0.05587855;0.025393188;0.05270572;-0.03213569;0.003924314;0.007059647;0.0765641;-0.051553078;-0.09114193;-0.05724366;-0.063273;0.011464222;-0.13373287;-0.096296094;-0.026680997;0.028894614;-0.14198714;0.17207488;-0.043209903;-0.061354406;0.025648918;0.07636425;-0.12897599;-0.046529006;-0.22583842;0.020078963;0.03234675;0.0391389;0.2027817;-0.013267765;0.018434761;0.01747463;0.032657214;-0.037920915;0.12683849;-0.09284968;0.005648678;-0.032766856;0.13866177;0.029594567;0.07865128;0.1410812;-0.10835224;-0.15767103;-0.0062718713;-0.07596353;0.01385335;0.20636804;0.11003231;-0.01579314;0.25411588;-0.0961516;-0.09364508;0.107704155;0.045652162;-0.10961123;0.051793218;0.023863912;0.035743635;0.029744338;-0.029539704;-0.09169984;-0.06128353;-0.1297781;-0.003589199;0.05024182;0.093033336;-0.011060802;-0.22703174;0.018133434;0.036951974;-0.101138406;0.21044372;0.0006746105;-0.11362901;-0.14132823;-0.0011600476;0.09276412;0.25492617;-0.019748677;-0.12248998;0.07002057;-0.036363218;-0.10732867;-0.03957776;0.058033377;-0.030319912;0.0401712;-0.05876072;0.021987343;0.15309787;0.06823289;0.12953001;-0.14260316;-0.09679885;0.03591568;-0.04532203;0.10942714;0.14879344;-0.061341573;0.01448389;-0.024760189;-0.008459869;0.060061444;0.14099285;-0.090532474;-0.056893595;0.054654215;-0.005598236;-0.20940666;0.11296987;-0.0023384413;0.24612169;-0.07328009;0.015498572;0.0012170196;-0.06176214;-0.14458036;-0.025494976;-0.04870651;-0.088076316;0.08416948;-0.1048848;0.20964496;-0.04099281;-0.049259156;0.083168976;-0.105108604;0.050184414;-0.0023899195;-0.13310507;0.12502714;-0.13114847;0.056523968;0.006146633;-0.06823701;-0.12628798;-0.1433633;-0.20012642;-0.30929688;-0.010619634;-0.009773159;0.19728377;0.1136895;-0.012721639;0.071232155;-0.009058545;-0.2402168;-0.035967685;0.108779564;0.133351;0.17514272;-0.05625339;-0.001155756;0.13796774;0.0032567626;0.1588911;0.0787611;0.08842151;-0.03295188;-0.0379878;0.06832281;0.03392756;0.026230425;-0.23391229;0.038118664;0.12001;-0.024698026;-0.01955208;-0.08212919;-0.03161521;-0.096731424;-0.07554805;-0.18845643;0.06312997;0.091124445;0.074347585;-0.08702095;0.13227445;0.15998106;-0.022333603;0.11732318;0.037943143;0.02295139;-0.092646085;0.07841969;0.0035314464;-0.02295484;0.009763177;0.096185856;-0.0155968135;0.1418472;-0.2252359;-0.2472463;-0.071857266;-0.13891244;-0.21444851;-0.21321303;-0.029826246;0.0958094;-0.14897785;0.031299338;-0.13184714;-0.10657816;-0.105055936;-0.15383075;0.028330546;0.13865207;-0.017650869;0.1403934;-0.17023382;0.1662472;-0.03251411;0.0562394;0.06705636;-0.018111741;-0.12713227;-0.0790738;0.15649475;-0.039022785;0.16202998;-0.0987699;0.033155046;0.24113558;-0.1268357;0.022709157;-0.11734149;-0.11529016;0.02332403;-0.08439878;0.15812501;0.027820662;-0.06246685;-0.15288003;-0.18766111;-0.054250367;0.08171637;0.14490284;-0.03604425;0.17448208;0.0885564;-0.1499917;-0.0372783;-0.032660633;0.0174612;0.13269943;-0.3100355;0.07329967;0.022618093;0.08824167;-0.03139492;-0.09852622;0.009636524;0.15188988;-0.097033344;-0.03249346;-0.16616584;-0.06887402;-0.26035422;0.0870921;-0.03858567;0.1453395;-0.16515411;-0.15301935;0.03308494;-0.05348715;-0.15043314;0.025869949;0.1490758;0.11055091;0.09180047;-0.06676531;0.031706672;-0.09891994;0.08876722;-0.050649665;0.014457889;-0.1376693;-0.06517499;0.046840277;0.031836785;-0.074965715;0.018818216;-0.13275535;0.14292105;-0.11536912;0.014908763;0.01501645;0.056453727;-0.04808665;0.03471616;-0.036462955;-0.16461419;-0.08133243;-0.30468246;-0.061568882;0.032825842;0.27874926;-0.23567834;-0.114617646;0.12352631;-0.060425114;0.23193489;-0.17913106;0.14708339;-0.20326175;-0.06874861;-0.014285091;0.036193408;-0.011375697;-0.03349402;-0.12825097;-0.05929073;-0.08058204;-0.060499825;-0.0023959272;0.26968464;0.0682258;0.09860979;0.07669658;0.15077695;-0.020258157;0.038245182;0.06347642;0.0065312013;-0.17650044;0.11911765;0.1934388;-0.10603574;0.14978419;0.037436064;-0.0035340348;-0.15348545;-0.046362076;0.18005063;0.12820473;0.015755026;0.07754636;-0.006068564;-0.14965713;-0.06354637;-0.002184999;0.0035863642;-0.20029953;-0.17381988;-0.07357023;0.028150458;0.015800353;0.38505018;-0.11014005;0.036601957;0.20477152;-0.15524456;0.05095078;0.14180888;-0.0016643237;-0.19896805;-0.19194907;0.1072089;-0.02829296;-0.020854317;0.1371439;-0.045596793;9.896518e-05;-0.002142329;0.073718905;-0.08082258;0.04988807;0.07486004;0.092746936;-0.044444136;-0.111198306;-0.03646625;-0.09062347;0.012431466;0.01743107;-0.20836061;0.115732774;-0.035804342;0.05484582;0.056685936;-0.033335734;-0.10742779;-0.07682806;0.03110761;-0.038723465;-0.02377703;0.041039165;-0.13597806;0.10742755;0.07914133;-0.042985063;-0.04187096;0.11364774;0.088145874;-0.05183378;-0.11125774;0.12773444;-0.1562754;0.06652302;-0.20627438;0.07282462;-0.1054687;-0.06982759;-0.18860388;0.06007593;0.027637377;0.024729688;-0.000340986;-0.10613586;-0.115425535;-0.051218733;0.11786832;0.033938255;0.20619991;-0.17323533;-0.12952329;-0.03787506;0.13582723;-0.15837678;-0.028729657;-0.117308654;0.009225791;0.019111041;0.009340263;-0.025315283;-0.14047535;-0.13744055;0.14082007;-0.110326394;0.02459939;0.10472987;0.07287633;-0.19815305;-0.09112426;-0.13585575;-0.04672546;0.1248198;-0.076646835;-0.02140002;-0.01341262;-0.035689015;-0.051061295;0.014355782;-0.024891559;0.051962078;0.105279736;-0.09441774;-0.007922443;0.08024027;-0.14081225;-0.08481004;0.115710296;-0.16366355;0.08086389;-0.034134522;0.0165403;0.06722284;0.1326012;-0.12877533;0.06958089;-0.11682567;0.09889767;-0.058934156;-0.0071123624;0.03373879;-0.10398993;0.047507536;0.13897683;-0.017281605;0.060635637;0.16127741;-0.17101905;-0.095006965;-0.048144028;0.030510532;-0.06411603;0.11009929;0.25960362;-0.051003583;-0.19065489;0.0073175454;0.0012945617;0.0573484;0.09771145;-0.2098757;0.072875194;-0.05472672;0.110762194;-0.021468706;0.052965146;0.16806006;-0.12890649;-0.030207679;0.070958525;0.07491126;-0.1436471;-0.0915511;0.031098248;0.079164274;0.0040675844;0.06671459;-0.122124135;-0.11995063;-0.07632182;-0.1330796;0.059236024;0.11219183;-0.11327789;0.028559262;-0.0154577335;-0.15847702;-0.11794221;0.0672508;-0.038413845;0.08403156;-0.04115195;0.010433422;0.16334537;0.045188382;-0.05530905;0.17478713;-0.13868147;-0.047459926;-0.10145746;-0.1016915;0.09819534;-0.054540217;-0.120280154;-0.0122459;-0.07035859;-0.05337428;-0.09305256;0.06808;-0.1166113;0.0037734038;-0.043407302;0.13289757;0.0018062484;0.049234208;-0.008949255;-0.062987424;-0.06969986;0.10042711;-0.12559466;0.02145195;0.069182344;0.07583524;0.017768102;0.039325487;0.0064009903;-0.13928637;-0.06287791;0.16044605;-0.06154149;0.106058344;0.1556931;-0.11159153;0.10649886;-0.13318469;-0.096779354
-0.031040452;0.11149125;0.12674254;-0.047009755;0.12356956;-0.20260912;0.31031784;0.058097333;-0.008773866;-0.017486589;0.107548065;-0.010803025;-0.13304524;-0.013708364;-0.034346707;-0.028861005;0.084895626;-0.041065633;-0.059701733;0.029426118;-0.022341525;0.09226772;-0.01781065;-0.15244971;-0.05422448;-0.04584907;0.0008716545;-0.12080199;0.025101459;-0.06049255;0.1307504;-0.047508746;0.19703658;0.02237821;0.015251141;0.10591073;-0.06545942;-0.11555569;0.06339723;-0.14231023;-0.098238505;0.029835785;-0.047853205;0.055939123;0.022873776;-0.1479219;0.01730465;-0.01777259;0.0010843236;0.028477753;-0.24607071;0.1125083;-0.11675961;0.005827298;0.05387261;0.028905435;0.1650815;-0.12738682;-0.020366782;-0.0046774205;-0.10054838;-0.072512835;0.26134446;0.11341251;-0.045532748;0.20226444;-0.034319405;-0.019574005;0.017903006;0.19763292;0.013106012;0.15740277;0.16327141;0.06007411;-0.10760674;0.08683892;-0.07920169;0.0812917;-0.19393595;0.06528342;-0.121453024;0.0480466;0.013520182;-0.21070641;0.024174329;-0.100766055;-0.069845475;0.11891486;0.06002462;-0.21748458;-0.22862615;-0.1621559;0.10749795;0.2452354;-0.0521497;-0.098883286;-0.059987973;-0.019641045;-0.122390494;-0.15141718;0.13519599;-0.0308122;0.09675785;-0.07437065;0.04703329;0.16095744;0.044127215;0.09288849;-0.13407153;-0.093981974;0.01192732;0.062422667;-0.017216;0.24314222;0.11293861;0.12145164;0.23046155;-0.14875321;-0.14298417;0.18931179;-0.15826507;-0.110372774;0.17443238;0.042868055;-0.29935884;0.14214863;-0.05941992;-0.0005999394;-0.00960227;0.028892517;-0.01687663;-0.109465405;-0.060162127;0.027759353;0.09478745;-0.11732634;-0.041250233;-0.09475627;0.120906815;0.14975704;-0.01611284;0.121076405;-0.058306064;-0.07748655;0.09188724;-0.011743394;0.08998794;-0.13364702;-0.006013431;0.037907925;-0.02704823;-0.03067717;-0.18358167;-0.26112935;-0.37277085;0.14353119;-0.07883568;0.19994769;-0.16620591;0.04853375;0.0630679;0.09279619;-0.21449082;-0.04427768;0.066525675;0.06465095;0.19993858;0.011471268;0.05596684;0.1470591;0.10049936;0.07374885;0.030411046;-0.017517427;-0.10375524;0.053595904;-0.069669;-0.005757161;0.16188733;-0.25898644;0.11431581;0.14419462;-0.109277606;-0.06518178;0.057774544;-0.038050976;-0.092918076;0.0010824815;-0.0008677365;-0.24253333;0.11340925;0.004016571;0.025478048;0.046849884;0.040787656;-0.21414764;0.056489784;-0.004805261;0.0012662823;-0.11963984;-0.05563413;-0.035564326;-0.011218407;0.06747718;0.15192063;0.13444434;-0.05754607;-0.14229813;-0.23581703;-0.065134816;-0.114988476;-0.039963108;-0.19695032;0.004288397;-0.016914435;0.021635422;-0.071366444;-0.15537666;-0.18921669;0.08322283;-0.12159768;-0.106175795;0.22438541;0.066127546;0.1621916;0.011877924;0.09440594;-0.05737397;0.1130136;0.028320901;-0.10443819;-0.057586677;-0.047893334;0.21995178;-0.009463632;0.040969405;0.107928686;0.01644631;0.06643195;-0.059778035;0.108202554;0.037736595;-0.09160141;0.013750277;0.13385704;0.12768508;0.21274318;-0.024860363;-0.049561255;-0.22120047;-0.02206557;0.06394805;0.123996235;-0.051659532;0.18272254;0.07175784;-0.054479245;0.051122196;0.063675895;0.014025004;0.12153194;-0.10505089;0.063822106;0.1349253;0.16783343;-0.057886932;0.060578797;0.003788415;0.00010123791;-0.23731887;-0.03046893;-0.14497662;-0.27813476;-0.24007855;0.036712382;-0.14388202;0.046235602;-0.10521782;-0.09405112;-0.17365578;-0.053209007;-0.0039113597;-0.06877087;0.069018595;-0.06319513;0.034278844;-0.08708579;0.086941816;-0.11799549;0.06220745;-0.035364844;-0.051460758;-0.14263064;0.0019172868;0.012290161;0.052250937;-0.056336675;0.03658604;-0.085529186;0.0010051918;-0.1863315;0.10388835;0.074154355;0.036307342;-0.22002149;-0.026301788;-0.10418483;-0.13471189;-0.009340142;-0.2550169;-0.1131884;-0.062424734;0.06483436;-0.06687176;0.04484653;0.050182506;-0.00546045;0.094181836;-0.0313639;-0.18200493;-0.28637195;0.031283528;-0.096844874;-0.093366094;-0.06570763;-0.009667445;-0.16015384;-0.14089362;0.0070714722;0.023115557;0.075076096;0.24492441;-0.03721606;0.015690919;-0.04045385;-0.031770196;0.08727312;0.03188076;0.18090732;-0.052684028;-0.09158264;0.12178018;0.16420823;-0.13486396;0.16904224;-0.00842306;-0.06787919;0.10275524;-0.05652882;0.13752748;0.20246029;0.027786171;-0.08495627;0.045228485;-0.007744985;-0.07042779;0.06875545;-0.0049188617;-0.16415833;0.029033186;-0.081619844;-0.034814738;-0.0035080716;0.2462689;-0.15956773;-0.11437493;0.17128587;-0.1900568;-0.0782624;0.026731478;-0.006519405;-0.15030915;-0.0704903;0.038379256;-0.036429178;0.1696721;0.0009810317;0.0072069364;0.05314734;-0.035142686;0.087767676;-0.1703405;-0.04468223;0.046873618;0.046359196;0.03579873;0.07705067;0.013951418;-0.09758698;-0.13156791;0.021241453;-0.26767775;0.16032904;-0.04267047;-0.09314814;0.08987272;-0.1114495;-0.17127734;0.08934715;0.025631778;-0.008443078;0.1042343;0.006067087;-0.06279034;0.15265554;-0.003844127;-0.18992752;-0.22234711;0.03994544;0.028718827;-0.028842155;-0.14822155;0.20082283;-0.089469686;0.13150032;-0.23539598;0.05249503;-0.054382782;-0.037772376;-0.057779737;-0.0036824024;-0.0012635374;0.08936758;0.06408896;-0.032673284;-0.046451423;-0.046047203;0.027558837;-0.061952725;0.20651615;0.026937285;0.021153502;-0.0080186995;-0.01686255;-0.23264353;-0.102422476;-0.12244058;-0.021942526;-0.043981533;-0.14580594;0.09778363;-0.12890132;-0.030088564;0.052535854;-0.024528384;-0.059463575;0.040829513;0.0052853175;-0.23966575;-0.078735724;-0.10105492;-0.10630025;0.013842884;-0.14645177;0.044146083;-0.11695131;-0.15564616;-0.010281158;0.08581835;-0.15213805;-0.040337425;0.08221844;-0.049633052;-0.0043871026;0.07139194;-0.112001956;-0.119722806;0.1073847;-0.22908135;-0.036512647;0.10408796;0.044499505;0.029873194;0.1343462;-0.07581973;-0.0068476;-0.089647114;0.14798222;0.014738308;-0.22942209;0.119414255;-0.06467473;-0.05390396;-0.022337152;-0.105014175;-0.050703283;0.0796033;-0.1089988;-0.07771425;-0.11491066;0.03458483;-0.0064942976;-0.019922184;0.19792312;-0.03811556;0.08374176;0.026590236;-0.18688819;-0.029520823;0.07660218;0.0027563658;0.0006553007;-0.17196897;-0.021784985;-0.05533838;-0.027791651;0.2010063;-0.21688922;-0.11026482;0.10411543;0.15247445;-0.15693809;0.11545639;0.03780067;0.12044992;0.04174247;0.18256712;-0.12284142;-0.030004052;-0.04891563;-0.16999906;0.062236883;0.0073234793;0.04792523;-0.02940398;0.052174505;-0.27873945;0.030906541;-0.0056851245;0.049799744;0.12599964;-0.05263131;0.054566592;0.14971134;0.11356639;0.009258576;0.025774598;-0.13297223;2.7212316e-06;-0.10808936;-0.18534666;-0.060471613;0.0288359;-0.23675522;-0.04326696;-0.26082516;-0.04870074;-0.13534418;-0.04034945;-0.13269027;-0.105856106;0.081928484;0.15337947;-0.21768191;0.0856547;-0.10304037;-0.04299928;-0.051799536;0.10852865;-0.04803097;0.088396646;0.13118856;-0.05184112;0.053604867;0.10601494;-0.05543171;-0.19844842;-0.08091832;0.03733764;0.0043632914;0.0081561925;0.14650826;0.0451438;-0.0040832614;0.022646168;0.125572
0.05153062;0.16070886;-0.025559481;-0.09453964;0.16988616;-0.104059726;0.13987175;0.10620314;0.007054252;0.05312989;0.12696514;0.04682006;-0.11555522;-0.1500599;-0.26079166;-0.12238648;0.04961353;-0.09842526;-0.050299045;-0.17686251;-0.037041;0.00044253343;-0.1697305;-0.15680061;-0.096696764;0.03453173;-0.09506579;-0.090742484;-0.051685035;-0.06720882;0.027119752;-0.035783213;0.1234427;-0.03745774;0.033447053;0.2592564;0.13837408;-0.22065952;0.1021941;-0.042930525;0.0037906822;0.118000716;-0.03534651;0.16069111;0.07319542;-0.07352954;0.025760422;0.043318175;0.11335931;0.123524405;-0.1300967;0.15761577;-0.09046042;0.124895975;-0.018385114;0.022720622;0.050525043;-0.18761662;-0.053591665;-0.023384973;-0.00072763;-0.1624351;0.081939735;0.06672708;-0.08685592;0.1167067;0.046312943;-0.07141042;0.085594326;-0.10356584;-0.09307724;0.041097775;0.007706372;0.033494905;0.06435797;-0.03932597;0.053021777;-0.026650026;-0.21108626;0.14504886;-0.18567915;-0.0021461078;-0.032940313;-0.12480708;-2.7546152e-05;-0.14043435;0.01644785;0.04033839;0.048076726;-0.10898215;-0.21608745;-0.13838823;0.025042566;0.20132984;-0.016739951;-0.042924546;-0.06121687;-0.013029805;-0.08545518;-0.10604657;0.09843895;-0.120963566;0.039610907;0.015990645;0.058540534;0.09386619;0.084093906;0.052439135;-0.27894995;-0.060123242;-0.055533327;-0.017408801;-0.06302046;0.22010459;0.08246804;0.10868949;-0.034749683;-0.05997043;0.010580205;0.21862818;-0.18286197;-0.090054356;0.04005676;0.011591368;-0.12332872;0.18813962;0.0544578;-0.05415504;0.023620605;0.08120989;-0.021371052;0.035278555;-0.12989944;0.006458204;0.11167592;0.06966179;0.058356352;-0.21095473;0.1439619;0.015860604;-0.04097179;0.12233816;-0.060665566;-0.18571226;0.02967251;0.029468464;-0.036755957;-0.051897865;0.027262827;0.10841748;-0.15777215;-0.022191595;-0.1970772;-0.17188457;-0.19830139;0.036806736;0.016772322;-0.007634841;0.010241517;0.030683791;0.031474408;0.1843264;-0.0036443595;-0.10371049;0.1297002;0.023086581;0.19284867;0.024686519;0.10845897;0.048525676;0.20698623;0.113778636;-0.08016976;-0.021495434;0.050810277;-0.05332543;-0.049733933;-0.006916586;0.0835775;-0.18870491;0.10379479;0.3312096;-0.029534014;-0.005305604;0.050599657;-0.046256904;-0.17235227;-0.058442496;-0.16164641;-0.048717786;0.09412526;0.04916634;0.10507069;-0.090829104;0.12830557;-0.1601946;0.13027696;0.0007092219;-0.07868925;0.026502473;-0.11371691;-0.17152643;-0.009597773;0.08547749;0.042969394;0.11736792;0.015589612;-0.048382565;-0.10887503;0.012946028;-0.11526378;-0.055544987;-0.114949465;-0.013083106;0.05606263;-0.00074690534;0.016060803;-0.17674278;-0.1328391;0.0732729;-0.15582046;-0.023001647;0.030719556;-0.090670265;0.038450617;0.0016824666;0.05600902;-0.07236192;0.17958878;-0.10925989;-0.037627492;-0.013146668;-0.058806933;0.3136774;-0.0073934686;0.15227392;0.11697497;-0.0030017823;-0.077035606;-0.051994026;-0.1340523;-0.0603055;0.031556744;0.06301192;0.12485585;-0.027395729;0.05726247;-0.09310837;-0.06438444;-0.1734654;0.20638993;-0.043199163;0.22422053;-0.10679052;-0.028344486;-0.04631023;-0.054022174;0.116872795;0.1380675;-0.011067088;0.024911225;0.04930691;-0.009573407;0.11953212;-0.0010893397;-0.04256478;0.059836242;-0.00010038421;-0.09291281;-0.20897119;0.019092564;-0.033178262;-0.258482;-0.22565477;-0.041368328;-0.0067285285;0.1463208;-0.08360821;-0.17659919;-0.08613361;-0.06530338;-0.017323187;-0.16742387;0.04760057;0.07750085;-0.16931823;-0.028071443;0.08023964;0.036447667;0.0076579954;-0.15000427;0.0380197;-0.20487243;-0.05789602;-0.0013330723;0.062067203;-0.03218811;0.026915295;-0.055351786;0.13686943;-0.14920977;0.06921616;-0.050306715;-0.019220449;-0.28420448;0.02316062;-0.10979085;0.0051477845;-0.017871516;-0.2521025;-0.079544;-0.05749527;0.002603662;-0.07070722;0.07819253;0.043816198;0.086523704;0.13328812;-0.047177427;-0.14370134;-0.10757074;-0.04672653;-0.13157637;-0.027570581;0.21448985;0.15744674;-0.062558584;-0.06074157;-0.066371575;-0.13204782;0.06430972;0.072029114;-0.122951254;0.08176858;0.057376597;0.0511403;0.020084592;0.11648042;0.06744923;-0.08560037;-0.25195932;-0.02492118;0.0845225;0.011333985;0.10768145;0.07657433;-0.047909055;-0.021944555;-0.0653878;-0.031039074;0.19616154;-0.008663826;-0.15397716;0.038347267;-0.009946052;-0.07196743;0.09262387;0.12503754;-0.20649998;-0.030645978;-0.027284792;-0.061439585;-0.06829264;0.30289078;0.009243233;-0.09977854;0.02142325;-0.20139253;0.086530216;0.022127429;-0.10618252;-0.021394197;-0.007204952;0.09975753;0.024216367;0.058254104;-0.08308496;-0.11265933;-0.038161308;0.06301626;-0.03641322;-0.057089455;-0.086543895;0.030888049;0.009026805;0.1495591;0.11978229;0.04764004;-0.035429724;0.095709756;-0.06646816;-0.07170213;0.2125843;0.09548879;0.030563066;0.078806825;-0.13295993;-0.14680085;0.090612456;0.01896122;0.032588113;-0.03822094;-0.04347533;0.06659178;0.18982796;-0.06906636;-0.142541;-0.19666415;-0.06419905;-0.03459341;-0.1873471;-0.16802698;0.091773294;-0.018555565;0.18985952;-0.16288592;0.12674573;-0.07004371;-0.16420098;-0.14836192;0.12317502;0.0038410518;-0.0026846416;0.062555306;-0.14493065;-0.033244733;-0.13294758;0.04313287;-0.059543543;0.26693302;-0.06682662;-0.11158264;-0.063395195;0.07308509;-0.24286833;-0.10864234;0.014899019;0.041654877;-0.046679575;0.070189476;0.0034682753;-0.035501808;-0.0889688;0.094356075;-0.042011116;0.03530947;-0.019046945;-0.03377092;-0.21395543;-0.120538145;-0.104336075;0.11528215;-0.030540176;-0.08204118;-0.049846333;0.07800572;-0.1752434;0.076538466;0.120401226;-0.08947651;-0.08783447;0.096574865;-0.12889846;-0.005280276;0.16204122;-0.13414483;-0.16760004;0.20736459;-0.11553917;0.06492645;0.11304342;-0.008441292;0.009576634;0.134507;-0.036651745;-0.012674185;-0.08583331;-0.06428806;0.060634885;-0.038746297;-0.020510208;-0.015701404;-0.09096635;-0.024625903;0.107274726;0.044501856;-0.0036410983;-0.08626719;-0.07279355;-0.16590449;0.061559115;0.0775407;-0.085006095;0.10988327;-0.029327823;0.022715902;-0.017293282;-0.057338145;-0.00936169;-0.015812224;-0.025429683;0.006758442;-0.17171657;0.075513855;-0.021437438;0.17205115;-0.057514843;-0.14292943;-0.024208771;-0.0067657335;0.16009417;-0.07141409;0.043085817;0.1012588;0.06263157;-0.0017554414;0.15426673;-0.05561761;0.020712906;-0.040156104;0.015114195;0.08694864;0.006128792;-0.009085944;-0.029594868;-0.028867725;-0.28134432;0.124198906;-0.013095558;-0.10280779;0.1410955;-0.061794724;-0.074602105;0.27804312;0.1578907;0.0738481;0.12307118;0.017860532;-0.16846234;0.05365046;-0.14212538;-0.03291205;-0.03972991;-0.12403877;-0.08118166;-0.0980893;-0.0811773;-0.023212893;0.055646203;-0.14596848;-0.010707993;0.05048337;-0.050420057;-0.08649986;-0.01524986;0.07535327;-0.22868703;-0.0912763;0.056052964;0.016105032;0.0037561292;0.10814341;-0.048551638;0.0049615395;-0.090106405;0.022091346;-0.11338101;-0.05553008;-0.12236853;-0.053801686;0.0708038;0.21560907;0.026119528;0.15644951;-0.02776017;0.02512514
0.0005524327;-0.045874253;0.087694325;-0.2066428;0.14266057;-0.120785356;0.16039617;-0.038129505;0.08172416;0.06676121;0.1304738;0.2257431;0.029594012;-0.12899907;-0.16779365;-0.082966395;0.10773674;-0.16318777;0.017748632;0.00085544575;-0.1491798;0.098451585;-0.05106001;-0.052790783;-0.00888759;-0.018731505;-0.05677009;-0.0014918483;-0.07747517;0.044949878;0.07295617;0.00014549032;0.18125068;0.17309041;0.085354365;0.18739022;0.16004005;-0.1448256;0.016944848;0.018476946;-0.05145191;0.08919245;0.04647213;0.10677938;0.15768759;0.04800665;0.1067654;0.063091755;0.022529144;0.012574133;-0.074927256;-0.05476491;-0.21074578;0.06562431;0.088037975;0.16850282;0.054794367;-0.07548822;-0.32821295;0.023232486;-0.117533505;-0.14419079;0.035847418;0.029868985;-0.08941259;0.15568921;0.064195566;0.05030152;0.03708232;0.055422056;-0.24976414;0.059003115;-0.045949496;0.13335302;-0.08528348;0.11699529;0.02034487;-0.025131375;-0.0700318;0.04814583;-0.22135061;-0.014987783;-0.08808939;-0.20847216;-0.06439606;-0.09779701;0.12417879;-0.002535784;0.078267656;-0.014549126;-0.24589767;-0.08879945;0.07926463;0.2099671;-0.016837653;0.007474802;0.074700125;-0.048880395;-0.25821596;0.096047804;-0.016968299;-0.0044286656;-0.03498597;-0.0605673;0.08103324;0.11656944;0.023319637;-0.027823793;-0.14646739;-0.078706324;0.023162562;-0.101542614;0.07916161;0.30087474;-0.08175688;0.037020463;-0.047980223;-0.12675692;0.08476033;0.023938956;-0.08982359;-0.018134022;-0.058016207;-0.010461035;-0.032276742;0.17144836;0.0589414;0.021058474;0.112301424;0.06344679;-0.07505247;0.17743647;-0.25441474;-0.057310108;0.28612876;-0.05475303;0.137623;-0.11408247;0.13213766;-0.07486028;-0.08840358;0.0073830443;-0.095177144;-0.06547828;0.055857465;-0.11149983;-0.040279083;-0.048925366;-0.18151474;0.010825466;-0.068943486;-0.12867053;-0.14639781;-0.062871546;-0.12304695;0.038176015;-0.06713576;-0.07198384;0.061925653;0.23747993;0.11766333;0.08487168;-0.26162267;-0.027918473;0.11906423;0.01678921;0.14152129;-0.011211404;-0.06759879;0.044639803;0.21847466;-0.019304812;-0.021074755;0.10079717;0.07582009;0.022124894;-0.06662177;0.039268702;0.09482395;0.13663824;-0.06683463;0.3857735;0.04778782;-0.04330024;0.05794571;-0.14625011;-0.05241782;0.101117164;-0.006392531;0.070419975;0.04467369;0.09699362;-0.00086841825;-0.05626587;0.092216425;-0.027427213;0.23512071;-0.03723384;-0.2407637;0.057947237;-0.086218916;-0.15777053;-0.085027926;-0.032469675;-0.10204759;0.07675519;0.1337527;0.0005827448;-0.17458206;-0.025574435;-0.16149794;-0.136185;0.008497967;-0.05673435;0.063816406;0.16089667;-0.071852036;-0.032164983;0.059902824;0.05574623;-0.1488663;0.085821606;-0.07611395;-0.037038144;-0.043338206;0.06784531;0.14948474;-0.07974379;-0.048208073;0.028068168;-0.012359167;-0.050701417;0.114892274;0.13880634;-0.012776886;0.15636283;0.13254039;0.0773005;0.0041930396;-0.107201934;-0.024942195;-0.08727134;-0.064800404;0.11642638;-0.009559854;0.036942836;-0.027056843;0.047325324;-0.08064754;-0.22279562;0.037269805;0.13082935;0.045069575;-0.1636744;0.03899858;-0.0454246;0.011498504;0.0023960678;0.021164661;0.02611455;0.05706567;-0.06749834;-0.07115945;-0.03891347;0.21376996;-0.040147472;0.017410552;0.021482;0.025664458;-0.18887942;0.015674163;-0.06264997;-0.21657154;-0.22154218;-0.09710321;-0.08075028;0.059180748;-0.16170038;-0.19016816;0.008876553;-0.06299107;-0.0689382;-0.15022664;-0.06704337;-0.08496517;0.004080314;0.02012246;0.023980198;0.005557915;0.012098399;-0.1322704;0.057149984;-0.27590334;-0.0037878212;0.140996;-0.08751876;-0.11616079;0.038242113;-0.04520361;-0.00035743543;-0.123604745;0.07589786;0.079959705;0.08286046;-0.11628091;0.07956637;-0.101128265;0.023288155;-0.13768901;-0.1780391;-0.0028098568;-0.13099758;0.0840004;-0.019591196;-0.0410088;0.12367542;0.08481831;0.2302942;-0.08245639;0.079036504;-0.14971071;0.0044184704;-0.08475216;0.037925698;0.25270763;0.0239426;-0.12965836;-0.0038076798;-0.15496963;0.055975705;-0.04235161;0.16068271;0.017547766;-0.051122785;-0.006708518;0.17105685;-0.0037655248;-0.13027155;-0.1284919;0.059271738;-0.20214275;-0.047027756;0.13253215;-0.054768037;0.069818564;0.1184376;-0.019806802;-0.11581902;0.12487934;0.1286071;0.12397353;0.009413334;-0.07772883;0.109938666;-0.20003872;-0.11687877;-0.086690515;-0.07978058;-0.15314092;0.17449178;-0.069166794;-0.07868696;-0.024417741;0.24533392;-0.041654043;-0.14077854;-0.03853711;-0.14005038;0.08160306;0.15367092;-0.111140326;-0.15894718;-0.037849758;0.20099202;0.025982756;0.07956962;-0.1814405;-0.10487285;0.1419898;0.019789435;-0.00011259077;-0.14913999;0.105792016;-0.008864371;0.07402123;0.016526012;-0.05974093;0.13421735;-0.03743987;0.09853717;-0.03382173;-0.1302709;0.19772229;0.16569218;-0.083966084;0.111139365;-0.20820534;0.007699852;0.079258196;0.035529584;-0.09956449;-0.017471317;0.057038885;-0.039390624;0.18393004;-0.18186891;-0.10507908;-0.060334757;-0.09346442;0.18977875;-0.0730774;-0.014982855;0.14542645;0.05798761;0.1396984;0.032931328;0.02171936;0.074439906;-0.26522413;-0.13730332;0.0061776573;-0.01749777;-0.08980804;0.028535057;-0.0012578499;0.13535921;-0.07184403;0.0128044635;-0.11950935;0.21295398;-0.07694219;0.063732244;-0.080296375;0.14658414;-0.15529765;-0.0030431869;-0.027115563;-0.020409118;0.0025969397;-0.07090279;0.023652676;-0.099194944;-0.15060619;0.21239172;-0.07482613;-0.041188408;-0.061407074;-0.17102261;-0.18609218;-0.024754487;-0.21654405;0.05188757;0.004282177;-0.037664913;-0.21059795;-0.08151994;-0.14568208;-0.15792666;-0.058831826;-0.01432882;0.02921818;0.13936085;0.062655896;0.019496607;0.0803721;-0.10108084;-0.22664939;0.16146451;0.07422356;0.22501951;0.12433162;0.03861151;0.17625265;0.088332415;-0.010634484;-0.040922236;-0.09361796;-0.20455146;-0.076756105;-0.086755395;0.083279245;-0.013152184;-0.02292996;-0.048001755;0.10918703;-0.09987927;0.0573367;-0.13208744;-0.17903951;-0.020296376;-0.016788675;-0.04846258;-0.14933896;0.18585587;0.04092366;0.054922394;0.00046368153;-0.1383019;-0.008583952;0.19235304;-0.114419445;0.13727695;0.042690195;0.0151424045;0.119502574;0.1334815;-0.020025749;0.13179287;0.015037567;0.027354537;0.035365734;-0.12814757;0.051398408;0.06958934;0.061385315;0.085212104;-0.02439116;-0.17146598;-0.08942578;-0.14956181;0.025481312;0.0878638;-0.012875993;-0.058832947;0.06783859;0.14213018;-0.1540103;0.21200332;0.21813609;-0.062304184;0.10564459;-0.045225773;-0.1700471;0.21849515;0.00512508;0.12062722;0.074908786;0.0006188009;-0.199441;-0.08713842;-0.1272401;-0.06435503;0.015471903;-0.0808012;0.007351105;-0.09381044;-0.011858172;0.00904081;0.163111;-0.22538379;-0.03326942;-0.018551357;-0.05076536;-0.23836376;-0.019670406;-0.005001577;0.050462876;-0.16109659;0.106799714;-0.074355885;-0.025139337;0.05992625;0.056826312;0.06203656;-0.09367887;0.0715723;-0.011647386;-0.06517596;-0.09772082;0.09414627;0.1593152;0.041873634;0.18213512;0.13224165;0.03923706;-0.04750659
-0.038576033;0.060580943;0.15249136;-0.15535954;0.081556015;-0.15504445;0.11543559;-0.06042535;-0.018995378;0.06422685;0.1340136;0.13558623;-0.080824696;-0.17468305;-0.046519082;-0.059502162;0.024695491;-0.05586889;-0.019691307;0.016279992;-0.148063;0.14178202;0.14052106;0.07430914;-0.10655859;-0.120414615;0.056102347;0.017140042;0.013340403;-0.04701335;-0.042966504;-0.12203395;0.13838215;0.15208307;-0.0050364533;0.010334812;-0.01520971;-0.1676149;-0.07290991;-0.007962701;-0.04525023;-0.08247686;0.017991435;0.10714524;0.18134978;0.03117366;0.13836315;0.09877699;-0.042212535;-0.022411529;-0.020577097;-0.087641;-0.20348482;0.1085853;0.037349258;0.022158774;0.06566054;-0.038490046;-0.13713822;-0.0023655;-0.20023884;-0.15602858;-0.19900161;-0.1339185;-0.11228946;0.09512438;0.016774762;-0.05695436;0.022622371;0.06190031;-0.16055256;-0.016120682;-0.062410172;-0.011029839;-0.049682394;-0.042728964;-0.060977485;0.06287566;-0.014478133;0.029570706;-0.2368342;0.104893744;0.039070293;-0.18690287;-0.081881344;-0.24328728;0.085707866;0.016287895;0.009077752;-0.10284143;-0.14850134;-0.056991447;0.061569087;0.28341046;0.0024816322;0.12354159;0.02923722;-0.03581233;-0.036919948;0.110748515;-0.0009968573;-0.13616493;0.062138345;-0.16555797;0.17209478;0.047747694;-0.043771215;0.0112739215;-0.16648056;-0.19856347;0.083682634;-0.11432252;0.09702525;0.12534969;0.03654885;0.08837907;0.10993103;-0.058303487;-0.11136028;-0.048000794;-0.1350102;-0.10764941;0.041956734;-0.09589607;-0.04979327;0.08882462;-0.12051894;0.04361192;-0.11129057;-0.038406067;0.0005736579;0.04399487;-0.10633227;-0.3014981;0.15220796;-0.07249492;0.16100278;-0.09079117;-0.018615415;-0.1040878;-0.14794058;0.090350576;-0.030318454;-0.021324009;-0.033998087;-0.06490342;-0.026979769;-0.09824385;-0.08485439;0.14793266;-0.0012380984;0.004573886;-0.32437742;-0.16188547;-0.0006632886;0.14422561;0.010599746;0.014420558;0.08004165;0.13054647;0.02671322;0.11579213;-0.08632428;-0.11530339;0.033926316;-0.084096886;0.09778625;-0.12995481;-0.007011427;0.011177617;0.015810236;-0.007238009;-0.00033304727;-0.033322107;0.06522667;-0.032600835;-0.1220702;-0.06146788;0.16858955;-0.0076547754;0.1154825;0.12398923;0.011139517;-0.08001898;0.11317233;-0.10524637;-0.207178;0.121816635;-0.0787928;-0.16478424;0.02214303;0.12398786;0.1042511;-0.032476805;0.08934192;-0.16652592;0.14500374;0.0008233854;-0.1582756;-0.09000957;0.030944934;-0.22354437;-0.122657225;0.07059068;-0.13593394;0.0065395623;0.0435718;-0.11363144;-0.20589282;0.042309962;-0.046332113;-0.2162345;0.062265936;-0.10391202;0.20622407;0.24793924;0.048091523;-0.018101508;-0.1033161;0.05394546;-0.10514069;0.06644103;-0.14397834;-0.027251197;0.049924016;0.05941034;-0.041400574;-0.07206887;-0.06550488;0.13014999;-0.21534003;0.049836043;0.058708757;0.055192478;0.016083704;0.09667819;0.15327728;0.07775344;0.08186223;0.075713836;0.058815524;-0.066200085;-0.12946041;-0.010276596;0.08052561;-0.07841493;-0.03151077;0.13614595;-0.024922255;-0.12741594;0.08717791;0.044544633;0.1659698;-0.08488846;0.19191445;-0.034213383;0.068999335;0.06167497;-0.09325361;0.038303144;-0.027375687;0.14656568;-0.07724018;0.12565754;0.005728785;-0.03484579;-0.08829324;-0.15461057;0.074017055;-0.23195791;0.02885232;0.16456497;-0.17906731;-0.2795458;-0.11789192;-0.08861049;0.014279508;-0.13765067;-0.20547158;-0.13737427;-0.05847704;-0.08064681;-0.06332124;-0.18544832;-0.11917326;-0.019864708;0.11521246;-0.040229116;-0.0007917702;0.012800171;-0.061751403;0.009153651;-0.19916448;0.015525024;0.1162513;-0.08401558;-0.06754956;0.05706814;0.048128698;-0.13243708;0.038690027;-0.04513907;0.102492325;0.093497425;-0.10053527;-0.096394084;-0.090790465;-0.0770692;0.0015147462;-0.12216139;0.11511978;-0.03985322;0.1778763;-0.19473566;-0.010570484;-0.009941407;0.0337217;0.2350742;-0.09881132;0.04893651;-0.023032494;-0.0101273125;-0.021277187;0.11871616;0.05137243;0.06855763;-0.033930887;-0.052128516;-0.10153684;-0.088556625;0.1283163;0.13688031;-0.036601458;-0.10358656;-0.08550536;0.06277014;0.06369627;0.1873343;-0.118206136;0.18228757;-0.21266678;-0.037670992;0.17608128;0.0292386;0.13289933;0.19136399;-0.115132645;-0.10999676;0.010789622;0.12077752;0.23382033;-0.075098224;-0.0063257553;0.09882481;0.004572664;-0.17560007;0.017752409;0.019670716;-0.050955;0.10603249;-0.14257473;-0.08145026;-0.052996993;0.29632017;0.036928844;-0.11462418;0.0041344767;-0.123268545;0.0011303979;0.034632843;-0.086387716;-0.08995068;0.08867485;0.08064011;-0.09695431;-0.053936366;-0.06612052;-0.025309242;-0.07142534;0.1558724;0.058373727;-0.019450307;-0.10414152;-0.039928902;0.12942883;0.06136518;-0.0013979039;0.1512689;0.02023515;-0.017240573;-0.018370181;0.0051656067;0.1951357;0.24258742;-0.10117052;-0.010821682;-0.059299503;0.023011873;0.08915838;-0.023831317;-0.021409059;-0.0053855656;-0.012492063;-0.15363808;0.15811475;-0.114702985;-0.1703443;-0.083558045;-0.07379618;0.17265265;-0.037873812;-0.21555737;0.10147079;0.088816546;-0.019417811;-0.17117225;-0.18315236;0.08014465;-0.11318524;-0.17651293;-0.116283156;-0.045639917;-0.0070688766;0.008114553;0.0365541;-0.077700585;-0.16361865;-0.027178647;-0.16317108;0.042082924;-0.060723066;0.15011;0.035200655;0.122583546;-0.09816855;-0.060749635;-0.17983465;0.1959076;-0.11535658;0.05029343;0.0051701954;0.0083966395;-0.054292645;0.25826323;-0.08036513;0.009874661;-0.03005019;-0.18692213;-0.16116494;-0.17063232;-0.15513128;-0.055726282;-0.1282993;0.1641382;-0.31290528;-0.023867214;-0.16049892;-0.050952334;-0.025182772;0.06589826;-0.0713476;0.097639404;0.115220316;0.046735674;0.17288087;-0.15572147;-0.050513327;0.083825365;0.0352338;-0.03929487;0.028126102;0.10644118;0.021703204;0.11815277;-0.009247938;-0.011411274;-0.060837552;-0.04467373;-0.001320328;-0.07006107;0.033444274;-0.13796566;-0.040002212;-0.036832064;0.054994855;-0.18529038;-0.09610292;-0.119418114;-0.20057948;-0.06396978;0.14718927;0.029251855;0.048031695;0.07274139;0.03895291;0.013079028;-0.07724152;-0.16841464;0.019330507;0.22224541;-0.11051396;0.07566463;0.034618035;0.0074577243;0.019748228;0.1519539;0.12087372;-0.015197174;-0.199222;0.0929034;0.0014301807;-0.056209378;-0.011205088;0.0961163;0.021379137;-0.065495834;0.09407703;0.053212892;0.0015153022;-0.12952723;-0.053300276;0.098373644;0.11368596;-7.7708464e-05;-0.10740087;0.0075041405;-0.19523859;0.21026246;0.06020913;-0.011414123;0.23122992;-0.13485649;-0.094742574;0.05730082;0.10861997;0.046838906;-0.050614245;-0.06945608;-0.083650656;0.05494149;0.023784056;0.031201817;0.010451366;-0.16408321;-0.14860561;-0.09574112;-0.0818518;0.015088627;0.16975366;-0.007863469;-0.12291014;-0.08016775;-0.046739664;-0.008354973;-0.024708575;-0.07267089;-0.02411116;-0.11011747;0.046286583;-0.03796073;0.12216982;0.04648665;0.119342156;0.0969893;0.08219763;-0.051739037;-0.17884637;-0.01689641;0.13975596;0.15092511;0.079607636;0.2817282;0.10950324;0.22615263;0.01843109;-0.062398087
0.058409918;0.14538084;0.06450735;-0.109895505;0.17196739;0.0012959326;-0.035484876;0.039571367;-0.0069269133;0.13437049;0.1250706;0.105817184;0.034077317;0.06636254;-0.054067858;-0.053252924;-0.18932429;0.041090902;0.00014421194;0.013697407;-0.15277669;-0.01030997;0.16554412;0.049749196;0.0712538;-0.14343393;-0.064353295;0.012632459;0.017194288;-0.025038518;-0.06458317;0.0035057173;0.08073056;0.11618679;-0.027278375;0.10883922;0.10511747;-0.022786206;-0.10152859;0.03279162;-0.13029754;-0.009913294;0.0077087907;0.01562745;0.19445084;0.014361732;0.032651957;0.13414602;0.108387396;-0.03316332;-0.12550947;0.035313934;-0.18508042;0.094934404;-0.111185774;0.10686451;-0.14829828;0.0423495;-0.12262811;-0.0033025509;-0.19550137;-0.068513684;-0.18120205;-0.033955615;-0.18757759;0.0008611863;0.05703024;0.015328773;-0.039402284;0.063915595;-0.16399686;0.02686548;-0.1377654;0.031588614;-0.05971664;0.08674809;0.036251303;0.081984386;-0.021516087;0.080683835;-0.26725316;0.18139392;-0.034736253;-0.12247628;-0.06756331;-0.2947065;0.08704862;0.05735854;0.05737504;-0.028526086;-0.16556898;0.037655693;0.0315241;0.23393817;0.12537083;0.070711;0.055905275;0.0032588507;-0.099441625;-0.019625813;0.035719503;0.035026163;0.048018347;-0.18756771;0.025135169;0.101894826;-0.0886038;0.112051696;-0.09036571;-0.2078229;0.019786099;-0.09817782;-0.04111527;0.16071355;0.039225247;0.05654272;0.1030115;-0.069769;0.05272706;-0.008726605;-0.13051207;0.0040769144;-0.009814932;0.08587358;-0.06160896;0.16687785;-0.11149777;-0.15741056;-0.020430483;0.13318409;-0.11522988;0.16504076;-0.1721309;-0.18443477;0.12126882;0.0474466;0.18342355;-0.05386354;-0.052940488;-0.10997725;-0.23519403;0.029952057;-0.09441254;-0.08150455;-0.1151419;0.009394567;-0.19173072;-0.12885667;-0.20336825;-0.029974535;-0.0066957753;0.05516352;-0.122888274;-0.15738451;0.05576688;-0.010636138;0.11360772;0.05139778;0.0042691664;0.08120626;-0.01137932;0.21755339;-0.028109256;-0.07570452;0.08305764;-0.10308822;0.072038904;-0.0010929557;-0.008615865;-0.10374792;0.12768479;-0.18768923;-0.050687965;0.03325458;0.02700041;0.0029514555;-0.0358445;-0.0567318;0.15248363;0.011270625;0.008983447;0.113423854;0.054830577;-0.038537722;0.016206082;0.055961736;-0.10817885;0.02900027;-0.02147939;0.00817605;0.08653131;0.11473534;-0.008952204;0.07558457;-0.077660605;-0.13819784;0.2637583;0.007829039;-0.06937469;-0.078883246;-8.076017e-05;-0.119940326;0.020149628;0.05109649;-0.054268822;0.0054690926;0.07496357;-0.00523376;-0.12081451;-0.09421424;-0.10209505;-0.095288604;0.024260482;-0.009060874;0.20023252;0.21743906;0.00011656224;0.08106596;0.029540887;-0.029897304;-0.1693224;0.09296071;-0.10835983;-0.0055601383;-0.0035582038;-0.06564303;0.021547522;-0.08788278;-0.12186397;0.115092;0.04087246;-0.090444975;0.15414205;0.20917973;0.061336987;-0.02716795;0.0468733;0.11258763;-0.07990025;-0.006868984;-0.06907614;0.013112405;-0.10733453;0.05806057;-0.08164885;-0.12556635;-0.1519768;0.013465208;0.017198363;-0.16059564;0.06712714;-0.03258822;0.0013342809;-0.0025073607;0.2025662;-0.14493518;0.13472508;0.18209916;-0.02100002;-0.17224401;-0.057802547;0.015391759;-0.053321745;0.068924755;-0.04227908;0.0590884;0.11660473;0.0033185328;-0.04060611;-0.14876351;-0.058747813;0.13016647;-4.1868785e-05;-0.15701826;-0.010685801;0.0906245;-0.022438904;-0.13733046;-0.08817656;-0.0934295;-0.10474874;0.009401552;-0.0022344943;-0.16819255;-0.0026915537;-0.15733954;0.04612309;-0.0554141;-0.043530297;0.00488656;-0.0564367;-0.034085788;-0.18586372;0.078512006;0.2217275;-0.08498082;-0.18141852;-0.012918095;-0.007917429;-0.14480025;-0.03927308;-0.025316967;-0.0073669543;0.066109166;-0.09079188;-0.0040033166;-0.064247385;-0.005316397;-0.09662404;-0.11363742;0.123567745;-0.039818555;0.120711565;-0.10718176;0.0130680865;-0.05319881;0.117291465;0.07081639;-0.24184415;0.120108195;0.2349596;0.0019054153;0.057230424;0.21470566;0.03906063;-0.035350807;-0.06629679;0.06782833;-0.015169574;0.10264917;0.072444566;0.07794194;0.022183042;-0.055727363;0.15112796;0.16793774;-0.16403066;0.12885335;-0.11356737;0.06186772;-0.19532704;-0.010952006;0.12962829;0.014970598;0.13760254;0.14861771;0.07298145;-0.11168902;-0.024344908;-0.031292938;0.17760941;0.011247903;-0.06983009;0.16671385;-0.024095656;-0.08790557;-0.016399255;0.054141834;-0.05345704;0.018212432;-0.20014547;-0.033083104;-0.09908899;0.22433433;-0.045030765;-0.07466324;-0.061044898;-0.2317695;-0.026716623;0.12525715;-0.06225381;0.037058834;-0.060980186;0.06504557;-0.16690902;-0.10704526;-0.15994692;-0.13609791;-0.04896577;0.033717383;0.05611558;-0.044293683;0.01750855;-0.153043;0.16085948;0.19045207;-0.1350206;0.15212041;-0.07151321;0.03284663;-0.08663205;-0.094115324;0.12762126;0.25382084;-0.24044594;0.086131416;-0.022580799;-0.07712648;0.030031558;-0.13663699;-0.029870436;-0.0021072417;0.09833999;-0.08060128;0.11286308;-0.020316223;-0.1114994;-0.067255355;-0.2033451;0.16455649;-0.16511947;-0.16560589;0.1383814;0.073989324;-0.07491416;-0.17582683;-0.033409305;-0.18387309;-0.063491546;-0.13115339;-0.054411326;0.017177278;0.12867841;0.02451804;0.044924676;-0.041550238;0.013711025;-0.03465163;-0.048021425;0.091640696;-0.014481626;0.05284849;-0.010329968;0.20184208;-0.057987288;-0.10740965;-0.13823536;0.07069557;0.014926246;-0.11916879;0.010047385;0.06956058;-0.027417352;0.18653554;-0.092290856;-0.052903194;0.02004478;0.0296469;-0.21435246;-0.21153142;0.07904778;-0.07812884;0.07243251;0.18549423;-0.1603418;-0.05986927;-0.13818969;-0.14563577;0.05384856;0.021961337;0.10597481;0.11652865;0.02715973;0.093780756;0.04855585;-0.12934035;-0.17096438;0.09024419;0.090406775;0.08977878;-0.008082991;0.027312944;0.047723822;-0.053788316;0.006957195;-0.08174404;-0.0072589093;-0.0069371476;-0.0060731573;0.10847459;0.09466737;-0.08823863;0.048989616;-0.07232296;0.01614666;-0.05221965;-0.15422155;-0.11861172;-0.16952622;-0.07481547;0.023613513;-0.013714819;-0.0470881;0.08350071;0.15431914;0.03743144;-0.031639136;-0.07997363;-0.036723632;0.13088945;-0.042004768;0.14413485;0.07713267;-0.058903884;0.15092257;0.25911906;0.004181353;0.13152629;-0.046378497;-0.015396883;0.061827146;-0.022324461;-0.03876219;-0.0073049553;-0.050599784;-0.018058343;-0.07789327;0.01952138;-0.08609322;0.037841227;-0.030463768;0.037211053;-0.054433327;-0.017447565;0.042044718;-0.002967479;-0.28565094;0.20452783;0.1473601;-0.24801476;0.1979525;-0.109038055;-0.09516268;0.07406282;0.07394854;0.104496986;0.056410294;-0.022795806;-0.006027011;-0.13005325;-0.044422846;0.06141041;0.12156697;-0.13711686;-0.14282186;-0.0063615637;0.06904147;0.22160427;0.041531797;-0.07318053;-0.08008494;-0.05382994;-0.015782353;-0.14761887;0.057469778;-0.051589448;0.061769325;-0.06298145;-0.1519589;0.0020342912;-0.0068906667;0.07549099;0.048021764;-0.07219127;-0.02866204;-0.01068586;-0.09801782;-0.06755526;0.17946652;0.03547498;0.08618086;0.00031577307;0.10024805;0.18354866;0.08597856;0.03980762
-0.04901841;0.07630916;-0.072660625;-0.06249424;-0.037800197;-0.038442265;-0.0058316444;-0.07889206;0.061245248;0.08004605;0.019205319;0.1276729;-0.00033704657;-0.056418642;-0.018712647;-0.19695789;-0.13378622;0.037060734;0.107527025;-0.041943613;-0.17792225;-0.0338463;0.12659247;-0.03973123;0.08778587;-0.0800137;-0.09870519;-0.09803016;0.012568153;0.024362171;-0.031620555;-0.095842406;0.12667309;0.15178438;-0.11070763;0.26204365;-0.017115826;-0.17011279;-0.07369911;-0.0117607005;-0.17638424;-0.056038138;-0.09649694;-0.10931704;0.08085281;0.0959163;0.07974102;0.16734968;0.10123218;0.0044025746;0.011106607;0.11623553;-0.19544414;0.18506508;0.0001434455;0.17010437;-0.019508727;0.019732092;0.0014266162;0.070605054;-0.13751037;-0.010620334;-0.14326441;-0.08079663;-0.05600202;0.052493278;0.08033649;-0.011135741;0.09314495;0.052350897;-0.24006645;0.0801543;-0.062797524;-0.047240853;0.0045870715;0.068017624;0.108646385;0.1617503;-0.08986978;0.02869898;-0.18025361;0.1648902;-0.14489585;-0.10854723;-0.18352497;-0.20163944;-0.059245504;0.08936535;-0.021836106;-0.132785;-0.088578895;0.07037853;0.016480507;0.099353634;0.1027235;0.13321267;-0.02881269;0.105236776;-0.072847046;-0.00888609;-0.05341207;-0.09591647;0.008936362;-0.15768005;0.098392606;0.0075402325;0.014751831;0.08007675;-0.0590843;-0.10170758;-0.02228424;-0.1456841;-0.0023170628;0.14208843;-0.08017018;-0.050329544;-0.006672356;-0.06938819;0.0149127515;0.13252877;-0.24003829;0.07458522;0.12128105;0.098602496;-0.060283165;0.14748472;-0.08374379;-0.095340796;0.1341968;0.03630095;-0.07495019;0.028504197;-0.19715281;-0.29692268;0.098630674;-0.09780332;0.112587534;0.13028577;0.083310574;0.093375996;-0.05023762;-0.07314586;-0.04394932;-0.022354854;0.1356753;-0.1822799;-0.1012725;-0.09738979;-0.11237948;-0.09751653;0.009857437;-0.0593254;-0.051743317;-0.11158794;0.12953271;0.072507136;0.07917096;0.011700042;0.06539115;-0.04843512;0.005371656;0.15530676;0.1035906;0.09730139;0.12953803;-0.055393554;0.0037406755;-0.051239014;-0.06453489;-0.0045686485;0.14225063;-0.060174733;-0.031632505;0.06437161;0.000646134;0.07366036;0.01097163;0.11809307;0.16142732;0.009083593;-0.040476523;-0.02069629;0.0034003302;0.016227556;-0.022814795;0.01590236;-0.13729991;0.028829804;0.012361675;-0.02486005;-0.09331125;0.08076157;-0.041712176;-0.09726998;-0.028099852;0.0024828266;0.24294798;-0.019321395;0.039698903;-0.048587;0.027591595;-0.15986928;0.054210726;0.059449747;-0.09663418;-0.11009819;-0.03878288;-0.010228728;-0.0760222;-0.10707494;0.061466757;-0.1446101;0.07822064;0.115440525;0.10092246;0.07100109;0.10342836;-0.023682723;0.04707;0.016001595;-0.117971346;-0.04272497;-0.21104877;-0.020925466;-0.04642418;-0.026010597;0.033499237;-0.24534734;-0.21227871;0.062503554;-0.058030255;0.005445839;0.14207923;0.09016679;0.004913714;0.009614459;0.1273608;0.112342;0.093450464;0.00021080428;0.022680286;-0.0005581934;0.006644777;-0.047925003;0.019914389;0.028831515;-0.1262901;0.06346514;0.046333823;-0.010242143;0.027770748;0.013677477;0.20146202;-0.160827;0.27486488;-0.030574707;0.021120453;0.14162782;0.024542792;-0.24024186;0.0009696142;0.035801664;-0.038114306;-0.030101495;-0.019661551;0.007386534;0.07644799;-0.12096;0.049228247;-0.108844146;0.11397223;0.009577437;-0.06998669;-0.06774959;0.063524574;-0.05260036;-0.105560996;-0.066581786;0.019058075;0.00734135;-0.021714395;0.043815967;0.09230681;-0.13943674;-0.090689145;-0.12450722;0.079571046;-0.078647226;-0.043510586;-0.11573885;-0.029808417;-0.056925394;-0.2569056;0.15193573;0.03829345;-0.13894139;-0.120202914;-0.119605795;-0.11072012;-0.16064005;-0.15420286;0.1541917;0.07068359;0.12558159;-0.12365509;-0.13445221;0.08422513;0.072212726;0.035182867;-0.013962359;0.1987032;-0.110377096;0.09115882;-0.058696162;-0.05100046;-0.08376704;0.0652994;-0.004888539;-0.08946027;0.055543073;0.18050393;0.06746399;0.04537059;0.24610902;-0.0407949;0.039052412;-0.09421576;0.041831;-0.053467132;0.039987125;0.023228724;0.09185268;-0.063589424;0.041956067;0.0040061045;0.06687729;-0.28422782;0.015506756;-0.08403839;0.012921676;-0.3087757;0.049928386;0.084709406;0.16028363;0.1999737;0.023545371;-0.05701788;-0.14473563;-0.04544078;-0.030593766;-0.037474938;-0.09792185;-0.047944333;0.2179096;0.0013904092;-0.08374469;-0.18334532;0.06372176;-0.022657964;-0.05933221;-0.20994796;-0.09766371;0.10391285;0.046948526;0.10767146;0.046182908;-0.038790524;-0.105392;-0.049892064;0.094776794;-0.15808104;0.06893818;0.042756993;0.15982029;-0.14886372;0.0019394831;0.046745013;-0.09897604;0.054601967;0.12590672;0.1158187;-0.112187326;-0.018070778;-0.072452165;0.09765719;0.07354311;0.0578704;-0.020872686;-0.08620183;-0.019831955;-0.04493546;0.0114353;0.049224477;0.23758344;-0.2895157;0.026407884;-0.08236394;-0.122773394;0.07466978;-0.028624898;-0.04293839;0.16351555;0.12475977;-0.11777304;0.18755302;-0.098364495;0.06592157;-0.16268745;-0.04813444;0.13415843;-0.020353466;-0.10527099;0.09093669;0.0036162098;-0.09685566;-0.0496992;-0.09818071;-0.093070194;-0.15489538;-0.10632964;-0.13712588;0.18746586;0.15997772;0.052794572;0.06851318;-0.1678277;0.0062634023;0.032681413;-0.05803637;0.03343038;0.02255093;0.059733965;-0.021595655;0.07547108;-0.026934354;-0.09663429;-0.1741133;0.114362404;-0.08874841;-0.035944507;0.05320053;0.08685135;-0.02286598;0.17583483;-0.0044222884;-0.12997834;0.09716272;0.10410272;-0.056225996;-0.053166233;0.103433855;-0.2224077;0.01314784;0.14702752;-0.35600802;0.11014662;-0.047867525;-0.05047444;-0.028201375;-0.16093934;0.031226793;0.119664215;-0.017330127;-0.013750548;0.09099774;-0.16841765;-0.17180535;0.12212487;-0.024533855;0.19850929;-0.081126705;-0.05803046;0.07076687;0.11576385;-0.017229827;-0.08056046;-0.11191097;-0.068611585;0.084598295;0.21800351;-0.04612503;0.07924039;0.084733784;0.08285998;-0.008320269;0.029845932;-0.09235998;-0.09852325;-0.23022565;-0.22647317;-0.048730668;-0.030739447;0.14960241;-0.03540736;0.17830265;-0.0002690424;0.017596958;-0.0643224;-0.033163045;0.085738204;-0.070574835;0.025635632;0.053073127;-0.1861637;0.121883124;-0.0018903124;0.12981248;0.13236849;-0.12030559;0.044592336;-0.12484896;-0.12898703;-0.015479373;0.21499303;0.045514353;-0.04140131;-0.007877964;-0.06452209;0.14485647;-0.069648705;-0.117180936;0.030327966;-0.119559325;-0.17644937;-0.018686911;-0.06925794;-0.29433304;0.034670673;0.022087546;-0.15750912;0.0581545;0.038989384;-0.15844478;-0.12573716;0.055242196;0.24405915;0.124465995;0.03741048;-0.08009935;-0.073145516;0.13635418;0.056160152;0.041993313;-0.20930679;-0.090911396;-0.04572876;0.07973678;0.15109651;0.034940593;-0.09571251;-0.15274027;-0.04574185;0.055308145;-0.010339144;0.11016528;-0.09859819;0.15080751;-0.051756904;-0.14146756;-0.094817616;0.0011578857;-0.014910649;0.048988007;-0.019521808;0.06838028;-0.18373828;-0.11135359;-0.009338756;0.087168716;0.16432044;0.02494242;0.19485132;0.13947159;0.11459314;0.053869188;-0.056696102
-0.0051487926;0.009039273;-0.06663434;-0.06394878;0.020071968;-0.0024314784;0.06291134;0.0447514;-0.0108718155;0.13713819;0.12863714;0.08823749;0.049512137;0.035720177;0.057889137;-0.08262992;-0.110363126;-0.08904722;0.16650617;-0.1563058;-0.10614805;0.0049846326;0.12033921;-0.07123819;-0.025616093;0.014684306;0.009834561;-0.064883254;-0.109841466;-0.07133417;-0.03696562;-0.047621284;-0.07682562;0.16964847;-0.06765845;0.14268664;-0.031197375;-0.05239596;-0.25924268;0.11644124;-0.18114717;0.04419495;-0.15018989;-0.20173654;0.31281525;0.06956262;-0.11940605;0.1512423;0.0781831;-0.03807057;-0.06466622;-0.07729501;-0.20764601;0.24828596;-0.19579445;-0.029309504;0.04806575;0.1098672;0.028402943;0.11953071;-0.28678018;-0.0746535;-0.10999972;-0.031989433;-0.0058618574;-0.16580926;0.010385799;0.1454682;0.10239584;0.07671044;-0.07505318;-0.015082024;-0.024247197;0.03815427;-0.0041311737;-0.004793566;0.15073231;0.018240672;-0.08753028;0.19431493;-0.23296347;0.2466086;-0.14417005;0.034052745;-0.13563982;-0.22928889;0.08475653;0.0062931487;0.03018099;-0.050800823;-0.009020641;-0.09741484;0.11544442;0.13271867;0.29360965;0.09624839;-0.11997338;-0.027492877;0.023751449;-0.10299542;0.066380806;-0.0542831;0.060671046;-0.015966918;0.13446373;0.084024966;-0.08713185;0.12575014;-0.028860042;-0.26216304;0.020321103;-0.1045922;-0.054564487;0.2018439;-0.14834395;-0.045062818;-0.056099806;-0.19608551;0.11683272;0.19266954;-0.18600772;0.08864451;0.04999204;-0.05765561;-0.100685485;0.0850955;-0.056957815;-0.05101563;-0.016537085;0.038715053;-0.05177551;0.056851745;0.0046520513;-0.30061838;0.2252441;-0.18013513;0.17632195;-0.06697671;0.084375374;-0.088637926;-0.17764595;-0.08517088;0.027279574;-0.15535091;0.071238734;-0.068212226;-0.07945586;0.043890998;-0.22132081;-0.2566009;0.17307064;0.029205522;-0.18514028;-0.028343342;0.14227939;0.14675206;0.065315396;-0.063316576;0.1403244;0.01587585;0.06307331;0.19235876;0.04751402;0.06330925;0.046715483;-0.024392255;0.11745513;-0.013210496;0.015109417;0.053445294;0.21357857;0.018147888;0.002650141;0.12750523;-0.0014759423;-0.0813106;-0.0030171645;0.21602482;0.07166214;-0.1393796;-0.007345678;0.06349287;-0.14872323;0.021317372;-0.032627396;0.005450225;0.12371257;-0.018794887;-0.028605422;-0.052073244;0.088807106;-0.0074122916;-0.047324024;-0.085463874;-0.13032536;0.037082717;0.14236742;-0.08763876;-0.069950856;-0.11503864;0.2274296;-0.07957125;0.090250306;0.1281995;-0.13634393;0.08879241;-0.0007125701;-0.013429854;-0.20436049;0.055481568;0.18989238;0.08766134;0.10966399;-0.0017705717;0.032241475;0.036956843;0.037152585;0.07612845;0.025128629;0.01527776;-0.24076219;0.024934748;-0.079799004;-0.019323265;-0.0147617515;-0.104574576;0.059641954;-0.22564824;-0.13772045;0.0013728671;-0.021860737;0.0071327654;-0.037049487;0.033601023;0.0608545;0.09012705;0.029760107;0.07981408;0.058955185;-0.049689304;0.054987878;-0.044169996;0.027435763;0.0292755;-0.12545988;-0.11356453;-0.22818145;0.123475984;0.10744093;-0.10435244;0.15409438;-0.07011419;-0.034037698;-0.036373865;0.16067639;-0.12095174;0.0021275298;0.11475443;0.0025335583;-0.07695027;-0.088789076;-0.023051571;-0.002631908;0.0021728822;-0.060632806;0.051151693;0.08713868;-0.11360613;0.05228794;0.09445827;0.047569938;-0.017715747;-0.07045009;-0.16944377;-0.10100967;0.02836354;-0.045333322;0.09466719;-0.045027617;-0.12201065;-0.0050648646;0.008081226;0.2745898;-0.11520122;0.011878438;-0.04431032;0.14126275;-0.036098108;-0.040980943;0.016303949;-0.05711414;0.07001261;-0.17580701;1.9807525e-05;0.1950358;-0.07879464;0.06307947;0.023406886;0.009447665;-0.096213005;-0.23983017;0.022632083;-0.07704132;0.106914744;-0.112973325;-0.20906723;0.0569253;0.108792804;0.041643597;0.031963076;-0.023655254;-0.029213762;-0.057572447;-0.06186114;0.17291845;-0.049505338;-0.009262619;-0.100979105;-0.11912095;0.033166513;0.1091771;-0.025565898;0.046059348;0.24031311;-0.044193413;0.0563999;-0.10042523;-0.020461679;-0.1852236;0.06444193;-0.11391894;0.0021261019;0.048101448;0.06525466;0.104673624;-0.011945731;-0.07406245;-0.0024167371;-0.3205462;0.1616019;-0.32697666;-0.08730489;0.18821265;0.024233414;0.08558271;-0.11228311;0.116180174;-0.074963085;0.077782854;0.043526188;0.06585515;-0.061281327;0.022349447;0.1426602;0.047384758;0.06717131;-0.11013093;0.12453609;-0.10060559;-0.036426317;-0.25508898;0.0014166625;0.09551947;0.04877964;-0.09330514;0.0048727607;-0.1245594;0.024772437;-0.052006118;0.09020503;-0.03920868;-0.010328225;0.08896614;0.16745411;-0.08569913;-0.01180331;-0.06366132;-0.07798136;-0.08688979;-0.01985956;-0.100827575;-0.094932996;0.047565643;-0.22313051;0.12643418;0.024389036;-0.11385969;0.09067867;0.03847209;0.13949284;0.026889155;-0.05053527;-0.052020196;0.29155108;-0.3277736;0.073398806;0.115325704;-0.08874163;0.07366668;-0.011456064;-0.0105378805;0.21549335;-0.048377395;-0.003352236;0.07565185;-0.068985626;0.009813285;-0.013170027;-0.103144445;0.040470466;0.0039288923;0.00091052527;0.04509129;0.078278735;-0.05845069;-0.024520678;-0.06722072;-0.11446095;-0.15379302;-0.08437903;-0.08135776;0.041971713;0.13099523;-2.6936323e-05;0.04737491;-0.014851143;-0.027953485;-0.10798517;0.12188789;-0.1702331;-0.19548848;-0.07395885;-0.110201776;0.053398885;0.05909122;-0.15733851;-0.048050612;0.048442833;-0.12414525;-0.13135755;-0.10095664;0.11534691;-0.07684897;0.052206025;-0.03473173;0.024232859;0.18704474;0.03661834;-0.042176433;0.060957655;0.08151493;-0.10776799;0.007966711;0.13651986;-0.13053362;0.017608268;-0.045752455;-0.06418675;-0.08453299;-0.024525102;0.016093219;0.2055022;0.09098308;0.102404416;-0.07075799;-0.22205368;-0.16471532;0.10269182;-0.11758415;0.15624423;-0.017081045;0.082212456;0.10369288;0.101575956;0.018165467;-0.19237612;-0.051244833;-0.06269663;0.0012927515;0.06733365;0.06225407;-0.06694026;0.07460196;0.11256016;-0.022347583;0.04795168;-0.1690706;-0.023189869;-0.36502063;-0.0223639;0.037091665;0.02304297;0.14612353;0.024062857;0.016329344;0.09591293;-0.1140381;-0.16935827;-0.029446073;0.15598433;-0.10810429;0.03879281;0.053970724;-0.10374128;0.04018747;0.050855413;0.15811144;0.06337874;-0.062084273;0.11025647;0.03525586;0.0020760852;-0.17381506;-0.09252678;0.17991751;-0.038343616;-0.079610124;0.034229513;0.17922059;-0.0392347;0.02829061;0.04300211;-0.110425815;-0.14304288;-0.00043813672;-0.028758839;-0.15343246;0.13891621;0.0877284;0.024301765;-0.045328453;-0.001143829;-0.20934194;-0.18773349;0.1375956;0.21463339;0.11070112;-0.055365566;0.05911686;-0.14782149;0.1870546;-0.0035018243;-0.018585041;-0.06259375;-0.10111243;-0.17374857;-0.07031195;0.005517953;-0.09069763;-0.1867965;0.015340842;0.09111733;-0.053048458;0.0075443974;0.18774423;-0.09889037;0.015246878;-0.00020983774;-0.150699;0.013861264;0.09918535;-0.030704157;0.08453351;-0.12639344;-0.123637006;-0.110151164;-0.0905305;0.048823327;0.10412719;0.114945784;0.17803876;0.15906164;0.116512716;0.031829614;0.083348684;0.15004958
0.04176626;0.031186245;0.070914134;-0.08857146;0.21448044;0.018672924;0.07533927;0.0061434577;0.15637755;0.022974133;0.21781464;0.01971057;0.12722802;0.04819084;0.11524833;-0.11718309;-0.14876354;0.005623478;0.11974593;-0.09157299;-0.23363338;-0.02706374;0.1725668;0.012636585;0.079708934;0.11279006;-0.24590825;-0.1265355;-0.011988505;-0.080089554;-0.059990954;0.05548081;-0.06312211;-0.06326702;0.04192875;0.2263666;-0.05635555;0.059100308;0.0045930585;0.076181255;-0.0039394205;0.13642141;-0.19523594;-0.23901244;0.20507073;0.008814517;0.010132928;0.10820669;-0.04162636;-0.102189705;-0.115975015;-0.0550049;-0.2689098;0.2103551;-0.2279023;-0.1678556;-0.050740656;0.08542977;-0.06859812;0.18838938;-0.17463818;-0.1551726;-0.12210161;0.10167902;0.040516257;-0.078903474;0.0075520105;-0.0050319615;0.10495167;0.037254617;-0.19044128;0.10094562;0.1182494;-0.09218655;-0.09482934;-0.1233981;0.098273076;0.11170773;0.03519211;0.04074525;-0.103337646;0.18564948;-0.19002664;-0.11686995;-0.08992799;-0.15127052;0.07158295;0.0060530626;-0.07883541;-0.11536839;-0.017318903;0.039477922;0.08392873;-0.1744661;0.24853185;0.10733891;-0.12005759;0.060437288;0.012618012;-0.0779497;-0.008809027;-0.08146152;0.08241789;-0.15636197;-0.15872699;0.037789095;-0.10000948;0.105809234;-0.16373573;-0.18144116;0.056086246;0.05175374;0.016815014;0.1074045;-0.14832942;-0.07605269;0.103091314;-0.038957566;0.12086028;0.020959288;-0.21792257;0.15861167;0.17267309;0.013794564;-0.20004378;0.08026356;-0.011820293;-0.16999853;-0.030817188;0.0029806616;-0.17435554;0.16980487;-0.00065351836;-0.26150617;0.104553945;-0.16716209;-0.0015658536;0.14455356;0.013985131;0.11445851;-0.17351456;-0.024797358;0.034701455;-0.061255664;0.06984044;0.15345852;-0.073222324;0.10890259;-0.18937622;0.05976793;0.03925794;-0.044326685;-0.24322173;0.044543494;0.053689517;0.25497437;0.018289296;-0.030245248;-0.03450749;0.015286311;0.09171223;0.19032414;-0.0010418749;0.16396874;0.097681746;0.014925685;0.1351285;-0.056715287;-0.033854336;0.03615402;0.18527523;0.11491181;-0.048611283;-0.045983657;0.020709828;-0.1406544;0.03846881;0.1868687;0.07905207;-0.09249146;0.013661182;-0.23169015;-0.03831912;-0.0646754;-0.07208052;0.07921966;0.1083342;0.012894078;-0.08727575;-0.06659199;0.025899323;0.020944484;0.18900989;-0.23062408;0.07678987;-0.061791603;0.15000278;-0.03331212;0.0060377545;-0.058591146;-0.017000562;-0.013297448;0.012951807;0.057437073;0.0057070605;0.06057096;-0.24181575;-0.023023853;-0.22331974;0.20613001;0.05949762;0.054142922;0.0076513086;0.03952638;-0.11518129;-0.026226895;0.05106774;-0.0689681;0.012942202;0.16739392;-0.09187929;0.043501947;0.022853365;0.08242108;0.067259945;0.064329475;-0.05524619;-0.21575381;-0.08666841;0.011108629;-0.039537016;0.1394229;-0.012680587;-0.13746677;-0.060900543;0.1441921;0.05630514;0.13899976;-0.10546495;-0.038042977;0.05454658;0.0035260573;0.06969938;-0.1301332;0.04982428;-0.026436593;-0.030287325;0.10148822;-0.03891566;-0.005162111;-0.0050983075;-0.06361895;-0.03042622;-0.11926554;0.29417488;-0.06022542;0.045071304;0.12708178;0.062094186;-0.08680908;0.08607054;0.04161843;0.08529522;-0.029522346;0.06923417;0.19609949;0.08602638;-0.066445336;0.049379863;0.014101002;0.21455139;-0.0015248868;-0.074888326;-0.21759348;-0.045363154;0.12134616;-0.0533685;0.07489357;0.09193391;-0.2573511;0.032798618;0.050711308;0.17566995;-0.13940091;0.09229589;0.032439295;-0.00411585;-0.16075967;-0.014936675;0.03398606;-0.10859686;-0.024444513;-0.040395834;-0.063666716;0.107704714;-0.046349417;2.1893811e-05;-0.031028569;0.1467054;-0.07585163;-0.072524935;0.0603414;-0.021552712;0.049728747;-0.012308185;-0.21607319;-0.12813361;0.022439685;0.020429619;0.052320383;-0.07214589;0.01730231;-0.25832078;-0.15926278;0.26780862;0.012299612;-0.06674917;-0.14925705;-0.086441375;-0.018288692;0.17210647;-0.067570426;0.09887753;0.19351363;-0.29041216;0.103845865;0.15152018;-0.13037516;-0.16875385;-0.034446884;0.2149268;-0.033479836;-0.12815624;0.10233099;0.05043037;-0.13421966;-0.1251007;-0.14841178;-0.1616846;0.1942386;-0.30082998;0.12832189;0.2789581;-0.057047024;0.024998268;-0.08818323;0.050560664;0.06347891;-0.014156804;0.0798604;-0.06405491;0.0033477258;0.023534438;0.022791076;-0.035985574;-0.010871117;0.031536978;0.096000396;-0.1456978;0.1160927;-0.15186982;0.047397487;0.04719066;-0.14120325;0.028072799;-0.03865652;-0.1089476;-0.02285933;0.012938051;0.10347922;-0.07514906;-0.016571108;0.06239865;-0.06542221;-0.09005183;0.07730839;0.030340128;-0.06260585;0.06817023;0.06014307;0.15966296;-0.045743037;0.02557977;-0.14168265;0.16900346;0.036101293;0.053527683;-0.0339874;0.092865884;0.09671407;-0.06686112;0.027426884;-0.23025113;0.15748003;-0.11471503;0.1300966;0.053468905;-0.06584149;0.04460048;-0.084758855;-0.10589146;0.22488168;-0.075034246;0.14284816;0.16145504;-0.025950788;0.03295436;-0.20478347;-0.11811251;0.1010016;-0.20609525;-0.054850496;0.06707237;0.142669;-0.02896314;-0.021130193;-0.045466006;-0.30607805;-0.1927984;-0.05490328;0.10661605;0.042945493;0.21776998;-0.06909381;0.1418181;-0.045161054;-0.11661126;-0.14373913;0.034046073;-0.19334373;0.016183397;0.07376172;-0.026278028;0.021628972;-0.07584061;-0.25230938;-0.17343049;0.05340099;-0.20486578;-0.11266627;-0.032747827;-0.009708748;-0.048925858;0.0062001925;0.08834667;0.0763701;0.20584609;0.026784906;-0.09464925;0.030838123;0.012809033;-0.09910224;0.010383329;0.1297211;-0.22179355;-0.17900923;0.041061647;-0.17137647;-0.0005570044;-0.22141127;0.10901778;-0.012277197;-0.069561794;-0.038279917;-0.094794944;-0.09781978;-0.038093306;0.15446846;-0.053742174;-0.08229327;0.1270679;-0.11337687;0.10298569;0.16743489;-0.114778236;-0.2022931;0.004096818;0.14905755;-0.07953694;0.106073216;-0.09953201;-0.01498258;0.08487859;0.074361585;-0.058496173;0.04984748;-0.14011885;0.0070968466;-0.2021196;-0.1535434;0.09740937;-0.038702175;0.21483193;-0.0281765;0.03605332;0.069971286;-0.1467413;-0.16725172;-0.08120609;0.12494293;0.08460028;0.105808094;0.07738216;-0.16142954;0.08297504;-0.01475857;0.1485173;0.08420734;0.015299371;0.12496573;-0.050338484;-0.097404994;-0.25282666;-0.0046532336;0.17241482;-0.25515556;0.003532915;0.10102425;0.13587107;0.04490636;-0.16863333;0.037533805;-0.010797273;-0.10390951;-0.029789032;0.030442392;-0.14872766;0.1477537;-0.16827053;0.08861774;-0.016568476;-0.06249285;-0.13994047;-0.15171322;0.14113814;0.030630039;0.15746137;-0.07306172;0.10730699;0.068326406;0.17702332;0.026713165;0.07514294;-0.21208915;-0.34151378;-0.24421725;-0.0058432077;-0.024580255;-0.053455405;-0.112966366;-0.10008916;0.0777312;-0.044404045;0.008378158;0.06732728;-0.25424302;-0.037217364;0.032236207;0.033124488;-0.116937056;-0.03421049;-0.11898725;0.16417864;0.041827094;0.0527099;-0.019058937;-0.06515079;0.03495284;0.031803746;0.12605827;0.03782617;0.012693156;0.065459825;-0.10087592;-0.012581364;0.040760264
0.044297516;0.06552367;0.12920709;-0.2174897;0.124548666;0.0705832;0.13287118;0.0077148005;0.1265738;-0.015478511;0.103725575;0.09575127;0.07735367;0.11707916;0.21228845;-0.16865724;-0.23898466;0.079037614;0.20515952;-0.06681061;0.018374722;-0.06349144;0.11117296;-0.10649575;0.16244364;0.011598362;-0.22199844;0.0664238;-0.091299534;-0.17320324;0.086926416;-0.13984104;-0.00059011567;0.04061109;-0.030851044;0.017142976;-0.16565709;-0.014282806;-0.13369688;0.03315678;-0.03017588;0.09290141;-0.17971133;-0.15877713;0.16382273;-0.024053404;-0.05790325;0.092620276;0.009638999;-0.09090085;-0.11374414;-0.1623573;-0.10587203;0.20725065;-0.052710343;-0.038566183;0.095185466;0.031731807;-0.015261178;0.2199493;-0.116974026;-0.17898922;-0.055523105;0.19260523;-0.06796923;-0.11375878;-0.061054114;0.035376467;-0.0927141;0.056991864;-0.16247648;0.1773965;0.04094909;0.09539886;-0.14820784;-0.035499513;0.06793603;0.10734357;-0.06164453;-0.0060374127;-0.0937847;0.09271086;-0.1254661;0.115742415;-0.22612691;-0.13319248;0.036595315;-0.05431109;0.08518281;0.017841699;0.027168455;0.23111689;0.13994552;-0.061174992;0.119086005;0.1416589;0.14893204;0.14279081;-0.01567001;0.049357332;0.0887439;-0.08224208;-0.07518962;-0.013602886;-0.07796023;-0.07822819;-0.08266787;0.05767759;-0.15896511;-0.14441939;0.012844461;0.043333072;0.012538324;0.04474452;-0.21083659;-0.10838025;0.10956227;-0.20655216;0.11384276;0.23513249;-0.1343093;0.11623445;0.2124791;-0.0893967;-0.2186433;0.20196603;-0.0011858261;0.018635994;-0.039908275;-0.040711716;-0.09304496;-0.085536934;0.017346775;-0.33678836;0.10690006;-0.009148953;-0.11603325;0.027383314;0.07327665;0.013396568;-0.23994768;-0.12022058;-0.053629678;0.04355735;0.05737213;-0.018055819;-0.097774565;0.11767232;-0.17313355;-0.048865378;-0.10178372;-0.028633635;-0.08430156;0.10905049;0.15560609;0.16813385;-0.0035776135;0.010949034;0.008851824;-0.042713232;0.03831495;0.21115425;-0.05134315;0.22203225;-0.008427115;0.117135435;0.05705535;0.061607677;-0.022802979;0.016483504;0.20684686;0.13749476;-0.1242669;-0.13281061;0.06408928;-0.06105139;0.10978123;0.101724;0.011496605;0.022539012;0.038882155;-0.08729348;-0.073296405;-0.10827778;0.03789017;0.08684371;0.1312491;-0.024793668;-0.10328246;-0.10481592;0.1477156;0.08740703;0.06433155;-0.14671767;0.068562716;0.035473235;0.074163504;-0.06837079;-0.017839031;0.043899063;0.067358725;0.035993885;0.05490121;0.13752006;-0.001808469;0.020683719;-0.040266868;0.103325956;-0.32336378;0.0998432;0.08295881;0.1761435;0.12794414;-0.035905957;-0.08437767;-0.12272437;-0.039853387;0.010909124;-0.13414365;0.04215395;-0.07423909;0.06053438;-0.14741199;-0.12381909;-0.04728341;0.03606712;-0.0380845;-0.18199751;-0.048449963;-0.044064663;0.09597384;0.08633767;0.03638763;-0.10982165;0.06213603;0.11375222;0.0146735525;0.104875565;0.033865437;-0.12336866;0.092247054;-0.15370388;0.043760885;-0.09409829;0.12194218;-0.057025958;-0.1491598;-0.06688856;-0.0093001425;-0.14520198;0.038573965;-0.1406629;0.05054344;-0.085880645;0.002137156;0.1132854;0.13316956;0.124086566;0.07192541;-0.14149699;-0.058120266;-0.0004988023;-0.024468493;-0.18453275;0.058141544;0.17861609;0.19015989;-0.021730047;0.08280613;-0.049193542;0.034141008;-0.03995815;0.04999003;0.0009121255;-0.06415013;-0.015310577;-0.12603661;0.0040852446;0.01129547;-0.1483231;-0.09347015;-0.021841908;0.3042476;-0.17853487;0.007317588;0.09036868;0.08036194;-0.09098426;-0.09389947;-0.029894253;-0.06333713;0.02793577;-0.12769361;-0.16320689;0.25236493;-0.07678624;-0.07999881;0.016921256;-0.035366982;-0.071686104;-0.021265741;0.07512139;-0.2380058;0.01892574;0.03267188;-0.34599373;-0.0866802;0.02369691;-0.10267573;0.009254688;-0.009556005;-0.10957736;-0.13176644;-0.2362311;0.13276067;-0.018134737;-0.13068856;-0.024124091;0.005541837;-0.039117657;-0.10950384;-0.20516075;-0.0127989035;0.20523122;-0.1463654;-0.100203246;0.10625304;0.014179126;-0.057094723;0.053951755;0.20488483;0.021795347;-0.03284607;-0.09763086;0.0038311854;-0.14601043;-0.10015433;-0.17912248;-0.0903196;0.096571095;-0.24780856;-0.03519128;0.12108757;-0.040505033;-0.06440661;-0.05614911;0.17102097;0.011505457;-0.06342783;0.07867812;0.17615956;-0.09898785;0.09488655;0.109977536;-0.07882007;-0.039073195;-0.20855029;0.101316586;-0.019171812;0.030695764;-0.2222416;0.02367609;-0.0061216895;-0.10439192;-0.033561353;0.005428096;-0.01201948;-0.07064681;0.15003632;0.32616004;-0.10359857;0.07342699;0.100428596;-0.10779694;-0.02812106;0.049056668;0.043683294;-0.0020391638;0.063943334;0.0036760238;0.13564986;0.063400894;0.012610094;-0.20605862;0.048001107;0.0840521;0.09574174;0.036808982;-0.106084004;0.021797735;0.06238379;-0.09026757;-0.25525227;0.2602006;-0.021262748;0.028534476;-0.05182469;-0.20472361;-0.06359249;-0.095170625;0.024251333;0.10229095;0.010811039;0.1330478;0.13539052;-0.03526021;0.049791794;-0.14949128;-0.11625455;0.14539741;-0.15124835;-0.07654427;0.15550317;0.023125876;-0.10232659;0.09888729;0.070067085;-0.17150983;-0.0701826;-0.08870035;0.033197857;-0.02352744;0.03054577;-0.010763443;0.020402895;-0.104887396;-0.09362097;-0.08670984;0.08273224;-0.13779274;-0.101579964;0.14853962;-0.013434036;0.011822679;0.031768553;-0.122044556;-0.02304815;0.001268417;-0.035149805;-0.12544787;0.07543533;0.021051083;0.009669508;0.16949849;-0.01898108;-0.004601217;-0.028926367;0.029580425;-0.093986936;0.009644166;0.14678292;0.0015900081;-0.0052238666;0.25813848;-0.24109234;-0.16363177;-0.039812412;-0.056843475;0.037776105;-0.07922102;0.035572905;0.23988691;-0.08783307;0.02395197;-0.06498887;-0.06889138;-0.11535258;0.014815427;-0.023293942;-0.049267914;0.16932344;-0.004027414;0.031717345;0.011256446;-0.06196342;-0.055519298;0.037866786;-0.11990666;0.020279992;0.13101502;-0.018721018;-0.005119549;0.06825967;0.20597813;0.04611116;-0.017526517;-0.055536196;-0.12487872;-0.31858623;-0.09965913;-0.10556331;0.0075903703;0.054330394;0.11956387;0.022511296;0.067785695;0.033851903;-0.23853858;0.00870665;0.16095857;0.018630642;-0.07224932;0.120965764;-0.14440928;0.018344019;0.054270327;0.1180283;0.12603596;0.15237157;0.17308292;0.09742326;0.057951782;-0.025239183;-0.07054009;0.1392775;-0.07531151;0.030184956;-0.009638485;0.16429192;0.09055972;-0.14928158;0.10306806;-0.15652817;-0.13449201;0.0054826145;0.023845911;-0.030784445;0.11507617;-0.08433901;0.023409715;-0.17826927;-0.026780853;-0.12999918;-0.2832624;0.07416361;0.1889665;0.1518526;-0.11532587;0.049732763;-0.13425288;0.09819685;0.18530865;0.05665234;-0.051656764;-0.16528124;-0.20812623;0.07773535;0.0019564126;-0.10355073;-0.05981871;0.021668049;0.11788867;-0.17060511;0.061348055;0.16695294;-0.22535126;0.07877895;0.031904288;0.028866831;-0.041142244;0.111885406;0.06924294;0.028279772;0.028538965;0.08027038;-0.087007865;0.0248108;-0.000641613;-0.0112294415;0.19883269;-0.011048927;-0.006498345;0.068526715;-0.10099412;0.10775227;0.11905086
0.115326636;0.006691373;0.12759769;-0.19672409;0.0043235268;-0.050339546;-0.0011336564;-0.11668678;0.004475044;0.06747493;0.16488141;0.18545762;0.15595444;-0.106159344;0.16386412;-0.17250851;-0.21541263;-0.023087721;0.23828673;0.044640277;0.053516556;-0.116305165;-0.004509974;-0.05973012;0.017755719;-0.05611128;-0.06748742;-0.048098724;-0.11659057;-0.040935438;-0.04141848;-0.0219028;0.14486556;-0.00037950795;-0.104134634;-0.035743374;-0.16536632;-0.16838112;0.032315902;-0.027170282;0.011085017;0.16336037;0.124266446;-0.1842287;-0.09625233;0.18677302;-0.039854046;0.031259563;-0.01952179;-0.1536384;-0.14396578;-0.2111338;-0.11371322;0.14343403;-0.026330033;-0.12814675;-0.09607698;0.006614003;-0.13523848;0.24120513;-0.02637353;-0.30954552;-0.055743326;0.00035268243;-0.09953609;-0.0046708556;0.00046793104;0.06549353;-0.21173504;-0.09574206;0.005211866;0.09646311;0.034145065;0.015467761;0.030163847;-0.0696631;-0.03737955;0.12888046;-0.025275102;0.023092078;-0.24724625;0.088427916;-0.008967742;0.09049929;-0.26729357;-0.3315978;-0.0050686845;-0.024350276;0.094252795;0.06025863;0.09326204;0.13414916;0.17136835;0.0021843864;0.36100802;0.13590357;0.15249053;0.027120486;-0.14049268;-0.032696243;0.12369955;-0.12415218;0.13440569;-0.061173595;0.040226664;-0.06565788;0.020796135;0.020486234;-0.086566254;-0.1640791;0.061621144;-0.08471107;0.04949935;0.23156293;-0.24297546;-0.21058577;0.097359926;-0.10865765;0.0859836;0.13273197;-0.16211079;-0.009023339;0.05105186;0.07700906;0.04850333;-0.06439408;0.1024265;0.025932753;0.21983601;-0.080609694;-0.10791984;-0.02868983;-0.04980841;-0.17191117;0.19619356;0.09938746;-0.056217745;-0.021648603;-0.052902862;0.06333588;-0.29894227;-0.020181375;0.04669632;-0.09918185;-0.036601882;-0.033385225;-0.1271862;-0.028014714;-0.24758483;0.057266872;0.011223569;0.021954987;0.009530705;0.2584158;0.21860845;0.086661346;-0.022950945;-0.011562137;3.139797e-05;0.033670034;0.012300607;0.052546788;-0.049545746;0.16211978;0.11490421;0.06468108;-0.04880612;-0.005345086;-0.004284862;0.12684296;0.13128491;-0.08672745;0.023539538;-0.06514238;-0.05604674;-0.06654179;0.04346668;0.039754957;0.15400258;0.13210148;-0.17099111;-0.09405743;-0.014044633;-0.015933856;0.0879562;0.053931538;0.12523897;0.055795297;0.07115664;0.0088798925;-0.050607506;-0.12462198;-0.113162816;-0.11956024;-0.12395844;-0.038283177;-0.0020730686;-0.066154405;-0.03592818;0.10960799;0.053783093;0.08563982;0.09151943;0.03749831;-0.015013887;0.06417754;-0.019676901;-0.009155914;-0.19772865;-0.1689774;0.0062812692;0.029384375;0.21130149;0.20344403;0.0138374595;-0.10116021;-0.12931365;-0.2587265;0.027739793;0.029263798;-0.1541873;0.19744678;-0.10045023;-0.045410156;-0.10618212;0.07449871;0.15322997;-0.15710796;0.021441458;0.03610979;0.28746805;0.13217291;0.075700305;-0.102412775;0.109531604;0.16197535;-0.0027402306;-0.003481174;-0.23608023;-0.11896522;0.067724034;-0.2452972;0.0210481;-0.026397781;-0.07951056;-0.1146559;-0.20183788;0.11402877;-1.1685763e-05;0.010135932;-0.055702023;-0.113695905;-0.061315253;0.034374546;-0.025340455;-0.037471183;0.17737977;0.09740543;0.0049437806;-0.081303135;0.004145376;-0.09996201;-0.029443914;0.040778946;-0.020358114;0.079282306;0.17516196;-0.05050122;0.19912103;0.062032547;-0.049537923;0.13737431;0.07371556;0.03633448;-0.11651226;0.26031455;-0.18383384;-0.09226113;-0.04082363;-0.05759071;-0.13747235;-0.074631356;0.39170903;-0.13585429;-0.048862766;-0.057434127;0.09145393;-0.18426628;-0.030686054;0.08730068;-0.13708933;0.007152201;-0.14069168;-0.07005096;0.16693261;0.0173506;-0.11577976;-0.101009905;-0.20834972;-0.093445316;-0.09121611;-0.0038500447;-0.13192107;0.09881366;0.04939425;-0.24922237;0.05497267;-0.090919584;-0.11929898;-0.19535802;0.10917373;-0.1024095;-0.2171998;-0.09264699;0.09565081;0.037936434;-0.12686706;0.019514186;-0.13168862;0.05114947;-0.011427335;0.04198207;-0.15158856;0.2690079;-0.2327037;0.06517828;0.054114908;0.097801976;-0.0015928966;0.028624939;0.13483143;-0.11029267;-0.11353358;-0.053031843;0.061738487;0.041936364;-0.124773405;-0.20528913;0.024960678;0.074680485;-0.2904963;0.074374825;0.030954111;-0.17340417;-0.021170277;-0.01629369;0.023560088;-0.0857222;0.120922685;0.10514324;0.15118894;-0.078119114;0.0834844;0.15948828;0.116100825;0.007911297;-0.1398757;0.08305162;-0.0072788927;-0.043595187;-0.22683427;-0.031720087;-0.019086683;-0.015250056;-0.05625142;-0.15631266;-0.01885107;-0.15461573;0.08312091;0.2669952;-0.20937103;0.07766864;-0.15328977;-0.12697488;-0.013641171;-0.09574734;0.05224416;-0.10913523;0.040125668;0.040773883;0.018115865;0.037987113;0.008403956;-0.17928132;-0.07000851;0.13327579;-0.05742705;-0.019032737;-0.18461877;-0.018291533;-0.15771982;-0.114314415;-0.07298591;0.21570614;0.012031481;0.0027797911;-0.012887273;-0.0927048;-0.16028148;0.080860026;-0.12362335;0.23231377;0.044154085;0.052145407;0.15988052;-0.043197833;0.20988286;-0.055284902;-0.19326663;0.008879963;-0.03519844;-0.013187872;0.088782735;0.041126568;-0.07569697;0.069866374;-0.09785631;-0.14271338;-0.027204655;0.027868384;0.035808206;0.04573899;0.06854664;-0.12875125;0.12203279;0.10367336;-0.13057742;-0.06793;0.0024875302;-0.024522612;-0.051865786;0.10564768;0.14243639;-0.066863656;0.053432435;-0.03528659;0.017910007;0.09987579;0.034470636;-0.07416339;-0.13099635;0.08151684;0.05800029;0.24812368;-0.051396452;-0.017228963;0.00806249;-0.073336825;0.017213838;-0.123784795;-0.043446537;-0.0035485274;0.12716098;0.16531745;-0.21820703;-0.1606663;0.046035834;-0.17850281;-0.021899793;-0.06549392;0.14958966;-0.069912605;-0.12140499;0.030719003;0.012258566;-0.18479131;-0.18983164;0.09744577;-0.08430574;0.03460558;0.024100801;0.02600436;0.052564453;-0.1350984;-0.044402346;-0.18682103;0.054121576;-0.2039395;-0.068421945;0.024255587;-0.1568175;0.15373668;0.08334042;0.15346433;-0.08033816;0.02190613;-0.2820265;-0.17699906;-0.19812122;-0.028303532;-0.13449335;-0.010020357;-0.03624161;0.042151295;0.15150689;-0.026885116;0.059082355;-0.08006129;0.19476981;0.026319528;0.07658154;-0.12054704;0.127027;-0.040535983;0.08679857;0.12240807;0.15369995;0.22501636;0.051580593;-0.044730816;0.05244423;0.03838039;-0.029444812;0.092406385;0.07735661;0.08693208;-0.16987927;-0.14508411;0.1438442;-0.012569275;0.022011003;0.15298378;-0.11436425;-0.08715619;-0.08777136;-0.004634842;-0.16528313;0.036014214;-0.04743752;0.11601229;-0.076557815;0.09051629;0.02427529;-0.046157494;0.10934766;0.26777053;0.04892967;-0.17460905;-0.021624042;-0.18095683;0.2397423;0.15515439;0.05231394;0.06976849;-0.05504412;-0.06333558;0.1269451;0.03532692;0.027302813;-0.0048055197;0.02510024;0.04565734;-0.21732125;0.13062495;0.13813813;-0.10506258;0.06566906;0.017551275;0.15172705;-0.063961565;0.0073463414;0.041113187;-0.0022508167;-0.07472265;-0.021842713;-0.13718829;0.021783259;0.03711141;-0.21388288;0.17883457;-0.09433475;-0.0387983;0.17706211;-0.05491139;0.07339396;0.18185726
-0.05058545;0.15524155;0.09007905;-0.16869846;0.19512549;0.038653646;0.044716574;0.018683292;0.035203617;0.051190726;0.06945644;0.10362734;-0.018961178;0.086209536;0.039661396;-0.30777273;-0.14956085;-0.053061742;0.04571784;0.02214185;0.16430408;-0.0012829731;-0.03981984;-0.040254455;-0.052540652;0.076177165;-0.1507786;0.006547563;-0.10195134;-0.18850619;0.08923811;-0.00037316766;0.03761248;-0.039271858;-0.1957602;-0.08235696;-0.009449948;-0.084967144;-0.04011069;-0.104586;0.061468396;0.2271297;0.042231;-0.06215993;-0.058338266;-0.036085412;-0.05293285;0.085979424;-0.04595419;-0.11646155;-0.021476725;0.03963671;-0.037837133;0.17166406;-0.088232525;-0.029637862;-0.16663647;-0.19633292;0.05849973;0.15586105;-0.07146324;-0.16989625;-0.028587386;0.11492043;-0.08627984;-0.069101326;-0.01156822;-0.018879684;-0.09475451;-0.06803291;-0.06951675;0.12690802;-0.019913262;0.21871385;-0.026764136;0.020326406;-0.03911638;0.11725895;-0.24692437;-0.016973149;-0.09271065;0.13037938;-0.10725263;0.14368075;-0.22560123;-0.13348216;-0.05921463;-0.07561382;0.13229533;0.040268134;0.004862791;0.27516675;0.16519576;0.015477448;0.26789472;0.28481314;0.07882988;-0.057011303;-0.22184896;0.0045258766;0.045319133;-0.1674011;0.058079917;-0.07935919;0.062404;-0.16814521;-0.0547868;0.107641116;-0.23463033;0.0046502445;0.023701863;-0.055841714;0.07769448;-0.058134656;-0.08379815;-0.25677568;0.057266247;-0.0957729;0.014374222;0.1695047;-0.1314214;-0.0745505;0.016469983;0.093722515;-0.07390436;0.0014606996;0.095044;-0.17136456;0.1439815;-0.088388845;-0.11679275;-0.17215985;-0.0335287;-0.30800602;0.21905676;0.10344559;-0.11400091;0.013831824;-0.041006394;-0.06697758;-0.19852059;-0.12088647;0.0052162055;0.032939065;-0.061249867;0.12505774;-0.027164178;0.001019626;-0.13128558;-0.03743593;0.12152731;-0.07038574;-0.19045667;0.17874685;0.078044094;0.050825316;0.06838457;-0.038968567;0.010586529;0.09260307;0.18712626;0.21944918;-0.02026634;0.09509382;0.0738818;0.0689714;-0.018041648;-0.032734945;0.04851935;-0.0021762014;0.063940294;0.05796937;0.034654915;0.10909122;0.0017634035;-0.036157798;0.0008899423;0.022091147;-0.027336035;0.034554802;-0.11287862;0.005528483;0.05276756;-0.1253331;0.19205233;0.023125038;0.036840275;-0.026315236;-0.08864871;0.0029159354;0.0017650076;-0.014971382;0.029096527;-0.057904247;-0.074904464;-0.07240683;-0.072343394;-0.20908944;-0.051719837;0.13945991;0.0034013963;-0.061274678;-0.14188842;-0.028464371;0.016453043;0.08930916;-0.16237488;-0.04663981;-0.2700637;-0.08827733;0.120409146;0.025395716;0.11371226;0.0810104;-0.115374796;-0.059514783;-0.010487124;-0.34795958;-0.060992226;0.08778668;-0.15548278;0.12270612;-0.07654068;-0.10350809;-0.15481499;0.045909114;0.08999223;-0.019802287;-0.14456637;-0.021272527;0.14589545;0.0051445886;0.07788191;-0.1116732;0.009238567;0.17069955;0.043138593;-0.012697057;0.027679952;0.14137043;0.06928119;-0.109637216;-0.082246095;-0.029082749;0.020391723;-0.05551131;-0.061646342;-0.05483704;-0.0119507415;-0.07288622;0.016141122;-0.07926227;-0.007649548;-0.0932413;-0.099429384;0.10194474;0.008541389;0.26585677;-0.043246992;-0.15774986;0.017394546;-0.24626409;7.201193e-05;-0.052773144;-0.004965779;0.030402556;0.109296836;-0.12279838;0.22523864;-0.038688365;-0.08197323;0.11357704;-0.12953696;0.0807418;0.019973004;0.035268698;0.13347606;-0.020211792;-0.09352231;0.03246307;-0.05055988;-0.020447401;0.32670614;-0.14701888;0.0025969527;-0.01654963;0.093092695;-0.015376155;0.0147279715;-0.018765086;-0.081374526;-0.059283715;-0.07263875;-0.16493085;0.17422248;0.1146208;-0.08596411;-0.20529714;-0.066739686;-0.030156657;0.15612993;0.12460471;-0.13607337;0.14262724;-0.074554555;-0.10484524;-0.21912251;-0.072549835;-0.075634226;-0.13109325;-0.024804723;0.020791443;-0.17586634;-0.12255609;0.060851287;0.14566779;-0.01071075;0.100651026;0.08096045;0.011332992;-0.0427047;-0.02879732;0.019565234;0.13468051;-0.23541267;0.058347553;0.05337013;0.13299325;-0.016069606;-0.059168562;-0.01233675;0.05849881;0.02139174;-6.24503e-05;0.04725669;-0.0010290325;-0.084034495;-0.028707441;-0.012035887;0.13507731;-0.20042907;0.024487758;0.07733527;0.07716504;0.13278759;0.054148857;0.11057878;0.079099916;-0.058979597;0.15261413;0.22067064;-0.06520984;0.12989193;0.038725946;0.12346136;0.042622358;-0.15031698;0.13428217;0.10884414;0.049006008;-0.21837391;-0.01950248;-0.034771167;0.061469354;-0.077264935;-0.023306346;0.018073706;-0.08331744;0.00110543;0.31830138;-0.07856125;-0.03154032;0.082282886;-0.108376175;-0.15149052;0.042990774;0.14832945;-0.119643085;0.030442996;0.026804239;0.023209207;0.020138178;-0.05647068;0.026175128;-0.13678646;0.0027352818;-0.076081656;0.07210741;-0.164773;-0.05143157;-0.1318997;0.038185854;-0.071570724;0.09671493;0.106959745;0.117653064;0.044877365;-0.10580348;0.036859732;0.07608091;0.14452453;0.19401766;0.10580685;-0.009932325;0.042821467;-0.13418636;0.17033914;-0.08301408;-0.07530903;0.10539158;-0.10611476;-0.021559458;0.031698745;-0.10900563;-0.111589946;-0.16583727;-0.10614611;-0.19537166;0.03481784;-0.041357663;0.109424934;-0.021038458;0.09241444;-0.05913617;0.13261953;-0.10250024;-0.13341373;0.09065984;0.0077650044;0.011251245;-0.07540619;0.23480313;0.2049686;-0.1613942;-0.039907176;-0.11200964;-0.02242916;0.11284328;-0.11229909;-0.13145661;0.03426234;-0.0017713688;0.07334329;0.1753034;-0.040461585;0.09393516;0.12410539;0.092302874;-0.028754054;-0.11145535;0.055730123;-0.19747938;0.038596157;0.040255602;-0.076267645;-0.05180759;-0.016882561;-0.012673332;0.05606816;-0.009638146;0.043387033;0.026666278;0.015180366;-0.03988891;0.10374002;-0.043384492;-0.08367796;0.1047766;-0.15014964;-0.018381828;0.1782831;0.07705375;0.10180451;0.023007022;0.029778693;-0.16804656;0.11772981;-0.15452422;0.02647049;0.10719212;-0.17518671;0.12916936;0.051099814;0.20430931;0.1253434;-0.14146794;-0.11244173;-0.16931014;-0.3924087;-0.002265107;-0.079501905;-0.0814847;0.20717335;0.0207224;0.099146046;0.038665477;0.05850713;-0.1513288;0.19336785;0.05439411;0.022539683;-0.046895258;0.06249535;-0.13427077;0.022146396;-0.027536193;0.06686613;0.067706145;0.03723189;0.018876793;0.13489497;0.012037996;-0.10555771;0.054400582;0.036260635;0.11607635;0.012807583;-0.042049225;0.28867993;0.0380013;-0.08853545;0.17271982;-0.18539628;-0.03863004;0.0768571;0.058259748;-0.14117579;-0.013182334;0.039692536;-0.011061454;-0.053848248;-0.019813972;-0.0820966;-0.07310562;0.20353395;0.34405494;-0.019394046;-0.1781613;-0.043520946;0.0765459;0.13141638;0.106626324;0.07463961;0.114199445;-0.092708945;-0.2389258;-0.036327887;-0.10208726;-0.0033680205;0.06633048;-0.014215492;0.18620045;-0.10013355;0.14282817;-0.020805638;-0.1647047;0.06978746;0.073511474;0.069783494;-0.20481966;-0.06420503;-0.060259238;0.05132526;-0.09226685;-0.12585737;-0.0027482982;0.13258076;-0.13120092;-0.13381015;0.07879759;-0.08698982;0.019565213;-0.039536357;-0.07938499;-0.009319449;0.16402581
-0.17481098;0.08645136;0.03311714;-0.13372597;0.09484635;0.061786972;0.044286367;-0.059462734;0.047344606;0.002852014;0.12881161;0.09504688;-0.21406399;0.013365281;-0.002015414;-0.23614116;-0.14352237;-0.037349068;-0.018039903;-0.057258006;-0.009765139;-0.011146636;0.017909694;-0.055412665;-0.08501934;0.028486263;0.040178705;-0.012540709;0.029838478;-0.10100622;0.04441794;0.08524334;0.006531614;-0.04956868;0.010561193;0.011642526;-0.0035267507;0.031422865;-0.1573112;-0.0030520754;-0.015975334;0.07320229;-0.033755783;-0.0498967;-0.058660008;0.11396954;0.002685233;-0.048878144;0.028053649;-0.10196797;-0.036638528;0.04589486;-0.09380459;0.11723931;0.036911123;-0.056403384;-0.07965369;-0.14909798;0.036417995;0.17892592;-0.045387346;-0.16803174;-0.13959461;0.08098316;-0.08298572;-0.03030957;-0.0015358492;0.09729714;0.014270642;-0.11912612;-0.009764473;-0.0394585;-0.016550828;0.08531027;0.0006105472;0.020342577;0.07119514;0.13599172;-0.26685962;0.119524054;-0.081171215;0.09888567;0.05174305;-0.08208174;-0.13077696;-0.10532697;-0.027616737;0.03638781;0.10699579;0.045839917;-0.019612106;0.22981527;0.07314624;0.06627364;0.16482545;0.117683396;0.069301225;-0.149978;-0.09549972;0.112835556;-0.027155211;-0.08863523;0.014606604;-0.121882856;0.18409929;-0.17822938;0.07682439;0.060701836;-0.12033565;0.10570978;-0.0007197857;0.06681197;0.048053607;0.09382885;-0.18318345;-0.06202168;-0.042166777;-0.07571283;0.090799965;0.07461652;-0.22149767;-0.18634215;0.029604167;0.14013945;-0.05554115;0.022187535;0.06879063;-0.087868094;0.14085759;-0.15729801;-0.04271711;-0.0022420597;-0.007656339;-0.31675962;-0.02865247;-0.04270302;-0.094756156;-0.14970101;-0.0024489549;-0.042223275;-0.20369698;-0.14676669;-0.069463685;0.08365529;-0.024627015;-0.0539481;-0.0060513318;-0.036357608;-0.12415758;-0.0076889065;0.06460093;0.019611504;-0.13131596;-0.022673406;-0.004964492;-0.009424094;-0.026886906;-0.077981964;0.03526735;0.11885836;0.022093706;0.1676003;-0.09048943;0.010328224;-0.01830669;-0.04881427;0.07542947;0.1006971;0.068263724;0.105200365;-0.0759299;-0.025251148;0.09024091;-0.01496019;0.03430869;-0.08268172;0.0018266776;0.14647822;0.08645875;0.08991458;0.0047282763;0.2681809;0.13051715;-0.089394405;-0.007428436;-0.13376442;0.016438624;-0.017739933;-0.033431485;0.15067127;-0.011853271;0.02280526;0.05906062;-0.05480053;-0.06325968;0.035324432;-0.22557557;-0.18516788;-0.0141219115;0.11418591;0.00040136598;0.04883267;-0.16819517;0.037551142;-0.07682168;0.11728205;-0.07732109;-0.060996875;-0.15514165;-0.14842345;-0.04382484;0.0923639;0.10880452;0.13064177;-0.12993012;-0.10460631;0.04350708;-0.221997;-0.015298781;0.06701919;-0.12928678;0.15277407;-0.0065865708;-0.022001022;-0.039406106;0.04454596;0.12850457;-0.06448368;-0.115073025;-0.14354596;0.074068196;0.08080844;0.086215734;-0.067405924;-0.067222305;0.090641715;0.040465396;-0.053458292;-0.07568533;0.09423529;-0.0002760164;-0.036982108;0.11048301;-0.026982162;-0.044778023;0.09190094;0.028801689;-0.11405345;0.058031745;-0.009555018;-0.07057237;0.0032618563;0.012460573;-0.030771831;-0.061054643;0.10495948;0.08211022;0.088793844;-0.0015052166;0.00707429;-0.009625794;-0.097691655;-0.0048235785;-0.07860158;-0.033743057;0.090036534;0.16142029;-0.08922448;0.15106389;0.03078047;-0.106176965;0.15978342;-0.19068994;-0.07723976;-0.10967795;0.059630975;-0.049367063;0.06478288;-0.110453054;-0.020747226;0.12230182;0.03637533;0.11710781;-0.18305689;-0.043228347;-0.07746449;0.10257528;-0.14455134;-0.02174576;0.11361379;-0.023946477;0.036453925;-0.043321196;-0.17763619;0.14528534;-0.026352797;0.031295247;-0.12311914;0.04689525;-0.1107677;0.001503173;0.022555603;-0.21954721;0.17397909;0.010446557;-0.11341307;-0.15303467;-0.10489631;-0.07389048;-0.14456488;0.12811713;0.06229449;-0.15772349;-0.034867264;0.15148246;0.011383831;-0.10727952;0.081066564;0.07659023;0.006455017;-0.14761041;-0.07734363;-0.17574254;-0.050261598;-0.1133767;0.036103893;0.024934787;0.08995481;-0.04664327;-0.004723453;-0.009524414;0.01820545;-0.00013812055;-0.11946351;0.09886046;0.029074827;0.11862229;-0.14879945;-0.15586527;0.18766287;-0.2641418;-0.049325448;0.28790122;0.06246131;-0.009695094;0.03303773;0.21191424;-0.0032025364;0.078344434;0.07854148;0.16534631;-0.012370697;0.07607124;-0.032584872;0.19751436;-0.022834703;0.044926263;0.04496927;-0.045872927;-0.0135367;-0.17593472;0.012844055;-0.036859374;0.021776373;-0.08466668;0.10859298;0.034313746;-0.05511623;0.10165027;0.15291849;0.012888862;-0.06579964;-0.044043187;0.0010421792;-0.008616771;-0.0793456;0.015429802;-0.1490878;0.05321133;-0.03073097;-0.023670416;0.056478407;-0.16667786;-0.015861576;-0.09670351;-0.13355944;-0.16830188;0.07015283;-0.23762916;-0.12206521;-0.10724972;0.05457117;-0.058363672;0.109096624;0.0588435;0.025891837;0.02553586;-0.06015283;-0.052953217;-0.11801286;-0.03091973;0.20085433;0.1640808;0.041965336;0.10619721;-0.11537298;-0.121143;-0.07224012;-0.035859574;0.0024590099;-0.012738597;0.0561104;0.003426185;0.081026;-0.049951833;-0.04758376;-0.13376424;-0.043919537;-0.123053476;-0.0091754645;0.052045353;-0.031554658;0.1455074;0.07543831;-0.065584555;0.05060415;-0.20301697;0.086332396;-0.05393809;-0.06467185;-0.006483411;0.18702811;0.1849819;-0.13499048;0.062795505;-0.07267422;0.017074866;0.12320574;-0.09512268;-0.0026022398;-0.024377676;-0.06827493;0.1305506;0.12181395;-0.1376669;-0.06146707;0.13529007;-0.111436844;-0.024487091;-0.028116861;0.01155852;-0.0143149365;0.06350792;0.044151884;-0.033477176;-0.07423436;0.052220017;0.07034562;0.03114742;-0.02380477;0.084551975;-0.012191211;0.018022614;-0.061523646;0.082103014;0.02855772;-0.17825128;0.002743879;0.10953306;0.029296193;0.18264718;0.14232552;0.06350329;-0.025430633;0.096413024;-0.06999624;0.056033976;-0.071026966;-0.08387408;0.08235839;0.017249651;-0.04317843;0.024487533;0.11307405;-0.04222961;0.031947706;-0.026980568;-0.13504113;-0.32122955;0.06234343;-0.026529916;-0.03511613;0.118626125;-0.016319709;0.11955659;0.08361267;-0.10107272;-0.03644327;-0.036878746;0.027776469;0.039851643;-0.1276612;0.098675355;-0.06689512;0.07145387;-0.026530005;0.056839157;0.014175429;0.093477786;0.050302386;0.026170207;0.11069546;-0.08806365;0.107077785;0.14482638;-0.020430371;-0.05398839;-0.19462095;0.040223204;-0.11450055;0.009995207;-0.010300599;-0.019864796;-0.12678528;0.08591119;0.07463676;-0.07592747;-0.030507188;-0.014442774;0.08113539;0.18988538;-0.13861582;-0.16552776;-0.043683257;0.1485392;0.26339412;0.019390138;-0.08654555;0.07940526;0.07497507;-0.03784269;0.026651174;0.045889918;0.047326736;-0.14704613;-0.13015693;-0.14843076;-0.116561085;0.13466702;-0.091287486;0.013379087;0.032268852;-0.14479902;0.09869862;0.17897828;-0.11888549;0.019716782;0.05380328;0.11517072;-0.19825879;-0.034205396;0.02802524;0.18794747;-0.071963005;-0.09308384;0.041137103;-0.01845338;0.008096424;-0.21093893;0.03537573;-0.03828534;-0.009746317;-0.060514573;-0.024840482;-0.09351097;0.18765098
-0.22544676;0.103483975;-0.0726172;0.031111648;0.047597695;0.0392914;0.061063822;0.066168614;0.03461518;0.031041775;-0.0071846996;0.021811403;-0.102284454;0.024184654;-0.024615763;-0.12654372;-0.11773013;0.041298397;0.05567372;0.029459551;-0.04394781;0.033389457;0.25034535;0.017531049;0.03982662;-0.0068019894;-0.06983232;0.06180128;0.002088932;-0.08883227;-0.046883702;0.10765505;0.06724258;0.019365586;-0.051112086;-0.20187391;0.024023747;0.020565707;-0.15858066;0.123026475;0.013082675;0.026634987;0.078429244;0.018476654;-0.19038452;0.0074685086;0.010087749;0.009618035;-0.03951646;-0.09320504;0.11970936;0.05768743;0.0037033677;0.17038888;-0.07563839;0.20286536;-0.113110036;-0.18703802;-0.08459537;0.07111986;-0.103391;-0.16997175;0.025823515;0.09286167;-0.011401706;-0.07039198;0.063932076;0.16655725;-0.09191332;-0.12578197;-0.07570013;0.014788077;-0.16299571;0.20755246;0.09716558;-0.06087947;0.052876886;0.18857701;-0.323118;0.19312364;0.0043524075;0.10911901;0.19416425;-0.05920265;-0.051045317;-0.19745342;0.047646366;-0.09136001;-0.011607524;-0.09198566;-0.042077027;0.23927493;0.1728769;0.13227266;0.09479589;0.17500748;-0.04389115;-0.100167625;-0.18767643;0.010982923;0.0009682562;0.11792614;0.06890757;-0.14599773;0.13312621;-0.016431054;0.0007314304;0.052680224;-0.009409651;-0.014928692;-0.06794999;-0.03151957;-0.010263704;-0.09522021;-0.0068023754;-0.058764946;-0.1590878;-0.062655665;0.08665504;0.20177962;-0.11929646;-0.18925074;0.053632505;0.18605898;0.14202155;0.10335907;0.09432795;-0.08552639;-0.00478784;-0.0019154405;-0.09325272;-0.115447536;0.045214;-0.088758364;-0.01983855;0.06747136;0.02744307;-0.02545563;-0.15662895;-0.07489786;-0.1346385;-0.30887058;-0.051681686;-0.01286407;-0.16366538;0.0051507493;-0.047185842;-0.04811041;0.018215522;0.11357437;0.00052290235;0.084455594;-0.3395645;0.00676995;-0.121380396;-0.12404551;-0.028603496;-0.15309103;0.003916128;0.18604037;-0.23695585;0.09013301;-0.09553995;-0.1381849;-0.009295333;0.05317027;-0.113575414;0.01227505;-0.011870763;-0.032097474;0.0413051;-0.15070532;0.11233229;0.06321884;0.01645624;-0.025480393;0.10026758;0.15555118;0.06125133;0.12110067;-0.06890405;0.13670021;0.049680643;-0.095755816;0.051521372;0.019590242;0.10526005;0.08266897;0.12150217;0.40623042;-0.064394;-0.09975589;0.0014267227;0.009788461;-0.23068066;0.028171016;-0.2081525;-0.17056078;0.0031515127;0.1811214;-0.019802758;-0.08337799;0.05319908;0.06827255;-0.04457025;0.071919516;-0.051669773;-0.10254485;-0.049409926;-0.2209326;0.022885922;-0.13775608;0.096887276;0.05272129;-0.07283867;-0.054484878;0.16581461;-0.16419154;-0.06469906;0.061547037;-0.13951518;0.07895698;0.0027562217;0.08593301;0.059624642;0.0043537584;-0.058780715;-0.022247503;0.05330403;-0.07828583;0.13858984;0.067314155;0.046962634;-0.097085804;0.12380649;0.1528829;0.059601497;0.01576143;-0.10828318;-0.06593457;-0.11065251;-0.063191116;0.003188419;-0.013089357;-0.049821634;0.18987685;0.028742801;-0.0126873115;0.20040391;-0.027723204;-0.101446725;-0.07509932;-0.007875549;-0.075573444;-0.014729459;0.036075916;0.10074278;0.19221306;-0.032658637;-0.056176517;-0.06932351;-0.3024608;0.013935758;-0.11972729;0.09622081;-0.04854666;0.05625673;-0.17792769;0.1354281;0.06311061;-0.10194497;0.07239305;-0.124133214;-0.015437864;0.057700586;-0.1322789;0.038099736;-0.04277291;0.028043794;0.028931418;0.0079849195;-0.14338964;0.0945374;-0.12552573;-0.07007031;0.08346349;0.049706385;-0.07074759;-0.032549884;0.1503272;-0.028534513;-0.028733954;-0.062841244;-0.14824277;0.082181394;0.03524944;-0.100681625;-0.07607059;-0.0054150512;-0.10748775;0.09728898;0.14158195;-0.23854034;0.10508247;-0.06344113;-0.18884125;-0.048626613;-0.032292206;-0.00036991612;-0.1364419;0.081380084;-0.04651884;-0.14654185;-0.028842544;0.13232851;0.053505108;0.038268574;0.038772874;-0.005336051;0.036445048;-0.042389065;-0.028602213;-0.14474988;-0.11813324;-0.04224072;0.0490492;0.0002972629;0.1335985;-0.0866435;-0.05052043;-0.07481355;0.07087526;0.09994207;0.004879932;0.12664424;-0.021701133;0.1800521;-0.09175577;-0.22459267;-0.005658321;-0.13449934;0.048516776;0.19465186;0.09005412;0.0054129846;-0.06422921;0.118514866;0.019350367;0.031892225;0.054854568;0.17502365;0.07446854;-0.041077767;-0.006808315;0.18428868;0.046771258;-0.030705089;-0.011786397;0.026070671;-0.030345209;-0.08592279;0.050375924;-0.031263832;0.08803868;-0.055538338;0.1993085;0.20957579;-0.14754176;-0.008539083;0.21932232;-5.7845704e-05;0.051086213;0.12361684;-0.051984202;0.011319475;-0.13322574;0.006354652;-0.22214001;0.1124646;0.09484193;-0.07345767;0.10526088;0.0244329;-0.13163255;-0.07943842;-0.004723199;-0.058637176;0.009666418;-0.28778166;-0.06519693;-0.061467562;-0.031288914;-0.045412205;0.091353945;-0.10349343;0.18916218;-0.056835014;0.038604464;-0.0070962994;-0.080117285;-0.06498079;0.21214011;0.19648664;0.015451393;0.19448447;-0.052258544;0.06426666;-0.17327894;0.042205337;0.020125791;0.07448121;0.0956585;0.032259315;-0.090895675;-0.1310871;-0.18678227;-0.16400701;0.03292449;-0.044888377;0.022064546;0.14777535;-0.012839123;0.059795998;0.103879966;-0.07452915;0.08947609;-0.100644685;0.11953962;-0.04801833;-0.062751554;-0.020136274;0.09278739;0.16775987;-0.081822135;0.13072744;-0.04143474;0.0436085;0.09397698;-0.16056368;-0.027465891;-0.08781633;-0.102522075;0.0739357;0.06409949;-0.017542541;-0.12000493;-0.011878334;0.10587072;0.0076440037;0.07692623;0.11039339;-0.009339587;0.17796916;-0.008809057;-0.033504426;-0.109714665;0.1320467;0.1460361;0.03247889;0.1394341;0.12777618;-0.117274456;0.039889965;-0.0013757045;0.021571022;0.04107704;-0.2274807;-0.041237727;0.10796405;-0.0061916844;0.022504468;0.15621637;-0.024548566;-0.026895218;0.04544182;-0.15480727;0.1490467;-0.107689165;-0.031315055;-0.011616437;0.13054763;-0.1480328;0.102696024;0.10693219;0.08126874;-0.044150624;0.023137873;0.06927165;-0.24389714;0.04879761;-0.10841076;0.059521303;0.17007565;0.016410306;0.04789566;0.040929217;-0.21535914;0.0812072;0.006554643;0.03913429;0.14564586;-0.1765744;0.022571929;-0.04704577;0.020777343;-0.026231825;0.16989979;0.06401545;0.18843582;-0.006414725;0.04242798;0.04020108;-0.1107062;0.20998035;-0.032161944;0.025764681;-0.22867528;-0.17229477;0.11697272;-0.19928657;-0.01685856;0.12017335;-0.17405422;-0.18023778;0.101483725;0.09820719;0.03362632;-0.083518185;0.045450065;0.11684435;0.17416145;-0.1730195;-0.119939245;-0.03641068;0.103984535;0.21593076;0.14329275;-0.12194686;0.008252138;-0.07446953;0.0887593;0.10392021;0.088385105;0.23339665;0.031745795;-0.14479655;-0.018770233;0.05337523;0.016226238;-0.23558065;-0.035441045;0.18974645;-0.10764638;0.18713127;0.18201238;-0.0035690044;0.055042;0.07397483;0.11962817;0.022359686;-0.039970852;0.10374863;0.18036468;-0.1312645;-0.0798863;-0.11933209;0.07808335;-0.032312084;-0.13764966;0.065534554;0.012845586;0.1207037;0.018102469;0.08242791;-0.17164567;0.09258332
-0.13009271;0.031100985;0.033733048;0.04980322;-0.061710373;-0.0064346585;0.134092;0.06104012;0.0013917185;0.11554234;0.048440225;-0.09166202;-0.24375932;0.12336397;-0.119982064;-0.20918722;-0.14384535;-0.05240377;-0.122713484;0.056223605;0.13606268;-0.031470627;0.25162357;-0.0074435985;0.13880002;-0.003099073;-0.08553983;0.037449162;-0.04748427;0.0034370092;-0.022923604;0.08618745;0.015071033;-0.18449844;-0.17249015;-0.07700702;0.0002793828;0.020965718;-0.02215627;0.13200977;0.06740995;0.19751213;0.042013858;0.12445968;-0.15994368;-0.0465211;-0.069104664;0.10215627;0.066429645;-0.19787319;0.099545136;0.0678977;0.03138552;0.14036396;-0.013617251;0.014994245;-0.13988891;-0.24254309;0.021004906;-0.04050272;-0.06507706;-0.07489116;-0.16909327;0.04053772;0.04718274;-0.09073302;0.039573047;0.081925884;-0.026562493;-0.22035699;-0.051399343;-0.045222215;-0.10054927;0.067339905;0.01766767;-0.006364129;0.047862913;0.027971962;-0.37393865;0.13125016;-0.041012894;0.16960068;0.12641956;0.18611677;-0.10655849;-0.14697878;-0.0787269;0.1198517;-0.0003657479;-0.01763888;-0.15903424;0.10812037;0.059376866;0.029295195;0.09397571;0.10938304;-0.06875027;-0.012526243;-0.09341173;-0.0912051;0.06680379;-0.037644044;-0.0804646;-0.20269978;0.058911677;-0.06009275;0.10209909;-0.014878579;-0.013505115;0.03592932;-0.05697292;0.056038696;-0.057176612;0.04148977;0.027764881;-0.13563377;-0.1495476;-0.12457726;-0.0029508653;0.07623181;-0.113589846;-0.08517143;0.10406984;-0.03080751;0.07239084;-0.045492023;0.14384696;-0.103250615;0.2092704;-0.0019814055;0.08896785;-0.20278548;0.059126966;-0.15690713;0.012960638;-0.06156099;-0.16665219;-0.06049437;-0.11489034;-0.07549274;-0.12634045;-0.086922176;-0.053350307;-0.04351227;-0.13425401;-0.1215356;0.0831881;-0.111754864;0.044768207;0.003830733;0.05385518;0.031067478;-0.29281574;-0.10640492;0.044895127;-0.023076177;0.042725477;0.008447695;0.17719975;0.2137211;-0.14921403;0.13359575;0.03373569;0.11804759;-0.07182724;-0.10021401;-0.015986191;0.13220067;0.14170556;-0.059389632;0.060414605;0.0056008617;0.08804033;0.12021855;-0.11873874;-0.0758943;0.0793726;0.15412392;0.121109985;0.059412684;-0.006759293;0.15437558;0.10485309;-0.014475762;0.10280652;-0.033552613;0.046022516;0.07934343;0.10022971;0.36460984;-0.10969053;-0.02969627;0.1026327;0.08982521;-0.03391746;-0.10135004;-0.14226465;-0.02073727;-0.11939373;0.10233919;0.10641089;-0.051220287;0.087570064;-0.13933933;-0.045872618;-0.05069629;-0.14456017;-0.093364686;-0.17065664;-0.20712787;0.08159481;-0.12465387;0.18126865;-0.019335635;-0.09171071;0.05278196;0.0017281205;-0.23388937;-0.033154335;0.19216408;-0.16299589;0.07143402;-0.052231703;0.04204907;-0.1029593;0.17074779;0.021220442;0.1196211;-0.00031673827;-0.11584861;0.094867565;-0.03344168;0.062390704;0.04816092;0.040362693;0.10458998;0.026064511;-0.15954731;-0.1808046;0.16020533;-0.10257037;-0.08229189;-0.006956259;-0.047874488;-0.16697282;0.07145563;-0.003457954;-0.13583158;0.042756576;-0.06399584;-0.075686745;-0.16589347;0.00623637;-0.034665138;-0.123568855;0.115840115;0.11446623;0.21657112;0.017703546;0.018885188;0.034405146;-0.2126492;-0.010400156;-0.16846271;-0.073069096;0.015232263;0.08436156;-0.119875036;0.0020341717;-0.008202854;-0.07421817;0.0902179;-0.16347031;-0.049944744;0.19951634;-0.20316368;-0.022053367;0.16881233;-0.13736516;0.029070929;-0.05560006;-0.11775219;0.12074137;-0.028319662;0.038251497;0.07406488;0.04374582;0.032579117;-0.06136134;0.028093902;0.060639396;-0.072211206;-0.17968196;0.009703348;0.06314457;0.115067385;0.010596151;-0.117849;0.033010565;-0.18048295;0.16829026;0.08774324;-0.12629655;0.08224879;-0.069009036;0.02836432;-0.109368674;-0.042497788;-0.09083873;-0.06786374;-0.10004283;0.062061433;-0.09010565;-0.07985692;-0.012986884;0.09568519;0.07613644;0.14821489;0.046715625;0.00060652324;-0.026063632;-0.002220707;-0.01179307;-0.15029036;-0.037665606;-0.060335685;-0.07591162;0.14931174;0.021044757;-0.113178395;-0.11762433;-0.0322294;0.083279744;-0.01335297;-0.045262318;0.07958131;0.11256782;-0.290945;-0.21291697;-0.08426169;-0.2000842;0.033814188;0.08809718;0.016272953;0.041419476;-0.10092104;0.031758364;0.14824721;-0.05124998;0.017603202;0.29144508;-0.02226774;0.057421945;0.058960408;0.06778745;-0.024172349;-0.12602082;0.0903389;0.11848028;-0.08016163;-0.10316832;0.061985828;0.07826218;0.060788494;-0.032395203;0.10997635;0.12715769;-0.15632038;-0.03410936;0.021026997;0.01788687;0.015583401;-0.14523567;-0.00366307;0.15256666;-0.22953592;-0.124353014;-0.15822768;0.02866451;0.025028123;-0.03813282;0.116030395;-0.11856784;0.07965293;-0.02272804;0.0089063905;-0.17955448;-0.0014984823;-0.16677332;0.10067602;0.0057999035;-0.072479665;-0.016504666;0.10774956;-0.05023004;0.106315665;0.11395815;-0.14566953;0.0445221;-0.10997564;-0.04154778;0.06022189;0.05299854;-0.045613695;0.15837777;-0.2043061;-0.07713594;-0.109474145;-0.080496676;0.016793378;-0.055886075;0.054650992;-0.00462309;-0.3159073;-0.14178415;-0.14614181;-0.06441098;-0.022523038;-0.07033662;0.11286089;0.16400062;0.11377001;0.11875691;0.13097267;-0.13843404;-0.011213842;-0.11542017;0.15879038;0.010441459;0.09315027;-0.07863803;0.30328202;0.027891768;-0.16063473;0.1669277;-0.11523908;0.08007108;0.0465538;-0.124276035;-0.074125625;0.056843787;-0.06400471;-0.07160208;-0.014375509;-0.026724493;-0.1026903;-0.019040324;-0.016316004;-0.14906405;0.0589324;0.23311953;-0.056446493;0.081987865;-0.13437065;0.068139225;0.04282401;0.009131801;0.044321854;-0.0016571056;0.10294303;0.04003894;-0.22758901;0.15804803;0.022011803;0.02023555;0.015143915;-0.20149045;-0.014878039;-0.08162465;0.05844631;-0.022440339;0.11381454;0.027638175;0.003282599;0.09149438;-0.17937511;0.13731636;0.03826528;-0.07854567;0.122754194;0.20881693;-0.09929329;-0.04786847;-0.009825425;0.18200395;0.058829345;0.06260296;-0.014449965;-0.24244633;-0.037378762;-0.15365739;0.07889795;0.14618416;0.17762332;0.22452173;-0.0826203;-0.19140035;-0.025058039;0.00086577056;0.07926228;0.016401073;-0.12503327;0.12372477;-0.08679934;0.06505847;-0.11370137;0.16063611;-0.012144104;-0.014175294;0.11760398;0.03764061;-0.09809478;-0.17893995;0.109322;0.065290354;-0.08985997;-0.13690405;-0.100449204;0.12327642;-0.1829384;0.00892809;-0.03178039;0.00017024102;-0.2582324;0.09792419;-0.034196235;-0.04562652;-0.26287052;0.058383908;0.26095358;0.02623712;-0.12752636;0.01786153;-0.11211571;0.057795167;0.1341357;0.064500496;-0.13430169;0.13552794;-0.057839546;0.043119974;-0.08259419;0.03510991;0.20282905;-0.014645873;-0.08976302;-0.114309736;0.0070188516;-0.059854787;-0.14624707;0.029658148;0.13100463;-0.1417148;0.16164571;0.047663655;-0.08155539;-0.0017541022;0.088483885;0.12339291;0.069412425;-0.06334355;0.119071186;0.16372651;-0.16381094;-0.1310474;-0.06664854;-0.06053895;-0.13676423;0.027069248;0.110963136;0.0034411065;0.05843475;-0.07607133;-0.16045995;-0.12467386;0.24003628
-0.14196585;0.109210454;-0.07673801;-0.093400896;0.039648283;-0.00027332705;0.06664144;0.0007819826;-0.03631085;0.1225246;0.10683877;-0.02857159;0.08284893;0.08509898;-0.038865108;-0.1523189;0.031054754;-0.014734562;-0.2206759;0.0059805918;-0.003978572;-0.04812305;0.25672922;0.08736541;-0.047052424;-0.042647906;-0.028570801;4.6102257e-05;0.015648736;-0.20685466;-0.06329168;0.074440725;0.0040583895;0.060500607;-0.14740555;-0.15110308;-0.1043638;0.07771033;-0.061125934;0.1818172;0.04754975;0.04603055;-0.027927464;0.18629208;-0.089242004;-0.048966892;-0.06906487;-0.09701077;-0.02795871;-0.19859566;-0.030903986;0.059511557;-0.06167607;0.134223;-0.057188224;-0.09917745;0.01055341;0.00030965795;-0.09806856;0.10602011;-0.0046308795;0.014809731;-0.009306232;0.03619252;-0.031891763;-0.032194;0.1351964;-0.02009386;0.024030207;-0.082494885;0.03809718;0.05768665;0.054273527;0.08465965;-0.11500921;-0.023912132;0.09294879;-0.11959117;-0.18786679;-0.06689692;0.115281925;0.07872021;0.15784253;0.08726019;-0.06306916;-0.026508048;-0.11077683;-0.021087104;-0.007876162;-0.1499068;0.014708347;0.13994712;-0.0020405063;-0.014277671;-0.037557352;0.14882079;-0.025720248;0.0011690503;-0.0854367;-0.010330539;-0.11991053;-0.046221316;-0.0052487124;-0.12016442;0.10324279;0.012848115;-0.018448431;0.0055908305;0.0847281;0.057514507;0.10459036;0.066612594;-0.049549747;-0.08551791;0.008047416;-0.099831454;-0.08145627;-0.087673016;0.00765516;0.18792151;-0.081856765;0.0028676519;0.17046425;-0.02531985;-0.041714396;-0.0034210628;-0.0050316527;-0.10908871;-0.093694225;0.17362627;-0.07269088;-0.18063144;0.025327083;-0.34609348;-0.0068917037;-0.058685225;0.0052576805;-0.08627191;0.013511992;-0.13254042;-0.03812794;-0.14124578;-0.06120947;0.057724513;-0.08124333;-0.0515708;0.19108851;-0.12649256;0.08706335;-0.05529388;-0.036280252;-0.020918122;-0.22281088;-0.09137717;-0.010670727;-0.12902272;0.012173233;-0.122310854;-0.0036657513;0.14006843;-0.26032928;0.08900072;0.021291902;0.19028892;0.03685594;0.041726287;0.13091607;0.023751548;-0.0061939466;-0.08026798;0.12905568;0.052986022;0.25908938;0.014090396;-0.12883718;-0.040851876;-0.08663969;0.13075319;0.06788266;0.14511259;-0.021460345;-0.027248224;-0.043343324;-0.018686555;0.062709115;0.008686531;0.05489704;0.14403172;0.06112912;0.34100428;0.053001825;0.03825752;0.01977083;0.10906083;0.009886658;-0.12434054;-0.18776023;-0.19429375;0.025358753;-0.034623057;0.10674662;0.034530498;-0.12469314;-0.055617675;-0.08138456;0.118401535;-0.13628098;-0.16238852;-0.09903995;-0.027504077;-0.14610258;0.17083347;0.20110327;0.0890482;-0.12467843;0.08229418;0.124734476;-0.017283715;-0.1326974;0.20680209;-0.11828658;0.017767208;-0.10678137;0.09353638;3.8979517e-05;0.12092246;0.02807544;0.072072215;-0.22744758;-0.037931964;0.04278456;0.14288813;-0.13125594;-0.04601677;0.016934875;0.085907176;0.14271818;-0.05857696;-0.28277785;0.108127676;-0.16933726;-0.08389094;-0.062138177;-0.08815309;0.03404337;0.034631133;0.14010473;-0.22282284;0.16366658;-0.042308748;-0.106762685;-0.049877927;0.11619532;-0.07185385;0.017111462;0.25635567;-0.08368921;0.10442887;0.083556585;0.00042666448;0.09258873;-0.14186077;0.030540725;-0.05399492;0.020324629;0.0500723;0.08614671;-0.19439964;0.07357661;-0.12431063;-0.07088847;0.078626074;-0.121009596;-0.14953125;-0.07284199;-0.16557348;0.048113097;0.22049725;0.03909925;0.057398554;0.10964293;-0.03249012;-0.010432657;-0.055512343;0.02122077;0.18347871;0.08098906;-0.05315212;0.07210301;-0.030907806;0.059705295;-0.0076764775;-0.059827924;-0.07521937;0.12847942;0.11379248;0.00091979;-0.11702088;0.09788404;-0.06559076;0.06871445;0.18302836;-0.20672837;0.07668383;-0.038170863;-0.0750897;-0.055071592;0.015278807;-0.09889514;-0.121802434;-0.15124178;0.103276126;-0.2336349;-0.072673865;0.08832679;0.0491036;-0.11195138;0.003429671;-0.020527035;-0.10919796;-0.108421646;-0.12362228;0.019691281;-0.38214058;-0.18133101;0.008631937;0.05970827;-0.0318959;0.1058284;-0.070482895;-0.021069082;0.065300226;0.11234321;0.0357174;-0.13884807;-0.14127691;0.2550797;-0.04835186;-0.042308763;0.028690318;-0.07302468;-0.03922215;0.049663033;0.07396569;-0.033609103;0.017037446;0.103867196;0.062689155;0.0083765425;-0.03327422;0.21300937;-0.009971351;-0.020251725;-0.009748356;0.0924984;-0.06723212;-0.15428814;0.05132645;0.031996794;-0.12645403;-0.21489893;0.113256276;0.029767474;0.015125793;-0.2209593;0.14760143;0.0652329;-0.19061618;-0.02074233;0.055494647;0.019919;-0.015314067;-0.052643184;-0.087564014;-0.06820677;-0.13110164;-0.03246234;-0.046592798;0.028431376;0.14291635;0.026289051;0.16133204;-0.18708019;0.18252642;0.06660051;0.009555553;0.077410325;-0.16519612;-0.23160715;0.016071485;-0.06497376;-0.05930923;-0.20757557;0.0463219;0.0647801;0.06355323;0.07362965;-0.11125297;-0.044444315;-0.13802053;0.05897124;0.017050156;0.023618119;-0.029705295;0.196819;0.014960058;-0.07327183;-0.13169967;-0.1451787;0.0014894683;-0.15345259;0.101565495;-0.10108972;-0.26989207;-0.06976239;-0.075132996;-0.0304737;0.039505646;-0.1084884;0.017231518;0.15916769;0.11922156;0.11640182;0.036699817;-0.037436076;-0.0818886;-0.070119224;0.060211167;0.1280038;0.007431492;-0.09340719;0.055340324;0.1534977;-0.18911687;0.042756576;-0.17559974;0.14560194;-0.03125184;-0.11666943;0.066710666;-0.0009284662;-0.19420236;0.13202377;-0.085019596;-0.18940192;-0.10784204;-0.04723999;0.07582059;-0.27135873;-0.02953796;0.21574754;0.0266652;0.17635222;-0.14258853;0.07038774;0.09252676;-0.07310743;-0.039894283;0.12973298;0.020454079;0.09137614;-0.14887196;0.07653618;0.11107514;0.08527044;-0.035815377;-0.085759655;-0.0031060895;-0.004260185;0.12517264;0.08728081;-0.07388732;-0.07024692;-0.003925619;0.1544047;-0.13809608;0.06585073;0.115730874;0.13764304;0.035776712;0.14802046;-0.18862356;0.0009025265;-0.044113845;0.023115356;0.088751554;0.077678785;0.16227128;-0.15345219;-0.10561648;-0.22621506;-0.14703244;-0.048865568;0.18821456;0.1404493;-0.090308025;-0.06530919;0.0008781234;-0.025987834;0.044371683;0.065225124;-0.28478092;0.11902219;-0.1701736;-0.030382525;-0.07835443;0.058875922;0.11429283;-0.011078701;0.13596395;0.046733256;-0.06847703;-0.2971617;0.12138802;0.15932514;-0.11783729;-0.17021482;-0.17242986;0.101629764;-0.20512961;-0.13192548;0.023000056;0.19517937;-0.23699908;0.07216745;-0.056570694;0.05380867;-0.12560605;-0.06299659;0.1787287;0.13754158;-0.10858391;0.067528985;-0.09980096;0.15213002;0.14426221;-0.008137306;-0.21109909;0.21914169;-0.17465983;0.056557912;0.049536522;0.014264509;0.19585125;-0.08206539;-0.09373287;-0.16006292;0.041600782;-0.09130631;-0.04260142;-0.034368917;0.04702139;-0.11384911;0.11028043;0.06612272;-0.16703793;0.024163967;0.06510855;0.1748309;0.0027423033;-0.111987025;0.028161215;0.16709284;-0.03632886;-0.08019407;0.07818923;-0.14834528;-0.06785924;0.16430959;0.087961674;-0.0035675827;0.062964864;0.018411836;-0.03452517;-0.066107005;0.076613046
-0.06646213;-0.021414634;0.033350606;-0.17755151;0.04387486;-0.034379955;0.16749968;0.18149728;0.14386591;0.023892842;0.056438625;-0.014769668;-0.027788693;0.1252095;0.038597547;-0.13973536;0.05434885;-0.07022917;-0.13339329;-0.21632487;0.0018177469;-0.14873071;0.24981098;0.04904515;-0.04811179;0.05991279;0.14604315;0.08766995;-0.06616351;-0.10999315;0.13554755;0.05229941;-0.04385993;0.083742194;0.21963958;-0.2006516;0.06510301;0.23509605;-0.1079707;0.24373743;0.03211943;0.15557875;-0.011806309;-0.020871732;-0.116057076;0.06630896;-0.038303785;0.07034693;-0.09044796;-0.044484787;-0.010846712;-0.055827685;0.097650155;0.06294141;0.0088891415;0.0029081434;0.15279597;-0.051412806;-0.1033529;0.09463711;0.08954108;-0.1917949;-0.10345361;0.034767576;0.12895739;-0.01485971;0.10347954;0.07470121;0.13261534;0.069028094;0.0070344424;-0.05807789;0.00052459544;-0.018314747;-0.06349491;0.09399084;0.07588464;-0.13301995;-0.14503579;-0.13386202;-0.013658894;0.14613166;0.17922856;0.08737592;0.020804973;-0.043987397;-0.14148518;-0.10709009;-0.07575825;-0.040468935;-0.10760585;0.09605782;-0.09140022;0.013681979;-0.0025267655;0.12623735;-0.00014877136;-0.11338746;-0.03170512;-0.09389524;0.0540087;-0.06624878;-0.0939738;-0.016501239;0.024155965;-0.083845824;-0.1077743;0.007366151;0.06653028;-0.08151759;0.061817493;0.13529123;-0.08218485;0.10228156;-0.024225088;-0.019092645;-0.11678596;-0.1919793;-0.090135686;0.17340513;-0.04103771;0.01414868;0.13094842;-0.101812;0.0138201555;-0.073200725;0.12772891;-0.14751865;-0.08170846;0.023726212;0.022010569;-0.14372647;0.0072510894;-0.13594307;-0.030031655;-0.11542568;-0.08627223;-0.026123805;-0.06035581;-0.09160895;-0.09584809;-0.23236862;-0.087022685;-0.03566041;-0.100557856;-0.14828505;0.042509563;0.075844;0.2917849;-0.07510948;0.11284932;-0.046687532;-0.18456669;-0.13575418;-0.06335255;-0.079306535;-0.1068715;-0.11701909;0.18669584;0.21294475;-0.27728868;0.14980838;0.19908391;0.2150368;0.008092436;0.018984497;0.07886224;0.14952056;0.00095862336;-0.08868954;0.009851477;-0.018913286;0.1063485;-0.009240628;-0.07127119;-0.017680014;-0.104365826;0.14341539;-0.022081265;0.14756162;-0.066966616;0.007276574;0.033975095;0.009515845;0.054742973;-0.0024821355;0.041585997;-0.004031511;0.022273071;0.26118866;-0.021193575;0.050681904;-0.007935739;0.1520371;-0.088087045;0.0834867;-0.1441769;-0.15745552;-0.0029687942;0.030725311;0.09159047;0.05228782;0.04430906;0.08649841;-0.1295229;0.0039533223;-0.13824505;0.047024984;-0.19486988;-0.0008911893;-0.17709354;0.070718765;0.16013318;0.017135711;0.0017370211;-0.07278123;0.14224344;-0.057635084;0.007013209;0.14151692;0.016618315;0.097949535;-0.07186982;0.095658146;-0.027220339;-0.05234707;-0.11533396;-0.0030972273;-0.147309;0.06404376;0.036923643;0.12140461;-0.054389402;0.0076270644;-0.009446226;0.059653863;0.031553954;-0.018749295;-0.253728;-0.035915647;-0.21765949;-0.084524274;0.016130472;0.019651894;0.0307655;0.037095353;0.22245257;-0.17873615;0.15119065;-0.05262429;-0.09720539;-0.19075835;0.0895043;-0.12748028;-0.109598115;0.15778188;-0.13115339;0.022839295;0.026708674;-0.014992762;0.08072143;-0.035917845;-0.05285334;-0.0674866;0.056468364;0.10780505;-0.04935659;-0.08793796;0.0069669816;-0.06608456;-0.052048117;0.11191774;0.036065433;0.060155924;-0.092097916;-0.084355935;-0.01547422;0.25048026;0.0541376;0.04853869;-0.013186081;-0.08481463;0.014881908;-0.014309465;-0.009300383;-0.013526844;0.18111841;-0.04763428;-0.074620575;0.052299805;-0.08412406;0.0470604;-0.1696207;-0.11700203;0.11717152;0.014626711;-0.053098258;0.18738747;0.028046912;-0.11644434;0.112988286;0.14471664;-0.26919508;0.058034144;0.1413496;-0.18818526;0.10769954;-0.013097375;-0.2111341;-0.047503836;-0.15366398;0.07172585;-0.23431121;0.018510241;0.20279026;-0.010440031;-0.10005125;-0.028623208;-0.020800404;-0.20657004;-0.089860015;-0.15093306;-0.061667908;-0.2710778;-0.14030842;-0.12391132;-0.062187452;-0.020457815;-0.021766244;0.014479281;0.061112013;0.089053355;-0.008126618;0.12093097;-0.10542407;-0.0032450238;0.16852948;-0.35285032;-0.109924756;0.08315816;-0.1571283;-0.014328689;-0.05360447;0.04433282;-0.10670689;-0.07138219;0.16833563;0.12865381;-0.053945683;-0.05005086;0.058653723;-0.018196914;0.03886496;-0.05424767;0.11491428;0.08834747;0.02374103;0.045429118;0.070748776;-0.112177595;-0.1232028;0.031885505;0.34124696;-0.08110998;-0.17567764;-0.011412007;0.10113789;0.035844292;0.1359684;0.059662737;-0.04179727;0.04890117;-0.12790087;-0.22145465;0.08750638;-0.03900731;-0.029473783;-0.11705845;0.081545524;0.122733854;-0.0061354064;0.18896377;-0.007679028;0.0106926905;0.12951556;0.089640655;-0.006477502;-0.099665254;-0.22586066;0.12659855;-0.099554464;0.00076828344;-0.17418736;0.07051527;-0.05803722;0.08555105;-0.033373997;0.09378766;-0.04132674;-0.044579048;0.00914439;0.084112324;0.11030112;-0.0881925;0.161111;-0.038876127;-0.15388946;-0.21112765;0.097284;0.0059795864;0.01877297;-0.0848182;0.015211578;0.01595085;-0.08719456;0.07439761;0.14757921;0.16721486;-0.15788594;-0.01532646;-0.0015785033;0.044249512;-0.03922124;0.06347262;0.0074212267;0.05469656;-0.053873707;-0.10505881;-0.029042259;0.11410314;0.08391459;0.035164207;0.18822758;0.15965506;0.1288041;-0.14770798;0.019823475;-0.13707381;-0.14764708;0.040863;-0.04160002;0.02029429;0.12316347;-0.058400273;-0.06436462;-0.117423624;-0.1071063;0.082564354;-0.1196372;0.16619177;0.21739116;-0.073696725;0.036393933;-0.21568058;0.12643473;-0.074261166;0.14315951;-0.009350807;-0.0012825668;-0.007981267;0.17362007;-0.115675606;0.18201818;0.14044236;-0.086152814;-0.08822853;-0.22776027;-0.18525992;0.021632083;0.088071324;0.0016213463;0.13394038;0.012136679;-0.048064362;0.048240967;-0.17019764;0.01474436;-0.0891443;-0.0883435;0.07185467;0.1744808;-0.033276733;0.07457055;-0.096480295;0.005129298;-0.03273158;0.01906691;0.017510734;-0.19698276;0.10228911;-0.15200806;-0.14065754;0.032718893;0.022920566;-0.01060364;-0.022876361;-0.14121675;-0.09526927;0.08562911;0.08369481;0.13643429;-0.21662481;0.23703858;-0.20470183;-0.033955332;-0.13084805;-0.024774438;0.12658265;0.03067593;0.011768757;0.18629687;-0.16575927;-0.23128465;0.017012201;0.18179125;-0.1386322;-0.32778308;-0.14307226;0.011393572;-0.04109005;0.07393254;0.02718839;0.08245055;-0.2789074;0.17567763;-0.052824408;-0.018191025;0.04550931;0.04681365;0.37502384;0.042962816;-0.1553273;0.0766894;-0.225809;-0.012022382;0.15782496;0.020455109;0.0053085154;0.18097718;-0.2777753;0.1439986;0.026519125;0.08296186;0.03644826;0.055737387;-0.18380667;-0.30856243;0.14107929;-0.06858095;-0.17635503;-0.0076446068;0.007957601;0.03817017;-0.0050393967;0.16734467;-0.03390415;0.044945482;0.013668385;0.11232706;-0.06793718;0.029127285;0.15446343;0.06756587;-0.023139087;0.08249687;-0.010289897;-0.111121625;0.0682056;0.0955633;0.0838985;0.033826593;-0.102224514;0.04096878;0.16972122;-0.08978351;0.27105525
-0.15843529;-0.011965681;0.09558286;0.014738279;0.0005091491;-0.018951474;0.11759947;0.028067807;0.07962222;0.0040613767;0.044020113;0.06591816;-0.1273456;0.16178983;0.050866872;-0.023187993;-0.02140533;0.13420464;0.039677043;-0.04320548;0.18831596;-0.18949978;0.23335306;0.050537676;0.024861308;0.024465388;-0.002416194;-0.019210337;-0.0071061566;-0.05881904;0.15152802;-0.0034980166;0.15236072;0.05007582;0.05190565;-0.25191444;0.023183338;0.21828233;-0.29971167;0.06781701;-0.08438857;0.021417975;6.332287e-05;0.18117192;-0.31679726;-0.0820765;0.02050684;0.018034074;-0.079926044;-0.12896837;0.10774125;-0.048371978;0.06399299;0.17892975;0.0010505862;0.022475794;0.004523952;0.056479797;-0.20701627;0.12887228;0.084805354;-0.1293456;-0.16439092;-0.046739716;0.20755112;0.06770051;0.04799768;0.12468109;-0.055363916;-0.15040505;0.061635558;-0.13396926;0.034230605;0.09484348;-0.1345712;0.089119345;0.05797879;-0.14600383;-0.14156085;-0.20659216;-0.0214401;0.070628725;0.27511388;0.16637848;0.06429495;-0.22907686;-0.017054144;-0.25499192;0.030268118;0.056661133;-0.1597481;0.21208683;-0.10280264;0.010992186;-0.067291565;0.078650154;-0.09650007;-0.03304368;0.16188416;-0.07694132;0.06531956;-0.1195742;0.014340661;-0.11877302;-0.012727977;-0.10237367;-0.07012618;0.11615054;0.014795286;0.07088553;0.030613173;-0.04843577;0.032276664;0.13917267;0.02508773;-0.09163309;-0.17840673;-0.0674731;0.010291609;0.04180606;-0.057667922;0.1746725;0.042747997;-0.14681804;0.071926765;0.06937053;0.0039682207;-0.15184045;0.07653523;0.053497635;0.05500677;-0.1619179;-0.03890555;0.043855187;-0.14324751;-0.061891016;-0.03745255;-0.033071663;0.04349607;-0.096156605;-0.029706648;-0.10403542;-0.11693017;-0.024355795;0.07484589;-0.08500937;-0.062076047;0.09892062;0.19639394;-0.12363283;0.075227715;-0.022577927;-0.003998174;0.16135286;-0.016617639;0.0026313844;0.029803881;0.053627566;0.0100206;0.26092842;-0.15232609;0.02397819;0.03894551;0.1304651;0.010180849;0.08695058;0.0998317;0.0319301;-0.062448267;-0.061486308;-0.07493479;0.026622249;0.11946928;-0.009681583;-0.21523297;-0.015932057;0.06914662;0.056231827;0.09301633;0.06619171;-0.059483543;-0.104354076;0.038711;-0.015806964;-0.05261776;0.079217575;-0.042165957;-0.032136846;0.08620066;0.20101228;-0.15698113;0.04516642;0.024245251;0.077276856;-0.032325108;-0.08302214;-0.14331713;-0.21277398;-0.062247634;0.109322704;0.12568092;0.013233641;0.05158267;0.01751881;-0.10533789;-0.049673796;-0.03498996;-0.032355685;-0.09408264;-0.06494676;-0.09892202;0.002192292;0.09145731;-0.11052497;-0.019377645;-0.07057838;0.06039609;-0.050372247;0.09656487;-0.059217393;-0.0717357;0.12736417;-0.11763213;-0.015523951;0.12749363;0.036035888;-0.0028086284;-0.058238372;-0.19232647;0.13271485;-0.10334236;0.055374045;-0.039874732;0.039117258;0.009943061;0.11022296;-0.066778205;-0.07290749;-0.15570328;0.06421886;-0.07666903;0.036850132;0.020715758;-0.059135456;0.018609632;0.15212104;0.010864149;-0.30317938;0.16784973;-0.05266879;-0.13421346;-0.11282641;-0.02883568;-0.058093004;0.016609961;0.16767126;-0.036414824;0.020134632;-0.16537145;-0.061327063;-0.015599613;-0.11574628;0.018234795;-0.08030221;0.13539498;0.04076858;-0.12827948;0.0028913377;-0.084442936;-0.17547412;-0.034237754;0.081057444;-0.07969829;0.11513176;0.09399975;-0.094658874;0.0093696825;0.17600203;0.12109856;0.052734874;-0.06328365;0.06517702;0.0084589105;0.12112738;-0.069875605;0.10563698;0.06352808;-0.07326053;0.0096620545;0.01667079;-0.107935615;-0.038256533;-0.12115356;0.024089258;0.028618487;0.111200094;0.05381661;-0.054963414;-0.06380819;0.036190283;0.07734237;0.0953815;-0.23071101;0.06679911;0.21118534;0.15938789;0.14443254;-0.034710426;-0.18136239;-0.0073701;-0.062340975;-0.11580209;-0.096081644;-0.053305116;0.12948216;0.026873996;-0.1316021;0.1481027;-0.12735622;-0.20612249;0.1020694;-0.15349394;-0.18501425;-0.26283196;-0.35813937;0.01246785;0.072424635;-0.13756086;-0.053630084;0.046775147;-0.18738945;0.057051234;-0.02332213;0.15906088;-0.17552328;-0.05545636;0.18000999;-0.15504873;-0.117430255;0.08273117;-0.11187055;0.16072156;0.008101646;0.06804873;-0.0606387;-0.18210676;-0.027063234;-0.028307594;-0.025192136;0.13402714;0.086181656;0.014054502;-0.037266385;0.015882447;0.06657555;-0.040841956;0.10183596;0.043219354;-0.07720061;-0.09918921;-0.16581751;-0.08564754;0.18209067;0.0373893;-0.052070864;0.007534334;0.1852594;-0.008278494;-0.00094932324;0.09935122;0.012844795;-0.06298865;0.014946036;-0.23943745;0.07339894;-0.04834002;0.07307579;-0.06484994;-0.030913766;0.06540041;-0.09447;0.058616497;-0.00061937136;0.032221396;-0.011593787;0.0535167;-0.03510355;-0.034693185;-0.17006207;0.04289383;-0.018080177;-0.1498617;0.0539005;0.12140849;-0.102363996;0.053185754;-0.009301122;-0.16909416;-0.008735941;-0.122898854;0.08431189;0.0043985816;-0.0072479197;-0.22529046;-0.054845344;-0.043044697;-0.25834697;-0.1958071;-0.08045272;-0.02309574;0.08432363;0.113857366;0.0071722167;0.045646627;-0.12666906;-0.08700233;-0.085694574;-0.10317426;-0.068801895;-0.06875945;0.051645506;0.024020717;-0.00544653;-0.06650413;-0.016759655;-0.070722505;-0.14659658;0.12639892;-0.10554235;0.08603293;0.037259582;0.25482082;0.11461645;0.11638802;0.11265176;-0.20000419;-0.029852664;-0.0418332;-0.04670521;0.05987707;0.037286155;-0.0072199814;-0.003233832;-0.012532878;-0.15308024;-0.2125297;-0.15133888;-0.07058068;-0.13183899;0.054613583;0.07790858;-0.019932859;0.10111913;-0.20246045;0.1033591;0.045489088;0.013084241;0.018668737;0.047106985;-0.10235347;0.1192768;-0.062311597;0.17415233;0.16040154;-0.010273093;-0.1526771;-0.12079;-0.32606336;-0.22136319;0.06145322;0.054591265;0.056031406;0.016212676;-0.20625867;0.18242663;-0.23158732;0.04128819;0.096555494;-0.14683028;0.039623182;0.02093955;-0.033573955;0.14902645;0.20893154;0.08448292;0.027592413;0.16287631;0.082059294;-0.04921771;-0.022804553;-0.16799362;-0.12013864;-0.0051016975;0.054389317;0.19790241;-0.07524534;-0.051066257;-0.055432573;0.24267799;0.043735325;0.121064626;-0.09126512;0.30715463;-0.1796484;0.030975556;0.07309008;0.07121597;-0.061251298;-0.076976255;0.0371206;0.05651558;-0.17616196;0.02860367;0.08191749;0.14509891;-0.037961755;-0.137386;-0.16145852;-0.04110415;-0.043301847;-0.025187459;0.05779273;0.109753005;-0.11571037;0.022744281;0.044641756;-0.09953594;-0.19108967;-0.09755697;0.26074108;0.11754501;-0.028354209;0.025827128;-0.13850072;0.04900828;0.20641366;0.09888296;0.020152176;-0.1260706;-0.27249685;0.13901474;-0.0029379807;0.0015952531;0.098956734;-0.07175284;-0.07890187;-0.16242743;0.03429702;-0.00594874;-0.20171337;-0.030987596;0.0035252394;0.16286032;0.07132404;0.11438017;-0.10420355;0.042095754;0.04746698;0.07781184;0.009657371;-0.103523664;0.052323453;0.12090424;-0.04211288;-0.042099375;-0.15219295;-0.09829378;-0.02631755;0.17051402;-0.07674435;-0.031233352;-0.18398519;0.19180328;0.08844289;-0.08641929;0.28332603
0.025140265;-0.08552763;0.1233321;-0.025659278;0.018434467;-0.08595452;0.0841474;0.024284426;-0.023728896;-0.07492734;0.071088046;-0.025639001;-0.18471926;0.10398256;0.13622063;-0.04094792;-0.012069097;0.049727283;-0.044878628;-0.0024092246;0.24197333;-0.07199116;0.16837518;0.16269054;-0.029968005;0.012153794;0.082692884;-0.029985277;0.03086871;0.04702108;0.1804919;0.008903098;0.17825066;0.001681316;-0.003038421;-0.22416313;0.082609266;0.1167683;-0.27048168;0.19271502;-0.07341806;0.06230445;-0.04063544;0.07762408;-0.073716365;-0.09503657;0.022727156;0.046085466;-0.05444717;-0.12696952;0.048022866;-0.06583815;0.15494451;0.22389625;-0.09102915;-0.04541492;-0.004181417;-0.15075739;-0.1550763;0.014537557;0.19306475;-0.16898794;-0.14493585;-0.045893423;0.09503253;0.100522056;0.048695326;0.04162584;0.025042599;0.058331065;0.13125739;-0.12400442;0.009873071;0.24863726;-0.10854062;0.08126892;0.0494648;-0.038507346;-0.23332718;-0.20718771;0.07534291;-0.037594665;0.17545642;0.09402395;-0.048659142;0.009796062;-0.08715618;-0.25714564;0.14576848;0.12795745;-0.022629797;0.15992318;-0.012034757;-0.0461608;0.050666902;0.11141967;-0.00033261368;0.025428142;0.090916775;0.003073027;-0.07097446;-0.0053077843;-0.046325553;-0.21435776;-0.19150619;-0.16894181;-0.015254961;0.053402305;0.011145127;0.102077395;-0.12684819;0.07720831;0.021068195;0.14772488;-0.053575378;0.0037552705;-0.13659884;-0.093768395;-0.14137316;0.15548678;-0.25560325;0.022644214;0.047523204;0.011066971;0.008397517;-0.010568893;0.10871604;-0.102485314;0.12943646;-0.069401994;-0.007836231;-0.108734064;0.027585126;-0.15744798;-0.14566252;-0.106868014;-0.109312244;0.07495197;0.14351076;-0.021017231;-0.13786831;-0.13866287;-0.08784609;-0.07408469;-0.025504446;-0.055725392;0.031444445;0.11634474;0.1770214;-0.09982054;0.12202769;-0.07214471;-0.04359419;-0.0040490595;-0.20053235;-0.039583664;0.044132102;0.020517541;0.06507171;0.13023439;-0.052274983;0.024106484;0.13390638;0.015870627;0.035608698;0.0035834785;0.07727106;0.04186253;0.08671824;-0.014702884;-0.07909851;-0.052564893;-0.005299729;-0.0007023615;0.050999988;-0.11323457;-0.1349283;0.09688498;0.06412733;0.14173125;0.123626985;-0.048353557;0.0038797285;0.015534083;0.036018595;0.03429365;-0.05108173;0.0055152467;0.052806042;0.13821162;0.008285442;0.19428293;0.0973728;0.18105057;0.0342872;0.0022559362;-0.018251846;-0.21777456;-0.0027900187;0.13441947;0.069590285;0.047585282;0.017343704;-0.042042017;0.044332102;-0.010017;-0.080218025;-0.016443014;-0.21523832;-0.140097;-0.13262138;0.06857449;-0.017734267;-0.09117686;-0.048575502;-0.19488636;0.05199989;-0.10958599;0.047198232;-0.120243855;-0.21605538;0.09605119;-0.26188514;0.004739656;0.04695233;0.101874515;-0.10278117;-0.017026989;-0.24541393;0.10281769;0.0067127794;0.018769167;0.09773348;0.10155809;-0.09545396;0.04778088;0.020328721;-0.097610466;-0.190939;0.050735753;-0.001556056;-0.12179268;0.061585344;0.012256855;0.09981906;0.1828025;-0.07202423;-0.10062964;0.13661233;-0.047968987;-0.11763772;-0.12979613;0.11944827;-0.0026741647;0.030326882;0.08080956;-0.13842314;0.10302185;-0.11947826;-0.04968555;0.053478427;-0.072255336;0.011790193;-0.10943402;0.1455308;-0.15607336;-0.046023816;-0.12608746;-0.047657195;-0.1649171;-0.057708364;0.05961039;-0.13970779;0.04722858;-0.09102339;-0.01288094;-0.0918233;0.082858875;0.0076404857;0.04843538;-0.00072422036;0.08794496;-0.064986914;-0.061421443;-0.034782406;-0.06443713;0.110061795;-0.0972204;-0.09977272;-0.020987457;0.08976218;0.030840691;-0.086359404;0.042059347;0.11781039;0.097786985;0.04649507;-0.04962966;-0.043127228;0.20809707;0.13775024;0.12009396;-0.074748255;0.07043895;0.18182492;0.020560686;-0.042517897;-0.03128043;-0.08754819;-0.14567465;-0.040847957;-0.15273668;-0.18942995;-0.05569099;0.21522494;-0.030046923;-0.13597648;0.05322489;-0.08068148;-0.11154281;-0.040925335;-0.11963272;-0.0971783;-0.22366165;-0.32962173;-0.120673;0.002586785;-0.022785084;0.076369725;-0.0047943005;-0.027368413;0.049860153;-0.0998259;-0.03539799;-0.15633075;0.004674025;0.2690689;-0.17723876;-0.07479202;0.18182568;-0.021976562;0.21903795;0.063533485;0.16343124;-0.10112477;-0.08702164;0.018945174;0.06951646;-0.051834997;0.066500895;-0.012660839;0.04208421;0.052783825;0.050779678;-0.043517377;-0.028296944;0.27212486;0.06951483;0.020466356;-0.13928773;-0.075403355;0.03636678;0.11205342;-0.11585229;-0.075858265;-0.06378434;0.11606611;0.047133245;0.06150975;-0.0037466765;-0.11421956;0.05240389;0.0049969456;-0.10268941;0.13660665;-0.006475832;0.104263805;0.03733657;0.082300946;0.17483419;-0.025331885;0.09968682;0.05290864;0.06229629;0.02051602;-0.027311385;0.06493711;-0.14962916;-0.14902124;-0.087906204;-0.22792348;0.008160312;0.084130004;0.016177988;-0.007802129;-0.023136208;-0.11557953;-0.09562868;0.016102785;-0.11880902;0.0918;0.025050545;0.016520536;-0.17324156;-0.16161709;0.04540443;-0.1723398;-0.06957561;0.023166472;0.0949529;-0.013683721;-0.022364667;0.043178428;0.12657988;0.11230158;-0.15072429;-0.07179834;0.18404754;0.053495802;-0.06754434;0.02798731;-0.021824159;0.058946677;-0.116392605;-7.56068e-05;-0.1284114;-0.01493448;0.039055753;0.041115455;0.11016027;0.14651763;0.20702407;0.15103833;0.13148206;-0.020403374;-0.2504978;-0.11529819;0.055802226;0.090106376;-0.07123687;0.010913275;-0.07116174;-0.025706751;0.05263361;-0.14760706;-0.11333512;-0.11530798;-0.17771125;-0.20714183;0.16477007;0.054037698;-0.089323364;0.025795484;-0.1376367;-0.15368116;0.10077277;0.005477361;-0.11606898;-0.006298166;-0.013904112;0.07298619;-0.059404835;0.09914129;0.12273042;-0.042895146;-0.09884954;0.011149619;0.06331984;-0.26613858;-0.10403396;0.014206705;0.0565861;-0.054433573;-0.08582227;-0.002625222;-0.23851022;0.14019305;0.09790425;-0.04720226;0.0635729;0.1464222;-0.0055016587;0.06671614;-0.042412065;0.094922304;-0.17555526;0.17059712;0.088637136;-0.09268915;0.09429164;-0.120784804;-0.060052793;-0.07723471;0.115437485;0.15438946;-0.10262225;-0.04238942;-0.097545765;0.15675212;0.0411369;0.09705278;-0.18749191;0.2325151;-0.24891122;0.056855865;-0.06932384;-0.028662976;-0.035786223;-0.15220304;-0.069308884;-0.021892903;-0.11832301;0.009609801;-0.10385959;-0.009613916;-0.13474637;-0.122192375;-0.2986827;0.090384975;-0.116783984;0.06351485;0.20417032;0.05386958;-0.17044038;0.095087;-0.09812191;-0.19315875;-0.17602137;-0.0027381743;0.2996271;0.14204353;-0.06260641;0.05538256;-0.10856151;0.0982887;0.02724842;-0.061283056;0.060062777;-0.085524835;-0.15406449;0.19582264;0.045214027;-0.063637376;-0.04349403;-0.13598575;-0.19831513;-0.15044303;-0.003918044;-0.066321425;-0.13852319;-0.14800856;-0.14856629;0.2055301;0.05428306;0.1755849;-0.027105756;-0.011271587;0.09988677;-0.056800425;-0.003773656;-0.127368;0.1250323;0.13055383;0.01714569;0.1248673;0.04770002;-0.041761532;-0.022362666;0.11198;0.052836705;0.06387398;-0.18391797;0.05884171;0.17543852;-0.19181596;0.20766562
0.08051466;0.04624226;0.0069062575;0.0675761;0.10364456;-0.021821633;0.050077856;-0.009019941;-0.07672535;0.0643541;0.0036950351;0.07415548;-0.082513124;0.18563391;-0.07470704;-0.10447641;0.013518183;-0.08834513;0.002011585;-0.028610218;0.09510023;-0.1135591;0.065782145;0.07168033;0.08200315;0.09724804;0.08844703;-0.13891153;-0.10498878;-0.103631996;0.06201747;-0.02803565;0.04466593;0.18946776;0.0025602716;-0.2021872;0.122975305;0.157028;-0.28271747;0.21461901;-0.060867026;0.16715562;-0.04358182;0.09389467;-0.038834006;0.015707983;0.12025223;0.14381115;0.10997166;-0.0839801;-0.0650603;-0.09700343;0.030132404;0.18125135;-0.13874327;0.0022330151;-0.06909058;-0.10664203;-0.17626825;0.007022101;0.07962569;-0.17295521;-0.24079804;-0.16069594;0.029409189;0.050934955;0.06176792;0.056209777;0.06372176;0.14563307;0.22442092;-0.099498175;-0.04447254;0.19396548;0.03667493;0.046185452;0.055945225;-0.11827408;-0.18336327;-0.089540415;0.0035789183;0.06847058;0.2891254;0.09652327;-0.08740185;0.02657936;-0.037860055;-0.19821917;0.067874625;0.12379465;-0.056805927;0.22468208;-0.10893237;-0.025841335;0.044901177;0.05144456;0.017487833;-0.047731575;0.016522808;0.009050725;-0.021105757;-0.0597994;-0.13317753;-0.13302392;-0.09509753;-0.12603441;-0.05720067;0.03151924;0.0029832502;-0.076667614;0.075373136;0.087329365;-0.029052617;0.022945974;0.032291763;-0.1632793;-0.17276314;0.0047778147;-0.025240805;0.2700729;-0.17808387;-0.037904657;-0.058251165;0.019530084;-0.025950586;0.13640796;0.050470725;-0.13616516;0.08618123;-0.1806569;-0.04013207;-0.19504185;-0.050144237;-0.22662094;-0.060029678;-0.07412602;-0.22565252;0.0989202;0.12892346;0.0065836324;-0.017006557;-0.103630684;-0.1967852;-0.056601733;0.013304766;-0.044123266;-0.12316951;0.21433999;0.19335;-0.076142825;0.06357752;-0.14669365;-0.14901419;0.034846235;0.039724965;-0.14480993;0.052978825;-0.046437673;0.12710895;0.18710378;-0.10161536;-0.017801004;0.13670714;0.053685877;0.10039138;-0.097330734;0.015527477;0.14321367;0.030972732;-0.09527665;-0.117539786;-0.051668234;0.021182124;0.0147819575;0.1462114;-0.14396249;-0.0601985;-0.07981891;0.044614937;-0.044413626;0.0771018;-0.05537535;0.121082686;0.06896648;-0.12585917;0.028442403;-0.051365893;0.09639693;-0.011187603;0.2681046;-0.014537483;0.10705139;-0.02814434;-0.0323528;-0.19970262;0.039305445;-0.0413107;-0.082427725;-0.0109811155;0.06903696;0.037125513;0.14060904;-0.09377867;-0.100595176;-0.043678593;-0.105484314;-0.022805842;0.0305581;-0.265952;0.0015151642;-0.16484468;-0.054957427;-0.049134925;-0.12463031;-0.038251027;-0.10908337;0.0006688402;-0.15473019;0.060224455;-0.11282374;-0.13438332;0.025069606;-0.1853284;0.0081219785;0.036010046;0.06619939;-0.0015563134;-0.10637937;-0.045017652;0.07053091;-0.120932415;-0.10528579;0.066378966;0.15214844;0.04394052;0.056001868;0.047377627;0.044841874;-0.030706057;0.17178929;-0.02653476;0.07303007;0.07024796;-0.039071105;0.071721666;0.2523001;0.044762757;0.019524712;0.13508983;-0.018050037;-0.113777444;-0.037225652;0.00721021;-0.1057139;-0.11813222;0.07585005;-0.047376797;0.06069275;-0.10069442;0.12990443;-0.025654204;-0.07367468;0.0018224672;-0.014630695;0.0018868581;0.0032712594;-0.023543792;-0.15420334;-0.107287586;-0.17211582;-0.1827316;0.25103813;-0.04488666;-0.048026185;0.022715889;-0.23584753;0.0022829622;0.23973455;-0.0003950433;0.07519328;-0.045857;0.09968221;0.11697913;0.015687907;0.0012075874;-0.014919214;0.19172996;0.038036544;-0.013760661;-0.047009714;-0.015503414;0.053300954;0.09977575;-0.19499336;0.14029029;0.07210096;0.021884097;-0.05426745;0.007415497;0.023093266;0.11153422;0.093240574;-0.18893784;0.052563876;0.024685325;0.1334418;-0.014341992;0.03169867;0.056294456;-0.2128117;-0.07247063;-0.023087766;-0.26545662;-0.084713705;0.19598183;-0.23617454;-0.063115805;0.041917935;-0.024195787;-0.0691978;-0.11164455;0.027035326;0.022851387;-0.08588022;-0.20165057;0.14177726;-0.009443163;-0.053405993;-0.060896583;0.0043090926;-0.056877334;-0.0070541943;0.0017827622;0.17925328;0.10048465;-0.035723817;0.19866604;-0.07840443;-0.08600544;0.16239303;-0.08112616;0.19184887;0.036486413;0.17686749;-0.12413975;-0.09537983;-0.089309715;0.09395157;0.045980763;-0.04018044;-0.008207486;-0.003222644;-0.04635348;-0.029988144;0.07219945;0.024671324;0.22532238;0.0827644;-0.050969474;-0.15749362;0.035624165;0.035077047;0.030842572;0.0075690355;-0.058924843;-0.2407508;0.11915046;0.053404495;0.033368427;-0.13914864;-0.007692963;-0.08912538;-0.05184286;-0.15515512;0.13080113;-0.082360834;0.11339812;0.03972456;0.101933785;0.07852832;-0.13819414;0.21374758;0.13461237;0.024777843;0.11169109;-0.11531851;0.08655901;-0.18611494;-0.024748173;-0.022944454;-0.12136113;0.05629449;-0.046251055;0.05650592;-0.05456377;0.12434422;-0.09042165;0.08630695;0.0961623;-0.08732018;0.08118397;0.020546108;0.0950825;-0.21658893;-0.047218263;-0.110732034;0.08989147;-0.13380128;0.049689546;-0.10203776;-0.1074416;-0.16097917;-0.1340811;0.0657336;-0.033429634;-0.036773495;-0.12942283;0.1067812;-0.014902314;-0.07691014;0.012178363;0.12013363;-0.042246938;0.081750065;0.06842521;-0.019106416;-0.04478076;0.04021854;0.013916601;0.30045417;-0.04890695;0.106901035;0.18003316;0.17805828;-0.10220401;-0.31102234;-0.049189854;0.019496223;-0.022395106;0.10276598;-0.018143144;0.029650092;0.108073644;-0.07627903;-0.090299666;-0.23145057;0.0525151;-0.025846846;-0.3232241;0.112934746;-0.03800584;-0.124323495;0.0062782317;-0.28558415;0.027647924;-0.06468716;0.09371226;0.1417734;-0.062487964;-0.041998595;0.08296989;0.0048767934;0.10080968;0.15543601;-0.05539412;0.022015557;0.041049838;0.0037040222;-0.34312683;0.043040603;0.060200732;0.12859151;0.0010714859;-0.13347493;-0.17627513;-0.24385023;0.08942328;-0.03395019;-0.051855307;0.010540823;0.052059107;-0.025862914;-0.05190103;0.13070387;0.11495311;-0.027207354;0.1879476;0.20434746;-0.21479203;0.1164471;-0.14750986;-0.063423485;-0.023992676;-0.059056953;0.11619787;-0.13790947;0.0028434547;0.083159305;0.22582696;0.09706269;-0.040602595;0.021053111;-0.021098487;-0.12579688;0.00027818844;0.06672157;-0.08209806;-0.021757523;-0.16225924;-0.14477673;0.02040188;0.0012943136;-0.121436745;0.021281121;0.1032248;-0.03388422;-0.1374514;-0.23472877;0.13284919;0.11958825;0.21498013;0.1739151;0.1808727;-0.0041696313;0.107939795;0.018125424;-0.029014792;-0.20361023;0.09271199;0.068693355;0.23504971;-0.20060858;-0.09924732;0.04893717;0.16291521;0.081340045;-0.093394585;-0.0021621801;-0.019529523;-0.19231455;-0.022505485;0.18144876;-0.10259774;0.015294633;-0.21265721;-0.14809059;-0.16917747;0.027425738;-0.18886548;-0.24661613;-0.18983169;0.030073835;0.22060129;0.031088958;0.09362669;0.08470198;0.04899159;0.0728892;0.04759541;-0.17811787;-0.01053101;0.06145911;0.14560632;0.110392936;0.06672385;-0.005115002;0.11456103;0.14385252;0.1898377;-0.027763257;0.044033356;-0.1232162;0.03929473;0.07197312;-0.09342286;0.2227357
-0.044295885;0.086277835;-0.06348772;0.06323686;0.11497602;0.044656444;0.160683;-0.02283354;-0.041950766;0.15812212;0.105724305;0.15458451;0.020301314;0.16872941;8.010531e-05;0.07117856;0.05058999;0.18497342;-0.17113766;0.15965958;0.00018277478;-0.005250537;0.09894639;0.047265105;0.010755181;0.097375676;0.098083645;-0.14080521;-0.085827425;-0.057885986;0.048272025;0.036674663;0.028389899;0.1297935;0.040202975;-0.1362341;0.17852047;0.21076012;-0.27829263;0.08344078;0.08908125;0.008916003;0.13616271;0.15182954;-0.09708628;0.017003203;0.12905906;0.1798991;0.029042527;-0.20017901;0.04955545;-0.104021095;0.022766324;0.10173816;0.06351322;0.003117117;-0.061263576;-0.10685039;-0.048637938;-0.053374846;0.05314878;-0.08785685;-0.2056549;0.047405373;0.022332994;0.048149448;0.0004175933;0.0073953997;0.052451573;0.06316951;0.12839955;-0.19203483;-0.01630474;0.014062956;-0.03581347;0.067463756;-0.07556448;-0.17769897;-0.12294233;0.014805927;0.044280663;0.048917286;0.2583591;-0.0066639073;-0.07253624;0.026552131;0.014904834;0.040265176;0.05569172;0.15825564;-0.024938261;0.17800911;-0.0036503484;0.13595286;0.10143971;0.1704774;-0.046026744;-0.028950932;-0.07925098;0.1127975;-0.1154602;-0.07822757;-0.16062748;-0.06717068;0.0400432;-0.10117225;0.0028893068;0.13441397;0.07695336;0.035395775;-0.017827282;0.013681595;-0.002774514;0.25304377;-0.10803794;-0.09147368;-0.19162634;-0.08306062;0.1277936;0.32914385;-0.29922515;-0.16196688;-0.022811586;-0.09330219;0.105612844;0.17419773;-0.057660304;0.041163683;0.028159147;0.017508738;0.063370764;-0.15071806;0.08858716;-0.12842458;-0.0038387433;-0.12602316;-0.107586965;-0.033017173;0.08984962;-0.11295923;-0.020755948;-0.037169345;-0.07449014;-0.0033585571;0.0008476435;-0.034675043;0.021582799;0.10424907;0.093479246;-0.1587189;0.06946508;-0.051020753;0.0593997;0.07842619;-0.09037648;-0.10395968;0.05472945;-0.0029541568;0.05579262;0.2004591;-0.08654876;-0.045354396;0.085150406;0.10430671;-0.0016067957;-0.0152719235;0.038251486;0.035732854;0.03172201;-0.07787289;-0.11962129;-0.07018609;-0.01339644;0.0923892;0.06376403;-0.15727736;-0.039571814;0.009748878;0.017306548;-0.060142975;-0.013732695;-0.005885418;0.043074287;-0.042810716;-0.13271424;0.068127975;0.025111679;0.10186067;0.06901021;0.15184042;0.030116133;0.22449209;-0.03708097;0.01273657;-0.08004785;-0.020456363;0.02078457;-0.096641175;-0.087988;-0.05838775;0.07729108;0.037565578;-0.095316425;-0.038294442;0.10942607;-0.015465717;-0.12538879;-0.10879465;-0.26791427;-0.037177652;0.011783143;-0.06823582;0.007844794;-0.069004;-0.04575995;-0.066582344;0.14929163;-0.016212003;0.095905885;-0.102583826;-0.0416634;0.071051955;-0.40626854;-0.053193755;-0.03795714;0.18320078;0.14863396;-0.042833332;-0.018899558;0.060319714;-0.06436674;-0.0948772;0.11736404;0.14260678;-0.041042272;-0.064410724;-0.037066173;0.024072953;0.06146207;0.047157325;-0.13565174;-0.08968325;0.058200307;0.15028904;0.056793597;0.15561394;-0.08428722;-0.07282891;0.31806874;-0.1516288;0.02669858;-0.020950884;0.024974488;-0.0136903785;-0.12798978;0.2144018;-0.12635836;0.050523717;-0.13652039;0.11791652;0.040982198;-0.14161609;0.03281929;0.014598961;0.044791657;-0.05698014;-0.09659667;-0.011181542;0.018940412;-0.1691531;-0.011595983;0.025699718;-0.025053812;0.027871033;0.046236694;-0.14405288;0.05043162;0.2274526;-0.13122779;0.1173424;-0.09825961;0.11882877;0.021329014;0.080614656;0.050363548;0.12630358;0.18656494;-0.033388227;0.09587215;0.11401561;-0.14572474;-0.046299852;0.11394652;-0.2245826;0.11228598;0.04823529;-0.04648524;-0.101400785;-0.08385592;-0.037093177;0.08600736;0.07029872;-0.10182623;0.06324857;0.08389085;0.19119924;0.01079425;-0.0734405;-0.033656035;-0.06456632;-0.07768378;0.0061918246;-0.11549549;-0.12218934;0.18783401;-0.18183331;-0.0035484093;0.042885784;-0.17292765;-0.007377016;-0.07055109;0.004317473;0.015739318;-0.075282864;-0.28583875;0.024087042;-0.13086595;-0.0030482928;-0.10490695;-0.031593814;-0.02317912;0.053927165;0.15906051;0.06273267;-0.13369966;0.012952728;0.17350124;-0.07779586;-0.2538804;0.0566355;-0.0017276296;0.2057888;0.00072503136;0.0296099;-0.14565462;-0.0714943;0.060659353;-0.12542567;0.0062447167;0.021277415;0.196463;0.05520908;-0.046059996;-0.09112623;0.14925313;-0.16274436;0.1798294;0.095138006;-0.06397942;-0.049329963;0.077964835;-0.017489282;0.21147357;0.15238199;-0.061073154;-0.22832735;0.0399995;-0.04411596;-0.079797335;-0.07417215;0.03746765;-0.11517116;0.116701424;-0.19584265;0.1430369;0.09139184;-0.009920148;0.03574211;0.011291838;0.087726414;-0.041253686;0.13847476;0.1943416;0.03746499;-0.03258603;-0.07061119;0.06748063;-0.061694425;-0.059346694;-0.022644231;-0.056324843;0.08881884;0.012465036;-0.042918526;0.013765097;0.03964555;0.004989916;-0.025245173;0.0365904;-0.04227172;0.08858325;-0.035763532;0.05009153;-0.19669639;0.051644888;-0.03403011;0.12513418;-0.09815676;0.025383424;-0.09107487;-0.0062439903;-0.18052822;-0.044748243;0.20472337;0.16646321;-0.0060560713;-0.24093495;0.16766126;0.100693695;-0.079646744;0.02916268;0.11985863;-0.17776932;0.06108989;0.019159334;-0.1752058;-0.11554391;0.15061575;0.066645205;0.1654692;0.15851907;0.09662528;0.020107055;0.10654374;0.016966704;-0.29261172;0.054177977;-0.074270934;0.006426931;0.022099473;0.03900918;-0.017013887;0.058540307;-0.08581183;0.036589593;-0.22319426;-0.050702237;-0.099174075;-0.14401065;0.06898225;-0.12447474;-0.039562248;0.04225819;-0.3282848;-0.0067802;-0.094120845;0.03962938;0.07277604;-0.070491634;0.007161152;0.05785116;0.06470401;0.0519142;0.19151384;-0.040083077;0.08676349;0.0026505718;-0.020670693;-0.1830588;0.030504372;0.07499828;0.12575945;-0.12680005;0.03038918;-0.12660632;-0.26319832;0.012285351;-0.089732565;0.09712743;0.070844054;0.094132155;0.0076792478;-0.003311212;0.02267734;0.17303973;-0.028014556;0.17657827;0.060836326;-0.23967357;0.120125815;-0.12314266;0.07757022;0.023213696;0.11847936;0.23635258;-0.17122616;-0.101351924;0.018076139;0.21250807;0.006372165;0.0051422715;0.03435579;0.050499763;-0.17228837;0.030514149;0.016990466;-0.008842362;-0.06037033;-0.03488385;-0.1679424;0.0012288139;-0.08103708;0.024795024;0.007765156;0.10021776;0.001981838;-0.07508145;-0.16481552;-0.0074149785;0.12542318;0.16763577;0.15851462;0.08942538;-0.081695676;0.06338129;-0.012306278;-0.10989038;-0.072061725;0.092523046;-0.041958787;0.24062888;-0.18586597;-0.21588843;0.07710882;0.12503669;0.15875277;0.04106415;-0.027597874;-0.023614334;-0.2865782;0.07421294;0.06345259;-0.11719413;0.09931738;-0.16787152;-0.22158355;-0.22433968;-0.11624137;-0.027667135;-0.3020559;-0.0031927605;-0.12974438;0.19625056;0.08846313;0.1721374;-0.030205484;0.036501035;-0.0054616337;-0.118214004;-0.017478226;-0.034510516;0.078142956;-0.034148324;0.016098084;-0.09580623;0.08388757;0.12734415;0.07559802;0.074576184;0.022482144;-0.06368727;0.13665389;0.1415422;-0.019561868;-0.013979322;0.06978682
-0.08023456;-0.027815243;0.06347623;0.10906053;0.1777822;-0.039047647;0.033756696;0.045504972;0.0150152575;0.11247619;0.23191318;0.0058832113;0.023176085;0.21300761;-0.04332791;-0.011320103;0.08216191;0.1882348;-0.15951541;0.11905298;0.10934351;0.09693101;0.13980949;-0.08924206;0.0038131424;-0.06131844;0.09082462;-0.17129372;-0.12062426;-0.12128485;0.06799001;0.015153984;-0.02245597;0.026115716;-0.049431078;-0.10503504;0.062005177;0.18290997;-0.15071717;0.02742075;-0.0015233441;-0.0015626258;0.04338906;0.16930462;-0.04364067;0.10549052;0.083652355;0.11445309;0.02305255;-0.15981287;-0.07618914;-0.07467451;-0.13201226;0.15745717;-0.043729737;0.076246455;0.15222254;-0.17502424;0.20034476;0.115845226;-0.051174488;0.01883034;-0.09956719;0.09251397;0.04489181;0.078491315;-0.08068288;-0.069600455;0.0593446;0.11206609;0.23224063;-0.22130905;-0.015156063;0.0735093;-0.009303147;-0.082675174;0.030505493;-0.23979752;-0.20185709;-0.09246287;0.16841592;0.033327807;0.20319463;-0.008534467;-0.083682664;0.14616728;-0.004215766;-0.07692875;0.024766468;-0.0016165765;-0.10341077;0.19902082;-0.1322509;0.23068252;-0.05526338;0.13334431;-0.033652928;-0.07288993;0.11648565;0.18963157;-0.020314466;-0.17586401;-0.051996965;-0.12975213;-0.03816775;-0.1384909;-0.13948244;0.12572107;-0.06930289;0.09459471;-0.04192826;0.15444314;0.059700064;0.14957069;-0.08241176;-0.085457765;-0.13036011;-0.11266583;0.03243965;0.18140887;-0.25847596;-0.069247015;0.07451902;0.005939582;0.12679082;0.075836755;-0.08075219;-0.07454441;-0.09409066;-0.007567442;0.084083706;-0.10348244;0.19816677;-0.15856913;-0.18788324;-0.06967447;-0.07113741;0.048094664;0.16768792;0.067998625;0.12899792;-0.10588251;-0.16442637;-0.047177862;0.18811439;0.031036692;0.0632684;-0.012057177;0.25977877;0.07743547;0.082527295;-0.019049184;0.03005225;-0.0011775607;-0.006880849;-0.07144708;0.122201204;-0.02015295;-0.06429055;0.10264372;-0.07256667;-0.02898469;0.100873634;-0.07752019;-0.046758253;-0.05045014;0.033532273;0.09688677;-0.17325498;0.03787835;-0.016642697;-0.049623836;-0.079126485;-0.052662704;0.017956328;-0.1716862;-0.08241273;-0.0022809687;0.059465308;-0.09311588;-0.011047471;-0.052143406;-0.12220573;-0.0039164284;-0.033691287;0.059158657;-0.02118253;0.104698874;-0.089297414;0.024058815;0.025654646;0.054988496;-0.083792806;0.04547406;-0.011576065;-0.1789834;-0.036789548;-0.26945493;-0.039604638;-0.0042388653;0.04462985;-0.053849757;0.02407544;-0.14951243;0.012773388;-0.02145117;-0.09392374;-0.0833641;-0.22995494;-0.11893904;-0.03862603;-0.008967013;-0.15433212;-0.1757811;-0.0726406;-0.053154785;0.09641346;-0.11467681;0.021307128;-0.007229728;-0.0150151905;-0.0041077165;-0.36888546;0.040071588;-0.06596486;0.22174674;0.012468788;-0.30537847;0.069816;-0.0060745385;-0.116217494;0.068623334;-0.022039209;0.15690139;-0.2831327;0.04676854;0.06219871;-0.025103023;0.10483842;-0.033809587;-0.016461834;0.074807145;0.043094557;0.18825634;0.32476526;0.26972446;0.05412701;-0.14442977;0.25305417;-0.1969779;-0.04281503;0.11253484;0.010168829;-0.0074356077;-0.16293009;0.20368858;-0.045397885;-0.047448866;-0.11641594;0.14436173;0.10111539;-0.06296523;0.093891054;-0.17345001;0.0707762;-0.11693587;0.02121593;-0.05486215;-0.002933068;-0.25679582;-0.0014544067;-0.035051815;-0.018977663;-0.09485712;-0.013908405;-0.0024831982;0.15166648;0.25831977;-0.12421783;0.039839275;0.03859589;0.17397436;0.10474979;-0.017764205;0.09574143;-0.0061519593;0.13699156;-0.05559606;-0.018930152;0.104771316;-0.11646262;0.06533343;-0.05078204;-0.1827757;0.10878301;-0.005148399;0.076191336;-0.17052612;-0.01655765;0.00048570466;0.10286226;0.083424814;-0.07789132;-0.0013361619;-0.027038738;0.33892664;0.007486562;-0.028947763;-0.10671647;-0.12456738;-0.111350566;0.13314267;-0.023495877;-0.09070599;0.1954218;-0.058823396;-0.09615069;0.094124444;-0.14030169;-0.11804182;-0.08579228;-0.021707015;0.07989741;-0.15621383;-0.1553942;-0.04404397;0.081691734;-0.08320322;-0.12040044;-0.080972336;0.028537935;0.070021205;0.04012186;0.03759259;-0.06770226;-0.1441139;0.15401179;-0.033165533;-0.17760739;0.11673598;0.057295945;0.13309678;0.08245231;0.19963689;-0.110972896;-0.049370736;-0.124388374;-0.029848017;0.0103701325;0.09539138;0.16991301;0.05152644;0.030251084;-0.075902164;0.14670768;-0.31245854;0.10091064;0.09265783;-0.035838272;-0.16719997;0.15933198;0.031624112;0.19023943;0.20906612;-0.06020511;0.021210663;0.067182064;-0.053261522;-0.13230893;-0.097045094;0.107553236;-0.1331866;0.15488735;-0.12428355;0.003996466;0.008372629;0.007521581;0.0089868205;-0.036481444;0.079224646;-0.00215826;0.23489206;0.07786681;0.03884626;0.016078375;-0.16405435;0.009234108;-0.039235562;-0.0443578;-0.11341163;-0.11187297;0.119026914;0.036195382;-0.12080052;-0.023836046;-0.033367816;0.078090414;0.053207792;-0.016909972;0.1721573;0.10925247;-0.0116793085;0.12843913;-0.13367188;-0.034659054;-0.01213042;0.04366666;-0.13632601;0.08559704;0.053613417;0.07524938;-0.2578163;0.07714165;0.14692177;0.15515758;-0.12875842;-0.17678082;0.044409726;0.019912425;-0.18814039;0.12766445;0.09525111;-0.039044008;0.06250751;0.01600127;0.01833899;-0.19510095;0.15895814;0.05494728;0.21555002;0.24313039;0.15885895;0.13974895;-0.14554419;-0.11381832;-0.3777286;0.057722528;0.08320712;-0.03893688;0.057156194;0.102614194;0.009113313;-0.063755654;-0.022451457;-0.051047016;-0.09279456;-0.055656772;0.04619281;-0.18124919;-0.03673027;0.061173905;-0.027169025;-0.049575973;-0.248379;-0.096639164;-0.030931162;-0.005263691;-0.023239458;-0.08078338;-0.07010818;0.056297887;0.13365722;-0.035534967;0.21609081;-0.09068335;-0.06165089;0.029400975;0.013830679;-0.20081525;-0.04281371;0.01940422;0.038201552;-0.1512526;0.0075100623;-0.2097441;-0.14613666;0.028299432;0.04163692;-0.0018210409;0.010087582;0.1606518;-0.17545272;0.08454887;0.050396983;0.033030193;-0.16366684;0.1381153;0.043967508;-0.24452248;0.080910034;-0.0106355;0.099811494;0.18459806;0.10957457;0.12699437;-0.12663013;-0.020431902;-0.15279782;0.079530105;0.23104827;0.15420441;-0.1472114;0.10172789;-0.13966756;0.14913054;-0.16027832;-0.007923802;-0.1737254;-0.22097318;0.0310083;-0.048540317;-0.06562546;-0.00890167;-0.09352899;0.032767817;0.15247843;-0.08777852;-0.21762547;0.1331394;0.009919314;-0.026530614;0.1590674;0.22323307;-0.09941879;0.04625019;0.03099039;-0.031738266;0.059090443;0.20810862;-0.0970851;0.19942388;-0.23070529;-0.1599514;0.0625681;0.03203222;0.11373628;-0.064863116;-0.124988474;-0.101741455;-0.16766451;0.029905032;0.20205745;-0.10058798;-0.00070540403;-0.13316147;-0.24895221;-0.24888033;-0.12523949;-0.13270608;-0.38118228;-0.026653169;0.012030489;0.25525016;0.101523794;0.047238376;-0.053243004;0.0761672;0.18158342;0.0624112;-0.110375464;0.03132339;0.10475247;0.057385687;0.04064697;0.17199309;0.022169739;-0.06789951;0.05855983;0.16893972;0.040418185;-0.08342402;0.13084732;-0.0118599925;0.07506943;-0.082170606;-0.042164627
0.12004262;-0.025971154;0.07500185;0.050895542;0.13513395;-0.18697238;0.029253364;-0.026679823;-0.08866133;-0.003093549;0.12761042;0.096362375;-0.02501904;0.15186834;-0.09638315;-0.01702614;0.14278284;0.16742125;-0.06606609;0.07800649;0.079769954;-0.15739505;0.033366054;-0.021444967;0.022522999;0.009080711;0.14019337;-0.2503509;-0.024457626;-0.049614698;0.050762948;0.02950389;0.010779551;-0.0036125989;-0.0915384;-0.009967312;0.08202831;0.057930913;-0.19485007;-0.00513387;0.0506702;-0.019767236;-0.04949778;0.22758201;-0.01628649;0.10923951;0.18866315;0.23987065;0.07071751;-0.06623724;-0.051925346;-0.024568727;0.039917048;-0.01389448;0.1278199;0.032380536;-0.0073713027;-0.17878066;0.22342291;-0.03175242;0.12333088;-0.11681689;-0.16206191;0.010927381;0.05526649;0.0682975;-0.027837558;0.037952863;0.06906809;0.04444196;0.0112884035;-0.16253024;-0.08363132;0.045360714;0.016965268;-0.042148307;-0.025976999;-0.08649161;0.014421894;0.16543029;0.09362013;-0.00052920205;0.21784185;-0.005693267;-0.0132369315;0.04936699;0.07926215;-0.11196351;0.08370583;-0.0056660525;-0.15756087;0.19586487;-0.08924685;0.28986517;-0.061776496;0.050034236;0.07880239;0.024102068;0.025753602;0.21592264;0.05530884;-0.09672456;-0.04374104;-0.11394306;0.009759036;0.12230647;0.029659213;0.11504067;-0.28001717;0.039534632;-0.09053803;-0.04818472;-0.028715547;0.06403159;-0.0901804;-0.21838893;-0.14202921;-0.064247884;0.09725118;0.14366211;-0.1628827;-0.061196707;-0.0747542;0.025570802;0.19195731;0.07454749;0.02989689;0.027214069;-0.20528957;-0.050229054;-0.0011925863;0.042002767;0.10144895;-0.20947328;-0.14724006;-0.0703671;0.06931185;0.11537133;0.06445686;0.09065134;0.10422986;-0.063030094;-0.055647485;-0.17046882;0.013396999;-0.11589824;0.018460479;-0.05447208;0.046551056;0.04910901;0.07279495;-0.12924069;0.115839444;0.1741469;-0.039694622;-0.0075226775;0.10946481;-0.010285842;0.063040026;0.094339125;-0.16942158;0.09650838;0.06265904;-0.018134182;-0.014570315;-0.01775605;0.056540288;0.14797279;-0.06273647;-0.15548138;0.039838403;-0.0316729;0.09082387;-0.009314188;-0.11875031;-0.013338233;0.16016231;0.07320554;0.1507375;0.09934826;-0.11695912;0.08847802;-0.06068068;0.1268522;0.017334322;0.12961999;0.06400565;0.12008272;-0.12793596;-0.055892427;-0.08917421;0.13910235;-0.14548409;0.017532254;-0.08782089;-0.09684269;0.071738966;-0.13708785;-0.04873547;-0.1253275;-0.022359062;0.06617132;0.02923354;-0.14511551;-0.016896753;0.08036846;-0.013990152;-0.057104636;-0.07553096;0.041101493;-0.035430033;0.11018032;-0.077291474;0.02639823;-0.14886451;0.075926416;0.08684763;-0.2237577;0.11014506;-0.08568037;-0.025261795;0.019187506;-0.4022826;-0.018490337;0.03851275;0.0267496;-0.028241947;-0.19907342;0.13582891;-0.00036155194;-0.04710846;0.050072208;0.05273333;0.14466976;-0.002847222;-0.06553159;-0.0909405;0.03682951;0.0939383;-0.26683423;0.07578124;0.05718658;0.15269141;0.08549457;0.29448637;0.041352637;0.03997408;-0.0653787;0.26856387;-0.16194281;-0.17715724;-0.055055447;0.032264072;0.04202063;-0.20656183;0.16412687;-0.064937875;0.07466356;-0.069140986;-0.008255756;0.07435236;-0.1634374;0.003360296;-0.0044885995;-0.013597787;0.0019274389;0.022774894;0.043353733;0.05396217;-0.19759305;-0.10233027;0.107872784;0.09754141;-0.079918064;-0.14037548;0.050004624;0.15812096;0.26628014;-0.1840527;0.030570012;0.023871105;0.020618852;0.16844095;-0.07297455;-0.01716836;0.08788366;0.08519997;-0.018938122;-0.009171774;0.023070838;-0.20679577;0.024019403;-0.12454255;-0.13806647;0.056689184;-0.090346;-0.03485973;-0.035513517;0.076657794;0.047373;0.06358536;0.14440243;-0.018010687;-0.03974604;0.041860297;0.32623115;0.09469682;-0.05652004;-0.061618406;-0.1386018;0.0972554;0.110246785;-0.12080613;-0.25657448;0.22741042;-0.11329496;0.032065045;0.075191125;-0.22676158;-0.069692835;-0.18122973;0.07307286;0.13729864;-0.18200561;-0.118440785;0.17846774;-0.045156825;-0.030981861;-0.11154876;0.09561577;-0.003862649;0.06008471;-0.082955465;0.030538414;0.06649555;-0.029805638;0.11497319;0.015566384;-0.06937381;0.08720823;-0.166317;0.05270729;0.10909572;-0.020260885;-0.029212795;-0.015907485;-0.091037095;-0.06979228;-0.032202635;0.010909667;0.08766592;0.028001714;0.054485653;-0.00618915;0.19533956;-0.21943392;0.078758635;0.07831015;-0.051615115;-0.021178825;0.14754122;-0.06420584;0.1177601;0.15507966;-0.13245721;-0.11327886;0.1890711;0.2148355;-0.044643976;0.01754235;-0.048468452;-0.029237904;0.058253713;-0.103503086;0.0006822704;0.01567986;-0.022172509;-0.08706006;0.09946676;0.080327936;-0.028486326;0.04811764;0.13124323;0.078504585;0.12905939;-0.14228222;0.081542306;-0.17902087;-0.076466784;-0.110706285;-0.17920409;-0.05560655;0.035153102;-0.19184159;0.019971237;0.06324536;-0.008039598;0.07261852;-0.08333284;0.12471646;-0.023210423;0.019356567;0.13873304;0.04129307;-0.063755624;0.09889838;-0.055484068;-0.19359888;0.087227054;-0.052512396;-0.015359813;-0.05154892;0.06382126;0.09317763;0.03052778;0.10993923;-0.04511906;0.11660064;0.18130867;-0.12614381;0.1257357;0.015816465;0.054219946;0.08686961;-0.140355;0.21614112;-0.048285935;0.21680063;0.022054678;0.2318253;0.16904786;0.034600005;0.064482726;-0.023478243;-0.024169227;-0.30362996;-0.022292903;-0.049438916;-0.0833124;-0.023322854;0.0026046985;0.1676643;-0.072103485;-0.10995726;-0.04618146;-0.11623953;0.001752158;-0.10624584;-0.20851937;-0.043301143;0.052143835;-0.09103711;0.09680216;-0.40839553;-0.2587112;0.02434111;0.05275311;-0.022889717;0.043079358;-0.025365269;0.057843868;0.060556475;-0.07462168;0.24747248;-0.085923366;0.024402127;-0.0842352;0.20207985;-0.09786176;0.0896292;0.12977743;-0.065809704;-0.0914113;-0.116474316;-0.15783796;-0.16860686;0.02864154;0.019283015;-0.16659507;0.0393545;0.08026771;-0.11783647;0.03132353;0.07826906;0.05564898;-0.1017246;0.118264794;0.11051353;-0.08032162;-0.010746079;-0.05112534;0.18548891;0.16803907;0.17512032;0.07995934;-0.08349696;0.035682216;0.1714941;0.013536158;0.036782634;0.015244867;0.024758216;0.12690206;0.025829786;0.119681954;-0.04449269;0.05868111;-0.022499286;-0.15535577;0.07876364;-0.115114786;-0.17531036;0.08632108;-0.014837566;0.05733437;0.09828077;-0.30273712;-0.24551184;-0.011402382;0.06385359;0.04189927;0.025322393;0.108793534;-0.12075267;0.048168957;-0.20462674;-0.05465986;-0.097456664;0.21431224;-0.11670577;0.24203631;-0.12993044;-0.057127237;0.16060142;0.054619066;0.16488259;-0.031020109;0.007435379;-0.21084507;-0.17038482;0.13708684;0.056713995;-0.053641833;0.020040823;-0.03133261;-0.15575683;-0.06430806;0.07770959;-0.09064985;-0.585663;-0.167915;0.018897397;0.2210619;0.0845799;0.12813692;-0.016188812;-0.10079873;-0.0047038165;0.02415909;0.044027034;-0.03016221;0.06711587;-0.017234579;-0.022675078;-0.025982756;-0.058460485;-0.09747877;-0.07475267;0.25088528;-0.102654554;-0.0016471824;0.07785803;0.0216568;0.08077136;-0.09080081;-0.0987065
0.15155047;0.1495972;0.031572178;0.035133906;0.13915116;-0.18689525;0.046506464;0.09532201;-0.12989075;0.004841766;0.12214943;0.042999048;-0.17852935;0.1106851;-0.10499259;-0.056539137;0.20649368;0.15792331;-0.04557307;0.10193906;0.046171907;-0.2108373;0.027353669;-0.030041603;0.040639132;0.0912666;0.15660678;-0.11770262;-0.050404627;0.09063559;0.008131608;0.018878039;0.071374826;-0.017753966;-0.033081975;0.00474798;0.13471834;0.13592541;-0.011208685;0.00011465711;-0.19444664;0.068115905;-0.005562187;0.0070289387;-0.050234698;0.10016769;0.34597734;0.27024376;0.031219674;-0.041975204;-0.11131811;0.0063960976;0.023659695;-0.008620078;0.019334191;-0.039119586;0.051291313;-0.27765974;0.21133839;-0.0821485;0.07275436;-0.11318981;0.06713467;-0.103508435;0.08189782;0.0036245591;-0.017212799;-0.009654779;0.05439005;-0.08852813;0.103961274;-0.10819575;0.03705844;-0.032723848;0.05369218;-0.0481896;-0.083133414;-0.08038153;-0.19312476;0.1148948;0.075787246;0.07261823;0.069425315;-0.10340794;0.19627504;0.016463296;0.0030831369;-0.014004195;0.056593686;-0.023756936;-0.16750975;0.056372844;0.057916727;0.14603423;0.074218825;0.096787155;-0.031828646;0.14270787;0.020510245;0.28245226;-0.07605036;-0.09830357;-0.06452873;-0.22945878;-0.053921886;0.02304526;0.08406288;0.15120734;-0.24153198;0.010121089;-0.023988167;-0.07956949;-0.0126869;0.16012007;-0.08556135;-0.16908191;-0.19342814;-0.11509676;0.13686393;0.034667958;-0.17385958;-0.08266867;-0.068149306;0.1432559;0.15118392;0.055910032;0.15516855;-0.06816642;0.025052594;0.103891365;0.100963384;-0.004112392;0.25326672;-0.1869;-0.25219655;0.009201862;0.103909664;-0.019827126;-0.08020071;0.08502327;0.1802925;-0.17839861;0.04673623;-0.2909034;-0.07162232;-0.035704944;-0.088686354;-0.14238636;0.021911472;0.03675545;0.14028887;-0.027935103;0.13955258;0.075336024;-0.13389888;-0.029170785;0.11923633;0.012221741;0.12984549;0.12690985;-0.016980259;-0.06305292;-0.13687223;-0.02996549;0.019244721;-0.121506;-0.13290136;0.11286842;-0.06468174;-0.06356372;0.042580403;-0.01682181;0.11660839;0.08370914;-0.21361071;-0.10968476;0.07934087;-0.021187756;0.036444984;0.14100529;-0.04793936;-0.07001943;-0.13678306;0.114377104;0.08935144;0.091844976;0.18959221;0.08445646;-0.13581416;-0.14757283;-0.08397643;-0.0019392864;-0.022018308;0.032590635;0.024777278;-0.11922677;-0.014109408;-0.03010575;0.08967412;-0.09441513;0.071930975;0.114868075;-0.017780568;-0.16296114;0.0086184405;-0.13963094;-0.20776488;-0.13059394;0.0865786;-0.0839332;0.10918079;-0.07209775;-0.1734491;-0.13605167;-0.0051078107;0.016048243;0.09625684;-0.2749472;0.15550487;0.13091834;-0.12750034;-0.07878627;-0.35991508;0.06294809;0.16527908;0.15545967;0.068330154;-0.1350157;0.064296745;-0.061213955;0.05387467;-0.09090971;0.18265328;0.3290576;-0.036628097;-0.10208197;-0.041763626;0.026620427;0.15285638;-0.1958387;0.02957848;0.17155075;0.1990041;0.1380038;0.28126878;0.17583402;0.029002795;-0.04559849;0.13651603;-0.08603354;-0.2270165;0.04745543;-0.13651119;-0.07895586;-0.15216783;0.070144996;0.034767073;0.12902291;-0.045404848;0.09410304;0.10663687;-0.16720414;-0.08210352;-0.06437827;0.15021428;-0.122930996;0.0112796975;-0.07473499;-0.08329902;-0.22924177;-0.08925508;0.11679961;-0.04638053;0.029593024;-0.00660789;0.025085254;0.03965561;0.082311265;-0.07381294;-0.045225676;0.071340516;0.098967046;0.009086643;-0.16921508;0.09446179;0.003249914;0.074058175;0.14182967;-0.0544537;0.09624976;-0.12786873;-0.10804941;0.058745522;-0.07920048;0.079410315;-0.09260585;0.14011848;-0.08848934;0.011179301;0.030878229;-0.02454522;0.09131742;-0.07189328;0.062491357;0.13593192;0.22161247;-0.12792449;-0.04111003;-0.36480537;-0.09861193;0.020905599;0.1753707;0.028574338;-0.112645425;0.2274606;-0.10612589;-0.16365162;0.060145438;-0.029858846;-0.07242898;-0.17612804;0.01964393;-0.022201482;-0.053088814;-0.067262754;-0.07542259;-0.0343628;-0.03616835;-0.10324232;0.055825215;-0.027603664;-0.10219221;-0.03909195;-0.09298604;0.21334316;0.11747027;0.16384268;-0.087440334;-0.04208347;0.10054791;-0.22915797;0.19412923;0.16732831;0.01647452;0.04489025;0.06965762;-0.17350693;-0.0697782;0.016875494;0.06753137;0.17371182;-0.057922006;0.04757133;-0.001755896;0.06550091;-0.18513082;0.0082357945;-0.067670286;-0.07460737;-0.14466058;0.12042449;0.018537492;0.15469265;0.14857005;-0.06328402;-0.13972959;0.028012184;0.16227624;0.0050212294;0.030108282;0.040925357;0.03565844;-0.10070012;-0.08911946;0.08020727;-0.094913416;-0.10892561;-0.012229775;0.107433625;0.04718949;-0.0119798165;0.12308114;0.035672337;-0.039899126;0.0919025;-0.060429405;0.057753;0.04231519;0.015748061;-0.15691788;-0.21405284;-0.08517301;0.119596146;-0.2459815;0.0011777452;0.22785029;-0.017420137;0.007907434;0.085491374;0.016091496;-0.06238584;0.00167166;0.114958666;0.04622897;-0.042617746;0.08596322;-0.21256788;-0.21095282;0.19253112;-0.10968797;-0.053268164;-0.2000522;-0.13909149;0.055734303;0.08666121;0.15919234;-0.25931367;0.18439417;0.14488953;-0.035463627;0.06786308;0.04706628;0.16355273;0.007164768;-0.096839346;-0.032745197;0.027015807;0.20465294;0.041011106;0.38087547;0.009697059;0.00698542;0.039771825;-0.060810324;-0.07863357;-0.3073802;-0.0032919664;0.038512167;0.003621613;0.03734324;0.028691709;0.1109426;-0.06213372;-0.0067071323;0.053517748;-0.19511217;-0.09443135;0.013692527;-0.34175447;0.054599803;0.07002418;-0.3803465;0.087222874;-0.40154693;-0.25684327;-0.013690326;0.07710601;-0.17831782;-0.06620601;-0.1700316;-0.015784545;-0.031093305;-0.106113754;0.3029826;0.08423608;0.015932292;-0.16586044;0.13848977;-0.24469112;-0.0037805687;0.09273947;0.020261293;-0.11299609;-0.15293737;-0.062285386;-0.21164411;0.13340399;-0.07176945;-0.1400971;-0.12567711;0.106600255;0.026517427;0.0055858563;0.06020189;0.05155069;-0.13255318;0.059931252;0.15493248;-0.042011738;0.12069528;0.03591565;0.083420746;0.20069443;0.03920995;0.16513054;-0.025699819;0.13307607;0.24472208;-0.0030921015;-0.15949103;0.11276503;0.091948204;-0.042205796;-0.15305877;0.25464132;0.0068325903;-0.0061877286;0.03462517;-0.25774118;0.1010591;-0.10702205;-0.1297859;0.11463297;0.20179307;-0.057850987;0.012499957;-0.21626411;-0.13850206;0.015465096;0.03825414;0.084935516;0.15567918;-0.021495767;-0.18942192;0.10035671;-0.16983637;-0.2260791;-0.010326829;0.12400334;0.1252663;0.15111554;-0.1447405;-0.032393854;0.25902614;-0.012527961;0.12055525;0.015870767;0.014734662;-0.17004326;-0.22492023;0.1653085;0.0028702393;-0.03510319;-0.11604216;-0.16194251;-0.15474787;0.040671166;0.0626003;-0.1175465;-0.42847863;-0.24012692;-0.0987812;0.13350011;0.14713743;-0.037854154;-0.04630851;-0.047468565;-0.018807301;-0.063628316;0.14632733;-0.003953738;0.052296557;-0.12740971;-0.058938876;-0.03512766;-0.11720628;-0.13469641;0.15638815;0.2897044;-0.1327359;-0.059947435;0.008424756;-0.07779631;0.053881694;-0.121473;0.07054171
0.13052799;0.042312317;0.09080292;0.061109338;0.20136528;-0.24653563;0.13581908;0.032159645;-0.19216432;0.06502878;0.13183731;-0.013641597;-0.14939767;-0.010584018;-0.11676311;-0.005142451;0.05311794;0.07241383;-0.01604141;0.12016611;0.0072114826;-0.0726399;0.1642361;-0.2126166;0.0141675705;0.11919359;0.17316277;-0.15575972;-0.12381561;0.06648712;0.004879815;0.030463174;0.029915117;0.11839679;0.005400164;-0.101350255;0.11649141;0.023968963;-0.1448055;0.11448915;-0.1422828;-0.026572166;-0.038836062;0.030064782;-0.094054125;0.114590496;0.15983887;0.19995585;0.1923186;-0.08162987;0.03475882;0.04837441;-0.14723623;-0.009761108;-0.10064422;0.026985968;0.11002016;-0.27089977;0.22400914;-0.034760673;-0.08584847;-0.0352347;0.10049266;-0.0059228092;-0.0018259209;0.032174088;-0.09407324;0.029570743;0.031790722;0.13097024;0.018526807;-0.14054926;-0.020986198;-0.071015686;0.013967088;-0.16708261;-0.024253685;0.0506018;-0.17584015;0.21131799;0.082675286;0.06284593;0.05785839;0.036239307;-0.03441615;0.21064864;0.14668572;-0.14271581;0.12580022;0.029917339;-0.1304896;0.0074587762;0.11772604;0.2233436;-0.009827033;0.25104016;0.14078896;0.11960682;-0.028338958;0.19198039;-0.056067638;-0.010206658;0.0035253037;-0.15287347;0.11784282;-0.064925686;0.04500349;-0.0023465026;-0.24495564;0.1975527;-0.017928291;0.034043312;0.089712575;0.34463927;-0.1634166;-0.054707095;-0.1503836;-0.07315781;0.1703669;0.017495982;-0.10194993;-0.06663041;-0.0511127;0.029176626;0.16706902;0.04312235;0.28911078;0.15633653;-0.15691157;0.05441037;0.079231255;-0.062349368;0.16338292;0.03188224;-0.19462836;0.014268771;-0.087243915;-0.048043236;0.016826142;0.11421652;0.15019406;-0.018230736;0.113864794;-0.17973574;-0.07695584;0.08807883;-0.004011189;0.061825555;0.026176427;-0.09643745;-0.03485151;-0.03480821;-0.023704553;0.06293803;-0.30208385;-0.0030728623;0.095526695;-0.112210155;0.10916703;0.16593401;-0.048460606;-0.13155848;-0.15409131;-0.18165252;-0.028859517;-0.04680603;-0.119717196;0.03593367;-0.0803686;0.019989464;-0.057538923;0.074815184;0.096254066;-0.08543053;-0.10556919;-0.035014693;-0.08592757;-0.054932475;0.1557991;0.20691603;-0.0024871787;0.090305015;0.07865866;0.09427724;0.1884629;-0.03835757;0.15609877;0.03816412;-0.105679706;-0.19559175;-0.07679845;-0.04818367;-0.12046247;0.010754805;-0.093334675;-0.01768248;-0.027470905;0.0013909418;-0.03737137;-0.0809048;0.124135144;0.024091741;-0.13677125;-0.051198646;-0.058609877;-0.059069607;0.020733986;0.0107606305;-0.04018161;-0.08516515;0.04429821;-0.15148197;-0.14033443;-0.040352236;0.018550282;0.08198085;0.05656729;-0.20647165;0.15971601;-0.029846506;-0.03931759;0.05486307;-0.27530366;-0.05107547;0.012556628;0.07954605;-0.053165022;0.058988716;0.12486544;0.008685879;0.10080791;-0.09312063;0.11654025;0.17484052;0.023441384;-0.023238089;-0.02284043;0.056307618;0.07635017;-0.29547146;-0.17681918;0.10889588;0.29876485;0.19593896;0.25844473;0.07363697;-0.06783127;-0.12031651;0.27733028;-0.02272916;-0.06066283;-0.025129385;-0.1997257;-0.17154141;0.016918488;0.09194097;0.024789793;0.081315696;-0.044912025;0.16810878;0.006013189;-0.13544883;0.014013686;-0.05611161;0.13527314;-0.13978767;-0.008778276;-0.06612465;0.0027676034;-0.07741919;-0.12626891;-0.041795373;-0.03689082;-0.026127752;-0.0025150557;-0.022183068;0.042707156;1.6583512e-05;-0.15252301;0.044484153;0.10759158;0.050389234;0.13558741;-0.010755778;0.15263115;0.16120975;0.051988427;0.12660424;0.06752299;0.18034048;-0.1311284;-0.040508054;0.14807989;-0.061480355;0.12201786;-0.038824696;0.025079751;-0.0071483837;0.009020532;-0.016751658;0.05561217;0.015583217;0.046482462;0.053039636;0.2434809;-0.021337537;-0.15752752;-0.16104497;-0.28164467;-0.18385838;-0.06881435;0.11189859;0.09150948;-0.09710347;0.23971884;-0.1488208;-0.20075926;-0.002428543;-0.12707385;-0.0769576;-0.20175546;0.051750626;-0.037254456;-0.093446344;0.0023571595;-0.2091799;0.0033852605;-0.1662061;-0.13433725;-0.09936924;0.026931742;-0.08584256;0.00085194234;-0.110242024;-0.04959115;0.080515705;0.3015837;-0.18534206;-0.16643529;0.1804146;-0.14193326;0.031134745;0.3038908;-0.09782302;-0.029838707;0.048529938;-0.20981644;-0.0647641;0.04837541;0.046266522;0.18808882;0.106906764;0.09112845;-0.04519453;0.077286944;-0.33307028;0.08312285;0.042112168;-0.13865058;-0.04537979;-0.0059337146;-0.12911609;0.12288147;0.0843669;-0.02772898;-0.0985407;0.033439998;0.039029144;0.1833643;-0.004271356;0.17005587;0.017851612;-0.06115467;-0.08834528;0.06332374;-0.2267575;0.004694222;0.010923431;0.14093825;-0.08236108;-0.014801619;0.2618971;0.043857753;-0.032315902;0.06615986;-0.0850424;-0.041618522;-0.044449586;-0.04597009;-0.21088584;-0.06691548;-0.1253834;0.12508607;-0.14941195;0.060017817;0.19314204;-0.2220179;0.05594217;-0.068987414;0.19274305;0.07964883;0.04001589;0.04074787;-0.08742703;-0.028468465;0.10612835;-0.19519679;-0.076040864;0.13011934;-0.032756228;0.006127531;-0.040775757;-0.10416981;0.120502084;0.007323272;0.13446736;-0.15750998;0.35735917;-0.078608796;-0.16201627;0.0673973;-0.10247791;0.026128879;0.015647566;-0.19001599;0.028181385;0.03703694;0.1042733;0.17718823;0.3122621;0.010230394;-0.029552586;0.00010721141;-0.15724258;-0.20732687;-0.15662742;0.05477906;0.0015531253;0.029755706;-0.12839873;-0.07557843;-0.11370935;0.07179311;0.119619355;0.05917219;-0.02199294;-0.20560996;-0.099423185;-0.27008528;0.05656347;-0.08812709;-0.27972022;0.026716106;-0.44362688;-0.08417018;-0.010599552;0.0085848905;-0.09756542;-0.08508563;-0.1475737;0.06444465;-0.044150643;-0.14330405;0.25079262;-0.073556155;0.006846864;-0.12657812;0.311354;-0.24159406;-0.15258953;-0.011531075;0.06760056;0.0055143833;-0.24374278;-0.16146071;-0.09457085;0.043565437;-0.19075336;-0.014719052;-0.06678912;0.15115689;-0.03402128;-0.10961498;0.03395507;-0.03153037;-0.18430266;0.06832434;0.21601637;0.059143648;0.16259845;-0.13111064;0.025903376;0.2324644;0.1608147;0.23893957;-0.003815996;0.024208799;0.23450972;0.014356455;-0.10236258;-0.061671566;0.08382535;-0.003173823;-0.18017922;0.111065455;-0.08949982;-0.13936187;0.11180596;-0.32924274;0.013174308;-0.047686905;0.00607335;0.07081827;0.09355527;-0.14939162;0.035773303;-0.13999549;-0.1945502;-0.003981059;0.03434393;-0.01753408;0.2782794;0.102813415;0.003780163;0.09506765;-0.1589539;-0.12859333;-0.11909547;0.15704224;0.14582357;0.1179321;-0.25930107;-0.027996019;0.20240541;0.07965755;-0.02143445;-0.09665492;0.02379019;-0.14497669;-0.10399243;0.047500346;0.010555404;0.16565518;-0.24129215;-0.061174724;-0.03268505;0.022977157;-0.013500171;-0.025729287;-0.2744786;-0.13387117;-0.18456462;0.12669133;0.032131005;0.081330046;-0.14638299;0.12654828;0.07014146;0.080307156;0.040636573;0.058489956;0.17420742;-0.071923666;-0.1865239;0.1338729;-0.12881027;-0.15995863;0.16853969;0.13510822;-0.038634595;0.08395822;0.022008773;-0.016216703;-0.066244856;-0.021601891;0.041139178
0.111014865;0.12424963;-0.06270454;-0.037475992;0.21326165;-0.23574467;0.00635948;0.06384093;-0.20290196;-0.033555213;0.10973686;0.027046898;-0.1839898;-0.06626645;-0.076189645;-0.010199318;0.059577346;0.032940987;-0.14672558;0.021817211;-0.12008605;-0.041623447;0.15910764;-0.13001451;-0.07051607;0.018255286;0.12211139;-0.002924185;0.031122653;0.00414467;-0.0058948947;0.14893687;-0.015089775;0.027829355;0.19453692;0.012255044;0.24414286;0.11875998;-0.14834705;0.16761649;-0.02990818;-0.07135294;-0.16513425;0.057401646;-0.098057695;0.08020168;0.070122965;0.042825736;0.18883862;0.05281241;0.01155109;0.045589875;-0.09436141;0.030067803;-0.09489835;-0.052236408;0.17242454;-0.3057806;0.23740245;-0.07508353;-0.014405611;-0.11994239;0.12229379;-0.106797755;-0.12717652;-0.1029939;-0.04660127;0.016626019;0.08612238;0.077744566;-0.04447518;-0.00626956;0.001514075;-0.020401618;0.21027316;0.037058182;-0.008234468;0.0321701;-0.19038942;0.15217999;-0.16345;-0.0049403384;0.027261786;-0.03753686;0.075164616;0.10441558;0.098310284;-0.09262273;0.11468116;0.055050094;-0.12531057;-0.020358916;0.13870804;0.1970546;-0.029240454;0.22633475;0.12399986;-0.0005086973;0.03670175;0.1324125;-0.014953622;-0.15127167;-0.040432617;-0.17203422;0.11848968;-0.18482876;0.09391864;-0.050352983;-0.12795144;0.27443573;-0.026183786;0.047543142;0.10648418;0.28678176;-0.072152145;-0.1475646;0.055757012;-0.11532698;0.086392336;0.18448973;-0.1451195;0.029276706;0.05644877;0.007750102;0.14613836;0.0993738;0.096983664;0.1228873;0.009682852;0.17457141;0.03942659;-0.0160603;0.12388404;-0.063669965;-0.13776074;0.110224426;-0.19797163;0.013198934;0.0008527883;0.08573659;0.21074815;0.052764002;0.01905702;-0.16384855;-0.044117186;0.07980683;-0.029037148;0.047095977;-0.05188925;-0.0066948067;0.07198928;0.014550448;0.0071070073;-0.014986197;-0.24086256;-0.01727494;0.13380931;-0.04796533;0.071720034;0.18365607;-0.04646218;-0.07228725;0.010138729;0.07886832;0.03570964;0.035020825;-0.087103575;0.1972846;0.028836008;-0.114898115;0.00810188;-0.0138404975;-0.10080998;-0.073293306;-0.08852807;0.046739917;0.046931356;-0.09122256;0.17991033;0.25513396;0.057771556;-0.071494386;-0.09633277;0.01878052;0.3095891;-0.1567004;0.0025961827;-0.06942979;-0.009754495;-0.2267889;-0.052417494;-0.080110826;-0.0998089;-0.09606963;0.08808871;-0.17147811;-0.12815925;-0.014280229;-0.012569298;-0.19648707;0.2036704;0.08187223;0.014837869;0.009050659;-0.022080382;0.047130197;-0.044405874;0.025682567;0.0827715;-0.047046974;-0.11266639;0.05953569;0.027280934;-0.11973506;-0.023229057;0.08296489;-0.07833512;-0.26332074;0.07954833;0.04355215;-0.006913492;0.061702337;-0.25772598;0.091474645;0.11052871;0.1658492;-0.025887495;0.086740054;-0.082870334;0.11300611;-0.069166;0.030622546;-0.084269516;0.14424722;0.021537395;0.046213463;-0.0131705655;0.119878955;-0.040355217;-0.35456267;-0.09547828;0.120983504;0.22673538;0.18313073;0.12384915;0.07894454;-0.29877838;-0.15919739;0.11432401;-0.05721366;-0.10528191;-0.0030832605;-0.16747849;-0.051098935;0.002500011;0.060516417;-0.0013375838;0.07604031;-0.09008186;0.06520923;0.12413365;-0.11367328;0.043431833;0.017338429;0.10314702;-0.007424052;-0.03162193;0.15523328;0.042887066;-0.1683716;0.047326785;0.049792137;-0.2148146;0.019997958;-0.042869147;0.043260276;0.11501804;0.12554322;-0.17398566;0.08858268;0.04238028;-0.007792728;0.08650157;-0.12010918;0.09409391;-0.029435618;0.10952435;0.05643888;-0.009317415;0.18872684;-0.21269384;-0.03728167;-0.029222548;-0.121982396;0.08584036;-0.117823325;-0.023594532;0.03820474;0.0064019077;-0.002634966;0.09946954;-0.116655394;0.031229196;0.14234737;0.08232742;0.09017023;0.010955391;-0.10789403;-0.36349472;-0.059933454;-0.010533728;-0.017691799;-0.063783936;0.102395795;0.22943565;-0.15171742;-0.20793714;0.0058412543;-0.1691997;0.007235637;-0.20196077;-0.0687969;-0.20530084;0.015043747;-0.078035474;-0.21477357;0.013772856;-0.07424479;-0.049760096;0.00031875988;0.06431693;-0.07952574;-0.13339923;-0.019598322;0.037572578;0.1334413;0.15765332;-0.14655866;-0.19598824;0.30246028;-0.08651152;0.03025258;0.25433147;-0.11660734;-0.011071367;-0.0051404536;-0.16182044;0.018571513;-0.02709319;0.09679757;0.1483723;0.06668453;-0.061658327;-0.02108221;0.11574621;-0.2693665;0.17873415;0.13146771;-0.053846613;-0.075001344;-0.06521749;-0.10965555;-0.024988089;0.13195261;-0.004557508;-0.17941259;0.14837848;0.044420365;0.14685789;0.07578661;0.10298046;-0.10552709;0.043557033;-0.053447213;0.1478499;-0.14439103;0.10151692;0.00282356;0.020032903;-0.024806207;0.07728786;0.047244836;0.09947818;0.024978142;0.17807679;-0.018903963;-0.0069772187;0.10238789;0.0019559273;-0.13303137;-0.04369295;-0.11675049;0.25078475;-0.027539153;0.13483912;0.17084603;-0.11392733;0.097722426;0.011258427;0.037508484;0.039595596;-0.04145025;-0.02427324;0.08630548;0.11052308;0.21459042;-0.22151688;-0.061427467;0.10715988;-0.024316361;-0.030094085;-0.029992634;-0.08765714;-0.0068430905;-0.0014986197;0.2141901;0.044647593;0.26872525;-0.016758313;-0.14742693;0.13993159;-0.18655734;0.031455725;-0.049540803;-0.123728245;-0.012497734;-0.0542091;-0.009654477;0.1191298;0.23527877;-0.07674696;-0.045517884;0.017379645;-0.098240614;-0.07521047;-0.061557364;0.080303214;-0.070268296;-0.02611297;-0.051879767;-0.04053584;-0.11938021;0.13089107;-0.06121106;0.069801226;-0.038747;-0.2022739;0.0524372;-0.24179293;0.02175891;-0.021124255;-0.14527585;0.04089666;-0.3439047;-0.08863585;-0.12837082;0.030590124;0.036488455;-0.10283097;-0.027227057;-0.028606798;-0.080685735;-0.1571371;0.21513198;-0.077566944;-0.014658818;-0.026883287;0.13817053;-0.12089217;-0.26836947;0.051201046;0.044298556;-0.10464213;-0.058018804;-0.285012;-0.24213766;0.04559511;-0.16207884;-0.11010937;-0.047771715;0.11933187;-0.14587887;-0.17600188;-0.06730152;-0.06791924;-0.101356015;0.0063259252;0.17984794;-0.038161233;0.039511614;-0.11906453;-0.006936633;-0.011784924;-0.047728043;0.14160112;0.05650591;0.022059;0.14943877;-0.030610235;-0.2271731;0.024762748;0.08439486;-0.12865725;-0.23147303;0.13905846;-0.13220587;-0.13020393;0.056226972;-0.40871122;0.0037168064;-0.05473168;-0.0058765225;0.04082596;0.20616525;0.00507232;0.013796707;-0.10468105;-0.060944285;-0.11754505;-0.029569017;0.0038447548;0.19651327;0.1335182;0.04602886;-0.04274033;-0.114739306;-0.10374181;-0.20719284;0.13675326;0.023044214;0.02477762;-0.19916627;-0.15176572;0.11606889;-0.09142665;-0.03662295;-0.10175151;0.18344088;-0.15142508;-0.18599504;0.0035744351;0.04055852;-0.06760968;-0.21698946;-0.027897222;-0.024963934;0.027698895;-0.097099505;-0.013459312;-0.25165752;-0.06410608;-0.016800752;0.11528895;0.16628514;0.034837645;-0.010414297;-0.01756814;-0.0929446;0.18691;0.034394253;0.032330174;0.18043262;-0.048963748;-0.06428045;0.07139877;-0.032045994;-0.09969828;-0.046041887;0.09283509;0.001976405;0.06725817;-0.09888533;0.041683346;-0.03497753;0.050292876;0.0047237575
0.17716183;0.118400924;-0.05480503;0.04680448;0.19622277;-0.18013409;0.124060966;-0.004772837;-0.1934672;-0.06217712;-0.0058817584;-0.08653975;-0.1567937;0.16715968;-0.058388516;-0.023675678;0.0038018692;-0.08488708;-0.030137608;-0.044576503;-0.17697603;-0.061735388;0.13364987;-0.12678754;-0.017261546;-0.09690205;0.16398723;0.13611229;0.015383066;-0.17284;-0.012125082;0.033850353;-0.02630388;-0.053697634;0.14376499;-0.03678866;0.18136144;0.04931442;-0.018454032;0.16591297;-0.057589613;-0.11070172;-0.15914866;0.124123685;0.051177803;-0.08632696;0.116346106;0.109817035;0.09426269;-0.015115792;0.030124422;0.050992027;-0.114144236;-0.08231606;-0.12176896;-0.0038967011;0.21638662;-0.3175285;0.25026193;-0.06731148;-0.006237515;-0.091642916;0.06778556;-0.1506895;-0.13688684;-0.1372267;-0.1055628;-0.15362217;0.014715175;0.053836737;0.0013186268;-0.020707218;-0.11556407;0.021873586;0.1015445;0.0051177023;-0.18789239;-0.16194464;-0.22773002;0.20321487;-0.03905436;-0.13346775;-0.04276067;0.086503364;0.12428915;-0.050752226;-0.022996085;-0.12579414;-0.019259969;0.023010595;0.016242733;0.04938539;0.04406491;0.073842034;0.02844734;0.29415578;-0.02527309;0.05474651;0.04960169;0.08170564;-0.046940926;-0.15970664;-0.058844905;-0.14996766;0.072006054;-0.025574023;0.18338178;-0.08805569;-0.123399846;0.45209327;0.061821997;-0.120979235;-0.0064913915;0.13471141;-0.083571106;-0.12360116;0.003181808;0.06665282;-0.07442614;0.10690819;-0.20305924;0.03267081;0.041471813;0.08054361;0.17845815;0.19505242;0.059077438;0.02820164;0.0003481218;0.13307242;0.10722997;-0.028592281;0.07616891;-0.1420061;-0.08185653;0.06601419;-0.065603845;0.01131442;0.10527229;0.1524484;0.2192848;0.14569435;0.10681792;-0.17214096;-0.07771924;-0.06843201;-0.035581306;-0.057690505;0.030321077;0.046961598;0.057564355;0.18632847;-0.014361689;-0.07308685;-0.20106447;-0.01107984;0.23327102;-0.15151314;-0.1337668;0.16981605;0.13329136;-0.036022782;0.087693796;-0.011836129;-0.056552283;-0.052139014;-0.14619309;0.16528644;-0.0059022517;-0.016055087;-0.13031942;-0.04743407;0.046352353;-0.13157035;-0.118541464;-0.03757515;-0.09552182;-0.12948348;0.08101707;0.13719895;0.029604692;-0.07380688;-0.13389148;-0.058978524;0.37164286;-0.13836978;0.09802081;0.018587315;-0.09909936;-0.3293946;-0.06238638;-0.031160185;0.09127768;-0.18140036;-0.06578664;-0.10316981;-0.22240286;0.08549675;-0.089062445;-0.038377676;0.15582958;0.011677102;0.03523816;0.019042118;0.18383162;-0.043738507;0.0067283227;0.13957262;0.1737643;-0.054047663;-0.025114786;0.028080797;-0.050252747;-0.0076143593;-0.12912655;0.021868525;-0.06913668;-0.24455139;0.13846181;0.14605166;-0.09376981;0.01474888;-0.2023465;0.15241069;0.041721802;0.13564096;-0.10114705;0.08475911;-0.064842775;0.19790034;0.08943578;-0.14860113;0.103125654;0.055373084;0.056966856;-0.053508665;0.0084520485;0.15646374;0.094275765;-0.058365677;-0.07567674;-0.01909267;0.13834658;0.034608804;0.06499262;0.102301955;-0.10351176;-0.13648127;-0.10986636;0.08238137;-0.041702047;-0.09403141;0.014637328;-0.061016325;0.024105724;0.090438485;0.016353475;-0.073991366;-0.04068515;0.15497647;-0.074249886;-0.06595085;-0.07359958;0.18540233;0.038665112;0.025092645;0.118919194;0.019428045;0.0507864;-0.062639594;0.051628154;0.059001047;-0.25219756;-0.05285044;0.033184458;0.091463394;0.11326205;0.011169583;-0.08182455;0.019549455;-0.063296735;-0.20850167;-0.06940838;-0.13632809;-0.007217972;0.15711313;0.14240946;0.17221709;-0.1315894;0.04966447;-0.062291183;-0.027018458;-0.059885558;-0.111234225;0.12753591;-0.06146236;-0.058247425;-0.080186605;0.04395675;0.053414267;0.049109068;-0.09269857;0.08576037;0.054340858;0.033539653;0.011566505;-0.05761673;0.020131452;-0.2799355;-0.2007925;0.02959183;0.09244536;0.015315326;0.16581975;0.3391595;-0.18708473;-0.09817981;-0.0322442;-0.05932309;-0.12160605;0.095368996;0.019793663;-0.026792388;-0.045351308;0.006267746;-0.14725752;0.042382758;0.019942433;-0.00796855;-0.088702805;0.13338788;-0.16509837;-0.19349925;-0.10158701;-0.072994806;0.20699984;0.10252732;-0.03357966;-0.12049453;0.18130536;-0.09734223;0.04726959;0.14120056;0.08894835;-0.03178458;0.0035336232;-0.2583063;0.046223406;-0.042399593;0.053173896;0.22054638;-0.06747778;0.0064234342;-0.07460895;0.113650404;-0.17139572;0.12162008;0.089478634;0.023920571;-0.12276576;-0.025197517;-0.08748981;0.055340156;0.13670707;0.09543828;-0.23651284;0.07241996;0.055870958;-0.028490394;0.023175562;0.008605766;0.08562378;0.16386913;0.02756785;0.048555996;-0.15112416;0.17920995;-0.03155983;0.051990777;-0.13424446;0.039058033;0.06467544;-0.0039599296;0.047350045;0.062175483;-0.04142526;0.023012735;-0.017905172;0.073356904;-0.099989325;-0.10532563;-0.10634186;0.08035424;0.008527419;0.05504913;0.16590029;0.09841651;0.035649493;0.09280852;0.072557524;0.16382237;0.026359059;-0.026744908;-0.006836372;-0.039094146;0.12190635;-0.1019221;-0.09145174;0.06956152;-0.0028355063;0.006784339;0.04529563;0.05562131;0.061960805;-0.0819083;0.11718236;-0.0073883585;0.16654298;-0.042492338;0.050747156;0.084928185;-0.08369288;0.059322774;0.078382775;-0.10631884;-0.08353983;-0.012585495;0.034805715;0.23704053;0.16251211;-0.0642775;-0.03255299;-0.07407542;-0.001077722;-0.1101706;0.03383053;0.031322356;-0.024192482;0.08302483;-0.12066972;0.0004179605;-0.01670995;-0.013973089;-0.010894796;0.0385654;-0.013673281;-0.1078674;0.082531735;-0.18783797;0.026596546;-0.039908957;-0.20142817;-0.06351306;-0.34816924;-0.3332239;0.0070298114;0.061424162;-0.066416256;-0.07609749;-0.09498311;-0.013928282;0.0230377;0.017082693;0.094369724;-0.09921192;-0.059510972;0.01880629;0.18668492;-0.18457524;-0.20613933;0.042353597;0.048452776;-0.082804374;-0.054627985;-0.09657505;-0.23855048;0.033372555;-0.0027544072;0.013854839;0.119937286;0.03234501;-0.0881038;-0.11263729;-0.1149465;-0.039901655;-0.090949915;0.02886133;0.019118985;0.09662899;-0.10882008;-0.09813045;0.032250457;-0.0015067972;0.01060997;0.13317181;0.02050598;0.1440915;0.0068882755;0.07746101;-0.13223456;0.046178494;0.07246746;-0.026153814;-0.30325368;0.15336555;-0.06751825;-0.12428078;0.10532205;-0.45950538;0.036815826;-0.0934937;-0.039809242;0.08368859;0.06760472;0.055995848;-0.058325056;0.010025309;-0.10338685;0.007805409;0.020374283;-0.047843114;0.22625351;-0.047012694;0.17428398;0.00051506713;-0.2792997;-0.243669;-0.17669025;0.2081585;-0.08442066;0.06372713;-0.025545895;-0.046402007;0.15623933;-0.02458048;0.099977784;-0.1369989;0.057027858;-0.27994367;-0.02341812;0.14415039;0.003908733;0.041265804;-0.27157953;-0.0733342;-0.012778126;0.08940982;-0.022973772;-0.100247614;-0.04290272;-0.14524116;-0.10969898;-0.012989076;0.10694748;0.016834944;-0.15734825;0.19630343;-0.028406192;0.17371309;0.02875573;0.108391784;0.20619948;-0.033407465;0.015407542;0.14097129;0.0051533757;-0.30249497;-0.088294365;0.12650956;0.07064052;-0.0868756;0.12503612;0.057255715;-0.080730416;-0.03558876;-0.18892016
0.087417744;0.110469386;-0.14272445;-0.058626805;0.22240464;-0.17913662;0.074770965;0.0013975655;0.0090414705;-0.003048146;-0.06766607;0.012813477;0.030173456;0.015049423;-0.20860443;-0.06688978;0.009598276;0.01390412;-0.022024833;-0.054267723;-0.085295424;-0.043883484;-0.09859227;-0.02269274;0.0007609853;-0.026419576;0.14448884;0.10759291;-0.033519957;0.008092856;-0.09651786;0.16442202;-0.057156034;0.08923764;0.20380847;0.008815147;0.16948047;0.23043796;-0.13029948;0.13844179;-0.019339005;0.050428033;-0.06637845;-0.04788714;0.1819479;0.060086627;0.09242824;0.055440173;0.11725201;0.052678283;-0.00012547104;-0.0056045474;-0.19473928;-0.14525585;0.020354634;0.16461797;0.164319;-0.21657373;0.050536804;-0.1552443;-0.012131862;-0.06826247;-0.04576836;-0.10776802;-0.06446876;-0.2187309;0.056404237;-0.06487667;0.054018874;0.08826853;-0.00638618;-0.09718344;-0.13677935;0.007556885;0.29173964;0.047965933;-0.04377148;-0.19379786;-0.11572194;0.20495884;-0.0059933546;0.004581408;0.04525387;0.077066705;0.13329482;-0.09309536;0.052633196;-0.040853526;0.0013500474;-0.04935364;0.04667218;-0.0046348814;0.1528617;0.15904999;0.03580343;0.23422252;0.11304494;0.13492261;-0.088326745;0.1762528;-0.11633381;-0.050862506;-0.08403041;-0.12664255;0.08298084;0.047569096;0.17702457;-0.035781316;0.014258877;0.31766412;0.023587031;-0.17203584;-0.02042594;0.18389574;0.058228526;-0.23104359;-0.099991955;0.054638915;0.039560903;0.0908656;-0.08123081;0.13082092;-0.0017385044;0.07973103;0.07465136;0.30301332;0.24613306;-0.04519588;-0.061491538;0.21272488;0.036580794;0.0628223;-0.043410886;-0.0706408;-0.08398237;-0.08182129;0.14792125;-0.16375673;0.01925593;0.013619644;0.07555697;-0.057147652;0.17352748;-0.25445575;-0.20219113;-0.02047885;-0.2059265;-0.04535094;-0.031383883;-0.07369773;0.20521569;0.21145828;0.09248256;-0.07112756;-0.23971674;-0.012376559;0.18857336;-0.25987518;0.057794813;0.006425765;-0.13013102;-0.052235253;-0.018691927;0.001898985;-0.008307527;-0.0013323649;-0.04645551;0.14673544;-0.0026846605;-0.12616;-0.09601199;-0.0016089197;0.079472765;0.049485784;-0.2009138;-0.044226475;-0.08582632;0.011258971;0.1290106;0.3178084;-0.05330075;-0.009647462;-0.0069814455;-0.050953936;0.22728908;-0.26608548;0.23002107;0.06711651;0.08316708;-0.22284131;0.10492298;-0.12523915;-0.19302338;-0.039681263;-0.02973429;0.033478625;-0.12814358;0.01138849;-0.07907574;0.027040036;0.12283621;0.044240136;-0.07791623;0.11318349;0.16682756;-0.036149867;0.10412682;0.18080248;0.1953994;0.022520065;-0.102079794;0.0028429665;-0.09457185;-0.06726634;-0.01636496;0.045966834;-0.10220422;-0.28947628;0.17809407;0.049964737;-0.08202863;0.09592942;-0.24724679;-0.014885208;0.09423603;0.14956053;-0.05271727;0.010894731;-0.022183985;0.22248255;0.10949868;0.04617218;0.20553672;0.083450444;0.1152526;-0.1623637;-0.07498738;0.1541541;0.09086343;-0.30842698;-0.21518813;0.15917382;0.015191544;0.14447273;-0.10528428;0.17875694;-0.24214306;-0.09311386;-0.06216131;0.07469407;0.00042357575;0.046158947;0.07500771;-0.034362685;-0.031883147;-0.00236621;0.01901472;0.0014284294;0.07706269;0.054808903;-0.09348689;0.04483848;0.00079997454;0.07537766;0.016808582;0.108771965;0.14956415;0.09305117;0.029153727;-0.06159942;-0.017091278;0.06456605;0.046988003;-0.11870957;0.13263194;0.10750495;0.064326346;0.06973212;-0.24394822;-0.019512624;0.00087513943;-0.1854163;0.11576001;-0.025270993;-0.11960711;0.07797779;0.1997405;0.069153056;-0.05214626;0.04386208;-0.15378462;-0.036980424;-0.14458193;-0.23127736;0.16766694;-0.25674498;0.009216453;-0.123265855;-0.0313225;-0.02904745;-0.10953848;-0.020906033;-0.044215944;-0.022645228;0.043465085;0.067700416;0.11155352;0.09632963;-0.24946347;0.039243154;0.18255742;0.105728805;-0.022463052;0.05911365;0.17264913;-0.25890797;-0.053607546;-0.10845045;-0.08936404;-0.119027495;-0.060680024;0.14003746;0.014980255;-0.024697637;0.09932049;-0.2652637;-0.049018774;0.14522801;-0.0008182026;0.056399614;-0.012549929;-0.17554897;-0.044069152;-0.07647909;-0.0015894714;0.15876114;0.05456156;-0.15177499;-0.2748112;0.21885335;-0.10373325;0.050669968;0.15586041;0.010153829;-0.23840263;0.11818683;-0.0929378;-0.022296894;-0.029262094;0.034172706;0.14335132;-0.08332896;0.008843959;-0.017334156;0.11196213;-0.30079767;-0.14579464;0.05362764;-0.092268065;0.03896653;0.015440134;-0.067394;0.08112661;0.09223389;0.11648515;-0.19104174;0.099289045;0.21561514;0.112830505;-0.04317212;-0.026591986;-0.036596823;0.031561464;0.054258563;0.15851405;-0.18211445;0.06232036;-0.15950488;0.13287774;-0.11634094;0.13635656;0.007872713;-0.0964459;-0.04842006;0.06466559;0.1255208;-0.13589363;-0.03644784;-0.058525424;-0.017986692;-0.11295936;-0.35303044;0.21878177;-0.09977905;0.072750606;0.21626012;0.051061958;-0.049627297;0.118836;-0.0036797577;-0.054471996;0.020347927;-0.019256117;-0.09931093;0.0011637578;0.23929846;-0.08772261;-0.15783072;0.14495501;-0.06421941;-0.12320024;0.13044389;-0.038619787;0.2243852;-0.09347196;0.17619307;-0.030788532;0.46628258;-0.11222793;-0.08777701;0.1427837;0.14080861;-0.08701294;0.13557559;-0.08699897;0.04179618;0.096310005;-0.038728476;0.15265085;0.14830047;-0.19060262;-0.1313034;0.08004296;0.042429626;-0.028568763;-0.09178974;0.06565503;-0.20360465;0.06962044;0.027402371;-0.059636094;-0.043037426;0.08881013;-0.08394526;0.113075204;-0.0407421;-0.06685372;0.07914347;-0.22823024;-0.021972856;-0.0033588123;-0.026084555;0.067300685;-0.44347477;-0.24760155;-0.0649204;0.17350772;-0.02779162;0.025866684;-0.014716923;-0.013683999;-0.22845703;0.019906718;0.10348231;0.011132705;0.002601399;-0.04666355;-0.021071076;-0.14152801;-0.09997613;0.11212678;0.03530397;-0.12784514;-0.13217255;-0.20453018;-0.2820607;-0.04979152;-0.054765873;-0.007960141;0.10914302;-0.0695533;0.058517966;-0.16656256;-0.02108611;-0.03547899;-0.11005302;-0.05878933;0.11608798;0.17932369;0.0067281136;-0.06286859;-0.07106751;0.030845745;0.03216213;0.01446528;-0.05144383;0.12766011;0.12797925;0.0043456205;-0.13211781;-0.1086775;0.04862804;-0.031218234;-0.24451666;0.03154429;-0.051616337;-0.13404284;0.011221304;-0.22772683;-0.049959008;-0.11443905;-0.11315081;-0.013164864;0.082381904;0.13114567;0.011201538;-0.041963123;-0.004998304;-0.1614315;-0.12265229;0.047213882;0.22876886;-0.14624766;-0.023605155;0.06522246;-0.18345349;-0.22586113;-0.049124558;0.09622103;-0.038496774;0.15773629;-0.14915673;0.0052393796;0.15540901;0.0027234363;0.16045319;-0.14285532;0.0930694;-0.32521173;-0.14007333;0.0043074363;0.02011871;-0.003152981;-0.26266488;-0.06734763;-0.00023284604;0.053141642;-0.059212442;-0.12892903;-0.20179158;-0.10979652;-0.023109084;-0.1744225;-0.031568214;0.015615259;0.089421585;0.14371811;-0.002303483;0.09844139;-0.015435238;0.070739165;0.1362803;-0.24584988;-0.051087398;-0.03671544;0.09459423;0.008681646;-0.061860446;0.058585558;-0.061038006;0.006926668;0.05755297;-0.0042955545;-0.025232024;-0.049658064;-0.03357387
0.10006883;0.07748195;-0.047711484;0.008584737;0.25717372;-0.18942025;0.12457739;-0.03550913;0.00088741444;0.037081398;0.005678968;-0.10352644;-0.011919411;0.12808351;-0.13337605;-0.10395992;0.17369384;0.04515811;-0.14262472;0.038831204;-0.056237422;-0.011590781;0.016591828;-0.09237234;-0.029789371;-0.015204161;0.11633264;-0.04621447;0.11991002;-0.030963024;-0.12116193;0.079248846;0.015147554;0.06406269;0.15683737;-0.08248428;0.19734846;0.13627416;-0.13886236;0.070932716;0.06288993;-0.03083092;-0.18799952;-0.01803479;-0.015751023;-0.17617512;0.16757783;-0.053264946;-0.0035542618;0.08908513;-0.008600957;-0.0070646578;-0.19648702;-0.008595651;-0.041071236;0.021764882;0.13900045;-0.18391219;0.037475012;-0.030160392;-0.105658665;0.056036387;0.13250548;-0.06624083;-0.16474342;-0.050425366;0.03842714;0.06323858;0.012864302;0.24717216;-0.027742937;-0.014311044;0.022138776;-0.019356428;0.1714266;-0.04267498;-0.20771328;-0.01381583;-0.14869893;0.0037330864;0.106742874;-0.19169503;0.030305699;-0.067531176;0.113854356;0.021692278;0.02741578;-0.032267164;-0.10921572;-0.004140907;0.015774526;0.009043947;-0.0639648;0.105296165;0.068148844;0.13555478;0.18148844;0.094219275;0.06256165;0.025037;-0.043462083;-0.18024872;-0.07039161;-0.13832691;-0.064194694;-0.12046615;0.16488488;0.064226665;0.074040584;0.0924604;-0.14210051;-0.12053832;0.11482548;0.19075032;0.08786208;-0.19467518;-0.15037078;0.07107655;-0.062780194;0.012393243;-0.18498072;0.22662902;-0.006154375;-0.05338185;0.17745982;0.24287646;0.043727633;-0.026376067;-0.20166172;-0.019741228;-0.21114355;-0.031562194;0.15528655;-0.01701744;-0.027194556;0.03698572;0.007637293;0.026183514;0.09654407;0.035539966;0.11229927;0.17886904;0.08212368;-0.13545391;-0.077626035;0.14500752;-0.10592509;0.0047684894;0.038135942;0.06446179;0.09209217;0.18476343;-0.035386406;-0.20596696;-0.031421088;0.042756613;0.22862497;-0.07956755;-0.03324651;-0.021282982;-0.020566162;0.13349383;-0.052939527;0.033803463;0.09051242;0.05483204;0.0007714288;0.17714158;-0.030976968;-0.14896624;-0.008353383;0.04416678;0.0008034224;0.048175152;-0.24535261;0.043367583;-0.15688382;-0.05177247;0.22358382;0.0062448634;0.05573487;-0.20945005;0.13742697;0.0020239102;0.20252833;-0.07370123;0.15348467;0.046826612;0.055554077;-0.26379707;0.07350564;-0.071868755;-0.11275961;-0.09566112;-0.068249926;0.007523545;-0.21760677;-0.08392326;-0.07722363;-0.24613705;0.037895467;-0.066355556;-0.14269742;0.018281793;0.147433;-0.009003062;-0.0025969725;-0.008474921;0.22751063;0.018964523;-0.13060147;-0.067261145;-0.22005612;-0.12596036;0.06451495;0.012271566;-0.123568185;-0.2289841;0.104894966;0.13662568;-0.069839604;0.030236056;-0.19406635;0.18107639;-0.10691806;0.22435084;-0.06461383;0.11368568;-0.11864469;0.22421098;-0.054825325;-0.11026602;0.08009329;0.048404943;-0.07127505;-0.133249;-0.1262567;0.08934823;0.074731134;-0.11483048;-0.23608527;0.10455136;0.05848218;0.02652721;0.016101986;0.29915667;-0.032404978;-0.03499379;-0.16748239;0.043515194;-0.06843369;0.10953331;0.25379434;-0.039742056;-0.10993786;-0.00847282;-0.024559656;-0.0009892876;0.03898818;0.11960745;-0.08712466;0.058888935;0.024368748;0.214569;-0.07977306;0.101347126;0.07509592;0.059168745;0.09524852;-0.10730966;-0.016454922;0.0060096546;-0.07527881;-0.21608555;0.030431177;-0.097665496;0.01701301;-0.05308119;-0.10075044;0.014435485;-0.048766613;-0.16346845;0.06044917;-0.23879358;-0.030687783;0.06004224;0.0073962687;-0.016881248;-0.14905316;-0.019194491;0.03829066;0.039127212;-0.107944824;-0.11443262;0.117216505;-0.035310574;0.09946721;-0.047526177;-0.117188424;0.01996881;0.047840506;0.06950446;0.09663472;0.02446295;-0.06254533;0.01546782;0.030443538;0.06392586;-0.19887616;0.07428287;0.070922226;0.10068426;-0.016213696;0.07029106;0.13007219;-0.21522981;-0.10782707;-0.043146998;-0.08747677;-0.040931627;0.00037281838;0.11484665;-0.052672055;0.0039038004;-0.05059618;-0.1411235;-0.022675408;0.10102969;0.0066469833;-0.009103566;0.18717018;-0.1584969;-0.12909648;0.01443861;-0.09518235;-0.028607912;0.07674654;-0.10542167;-0.07297707;0.2964449;0.051022157;0.094973706;0.25906712;0.0355277;-0.14562923;0.18093558;-0.027735952;-0.02987736;0.05562961;-0.14141507;0.24659057;-0.16426954;-0.052167315;-0.017401265;0.018035863;-0.11181126;-0.05355722;0.123878874;-0.052034274;-0.04292616;0.13695219;-0.056285076;0.042397477;0.12584953;0.05619622;-0.108826265;0.18253355;0.010637751;0.12502559;0.05660906;-0.11283651;0.07336051;-0.044429053;-0.084185645;0.034316875;-0.210716;0.18455552;0.044253707;0.10794608;0.05290325;0.2354063;0.042087335;-0.08649947;-0.08595764;0.18635641;0.052348327;0.079465315;-0.024393141;-0.07305286;-0.08730975;-0.15113246;-0.20861222;0.15561266;-0.031935643;0.05188646;0.14793386;0.10968614;0.05781464;0.04101303;-0.078270696;0.04141584;0.12880631;0.08572116;-0.06714311;0.08587253;0.2537403;0.017383158;-0.07932088;-0.051095612;-0.15862405;0.022776881;0.12901704;0.07895387;0.16571882;-0.077822804;0.065348454;-0.15970168;0.29137322;-0.10469182;-0.018606659;0.15414199;0.19840279;-0.014358537;0.13913599;0.034747493;0.057932895;-0.04949025;-0.07143986;0.19545367;0.122403495;0.06566554;0.06916459;0.043403924;-0.08952148;-0.039247446;-0.10819768;-0.12572837;0.009324751;0.14383939;-0.1576984;0.07456103;0.029006265;0.14041154;-0.108757615;0.06460831;0.102728106;-0.16857064;0.11020808;-0.15277174;-0.010011085;0.066124104;-0.20157532;0.0047007343;-0.21193337;-0.34609637;0.019161683;0.23306707;-0.027788863;0.14690681;-0.102449514;-0.015237575;-0.06662897;-0.024269318;0.052070666;-0.014033539;0.034483306;-0.055461157;-0.10964722;-0.16348808;-0.16490938;-0.0018535604;-0.051790062;-0.15095766;-0.10705471;-0.070459306;-0.22501102;-0.048103563;0.024765847;0.102235496;-0.006424174;-0.16900599;-0.21821807;-0.20317025;-0.057902817;-0.046527322;-0.10080623;0.037021708;0.03155972;-0.0009317612;-0.039775737;0.06765202;-0.013032867;0.15138038;0.14087375;-0.020030135;0.001495416;0.067451276;-0.035459865;0.00063721405;-0.081390776;0.06356109;0.03903447;0.046979614;-0.41050926;-0.022809548;-0.20658718;-0.030251488;-0.09811599;-0.32223105;0.13603412;-0.07657777;-0.05893184;0.07972945;0.111879595;0.21900573;-0.039771654;-0.038642794;-0.08649379;-0.2104539;0.10830114;-0.0334329;0.20349588;-0.03906737;-0.050112028;0.082643904;-0.12222768;-0.2110182;-0.15181546;0.09108084;-0.13139369;-0.006750092;-0.088820465;0.032290876;0.22253361;0.054545674;0.116042025;-0.22335109;0.08045617;-0.23635043;0.031989016;0.07417406;0.052068263;0.11047954;-0.34455585;-0.015974635;0.04634782;0.16419196;0.06028951;-0.13757738;-0.07930202;-0.2544508;-0.21768756;0.021969788;0.11993725;0.1149836;-0.12121691;0.07075594;-0.03148386;0.13285969;0.06937758;0.09314081;0.04820904;-0.16458961;-0.07067067;-0.047954008;-0.059475526;-0.14635001;0.002519261;0.110133216;-0.04018587;0.04630566;0.058993828;-0.009899166;-0.09180924;0.0016141647;-0.16176943
0.09472381;0.055363428;0.08949557;0.12500751;0.33641067;-0.11920799;0.058340985;0.016359812;0.20944592;-0.013748081;0.22157927;-0.032431718;-0.012438928;0.261064;-0.24532586;-0.034844626;0.28551555;0.11281076;-0.0028747756;0.07305734;-0.06076379;0.055941198;-0.10484526;-0.059180554;0.08097873;0.005566379;0.121806495;-0.048031047;0.06580679;-0.1466292;0.095546074;0.0071030296;-0.017384263;0.04046222;0.064060256;-0.055384956;-0.10622677;0.30361992;-0.22778787;-0.024905331;0.0008778471;-0.1315;-0.090101436;0.02235899;0.17791025;-0.11863824;0.28139627;0.056694802;-0.045300864;-0.041735794;-0.2133807;-0.09237264;-0.11756417;0.013368191;-0.17201039;0.049720977;0.20282055;-0.1888228;-0.09059181;0.025969263;-0.1625556;0.044863887;0.17600214;-0.04438075;-0.13451219;-0.030079784;-0.009428866;0.048037726;0.23466454;0.38157284;0.027659403;0.046728536;0.11196596;-0.05456597;0.07814382;-0.10381821;-0.23181188;-0.077078894;-0.16760692;-0.048133507;0.109472655;-0.23257658;-0.16423085;-0.058313943;0.14569668;0.071373776;0.045929734;-0.1338486;-0.102141686;-0.017755833;-0.064947516;0.14238672;0.053503152;0.13371213;-0.040980306;0.07412178;0.17443874;0.106702134;-0.03657487;-0.0840777;-0.11605863;-0.096007064;-0.25749275;-0.13432334;0.039763257;-0.031160552;0.10657124;0.015931942;0.06498569;0.085642986;-0.19144587;-0.020622676;0.037433036;0.05296776;0.026055088;-0.1912478;-0.039226852;-0.0012863025;0.09152583;0.20474884;-0.22655399;0.16697891;0.032673903;-0.06280844;0.059812464;0.15949698;-0.104102224;-0.009419933;-0.29368317;-0.12233934;-0.16316073;0.023856541;0.055317257;-0.32520568;0.10105246;0.06256698;-0.020690998;-0.18493518;0.022955716;-0.01400119;0.14276898;0.10400798;-0.029458467;0.06286315;0.07591115;0.10192787;0.020801604;0.031984385;0.034906223;0.18269996;0.24017793;0.029779542;-0.17998162;0.022317404;-0.017689375;-0.108326845;0.06939868;-0.21669278;0.086876675;-0.03434756;0.04063411;0.12087176;0.014044056;0.22551413;-0.15041433;-0.0010854962;0.07087196;0.09259239;-0.04401993;-0.20636372;-0.002473807;0.08798457;-0.08843175;-0.17399208;-0.17547993;0.11297613;-0.28597048;-0.0806763;0.1314816;-0.06535651;-0.03923201;0.04902584;0.12712842;0.016439525;0.19843403;-0.14017932;0.049207933;-0.027709685;0.07292715;-0.16918032;0.07612618;-0.12070933;-0.09693058;0.052060418;-0.07625035;-0.015106208;-0.3548762;-0.08931619;-0.07369258;-0.17786664;0.24389192;-0.09527317;-0.18662801;0.13306342;0.05280036;0.01559268;0.03636763;0.09100642;0.09286333;0.04800709;-0.100822136;0.036094803;-0.21660255;-0.04504782;-0.069938675;-0.12061797;-0.2216286;-0.35299617;0.014248048;0.1184942;0.17405398;0.036766645;-0.20582353;0.06776661;-0.14231801;0.1133085;-0.23558606;0.048368514;-0.22295813;0.094565;0.053552493;-0.06864972;0.19727348;-0.21567371;-0.12218997;-0.05332588;0.047732115;0.19716357;0.037212342;-0.16510902;-0.20206097;0.04307043;-0.1777106;0.022631137;-0.02203221;0.18949232;0.08391138;-0.047266092;-0.08106884;-0.047218014;0.043973546;0.12771718;0.01161419;0.033192568;-0.060541354;0.009001007;-0.021120466;-0.110944286;0.0331428;0.08763273;0.049884915;0.0761222;0.11792385;-0.05407041;-0.2212713;0.079036206;-0.008200286;-0.08004226;0.057265088;-0.10762358;0.122264564;-0.054497328;-0.016854703;-0.19032975;0.20041555;-0.06304312;0.16005747;-0.0068758074;-0.23466676;-0.09077701;-0.09814333;-0.09892311;0.14173794;-0.12633887;-0.051706478;0.20456043;-0.10242503;0.07743014;-0.096490555;0.07271709;-0.082481205;0.06652943;-0.09332072;-0.1907368;-0.023040712;0.08308491;0.20888865;-0.12170208;-0.09751539;-0.159351;0.10682422;-0.026252624;0.03727298;-0.016588794;-0.0014703054;0.008212332;0.08299963;0.100054316;-0.27213675;0.022668783;0.010813317;0.13457371;-0.0020249484;0.008065771;0.1625246;-0.2668277;-0.21668133;-0.007855231;0.0142162;-0.1340024;-0.026451191;0.046306994;0.0241942;-0.095799364;-0.0732495;-0.008055736;0.10150423;-0.08253331;0.08968468;-0.053495225;0.09326106;-0.06419018;0.02406879;-0.040052313;-0.16000819;0.031913042;0.04601861;-0.041644014;-0.11959453;0.13314356;0.10347277;0.19283436;0.15822212;-0.032207344;-0.08014888;0.12696463;-0.046776243;0.059760157;-0.044369318;-0.0075095436;0.11714429;-0.10293112;-0.16168538;-0.17302176;-0.036893517;-0.14451447;0.06486113;0.24047886;-0.060965456;0.051025763;0.15055442;-0.007706748;0.03423068;0.111015186;-0.12761986;-0.22359228;0.16032705;0.11069666;-0.0020905535;-0.05194846;0.12802655;0.035942625;0.15316062;-0.086297296;-0.10348626;-0.015361432;0.23283434;-0.022277847;-0.06980511;0.055405773;0.32100004;0.23241869;-0.027315332;0.042820703;0.16547875;-0.05347354;0.03005937;-0.053234853;-0.11066182;-0.07738172;0.03973335;-0.20367779;0.07172143;0.03668865;0.106685475;0.014281897;0.06163073;0.10177697;0.104515;-0.11831497;0.14054005;0.08948076;-0.0148768835;0.07853034;0.10800204;0.2926974;0.00837451;-0.09608502;-0.050375916;-0.044401873;-0.02998516;0.13935006;0.22094193;0.13699521;0.19065808;-0.06527274;-0.17121886;0.2634124;-0.07698312;0.0073954784;0.12045931;0.15489906;0.070640415;0.04804626;0.14782225;-0.09578861;0.014237572;-0.096213944;0.08450277;-0.15356606;-0.11872614;0.10251352;0.09048553;-0.1702787;-0.14864738;-0.14766216;-0.12140602;-0.07449649;0.22269544;-0.13589332;0.04388909;0.00016801187;0.17596428;-0.13022633;-0.07762323;-0.024684923;-0.11020435;0.2706654;0.019325498;0.117576726;0.15702055;-0.15803652;0.07139926;-0.2780926;-0.13356277;0.06477583;0.279108;0.048448067;0.18186747;-0.099080846;0.04012768;0.107265025;-0.081211284;0.124242894;-0.08642543;0.054791477;0.111628726;-0.04179281;-0.1632907;-0.16506127;0.092221394;-0.11256483;-0.15115872;-0.12177898;-0.062073305;-0.27739733;-0.09859805;0.024204321;0.13129812;0.035953138;0.08460127;-0.3342873;-0.1720274;0.007565368;0.013463684;-0.04257127;0.13835277;0.24396247;0.098857805;0.0129545415;0.12659614;-0.12525411;0.030693587;0.15624043;-0.09034217;-0.07026154;0.05177153;-0.20765516;0.013443762;-0.0029109486;-0.058146782;-0.08967228;0.021765528;-0.20984934;0.09327322;0.033853702;-0.06339809;-0.10188178;-0.18819185;0.054852612;-0.15080856;-0.013339948;0.15840134;0.025576612;0.14060874;-0.09012767;0.007526465;0.046276867;-0.18460138;0.05017888;-0.044156592;0.17136407;-0.10430614;-0.12975562;-0.022356186;-0.122637995;-0.14059433;-0.23209095;0.021476243;-0.08281877;0.19109544;-0.18876748;-0.09191459;-0.047886997;0.087246455;0.15827066;-0.135904;0.021007944;-0.18676268;-0.087212004;0.04533234;0.17474967;0.11379565;-0.29477772;-0.0020914667;-0.07614923;0.062663704;-0.032755174;-0.18045948;-0.11800561;-0.04740529;-0.102064;-0.09045193;0.041381042;0.056973897;0.12324514;0.06964131;0.07946035;0.15333378;-0.19279534;0.17138237;0.0026263928;0.026702862;0.11585948;0.07902718;-0.042574003;0.018058872;-0.1424672;0.23491429;-0.021554532;-0.012020819;0.16385041;-0.013991508;-0.20915227;-0.16525573;-0.28375846
0.14622815;0.0972249;0.06432014;-0.022164118;0.20500147;-0.11895302;0.05222707;-0.05283854;-0.013870708;0.11530911;-0.03824177;-0.0009937787;0.060806338;0.19353165;-0.053417005;-0.08873467;0.14167848;0.09461902;0.015387407;0.09157119;-0.06411875;-0.088771336;-0.023805615;0.14069268;0.16029307;-0.035152126;0.117095046;-0.084716685;0.013676291;0.15308534;-0.04319051;0.17214869;0.060386896;0.031190272;0.088364385;-0.07522502;0.10497292;0.23780622;-0.22640957;-0.06100892;-0.04631024;-0.25955182;0.03694148;0.18190493;0.12011691;0.018375138;0.28122815;0.14581853;0.07716911;-0.020650046;0.11181291;-0.17506258;-0.1577038;0.072411515;-0.12694806;0.01294531;0.031549107;-0.07047867;-0.06257297;0.011434552;-0.0059837443;0.02881417;0.10380103;-0.010429365;-0.170585;-0.036140744;-0.050713513;0.10363333;-0.056565247;0.20694341;-0.1736144;0.2649294;-0.13644008;0.24017231;0.12211246;0.046185315;-0.30043256;0.008444045;-0.037779372;-0.022073407;0.0065074232;-0.31866294;-0.13153958;-0.024239888;0.097246625;0.05098694;0.10563191;-0.07319183;0.07323568;-0.15462244;0.07214677;0.14389645;0.1060981;0.18294406;0.04781336;0.19365883;0.31007403;0.30107945;-0.11083541;0.08960544;0.0069143437;0.03259065;-0.12766108;-0.14856555;-0.07370929;-0.08559215;0.20720957;0.0022189275;-0.021244133;0.057391874;-0.17759462;-0.14251769;0.055846535;0.16152085;0.058829308;-0.2648231;0.048906054;-0.07918881;0.048402403;0.007918813;-0.25153723;0.12676755;-0.13139609;-0.037754178;0.15168741;0.093820766;-0.02234533;0.017169967;-0.0374805;-0.081783265;-0.09074106;0.14786154;0.059709433;-0.19033432;-0.010108539;-0.089647636;0.0061749746;-0.021700548;-0.16402833;-0.048599537;-0.101861745;0.06574259;0.07867593;0.04289909;0.03387089;0.012854115;0.03275819;0.051277637;-0.14029117;0.15830874;0.35793358;0.04511646;-0.16944622;0.033979077;-0.12349998;-0.080010995;0.047943633;-0.22806;-0.029585233;0.027894638;-0.09426597;0.005732558;-0.13951659;0.0056751724;0.00053418387;-0.002978066;0.08804588;0.026509505;-0.040863007;-0.09082654;-0.11257393;-0.0039309063;0.12951419;-0.034256108;-0.13332829;0.12737314;-0.16994993;-0.06841487;0.16984525;0.0068106144;-0.18157181;-0.1263082;0.07642419;0.16775413;0.3637229;-0.29104456;0.19390693;-0.09418858;0.11456956;-0.17167884;-0.046888772;-0.114480376;-0.10622863;0.12488609;-0.14643985;0.18234955;-0.17194739;-0.038612526;-0.030691583;-0.07433421;0.1286811;-0.08581581;-0.14730842;0.06275054;0.007136984;0.0052242307;0.020958036;-0.0737386;0.011436498;-0.03318773;0.052475955;-0.1716053;-0.12650956;-0.0071026906;0.21798576;0.22535068;-0.059459426;-0.40738687;0.027736662;0.08008639;0.19929835;0.14407484;-0.32173175;0.19051574;-0.07550215;0.006886118;-0.21943472;0.1973978;-0.11312457;-0.06432058;0.056974262;-0.036084566;0.3001887;-0.09807541;-0.07110275;-0.061457906;0.022907427;0.08469708;-0.12657984;-0.12704365;-0.19365062;-0.026401117;0.2015709;0.16289103;-0.1381077;0.06669467;-0.114111066;0.1150654;-0.12549585;-0.11986839;-0.03496932;0.09448701;0.06830131;0.03885361;-0.032530073;0.047072936;0.14399502;-0.0643149;0.0062163933;-0.014052503;0.027733302;0.06000574;-0.058838032;0.038301814;-0.10481808;-0.065887384;0.06873025;-0.062028572;0.060646877;0.22952369;-0.076798744;-0.00079787686;-0.045173742;0.018767444;0.310473;0.022982154;-0.0609153;0.0985991;-0.20957802;0.05301811;-0.11158722;-0.37734315;0.19451186;-0.014686898;0.027881335;0.25369567;-0.04297167;-0.08326733;0.0046059014;0.13370426;-0.07565157;0.08803044;-0.28685996;-0.10167103;0.102926016;0.07843641;0.093421526;-0.027607702;-0.20351139;-0.1207299;0.046127424;-0.0075367717;-0.30379525;0.0047781807;-0.019390967;-0.14570478;0.03813584;0.12947683;-0.22335151;-0.030970426;0.09372849;0.09372584;0.0913192;0.13157974;0.19029813;-0.16388364;-0.23388298;0.0477164;0.03185637;-0.014624311;-0.1916195;0.15280837;-0.14723808;0.052597262;-0.20414214;-0.05237024;-0.07665417;0.09878772;0.12951663;0.0057744524;-0.043197963;-0.15295492;0.08313295;-0.0048054713;-0.05154225;0.046303455;0.15629588;-0.17969991;-0.22958152;0.23532288;0.06420314;0.28148097;0.30055925;-0.03175046;-0.23579346;0.15713802;0.024545694;-0.06417974;0.031166427;0.07231037;0.20086353;-0.12635373;0.011386359;0.043009605;-0.04876054;-0.028258765;-0.16820829;0.18724324;0.086130545;-0.038461085;0.16768289;-0.1480055;0.14896128;-0.06301317;-0.104529835;-0.24039613;-0.0033506814;-0.019603278;0.09013563;-0.06918432;0.05817498;0.22786348;0.008920665;-0.08713777;-0.008942898;-0.23220953;0.07627746;-0.059688233;0.21186067;0.043768898;0.27295503;0.11705175;-0.094075836;-0.074260324;0.044409245;-0.01916258;0.033967886;0.14385627;-0.08635719;-0.20401834;0.012155601;-0.09569429;-0.08404992;0.13995564;-0.045240745;0.2205181;0.11400498;-0.10971559;-0.082196556;-0.162071;0.01339397;0.07256034;0.035489544;0.050897855;0.14775582;0.17715739;0.027016208;0.17421077;-0.062217128;-0.107770026;-0.0010075921;0.1522504;0.12674579;0.22661844;0.057195745;0.13543683;-0.30968302;0.30315608;-0.022100441;-0.034032017;0.042106614;0.20431373;0.013105592;0.027919458;0.05431118;0.03716843;0.044899274;0.035071846;0.077273175;-0.0521352;-0.031078508;0.17003936;0.107406795;-0.1858214;0.033024084;-0.06414551;-0.071255215;-0.0632728;0.22068942;-0.08790914;-0.0846939;0.052551474;0.049328625;-0.059395596;-0.06377924;-0.088089846;-0.18665601;0.11849652;0.037360113;0.07411799;0.15929312;-0.10191873;-0.054329485;-0.26610845;-0.035569265;0.072471194;0.19972965;-0.090877764;-0.0032140352;-0.07386973;0.10660399;-0.13282812;-0.023205183;0.2847636;0.036002174;-0.15489079;-0.026431171;0.087867886;-0.1321366;-0.2644715;0.07425476;-0.08603914;-0.06931502;-0.4041204;0.13279803;-0.47043604;0.07323433;0.03153468;0.22356232;0.10407534;-0.105342954;-0.19398363;-0.055453844;-0.04146322;-0.03730738;0.04503377;-0.049432125;0.21936117;0.17939936;0.04247454;0.059219785;0.050345715;0.019952474;0.16720678;0.036140386;-0.1447593;0.25752756;-0.026511984;0.060005132;-0.16676986;-0.064159;-0.11003516;0.0029009036;-0.26662436;0.23723313;0.010427322;-0.10508726;-0.07931218;-0.20189756;-0.07119637;-0.20399715;0.09305799;0.33159083;-0.006980323;0.13672934;0.14152089;-0.18718696;-0.13018434;-0.14755124;-0.0038863376;-0.011050109;0.26017192;-0.12098987;-0.2734929;-0.06769314;0.011099968;-0.19924697;-0.09861988;0.1321071;-0.109911494;0.18645962;0.024078494;-0.1270468;-0.05810846;-0.060931724;0.2526372;-0.19110772;-0.014139699;-0.22998345;-0.0727774;0.13984677;0.2165609;0.061676245;-0.24755308;0.03843446;-0.05540486;0.10231443;0.045087222;-0.07008493;-0.21522602;-0.083088495;-0.03251276;-0.119847834;0.13492599;0.15060401;-0.026905173;0.15951979;-0.059236057;0.0853195;0.017392818;-0.055956356;0.16447188;-0.122776516;-0.019333145;-0.06220639;-0.1318732;-0.03444337;0.09728819;0.05868687;0.09251251;-0.02649569;0.04218529;0.22154975;-0.25940153;-0.11890471;-0.099640444
0.3910866;0.026620543;-0.09018483;-0.025507923;-0.10293304;0.08565743;-0.30801126;-0.14925873;0.18453206;0.039814338;0.107556276;-0.2566157;0.23998414;0.106896415;0.36010277;-0.026235063;-0.033258583;-0.30761802;0.006694535;-0.2103056;0.2893583;0.4722739;0.5314099;-0.44442725;-0.038486082;0.24275883;0.11029645;0.09664814;0.22864728;-0.35698828;0.015133714;0.07137262;0.04612719;0.007827944;-0.6171665;-0.063797615;-0.356086;0.081239186;0.28766164;-0.12165822;0.20526308;-0.20725365;0.015866391;-0.1446406;0.03543289;-0.3782573;0.1732573;0.056854848;0.33313128;0.08444026;0.090015054;0.26453653;-0.024421709;-0.34913012;-0.09757752;-0.38732567;0.20469908;-0.29763046;-0.42453095;0.042105608;-0.080539055;0.077602156;0.10288054;0.11118827;-0.009207733;-0.03891298;-0.22262965;-0.01571577;0.1862408;0.029301059;-0.00045634364;-0.17895092;-0.19804299;0.15215524;0.0035330986;-0.015105227;-0.13605197;0.123652905;-0.32439324;-0.004117212;0.22912946;-0.15534174;-0.050063856;-0.10941758;0.18984455;0.121589795;-0.0035196147;-0.26953334;-0.21052864;-0.30334806;0.19793357;-0.2067333;0.18208602;-0.1877438;-0.08466364;-0.031839903;0.21409498;-0.19049937;-0.091373324;0.037467062;-0.02528116;0.21458755;-0.057956208;0.07099827;-0.13136108;-0.029712396;-0.44941947;-0.0786052;-0.16918877;-0.16179846;-0.06713525;0.22375073;0.09100512;-0.11457551;-0.177396;0.10522713;-0.09165667;0.25069055;0.04888606;-0.1782725;-0.008933967;-0.40750426;0.15545808;-0.15897352;-0.06088034;-0.5987611;0.26746523;-0.14875616;-0.39059544;0.17506126;-0.20328793;0.5529355;0.1546449;-0.15951154;-0.045052294;0.09233608;0.18420258;-0.039852217;0.20505105;0.20294382;-0.36396003;0.038302608;0.03438746;0.324086;-0.0635899;-0.12765989;0.119112365;-0.19849026;-0.07566332;-0.15775338;0.31147644;0.021167785;0.16385503;-0.35549062;0.029919626;-0.23994315;-0.12862813;0.101938345;0.3430759;0.020270674;0.16320954;-0.031787053;0.093846254;0.21360129;0.11483802;0.027345981;-0.140098;-0.075165965;-0.30416077;0.2572521;-0.041427072;0.22014709;0.5369805;-0.26539245;-0.11339044;0.065879956;-0.17340203;0.22769774;-0.2659755;-0.5428195;-0.26123726;-0.17667231;-0.105834536;0.15104318;-0.107154906;0.1228402;0.52656144;0.33144566;0.05436775;-0.016218461;-0.09087052;0.00898032;0.08538389;-0.26730654;0.026499948;0.38410363;0.08560408;0.2131257;0.3637723;0.0066029155;0.24745303;-0.0058898334;0.034382857;-0.17430863;0.08161972;0.14833935;-0.03985939;0.19530569;-0.07497184;0.07107535;-0.03052632;-0.16289394;-0.25068158;-0.099294946;-0.32460433;-0.31736156;0.12508774;-0.22899291;0.26175788;-0.026955184;-0.29112634;0.029933373;-0.0049252515;0.12879318;0.21604316;0.13935599;-0.14680062;-0.2630441;0.06463503;0.15271017;0.048061717;0.0050028753;0.13208728;-0.34067127;-0.0875835;-0.0013210501;0.09227199;0.013853495;0.3068636;0.45398048;0.094230436;-0.43336162;-0.26329374;-0.20571479;0.19539216;0.1331487;0.010464385;-0.032268718;-0.2603863;0.05428386;-0.008740778;-0.005950001;0.07356137;0.20657092;-0.13862005;0.2690891;0.1063317;-0.0037762371;0.15225211;0.06687119;-0.10413012;0.09849617;-0.027848052;-0.10474982;0.22176576;-0.08667789;-0.07581263;-0.26842737;0.25154433;-0.13849154;-0.03209424;-0.077354886;-0.36227578;0.07357668;0.11687585;-0.077530116;-0.087317325;-0.04664687;0.21509045;0.35782325;0.15190658;-0.36475813;0.34037653;0.005244522;0.0003814923;0.1474106;-0.04495976;-0.06537995;0.08647311;-0.24939957;0.047095448;0.03756051;0.25016513;-0.0751293;0.10399191;0.12621552;0.39746705;0.119385116;0.17927806;1.6846534e-05;0.11693946;-0.0025307515;-0.27284503;-0.15921584;-0.09833558;-0.28981003;-0.16097955;-0.22222948;0.18256846;0.044507165;0.3573957;0.11357552;-0.12370877;0.20074646;-0.3852204;-0.05920499;0.027936252;0.0689741;0.06705402;0.0881418;0.27435192;0.09457468;-0.039976127;-0.09080149;-0.01824016;-0.19551209;0.024793666;-0.11234371;0.12383075;-0.011021621;0.35100216;0.0013656534;0.4794168;-0.34776926;0.13562933;-0.2798781;0.22016324;-0.36366355;0.07290014;0.04205723;-0.068645835;0.12894179;0.29643413;-0.14380507;-0.045047823;-0.0842695;-0.17839143;0.08004251;-0.038646173;0.44759598;-0.004932595;0.15366688;-0.0009764834;-0.24938703;-0.06980648;0.14120446;-0.16267955;-0.11219736;-0.3051625;0.2706727;-0.1384033;0.01020669;0.58425575;-0.14649902;-0.014564382;-0.081354484;-0.22443302;0.049115207;0.15805177;0.23706499;-0.014850703;-0.053499706;0.69015664;-0.050221175;0.1570591;-0.18441759;0.40765744;0.17530574;-0.025652807;-0.10231474;-0.13683847;0.22883226;0.3258303;0.25300696;-0.04165826;-0.14743638;0.26746562;0.21402088;0.02786576;0.106478356;-0.054867517;0.35323238;-0.27447498;0.11693043;0.043730028;-0.019561648;-0.28916833;0.18594974;-0.35738394;0.2760122;-0.066401616;0.21223514;0.056982376;0.087675184;0.008063654;-0.06709616;-0.1734872;0.06688845;-0.08303298;-0.32711503;-0.009069046;0.08228474;-0.31745368;-0.37006825;0.10341114;-0.37469912;-0.0147855235;0.35450575;0.21641253;-0.034240786;-0.008683927;-0.29316047;-0.17992696;-0.22340226;-0.023796124;0.17166781;-0.3299508;0.009024796;0.08033876;-0.34908924;0.054203007;-0.16692777;0.099845156;-0.117248975;0.23653778;0.15899359;0.19631404;-0.1335196;-0.110711604;0.1917772;-0.08597244;0.034141194;0.048105426;-0.01834988;-0.0734667;0.038768213;-0.25215185;-0.07686022;-0.20810886;0.14913866;0.26441112;-0.2844255;0.10022911;0.14461271;0.12357794;0.07126923;-0.32604605;0.015802328;-0.27648503;0.18393701;-0.19159561;0.09591857;0.014805226;0.1527555;-0.3337762;0.06537203;0.22868225;-0.2344707;-0.2765218;0.02227367;-0.270742;0.038856048;0.097055495;0.30419347;-0.3127033;0.19193776;-0.17866895;-0.34412897;0.18397735;0.6558879;0.1570053;-0.362032;-0.08273201;-0.14047909;0.24958502;-0.07205341;0.14707057;0.26673147;0.21755277;0.18516077;0.121430464;0.05212611;0.019587064;-0.13635883;-0.103393346;-0.025270041;0.20537128;-0.0838042;0.054122977;-0.47251534;0.0038357559;0.45662084;0.19085743;0.2341753;0.30108988;-0.20959677;-0.2791962;0.28718245;0.3211291;-0.10244212;0.030557983;0.27123347;-0.12538123;0.0033471293;-0.22313501;-0.15663783;0.08966315;0.07378366;-0.12523744;0.28280622;-0.091852665;0.36426494;-0.04196523;0.06737694;0.016360153;0.38075802;0.22961646;0.046880487;0.23120308;0.16035062;-0.14951967;-0.037750553;-0.25131467;0.18264961;-0.31851473;-0.306667;-0.14133115;0.05914389;0.065854095;-0.29327196;-0.039090928;0.01213234;-0.12891927;-0.06280189;0.015395687;0.23077016;0.09570963;0.19782564;-0.13553523;0.1933334;0.002956539;-0.1161992;-0.2861827;-0.06081457;-0.4013589;-0.123382784;0.22505276;-0.040070355;-0.09046916;0.011626211;0.06341018;0.3067647;0.5405924;-0.089704216;0.39271888;-0.22700429;-0.13008778;0.20858392;-0.2748582;0.117416956;-0.0170377;-0.13383575;-0.36093357;0.0077947183;-0.018800657;0.35032082
0.38309956;0.17012726;-0.08952015;0.14035094;0.17315623;0.28767404;-0.23683369;-0.09171673;-0.04512766;-0.10430362;0.02042058;-0.32240856;0.07673785;0.12949288;0.30984092;0.03139109;-0.23174821;-0.28039786;0.14065593;-0.15981163;0.22537115;-0.06079158;0.18892944;-0.22809878;-0.042314276;-0.04382176;-0.073468685;-0.23453875;0.114405006;-0.00052878034;-0.16512914;0.19890511;-0.028472105;-0.14780588;-0.7916517;0.09888635;0.046434574;0.20558201;0.26017907;0.2707061;0.22102456;-0.09849562;-0.116449006;-0.13423695;0.09962193;0.055208843;0.24548139;0.2479518;0.2705045;0.064767085;-0.12271378;0.0045458907;-0.07834752;-0.20767748;-0.04440503;-0.25739253;0.27205443;-0.05760006;-0.11487488;0.20328866;0.07503551;-0.17787223;0.03312819;-0.12655573;0.20253876;0.04230133;-0.06184706;-0.21798578;0.21007796;-0.38502952;0.06018992;0.030092958;-0.04741178;0.28550684;0.024144877;0.15485184;0.091374405;0.257707;-0.3527921;-0.028048275;0.016812416;0.007339135;-0.27471304;-0.28890705;0.2021842;-0.04924314;-0.1571922;0.030272985;-0.334797;-0.12696563;0.25264582;-0.085517146;-0.05352229;-0.061363902;-0.14305587;-0.26008654;0.036200024;0.011639837;-0.075106375;-0.41023436;0.00909809;0.1006301;-0.15062127;0.13459861;-0.08795219;-0.012565813;0.027822385;0.05119992;-0.044214066;0.19377528;-0.16566388;0.3528202;-0.0389072;0.014182476;-0.18907481;0.27592602;0.026219336;0.52100885;-0.039280884;-0.00080996647;0.012779937;-0.16754101;0.42679012;0.019787146;-0.13756786;-0.33224818;-0.18940279;0.067165226;-0.2680749;0.070880294;0.07705776;-0.108091466;0.032120943;0.029634872;-0.08618047;0.2284471;0.17735054;0.051843178;-0.051768348;-0.035030346;-0.27039394;0.08294409;-0.10535287;0.22064146;0.18625234;-0.21858248;0.18053788;-0.50887585;0.12973714;-0.044895742;0.13654882;0.06772121;0.15277241;-0.3573141;-0.09209571;-0.1806592;0.089554794;0.060709387;0.08040439;0.09839643;0.20145582;0.06549744;0.043710366;0.16694438;-0.04285071;0.034187257;-0.13755688;-0.03971512;-0.09324388;-0.024254007;0.064364605;0.16983213;0.5216628;-0.029092735;0.055103533;-0.007364225;0.004859706;0.069145575;-0.012959537;-0.69370145;0.08969568;-0.038543276;-0.156066;-0.057237636;-0.089970626;-0.1324397;0.10665776;0.16301808;-0.17008933;0.22593863;0.042446546;0.15462096;-0.050702553;-0.2183921;0.21302141;0.0907438;0.07240696;0.18862431;0.39308715;0.09659707;0.28241432;0.09491823;0.07655667;0.00050282606;-0.005446459;0.5495131;-0.17168818;0.087352745;0.15524179;-0.06817914;-0.17981224;-0.047495358;-0.18753819;0.13274497;-0.2346553;-0.08405664;-0.25088271;-0.017298216;0.2059562;0.027357828;-0.46476042;-0.034821894;-0.0118867485;0.07088759;0.31933415;0.24523297;0.12570924;-0.18369117;0.15372299;-0.17205012;-0.17485227;0.13274452;0.18355739;0.012679953;-0.10622324;0.015167169;0.31261477;0.056679506;0.047175363;0.029137889;-0.07421164;-0.14609674;-0.09364626;-0.19357897;0.015449087;0.17019677;0.076511525;0.0074848067;-0.23229527;-0.00029436144;0.21086994;0.032721583;-0.100308925;0.43113473;0.060810126;0.2975853;0.009461889;0.05468884;0.1560765;0.12810117;0.13998179;0.16938527;0.038425736;-0.02666807;0.04056764;0.00836752;-0.04749527;-0.09901838;-0.016995842;0.17154247;-0.26089254;0.11422195;-0.22611019;0.1516945;0.06517498;0.46844703;0.053193316;0.026335249;0.096567675;-0.05308847;-0.1393296;-0.28739133;-0.09953478;0.18277939;0.0045661144;-0.14904265;-0.020743417;-0.034673;0.12395157;-0.2185762;-0.020235486;-0.18159297;0.09273318;-0.16279586;-0.03883239;0.0155751;0.3205093;-0.088120095;0.0067555355;-0.0073718056;-0.24176241;0.038332324;-0.0035085825;-0.18097728;-0.025571518;-0.2820529;0.06414965;-0.0028208606;0.000666888;-0.013259602;0.31133798;0.06350711;-0.044078745;0.057938006;-0.19341809;-0.24071391;-0.09147452;0.03147501;0.2623027;-0.018474897;-0.05659018;0.001078637;-0.31331012;0.03199264;0.17874992;-0.118931256;0.14068992;0.04480755;-0.10164323;-0.20956588;0.19851406;-0.045346916;0.23261169;-0.0032938912;0.28038383;-0.049073756;0.14864738;0.019402929;0.07772909;-0.33742243;0.08697674;0.1676456;-0.071778685;-0.07275982;0.15195498;0.2662293;-0.23587316;-0.03653722;0.018744377;0.25275224;-0.13972582;-0.0791633;-0.05994938;-0.120908946;-0.14514077;-0.13331513;0.013483063;-0.25413987;-0.3333869;0.3848392;-0.09458302;-0.029736893;0.3046241;0.095460534;-0.124796964;-0.14209521;0.018254543;0.3029696;0.031106908;-0.009066096;-0.24358241;-0.10207441;0.8319002;0.009772178;-0.004120413;0.27386746;0.4180921;0.10494876;-0.08803362;0.23724794;-0.09961418;0.08454816;0.14249715;-0.12876423;-0.02184412;-0.027015736;0.10331335;0.34158862;-0.087937504;0.30759263;-0.054779094;0.38006553;-0.27317593;0.043121677;0.3395372;0.018418826;-0.38219458;-0.27023765;-0.25365868;0.20904282;-0.13245887;0.016253995;-0.035092838;0.12705494;0.1745394;0.050629243;-0.4267527;-0.14873289;-0.27690852;-0.34547383;0.22855626;-0.048209812;-0.07199626;-0.3366079;0.080720246;0.0044359392;0.14819315;0.05258945;0.15308647;0.0888985;0.099725634;-0.21262275;0.15927514;-0.09840431;-0.10199394;0.18701409;-0.18058103;-0.01796607;0.10921321;-0.13437235;0.26069292;0.021424886;-0.121142544;0.004635489;0.25765947;0.055625804;0.07699455;-0.09727439;-0.1963377;0.1158751;0.075115174;-0.0067134853;0.13670918;-0.3050085;0.067095995;-0.022242837;0.0033551536;0.13574411;0.053330082;-0.09173204;0.43595928;-0.07886052;0.105655335;0.19318172;0.23370689;0.01746818;-0.18109336;0.37723285;0.080294944;0.016884437;-0.0009766048;0.18652523;-0.06736809;-0.025879819;-0.13623242;0.0944306;0.1508184;0.06468916;-0.12542225;0.12935317;-0.15608649;-0.07714127;0.027728237;-0.095352955;-0.064548545;0.07907923;-0.24616216;-0.34590283;0.35286623;0.29250526;0.2851365;-0.15639581;-0.06426204;-0.19786231;0.21326594;-0.009263017;0.03717081;0.115969345;0.26744208;0.06412889;0.28304026;0.13271408;-0.33420765;0.093681894;-6.9710215e-05;-0.24430838;0.2270102;0.02942168;-0.0604855;-0.61046267;0.026516235;0.20352176;0.081699215;0.09829887;0.20110963;0.106693186;-0.20359787;-0.03047439;0.2519487;-0.26729053;0.15656975;0.08001744;0.17878816;0.016748006;-0.16201428;-0.18117559;0.07536319;0.16846782;-0.09133436;0.340719;-0.15475366;0.23905088;-0.23041834;0.32663465;-0.036721326;0.056493975;0.083574414;0.1469295;-0.22656699;-0.20758022;-0.10998172;-0.006780098;-0.116108224;0.17946094;-0.2786073;0.0009439167;0.078502856;-0.23643583;-0.033529203;-0.05543086;-0.06857509;-0.48717177;-0.20660362;-0.2878313;-0.11655566;0.080113165;-0.13340142;0.02929314;-0.21982178;0.18747221;0.15546879;-0.13142557;-0.27550676;0.48823318;-0.10419216;-0.25698596;-0.071936;-0.3477964;0.2941568;-0.25617343;-0.07301541;0.119684234;0.24905922;0.041524824;0.26510304;-0.16176035;-0.35439453;-0.20769069;-0.11996576;0.100503944;-0.09343713;0.09294902;-0.2885358;-0.19409509;-0.024831865;-0.035453968
0.3127116;0.06503421;0.03715934;0.29711315;0.07755203;0.105633594;-0.01207683;-0.18983229;-0.076392;-0.13564788;-0.12796086;-0.37522274;0.16115952;0.034200534;0.09000543;0.178063;0.0051841624;0.126398;-0.013618242;-0.15448754;0.08446259;-0.101878405;0.14699785;-0.054962732;-0.06384246;0.1441739;-0.17582503;-0.25699654;0.14464103;-0.13174807;-0.14865965;0.020345356;0.11619131;-0.06305962;-0.44529894;0.15484749;0.09807089;0.29237762;0.17458431;-0.027877815;0.08071855;0.23586452;-0.039897382;-0.024953539;0.090136625;0.04353348;0.3472335;-0.09004124;0.4542837;-0.01638865;0.10513818;-0.034983594;0.13352044;-0.22198707;0.28293806;-0.3212734;0.15900685;0.079945326;-0.3908788;0.2564276;-0.061695427;0.06526836;0.051129792;-0.05815768;0.18428212;0.15630905;-0.15286492;-0.2990767;0.10872883;-0.16369113;0.019401886;0.024953188;-0.08503584;0.15786818;0.045639772;0.19094846;0.003841402;0.28717765;0.003677067;0.0037158576;-0.14016749;0.20441122;-0.1026819;-0.28890634;0.18094386;-0.07842637;-0.30831063;0.2560436;-0.29461682;-0.028799636;0.28091532;-0.25287545;-0.27454925;-0.01756781;-0.13787042;-0.15741763;-0.017748341;0.09299033;-0.050815403;-0.17681587;0.114731476;0.13306142;-0.11236927;0.14985333;-0.23504701;-0.05493095;0.14861296;0.1782255;-0.038074;0.053265605;-0.004911743;0.051166493;-0.00057206076;-0.105283186;-0.21158575;0.3660461;0.10205007;0.36830497;-0.08183427;-0.15530784;0.04564353;0.10104053;0.08473074;0.13050304;-0.092903495;-0.53797495;-0.1633374;-0.21160293;-0.6136701;-0.15067811;0.033677734;0.15071192;0.1333083;-0.13399585;-0.1747868;0.31528744;0.4396559;-0.05739893;-0.0981321;0.13462175;0.012630425;0.16384012;0.04575726;0.058358315;0.37908763;-0.14043663;-0.08904052;-0.2627939;0.3374359;-0.023662446;0.20465778;0.11444126;-0.2348235;-0.30497253;-0.045772385;-0.10670406;0.098796465;0.25374892;0.14848468;0.12632772;-0.014494975;0.2052244;-0.061825365;0.1104661;-0.012964711;-0.09568015;-0.030986879;-0.056493424;-0.16690983;0.04114636;0.14846863;-0.074036;0.45491916;-0.11763749;-0.006595464;0.15084606;0.019118581;0.23476605;0.10868544;-0.4511319;-0.043090727;0.023182048;-0.08546848;-0.01588986;-0.21441501;-0.08856261;0.24765642;0.51369894;-0.31986108;0.1019285;0.020507598;0.28645426;-0.25335267;0.049948268;-0.044599276;0.30609265;0.1880992;-0.033979602;0.42534003;0.24249983;0.115329035;-0.12483721;0.069223344;0.012189714;-0.13338433;0.4889885;-0.08830867;-0.1869732;0.30402237;0.099176064;-0.33978748;-0.048315194;-0.1627715;0.13072692;-0.0011440163;-0.009030331;-0.009003442;0.30169377;0.24991763;-0.06838717;-0.28346333;-0.2278869;-0.14458188;0.23660167;0.08836306;0.0029351423;0.41817272;-0.59104675;0.006163731;0.031702347;-0.01615918;0.1686556;0.12920249;-0.1399614;-0.07088734;-0.028767105;0.112511754;-0.113950394;-0.20575294;0.06614361;0.008154306;-0.062234774;-0.14711617;-0.15199067;0.017308345;-0.09699937;0.10821535;0.1077445;-0.11677946;0.14088751;0.29028657;0.019842945;0.093525216;0.19953135;-0.15479198;0.035694078;0.031342417;-0.03678037;0.09636174;-0.01350818;0.14233941;0.35805112;0.037094425;0.050515693;-0.11142409;-0.06070411;-0.15688306;-0.1053906;0.064907044;-0.063730605;-0.08998379;0.29113105;-0.18138964;0.004818372;0.17053796;0.28509966;-0.09103219;0.07753273;0.031170249;0.120675296;-0.073151946;-0.15105046;0.13004555;0.062510334;-0.117009595;0.23196971;0.04947641;-0.05015284;-0.068867825;-0.258767;0.022759434;-0.15177716;0.08499605;0.04587885;-0.082274705;-0.15414596;0.13240394;-0.06910502;-0.019472634;0.057740107;-0.013164407;0.048739683;-0.12184135;-0.14429073;0.10333214;-0.22261389;-0.2718232;0.041730072;0.003766058;0.07697003;0.31642818;0.08722545;-0.3211856;-0.04577314;-0.23996116;-0.09946916;0.036477845;0.09618853;0.20942952;-0.014466147;0.1920436;0.079379454;-0.23710534;-0.14062573;0.27125257;-0.0012862185;-0.040138356;0.25727448;0.16955255;-0.16821267;0.20683663;0.085372;0.1614145;0.10973205;0.08326634;-0.06164945;0.059086856;0.24911046;0.26979145;-0.20771533;0.022854358;0.25140902;-0.09777273;0.05099836;0.16781902;0.18576694;-0.09857945;-0.07937203;0.03850237;0.1536395;-0.31709725;0.016997227;0.06619035;0.04307112;0.15575229;-0.2207459;-0.013229235;-0.36319807;-0.49774805;0.27475804;-0.059141785;0.015315991;0.28238866;0.14129823;-0.07767409;-0.21880873;0.15578812;0.118044525;-0.12536322;-0.24277583;-0.22336125;0.022085486;0.48229352;-0.19223939;0.023464732;0.068490826;0.50276804;-0.058354024;-0.1652582;0.02118638;0.048374593;0.034477193;-0.16538148;-0.32544744;-0.13308804;0.07183327;0.1453794;0.32431617;-0.012809808;0.023290051;-0.15088858;0.45247245;-0.15889822;0.18119933;0.19181505;0.0015554011;-0.057355933;-0.016929423;-0.3498506;-0.27894697;-0.20917284;0.27551693;-0.1371089;-0.13352527;-0.056442164;-0.24126779;-0.44911107;-0.009315685;-0.03729441;-0.11898848;0.105543256;0.05409319;-0.31032252;-0.2058956;0.0025176546;-0.19732355;-0.085432954;-0.14474021;0.16961779;0.005345716;-0.016161006;0.14167868;0.12155424;-0.10466815;0.18440476;0.29680204;-0.32944864;0.0059434734;0.14903876;-0.149943;-0.078550965;-0.12758054;0.188413;-0.07616028;0.27492854;0.088472486;0.0052207815;-0.2027605;-0.23376955;0.014216186;0.061849404;0.20740826;-0.04767648;-0.07302327;-0.028741762;0.20357026;0.21212238;-0.016518915;0.11877124;0.016911538;0.32158792;-0.1994506;0.06296781;0.34089467;0.10751034;0.044305168;-0.14774008;0.04916745;-0.13425297;0.12643231;-0.13278103;0.16468248;-0.14524819;0.036611862;-0.0006071384;0.19270362;-0.1342372;0.25853786;-0.07284455;-0.00913525;-0.1655797;-0.17711979;-0.09617288;-0.120327815;-0.019775169;0.18023233;0.0045997812;0.060021065;0.021291295;0.17300373;0.28588855;0.16092385;0.0644975;0.011799323;0.30247736;-0.009380429;-0.05672889;-0.06736674;0.06481843;0.024241082;0.11310279;0.3073463;0.10970303;0.1007374;0.10011339;-0.23575987;-0.05196624;-0.107499145;-0.08136998;-0.019337764;-0.18948811;0.28290057;0.116628215;0.15212373;0.29410216;-0.09941518;-0.13203838;0.105257235;0.3832678;-0.3726673;0.306891;0.022570616;0.19989438;0.20244265;-0.15009582;-0.36590025;-0.05194498;0.10521349;-0.1885463;0.25297162;0.14079979;0.050144322;-0.20431958;-0.09254066;-0.3484439;0.016439743;0.1570814;0.23192401;0.070035554;-0.26390684;-0.24838765;-0.15858857;0.042156126;0.121407755;-0.034010343;-0.069996014;-0.006820786;-0.23374774;0.16241252;0.27525604;-0.2077836;-0.1654534;-0.32483608;-0.2883319;-0.11815192;0.12502381;-0.10787138;0.09580578;-0.05635054;0.32192662;0.18396567;-0.1431468;-0.21644385;0.4095943;-0.2858751;-0.014972787;0.12316932;-0.4847318;0.28986412;-0.18051249;-0.13962814;-0.16612245;-0.104948856;-0.18247846;0.23554993;-0.1397307;-0.20713384;-0.08428395;0.038201567;0.29536128;0.02600778;-0.038545012;-0.31237546;0.21684271;0.18545556;-0.15667072
0.18904205;0.14915746;0.42684755;-0.061762586;0.075360544;0.2201981;0.07538481;0.06150699;0.12561448;-0.024659166;0.2364975;-0.19787362;-0.30949694;0.13970003;0.14370328;0.19184282;-0.28340065;-0.12005702;0.032893423;-0.2010656;0.31096724;-0.17816484;0.25975108;-0.12255608;-0.03688685;0.015239704;-0.035285257;-0.101302065;0.06126837;0.03384045;0.08829737;0.2045009;-0.035364147;-0.0146871805;-0.12879197;0.12190151;-0.16735189;0.31856167;0.09039764;-0.17276873;0.06952955;0.1179399;-0.27345443;0.21239258;0.14374694;-0.40691608;-0.015873944;0.14425938;0.21841198;0.1682651;0.12191027;0.007959311;0.0221888;0.16909684;0.30852702;-0.25857982;0.230498;0.093796864;-0.34075806;0.10599382;0.38121355;0.16409528;0.09238328;-0.09779004;0.25290567;0.17093028;-0.12172227;-0.20783976;0.34087405;-0.361029;-0.19104664;0.2960174;0.017711842;0.33492455;0.07771201;0.041890256;0.07376225;0.11348243;0.050113387;-0.11622431;-0.027059106;0.23591638;0.11502292;0.017884333;0.1594985;-0.12540406;-0.3078651;0.0062957266;-0.032016054;0.1480464;0.22656444;-0.07180517;-0.09792;-0.25656354;-0.08682078;-0.029050805;-0.33489674;0.042194035;-0.33896354;-0.12282888;0.04094879;-0.020369617;-0.15984544;0.12145131;-0.09868668;-0.032118957;0.17059879;0.3353868;0.25495264;0.18956739;0.15550466;-0.22040394;-0.22231466;0.007879028;-0.10546333;0.2456584;0.08757309;0.16594216;0.0019169895;-0.24836569;0.19134645;0.036285244;0.34057674;-0.20280695;0.0937851;-0.44693404;0.0015157653;-0.13814875;-0.2690232;0.038015902;0.038110886;0.28050926;0.052741703;-0.03249041;-0.1742469;0.22881755;0.19328211;0.3491461;-0.010372823;-0.089268334;0.17121953;-0.07658079;-0.09031084;0.22285573;0.50892687;-0.030025586;-0.025859814;0.0879028;0.62393045;0.08633139;-0.0024194526;-0.13349572;-0.055770602;0.03547128;-0.16951832;-0.09977629;0.11470101;0.05068883;-0.14677083;0.01871292;-0.010532604;0.086396754;0.036663473;0.033249542;-0.1807936;-0.00771737;-0.21204443;-0.08127831;-0.11466035;-0.04389118;0.13192648;0.20582703;0.27130672;0.0800026;0.012312006;-0.06529599;-0.002467425;0.1219078;0.05335024;-0.59038585;0.059377484;0.08011259;-0.21609937;0.22532196;-0.08230974;-0.042367943;0.20003247;0.23266147;-0.07075321;0.1071259;-0.103478506;0.116709605;-0.40265977;0.1499565;0.11695141;-0.061978653;0.0202828;-0.14080322;0.1886175;-0.03512231;0.10644343;-0.04262515;0.273627;0.26617342;-0.018885534;0.09745995;-0.09651135;-0.004061197;-0.06617908;-0.0010429398;-0.12784281;-0.047800567;-0.24063784;-0.032281425;0.37506428;-0.051788926;-0.094071046;0.5192252;0.3007442;-0.0032455018;-0.057283983;-0.047187228;-0.0689506;0.12538332;0.022460083;-0.1489178;0.12402976;0.06609217;-0.4299157;0.21543448;0.12698548;0.13007553;0.11279858;-0.14409767;-0.2207481;0.10662089;-0.10845762;-0.07957573;-0.23088847;-0.17311545;-0.03340851;0.13520728;-0.30993646;-0.10105323;0.16406688;-0.15833297;0.2549983;0.04291675;-0.01674617;0.0015978422;0.38375378;0.07647894;-0.07727896;0.36561424;0.009457903;0.018522713;-0.027833793;-0.07312504;0.096022606;-0.1987112;0.30383927;0.3603914;-0.026587611;-0.14506187;-0.07598471;-0.12005597;-0.15750636;-0.08501994;0.16266637;-0.23459017;-0.16681643;0.27424017;-0.02756623;0.24859463;0.27699763;-0.16140316;-0.10805979;0.17556243;0.07827244;-0.031227311;0.042290423;-0.13184327;-0.037146024;0.014893009;-0.25016314;-0.10177103;-0.08230077;-0.018602364;-0.2582208;-0.0007925781;0.10961653;-0.14587574;0.17905933;-0.14363155;-0.12558699;-0.09439797;0.4053229;0.17882611;-0.21316034;0.0436709;-0.24475083;0.09306523;0.006953054;-0.13142897;0.14627661;-0.33901316;0.01576294;-0.019872595;0.025698833;0.13375598;0.069797024;0.029043218;-0.35569078;-0.18202251;-0.123140804;-0.15274644;0.096805364;0.10624712;0.2733544;0.03951418;0.14161196;-0.021122161;0.07675767;-0.0023571062;0.2311111;-0.2835905;0.120631784;0.045522213;0.14031124;-0.0896709;-0.0040874565;0.23727722;0.24419835;-0.04061638;0.29195994;-0.0152152935;0.19183902;0.29127118;0.059432875;-0.062599905;0.29123092;0.088865064;-0.0025277403;0.035051886;0.0066378457;0.20327961;0.0975017;-0.30831286;0.035737026;0.134936;-0.16959055;-0.15667984;0.042472698;0.09183348;0.031160314;-0.11150793;-0.2542336;-0.20434195;-0.26505324;0.15197401;-0.040072642;-0.024738086;0.5365899;-0.073158845;0.07027891;-0.18202719;-0.01696759;0.14011984;-0.071446605;-0.058358084;-0.19513738;0.09903013;0.11124512;0.21487945;-0.32132384;0.17932771;0.2828671;0.13208653;-0.25956553;-0.042379864;0.1704202;0.2037912;0.20772214;-0.18605839;-0.25065723;0.1986066;0.042848825;-0.2759357;0.0177646;-0.016947135;-0.13938053;0.03045858;0.008656628;0.12326168;-0.22091235;-0.26684174;0.08063162;-0.03216324;-0.30073687;-0.2259654;-0.07232493;0.17500518;0.01190491;-0.23052742;-0.1310237;-0.20526126;-0.28311282;-0.07871458;0.01797682;0.1813295;0.24811648;0.17883874;0.08561597;-0.3834678;0.17617184;-0.26390234;0.00594999;-0.13429128;0.09545185;0.06357948;0.1599224;0.096505366;-0.07997456;-0.064797334;-0.14178863;0.19004895;0.08795592;-0.007557475;-0.06441932;-0.24535483;0.03999416;-0.20271988;0.0090677645;0.17199986;0.088437505;0.12086774;-0.21414632;-0.4255602;-0.26290324;-0.07720375;-0.08090648;0.17798483;0.02300486;0.056967568;-0.031677004;0.06713719;-0.033317193;0.17020462;0.11374969;-0.13011904;0.15523598;-0.39266005;0.18082091;0.35878912;0.24761006;0.002969872;-0.014495574;0.071294405;-0.1454626;-0.0983987;0.053042673;-0.24828266;0.046133243;-0.106946126;0.02996444;0.044490118;-0.122566;0.3788598;0.22669677;0.06554942;0.15718764;0.01814724;0.04463273;0.07353357;0.046410605;0.11372654;0.48313144;-0.23265626;0.21556388;0.025790373;0.22657782;0.03583982;-0.05911549;-0.09725731;0.04762329;0.113203876;-0.07993563;-0.07846984;-0.2308827;0.083173096;0.027568763;0.13779752;-0.147565;-0.10290531;0.084335975;-0.08108438;0.094204284;-0.28530458;0.011810095;-0.15929994;0.09708256;0.20302282;0.11393243;0.12823991;0.23907958;0.072213516;0.11900316;0.07949287;0.10631142;-0.070161454;0.38814124;-0.0048940643;0.1548783;0.30730864;-0.12792826;0.049850855;-0.20123653;0.025230613;-0.1064846;0.062460564;-0.10906366;-0.117660195;-0.1519276;0.41929907;-0.31513745;0.13975607;-0.06416993;0.23424128;-0.15450245;-0.101351626;0.038082026;0.014111339;0.008283818;-0.03450007;-0.31558624;-0.16078249;0.12430172;-0.13931431;0.15394843;-0.1882483;-0.20075889;-0.21869652;-0.2371794;-0.37021545;-0.11679205;0.394678;-0.11261732;-0.12881374;-0.19332232;0.071221314;0.039034102;0.12267948;-0.17260747;0.3326468;-0.28731936;0.08721243;-0.00412047;-0.37976038;-0.2009832;-0.24560334;-0.03174898;-0.17940639;-0.6548125;-0.15093859;0.21611145;-0.43381682;-0.34072915;-0.17046835;-0.085944004;-0.15151194;0.07193746;-0.16296524;-0.12866451;0.24147834;0.01035058;-0.34914678
0.4276499;-0.108860545;0.28768483;-0.23758017;-0.03026577;-0.031657375;-0.17659001;0.0049353633;-0.050337803;-0.24595216;0.090889625;0.0065064;-0.2407902;0.029396726;0.01700371;-0.12702633;-0.15477183;-0.14644827;0.062288113;-0.3030977;0.0256693;0.0071328282;0.08976152;-0.11677218;-0.11734251;-0.048802566;-0.065258205;0.008464324;0.11406161;0.0038626457;0.09980717;0.13863163;0.00872113;-0.23731433;-0.30548945;0.15127921;-0.4797395;0.23465084;0.13294882;-0.2191389;-0.14069022;0.23652129;-0.146136;0.040115885;-0.15958992;-0.5372821;0.070970215;0.0672097;0.107317604;-0.17321096;0.12077596;0.14974566;0.14447509;0.17000751;0.17625166;-0.24822831;0.02032119;-0.2941421;-0.15483794;-0.04964082;0.32278696;-0.11113283;-0.021092072;0.022069834;0.16712034;0.26002875;-0.10148548;0.023167199;0.10665839;0.025028715;-0.09594377;0.1825043;-0.048211507;0.15519802;0.22431637;0.13715278;-0.18195425;0.23349427;-0.26669547;-0.03372011;-0.015698815;0.29994056;0.19408788;0.14317508;-0.044996306;-0.04676591;-0.1071689;-0.022122888;0.09219041;0.13759707;-0.085465714;-0.0783189;-0.097498804;0.08011706;-0.2053706;-0.37283856;-0.28336203;-0.1412894;-0.1967554;-0.013004607;-0.09575995;0.05143574;-0.17000172;0.063855626;-0.099994354;0.15106748;-0.015209331;0.06805126;0.020419564;-0.04675218;0.20188576;-0.13388857;-0.16966419;-0.28117624;-0.3223367;0.12732096;-0.11995263;0.08955625;-0.072368234;-0.0694633;-0.04345104;0.25928813;0.14949295;-0.010518006;0.17283568;0.15796405;0.07868286;-0.103255965;-0.8706435;-0.40440372;0.086645834;0.1669944;0.09646037;0.19401237;-0.25155684;0.23209296;0.27230704;0.11113926;-0.08131697;-0.054576725;0.23603408;0.0013760662;-0.0047799256;-0.08986735;0.5925149;0.08640577;-0.15935564;-0.1515079;0.4135487;0.0071996935;0.18468447;-0.101921126;-0.2485309;0.14101505;0.095810845;-0.15311803;-0.017160373;0.08803344;-0.14472339;0.027149059;0.021921081;0.06861798;-0.20566864;0.12095084;-0.15141045;0.12135673;-0.09594167;-0.2053008;-0.36648482;-0.04587829;0.15018094;0.018043645;0.011165366;0.076344825;-0.36446995;-0.09508692;-0.12035397;-0.04733712;-0.08213785;-0.3771211;-0.05309304;0.36312425;-0.124574184;0.09723122;-0.14365566;-0.029036725;0.22325933;-0.15750736;-0.2583104;-0.104785316;-0.16251907;-0.00685145;0.00541669;0.06920865;-0.043528836;-0.07215737;0.16587901;-0.23563185;0.3321383;0.17370003;0.2814549;0.02797941;0.12186111;-0.09530882;0.066133864;0.10255481;-0.13903989;-0.24717042;-0.10674666;-0.35736698;-0.1619477;0.0033113472;-0.25713548;0.19052267;0.24839266;-0.16190702;-0.20247577;0.21666151;0.03535484;-0.06789903;-0.02582666;0.11958319;-0.23097816;0.006965947;0.0419375;-0.15970945;-0.0608728;0.019631954;-0.5130011;0.32584357;0.11908012;-0.02899342;0.20119627;-0.1695529;-0.08479482;-0.006203541;-0.22934942;0.10565177;0.007556361;-0.19861424;-0.027532866;-0.022979109;-0.37184423;0.0376601;0.34532076;0.0418285;0.09821975;0.091025434;-0.3685475;-0.12187895;0.23170958;-0.06252148;0.07034901;0.37283155;-0.039611995;0.16975352;-0.14587629;-0.009680283;-0.11943906;-0.24351029;0.2432851;0.19210534;0.03961237;0.041818716;-0.03375169;0.046987016;-0.023437604;0.0036047294;0.07390398;-0.014343437;-0.12270515;0.123094454;-0.3463919;0.00014411699;-0.089889385;0.04686273;-0.013622505;0.13632438;0.102833524;-0.065817825;0.1077335;0.020807037;-0.2155112;0.016163353;-0.19304062;-0.09537455;0.15776885;-0.14778355;-0.17989963;0.16410805;0.15956077;0.10413357;0.047572542;-0.055824522;-0.2570323;-0.051096205;0.212051;-0.27978015;-0.24595219;0.058259655;-0.16992584;0.053791687;0.0768633;0.118530385;-0.10268229;0.14333184;0.08327277;0.010310527;0.065572694;0.27341366;-0.1246073;0.052583907;-0.44116867;-0.23515819;-0.27393025;0.020503398;-0.17024802;-0.06560318;-0.023216268;-0.25167355;0.2243741;-0.09931649;0.13950743;-0.1650901;0.16622642;-0.35239694;0.022355966;0.3367637;0.14565487;-0.21847057;0.07457361;0.24881485;0.0483126;-0.16306616;0.37399104;0.26665127;0.29371494;0.4247403;0.15974554;0.010394911;0.13791142;0.07643441;-0.0455959;-0.06489703;-0.10483662;0.12896208;0.04657677;-0.24986893;-0.056793004;-0.08780724;-0.10554811;-0.13483097;-0.034555875;0.05899795;0.030946529;-0.12427421;-0.030081823;-0.078845225;-0.21587501;-0.036100686;0.3037118;-0.016331315;0.34554467;0.31304783;0.09564768;0.028863618;0.051661294;0.041354492;-0.2971055;0.1015247;-0.11239101;0.098852135;-0.3634114;0.18458033;-0.093801446;0.16772275;0.119045414;0.2094202;0.08364582;-0.22518857;0.22281045;0.10581995;0.11704836;-0.14096847;-0.024287105;-0.31528953;0.041759428;-0.26480904;0.011365059;0.006228885;-0.17047606;-0.1114352;0.08658707;0.021318892;-0.034871213;0.05516118;-0.07267759;-0.10263307;-0.22614494;-0.38724205;0.09052955;0.2597994;-0.09587996;-0.033976253;-0.14299865;0.0010750466;0.026458856;0.05423633;0.041962534;0.23726685;0.3494148;0.23881623;0.23144276;-0.22406133;0.07133023;-0.4076231;-0.18053326;-0.0007033333;0.18558624;0.16569804;0.101860605;-0.0688049;-0.00936676;-0.08130248;-0.035054974;0.013350922;-0.055919316;-0.087452054;-0.19947879;-0.08940549;0.009784606;-0.28422686;0.22431378;0.11330504;0.27599564;0.05591834;-0.29629892;0.03480387;-0.15008186;-0.05707407;0.0058325646;-0.034792237;0.11139104;0.04694203;0.16384706;-0.02628973;0.01697323;0.032696646;0.30459628;-0.17831348;-0.0024403974;0.1585386;-0.08020765;0.40132862;0.16288637;0.088645615;0.043112915;0.100867026;-0.15893243;-0.0750323;0.061673217;-0.02346088;-0.15283056;0.16366835;0.0071607535;-0.13234617;0.077254534;0.25811034;0.088689744;-0.21959801;0.25589892;0.00091741607;-0.17242414;0.14780463;0.10290587;0.27879417;0.31775132;-0.19024357;0.30974147;0.20215878;0.062498238;-0.10219185;0.12227534;-0.08388749;0.1536019;0.22036982;-0.1820945;-0.04047831;-0.31383336;0.019015368;-0.06112518;0.10972806;-0.11076849;0.17819388;-0.03864066;-0.1645147;0.08089673;0.09709741;0.06245173;0.25216433;0.21379682;0.17661479;0.04721441;0.18000555;0.47332686;-0.32845852;-0.051363934;0.051472448;-0.17628762;-0.13355011;0.32915372;-0.0721599;-0.08072647;0.17632805;0.023562761;0.04539045;0.009679707;0.19686735;-0.011754565;0.118150875;-0.13081911;0.2000391;-0.28190136;0.22283342;0.05252227;0.002005949;-0.11023205;0.34169358;0.03226912;-0.030289445;0.26493737;0.13851488;0.18893328;0.0385361;-0.08992658;-0.19479199;0.10651905;-0.08456272;-0.0754472;-0.10006936;0.01833801;0.028806625;0.079820685;-0.35622182;0.008838747;0.25549564;-0.14094312;-0.15064728;-0.20953068;0.34206632;0.037179053;0.08624014;0.10150978;0.07134876;-0.14335401;0.12075965;0.039089464;-0.18220331;-0.3852575;-0.107995205;0.011939558;-0.22403799;-0.4750887;-0.03179944;0.2257982;-0.17362589;-0.10921688;0.059451964;-0.071069315;-0.019251348;-0.11238819;-0.36129972;0.03450875;0.23930871;0.14599393;-0.2329769
0.16651082;-0.041476566;0.00061099406;-0.44767344;0.02457814;-0.18178616;-0.12587638;-0.03882137;0.1935827;-0.0973637;0.33126453;-0.32963142;-0.16256206;-0.123934984;-0.13446587;0.06529273;0.30200446;0.012866545;-0.19564262;-0.26243922;-0.17209117;0.22144005;0.27168837;0.068783335;0.012354955;-0.060089473;0.0097695;-0.19452614;0.08847034;-0.21851954;0.1254103;0.08624041;0.06313641;-0.2043787;0.0757909;0.010811783;-0.2513327;0.23878391;0.05869314;0.09417842;-0.14699782;0.15362556;0.007127205;-0.08686166;-0.15694085;-0.28879637;0.18221842;-0.036595963;-0.070194066;-0.08441855;0.2892462;0.13139471;0.16907379;0.31594086;0.20789221;0.034211818;0.10523136;-0.19287473;0.043161564;0.1018853;0.2668778;0.11823823;0.03269363;-0.15313464;0.18483233;0.18349555;-0.016015863;-0.21933402;-0.037563708;-0.25603065;0.08058889;0.18081884;0.14698356;0.143522;0.06388534;0.12520996;-0.045182396;0.15169187;-0.22899143;-0.012240857;0.17055634;0.17568134;-0.1152721;0.008689216;-0.28861177;-0.010262038;-0.07757786;0.08617312;-0.02724958;-0.07645548;-0.13017932;-0.038165096;-0.08200846;0.011228847;-0.20639606;-0.2977817;-0.21945433;0.20086236;-0.104603395;-0.10874918;-0.33493808;0.06942061;-0.34569383;-0.277881;0.008157145;-0.10452738;0.14076303;0.06984;0.06139815;-0.17010607;0.11388348;0.022239309;-0.23196213;-0.63231295;-0.20754911;0.12979595;-0.14368546;0.11206273;0.117054164;0.2762752;-0.16984569;-0.024225835;0.225795;0.06754373;-0.058484793;0.27254102;0.07428532;0.1329773;-0.60926753;-0.42812693;0.32436866;0.13758387;-0.22498116;-0.013565749;-0.26356724;0.13699251;-0.19747184;-0.11788504;-0.020370513;-0.109258495;0.034897156;0.22986469;-0.1325469;-0.10915482;0.36623272;-0.060676895;-0.20282201;0.031759962;0.18816058;-0.02097675;0.061592683;0.13348264;-0.19067387;0.0045914426;0.17111686;-0.045869146;0.019515678;0.09328219;-0.07027425;-0.12396162;-0.14433761;0.12789837;0.21383432;0.15668839;-0.26883495;-0.0048629255;-0.107672326;0.08356697;-0.04473585;0.019131087;0.21707946;0.18560076;-0.05925277;-0.23910686;-0.4390643;-0.02703779;-0.16878107;-0.06816651;0.132925;-0.12603423;0.031241482;0.42866448;0.033635776;0.095448285;0.007859325;0.03839468;0.14853287;0.22857293;-0.23800258;-0.1731726;-0.04632303;-0.14181215;0.15503787;-0.0024387795;0.031501435;0.09623362;-0.06740748;0.064751424;0.2103874;-0.041905314;0.35352662;0.05556811;0.047605414;0.21155709;-0.06565881;0.19919637;0.0014768668;0.18491164;0.13834667;-0.289472;-0.13237579;0.27352205;-0.21827145;-0.028138323;0.3467424;-0.06456037;0.12874576;0.32680085;-0.05969656;-0.20480493;-0.16113622;0.11100928;-0.016475258;-0.047833446;0.16369803;-0.010896547;-0.31001508;0.07589291;-0.44712672;0.19077054;-0.23229685;0.082878724;0.30027774;-0.48295262;0.083897546;-0.12632743;-0.42683968;0.07564136;-0.23615229;-0.08529299;-0.02072147;0.065263264;-0.058295812;0.10400364;0.08144013;-0.37052223;0.0023307682;0.2288557;-0.33260852;-0.08575736;0.1766138;0.00017704497;0.13656293;0.15337147;-0.16898282;0.2838621;0.07352411;-0.10431141;-0.038328547;-0.29169062;0.066960596;0.0917597;0.13511533;0.026407402;0.04228022;0.16354707;0.042632513;-0.17241277;-0.015179246;0.16763721;-0.1601641;0.050640855;-0.52500397;-0.010501902;-0.04567262;-0.23197384;-0.22494327;0.06480524;0.008308922;-0.09849632;-0.022404639;0.008889169;0.022405267;0.035784364;-0.23965141;0.102030545;0.22767395;-0.03922209;-0.14575574;0.14910036;0.04989299;-0.114343144;-0.050845962;0.1125519;-0.17354965;-0.027732458;0.29761764;-0.23101372;-0.033550784;0.16458476;0.045356773;-0.12853168;0.12857611;-0.14103666;0.0033459016;0.16289957;-0.014926114;-0.00732126;0.20276302;0.30720022;0.03874018;0.030068481;-0.07385321;0.022536237;-0.03544785;-0.14554292;-0.246308;0.11361452;-0.11933992;0.026295807;0.2325565;0.0060900366;0.018736443;0.099948496;0.22599664;-0.20803383;0.14867869;-0.0046899477;0.13946779;-0.15365757;-0.1634786;0.11842525;-0.012338022;-0.11990925;0.10771845;-0.07310427;0.36549783;0.19040164;0.036286913;0.09209571;0.03298651;-0.09661118;-0.13355748;-0.39043447;-0.25059614;-0.10538447;-0.16232482;-0.3118586;0.0070112394;-0.038048558;-0.01312077;0.024525672;-0.117062576;0.040949836;-0.014473725;0.0913552;-0.11295965;0.010408372;-0.2447243;-0.08331747;0.3199136;-0.010369855;0.036843263;-0.10317131;-0.028614422;0.20679702;-0.23284595;-0.2552935;-0.15810783;0.088482246;-0.14833897;0.14606857;-0.3121457;0.1639191;-0.22034006;0.2158763;0.058972735;0.1509041;-0.005815946;-0.30784985;0.11379438;0.38701013;0.040413678;-0.19493036;-0.063648365;-0.282239;-0.07308614;0.22649898;0.07615922;-0.1387476;-0.24726266;-0.31969056;-0.28596234;0.065469496;-0.18143503;0.09467023;-0.098171115;0.10694052;-0.08252273;-0.35634726;0.043480113;-0.08821578;-0.1932189;0.14713392;-0.008159453;-0.043090563;-0.009154081;0.016798183;0.13898699;0.0843759;0.34346065;0.13289143;0.20080672;0.11119299;-0.008736143;-0.047724824;-0.10952217;0.036632154;-0.12630193;0.112033404;-0.119346656;-0.06974608;-0.21120669;-0.0052951896;-0.06521044;0.016687378;-0.07275432;-0.17381468;-0.07941733;-0.5002464;0.06466995;-0.049821254;0.00087621534;0.09016008;0.2147398;-0.0837818;-0.19874519;0.27492422;-0.055201642;-0.12031712;0.027796458;-0.14525107;-0.005243339;0.03535564;0.24969988;-0.0124670975;-0.038924135;-0.04580027;-0.030088624;-0.17756069;-0.0012722097;0.017555928;-0.3329472;0.20461643;0.12677808;0.11336212;-0.028285807;0.38892916;0.118825376;0.0117538385;0.0054309657;-0.1340795;0.1497525;-0.08353579;0.072891645;-0.06420577;-0.13723312;0.13692953;0.12394418;-0.03698156;0.2502596;0.3151671;-0.264951;0.0764706;0.09349186;0.2325011;0.16487475;-0.1619214;0.15032199;0.06451482;-0.18303053;-0.1979506;0.12510675;-0.30854943;-0.019292628;0.0320872;-0.08731644;-0.03554895;0.03336044;0.024032557;0.18703735;0.11103829;0.07137001;0.115973145;0.007180156;0.01986945;0.122097574;-0.084700994;-0.07752842;-0.18211138;0.1991132;0.13725272;0.02395752;0.18964416;0.064484;-0.15149808;0.27566075;0.20728152;-0.16121127;-0.17456807;0.24403608;0.13758431;0.001879798;0.1687688;0.065935396;-0.13923688;0.075818606;0.22906576;-0.1390008;0.14684619;-0.008034019;0.18257059;-0.19807188;-0.0055190977;-0.2458178;-0.02081227;0.10444957;-0.054107748;0.091337495;0.21263562;0.055327754;0.14374003;0.20746835;-0.45197758;0.07156249;-0.27173543;-0.16402481;0.13184766;0.052834626;-0.0060142414;0.14516263;0.11375713;-0.041899208;-0.019910067;0.16032961;0.21874525;0.17852612;-0.028895855;-0.4727751;0.19114617;-0.21980934;-0.018255956;-0.06220406;-0.04441802;-0.12880094;0.12837787;0.17445986;-0.010509184;-0.36107028;-0.07926727;-0.034002457;-0.08107091;-0.12124958;-0.06314678;0.31472674;-0.25813895;0.045569792;-0.15337375;0.24731494;0.22392234;-0.052325934;0.13395597;0.011655797;0.12267853;0.40437692;-0.31504318
0.04154876;0.23195757;-0.065018475;-0.15681455;0.3036195;0.046942372;-0.039062276;-0.031983234;-0.12529112;-0.18546827;0.36822057;-0.45445332;-0.33535218;0.034248613;0.12938522;-0.0026237008;0.10016219;0.25260293;-0.021964936;-0.08659128;-0.098258674;-0.048518043;0.09229308;0.057709787;0.09638978;0.051734623;-0.07203351;-0.07453276;0.06543076;0.20294112;0.22989734;-0.12747271;0.14289768;-0.51364106;0.01273343;-0.055364043;0.28043452;0.03832853;-0.12596746;-0.03545578;-0.061443254;-0.03023014;0.10563323;-0.28695083;-0.15078627;-0.3569898;0.298366;-0.30708402;-0.091559514;-0.1732454;0.16886523;-0.003447431;0.043825008;0.054895997;-0.009944925;0.24679974;-0.04425895;-0.31204852;-0.07314943;-0.013193383;-0.024615325;0.17036502;0.10009639;-0.12957592;0.053822633;0.21355174;0.046394683;0.005508269;0.035286922;-0.3229832;-0.042081483;0.16661377;0.13634548;-0.24397384;0.19220869;-0.19861662;-0.046754844;0.26211974;0.046266854;0.1313292;-0.22260784;-0.075919285;-0.12068311;-0.2061656;-0.10389836;0.16289248;-0.08028011;0.2905926;0.06350462;0.09742234;-0.23580842;-0.1367325;0.08238531;0.26377288;0.16542506;0.028821632;-0.22884342;-0.033239923;0.22524467;-0.0353002;-0.2500995;0.06710538;-0.20483282;0.04136598;0.1663241;-0.12072545;-0.027585793;0.22896843;0.07247862;0.07395769;0.003445497;0.14040875;-0.15049936;-0.018537896;-0.09380787;0.1224414;-0.022626229;0.10776304;0.073109075;0.37680697;-0.15187661;-0.14688827;0.16303156;0.1855709;-0.123699896;0.29361898;0.059319124;0.16244239;-0.17255789;-0.28468418;0.31595492;-0.019604104;-0.2827128;-0.07782737;-0.19065966;0.0871687;-0.066909656;0.05023099;0.15909839;-0.2842258;-0.18351872;0.10428562;-0.11719114;0.050683986;0.27373904;0.16226895;0.047807597;0.21647118;0.23669462;-0.0978058;-0.019914063;-0.10391221;-0.24425331;-0.069730826;0.05029232;-0.02199074;0.22898722;-0.059073742;-0.03277153;-0.21232396;0.17905006;0.18895641;0.13927758;0.10788986;0.045659024;-0.0842849;-0.3869485;-0.08884752;-0.06536919;0.019573186;0.18725263;0.23819849;-0.076209664;0.12786923;-0.34990552;-0.039051306;-0.21739537;-0.0058305995;0.45970863;-0.42770925;-0.14167224;0.124738336;0.16574325;0.015162731;0.04232599;0.10395996;0.019301593;0.20600677;0.025366897;-0.34263757;-0.23001404;-0.014991679;-0.15833466;0.03089558;0.1482331;0.08518896;-0.03442262;0.35027495;0.22266985;-0.03922151;-0.004620291;0.18498765;-0.049414527;0.25253585;0.028191192;0.2834262;-0.04935166;-0.051814318;0.016072089;0.15811545;-0.10082308;0.18963103;-0.27829108;-0.039178286;0.2742972;0.17436756;-0.019330295;0.30239555;-0.0817786;0.039319266;0.08969924;-0.09113277;-0.21567868;-0.16856268;0.19303699;0.21156104;0.14726171;0.020247262;-0.23173153;0.0835261;0.05938669;0.2954555;0.10082159;-0.23317418;-0.04528665;-0.19042842;-0.25813487;-0.17036793;0.033972383;-0.04326948;-0.18314986;-0.19190772;0.5307766;0.024376936;0.31108972;-0.40976194;-0.049248073;0.2553519;-0.23110622;-0.2706552;0.24928932;0.16809571;0.10855544;-0.16850226;0.2086106;0.13742585;0.039389424;0.1503289;-0.24286267;-0.06884836;0.09707531;0.1753707;-0.012496656;-0.04836161;0.06558102;0.04626309;-0.12969019;0.22524767;-0.11342043;0.060995817;0.11250273;0.038462646;-0.086841814;-0.3052508;0.22455703;-0.2047064;-0.20199037;-0.055713266;0.07582105;-0.30172366;-0.30189782;0.13252716;-0.20318678;0.14538147;-0.07310606;-0.11867256;0.29509836;-0.14388578;0.049493108;0.2155232;0.11261937;0.013082124;-0.033785924;0.1989578;-0.13898963;0.05779502;0.3508856;-0.059659455;-0.006792956;0.041379392;-0.061985184;-0.10219277;-0.022432454;-0.17832553;-0.21480411;0.060628735;0.03963117;-0.06669254;0.12856506;0.20106967;-0.03027577;0.03338748;-0.06726924;-0.09479242;-0.007922068;0.0069510713;-0.20082967;0.09092811;-0.022835702;-0.04988129;-0.06998082;-0.10590447;-0.08499978;0.012900855;0.08471731;-0.17713384;0.22152674;0.10150528;-0.04962246;-0.10546046;-0.20600787;-0.46368918;0.08931561;0.08289682;0.08212861;-0.1577635;0.2502391;-0.06912633;0.11452938;0.10858364;0.13664801;0.14257696;0.19228992;0.16562237;0.15717977;-0.29731077;-0.023579134;-0.2794386;0.023540458;-0.06345956;0.10986464;0.0513534;-0.23032533;-0.13297132;-0.21092288;0.12992261;-0.29410568;-0.051303368;-0.24086013;-0.049326748;0.15740496;0.056154396;-0.20622861;-0.15452538;-0.05347639;-0.080421805;-0.110237435;-0.1163769;-0.053217582;0.16935988;0.2378804;0.15789588;-0.16203456;0.17222784;-0.02950535;0.18175258;-0.17472112;-0.03351321;-0.37871492;-0.27473682;0.06232582;0.17289291;-0.04418735;-0.27904373;-0.19166164;0.04031456;-0.017910466;-0.10257057;-0.0015827032;-0.08522843;0.00027078073;-0.30926678;-0.18478683;-0.047827605;-0.00035658284;0.022292506;-0.4436129;-0.16879624;-0.22789362;-0.30161074;-0.11324515;0.06186446;-0.23724684;0.10256839;0.21179222;0.09033075;-0.1321155;-0.22396772;0.4519165;-0.06419844;-0.049592726;0.1547743;-0.036820486;-0.0862328;0.22850783;0.11321894;-0.18023954;0.15587014;-0.1640731;-0.10547339;-0.23075259;0.023383029;-0.24019384;-0.0917077;0.005957301;-0.095246136;-0.08026205;-0.08346789;-0.00567233;-0.44571796;0.11563262;0.13302831;0.084234454;0.1275317;0.028104285;0.020755839;-0.061126553;-0.039556503;-0.09463223;-0.15746468;-0.0053682434;-0.36003876;0.046153236;0.023370985;0.17539993;0.15639503;-0.102610074;0.25363368;0.025430135;-0.1356326;0.046521157;-0.23370285;-0.35259062;-0.12053295;0.12897733;-0.09768503;-0.13066314;-0.008021474;0.04776041;-0.023182768;-0.15102682;-0.054627333;-0.03318629;0.061904196;0.041858003;0.20776525;0.0317013;0.014974083;0.145589;0.08412476;0.3805273;0.21367359;-0.014069694;-0.13540538;-0.0946295;0.14673011;0.13037433;-0.5493797;0.00970886;-0.14932781;-0.23995785;0.13877858;0.044406958;-0.1581149;0.35226104;0.012272994;0.11465604;0.09497879;-0.018001458;0.18155521;0.2590218;-0.03850077;-0.02205501;0.12583366;0.19906594;-0.15852404;0.05728609;-0.13233903;-0.031611133;-0.38697186;0.27674055;0.32065156;-0.21062995;0.24089421;0.13242094;-0.33617198;0.08890111;0.16244249;0.14738937;-0.33794242;0.21578345;0.06959648;-0.16793798;0.12747039;-0.14652765;0.035762113;-0.1756977;0.43774197;-0.11792953;0.24049291;0.17790699;0.045885075;0.027351605;0.044157684;0.10042238;0.07787556;0.10974963;-0.3348771;-0.10813684;0.18315929;-0.18723041;-0.04783957;0.13838528;-0.34583476;-0.08443864;-0.45247766;-0.26325548;0.03384812;-0.18670437;-0.21386424;-0.04991355;-0.20838593;-0.046847176;0.07903226;0.061082724;-0.088459074;-0.112159796;0.047975842;-0.24427289;-0.11631548;-0.23828022;0.010016351;-0.0888259;-0.01316703;-0.08153781;0.14828728;0.06862705;-0.080579065;0.031015556;0.24145767;0.012345042;0.28583416;-0.31375238;-0.13306691;-0.10997199;-0.23604985;0.16134405;-0.008117371;0.36109495;0.17104995;0.01899634;0.048815038;-0.2686899;0.366482;0.29759073;-0.10103958
-0.12515995;0.26038542;-0.073738076;-0.2249051;0.061698586;-0.15128328;0.17194067;-0.018873286;-0.32478213;-0.10695406;0.22145797;-0.5189191;0.0417282;-0.17002301;0.25470433;0.13508195;0.2770262;0.32827178;-0.087369956;0.10481973;0.083624154;0.024897361;-0.03610996;0.099313065;-0.15924501;0.21721032;-0.12239117;-0.06101839;-0.09086836;-0.1551105;-0.003527328;-0.08905345;0.057093475;-0.43444368;0.14565104;-0.064835444;-0.17347693;-0.16080613;0.17031021;0.011832988;-0.07913041;-0.08186724;0.16572928;-0.18715517;-0.1255178;-0.022439575;0.14556448;-0.33199373;-0.011401676;-0.115800485;0.37563363;-0.057612803;0.09209514;0.09000602;-0.054798298;0.07375656;-0.33782178;-0.24242434;0.024409927;-0.09691322;-0.13015774;0.13245459;0.2694637;0.0011189086;-0.07238124;0.2523481;-0.1095983;-0.08367158;-0.19265904;-0.015550212;0.25078428;0.09113003;0.045457542;-0.15986443;0.13791773;-0.12854718;0.13358484;0.062374912;-0.27067488;0.046798527;0.14137933;-0.12280358;0.2472554;0.21677907;-0.0040569757;0.14699636;-0.00897942;0.2691621;0.15991738;-0.080184534;-0.21214081;-0.036013454;-0.05005201;0.21647516;0.37399215;-0.08486087;-0.19910392;0.12933357;0.16361329;0.17636047;0.09127641;-0.1373421;-0.13055372;0.13186662;0.0018184504;-0.17029314;-0.032973196;-0.10651514;0.033013344;0.016804783;-0.12262288;0.021396765;-0.19397838;-0.32034767;0.0755963;0.00861068;0.08584141;-0.0059619225;0.032917164;0.45579553;-0.23733106;0.034407217;0.23759776;0.14400308;0.03542426;0.4548511;0.34524024;0.2003691;-0.2734969;-0.0780405;0.08756506;-0.040041998;0.07009876;-0.17047347;0.033304427;0.13173597;0.025874183;-0.37884855;0.13084556;-0.17028175;-0.076967485;0.09329434;-0.16575143;-0.04044485;0.26127005;0.060973916;-0.19571596;0.17660004;0.1646657;0.011089603;-0.06376949;0.06425071;-0.22511165;0.122024275;-0.22021684;0.04811704;0.051089663;0.042451084;0.03435923;-0.028554041;0.10141826;0.105079174;0.18167283;0.20444681;-0.0068997256;-0.06935871;-0.27900478;-0.14523679;-0.25171173;0.07622379;0.13643144;0.106000006;-0.20164046;-0.021005476;-0.3858965;0.043307457;0.0045203157;0.03110201;-0.0012622948;-0.07014102;0.0934598;0.290788;0.002089759;0.05202042;0.14923197;0.2375434;-0.062420297;0.38226268;0.0006148476;-0.14157265;-0.036827747;-0.063394986;-0.28508168;0.22612974;-0.0010961683;-0.029425649;-0.026344592;-0.2045752;0.123325594;-0.16613626;0.10399489;0.10795645;-0.19887044;0.007779156;-0.24548832;0.07112995;-0.14174758;-0.027481351;0.09412074;0.27707714;-0.17502587;0.10804241;-0.23751214;0.15878752;0.32133773;-0.24489377;-0.10974747;0.18475555;-0.28564078;-0.0054557854;0.012523862;0.0009728527;-0.11302101;0.028302742;0.057248503;0.12811008;0.4292645;0.0634882;0.06815379;0.21816438;0.026184456;0.22486056;0.19626358;-0.16488585;-0.049995035;-0.024681944;-0.40294686;-0.082721464;-0.08794789;-0.31206778;0.0365894;0.09542443;-0.2811061;0.0147137195;0.1495979;-0.08824255;0.173987;0.2986773;0.21466349;-0.26218525;0.36517382;0.27997765;0.0070985514;-0.10718331;0.12884729;-0.11899255;-0.011558633;0.34299025;-0.28761905;-0.13893537;0.07698426;0.04535408;0.13299735;0.22900121;0.25654015;0.20365995;0.012501514;0.18650453;0.13771643;-0.53515065;-0.006291565;0.1648515;-0.37067255;-0.36924803;0.013943339;-0.17516036;-0.08617763;0.0788295;0.14370906;-0.2607938;-0.002783721;0.16980043;0.18493983;-0.047004543;-0.072023846;-0.09227814;0.111011885;-0.13698949;0.13347153;0.078307025;-0.26787332;0.102563955;0.103648074;-0.28124243;-0.11605664;-0.009874676;0.3060983;-0.06770241;-0.0076236627;-0.003871594;-0.11239821;-0.07186603;0.11005044;-0.07949609;-0.063092776;0.11259329;0.032874297;-0.08786387;-0.291089;0.15078767;0.05012396;0.016917894;-0.071037516;0.1291426;0.18800434;-0.2051003;-0.16135427;0.097402684;0.22283912;0.13773604;0.13191715;0.08689853;-0.18061529;0.22645894;-6.0458435e-05;-0.2908667;0.1616597;-0.036312554;-0.07127358;-0.15443364;-0.25820684;-0.11982263;0.047427528;-0.06054269;0.40649483;-0.11550122;0.24271458;-0.27116796;-0.035011478;0.22496785;0.252947;-0.15630187;0.02296408;0.19614114;-0.011895609;0.09280575;0.20336397;-0.35940853;-0.015856761;0.019689145;0.51598096;-0.031782046;-0.18968628;0.05700006;0.13747653;0.18225336;-0.16484532;-0.039140437;-0.35276172;-0.019576369;-0.009712709;-0.19874273;-0.31166425;0.0062645967;-0.19409414;0.020598533;-0.18612605;-0.118714795;0.14570722;-0.1256832;0.04721925;0.22201982;-0.008126541;0.2347385;-0.15223125;0.21071263;-0.13175625;-0.04550419;-0.3300839;-0.029432999;0.16655195;0.02861452;0.022839282;0.037215505;-0.1186935;0.3202738;0.12964281;-0.29773408;0.071120776;-0.09341797;-0.0914273;-0.14692594;-0.07748967;-0.2772249;-0.066289596;0.16199683;-0.06666026;-0.31119284;-0.21464308;-0.09893623;0.19537154;0.023535913;-0.036517955;0.12648562;0.4267908;0.23053452;0.17016612;-0.57628065;0.25279316;-0.17343207;0.13073151;0.09725301;-0.045263268;-0.17137846;0.20950696;0.12961812;-0.007925369;0.1067907;-0.039630346;-0.19727647;-0.16291295;-0.23068617;-0.1270888;-0.18691865;-0.06018048;-0.0153535195;-0.1472736;0.18565021;-0.028400179;-0.4582429;0.14060725;-0.077901065;0.15832362;-0.05001278;0.07380643;-0.1536424;-0.05862868;-0.018356971;-0.04389343;-0.14303397;-0.03607559;-0.06854974;0.16520527;0.041737564;0.10471482;0.10761989;0.013464857;0.05186383;-0.07047582;-0.13844034;-0.25005284;0.09391534;-0.3193173;0.013018072;0.15390249;0.14685896;0.2121728;0.042421427;0.00014271382;-0.091468394;-0.027485942;-0.012945514;0.16577333;-0.104528636;-0.1424568;0.28617927;-0.053697836;0.089618444;0.12232062;-0.028767982;0.3864815;0.29559582;0.03570419;-0.23350465;-0.09473417;0.11247852;0.13515595;-0.1341939;0.00029961378;0.1362307;-0.19186027;0.2917839;0.03470362;-0.13371694;0.038924176;-0.0040924973;-0.33053413;-0.2974214;-0.06372447;0.070381396;0.07005393;-0.22387609;-0.2036773;0.0052319225;-0.14024313;-0.10025195;0.019026801;0.086789936;0.04768029;0.16193087;0.11066917;0.2797045;-0.02114233;0.04115776;0.124375656;-0.20718709;0.06331579;0.3418054;-0.0044217445;0.21484111;0.24362986;0.0002807295;-0.25978136;0.13713798;0.24395669;0.1542108;-0.08419273;0.32608792;-0.24365585;0.20628032;0.094397776;-0.00940758;-0.010388502;0.07493515;0.007619746;-0.0055274693;-0.03667367;0.059352368;0.01276533;0.42041484;-0.26772285;0.041323896;-0.13644743;-0.018316168;0.094786234;-0.34113884;-0.19341938;0.046915032;-0.04486748;-0.18287288;0.039022274;0.07647546;-0.12997198;0.06870461;0.0035655652;0.010581607;0.073448464;0.16080448;-0.31748486;0.037660282;-0.085601546;0.039260503;-0.16108136;-0.21303806;-0.07034847;0.056671366;0.23367697;0.19435234;-0.34832242;-0.2815423;0.18844092;0.061345834;-0.5224352;-0.13197842;-0.37531972;-0.07959442;0.13251433;-0.056200422;0.08849096;0.28128693;-0.12333719;-0.1308876;-0.17105716;0.31543732;-0.04478546;-0.35429814
-0.30461112;0.09304279;-0.16338241;-0.24434395;0.23843351;-0.08400124;0.07595193;-0.16201384;-0.27956513;-0.14229847;0.25634348;-0.13581191;0.08231952;0.03417248;0.1582162;-0.11594564;0.15322715;0.1987652;-0.031635936;0.11655204;-0.24687615;-0.25737762;-0.15164392;0.17819801;-0.062109552;-0.0463242;-0.053245235;-0.12201537;-0.008808241;0.08923566;-0.11380411;-0.32779196;0.098704696;-0.36499864;0.2878919;0.027771695;-0.37238625;-0.10053277;0.13510281;-0.25604025;-0.329019;0.018813064;0.043830484;0.007229941;-0.117646396;-0.033035513;0.034841724;-0.1762303;-0.08601517;0.2533157;0.1060148;0.038555153;-0.026248008;0.03636701;0.05370934;-0.19779891;-0.23809828;-0.25023633;0.23585792;-0.17705508;0.07141157;-0.12025708;0.21653281;-0.07092184;-0.17651825;0.34874225;-0.135664;0.04602022;0.029970054;-0.43594152;0.10380655;-0.06563332;0.1617716;0.060998127;0.29983497;-0.021435874;-0.14476985;0.052600976;-0.2283853;0.12279732;0.2797704;-0.02626524;0.048757594;-0.17429484;-0.07450227;0.13109991;-0.1690526;0.3649599;0.1774047;-0.04414763;-0.25428444;-0.027724084;0.060127918;0.10941226;0.32691476;0.10976641;-0.080915354;-0.020343788;0.28345886;0.14031084;-0.13801122;-0.10416618;-0.07808282;0.17945492;-0.21167414;-0.04629674;0.080723375;-0.12721884;-0.0047841556;-0.08560134;-0.082827285;0.2421801;-0.12649964;-0.2398241;0.085109964;0.29039705;-0.16674592;-0.059612874;0.057862494;0.08353428;-0.1874085;-0.032046758;0.22203074;-0.08948808;-0.23599406;0.4792849;-0.13857949;0.29231006;0.19720435;0.10455892;-0.07541101;0.22270101;-0.052713145;-0.40041187;-0.060179204;-0.0117527405;0.1045686;-0.12880883;0.030243387;0.052176226;-0.34008133;-0.0037433305;0.10395344;-0.061292447;0.21308276;0.18003054;0.015663661;-0.20678511;0.020524371;0.029920897;0.1268104;0.006067637;-0.21539615;-0.21069972;0.021548428;0.030124864;0.10356905;0.15054747;0.021716375;0.017634591;0.14946532;0.10716564;0.16050155;0.100701325;-0.07011955;-0.22246133;0.146604;0.0023434048;-0.25717208;0.12880327;0.18935463;0.17408523;-0.27629757;0.039250042;-0.0072059217;0.023553802;-0.098479815;-0.031218795;0.009386244;0.00086554216;0.13421494;0.2296352;-0.051943477;0.0050832583;-0.017591912;0.13409647;0.19679107;0.032215443;0.027321776;-0.21319133;-0.15929203;0.09604911;-0.20898463;0.09062876;-0.1010907;-0.022092175;-0.12825306;0.08016208;0.02616198;-0.02710657;0.24244983;0.008785104;-0.14470933;-0.18612693;-0.44383645;0.23605289;-0.15199165;-0.2115965;-0.14381826;-0.2494721;-0.084198125;0.0028275566;-0.13649814;0.35999185;0.030302169;-0.015487248;-0.17626603;0.29393917;-0.21903144;0.2218818;0.14024988;-0.10698972;-0.081754334;0.081582375;-0.033312082;0.04734292;-0.12323323;0.26541528;-0.14080617;0.060379375;0.17854044;0.19123104;0.17083764;-0.34034163;-0.13626207;-0.092939146;-0.19689165;-0.12208824;-0.38472012;-0.2560652;0.117449865;-0.2379211;0.12452857;0.033662587;-0.09392548;-0.17819916;-0.19148856;0.16614778;-0.04106814;-0.15259732;0.33643118;0.27580413;-0.04519263;-0.035145156;-0.017659348;0.2274065;0.066093355;-0.06263134;-0.07321279;0.16293937;0.15478513;0.14331251;0.013966309;-0.024010058;0.2767969;0.2170129;-0.08051002;0.19304217;-0.015042713;-0.5631898;0.11716418;0.15346621;-0.12959641;-0.22567539;-0.07234389;0.12298467;0.0008910875;0.009901571;0.11830488;-0.11796557;0.15011919;0.19401468;-0.05066077;-0.06870217;0.113201246;-0.09840216;0.2496656;-0.08195154;0.13199876;0.16658445;-0.0954527;0.025430037;0.24170977;-0.16863048;-0.041658837;0.023958849;0.26215774;-0.20987536;-0.13039413;-0.18323645;-0.25723127;0.03160118;0.05394339;-0.080920465;0.08802473;0.13074665;0.06535331;0.12657568;-0.39704573;0.14167112;0.33533415;0.05527463;0.12575005;0.00051747;-0.09485635;0.0042969044;0.025593584;0.10319967;0.21745431;-0.021357626;0.12090809;0.1272867;-0.30313718;0.20153351;0.049335673;-0.12124347;0.21901104;-0.12121387;0.06156773;-0.03953563;-0.23051229;-0.18512909;-0.079230875;0.15851583;0.30726418;0.12080812;0.28330347;-0.3513373;-0.10666152;0.37936717;0.14955896;-0.081428565;0.28614208;0.17919165;-0.027192537;-0.07641449;0.032687534;-0.17420156;-0.050080772;-0.031884488;0.43272814;0.12101724;-0.08079951;0.11061845;-0.17579031;0.14222346;0.12268498;-0.11257904;-0.17545749;-0.12085403;-0.1038846;-0.1511851;-0.12637088;-0.16234082;-0.19416973;-0.10314668;-0.117608316;0.04487801;-0.08381466;0.1639995;0.23380177;0.06819125;0.026061578;0.28045425;-0.023264341;0.1653518;-0.20394339;0.28824958;-0.2577997;0.039582532;0.18397176;0.19185436;-0.037852608;0.035079546;-0.1787871;0.20609525;-0.0007449674;-0.27543736;0.087635085;0.05730933;-0.13207845;-0.16936341;-0.04666008;-0.28285152;-0.11498234;0.07090321;-0.07190035;-0.13045965;0.030841753;-0.12359507;0.13097456;-0.019665873;0.017524261;0.12426024;0.20276526;0.008328074;0.15646975;-0.3058788;-0.09416631;-0.31401694;-0.02994733;-0.2424077;0.06609391;-0.0038269155;0.38993537;0.14828901;-0.25696787;0.030948192;-0.02898676;-0.19778602;0.10466285;-0.10948787;-0.1299042;-0.03576019;0.084785566;0.101827145;-0.03850213;0.0924979;0.13139068;-0.5367086;-0.21894749;-0.22834547;0.316169;-0.07833436;-0.2570112;-0.19209835;0.03245719;0.13801031;0.15658657;-0.1241096;0.033777352;-0.28397685;0.2489664;0.0051177023;-0.032030646;-0.38593853;-0.03609029;-0.006790546;0.12422396;-0.0496436;-0.12964796;0.07645317;-0.18688956;0.04492291;0.21964653;-0.13394313;0.057163954;0.00084639696;-0.008153028;-0.02724163;-0.07097435;-0.02512469;0.3863552;-0.15079646;-0.052006114;0.30818444;-0.05524275;0.18822543;0.1877024;-0.19044101;0.22325131;0.29509324;-0.06225866;-0.022562863;0.16553532;-0.021858538;-0.10822567;0.06633489;-0.088465616;0.09314377;-0.1171379;0.23111753;-0.10418666;-0.009436639;-0.19006126;-0.03278786;-0.13007742;0.061381005;-0.10899771;-0.0020640013;0.24734432;0.0037202807;-0.339462;0.11369361;-0.29259872;-0.17072141;-0.015213615;-0.022141991;0.004373026;-0.31870183;0.018093193;0.15330705;0.15244138;0.094184496;0.118066706;-0.0021269734;0.005600616;-0.017608043;0.26124734;0.47740042;0.11742223;0.031584438;-0.2540162;0.3058034;0.009516974;0.14929584;0.15593567;0.27344796;0.033597436;0.12628704;0.17006624;-0.03157342;0.13223997;0.12026315;0.116423;-0.080298714;0.013359957;0.025872936;0.1815255;0.22859937;-0.093954325;-0.1137524;-0.0209846;-0.0048405402;-0.33757886;-0.23617738;-0.2552933;-0.044777494;-0.23944427;-0.14844428;-0.10394938;-0.48988003;-0.07701771;-0.0004858788;-0.043889057;0.031077843;-0.07781521;0.05364918;-0.20885894;0.18971725;-0.07449638;0.14709793;-0.12860227;0.025287203;-0.027539162;0.24131134;0.061950713;0.40592366;-0.006711341;-0.3333544;0.1548528;0.13898425;-0.37882546;-0.15566023;-0.3796108;-0.1919029;0.15068226;0.0151632605;0.24169372;0.12851988;-0.12492783;0.007852068;-0.12641639;0.16277051;-0.0020670276;-0.44069907
-0.13098644;0.20188452;-0.23413277;-0.26651967;0.036040924;-0.15135908;-0.06751406;-0.22554639;-0.06799196;0.17902784;-0.12659216;-0.30386308;0.03951834;0.024689524;0.20570393;0.11913183;-0.011356209;0.2610027;0.019850723;0.31138092;-0.06730406;0.2109407;-0.059128594;0.17842673;0.018022621;0.075417385;-0.08331143;-0.015528858;-0.19742036;0.2956841;-0.19279692;0.025218688;0.08868945;-0.28554854;0.05695473;-0.005734486;-0.40319473;-0.13197608;0.15036803;-0.026634218;-0.17799275;0.19662888;0.21788482;0.057074495;-0.26319712;-0.15451439;0.040533304;-0.12181926;0.010635419;0.096601464;0.13018426;0.010297715;0.15316097;0.039619125;-0.54881537;0.0024642972;-0.19433273;-0.37355375;0.21120541;-0.10914192;0.04484504;0.14916211;0.04244851;0.1687522;-0.0645839;0.13480817;-0.07711546;0.08387641;-0.24446787;-0.21114598;-0.14417215;-0.00041612942;0.028423097;-0.19744651;0.14928079;-0.1630163;-0.01684594;0.117657214;-0.016320027;-0.2752084;-0.07172166;0.030258639;0.17519985;-0.11251549;-0.13757265;-0.09074652;0.019491216;0.18976048;0.15411471;-0.025845388;-0.31427446;-0.12412422;-0.2926517;0.43517807;0.02501784;0.1469655;-0.19571002;0.0076922714;0.0022172022;0.1521033;-0.10924277;-0.016820595;-0.017941827;0.119391;-0.01749635;-0.103032924;-0.03533356;0.024034385;0.06307867;0.09902928;0.3488368;-0.0814473;-0.17689879;-0.05749976;0.035354257;0.2660877;-0.038791664;0.14648432;0.1745854;0.151427;0.053193234;-0.002570021;-0.04438125;0.15696047;0.2790857;0.71624434;0.0476706;0.31724536;-0.10915332;0.044091813;0.19759865;-0.024495283;-0.22232269;-0.4086102;0.18242463;0.16613628;-0.05376799;0.027671779;-0.19254975;-0.29645967;-0.25108394;-0.10954656;-0.2343469;-0.16712712;0.37516654;0.11509127;0.06348602;0.09870243;0.062208075;-0.019366778;-0.04595839;-0.035746448;-0.21734263;-0.013207774;-0.04608881;0.20013182;0.26589605;0.018219722;0.29546806;-0.07737437;-0.027996281;0.12048828;0.17800137;0.07733524;0.057804782;-0.18765526;-0.111481145;0.07375042;-0.14762384;0.10430802;0.24960183;-0.13022801;-0.33565706;0.1423016;-0.011087045;0.1461615;-0.17975599;0.057670247;0.15737079;-0.09119784;-0.14831702;0.09802531;-0.14350513;-0.09035958;0.028369382;0.0064694285;-0.16042085;0.26925695;-0.24894196;0.16955392;-0.036008563;-0.0004621921;-0.07465798;0.003011414;-0.24171467;0.0037531243;-0.2388996;0.041739184;-0.046917874;0.06992122;0.219419;0.11127585;-0.2050821;0.06539658;0.04240366;0.170485;0.108213045;0.15495409;-0.32354033;0.08716335;0.070542745;-0.15106115;0.2299949;0.3132749;0.025717262;-0.1891337;0.02558587;0.22536726;0.030667236;0.10334999;0.30124858;-0.0018080134;0.039211452;0.07715116;-0.05710835;0.043712366;-0.28351447;-0.020558499;-0.029895196;0.09730359;0.008414184;0.10137507;0.081734136;-0.26087362;-0.1716482;-0.029884808;-0.17866035;-0.07845227;-0.23921257;-0.16748618;0.087565765;-0.37329215;-0.43101895;0.049539164;-0.14629091;-0.39526945;-0.39976302;0.21820733;-0.18890816;-0.086695276;-0.04911369;0.15642905;-0.26901624;-0.11588441;0.038466442;-0.11886601;0.30466497;-0.1259161;0.01378668;0.13719638;-0.115313195;0.07102007;-0.057997897;-0.09304101;0.2940289;-0.056961205;-0.04783172;-0.09303673;0.20094249;-0.19040066;-0.02794611;0.17208706;-0.094172806;-0.15826568;-0.0254331;-0.070840515;-0.21660732;0.28562787;-0.0018063346;-0.13580222;-0.040073384;-0.12014098;0.11439499;0.049889557;-0.020296726;0.024668429;0.22116949;0.02339176;0.08996232;0.1747199;-0.10885403;0.18484528;-0.021260949;0.012637635;-0.1527499;-0.04433276;0.15017986;-0.17397293;0.0064516254;-0.18778609;0.14876087;0.18024196;0.018750107;-0.0017098747;0.3838517;-0.06584422;0.13044676;0.01587373;-0.18218051;0.072731555;0.2402249;-0.045746632;0.27240872;0.05759;-0.2485179;0.12423732;-0.041831866;0.24370192;0.091549635;0.14457177;0.0153313335;-0.043984096;0.14009267;0.29232457;0.20033453;0.35735264;0.08116957;0.18175346;0.06279252;-0.0032342249;-0.15486048;-0.28829446;0.011301704;0.15616989;0.35611665;-0.15476862;-0.043096792;0.052326404;-0.126442;0.079921454;0.13401137;0.062368955;0.05991315;0.15617213;-0.2343664;-0.2757692;0.06301343;-0.35855806;0.050358914;-0.0055135153;0.67292327;0.25099942;-0.033688072;0.27368763;0.16272688;0.10187794;0.010322833;-0.0046883924;-0.17124219;-0.15589158;0.022182658;-0.13432498;-0.3153369;0.076913424;-0.13140833;-0.034069385;-0.12521288;-0.043735527;-0.058844723;0.041346014;0.07799717;0.11474246;0.20540603;0.24896546;-0.25757807;0.14193685;0.18484767;0.051124528;-0.15460859;-0.04841962;-0.03378643;0.09120778;0.021101583;-0.19768775;-0.065761656;-0.018019749;-0.22021532;-0.1032148;-0.016583009;0.029877855;0.008185027;-0.2128297;0.2063303;-0.11455867;-0.0014820363;0.1713314;-0.30672276;0.029917281;0.026983935;0.077085584;0.017350521;0.1042177;-0.1123051;0.032173637;0.33539122;-0.17124437;0.15025914;-0.32980806;0.05780645;-0.076670796;-0.05934795;-0.24340203;-0.05977576;0.077650785;0.207313;-0.11847876;-0.17875324;0.29716378;0.015319399;-0.14292394;0.040787198;-0.037919927;-0.121015616;-0.0958873;0.13579272;-0.09840508;-0.15335488;-0.11068495;-0.14885816;-0.24191321;-0.13761002;0.17718469;0.11841073;0.0015974762;-0.27650228;0.0047453186;0.19245212;0.15306659;0.18225458;0.1303856;0.026307195;-0.10536657;-0.2261005;0.08526636;0.068882205;-0.17610636;0.15159394;0.08880347;-0.14077348;-0.13148002;-0.14439814;0.047553197;-0.49336952;-0.040647298;0.0046356097;-0.28092206;0.14460915;0.072051615;-0.21107875;0.096989356;-0.046300475;0.062398348;0.22462308;0.04954428;-0.013889624;0.026764866;-0.14100924;0.08450703;0.332889;-0.027332492;0.24343428;0.23528282;0.059365746;-0.0058401544;-0.104722336;-0.031414717;0.40096414;-0.08334556;-0.088047124;0.09942539;-0.08579222;-0.040591627;-0.14152999;0.109188385;0.029582204;-0.040095598;-0.14296675;0.044101134;-0.48110503;-0.054850124;0.09288391;0.08448785;0.060880993;0.06624247;0.029242678;-0.11085991;0.20372662;0.28266388;-0.071140364;-0.01892658;-0.052351777;0.07640503;0.075885944;-0.046038017;0.31600392;0.25487986;-0.08067839;0.23452337;0.012067155;-0.1671692;-0.16618598;0.21025687;-0.22526966;0.08346439;0.0022533354;0.55258065;0.11158303;0.052420143;0.17274335;0.08440199;0.12246001;-0.22057498;-0.034668434;0.121588245;0.1832764;-0.09131785;0.11985579;-0.39021677;0.25355706;-0.41491076;0.08120474;-0.035858173;0.03369274;0.06624812;0.1471988;-0.19070426;-0.21627378;-0.26074174;-0.45061547;0.04206525;0.089522175;-0.21080935;-0.12471707;0.041830372;-0.28476888;0.15695874;0.15687883;0.15215105;-0.118791;-0.051701568;0.052032467;0.20154999;-0.16756573;0.23368193;-0.0045071878;0.09180057;0.19998106;-0.0123586245;-0.081950165;-0.51453835;0.03234001;0.15381661;-0.2912505;-0.0072969813;-0.21642305;-0.0050348463;0.14445183;0.05978576;-0.36737907;0.12901703;-0.020035304;0.068997055;-0.33575046;0.19102578;0.10673065;-0.4141081
-0.30597627;0.09025013;0.003745813;-0.57703143;0.23678213;0.069477364;0.16334;-0.21188514;-0.2056504;0.11508005;0.23859839;-0.13327993;0.09908961;-0.1172003;0.2833662;0.018318571;-0.082041346;0.3330081;0.1354992;0.14170304;0.18769598;0.22641449;-0.24360147;0.10631078;-0.11131299;0.17284161;-0.15113842;-0.028019005;-0.14832734;0.060613185;0.0912664;-0.122287355;0.10008519;-0.049105078;-0.016783282;0.06364533;-0.10117812;-0.17293046;0.3647135;0.03742644;0.005782904;0.058532063;0.062238272;-0.11265919;-0.17379121;0.159085;0.03554804;0.16180097;-0.36900964;0.16242476;0.23789108;-0.2349263;0.040495623;0.054337326;-0.20831844;0.20039852;-0.21939082;-0.12514886;0.37629217;0.21760774;0.14367734;-0.0021958877;0.16920011;0.13151959;-0.36646774;0.2307509;-0.18114053;-0.040805057;-0.0754252;0.48809314;-0.21044514;-0.15749444;0.07101425;-0.08356558;0.01968429;-0.1453042;0.09497118;0.14984284;-0.17000185;-0.1628897;-0.010376911;-0.290537;0.34894788;-0.10722742;0.13235971;0.048455622;-0.14712314;0.06280731;0.080693714;0.15919532;0.022107277;-0.33529717;0.07898641;0.2177588;-0.22227268;-0.018293161;-0.32227418;0.06217847;0.14037555;0.018917868;-0.0561756;-0.124132104;-0.01620759;0.29193026;-0.03858432;-0.19551943;-0.054555573;-0.0116698425;-0.08971316;-0.08617756;-0.0059058964;0.20259824;-0.05248348;0.13975528;-0.03616499;0.35234115;0.119979694;0.0123453345;0.026421739;-0.25573835;-0.14979681;-0.15839478;-0.017492183;-0.2224691;0.021094846;0.56914574;-0.026154535;0.46439478;-0.054455005;-0.12592982;-0.07037876;-0.12017329;0.03175944;-0.40312046;0.124395914;0.09450164;0.1695902;0.33415145;-0.14055331;-0.29308456;-0.086773574;0.059273537;-0.29019177;-0.21204792;0.43086648;0.19325626;0.29577988;0.013684731;0.07124981;0.16664763;0.040786535;-0.06772911;-0.0965724;-0.13080224;0.019817961;0.17911951;0.08885679;0.23941629;-0.21788032;0.009921414;-0.06356309;0.07068928;0.056609143;0.1420868;0.10244998;-0.20730655;-0.1607935;-0.09753421;-0.17716682;0.044728946;0.11386461;0.081633374;-0.25211018;-0.008325526;0.12491336;0.23400488;-0.07052108;-0.077464506;0.31325528;-0.008382816;0.06689937;0.18076399;0.07902342;-0.17005655;0.052063003;0.35311005;-0.27688605;0.118962795;0.075767726;0.16991903;0.016917711;0.28813058;-0.13440767;0.03772208;0.06869485;0.06354174;-0.07133972;-0.006213882;0.022237124;0.115689896;0.35483325;-0.08675529;-0.18446346;-0.11725037;0.22544496;-0.17777318;-0.17080276;0.00070137944;-0.40066597;0.18918444;-0.023709247;0.17113969;0.060622767;0.20070212;-0.08527;-0.29454994;0.06590951;0.30043012;0.108721554;-0.11570366;0.20351519;0.04088305;-0.40976202;0.022593776;-0.34784484;-0.0123278145;-0.23225953;-0.15397972;-0.11924757;-0.18236905;0.11346811;0.17393695;0.067174464;-0.08640073;-0.27520236;-0.07387117;-0.049599905;-0.10268399;-0.2365183;-0.42932564;0.052470114;-0.4318083;0.13196498;0.27841693;-0.17025474;-0.22929181;-0.060766894;-0.18622078;0.091973685;0.18144646;-0.010584483;0.23146036;-0.18067609;0.115194775;0.22944787;-0.045816872;0.051121857;-0.1871892;0.14483874;0.11063641;-0.13675094;0.026455766;-0.02918389;-0.1486732;0.32150656;0.098088406;-0.054353897;-0.0395973;0.10040263;-0.32031226;0.026189651;-0.016101921;-0.11348746;-0.048391435;-0.44454622;0.0134698;-0.017704215;0.0043431153;0.16277957;-0.3361104;-0.09104809;0.0008419565;0.26249823;-0.28433546;-0.06816525;-0.3154667;-0.16499154;-0.049414657;0.13465631;0.13718528;-0.09234969;0.10430664;0.03946724;-0.10570882;-0.10508886;-0.16660286;0.019914912;-0.2345577;0.055842705;0.009083611;0.049415223;0.15831645;0.13156608;-0.058572188;0.40361467;0.15715389;0.33744815;-0.16078025;-0.18608163;0.034441873;-0.090178855;-0.01090911;0.13320567;-0.10613019;-0.12130043;0.019849185;0.13590576;0.0835333;-0.047359366;0.20405449;0.133075;-0.22909716;-0.037803758;0.04324244;0.13034993;0.25167122;0.15595333;-0.113380656;-0.04880096;0.23603655;0.12949787;-0.17414042;-0.06916645;0.1508033;-0.14734328;-0.23545988;0.27042773;-0.063038014;-0.11738644;0.004976679;-0.05298536;-0.089653395;0.26100188;-0.013911654;0.008768455;-0.06691595;0.075983174;-0.19441803;0.018455803;-0.05630747;0.40649608;0.09724556;0.06564354;0.25081828;-0.009284288;0.049330283;0.11875126;0.058545247;-0.22237612;0.0415454;0.22385164;-0.1451463;0.02653152;-0.1286949;-0.20523413;-0.04701976;-0.23229213;0.09727934;0.17363888;0.27123094;-0.13566159;0.038351443;-0.0017344647;-0.056721732;0.0063436646;0.04738149;-0.24533847;0.08867468;-0.19980477;0.18009032;0.07018271;-0.016585842;0.05450731;0.03072939;0.012421413;-0.16933729;0.2060936;0.18492785;-0.011088863;0.009929434;-0.17181529;-0.23302798;-0.042029995;-0.13319142;-0.016716523;0.0003524991;-0.13522586;0.004833586;0.013767612;0.05646503;-0.017013466;0.120641045;0.08579653;-0.013035734;0.15728779;-0.2731036;0.021637322;-0.32701534;0.11756798;0.14507332;0.2545938;-0.45911586;0.09391477;-0.123629555;0.24847019;-0.24188726;0.10206661;0.20177117;0.09320108;0.017938007;0.067612514;0.1685733;-0.04053305;0.0069337273;0.01622187;0.3404645;0.01595176;-0.27990493;-0.08660273;-0.20250517;0.03803036;-0.057910297;-0.05733014;-0.021349996;-0.1753872;-0.06901721;-0.1338511;0.023318497;0.1833272;0.069120094;-0.032127302;-0.19197364;-0.25326675;0.119142346;0.036099147;0.099343546;-0.05624447;0.060957074;-0.2122395;-0.05738647;-0.055238556;0.0947932;-0.09016529;-0.11325636;-0.006867464;0.017223295;0.04217951;0.16328244;-0.17357533;0.06800921;-0.14744417;0.19292349;-0.08295709;0.03638913;-0.13384119;0.10486358;0.05541974;0.0153005;0.22673696;0.011512615;0.21941282;0.12957375;0.008278774;-0.0016063213;-0.28653693;0.07201807;-0.03548396;-0.08327995;0.054048892;0.20685093;0.13944712;0.019958429;-0.066406414;0.17664024;-0.09713574;-0.048825596;-0.2959555;0.06556922;-0.47029242;0.006462209;0.43245468;-0.09243602;0.08104113;0.027505722;-0.018808287;-0.04659866;0.3152665;0.14722052;-0.13079159;-0.22401288;-0.027510354;-0.004499346;0.15032865;-0.029311594;0.10494269;0.3034071;-0.032391228;-0.07758381;-0.05437961;-0.32163373;0.04480628;0.13421816;-0.08496061;-0.015690332;0.21407287;0.063918024;-0.17095365;0.20232901;0.11956613;0.10728599;-0.012189146;-0.16782488;-0.21961837;0.056950197;0.13287681;-0.13517022;0.07902983;-0.25999257;0.2827383;-0.14445677;-0.13194107;0.10098988;0.036187306;0.0014307188;0.15256165;-0.25831962;-0.13423738;-0.010162647;-0.36661983;-0.15470256;0.17400056;-0.20479523;0.0015108077;0.17885727;-0.106979705;-0.01747391;-0.18571082;0.22479111;-0.09768158;0.09617745;0.021870058;0.10938093;-0.13882737;0.006987409;0.052258704;0.034974836;0.24023956;-0.4550113;-0.07274527;-0.35268435;0.08495877;0.073395774;-0.39342248;0.0012622958;-0.3344231;0.071693815;-0.04547243;0.03864799;-0.13467012;0.2322362;-0.08749016;0.127293;-0.20453452;0.17294414;0.007374067;-0.34412947
0.11390694;0.26993677;-0.23679627;-0.09774166;0.1139833;-0.21117863;0.01875179;-0.12151801;-0.045347966;0.17644228;0.2409012;-0.34780148;-0.010140145;-0.07794807;0.34090978;0.37605092;-0.33358395;0.1893283;0.16723469;-0.012518381;-0.40609366;0.21512158;-0.45922306;0.012761288;-0.102152266;-0.015408484;-0.15771893;0.008363429;-0.052769307;0.15319684;0.025538351;-0.08012611;0.16239013;-0.13177912;-0.08717466;-0.03310434;-0.46805117;0.015794883;0.1528718;0.04808191;-0.18408889;0.09372979;0.19356288;0.3369551;-0.274938;0.13714181;0.05874932;0.05222586;-0.30415764;0.31764674;0.121390834;0.007752458;0.117071144;-0.21767351;-0.05624475;-0.037998173;-0.4011009;0.09572088;0.37612575;0.005821535;-0.11496665;-0.26385528;0.022031913;0.017974008;-0.21098593;0.10200613;-0.108826265;-0.0064204093;0.027159574;0.28099948;-0.11818153;-0.031679753;0.10127023;0.013522553;0.035084743;-0.25955692;0.1244128;0.22398564;0.00781415;-0.20684303;-0.050728787;0.029710855;0.12052397;-0.0466123;0.20190519;0.09580159;-0.068621404;0.19662264;-0.16952246;0.19697185;0.08608634;-0.2394086;0.15080298;0.32776397;-0.093530625;-0.12884378;-0.2581704;0.21657734;0.09874968;0.033284605;-0.08255754;-0.0026928114;-0.051725153;0.050587192;0.20675874;-0.23902145;-0.038212415;-0.13023607;-0.053908315;-0.13594267;0.20930727;-0.12680097;-0.05072004;-0.079123676;0.026165267;0.13080138;-0.11748757;0.053055204;-0.07596599;-0.21323475;-0.26307106;0.08410548;-0.16592102;-0.058307428;0.06752262;0.53350997;-0.0745392;0.49733484;0.07823409;-0.17425519;0.070741;0.111447275;0.0531377;0.011729778;-0.07756081;0.12942976;0.18912825;0.26622802;-0.14490789;-0.34737453;-0.06167171;-0.10714998;-0.14829504;-0.33879817;0.26089948;0.11555845;0.38856974;-0.09481028;0.010960087;-0.16610387;0.20605119;-0.10094226;0.06806696;0.00920058;-0.013478443;0.1179018;0.07129387;0.17916566;0.033706952;-0.007490974;-0.21748881;0.079544514;-0.056090012;0.20884432;0.051843528;-0.04527946;0.11827911;-0.06835781;0.07504142;0.085523814;0.10268763;0.0063761803;-0.195098;-0.053313743;0.23711652;0.281364;-0.11232176;0.12666279;0.22763744;-0.15910693;-0.13819827;0.1855716;0.07442655;0.010374716;0.105487585;0.21443018;-0.30277917;0.10043077;0.0041827466;0.28395012;0.027045889;0.21964304;-0.1416307;0.15558343;0.06938738;0.25136107;-0.16090971;-0.04653453;-0.2137612;0.014789237;0.25679854;-0.10642915;-0.16894335;-0.17667681;-0.06944129;-0.47828007;0.020373007;-0.074926525;-0.55084795;0.024804564;0.13497621;0.23233256;0.2383655;0.15798838;-0.10849183;0.00048115736;-0.17421967;0.07090682;0.10364929;-0.08797888;-0.01800779;-0.19668932;-0.3513279;0.14060104;-0.45598397;-0.04707773;-0.24471982;-0.034043014;-0.2365336;-0.13855997;0.1951664;0.3293397;-0.3101249;-0.32632098;-0.21223633;-0.08018722;-0.065623514;-0.04718901;-0.14687859;0.010743133;0.1389743;-0.44887686;-0.32548895;0.09506911;0.019687615;-0.09767985;-0.42164645;-0.01654343;-0.01570913;0.26411718;-0.15133196;0.19865088;-0.293798;-0.08265982;0.52355766;-0.10527377;0.0055981656;-0.0808439;0.17233251;0.22452445;0.041978672;-0.16214512;-0.12952176;-0.3138531;0.08702673;0.04056256;0.031562604;-0.05852447;0.0025285636;-0.44104576;0.027666394;-0.19879684;0.056912124;-0.23641634;0.05393869;-0.07401395;0.12758523;0.0825388;0.3055571;-0.09756827;-0.21108934;-0.063599184;0.21890378;-0.10061523;-0.103709914;-0.018754547;0.19755927;-0.08072177;0.19291966;0.09531945;0.19247231;0.2280844;-0.043414228;-0.107796215;-0.13143751;-0.07714257;0.21250358;0.13672987;-0.045243025;-0.091627374;0.08472481;0.13163364;0.07994564;-0.08767515;-0.04807573;-0.28782374;0.18463954;-0.21774156;-0.3622981;-0.108563915;0.15335293;0.023666833;0.082276866;0.054460023;-0.016464144;0.19630264;0.15548985;0.08115369;0.103666864;0.18247668;0.059350103;-0.0006414279;0.018922204;0.36584416;0.05512049;0.5069538;0.09378094;-0.08675569;0.18614897;0.105286896;-0.024241932;0.017888568;-0.04271583;0.012306235;-0.17009102;-0.13573708;0.15463738;0.4373232;-0.22721946;-0.016801806;0.033409234;-0.055451825;0.35255387;0.069125794;0.06521095;-0.1417835;0.035078708;-0.15607576;-0.023125127;0.06541705;0.43804616;-0.09461908;-0.049425494;0.1917912;0.14809148;-0.0144602405;-0.028373826;0.12696645;0.07080059;-0.06446989;0.2720218;-0.15517735;-0.22331497;0.15671803;-0.21059746;0.2557041;-0.095134586;-0.13039331;0.106536135;0.4017731;0.03738632;0.15086767;-0.098400064;0.06750948;0.030936422;0.035650067;-0.38475704;-0.21890862;-0.2671263;0.016415758;0.14287502;-0.00037844462;-0.112796776;-0.22600515;0.06929118;-0.008795394;0.13509017;-0.21855122;-0.07890931;0.26473954;0.052329525;-0.07485858;0.16996652;-0.19297324;0.09113318;-0.0108280685;-0.4936299;-0.09062164;0.044584263;-0.023558702;0.16968326;0.030574718;-0.120954834;-0.17706227;0.2501392;-0.13668247;0.19196954;-0.14739394;0.2067116;-0.0017405112;-0.14815752;-0.2897055;0.04270721;-0.17750713;0.21636121;0.0868922;0.15051065;0.35506508;-0.030198948;-0.03581881;-0.04084559;0.19321005;0.01697981;0.06868106;0.25242043;0.023121333;0.037084058;-0.062037114;0.04532229;-0.42761752;-0.10517881;0.029561745;-0.21982907;0.05296837;0.099978454;-0.07749188;-0.13315265;-0.14998342;0.12495546;0.09505239;0.0070299017;-0.17157324;-0.1901694;0.05208476;0.20038338;-0.2555012;0.25075665;-0.059416395;-0.085370876;-0.13483961;0.16747418;-0.0849411;-0.14305972;0.13780303;-0.044019636;0.050106622;0.010769491;0.0758748;-0.08759459;0.0131048355;-0.3131158;0.06773199;-0.22221865;0.07001562;-0.030681046;0.28634003;-0.15648732;-0.094066106;0.35572106;-0.25020316;-0.19362885;0.15426293;0.080695316;-0.006850674;-0.21188314;-0.13545512;0.18099576;-0.015992563;-0.17942983;0.4020321;0.054114792;-0.10126987;-0.484299;-0.23526628;0.28324732;0.061911125;-0.082504526;-0.1639942;-0.16044435;-0.007054811;0.1864261;-0.05286617;0.13677011;0.11194066;0.017683187;0.008646651;0.28511068;0.17981626;-0.32078016;0.012795359;-0.2656015;0.28837666;0.14004388;0.030771766;-0.109245025;-0.16175579;-0.012237752;-0.005056903;-0.17233163;0.2639253;-0.06299823;0.04649367;-0.21739362;-0.075758055;0.19975513;-0.0715838;0.024697002;-0.1648217;0.0824484;-0.06026501;0.13004702;-0.23407128;-0.00068030925;-0.1161691;0.20225006;-0.19284782;-0.073194504;0.096329175;0.14101894;-0.271595;-0.1326339;-0.0077929306;-0.14116092;0.07939823;0.15216933;-0.23855613;-0.25373632;-0.049939394;-0.2854149;-0.09735486;0.21978083;-0.024941094;0.106751695;0.12264267;0.20695926;0.09579448;0.050614692;0.023262914;-0.32206988;-0.12820986;0.058156453;0.12517297;-0.39288336;0.1356257;-0.006175938;-0.078855135;0.30966824;-0.29826504;0.23984943;-0.11264185;-0.1733137;0.08545738;-0.22424883;-0.117100954;-0.21471953;0.13859078;0.026600095;0.12438378;-0.28553343;0.2243209;0.12788916;-0.034348667;-0.35166267;0.02353923;-0.17662597;-0.2683161
-0.13711184;-0.004177842;-0.17610776;0.013013893;0.060277157;0.009261094;-0.07770121;0.004773055;-0.5619779;-0.01584045;-0.00015109763;-0.055176545;0.18671523;-0.16859172;0.4518204;-0.03837604;-0.20801516;0.075963594;0.078216;0.06262737;-0.26026848;-0.11826591;-0.24487525;-0.055208817;-0.28497258;0.0049692644;-0.12589861;0.04090801;0.05968359;0.14311653;-0.15681323;-0.068825305;0.065213285;0.10355078;-0.059553307;0.017356738;-0.6727964;0.041745465;0.03382863;-0.23969962;-0.27015448;0.08332547;0.11535854;0.048063904;-0.24305727;0.26521045;-0.025559219;-0.10265337;-0.11703737;0.33604902;0.31031358;-0.14191248;-0.044463094;-0.2622363;-0.082590364;-0.040335443;-0.25744265;-0.09607557;0.13177575;-0.08361782;0.052397717;-0.04938128;0.36269838;-0.098009385;-0.22583951;-0.10657084;-0.13243672;0.07447594;-0.21103421;0.27036414;-0.29141924;-0.067975916;0.0036829463;0.06842564;0.086810485;-0.1733879;0.012647133;0.028556058;-0.08888903;-0.20078632;-0.15883623;0.05881191;0.14969401;0.110591985;0.11565373;0.0075710276;-0.041394167;0.008991958;-0.078558385;0.095183834;0.06402606;0.03896833;-0.07860357;0.26552308;-0.058185734;-0.066597946;-0.16789843;0.25252822;-0.36689317;0.16649453;-0.038360972;0.03417265;-0.1843314;-0.14743534;0.26651832;-0.08829675;0.30741912;-0.3276879;0.024047649;-0.15009935;0.1715701;-0.06418111;-0.08947392;-0.2863434;0.08100645;0.0013682935;0.12684926;-0.18065141;0.061552312;-0.51111615;-0.23821332;-0.19945033;0.047723975;-0.0899627;0.07743101;0.33074024;-0.17674929;0.15270133;-0.038796913;-0.13267764;-0.03812742;0.2129224;-0.03339455;-0.053530633;0.20277828;0.17222278;-0.056420613;0.068734184;-0.3160586;-0.1563128;0.19008878;0.11946838;-0.040197827;-0.280051;-0.17654614;0.19393176;-0.01683336;-0.32109487;0.21211308;0.0034154095;0.26037875;-0.033951882;0.192222;0.013651493;0.122455314;0.20063455;-0.20461085;0.086390324;0.030956196;-0.06314269;-0.06040925;0.2219584;0.045361284;0.19802111;0.3323269;-0.10480734;-0.22343345;-0.08254709;0.046875294;0.0939213;0.27242017;0.14183979;-0.15404956;0.121614315;0.2690057;0.31354508;-0.1280919;0.0063846456;0.0008893309;-0.18926135;0.06286864;0.14453149;0.01706055;0.14026612;0.1823657;0.30425367;-0.032828137;-0.026571235;0.36868972;0.22475101;-0.07000141;-0.07654485;-0.097892575;0.18385415;-0.1725585;0.26420727;-0.05374249;0.20482357;-0.18889786;-0.22880806;0.41029146;-0.2245947;-0.06955203;-0.13677447;-0.32036945;-0.22574547;-0.14307614;0.14414367;-0.46958673;-0.19278796;0.24076065;-0.09522969;0.18444453;0.2724428;-0.12677956;-0.15296477;0.06907702;0.004337141;0.13286307;-0.053628035;0.069170326;-0.21323755;-0.2706561;0.24296051;-0.43617117;0.06589114;-0.15956129;-0.0223265;-0.084423795;-0.09104492;0.18738867;0.32240233;-0.21261093;-0.5039022;-0.17164698;0.0061475835;0.14717257;0.048674103;-0.2204068;0.036645412;0.18126807;-0.3759142;-0.17234954;0.052767582;-0.08756113;-0.1647626;-0.21440156;0.038513154;-0.014797652;0.31159768;-0.2545637;0.08052854;-0.25610662;-0.096777566;0.341612;-0.53187376;0.15032622;-0.082951136;0.20364593;0.3070598;0.08315785;-0.22159985;-0.24543476;-0.080734625;0.14734533;0.2310631;0.1349745;-0.0012730842;0.020134134;-0.40907338;0.1640974;-0.30329478;-0.20809653;-0.11739324;-0.20251545;0.2248487;0.18703133;0.05653638;0.42381105;0.17355116;0.060633197;-0.087446645;0.042420488;-0.30403435;0.025275836;0.24098879;0.1732706;-0.05636259;0.33260727;-0.12374894;0.023016008;0.2309592;-0.009517953;-0.06432463;0.13575031;-0.38861105;-0.010338414;0.15299746;-0.23905559;-0.025513243;0.10853944;0.3610791;0.13379198;-0.023392858;0.14477158;-0.25793785;0.10256301;-0.11951833;-0.09019966;-0.30199984;-0.03688915;-0.008327251;0.21074691;0.100201845;0.120897256;0.16173439;0.034262717;0.12309813;0.110256225;0.14218283;0.00047148007;-0.06733504;0.16844474;0.11863586;-0.00030809635;0.21323785;-0.01617208;-0.2736082;0.17280395;0.3577669;0.064019136;-0.35714725;-0.07275659;-0.0042588795;-0.11886713;0.00575413;0.07756826;0.20484297;0.28555906;-0.057464797;-0.028795153;-0.13010612;0.34854838;-0.21207488;-0.09436962;-0.15045781;0.1547836;-0.11399403;-0.074914284;0.05154361;0.3877818;0.0025190867;-0.06294372;0.029227126;-0.041521657;0.06433623;0.059705038;0.15378356;0.032375537;0.18909632;0.39969456;-0.050709356;0.44256106;0.22813103;-0.088478774;0.08902701;-0.041048992;0.1296191;0.019657074;0.41347954;-0.09375193;0.023044644;0.03590315;0.051958293;-0.04078711;0.18347056;-0.48999807;0.07200263;-0.1019239;-0.2661973;0.09870776;0.15211728;0.19354527;-0.1427579;0.06344211;-0.027076859;0.08164193;-0.1355125;-0.18262874;0.17016293;-0.030325325;-0.1262272;0.053308543;-0.07131685;0.19086346;0.14804186;0.060283985;-0.16341722;-0.0056213187;0.08127681;-0.060952257;0.15930231;0.058974016;-0.14590998;0.091154024;-0.09136084;0.24773017;-0.20856522;0.09103197;-0.09786383;0.0411607;-0.0502874;-0.11457177;-0.36338246;0.1164985;0.075521976;0.12585288;0.16985928;0.15978782;-0.17648543;0.24682118;0.14939414;-0.049892385;-0.039909236;0.0808773;0.22987393;0.07530668;-0.16472515;0.04527281;-0.26817423;-0.10273178;-0.007440164;-0.1960037;0.02816982;-0.35870427;0.021767063;0.05601952;-0.09680151;0.16377302;0.063496806;-0.04516035;-0.019807743;-0.16706724;0.17250961;0.11948538;-0.062121633;0.23936136;0.07056394;-0.22885938;-0.1397184;0.16227317;-0.09633887;-0.16889413;0.004113934;0.0026046366;0.0032855591;-0.14752857;0.0052716737;-0.12966458;0.16419257;-0.036078177;-0.0065750764;-0.12889843;-0.10986463;-0.2662485;0.14673619;-0.19254634;0.20218183;0.26856565;0.0065249684;0.06281686;0.07203556;-0.09958752;-5.169293e-05;-0.08458507;-0.114430845;-0.15735744;0.15978149;-0.39929542;0.31618413;-0.16762845;0.33208027;-0.25119284;-0.3104698;0.08564872;-0.011144893;-0.3623858;-0.0051851403;-0.15025017;-0.27641508;0.31709906;0.10489774;-0.18638784;-0.313743;0.04321035;0.1930775;0.27067512;0.18553585;-0.29989898;0.051662922;-0.012045379;-0.015124531;0.020493407;0.11605864;0.2531819;0.04983697;-0.07590146;-0.32072043;-0.20957974;-0.19513746;-0.06828634;0.14883743;0.044079103;-0.08950994;0.01565135;-0.052128803;0.15183845;-0.023295267;-0.061954495;-0.024528468;0.022404296;-0.37151542;0.11270622;-0.10848623;0.33021185;-0.2702669;0.17573215;0.018178092;-0.10644407;0.08453784;0.0053458833;-0.17802684;0.059113026;0.20934328;0.1339693;-0.24171197;-0.46401477;0.032503143;-0.1125946;-0.09298439;0.19912255;-0.10220376;0.11619892;0.06690339;0.037615906;-0.026472922;-0.17375419;-0.14122072;-0.1297998;0.03844205;0.09078351;0.10983269;-0.2925032;-0.28266653;-0.031525925;-0.027861895;0.09482361;-0.3527436;0.029433222;-0.4396786;-0.19245993;0.10706551;0.028261574;-0.06454212;-0.2409314;0.093180016;0.15382768;0.27325934;-0.05501274;0.23919094;-0.03110688;-0.014337304;-0.15643974;-0.13199706;-0.017405255;-0.18816712
-0.013888633;0.14067936;-0.6040654;-0.0032590516;-0.01101073;-0.1616653;-0.025792759;0.048289247;-0.30459282;-0.13628836;-0.09728402;-0.22014813;-0.026440283;-0.10026858;0.2861091;0.0350194;0.18689997;0.29017037;-0.0341322;0.03303264;0.104497515;0.28690302;-0.16320238;0.018656168;-0.1620407;-0.113732316;-0.14093028;0.0897248;0.011440992;0.30386332;-0.18196721;-0.037412174;-0.1057859;-0.16074277;-0.03422103;0.07925141;-0.72938615;-0.013685808;0.037207246;-0.32222685;-0.2167891;0.27494282;0.23347414;0.359337;-0.023468737;0.11056906;-0.38187596;-0.052434124;-0.104837954;0.24421738;0.24966316;-0.08970725;0.009416552;0.006163012;-0.11724364;-0.026861766;-0.112588055;0.10586888;0.09913091;-0.0827955;0.21067989;0.119552284;0.40246403;0.052442517;-0.21757714;0.06699533;-0.00028204912;0.059827037;-0.16049726;0.028291848;-0.48509735;-0.12307046;-0.20583354;0.15521729;0.16576499;0.053539746;-0.1515966;-0.085897595;-0.11720417;-0.18577042;-0.07918774;0.07001015;0.09750741;0.019290252;0.08099283;0.13197118;0.14548856;-0.18296385;-0.19388914;0.03328146;0.008515531;-0.045490503;-0.073444046;-0.07841791;-0.20031543;0.0071661384;-0.037599742;0.27474704;-0.058574215;0.15538464;-0.16960967;0.19286714;-0.052774873;0.034423668;-0.02365719;-0.1418869;0.16402675;-0.12737408;0.20398043;0.033286117;0.15620299;0.10325316;-0.04335125;-0.6372857;0.04857183;0.040569622;0.10604923;-0.06953603;0.052603204;-0.33789688;-0.017846193;-0.053566724;0.04600323;-0.14049229;0.15996966;0.31747067;-0.62035376;-0.10735454;-0.21639921;-0.04916592;0.056961413;0.12391285;0.26047817;0.15870646;0.03499367;0.31382337;-0.17722832;0.18991874;0.07484193;0.11859876;-0.33850455;0.00029984373;-0.05667462;-0.0729094;0.08942657;0.48439255;0.001590956;-0.13195875;-0.1137846;0.0472515;0.13202989;-0.18034962;0.20458293;0.17469752;0.39041242;0.08246947;-0.25562546;-0.053020097;0.08575554;-0.10252036;0.0003179668;0.029033013;-0.07907021;0.14574651;0.15284933;-0.13865933;-0.32279852;-0.049662482;0.18959787;0.046088725;0.21893638;-0.08108607;-0.13521089;-0.08985398;-0.13061899;0.30932912;-0.123420976;0.042290367;-0.07825491;-0.0338947;-0.031344354;0.06196455;0.13270427;0.045370854;0.14962107;0.03464565;0.029598506;-0.10974359;0.23518558;0.23079574;-0.07679373;0.033307895;-0.31758618;-0.004024332;-0.290849;0.26486602;0.005548744;-0.00058127235;-0.35777307;-0.11438052;0.2804004;-0.17792094;0.095650695;-0.16970737;-0.05452715;0.06523975;0.074411936;0.49098477;-0.16483301;-0.10682696;0.41167453;-0.16373158;-0.09280297;0.06749172;-0.30587384;-0.22334124;0.03225067;-0.059730913;0.2026976;-0.046740346;0.004481137;-0.19224834;-0.10550712;0.2450511;-0.4412912;-0.30365044;-0.14950389;0.041797634;-0.3911521;-0.04157394;0.094189584;0.2521742;-0.3841146;-0.5477094;0.123565;-0.023632009;0.11395588;-0.09701563;0.092694804;-0.05418139;-0.04004544;-0.06958262;-0.12186803;-0.03291507;-0.006145959;-0.12287874;-0.061341677;0.10318419;0.12652682;0.18131305;0.042421453;-0.0873881;-0.24508943;0.258167;0.44535384;-0.07574011;0.13921289;-0.099909924;0.1536629;0.19084978;-0.051557913;-0.14027102;0.003917611;-0.1862332;-0.21557993;0.07790349;0.026028125;-0.014815666;0.027871007;-0.116397396;0.11575306;-0.2998698;0.03897129;0.20041476;-0.124927975;0.21835811;0.07816302;-0.07058863;0.32889834;0.109558515;0.032389995;-0.10573641;0.056593325;-0.21115944;0.17296948;0.39499888;0.049243737;0.13915537;0.49950838;-0.20783412;-0.13134074;-0.02244523;-0.06279189;-0.077899545;0.017590355;-0.2500005;0.025301462;0.11515822;-0.10728535;0.10301032;0.08026527;0.06062053;0.010078111;-0.15675294;0.104074076;-0.1871845;0.1786068;0.20365052;0.025639271;-0.22281006;-0.37300858;0.039346453;0.09958969;0.1992389;0.028313387;0.02440647;-0.10373745;-0.121823;-0.008692833;0.20533378;-0.104934685;-0.19340156;0.14970641;0.24816431;0.14877202;-0.01607668;0.0036645387;-0.1260839;0.12957078;0.20211852;-0.15182793;-0.39821035;-0.2788331;0.034715746;-0.3188976;-0.18032646;0.06422447;0.09186102;0.0008399572;0.2718268;0.07966424;-0.07032805;-0.11583061;-0.06532668;0.16849244;-0.0937433;0.07182602;-0.09398357;0.01857656;0.031541463;0.062274143;-0.13188916;0.22754799;0.017997164;0.09147887;0.2665244;0.22581552;0.044071797;0.124529466;0.21095519;0.46148568;-0.13616116;0.3401662;-0.24675784;0.08707013;0.12969059;-0.025201935;0.12099358;0.15391275;0.4393376;0.04976519;0.07526122;0.14319927;0.1409027;-0.19273621;0.10073144;0.18093242;-0.101732045;-0.122566596;-0.09473675;0.038354866;-0.019982709;0.3572803;-0.2728417;-0.104225904;-0.04884955;-0.07789566;-0.111293316;-0.097537614;0.058985095;-0.08792138;-0.11135779;-0.2164703;0.1683034;0.30320504;-0.1292079;-0.12733923;-0.2143923;-0.013214515;-0.02989779;-0.13133444;0.08412502;0.11906429;-0.10851298;0.23151618;-0.15132932;0.03899735;-0.48870274;-0.042507257;-0.4421691;0.024363462;0.06815869;-0.20746556;-0.31369355;-0.032338623;0.056070834;-0.039060254;0.07983301;0.03313623;0.110378094;0.10642359;0.009668711;0.008354873;0.11678458;0.15146132;0.18536189;0.11575152;0.083741345;0.10806536;-0.32516629;0.09427017;-0.06471331;-0.08126932;0.10728891;-0.120999455;0.09163398;0.18236537;0.12399181;0.08357862;0.055426363;0.047721468;0.0013142313;-0.10717689;-0.048631646;0.17056885;0.05892508;0.1837809;0.24665304;-0.16817354;-0.27472675;-0.075987086;0.036497805;-0.18080322;-0.05663633;0.17886208;0.024285972;0.006672112;0.074828416;-0.04066988;0.18411535;-0.05464638;0.019447066;-0.023466283;0.032076534;-0.0915797;0.16716981;-0.17179269;0.14518066;0.19269896;0.11060434;0.09768882;0.13142018;0.016374823;-0.20020041;-0.04880444;-0.077369355;-0.05943844;0.11905697;-0.16391823;0.25139648;0.04227696;0.007349771;-0.39731625;-0.01792732;0.018116664;0.13068393;-0.3066194;-0.011791594;0.09203522;-0.21282828;0.025795441;0.0023910296;0.0018219182;-0.23384912;0.13127957;0.10809062;0.2345608;0.049087167;-0.046653386;0.08344504;0.11902913;-0.297392;0.23108493;0.17521305;-0.20599596;-0.25128677;-0.0028135015;-0.051273108;-0.032543294;-0.05770058;-0.21305451;0.1964949;0.20133741;-0.018043144;0.11986751;-0.09121218;0.041252095;-0.10106934;0.19625549;-0.083374664;0.23824729;-0.19358991;-0.17179242;-0.1096517;0.2190073;-0.37664577;0.1213685;-0.30444583;-0.18527712;0.16819814;0.31189865;0.10276429;0.0656567;0.046366937;0.2969565;-0.17456427;-0.36265233;0.0018683254;-0.050625846;0.04625853;0.3645322;0.1119835;-0.09493502;-0.007513734;0.14519498;0.042987254;0.17533876;-0.011377189;-0.43735808;-0.28359345;0.21373104;-0.10593802;-0.119917594;-0.37677222;-0.2078696;0.047509447;-0.026738178;-0.12679072;0.1443833;-0.18977822;0.09577024;0.0058568697;-0.08797175;0.022652572;0.019213948;0.16353181;0.04694753;0.22897704;-0.35451424;-0.10241142;-0.105697535;-0.035420407;-0.20273829;-0.07079417;-0.047258288;-0.30051106
-0.21012188;-0.1457328;-0.25865203;0.08495428;-0.036170628;-0.115540855;-0.13928737;0.124884605;-0.20697738;-0.020253621;-0.09915368;-0.077777885;0.060094085;0.09309684;0.27575165;-0.09359713;0.15325943;0.13870081;-0.022339744;0.16766201;-0.11550656;0.102352545;-0.028755328;-0.064248584;-0.017896544;-0.020861384;-0.024184035;0.30412024;0.049866665;0.2938326;-0.1869382;-0.10190244;-0.12259795;-0.0055136885;-0.31417546;0.32752755;-0.7180824;0.10512287;-0.1756676;-0.13953835;-0.35348067;0.35884395;0.104082264;-0.04065735;-0.17377912;0.100676656;-0.18259138;-0.0058520893;-0.14873746;0.2889424;0.12080719;-0.048611242;-0.15007667;0.036242485;-0.06694619;-0.026976755;-0.1547624;-0.0076872148;0.20720674;0.042206038;0.37749463;0.004356255;-0.15388536;0.05155266;-0.053900827;-0.18632461;0.0771508;0.25570956;-0.08195321;0.0094433725;-0.18214373;0.006854712;-0.10524989;-0.047583964;0.117968775;0.16673186;0.041244708;0.09242094;-0.0073858793;-0.00074381666;-0.22514933;0.05737982;0.20091951;-0.068144545;-0.0397379;-0.052947916;0.089886956;-0.013881812;-0.108976156;-0.087233536;0.110785544;-0.12547043;-0.20077631;-0.22198318;-0.222739;-0.058935996;-0.20977007;0.34180537;-0.20804808;0.2191667;-0.15839562;0.010092181;-0.1683367;0.043408167;-0.14287692;-0.01544793;0.13420448;-0.2208896;0.5191795;0.103938475;0.19118465;0.056711838;-0.07620682;-0.5348138;0.12883739;-0.08600273;0.13599293;-0.0148464525;0.031033505;-0.45157412;0.25879124;0.124807954;-0.20954606;-0.19532503;-0.043644626;0.05003462;-0.44318974;-0.15094501;-0.26666644;0.060391102;0.13445859;-0.12025133;-0.026525792;0.048543185;0.08209437;0.20400773;-0.06675218;0.123466566;0.047120545;-0.079374135;-0.48628217;0.17368191;0.03502232;-0.1341386;0.36222744;0.31742975;-0.022044532;-0.2967067;-0.04310658;0.14438061;-0.022872683;-0.08326004;0.10458383;0.014774226;0.329263;0.15942234;-0.250601;-0.18220662;0.1540827;0.2604405;0.3159329;0.042091373;-0.0963059;0.06237846;-0.056347165;0.16400906;-0.024128072;-0.057837706;0.01713204;-0.047964472;-0.16483282;0.11939547;-0.10073509;-0.15977758;-0.26726994;0.37343603;-0.033508725;-0.01885078;-0.120226726;0.13179976;0.087711304;0.10584095;0.23232065;0.051483084;-0.01165583;0.019452212;0.23992068;-0.023806486;0.054075908;0.20549595;-0.01583048;-0.08434328;-0.1754394;0.015110756;-0.27157244;0.1470192;0.290188;0.041086093;-0.033005685;0.15501516;-0.025770312;0.28125143;0.113958724;0.10624053;-0.04723164;0.07504813;0.05855486;0.55969745;-0.23739679;0.038004074;0.43396774;-0.39168993;0.09776154;0.032462183;-0.07248972;-0.23482753;0.04771323;0.057734616;0.18860081;-0.054813415;0.026582895;-0.18315263;0.17236555;0.021990089;-0.18674526;0.012364586;-0.47886205;0.1804675;-0.3149077;-0.0343395;0.12872846;0.26246914;-0.2213626;-0.6602748;0.38037133;-0.017285563;-0.019453304;-0.046579987;0.29917732;0.16237025;-0.01602351;0.019925162;-0.080597766;-0.117235154;0.027270788;-0.0014818554;-0.009990845;-0.14399175;-0.1041494;0.011267709;0.1847242;-0.124467246;-0.19462113;-0.020571716;0.24833637;-0.09100049;0.05154029;-0.17479739;0.29808247;0.1818043;0.033510517;-0.07188613;-0.092165515;-0.23839828;0.070462875;0.042085454;-0.020071011;-0.09180742;-0.2645403;-0.40017617;0.13969128;0.05820909;0.14776212;0.20218326;0.00873573;0.4283271;-0.1487918;-0.22518378;0.31396025;-0.11156915;-0.06857088;-0.20416184;-0.18830755;-0.18707073;0.14757751;0.32963097;0.09728578;-0.14670417;0.17465031;-0.11997517;0.028992515;-0.012475442;-0.1055948;-0.06456637;-0.0060136565;0.015979707;0.03372573;0.21385805;-0.01597286;-0.12006393;0.053228162;0.23795512;0.13922594;-0.07025834;0.070951894;0.012127864;0.29589322;0.2582112;-0.043892384;-0.3345581;-0.005612595;-0.24500242;-0.05386029;0.26947114;0.06200542;-0.030522637;0.109007455;-0.08199909;0.049894676;0.29593727;-0.13005742;-0.27924162;0.1415645;0.2342325;0.059406195;0.094130985;0.019298906;0.13158284;-0.060704134;0.03186398;-0.17065537;-0.33728248;-0.052764203;0.05406023;-0.37336293;0.0062506865;0.061039202;-0.10327496;0.19102693;0.30279627;0.20556907;0.10129176;0.10643152;-0.090662725;0.19866218;0.19799434;-0.28501785;0.106573366;0.03218751;0.012094834;-0.055560205;-0.05849884;0.18558787;-0.15306956;-0.25527552;0.1360553;0.49533626;-0.018220212;0.23923749;0.39696407;0.1298453;-0.22724636;0.28156948;-0.15411218;0.057686336;-0.024816688;-0.11107314;0.32024702;0.35725415;0.09912323;-0.20783135;-0.015942687;0.047172323;-0.030386358;-0.3139554;0.1576491;0.13489835;-0.103949256;-0.02895347;-0.026566107;0.12702939;-0.25619054;0.39408043;-0.18224262;0.047360647;0.12433672;-0.26577988;-0.24202892;-0.07754063;-0.009487199;-0.0815203;0.04350509;-0.27360886;0.16865355;-0.120162934;-0.08889561;0.24422993;-0.08426204;-0.17333363;-0.0626119;-0.13137789;0.400268;0.24317238;0.17721923;0.34263074;-0.078505486;0.06605615;-0.40725642;0.13487811;-0.19347978;0.4224433;0.17055383;-0.16287406;0.00092182937;0.12928051;0.21736829;-0.27591607;0.106890514;0.049853936;0.05846684;0.032154813;0.01471191;0.19453545;0.055910595;0.2111502;0.07979193;0.24869741;-0.12614535;-0.13789152;-0.49328935;-0.026328864;0.14802682;-0.37252408;0.35099623;-0.21015139;0.22594269;0.011860285;-0.19024763;-0.04819411;0.086962;-0.03457515;0.11146645;-0.17672953;-0.11004137;0.11800539;-0.118143186;0.24424806;-0.10128448;-0.2011846;0.04829258;-0.11212268;-0.25609088;-0.19065857;-0.09735018;0.14711118;-0.1391678;-0.04697436;0.040229578;-0.11278515;0.08889599;-0.06736591;0.2874315;0.11382862;0.052882742;-0.14294778;0.123514354;-0.18577036;0.1796144;0.30418578;0.22436081;0.06551049;0.12023415;0.08608023;-0.15150905;-0.10795244;-0.08361699;-0.64063;-0.042583343;-0.047951967;0.201384;0.10902351;-0.12270147;-0.16145958;0.19804333;-0.018851247;0.02637492;0.05560621;-0.055725273;-0.060878105;-0.10476762;0.049360845;-0.11269747;-0.19312355;-0.22519895;0.19989006;-0.061312526;-0.02791372;-0.18919891;-0.24642713;0.11719365;0.08422385;-0.32268277;0.040533576;-0.021793507;-0.19190112;-0.07115166;0.16416581;-0.11103504;-0.13422415;-0.19425057;-0.22926629;0.1533717;0.16518119;-0.21878177;0.14102304;-0.22938582;-0.009396453;-0.04915578;0.35809326;-0.046837732;0.116798475;-0.063908316;0.17910805;0.06935835;0.13683972;-0.26679307;0.23064345;-0.14670965;-0.08117403;0.1753185;0.3199562;0.22302693;0.28734356;-0.4206156;0.0089339;-0.02373471;-0.24278729;0.01714965;-0.10895842;0.12755963;0.26381603;-0.13596445;-0.11996341;0.018876934;0.30333853;0.044851944;0.14054766;0.068562455;-0.18271491;-0.37709114;-0.05011328;0.021741142;0.22087613;-0.3186803;-0.02857651;0.030158862;-0.038924698;0.067865945;0.05442867;-0.19200203;-0.0075437846;0.115846634;-0.14439712;0.16267483;-0.13847315;-0.07366013;0.041175175;0.12238792;0.23746896;0.034404837;0.1030139;-0.08193224;0.013989608;-0.27613392;0.023496378;-0.40393057
0.19286355;-0.25253668;0.042123433;0.13948703;0.07826094;0.24117517;0.06948381;-0.008969901;-0.57253015;0.17362629;-0.061404653;-0.022355016;0.11024363;0.060247075;0.2582161;-0.19596918;0.12910582;0.06723053;0.0101209795;0.12405106;0.0091773905;-0.18631797;-0.13544318;-0.22013794;-0.0010126128;-0.07471907;-0.15325816;0.13634384;0.111143745;-0.06143084;-0.11893925;-0.2842387;-0.19593753;-0.0895704;-0.2712292;0.18653364;-0.31714818;0.07730496;0.037965797;-0.26067588;-0.032005597;0.0362048;-0.04554156;0.27933028;-0.10156875;0.22311153;-0.008306891;-0.06277947;-0.24653877;0.045767788;-0.21044374;-0.14936362;0.018460853;0.008977874;-0.17764232;0.07072424;-0.4635518;0.102598034;0.06139602;-0.028112441;-0.04633954;0.20557983;0.06315314;0.12786376;-0.18156588;-0.19549695;0.13231376;0.14834206;-0.09675257;0.22821727;-0.13180344;0.009303559;-0.09474232;0.100396305;0.11946083;-0.07115605;-0.23929846;0.10717956;0.17783651;0.15794712;0.41324422;0.14703189;0.18937647;0.07788362;-0.069861345;-0.2669644;0.14104506;-0.37133196;0.06491413;-0.022993587;0.08475626;0.02808092;-0.05006731;0.07644593;-0.13791895;0.023833748;0.036430083;0.20027651;0.1907399;0.27307308;-0.116130024;0.004535627;-0.28809187;-0.07727277;0.0883679;0.31510282;0.033361346;-0.109396674;0.28174976;0.23232038;0.03277398;-0.19155271;-0.13182212;-0.0033943446;-0.065097466;-0.26788905;-0.064950034;-0.08750218;0.01177228;-0.44952744;0.3427146;0.10560446;-0.118822165;0.0025049269;-0.056750473;0.21360765;0.12471444;-0.31426352;0.045304365;-0.12785383;-0.17310445;0.022482319;0.22790265;-0.10367701;0.12624002;0.069988504;0.04500784;0.2971;0.060517494;0.1964397;-0.6068542;0.25398886;-0.06993984;-0.15425897;-0.15533909;0.37019008;-0.11878864;-0.48137817;0.019427883;-0.041074563;-0.22011717;0.07992929;0.15349351;-0.0014942025;0.44262776;0.050068706;-0.16521;-0.08497938;0.023741696;0.19042419;0.43763983;-0.0035671804;-0.2803408;-0.02991232;0.075546324;0.09421707;0.21347508;-0.0769063;0.0066177;0.031998783;-0.23126554;0.06726328;-0.3647764;0.23396581;-0.10880142;-0.048438717;-0.10986222;0.04650383;-0.22921783;0.341936;-0.037135527;0.17310041;0.182839;0.053736765;0.20209357;0.15015925;0.22491017;0.0052813943;0.14482811;0.115104474;-0.11973176;-0.045768958;-0.16058184;0.17823239;-0.22701645;-0.0048783324;0.25274515;0.16131492;0.20530513;-0.08260985;0.08167579;0.071071714;-0.17947942;0.0398941;0.33514896;0.28161266;-0.1249088;0.3938424;-0.18654212;-0.07661361;0.11146512;-0.2545984;0.04727819;0.23329727;0.03198355;-0.5331089;0.040673915;-0.12534532;-0.003623075;-0.15993614;-0.10044806;-0.055396937;0.30071795;0.011157146;-0.11022178;0.069372684;-0.14368843;0.2845455;-0.20299917;0.24881384;0.30116826;0.24615021;0.0881971;-0.37230676;0.08929014;0.21573666;-0.11317034;-0.024303881;-0.112440966;0.14593942;0.067403875;-0.15957744;-0.33776304;-0.19439134;0.17424735;0.43346542;0.3251721;-0.34307936;0.25773165;0.017464433;0.103780836;0.0023124272;-0.10534043;-0.13538708;0.19144282;0.13746843;-0.18107706;-0.06465728;0.16362345;0.18791597;-0.07912134;-0.22660123;-0.034368627;-0.009422116;0.18389565;0.17724445;0.10355611;-0.03752938;-0.14088383;-0.43109167;0.040516887;0.099133335;0.124299034;0.16976172;0.16862492;0.5013737;0.16350795;-0.29594257;0.35044757;-0.12602726;0.030568572;-0.23819569;0.20064242;-0.32560214;0.057745125;0.1879343;0.15189666;-0.11789131;0.12569436;-0.1416142;0.062469922;-0.11846936;-0.08916121;-0.2333948;0.2672693;0.25268784;0.09292437;-0.0782309;-0.0067672185;0.16008963;0.27433658;0.24884288;0.10755512;0.16839595;0.24801037;-0.06794576;0.08589761;0.04962669;-0.0023194903;-0.14998797;-0.10324182;0.09823893;-0.11221142;-0.2250769;0.08205875;0.054232486;0.3792357;-0.055537116;-0.028553022;0.32124352;-0.015538915;-0.28983003;0.13413066;0.15029147;0.16280857;-0.093018584;0.015356118;0.22348118;-0.053776596;0.119546846;0.092485614;-0.32421786;-0.03698863;-0.022847172;-0.27215448;-0.03330866;0.15583177;0.16434987;-0.040732045;0.2640287;0.06188205;-0.032868475;0.37720695;-0.012987555;0.04869132;-0.01716691;-0.25573298;0.039133005;0.006601287;-0.008331521;-0.039140727;0.023091076;0.082736515;-0.14159788;0.05437969;-0.088236675;0.49601045;0.050678775;0.13863112;0.100060955;0.046324164;-0.27020615;0.15263648;-0.18549305;-0.16023842;0.049452554;0.26790723;0.38218352;0.31371534;-0.30327016;-0.1961377;-0.07878928;-0.06286213;0.21236958;-0.34039077;0.19524364;-0.3551705;-0.08167035;0.16865309;-0.09109333;0.20797841;0.057379346;0.23207471;0.17175025;-0.09009809;0.05386503;0.06592265;-0.4487538;0.014012812;-0.1955734;0.07177572;0.006382315;-0.057419732;0.08542638;-0.13060187;-0.022042897;-0.01958481;0.028837193;-0.16044721;-0.0048744394;0.020599585;0.043974314;0.21306843;0.17354795;-0.029900579;-0.1196208;0.3959885;-0.29112574;0.273543;0.08001051;0.4190178;0.34631848;-0.018448751;-0.044433095;-0.11429202;0.017597714;-0.2433869;0.22246893;0.089690566;-0.018776048;-0.16613907;0.21881661;0.24846314;0.10070911;0.40809354;0.06689498;0.0642465;-0.056991726;-0.07107384;-0.3804454;-0.1022484;0.031608593;-0.010430643;0.45926437;-0.2706987;0.20586231;-0.21248199;-0.20552327;0.17304856;0.055942446;-0.007728454;0.037661094;-0.25967395;0.10512792;-0.13689466;0.1474852;0.09645594;-0.070105106;-0.26295185;-0.08295025;-0.013018021;-0.35565504;-0.34953177;-0.16329269;0.024893025;-0.4147378;-0.103688836;-0.0393028;0.15083782;-0.050188173;-0.015482126;0.23742528;0.1068878;-0.30899835;-0.20607255;0.1288811;-0.20752656;0.23469393;0.037213348;0.047766358;-0.186437;0.12953888;0.00079514924;-0.08000382;0.06857394;-0.06641986;-0.22179036;0.07033895;0.053386617;0.23305027;-0.058374424;-0.14674628;-0.24544199;-0.03093852;-0.12812176;-0.19653222;-0.050974894;0.018886926;0.2188867;-0.11283731;0.099510126;-0.043615714;-0.15053684;0.00032186433;0.1534926;0.021309191;0.07259383;-0.114966765;-0.3404259;0.29402894;-0.03059228;0.008517044;0.096557274;0.28025153;0.0047413004;-0.19656974;-0.054135483;-0.2322903;0.30324897;-0.10652638;-0.10524264;0.054954004;0.1417196;-0.2592768;-0.042259693;-0.22543973;-0.20490375;-0.26044047;0.058310285;-0.047900047;0.16909754;-0.26600695;-0.16379066;0.15125804;0.07593579;-0.22936302;0.09545197;0.17694254;0.061915953;0.37873954;0.057842202;0.22355303;-0.17829113;-0.42867002;0.32446682;-0.065434024;-0.20396024;-0.17982377;0.11209291;0.14164725;0.20758602;0.16231348;0.035725553;0.085021794;-0.057226498;0.038475737;0.007819043;-0.17572677;0.0049800207;-0.038797297;-0.13092308;-0.113344;0.021481385;-0.19203502;-0.016561478;-0.022732057;0.047258418;0.11898987;0.05577247;-0.5101809;0.027786478;0.09572153;-0.4143651;0.0033857566;-0.32534194;0.018808808;0.1740705;-0.009274341;-0.14743705;0.06343114;0.040826637;-0.25804356;-0.17711088;-0.27191278;0.15819168;-0.18117267
0.25572824;-0.05265113;-0.11094987;-0.36595592;0.16549657;0.4614621;-0.0721433;-0.022085123;-0.01132029;0.24184403;0.016371367;-0.20702472;-0.030332481;-0.19895698;0.14704353;-0.17705165;0.22371452;-0.008862553;0.21600324;0.073047355;0.111891024;-0.2792854;0.026825693;0.012205692;-0.3224403;0.02767784;-0.057370935;0.030574271;0.005573226;-0.096544124;-0.03327141;-0.13459405;-0.20237048;0.07191527;-0.16561787;0.26241922;-0.07430023;0.081386186;-0.16812581;0.027997619;-0.13593227;0.14093;-0.1390385;0.1478;-0.18565443;0.12395848;-0.13394207;0.39795443;-0.13157715;-0.042622615;-0.10892201;-0.14712942;0.18503359;0.26733798;0.11014042;-0.021631924;-0.4636301;0.048019737;0.013707597;0.014551522;-0.094872154;-0.16585825;0.03139439;0.18615341;-0.0988341;-0.31220707;0.07632413;0.04851551;-0.052005906;0.31783736;-0.19879472;0.21003146;-0.1420505;0.35821277;0.15191299;0.071420565;-0.075521044;0.32438993;0.2154218;0.08859128;0.13639413;0.23871467;0.04193845;-0.029581888;-0.038295563;-0.1272769;0.043116484;-0.3441925;0.04294381;0.1478145;0.06722469;-0.14821282;-0.02012151;-0.3704559;-0.09515107;-0.08074517;0.04699886;0.21515155;0.004168446;0.23508395;-0.20367323;-0.08242845;-0.0974783;-0.0029091984;0.08260808;0.15034188;-0.100215994;-0.14439076;0.11764266;0.06344752;0.22275533;0.0523489;0.019790126;-0.4425712;-0.02199381;-0.08489914;0.24181093;-0.14543052;0.16818672;-0.20860705;0.19453336;0.10433108;-0.07056243;0.26303545;-0.0904462;-0.18376358;-0.007416305;-0.1846992;0.08980108;-0.09145011;-0.05003921;0.010592776;-0.037935603;-0.05833712;-0.17426363;0.32178327;0.022134567;0.18235278;-0.019806772;0.053165074;-0.1727601;0.20381497;-0.04887741;-0.0734489;-0.1617701;0.17756626;-0.13544689;-0.029165542;-0.2867299;0.24664162;0.01940239;0.15136547;0.20806162;0.049522817;0.19125487;0.13456471;-0.13591358;0.02736589;0.044497408;-0.12144399;0.39814734;0.23328479;-0.33816704;0.49470592;-0.03184833;0.30434185;0.33202562;-0.007346951;0.19744529;0.027735654;0.19754495;0.043298762;-0.4193936;-0.06377437;0.11564368;-0.0077549308;-0.21118471;-0.042254966;0.10179071;0.0050038025;0.12781815;0.26693398;0.03081823;-0.114663616;0.24201065;0.15622212;-0.037512034;0.1614045;0.081202194;-0.010430592;-0.07336582;0.14743489;0.058104657;0.0071474994;-0.1538407;0.08076155;0.044197123;0.24324818;0.18339244;-0.1806947;0.051965673;0.17215219;-0.25295624;0.2132179;-0.34333706;-0.06610059;-0.049990132;0.058285877;-0.10640111;-0.044374645;-0.042963017;-0.5119254;0.052040964;0.40402973;0.30229867;-0.17849408;-0.02293759;-0.0654453;0.11350031;-0.35877475;0.10732909;-0.12143145;-0.088118844;-0.15411152;-0.0850797;0.3356313;-0.16136071;0.14613238;-0.06218932;0.21398528;-0.15576416;0.10062952;0.29362768;-0.22570257;-0.007591947;0.16147129;0.012174209;0.014445277;-0.54008853;0.09023951;0.18805121;-0.20313051;-0.37046006;-0.039908934;-0.06890054;0.0625311;-0.042892437;-0.17220318;0.06970044;-0.029017825;-0.021651579;0.023909355;-0.095809676;-0.13342063;0.3434901;0.37798133;0.041317537;-0.2551617;0.021426337;0.17204124;0.10663822;0.08566937;0.20741142;-0.20901832;0.04140749;0.2844272;0.078888305;0.05932999;-0.06382461;0.15325984;-0.08444095;0.054002292;0.10818876;-0.10537072;0.113059446;0.25948521;0.1194412;-0.34792292;0.23477796;-0.05695328;0.064534694;-0.015035623;-0.087812126;0.005765792;0.15793966;0.2836224;0.118030965;-0.1083772;0.28353718;0.017495362;0.1076575;-0.032321133;0.12972642;-0.37373632;0.065121055;0.2097286;-0.026106369;-0.11585846;0.22083057;0.23350196;0.2533396;0.24539503;0.34905824;0.04798156;0.17781608;-0.08163927;-0.08369518;0.005679312;0.124797836;-0.012178356;0.16301316;0.07313706;0.059836946;-0.026226098;0.032005027;-0.056846254;0.22960627;-0.24088895;0.12077023;-0.083107166;0.105152175;-0.25817186;0.008292187;0.49742782;-0.18630548;0.42108774;0.1112401;-0.020037597;-0.0706934;0.0014828302;0.12866086;-0.07385266;-0.015555828;-0.00051730545;0.0048008095;0.07578378;0.10932565;0.3541724;-0.17756945;0.26132366;0.045317125;-0.20305331;0.36351582;-0.03983836;0.023975262;0.22479585;0.022220744;0.10710667;0.009239951;-0.10113765;-0.24832052;0.23360787;0.00663687;-0.10928919;0.09498131;0.011681579;0.20317681;-0.0542095;0.22792584;-0.08946648;-0.08828383;-0.06277378;0.14436026;0.099001944;-0.007885019;-0.027532235;0.00078889105;0.26846877;0.079745814;-0.23168759;-0.19943923;-0.1512949;-0.45084137;0.3463689;0.034067877;0.38910556;-0.6503117;-0.11206249;0.12957864;0.17946067;0.353381;0.08600314;0.29331023;0.034199566;-0.027552018;0.29508075;-0.084524415;-0.43116188;-0.035299998;-0.10908886;-0.0508917;-0.05744763;0.2547616;0.017896524;-0.0045756362;-0.048559573;-0.20678674;0.064418845;0.08419265;-0.05662101;0.15247893;-0.15048388;0.07087721;0.14311069;-0.011273139;0.07022107;0.06947237;-0.19548056;-0.156199;-0.29499456;0.05367883;0.01734069;-0.10017853;0.2595;-0.09896792;0.055946417;-0.40612328;-0.14312114;0.06450135;0.14879766;-0.033721033;0.045027446;0.27189857;-0.11425753;0.40059337;0.0529438;0.07378917;0.062015705;-0.17820558;-0.16499282;0.023740044;0.19712836;0.15945284;0.22273521;0.038627613;0.076435626;-0.024586186;-0.34979725;0.1180542;0.043421;0.052825674;-0.16736983;-0.19035172;0.068702675;-0.18876201;-0.5717806;0.3143789;0.13645098;-0.09709755;0.073479116;0.08821168;-0.37434098;0.004734822;0.048868317;-0.0045054583;-0.42573917;-0.09655786;-0.098480724;0.17711714;-0.10394209;-0.17100489;0.1467008;0.15850271;0.007114697;-0.165146;0.21538123;-0.37273312;-0.0289682;-0.03307129;0.11149352;-0.3723574;-0.064606704;0.080855586;-0.13401623;0.070328645;-0.08338226;-0.44121888;0.20560908;-0.2928034;0.25724578;-0.25846738;0.20797354;-0.18614934;-0.32776767;-0.07411466;-0.21328047;0.2021603;0.048511986;0.12612753;0.089452334;0.13725244;0.18346047;-0.115827926;-0.013492534;-0.12501267;-0.30338144;0.031683568;0.3437055;-0.25032738;0.06586605;0.0377384;-0.0069044908;0.07215632;-0.036962852;-0.06213915;0.10555991;-0.04462293;0.07728618;-0.12297436;0.03537958;-0.05782851;0.21131273;0.28475636;-0.09288375;0.115443766;-0.04769243;-0.18446736;-0.09221363;0.008785417;-0.090946615;0.064144336;-0.22502926;0.08592642;0.036213763;-0.047027886;-0.062614486;-0.0028357154;0.21641643;-0.052992947;0.2040272;0.0045585847;0.30175516;-0.12363862;-0.37098125;0.4120842;-0.08880127;-0.05354758;-0.2604278;0.32708147;0.5323352;0.14013782;-0.058944937;-0.027274191;-0.0043153428;0.07874961;0.029801551;-0.008655081;-0.059349824;-0.13944131;-0.009682944;-0.1629139;0.11827795;-0.08019628;0.17023507;-0.008141014;-0.043739684;0.27046564;0.28078693;0.24529214;-0.41437006;-0.19881035;-0.024287887;-0.27308103;0.10668901;-0.2819814;0.12022709;0.043247025;-0.21230043;-0.46674886;0.027850268;0.12859859;-0.38700637;-0.24681532;-0.17625217;0.03033116;-0.11985752
0.023568254;-0.030397225;-0.066626824;0.00027616488;0.1432236;0.12977263;0.11064757;-0.09763833;-0.1685591;0.3209997;0.083361946;0.098702475;0.07145094;-0.40245882;0.071514614;-0.16485699;-0.057535667;0.08999533;0.06904691;-0.19431967;0.1018882;0.33434522;-0.2700458;0.11011728;-0.08913553;0.08291197;-0.08054781;0.19451629;-0.02528784;-0.23140293;0.12552167;-0.06842765;-0.07685954;0.17904554;0.11179156;0.1273498;0.026909018;0.20881802;-0.057969898;-0.13408822;-0.12181866;0.20087749;-0.09723004;0.12719974;-0.08188578;0.23173423;-0.29231587;-0.14366063;-0.389546;0.09920599;-0.1287005;0.040563814;0.03442929;0.14706661;0.25128162;0.04375785;-0.15313719;-0.018556954;-0.21427877;0.05379885;0.36882117;0.04366563;0.2534462;0.0146307545;0.13736738;-0.43034703;0.042480957;0.20852064;0.21050318;0.20279956;-0.2242666;0.018773163;-0.11309278;-0.15167059;-0.11114284;0.025953352;-0.115915544;0.10723797;-0.030125441;0.022483509;0.06513361;0.20865214;0.18863848;0.097229086;-0.1650296;-0.055660266;0.3028441;-0.16324148;0.0990977;0.15512446;0.103658505;-0.19820318;0.026651427;-0.081874594;-0.019859081;-0.07508646;0.14605354;-0.24740586;-0.14688154;0.1175361;-0.087125205;0.14371222;-0.1986734;0.0999938;-0.09262464;0.122714795;-0.014308568;-0.25292733;0.12187906;0.05223173;0.22385821;0.13296899;-0.046560906;-0.26799753;-0.1567035;0.20133837;0.05341886;0.20044282;0.43810645;-0.2755558;0.21138003;0.018543782;0.018120268;-0.11278091;-0.029812587;0.19078662;-0.08649659;-0.48599917;-0.09543471;0.35206243;0.11189615;-0.26005757;-0.19555438;0.12582357;-0.20118661;0.117892034;0.1119151;0.2089932;-0.15776998;-0.039194487;-0.007682195;0.12198838;-0.05418288;-0.10677407;-0.09391115;0.23734377;0.081899434;-0.23273304;-0.20802434;0.103592195;0.09923069;0.18948357;0.2608972;0.005188347;0.14397663;0.08315105;-0.07444399;0.10781371;0.1949022;0.09685033;0.52861726;0.3796734;-0.07176965;0.43354413;-0.3216623;0.19276313;0.11384811;-0.09675179;0.091733575;-0.04403812;0.16878682;0.12285471;-0.33240944;-0.17097947;-0.081783816;-0.19421676;0.15336649;-0.2199043;-0.041681323;0.39942738;0.0733695;0.16607171;-0.06643339;-0.027842274;0.2954309;0.12593435;0.47734082;0.32593116;0.135762;0.097740315;-0.072856404;0.045468744;-0.055123642;0.05131991;0.057351563;0.018182259;-0.09511474;0.015715187;0.115641266;-0.09635777;0.28396404;0.26689783;-0.042430043;0.3599423;-0.030379891;0.12989543;0.07695697;0.3586195;0.26186463;-0.17612717;-0.070694886;-0.33574927;0.109015934;0.05668734;0.26680055;0.010531581;-0.16052395;-0.033187494;-0.057044607;-0.189876;-0.48253652;0.106713325;-0.094025634;-0.26003557;-0.10431343;0.51085836;-0.17835796;0.19936147;0.043784417;0.066226736;-0.04116839;-0.05243299;0.23133901;-0.0751436;0.062215418;-0.05453119;0.14218952;0.1430751;-0.19578181;-0.20197347;0.24135949;-0.13522214;-0.1713596;-0.15946747;-0.07829316;0.027339563;-0.20606442;0.18895312;-0.040190846;0.22284335;0.26843026;0.04113479;0.022836046;0.04487746;0.4455615;-0.036279455;-0.043216474;-0.25671548;-0.2648974;-0.064184055;0.035505775;0.061901648;0.15763587;-0.084271446;0.061236378;0.3185767;0.07651891;-0.0046237763;-0.3737851;-0.17859185;-0.029755346;0.1032845;0.15729415;0.42330167;0.17122543;-0.1367774;0.019765422;-0.20810565;0.045035418;0.18857329;0.08017902;0.1303659;-0.110193565;0.10087519;0.14432096;-0.10487739;-0.2576844;-0.033514097;0.10333353;0.11183091;-0.19159691;-0.094597556;-0.19768623;-0.16290498;0.053411063;-0.109301895;0.15512304;-0.08345447;0.2342836;0.049018774;-0.18797714;0.35350865;0.1615466;0.027154;0.24684119;-0.19338273;0.14386237;0.122261345;0.10673001;-0.098108895;-0.17017707;-0.05324178;0.07499099;0.23423411;0.09775967;-0.007673187;0.28480732;-0.12850659;-0.08339391;0.23350422;-0.04202067;-0.10753344;-0.17444535;0.15003973;0.07193856;0.14400785;0.017041476;0.0069789467;-0.10426077;0.10504362;0.26792017;-0.0972708;0.094196714;-0.19931099;0.22478339;-0.050727084;0.02986228;0.009975278;-0.27053693;-0.1138129;-0.042872828;-0.16225995;0.25856146;-0.2976551;-0.24907523;0.040100195;-0.1643225;-0.19567312;0.041285638;0.10619377;-0.10058763;-0.024979394;0.23078032;-0.104275405;0.2938871;0.28137928;0.18478067;0.016371857;0.17352471;-0.07589604;0.11538145;-0.14256614;0.22727422;-0.13393319;0.22254558;-0.08492008;-0.18771338;0.27472886;-0.23492526;-0.17638806;-0.027812429;-0.11753588;0.1693355;0.38659602;0.53631985;0.12154808;-0.19242352;0.008370615;0.040715206;0.16010356;0.4321288;0.25819921;0.27406317;-0.2095143;0.07250514;-0.024576122;0.08431508;-0.13254057;0.13173242;-0.018375518;-0.041717205;-0.25066495;0.27706236;0.109170556;-0.22746132;-0.11038478;-0.209923;0.026897479;-0.006107863;0.21030773;0.069992974;-0.1817649;-0.15850002;0.022661475;0.12567806;0.4248292;0.21201411;-0.22485045;-0.24838547;-0.11590939;0.19079378;0.1337801;0.4498561;0.19350654;0.10596814;-0.20046708;-0.21007916;-0.46861562;0.06241288;0.15988074;-0.116194636;0.14755334;0.16031563;0.06759698;0.06550819;0.36331564;-0.16547456;0.4750882;0.04113413;-0.1595362;-0.12724045;0.28833342;-0.06041612;0.17706092;0.066368744;0.15483825;-0.00544799;-0.36500216;0.031607162;-0.074007384;-0.06630412;0.1399666;-0.211954;0.34976137;0.015256975;-0.19392401;0.09750445;0.070347555;-0.3729629;0.14000082;-0.12578978;-0.24078244;0.11693933;-0.17648123;-0.06624097;0.084656626;-0.0799891;0.23331043;0.016493594;0.17035224;0.025789402;0.43315706;0.20635739;-0.016215963;-0.2834012;-0.0029203258;-0.33260754;-0.21485768;0.08452918;0.2347292;-0.26174557;-0.0150657855;0.08311111;-0.24514383;0.21635786;0.12887014;-0.33727285;0.229459;-0.36582574;-0.19908613;-0.3647792;0.14210656;-0.40695783;-0.1498551;-0.23741457;-0.07416417;0.08335536;-0.016646765;0.1344271;0.1879847;0.20359768;0.16267312;0.050838172;-0.044380333;-0.014355868;-0.20030029;0.15081209;-0.24730787;-0.08838728;-0.10229929;-0.26591724;-0.52368236;0.02297223;0.060930308;-0.038963024;-0.0005383131;0.16596426;0.21279432;-0.022373259;0.18869522;-0.05944629;0.15199195;-0.0087846825;-0.19961627;0.1171199;0.068434484;-0.27265367;0.15805629;0.21390094;-0.02410258;0.2494053;-0.089246176;0.44812912;-0.007860017;-0.071226165;-0.15619303;0.028417686;-0.09973412;-0.3193405;0.18271142;0.04887321;0.09387754;-0.19161892;-0.32908368;0.2895508;0.24037012;0.00022501952;-0.11726505;0.24797766;0.38777566;0.17311965;-0.17292537;-0.10828634;0.20724878;0.0678809;-0.05190671;-0.0851793;-0.20075157;-0.046898305;-0.061494995;0.009507619;-0.13561909;-0.14163828;-0.028884891;0.027484884;-0.16617607;0.041164506;-0.18265088;-0.1566622;-0.3318053;-0.17416681;-0.00939352;-0.39569038;-0.009529085;0.08295905;-0.06394835;0.1308915;-0.18408774;-0.05529079;0.045067936;0.055813037;-0.13277498;0.18156278;0.30400875;-0.05454715;-0.119830444
-0.12234594;0.19534175;-0.02338771;-0.30582166;0.22626068;0.25890985;-0.11337114;-0.017435415;-0.25224456;0.18981121;0.048107207;0.07330559;0.16414474;-0.015469363;0.0006792095;-0.11549481;-0.21214661;-0.10510135;0.09163834;-0.079386316;-0.13059393;0.20057367;-0.048648007;-0.08643464;0.075399294;0.092656486;0.2323089;0.23009135;0.043829262;-0.02462727;0.12832905;-0.09757968;-0.19677523;0.07635295;0.19940905;0.21115936;0.25691897;0.19416578;-0.1284749;0.07967387;0.0312648;0.018561052;0.07719392;0.18158592;-0.11085484;0.22724749;0.010054235;-0.0943247;-0.3387689;-0.1284123;-0.2447211;0.0875358;-0.06124198;0.28120297;-0.059190243;0.33845738;-0.012410398;-0.18903442;0.07184996;-0.026078347;0.09016772;0.011644027;0.018196283;-0.04426753;0.15739079;-0.320733;0.07183094;0.052887607;0.16423745;-0.17886704;0.13024013;-0.033592306;-0.18746798;-0.5302437;-0.15444162;-0.11591965;0.06409576;-0.2645589;0.059889924;0.18989983;0.0013713513;0.0800407;0.04440007;-0.07717052;-0.121436685;-0.14909716;0.37097344;0.24053481;0.012871184;0.023280445;0.18736412;0.06792341;0.099985294;-0.06611468;0.17703712;-0.034978148;0.07473318;0.10151247;-0.22729182;-0.00015671983;-0.15472275;0.09208462;-0.169599;0.15917924;0.05964806;0.08994823;0.36077607;-0.3653956;0.17529428;0.099885575;0.19302492;0.020043438;0.07599561;-0.083100826;0.0023621821;0.13751458;-0.056364793;0.425281;0.363963;-0.32374418;0.26820624;-0.07751248;0.16302045;0.40103874;0.082918316;0.106920175;0.24376836;-0.36974576;-0.021275515;0.06586875;0.060364887;-0.3139667;0.102856666;-0.069257155;0.34296963;0.25767756;-0.1839669;0.01706734;0.037576538;-0.030056214;0.20266867;0.28629223;0.04408355;-0.12531577;-0.1704247;0.120732635;0.16282365;-0.0278748;-0.17513414;-0.213824;0.26373017;0.19865304;0.11342081;0.018664515;0.02214929;-0.0073684575;0.0028511377;-0.12562494;0.34903285;-0.00022234036;0.4386372;0.21803041;-0.101706654;0.17932822;0.35855561;0.049339272;-0.042291347;-0.03277997;-0.102357864;0.017602148;0.08984543;0.18301643;-0.021261726;-0.13297485;0.09120275;-0.2545766;0.030944116;-0.11658436;-0.10207044;0.13918048;0.018628445;0.22338833;-0.106373385;0.063360706;0.10188152;0.059189767;0.069483876;-0.089083746;0.1120668;0.28086403;0.04256338;0.10782116;-0.10460661;0.13376385;0.16432355;0.060092963;0.107074805;0.07508127;0.018541679;-0.053476;0.115796186;0.003982375;-0.040621758;0.43578368;-0.2341285;0.036181234;0.11947424;-0.020081338;0.05994304;-0.24330388;-0.15809973;-0.1856306;-0.095026605;-0.08680475;0.29525524;0.22305468;0.052421417;0.1692317;-0.11609966;0.11891573;-0.10663788;0.06821417;-0.1730619;0.11226826;0.10099184;0.45788965;0.037825596;0.015836857;0.04672152;0.010242186;0.0072264606;0.06763597;0.250493;0.046444714;0.21789692;-0.11504987;0.047170177;-0.12322733;-0.28246996;-0.23601775;0.2604212;-0.29155162;0.18155693;-0.23397812;-0.20279628;0.24128862;-0.11638074;0.015399903;-0.07486251;0.1225791;0.046244726;0.022707738;0.1840511;-0.0764373;0.23094825;0.00022553334;0.15423648;-0.22395629;-0.1893597;-0.0738651;0.087037526;0.06672432;0.27900624;0.13552406;-0.17553337;0.29378304;0.07747661;0.11180665;-0.40774047;0.12896492;0.0150155015;0.12678337;0.1341664;0.12343542;0.22090833;-0.272615;0.13010624;-0.12645333;-0.1202441;0.019890051;0.12542245;-0.070768856;0.1290167;-0.073479556;0.24738261;-0.03643193;-0.044787265;0.038550608;0.17823648;0.019436972;0.124915;0.04134484;-0.13751715;-0.15107478;0.15106395;-0.0076469774;0.06480856;0.19312353;0.062051903;0.077870086;-0.07068734;0.11650556;-0.17131867;-0.111719;0.25753883;-0.19528595;0.066962175;-0.053752787;-0.0017999322;-0.07969604;-0.26912418;0.04241915;0.28761968;0.12474686;0.014660084;0.13240579;0.19550519;-0.2514774;0.07984152;0.41442502;-0.14630255;0.16024639;-0.114433564;0.03994279;0.15541846;0.049615584;0.18758328;0.07291655;0.060232345;0.19488733;0.19374128;-0.18709809;0.030783875;-0.0017620312;0.3673918;-0.21039513;-0.12210761;-0.08507043;-0.14695908;-0.18622439;0.19020678;-0.14697616;0.17071836;-0.04926779;-0.06436638;-0.26834902;-0.08040278;-0.082427934;-0.039753363;0.07035703;-0.3015433;0.19191845;0.23557812;0.042593017;-0.0017766044;0.14809214;0.1315379;-0.037656803;0.1340704;0.077126004;-0.054485228;0.011152984;0.041203044;-0.1694847;0.13630551;0.102192715;-0.2300624;0.0088428175;-0.16569547;-0.5521888;-0.050469007;0.08916014;-0.11257057;0.06329951;0.12533875;-0.04401033;-0.10610343;-0.002042457;-0.143781;0.24895218;0.21096945;0.5169208;0.39446467;-0.16798663;-0.00021129023;-0.2830769;0.055327952;-0.17981641;0.19507776;0.014390731;0.00046278854;0.20012332;-0.1464313;0.18267544;-0.0945681;-0.18695557;0.048257906;0.052504428;0.20615032;-0.07521809;0.19765723;-0.25264642;-0.30041146;-0.037041247;0.44026324;0.09909112;0.069923244;-0.08382694;-0.30068716;0.3031108;-0.01574917;0.114527084;0.12499396;0.12372615;-0.012695101;-0.024704538;0.09745628;-0.21686433;-0.13740814;0.11587157;-0.20542736;0.36054793;-0.08162454;0.22430545;-0.002218275;0.043530323;-0.21580553;0.3584973;0.21971047;-0.17707184;-0.09097808;0.0818539;0.011515411;0.15446338;-0.07378239;0.106005006;0.05819632;-0.0023805809;-0.018657418;0.17081048;0.078360446;-0.017959291;-0.23659363;0.19731937;-0.007073541;-0.03133847;0.26347852;0.23750184;-0.30325955;0.034945004;-0.06808389;-0.08896167;-0.059584115;-0.07465718;-0.061541848;0.004355928;-0.020567505;0.20356503;0.1346193;0.16875386;-0.014561327;-0.14029637;0.12240005;0.025588833;-0.055400435;-0.05570722;-0.054804947;-0.392601;-0.037695855;-0.064352125;-0.36493224;0.039002094;0.07616522;-0.26205498;0.13459681;-8.882672e-05;-0.09475434;0.37954924;-0.049968693;-0.18896458;-0.21530776;0.16846792;-0.4837509;-0.10392262;-0.014889846;-0.27029487;0.17489776;0.036471818;0.0038494668;0.08256971;0.116260685;0.08675755;-0.038806006;-0.14658448;-0.14249483;0.13601166;0.15366125;-0.06685038;-0.054424133;-0.29659787;-0.092855744;0.057460226;-0.10991399;0.041053053;-0.013997971;0.117382824;-0.083638705;0.072082885;0.06613996;0.0625411;0.14836523;0.06523963;0.25448632;-0.33437362;0.13951531;0.25716844;-0.03485131;0.24796438;-0.040875267;-0.0875099;0.25338805;-0.14211647;0.297616;-0.310064;0.1332643;-0.05868254;0.2074124;0.2356522;0.07172443;-0.15256044;-0.1484478;-0.12433699;-0.31842065;-0.1525457;0.012381189;0.22369798;0.027861187;-0.059010543;0.16977337;0.12473958;0.12749483;-0.12506963;-0.15671304;0.24099839;0.090285756;-0.23728676;-0.43822378;-0.07918189;-0.034301177;-0.070273995;-0.006522218;-0.20940225;-0.074565604;0.2651071;0.33462286;-0.17233104;0.09088215;0.020836154;-0.014469923;-0.112549;-0.26410025;0.22679833;-0.14389266;-0.03258769;0.1379092;-0.11212095;0.11261242;-0.020790381;-0.1910844;-0.08638845;0.18343121;-0.22605868;0.23725396;-0.18511231;0.022313856;-0.037806395
0.02247104;0.10156324;0.033246238;-0.4493414;-0.14390115;0.11699781;-0.068888046;-0.026039118;-0.025383372;-0.21067023;0.12208671;0.15678135;-0.052997578;-0.15087023;-0.031651046;-0.12822382;-0.05023716;0.057824578;0.073329434;-0.11309086;-0.016876293;-0.04808178;0.14827693;-0.10762718;0.16288231;-0.12352113;-0.030367846;0.13303904;0.06743104;-0.16112417;0.017142145;0.07431339;-0.24715166;0.1837978;0.27816442;0.042828016;-0.087932356;0.10178006;-0.22018932;0.04656622;-0.045618504;0.047427695;-0.021228516;0.15715288;0.0641484;0.4897678;0.083674945;0.1935591;-0.10140827;0.10693647;-0.1894775;0.087643646;-0.07248556;0.12126717;0.12838066;0.2947407;0.1692201;-0.2706622;0.12461729;-0.06546707;-0.0023823397;-0.32042095;0.111674115;0.108544655;0.010344571;-0.24053171;0.033562917;0.15274213;0.26103538;-0.085603446;0.2226863;0.07346727;-0.15951538;-0.44827458;0.16162707;-0.06857365;0.15645534;-0.11736407;-0.0814122;0.3061055;-0.091314696;0.027983874;-0.36755195;0.05516008;-0.06816623;0.22565389;0.28856596;-0.022234995;0.118369244;0.048570108;-0.07656282;-0.0034002897;0.044861205;-0.15637249;0.22107944;0.28005496;0.1913166;-0.15414135;0.051282916;0.1486616;-0.23230593;-0.059588686;-0.228978;-0.07427635;-0.049658388;-0.00059001864;0.528119;-0.2569211;-0.119040914;-0.102782324;-0.036947537;0.02592192;-0.031644553;-0.4585579;0.23052602;-0.0449745;0.19368263;-0.092729114;0.39262614;-0.4083034;-0.016851852;-0.11288066;-0.075968154;0.48790118;-0.03401763;-0.158448;0.21394487;-0.2877711;-0.42289233;0.016297441;-0.042630564;-0.038899444;0.26209223;-0.06472845;0.19410786;0.36472166;0.12472411;0.14356312;-0.061239228;0.06678347;0.041070588;-0.049662188;0.15837522;-0.065312706;-0.14628588;-0.06691186;0.20602904;-0.25193566;-0.33849314;0.21688452;0.0067574806;0.18411249;-0.012619648;0.13165861;-0.040918663;0.06114165;0.11741861;0.021936644;-0.029128978;0.07452027;0.1694071;0.011064136;-0.2178851;0.23496802;0.07408882;0.12135942;0.013303591;-0.033142008;0.008947176;0.084074795;0.04709118;0.18506838;-0.060634207;0.12411976;0.38395604;-0.14675848;-0.11233267;-0.10711834;-0.09470603;0.18063061;0.011587757;-0.13839453;-0.10672736;0.101194456;0.1319512;0.22107494;0.17607841;-0.33386105;0.18228433;0.14000426;-0.052943747;0.009306965;0.39787832;0.21083103;0.03331614;-0.25325173;0.07014321;0.2332312;0.07795119;0.103820935;0.15132612;0.014062615;-0.32009286;0.41395307;-0.34667546;-0.31943384;-0.004483907;0.011843027;0.044996276;-0.10148377;-0.15922299;-0.080804594;-0.21725808;-0.08966851;0.35618287;0.09095523;-0.008598453;0.054837927;-0.23614702;0.15835378;-0.15690163;-0.049499307;-0.241853;-0.09334019;-0.020157238;0.20820592;0.06727986;-0.026849136;-0.1411664;-0.11938533;0.37863454;0.052602116;0.27475932;-0.2977128;0.0614777;0.16662021;0.24390753;-0.0846871;-0.1910088;-0.053705417;0.32151914;-0.1820078;-0.34465885;-0.38738877;-0.05050783;-0.007935564;0.06779473;0.0634369;-0.20067322;-0.115988776;-0.22550355;0.08321735;0.36588395;-0.25021362;0.11490273;0.016057221;0.047789782;-0.11497922;-0.1923492;0.1603453;0.008299069;0.016060056;0.18898255;-0.033302635;-0.3767427;0.029704327;0.023162065;0.20483992;-0.27941605;-0.06176596;-0.06938348;0.05478566;-0.0775303;-0.008443208;0.24019839;-0.34915203;-0.14035563;-0.0027679428;-0.048984412;0.032339685;-0.040240973;0.03984403;-0.0023181003;-0.3539958;0.36556068;0.035088506;0.33704442;0.10258755;0.04895361;-0.089826636;-0.043528765;0.037483204;0.22811797;-0.2760227;-0.0741666;0.023612281;-0.06722068;-0.036024515;-0.09161778;0.39370915;-0.08245775;0.14607227;-0.1205457;-0.19162908;0.27245975;0.11893309;0.12830305;0.017053427;-0.05955268;0.08814796;-0.079864465;-0.058708254;0.13317347;0.05507955;-0.08922128;0.15493584;0.026193168;-0.2613934;0.16044268;0.111315414;-0.23411113;0.13153093;-0.051128514;0.036584727;0.22645701;0.29992265;0.04372987;0.27476895;-0.1276286;0.119675174;0.03837709;-0.03378158;-0.03822023;-0.051979266;0.10373053;-0.038759723;0.021674216;0.20079637;-0.27254573;-0.4432934;0.22431792;0.294142;-0.03519037;0.058565315;-0.1497693;-0.22592528;-0.017872717;0.108928144;-0.010259518;-0.12602034;-0.5488621;0.110225216;0.16582684;-0.018730978;-0.22049786;0.2619862;-0.11024326;0.1000032;0.2404699;0.02337698;-0.1383008;0.007927608;-0.15556596;0.18171954;0.14748923;0.1403097;0.021888185;-0.0011554675;-0.20699757;-0.44028842;0.087806664;0.10253503;-0.16345683;-0.040846694;0.26490372;0.13631457;-0.45077726;0.09850513;-0.077837855;0.4102176;0.27114752;0.29856762;0.4871736;-0.12944806;0.096552335;-0.11297161;0.096876636;-0.13678727;0.16156836;0.15499239;0.07743979;0.29215577;-0.05916722;0.08636179;-0.15424533;-0.002039435;0.12065709;0.2382911;0.024700534;-0.023186423;-0.07083972;-0.16255035;-0.19200422;0.07023133;0.14802803;-0.1290627;-0.049521044;-0.24223498;0.0702636;-0.08137256;-0.14922097;0.10474234;-0.23092176;0.22820187;-0.09426076;-0.03717072;-0.09570103;0.19234842;0.054111235;-0.044032082;-0.028133512;0.16554299;0.04829826;-0.015177483;-0.09548636;0.19799995;-0.29747343;0.106628135;0.09110998;-0.28786877;0.16810249;0.18953626;0.09841341;0.013439256;-0.16624522;0.021106603;0.13567226;0.05109758;-0.11001883;0.32787174;0.0649954;-0.058057852;-0.021143619;0.24392942;0.10820909;-0.3501175;0.22591643;0.009032646;-0.61384773;0.13981678;0.075163744;-0.38661978;-0.024131864;0.07907667;-0.02315996;0.2289529;0.14125738;-0.14266482;0.017942863;0.04655138;0.06079913;-0.075500265;-0.12416421;0.29889596;-0.07705601;0.15394396;-0.03517112;-0.12628686;0.07806453;0.051070012;-0.2759542;-0.13744769;0.1430379;0.06970719;-0.02182079;-0.02171574;-0.18174425;0.3806476;-0.0075768963;-0.24899505;-0.012035151;0.20016895;-0.44156304;0.15054484;0.18524556;0.07609544;0.22584742;0.087936185;-0.089092895;0.081497334;0.007703662;0.14603785;0.23803468;-0.22225203;0.0045985286;0.18109061;-0.11461972;-0.08040757;-0.1174434;-0.13707635;0.07646109;-0.06793279;-0.13603953;-0.111732766;0.14140387;0.17024618;0.22101077;-0.014505386;-0.19224744;-0.029959138;-0.21521766;-0.105580926;0.10430802;0.025985379;0.090318814;0.097601175;0.11992513;0.09801447;0.016332973;-0.087401465;-0.0359582;-0.04520228;0.026779748;-0.32150716;-0.011580405;0.08599361;0.26376015;-0.0425137;-0.1333889;-0.21589543;0.31797832;-0.13975292;-0.19697939;-0.21904758;0.105600804;0.17214179;0.077321514;0.07456293;0.30270123;0.16871418;0.12387983;-0.13223827;-0.14957191;-0.0813408;-0.058146045;-0.27928972;-0.08435758;-0.1536841;-0.15447012;-0.015191092;-0.09633991;0.010885642;0.4294883;0.20332468;0.20025313;-0.11914256;-0.15137939;0.017109089;-0.25605035;0.17145343;-0.29469624;0.24698183;0.16486827;-0.086170554;-0.24480982;-0.08925514;0.13245052;-0.24527305;-0.26815724;-0.20162386;0.16634236;-0.56973356;-0.14802724;0.0023845523;0.025619837;-0.237793
0.23707217;0.17066143;0.2557449;-0.4799814;-0.18845296;-0.04684163;0.0077462075;-0.15240933;0.2839925;-0.06635334;0.25893742;-0.017388254;-0.2847759;-0.05712832;-0.14771126;-0.01332331;0.08120118;-0.13328709;0.24565697;-0.06900374;-0.06170974;0.0030876559;0.20361683;-0.27586588;0.10085603;-0.09167434;0.1526189;0.07521409;0.05167226;-0.054084092;0.28379947;-0.21270503;-0.03099172;-0.11142345;-0.10159316;-0.21740322;-0.25662568;0.2376588;-0.26185665;0.033824604;0.14426678;-0.18638407;0.16041426;0.3567554;-0.0651529;0.33658797;-0.30232844;-0.13958807;-0.31760773;-0.009188951;-0.22289743;-0.014256987;-0.04617545;0.08062406;0.23722357;0.21250874;0.3376442;0.11441953;-0.065032735;-0.28898188;0.1830466;-0.32426575;0.010653759;-0.014673651;-0.14695111;0.119881906;-0.16661471;0.13543104;0.34354195;0.27185073;0.17834114;-0.03773015;0.10802965;-0.21231115;0.11481761;0.004628671;0.14447068;-0.2143634;0.030871488;0.22847545;-0.057823367;-0.08407148;-0.39096886;0.0646057;-0.12181058;0.18085371;0.22816746;0.351623;0.1564944;0.11404741;-0.15525575;0.09145345;-0.026694426;0.117637455;0.10971069;0.33266616;0.1540408;-0.023072083;-0.13105482;0.10856975;-0.18084542;-0.077975065;-0.1829349;0.071330175;0.20797408;0.013879557;0.19761264;-0.0327137;0.14989579;-0.20207556;-0.12605628;0.1110137;-0.02952907;-0.3582723;0.13953;0.15998887;0.052531876;-0.36452043;0.35948256;-0.20211698;0.42987347;-0.027854964;-0.15009919;0.24523596;-0.2921403;-0.26797196;-0.16725533;-0.17299491;-0.23327108;0.16876398;0.24644345;0.0024499716;0.20340198;-0.32603353;0.3029507;0.32298633;0.17888819;-0.16791324;0.07685163;-0.13777018;-0.050146334;0.019581812;0.20288363;-0.055234313;0.20785351;-0.22921458;0.3864955;-0.034075253;-0.3508982;0.058437925;-0.2729157;0.19198704;0.08955211;-0.0095904665;-0.04031041;-0.07931515;-0.07857666;0.010344181;0.046771813;0.014044308;-0.06471543;-0.12334915;-0.040927682;-0.19965692;-0.057224818;0.22411348;0.161511;-0.20520552;-0.006721613;-0.010865621;0.041811295;0.12489797;0.19167489;-0.32803556;0.16230999;0.19435686;-0.0721879;-0.07723981;-0.016301075;-0.11641515;-0.076212764;-0.25805092;-0.025506416;0.13319384;0.109043844;0.08975932;-0.11794314;-0.098920874;0.34824038;0.23018637;-0.072718404;0.00076502457;0.4703623;0.17370164;0.24826011;-0.17143752;0.15983249;0.33266482;0.27082366;-0.013069392;-0.017786266;0.19913594;-0.10458747;0.306943;-0.21904905;-0.26706237;0.10920857;0.08028268;-0.08530372;0.3709176;-0.14967835;0.16338034;-0.21514009;-0.05574718;0.4527191;0.19127788;-0.09142783;0.07591094;-0.42212927;-0.1145973;0.13389899;0.1784785;-0.21588373;-0.19002678;-0.26877436;0.020344784;-0.22999987;0.39842054;-0.15073238;-0.23774111;0.2187172;-0.0036492378;0.024480466;0.0316262;0.14772406;-0.041450575;0.21079344;-0.24293914;0.08286911;-0.14853567;0.2425686;-0.1658524;0.21142954;-0.07930228;0.06531079;0.14881706;0.16366336;0.09146189;0.03025246;-0.15509804;-0.043104652;0.31785503;0.27395943;-0.13880172;-0.06825772;0.03158906;0.10996297;-0.34893653;0.11076026;0.007686219;0.26769185;-0.14320268;-0.012600073;0.0043868376;-0.37886187;-0.14538246;-0.07663567;0.25551504;-0.28626287;0.0424386;0.046409644;0.408112;0.31038827;0.06288969;0.23043652;-0.66566145;-0.08537427;0.15940186;0.05250383;0.029185677;0.11719662;0.14621632;-0.08651979;-0.20738158;0.11778956;0.056234185;0.14185995;0.036767043;0.09398539;0.20698957;0.03548851;0.05528282;-0.02647299;-0.062271763;-0.1402044;0.023647219;0.11258923;-0.006882359;0.019482816;-0.10774037;0.008316995;0.2515641;-0.26955175;-0.11611371;0.21169703;0.03913148;0.08592477;0.021526165;0.0032759656;0.045272447;-0.26244035;-0.020293785;0.07096639;0.2802893;-0.07173888;0.17898843;-0.03768961;-0.14915206;-0.06722515;0.13260569;-0.168555;-0.009648629;-0.21802893;0.08592434;0.15605362;0.2641699;0.15112445;0.27508733;-0.31209153;0.2584252;0.04201039;0.1393487;0.14926575;0.13412331;-0.08170621;0.07252906;0.27233896;0.1641952;-0.059182197;-0.16314253;0.29839358;0.059344344;-0.03416074;0.010313464;0.18027289;0.004454329;-0.14723307;0.23620301;-0.04523721;0.06686505;-0.09149344;0.14839804;0.15469952;-0.18003473;-0.42019024;0.03392505;-0.032382224;0.16520827;0.12394844;-0.19502443;-0.15468514;0.04512774;-0.27223483;0.1662167;0.07088541;-0.085734665;-0.091099694;0.22674376;-0.17728429;-0.37456876;0.2478926;0.006864074;-0.3236913;0.015344517;-0.004977779;-0.10148914;0.03515152;-0.2576842;-0.10158014;0.10116901;0.019543199;0.040485907;0.3931235;-0.14398287;0.08169663;-0.03767569;0.06924151;-0.18700276;-0.1272787;0.25444645;-0.035518836;-0.15562168;0.0028612835;-0.066133216;-0.23098098;-0.1323084;0.1497656;0.025206992;-0.047740586;0.3287835;-0.02353712;-0.13954528;-0.15486766;-0.053667855;0.06428683;-0.2573099;0.19274054;-0.11982304;0.4193748;-0.014509319;0.2855017;0.060403503;-0.04974319;0.4107338;0.28980744;-0.2811647;0.007404184;-0.0023830582;0.1808862;0.07810466;-0.10259461;0.39806637;0.22048032;-0.12475127;-0.017540181;0.160546;-0.2562073;0.21711868;-0.07465286;0.0050902516;0.0793691;0.06893196;0.06914407;-0.0622384;-0.07012929;0.2246114;0.04989413;0.02946165;-0.043650992;0.14724109;-0.08777228;-0.047910735;0.049811658;0.11516184;0.007338528;-0.29564488;0.32953662;-0.1319899;-0.4810503;0.2371006;0.071889326;-0.63146967;-0.0657234;0.11618529;0.16019899;0.19404319;0.013662121;0.07070493;-0.055926897;-0.11609171;0.010781164;-0.05376691;-0.09184784;0.2635875;-0.09828325;0.100463815;-0.20675619;0.10862529;0.00048501737;0.06518463;-0.1811785;-0.026871223;-0.059709303;0.035882972;0.22536524;-0.13262199;-0.43777487;0.3152585;0.14111122;0.19590509;0.19640383;0.29258022;-0.38450542;0.16212381;0.09143333;0.08144984;0.3445617;0.13741525;-0.0041762744;0.37320346;-0.09757358;0.16439663;0.4984751;-0.038811658;0.06373508;0.06956689;0.15607098;-0.39365923;0.2547469;-0.1274115;0.02531815;-0.27977034;-0.099794395;-0.15123016;0.16153619;0.19661205;0.0040925634;0.32420063;-0.016833581;-0.18356253;-0.0098119;-0.036252555;0.24076171;0.107650965;-0.15734917;0.20573252;0.25697365;0.33695674;0.025232993;-0.32109433;-0.0321553;0.07895131;-0.0761954;-0.31341818;0.0008370059;0.058062244;0.05945719;0.25560397;-0.020668583;-0.32083872;-0.16843757;-0.047860447;-0.19685675;-0.36664355;0.4589343;0.44455814;0.037120458;-0.081844464;0.28592756;0.15663928;-0.022833617;-0.3483518;-0.13054016;0.24725004;0.016058564;-0.14124608;-0.1275012;0.1031277;-0.21765447;0.16857736;0.081541695;-0.07930279;0.10250477;0.19300184;-0.06310502;-0.12247483;0.10045153;0.2758279;-0.008948462;-0.009200586;-0.1909108;0.25597906;0.24554971;0.076496065;0.1197067;0.057283852;0.15743843;-0.21704821;0.4377689;0.016580667;0.29055086;-0.23796421;-0.06786017;0.08970661;0.018909778;-0.13024454
0.2062809;0.009301634;-0.13969527;-0.70569366;0.05278695;-0.07048457;0.168269;-0.19166604;0.20161809;-0.0032272069;0.04848283;0.026041389;0.21720202;0.051564008;-0.028581167;-0.06794837;0.0028664027;-0.06081486;0.48522493;-0.017447684;-0.09173294;-0.41852912;0.3180285;0.09458404;-0.034071814;-0.107067145;0.08470439;0.0055821356;-0.008999175;-0.17976189;0.09599816;-0.047522314;-0.025288943;0.07311181;-0.17623761;-0.29845077;-0.5470443;0.23084484;-0.27204493;-0.053225428;-0.08231304;-0.1509006;0.18360108;0.058275748;-0.12158927;0.22889641;-0.21789107;-0.18240775;0.14496277;0.089735;-0.09537611;0.07679799;0.012520078;0.025853334;0.022382565;0.08968212;0.4074838;0.04554861;0.020697605;0.050131895;-0.16385274;-0.23601106;-0.008162128;-0.14371362;-0.011357987;0.28984717;-0.09853747;0.096067466;0.19726235;0.02580424;0.18115321;-0.2385232;0.06515918;-0.11259927;0.20478112;-0.06531253;0.15109964;0.10578335;0.0901516;0.09925492;-0.047784247;-0.20387863;-0.22127871;0.20735304;-0.20824394;0.06185016;-0.04178527;0.20314519;0.0775591;-0.11698992;-0.13918915;0.19252197;0.19128388;-0.34568375;0.3666758;-0.03212982;0.18113491;0.03671468;-0.3822356;0.061373692;0.28201112;0.009794525;0.28151745;-0.04926309;0.019920643;-0.06857384;-0.034157783;-0.1669502;0.24442643;-0.08229694;0.11008851;-0.0494123;0.05928834;-0.4504418;-0.033890028;-0.16328268;0.02337883;0.026959918;0.39202738;0.070437394;0.21900076;0.23185429;-0.24043322;0.028244985;0.010753988;-0.2675087;0.062884934;-0.009418476;0.09026158;0.23371774;0.3175095;-0.061444614;0.02988746;-0.32354385;-0.012805443;0.3186084;-0.09950669;-0.13806263;0.08170615;-0.014499512;-0.02914206;0.023979012;-0.09716664;-0.267194;-0.122884825;-0.007929156;0.2967093;0.04714012;0.16326733;0.11675292;-0.24322744;0.37427464;0.17762004;0.22760366;0.16522515;-0.1500695;-0.29688087;0.20814607;0.068560414;-0.063696586;-0.22266491;-0.15576935;0.033935465;-0.23801476;0.25537333;0.13915065;0.3384813;-0.21491683;0.041184355;0.13832997;-0.06997323;0.10593385;0.18478213;-0.32740313;0.019518457;0.3422285;0.26322892;-0.0060897833;-0.030154511;0.01356079;-0.17332646;-0.027633848;-0.14902703;-0.017631918;0.18275855;0.17562504;-0.1765601;-0.35635832;0.17660873;0.26177493;-0.05278398;-0.21060026;0.33018288;0.17310213;0.031717755;3.7715524e-06;-0.029114917;-0.116085984;0.07402084;0.09807786;0.20255895;0.04412117;0.055737503;0.24487644;-0.2782146;-0.3204058;0.09482849;0.03743297;-0.18827018;0.15138516;-0.08749519;0.22896118;-0.1959433;0.29780015;0.3681034;0.32310322;0.12841691;0.07087757;-0.31081623;-0.15343823;0.31720412;0.1454578;-0.07739559;-0.1187958;0.049768668;0.13903254;0.14917617;0.250271;0.3677958;-0.16090058;0.258015;0.078752436;-0.03701057;0.12579392;0.23127358;-0.085076325;-0.054239217;-0.099995054;0.20493932;-0.21609586;0.35690376;0.04596458;0.038913526;0.12942374;0.035869166;0.0502894;0.28385267;0.08455329;-0.121747755;-0.09556882;-0.14249009;0.33341923;0.09768583;-0.045477536;-0.008102682;-0.11687867;0.15345371;-0.09556549;0.118779734;-0.42349067;0.241789;-0.11495905;0.0015234433;0.4028803;-0.49244964;0.0004443641;-0.06752911;0.12036503;-0.27588996;0.004507524;-0.033208594;0.15588826;0.13251506;0.034808163;-0.10454812;0.056700088;-0.06348513;-0.08373625;0.24085493;-0.10820238;0.014669459;0.09496819;-0.22729294;-0.08564804;-0.006631082;0.023656398;0.056563772;0.040294465;0.095352575;0.2528306;-0.022001466;0.11532561;-0.15563536;0.30593878;-0.28416926;0.050144624;0.29687032;-0.26995322;0.18414128;0.26002163;0.0063552987;0.053966075;-0.052182622;-0.16307257;0.1597707;-0.07656146;0.013220661;-0.05874532;0.12865938;-0.07306708;-0.5271592;0.07743796;0.17945468;-0.008844881;-0.21404414;0.029353077;0.013765593;-0.021547053;-0.14158696;0.055730965;-0.2586;0.049819596;-0.09777919;-0.05453508;0.005798081;0.09247476;-0.015408956;0.1270141;-0.044781562;0.27590677;-0.0480678;0.28751004;0.041156437;0.21376838;0.26246083;-0.09894703;0.12164171;-0.18724854;0.2870174;-0.1844643;0.3189163;0.20491903;0.41245884;-0.073667645;0.0493973;0.036811646;-0.033691633;0.04177305;0.023786949;0.15754819;-0.086214714;0.09705982;0.049552135;0.006274174;-0.0020370858;-0.17630857;0.05130858;0.16527781;0.16319293;-0.1586117;-0.26896998;-0.015401473;-0.298291;0.008170912;0.09575831;0.11968095;-0.01335502;0.118427314;0.06640146;-0.22838001;0.016794326;-0.18454722;-0.34055385;0.14875402;0.03306698;-0.094757184;0.16257246;-0.20012397;-0.15355682;0.3881639;0.0511877;-0.09127414;0.1796944;-0.00051502103;-0.084877305;0.16555507;0.029020369;-0.031815544;0.115682125;0.23954816;-0.18374637;-0.21589896;0.29632056;-0.15109017;-0.11132529;-0.19093183;-0.06854521;-0.0074477512;-0.1367896;0.29082564;-0.18564767;-0.073097065;0.10019375;0.0399073;-0.07369251;-0.09381725;0.06326889;0.07678869;0.14219525;-0.14229801;0.17147353;0.09433707;-0.30510935;0.044127703;0.19698812;-0.04383257;-0.29504347;-0.19453742;0.27013835;0.045231394;0.04476986;0.1037918;0.20172465;-0.21428038;0.15022917;0.5238414;-0.10784472;-0.021154726;0.2225315;0.1016272;0.084499545;-0.008344621;0.070138805;-0.08402698;-0.22493087;0.18016534;0.09037565;0.13463753;-0.08023491;0.08621384;-0.03493481;0.31080845;-0.08790349;0.14246006;0.13762154;-0.576531;-0.027189635;-0.1464651;-0.26160902;0.24551699;-0.0938211;-0.33048353;0.098295555;-0.124352254;0.29936704;0.13690871;-0.15538539;-0.2115801;0.18280801;0.02040021;0.075970076;0.09030942;-0.18380225;0.18034877;-0.18032451;-0.15261534;-0.15689169;0.22226581;0.029217534;-0.22120975;-0.12236938;0.039515052;0.006701396;-0.059784446;0.18971136;-0.11946163;-0.16346952;0.0072407383;0.39674753;-0.12339908;-0.12894718;0.35115457;-0.16433394;0.08856895;-0.12996681;0.08944396;0.15333927;0.020547716;-0.0019199639;0.087835245;-0.03554683;0.23647307;0.15877864;-0.38411707;-0.0057726465;-0.05298101;-0.02886701;-0.011325102;0.08568006;-0.15713957;0.06030904;-0.11357423;0.03497875;-0.24685664;-0.01140306;0.009537703;0.14011344;0.20698261;0.043236814;0.081963144;0.1431463;0.14326969;0.09797479;-0.03642351;-0.14157854;0.26171792;0.032803435;0.11561662;-0.17677537;-0.10489434;-0.08506507;-0.009527403;0.14566842;-0.3207561;0.22588247;-0.02239726;0.14544804;0.11119592;0.12287467;-0.21002035;-0.3197808;0.075767554;-0.022879837;-0.16098481;0.4417352;0.3094104;0.3961937;0.03890461;0.31628814;0.013776081;0.109376475;-0.17377296;0.11237056;0.1962559;0.12968114;-0.10297445;-0.12693731;0.24251051;-0.17592846;0.0014681037;0.15904216;0.036202736;0.04613021;0.042571913;-0.1104444;-0.10666113;0.12349626;-0.007251877;0.24534117;-0.23243664;-0.21517076;0.36202765;0.27755168;0.039103284;-0.04053359;-0.23113409;0.020429613;-0.29603806;-0.098247394;0.06395259;0.25981376;-0.08517969;0.03156367;0.036418196;-0.0072236955;0.013401762
0.040125925;0.007816064;-0.059016;-0.6488313;-0.026463572;0.2381303;0.1097973;0.0037381328;0.18794598;0.09733423;0.10943176;-0.09930497;0.2138455;0.055120807;0.12536438;0.03935928;0.12936546;-0.22594433;0.23675491;0.123292066;-0.12908915;-0.37421882;0.012841687;0.16779107;-0.17858951;0.022675164;0.23952933;0.09706316;-0.17333281;-0.15315446;0.1603412;-0.07458951;-0.06358663;0.0802639;-0.17048684;-0.0894167;-0.2784303;0.1493355;0.0585034;0.17804326;-0.18202358;-0.13755348;0.08389815;0.121847;0.0654554;0.0032342284;-0.17208019;0.13070254;0.063480325;-0.21306364;-0.37741706;0.078292824;0.2300271;-0.056232765;0.12387727;0.016461762;0.008906541;-0.10328859;0.066087686;-0.15532693;0.029980373;-0.14013638;-0.11183264;-0.2791272;0.11626914;0.20331825;-0.22974937;0.04158206;0.21349415;-0.00474751;0.07307538;-0.30846027;0.110944755;-0.11222474;-0.14522928;-0.08926605;0.08637468;-0.15095513;0.002002434;0.14634955;0.17193986;-0.026427312;-0.24067485;0.012320593;-0.0010704675;0.27186778;-0.055370074;-0.008403826;0.11442171;-0.11493758;-0.1831056;0.21097514;0.1104276;-0.41464186;0.4560526;0.042159647;0.18240356;0.15000863;-0.17300133;0.14204374;0.24307255;-0.13755065;0.12467317;0.0680333;-0.13805422;0.14648941;0.11115538;-0.15579431;0.20825377;0.02830743;0.0061073187;0.16102985;0.10266335;-0.07408087;-0.019772911;0.04769071;0.29156944;-0.10647986;0.16612272;-0.09159037;0.31747076;0.10840575;-0.04535264;-0.010681513;-0.115453474;-0.30276144;0.030148445;-0.16128215;0.2616358;0.29992533;0.25945672;0.11838089;-0.043248437;-0.062351312;-0.015953958;0.40306935;-0.08869289;-0.42537633;0.038374886;0.011611012;-0.032211542;0.31382897;0.038277186;-0.045193788;-0.034703206;0.092663914;0.18540847;0.36003762;-0.009581316;-0.030161625;-0.34311295;-0.003125751;0.048970103;0.108517036;0.022848288;-0.041721478;-0.30650526;0.3081854;0.10072992;0.11400595;0.0391947;-0.078087956;0.0747784;-0.14915843;-0.028723858;0.09154297;0.05180573;-0.1767909;0.019431055;-0.008388351;0.0056385063;0.2545517;-0.06986053;-0.067175984;0.100303374;-0.12817602;0.2785181;-0.23319839;0.12256693;0.09332686;-0.021993574;0.09534925;-0.16303772;0.0015607263;0.27435535;0.057694253;0.04805918;-0.21110322;0.20398922;0.24044178;-0.020020796;-0.08893143;0.14005019;0.11735684;0.028138537;-0.05327502;0.106827624;-0.0015667356;-0.16517407;0.019827737;0.04241607;0.086887926;0.18513925;0.19213802;-0.4196313;-0.12280571;0.109132975;-0.12442658;-0.32254893;-4.3481716e-05;-0.01236833;0.05685793;-0.2281231;-0.015864398;0.29176602;-0.011444009;-0.054752953;-0.05673416;-0.14579155;0.18964106;0.15107553;0.18786465;0.1256515;-0.015700277;0.034712356;-0.00584468;0.16363902;0.3450101;0.15249713;-0.1038333;0.0076580467;-0.095361516;0.11601499;0.09038752;0.19827671;-0.11338659;0.10203979;-0.0925944;-0.04269444;-0.26575837;0.2971778;-0.1576667;-0.2645944;0.13866864;0.060450338;0.006256563;0.5634284;0.045791384;-0.11268315;0.10035486;0.05682063;0.34103465;-0.06366173;-0.08823444;-0.23406985;0.08655503;-0.08348516;0.19782557;0.21306178;-0.052548755;0.054511186;-0.10312796;0.14421706;0.28343126;-0.26900682;-0.07331417;0.028570808;0.077233836;-0.14915548;-0.05757014;0.040139843;0.12243622;0.021149913;-0.11782542;-0.18043995;-0.032621127;-0.057087336;-0.096562125;0.22285406;0.104880475;0.0991429;0.17750067;-0.04994832;0.02138642;0.18813121;0.22266263;-0.090692215;-0.06255755;0.24770488;0.119120084;-0.04080378;0.15182437;0.072714515;-0.10274352;-0.15713756;-0.01989675;0.03584063;-0.07735218;0.078577176;0.20111486;-0.050639164;0.18306656;0.037370935;-0.11442555;0.00755925;0.13449338;-0.08341403;-0.05676104;-0.002083075;0.10579376;-0.3258923;0.015871935;0.3249306;-0.13188897;-0.26684862;-0.08928401;0.14517412;0.0566958;-0.06971337;-0.074109435;-0.15842848;-0.06284322;-0.13909444;-0.015234685;0.101711504;0.084403425;0.073076874;-0.11310808;0.0001821521;0.12646349;-0.035782233;-0.012006694;0.20100379;-0.030528853;-0.10370211;0.09803639;0.04225445;-0.35605142;0.3098399;-0.18017699;0.14967892;0.0254727;0.11490811;-0.21756922;0.046598516;-0.212163;0.070545875;0.055584993;-0.018721592;0.021690438;-0.066824056;0.12916055;0.17209391;-0.1916005;-0.054214157;-0.07548227;0.051036622;0.08933103;0.22079545;0.09546774;-0.17153713;-0.036127996;-0.05158724;-0.06407789;0.15134686;0.2704627;-0.018187568;0.11915627;-0.029311545;-0.050478503;0.17048109;-0.04972301;-0.28166744;0.19846714;0.19049065;-0.2647997;-0.5062423;-0.00614425;-0.100720786;0.23953384;0.14699447;0.018047035;0.11142071;0.11901541;-0.004221186;-0.06560376;-0.017203543;0.06816686;0.13675936;0.27095002;-0.08009811;-0.23086604;0.47066578;-0.17523281;-0.079650104;-0.10795679;-0.15220988;0.1468008;-0.123590566;0.1207008;-0.098420836;0.045025714;-0.0028235065;0.0022335236;-0.095754325;0.11385759;0.1030456;0.05013147;-0.03267053;-0.01433696;0.096806705;-0.18110695;-0.18207943;-0.05311737;0.17646329;-0.06978107;0.018341953;-0.07116708;0.38879746;0.024367768;-0.18748927;0.060853593;0.1534714;-0.18452413;0.17761727;0.15471487;-0.13159336;0.014319932;0.07182537;0.051468983;0.14853032;-0.0035736267;-0.011879602;0.07315079;-0.22094567;0.17164291;-0.054159503;0.27110443;-0.11375029;0.15019086;-0.059056174;0.15075915;-0.08450338;0.21963257;-0.15603398;-0.3835106;0.14778975;-0.2643131;-0.36546087;0.21920776;0.012799904;-0.100252084;0.1558834;0.04735512;0.22135237;0.32642907;-0.066439725;-0.16770266;0.19831592;-0.13507254;0.07917563;0.122121215;-0.004645925;-0.2450332;-0.24314685;0.058680184;-0.12929165;0.20244558;-0.11075499;-0.17566854;0.21561563;0.06271462;-0.0129725;-0.124468565;0.12694027;0.071706004;-0.16655642;-0.05735762;0.15584534;0.084824346;0.056525845;0.3229261;0.03486103;0.4130418;-0.07347273;-0.09405385;0.07792926;0.050629396;0.029629854;0.14208554;0.18831389;0.4020594;-0.0049549076;-0.19108577;0.07891487;-0.08869834;-0.15777959;0.11763494;-0.14305492;-0.20650817;0.028336262;-0.003562533;0.022799838;-0.3276815;0.073291205;-0.024548935;0.13103959;-0.16906382;0.07674965;-0.0066564325;0.15071689;0.13745409;0.3036623;0.06794086;-0.19588576;-0.010924828;0.17101437;0.20825824;-0.24079959;0.1219575;-0.23797274;0.055543326;0.38645253;-0.023598295;0.033274632;-0.028226627;-0.09865918;0.09482621;-0.09186753;-0.14263153;-0.3544015;-0.13195717;-0.055934258;-0.07128044;0.44572234;0.19082339;0.31161538;-0.14057401;0.058973268;-0.25458038;-0.110162;-0.41787156;0.10994842;-0.17207545;0.05823247;-0.16453978;-0.0616218;-0.009464175;0.15142378;4.699479e-05;-0.057355728;-0.08752271;-0.06546619;0.07021407;0.09264224;-0.08015461;-0.20740119;0.030411698;0.073207386;-0.3258187;-0.16514134;0.25682357;-0.16561535;0.10103231;-0.09975602;0.037217893;0.121229745;-0.09461721;0.18375543;-0.19540045;0.19341698;-0.020092461;0.016714817;-0.0023245313;-0.120044276;-0.10734237
0.11858746;0.029315226;0.2573464;-0.4097565;-0.17482458;0.09344062;0.17248027;-0.10132692;0.17908072;-0.017932268;-0.1637388;0.2267685;0.10560325;-0.12700383;0.13143596;0.0352885;0.02977169;-0.07136197;-0.21277982;-0.056238826;-0.13239408;-0.4650128;-0.097133055;0.0818341;-0.17346025;0.014604005;0.26006588;-0.23434573;-0.16507474;-0.010305806;0.117140524;-0.029455535;-0.08830344;-0.041755643;0.12249534;-0.26403227;-0.56404674;0.29434657;0.0064251325;0.28300962;-0.15171874;-0.10024477;0.3108469;0.045394097;0.12908751;0.14256273;-0.2172064;0.11667335;-0.08868391;-0.2982924;-0.029361438;-0.0062374272;0.064420186;0.055246778;-0.02281835;-0.051615316;0.005159335;0.12917222;0.093118034;0.15967767;-0.15996419;-0.33822766;0.110248916;-0.2091767;0.11898231;0.310317;0.044146452;0.1559875;0.3164895;-0.31451145;0.07203146;-0.070896566;-0.024428986;-0.11893528;0.095679656;-0.051415946;0.072511174;-0.12121915;-0.046120528;0.15562169;0.06899524;0.009301285;0.15506232;0.17746696;-0.08662747;-0.08702988;0.1220189;-0.05790579;-0.13371456;-0.028859222;0.1129395;0.0707224;0.19509475;-0.3710953;-0.008595492;-0.18460377;0.09098911;0.09931574;-0.25738892;0.025053112;0.27578783;-0.057588603;0.25224224;-0.10436276;0.13831677;-0.058900256;-0.3048372;0.0028287682;0.359403;-0.26292342;0.0020461357;0.114791855;0.0064018373;0.19205612;-0.035507403;0.3514193;0.48577595;-0.34690595;0.15180348;-0.06391585;0.31636807;0.14897749;0.0039210655;0.029223062;-0.0016869253;-0.30065036;-0.13913813;0.10704935;0.080915116;0.2120931;0.06557969;-0.08474725;-0.23000206;-0.20300677;-0.08572384;0.41170806;-0.11639337;-0.023706846;0.19831909;-0.04652969;-0.06651914;0.20125633;-0.12387286;0.023517087;-0.0051985835;-0.104965754;0.10350541;0.20276983;-0.20625351;0.2682837;-0.319092;0.05636652;0.067664035;0.30708972;0.065584294;0.03204275;0.06704835;0.0044956915;0.24281463;-0.0051064854;-0.044584505;-0.14555356;-0.039928794;-0.041652855;0.006817169;-0.048648708;0.049845885;-0.06346108;0.040107112;0.115242995;0.0014680161;-0.07805891;-0.2517252;-0.14896455;-0.14821336;-0.19149612;0.35860398;-0.27889678;-0.093722776;-0.24653083;0.09733434;-0.09308615;-0.100141324;-0.30024895;0.2376248;-0.06435813;-0.19161493;-0.18946405;-0.11389599;0.31568933;0.031885453;0.04420239;0.11959678;0.00676828;0.15042631;0.08920808;0.030839778;-0.15799092;-0.1960313;-0.003294012;0.03692546;0.099439375;0.3017779;0.02068216;-0.25974053;-0.13249879;0.057472374;-0.09640264;-0.26138747;-0.020014117;-0.09300246;-0.021870311;-0.21627429;0.0141326925;0.018258339;-0.17091961;-0.029323656;-0.012577171;0.111752085;0.0351857;0.15550038;0.14766987;0.041870326;0.06560746;0.15641697;-0.0077488096;-0.12625174;0.17873082;0.12091498;-0.10751901;-0.094260104;-0.0066358335;0.17812115;0.2684813;0.0710628;-0.00651742;-0.06763654;-0.06521604;-0.39787358;-0.10772208;0.25300303;-0.18829077;-0.22174656;0.0361341;-0.011314175;0.06688492;0.25590342;0.022697337;0.029094057;-0.19354846;0.29746833;0.07289525;-0.019066097;0.07893671;-0.029565165;0.16214849;0.004354021;0.3577258;0.046655007;-0.32671872;0.08152661;0.03562941;-0.043938696;0.15716511;-0.38953775;-0.11937107;0.039776172;0.021581864;0.1171662;0.025423171;-0.042920623;-0.14737125;0.08309998;-0.24532524;-0.2529349;0.26547498;0.1511615;-0.06348131;0.25308728;0.14224735;-0.064298555;0.08303271;0.16063626;0.19036995;0.012745441;0.09804979;0.0073129763;-0.0099634;0.038903754;0.23189823;-0.104270495;-0.012445568;-0.33221164;-0.17895934;0.016604682;-0.09304032;-0.13615817;-0.114070944;0.24600878;0.24302413;-0.057595722;0.2045987;0.18138534;-0.028060865;-0.20614427;-0.06789641;0.3481573;-0.17229311;0.3422906;0.083593175;-0.017544745;0.062001005;0.050138257;-0.46479365;0.15850297;0.16468228;0.09864035;-0.11013969;-0.21024525;-0.1726518;0.018468825;-0.20171745;-0.06278446;-0.12534745;0.12875555;0.23649648;0.050424997;-0.004767521;0.091704;0.065134324;-0.107688785;-0.07689358;0.2067562;0.04766348;0.033564415;-0.14292867;0.24033785;-0.17438275;0.15540434;-0.112632036;0.23402898;-0.26910663;0.21572834;-0.42030442;-0.007307419;0.097133406;-0.24049772;0.21995637;0.013874054;-0.09144943;0.0013657443;-0.0060966336;-0.040992048;-0.097501226;0.3081076;-0.19546403;-0.06619589;-0.11394635;-0.020277975;0.156363;-0.21252313;-0.121720895;-0.24843906;-0.14268747;0.135287;0.17003465;0.034113936;-0.07798268;0.120612785;0.1842799;-0.059614457;-0.1215277;-0.033484153;0.15621015;0.12328193;-0.22626236;-0.30084273;-0.07474643;-0.212726;0.24199033;0.2640285;-0.07705181;0.21293654;0.0039235065;-0.11446338;0.048397653;0.08438941;-0.04188631;0.17523396;0.25746527;-0.07886786;-0.115832806;0.37563038;-0.061601188;-0.08491559;-0.27508608;-0.091551006;0.4086419;-0.008605805;0.25456417;0.09574184;0.17026874;0.12072401;0.15010823;0.27253848;0.006043971;-0.24152908;0.026610399;0.12795487;0.15571825;0.08389873;0.011072299;0.058341328;-0.24623603;-0.08011552;0.055572595;-0.08186224;0.1487426;0.19788861;0.023261745;0.045334574;-0.20096047;0.2656551;-0.08622681;0.08894673;0.099434964;0.07338251;0.04240156;0.026815416;0.29711244;0.08092361;-0.08921569;-0.0700448;0.22170463;0.037916884;0.14762063;0.054948203;0.22118373;-0.096611954;0.12609378;0.034617215;0.31468698;-0.0979056;0.05041262;-0.106880516;-0.08777649;0.14259358;-0.26188886;-0.10932823;0.11929304;-0.11395099;0.29290614;0.06153955;0.0780162;0.15420014;0.1731006;-0.11437618;-0.38815373;0.27208617;-0.11360467;-0.09400895;0.17720267;-0.051296387;-0.2632983;0.07997854;-0.24466686;-0.14497854;-0.1499667;-0.007210634;-0.18393457;-0.040407456;0.3023876;0.21468657;-0.05170312;-0.04322024;0.00018363069;0.13826549;-0.25453383;-0.044755448;0.16548067;0.21667857;-0.1542496;0.08836487;0.09146403;-0.14382948;-0.043674856;-0.061791524;0.024540244;-0.32290292;0.00013050187;0.008662469;0.15526031;-0.3973018;-0.1187584;0.0479369;0.018875362;-0.19524425;-0.103605166;0.17237993;-0.20035842;0.048378367;0.039324604;0.41810748;-0.2544625;-0.005805056;-0.040384583;0.016879132;0.074065045;0.018590063;0.058262642;0.053282604;0.061272543;0.01975005;-0.18013185;-0.28239465;-0.35111016;0.076274656;0.049019247;-0.14607386;0.04106347;-0.084688984;-0.097689;0.2949399;-0.34472948;-0.027629917;0.03822012;-0.039623074;0.14385027;-0.4607511;-0.30828452;-0.14840102;0.13954924;-0.10431118;0.17081471;0.05223574;0.23532848;0.37286812;0.08844815;0.39739046;-0.04061565;0.06529625;-0.24891873;-0.04667358;-0.11405006;0.06951448;0.08408388;0.14752486;0.044022635;0.15769854;0.1670753;0.11545931;-0.031622697;-0.038073562;-0.07476847;0.05765634;-0.03524998;-0.03076366;-0.06333546;-0.007381533;-0.16150996;-0.27209496;0.1503843;-0.029531682;0.16801439;0.01487325;-0.06623493;0.021572478;-0.022427078;0.068521135;0.15189107;0.2610545;0.098041974;-0.005156311;-0.18931282;-0.12765653;-0.1948909
-0.061521515;0.11374317;-0.2514323;-0.16039248;0.06763085;0.19069895;0.31067595;-0.043652102;-0.019431535;0.083809786;-0.24457875;0.03121304;-0.657264;-0.14478692;-0.0453702;0.09313564;-0.027373446;-0.06552071;-0.17969115;-0.036551762;0.062373128;-0.105561614;-0.015378968;0.019938307;-0.07938067;-0.07526879;0.16877195;-0.19869223;0.0489741;-0.0013398179;0.09547896;-0.080511265;0.0046411566;0.059080906;-0.2936916;-0.17048231;-0.35482076;0.3524091;0.046245;0.24148338;0.007871695;-0.0076124184;0.24846298;0.14566801;-0.08376691;-0.17302561;-0.19489099;0.17204455;-0.15051806;-0.19601025;0.042870093;0.0031180035;0.09723068;-0.3076296;-0.44024956;0.049285684;0.08946473;0.24481134;-0.1354577;-0.2186425;-0.39720538;-0.371975;0.04688449;-0.22049308;0.044098526;0.36953327;-0.060853742;0.20063278;0.16862611;-0.14893998;-0.012236386;-0.062770806;-0.15788266;-0.111234196;0.11934797;0.03701958;0.032239806;-0.11536959;0.13528235;0.26762974;0.2168174;0.074786685;0.028559716;-0.17851226;-0.09767486;0.023883658;-0.1443602;-0.08123185;-0.19529194;0.0470584;0.04626953;0.012472461;0.2500044;-0.33948162;-0.11322458;-0.30189937;0.025050895;0.1185988;-0.05748388;-0.06150712;0.14010431;0.31263977;0.30073884;-0.09856256;0.12532781;-0.0015137189;-0.48140657;0.23659721;0.39486706;-0.3019691;-0.1053304;0.029005436;-0.007906067;-0.17054215;-0.17184491;0.26469347;0.16129866;0.0863308;-0.057040717;-0.08196997;0.48260853;-0.11404126;-0.014286417;-0.1529604;0.06305877;-0.008508477;-0.22528799;-0.002133535;-0.11336694;0.17064342;-0.013929432;0.039377175;-0.07947764;-0.11084776;-0.011730372;-0.026689578;-0.31672195;-0.19183965;0.23877881;-0.09051491;0.21731105;-0.080379404;-0.075274;0.08814667;-0.042615604;-0.13072939;-0.041178938;-0.12879467;-0.016366333;0.2064611;-0.14367935;-0.0742412;-0.061327506;-0.05258789;0.048312865;-0.015472658;0.14054705;0.067016535;0.22825816;-0.00346068;0.046067145;0.10284622;0.11755963;0.14446382;0.13812551;-0.24075948;-0.112854466;-0.013862017;-0.14982478;0.0637961;0.06253624;-0.12605983;-0.033232994;-0.07203836;0.10330392;-0.20188579;0.082616456;-0.019559452;0.010389673;0.11938344;0.118035704;-0.1885621;0.16993198;-0.05770835;0.13454838;-0.13884443;-0.19029741;-0.16324723;0.177356;0.3025528;-0.03836449;-0.08839694;-0.005950834;0.030031975;0.060124222;0.07984038;-0.15662196;-0.021660917;0.21735394;-0.03330816;0.20272535;-0.010590689;0.17430754;0.15290622;-0.09787461;0.006888643;0.08578328;-0.23714566;-0.052627657;0.33674353;-0.00776269;0.12874535;-0.22385465;-0.30807254;-0.2975971;-0.23481855;0.30317384;-0.14306341;0.012265017;0.09207387;0.37484553;-0.07062552;-0.10242941;0.04439242;0.03603335;-0.20841512;-0.3059653;-0.00089589425;0.107214935;-0.24810101;0.23328596;0.04055612;-0.010914313;-0.1372117;-0.061570287;-0.23103113;0.12895706;-0.12919796;-0.20874377;-0.11075428;0.021049926;0.1546273;0.015327097;-0.05822392;0.030266937;0.095938616;0.2438064;-0.090953656;-0.015987048;-0.19641392;0.020163924;0.120512955;0.10808335;0.0789762;0.10555733;-0.062230106;0.06297208;0.39261615;0.040942054;-0.16325645;-0.12596251;-0.13448365;-0.26711315;0.139762;-0.3547382;-0.30938643;-0.13803668;0.11588755;0.14118573;0.032458857;-0.118311964;-0.048562557;0.29239383;-0.12640823;0.03708065;-0.053173468;0.20835082;-0.34143284;-0.1364346;0.16285242;-0.21166837;0.0032623208;-0.0022997728;0.117632255;-0.05096777;-0.09167145;-0.055436514;0.0015716631;0.072854966;-0.011639807;-0.07337032;0.0013325316;0.05073796;-0.08919921;-0.23177822;-0.10273915;-0.08883018;-0.25161594;0.10109693;0.119429685;-0.033861306;0.053251658;0.09562806;-0.014041487;-0.26135147;0.102250054;0.12274702;-0.13115372;0.05053921;0.0031578005;0.058308195;-0.052354973;-0.15512821;-0.53881186;0.074924275;0.042743444;-0.088792324;-0.03573183;0.019396756;-0.14456858;-0.17237785;-0.21561186;-0.29725724;-0.24297693;-0.027263768;0.057661936;-0.025350919;0.102520265;0.14501871;0.20641954;-0.025648296;0.0223889;0.27345052;0.032838166;0.11694339;0.07930782;0.23842137;0.07148952;-0.09506952;-0.04851443;0.3241857;-0.025757238;-0.032670997;-0.1020272;0.38303462;-0.0046270397;-0.15699047;0.22640337;-0.026172653;-0.16706094;0.004789109;-0.04774188;0.017916387;0.033375967;0.0768455;-0.40207133;-0.25378713;-0.24474387;-0.05006398;-0.19619998;0.20344877;-0.032093737;-0.25738478;-0.11804659;0.015532606;0.16452406;0.15960489;0.013635188;0.2523434;0.002681598;0.14430466;-0.1096039;0.25965604;0.18113685;0.12197421;-0.24979933;0.0396412;0.057391543;-0.02703624;0.06216459;0.15898101;0.08241955;-0.065425694;0.079579234;-0.12696399;-0.036389362;-0.088143095;0.04255579;0.09176269;0.28604123;0.206152;-0.12417718;-0.18998006;-0.21063562;-0.03179408;-0.29369146;-0.18063019;0.4682968;-0.003517207;0.2189082;0.18268627;0.11809418;0.00445724;0.2060318;0.34616426;0.16985098;-0.18773538;0.24067847;0.11748514;-0.25602576;-0.1467945;0.09895472;-0.33682084;-0.08551167;0.069979854;-0.2823803;-0.08495417;0.2042752;0.12940472;0.07481814;0.06101334;0.061675865;0.105363585;0.2363403;0.16153882;-0.41203105;0.3147589;-0.03594477;-0.052744158;-0.060169976;-0.22328791;-0.044782043;-0.22583404;0.1319731;0.040577658;0.09074278;0.10905307;0.34173194;-0.053602032;0.018951258;0.04800506;0.3741955;0.1849339;0.040855315;-0.039290328;0.027927587;0.015352178;0.059712984;-0.003307753;0.061689317;0.08215547;-0.053124506;-0.114994414;-0.043691076;0.2758429;0.022216102;-0.24202506;-0.15870132;0.35761455;-0.012179277;-0.1015621;-0.15868695;0.115920074;-0.14180818;0.3256242;0.07059356;-0.19483685;0.0121617075;-0.049634248;0.059004962;-0.041876316;0.045274127;-0.012394014;-0.13893467;-0.19238691;-0.19295366;-0.15647781;0.01784454;-0.33956164;0.13832985;0.03166412;-0.19291875;-0.28200853;0.057629645;0.075444676;-0.14607261;-0.003927245;0.06301499;-0.1697403;-0.08039066;-0.07075305;0.1940797;-0.32797158;-0.027380116;0.021368453;-0.03187483;-0.16958539;0.046577998;0.14399959;-0.54083747;-0.016707756;-0.21053039;0.19202478;-0.015935853;-0.040687293;0.19104116;0.15930611;0.1333561;0.27973133;0.13241549;-0.12756427;0.057059728;-0.03252539;0.004920376;-0.02665849;-0.41342956;0.009320048;0.18713458;0.09666121;-0.14860275;0.11894413;0.055066284;0.2740994;-0.24093622;0.06470381;0.30200383;0.068525635;-0.09916933;-0.20912527;-0.19374003;0.036026515;-0.07477399;-0.24626367;0.10406844;0.031529162;0.31415766;0.38728997;0.12153547;0.36749515;0.051099636;-0.06968263;-0.060907897;0.04759459;0.012007946;-0.030275559;0.07907715;-0.22779739;0.15768388;0.06516598;-0.2961218;0.13920347;0.07586001;0.054351356;-0.13149096;-0.24228474;0.24577537;-0.0767494;-0.09206529;0.061557222;0.12473854;-0.21537653;-0.09318254;0.32824832;0.0139345;-0.15595679;-0.17302811;0.11193352;-0.17913437;-0.040574655;0.053710666;0.055735655;-0.110820316;0.004393275;-0.18906845;0.015036745;0.057310425
0.09959929;-0.18515335;-0.19825342;0.05733441;0.08170832;-0.3040536;0.22019444;-0.106662326;0.1885261;-0.21779265;-0.3898342;0.07359699;-0.22964485;-0.27525616;0.13365941;-0.07319895;-0.121086024;-0.2249914;-0.38619763;0.052349806;-0.02314868;-0.15352884;-0.13876145;0.051686488;-0.09542049;-0.17275527;-0.18365607;0.011934166;-0.14374812;0.30264333;0.11496181;0.23865594;-0.06658627;0.11573442;-0.053671516;-0.036844954;-0.22895408;0.28911054;-0.008831779;0.052219927;-0.059409462;-0.1581515;0.08665615;-0.0020577882;0.11067591;-0.028774457;-0.017800022;0.05028198;0.041996825;0.20278518;0.2052834;-0.3160883;-0.015416085;-0.22761887;-0.09203422;-0.042312104;0.18074086;0.15739028;0.067246445;-0.01710854;-0.59376246;-0.4611706;0.034716487;-0.023110682;-0.043300718;0.18346117;0.021206612;0.05813406;-0.039670933;0.018042423;-0.01767369;0.037213266;0.017354228;-0.18902753;0.0973154;0.04949898;-0.12214839;-0.26414028;0.30602047;0.16184694;0.3926344;-0.15841936;-0.06556388;-0.12334399;-0.020564938;-0.12837377;-0.07506485;-0.030485572;-0.34147114;0.013967651;0.19173472;-0.16563678;0.20238395;-0.32615477;0.11353561;-0.53038377;-0.078266986;0.09557917;-0.2532568;-0.04570117;0.22901753;0.10961705;0.3789726;-0.069612876;0.101677194;0.13440855;-0.29409957;0.013867807;0.48066658;-0.16220827;-0.06643196;0.052069675;0.021396473;-0.09440915;-0.15042463;0.3255278;0.18096906;-0.27709532;-0.18129002;-0.21243078;0.2400324;0.13321596;0.014717749;-0.23995425;0.07409133;-0.068499714;0.065802395;0.046885036;0.08279544;0.030653793;-0.0689597;-0.021440184;0.011946372;-0.0011776265;-0.19912508;-0.13061874;0.2228671;0.16306849;0.03821623;0.0853333;0.25065675;-0.12511751;-0.21605287;0.11949256;-0.25309968;-0.15061046;0.01958879;0.006372333;-0.06044947;0.13616565;-0.09748259;0.08621598;0.03736454;-0.0037969397;0.046771683;-0.07495577;0.15223129;0.046164505;0.10048694;0.200393;-0.20290747;-0.2628144;-0.06839022;0.1373888;-0.057408426;-0.068613276;0.094667435;-0.04312203;-0.17788683;0.0040837303;0.056707744;-0.11278549;-0.067114525;0.062070996;0.2570185;0.12353718;0.032611072;-0.23613513;-0.27267206;0.09242862;-0.047787532;-0.09168081;0.3382798;-0.13116464;0.09958524;0.012180335;0.21408124;-0.30919033;0.016830713;0.22030441;-0.07280033;0.11759219;0.07770787;-0.068099506;0.081056595;0.33800733;-0.084097154;-0.060390137;-0.09700877;0.18665674;0.042011533;-0.055795398;0.042466763;0.15287809;-0.21494469;-0.006401956;-0.056459583;-0.2037844;0.15692928;0.21341337;0.37563312;0.06762589;-0.10540734;-0.07638567;0.0922304;-0.22089642;0.035850383;-0.086315535;0.06827224;-0.00091542944;0.24692865;0.1465291;-0.07210323;0.073123746;0.06887912;-0.14075656;-0.1702656;0.023927746;0.017065182;-0.05490793;0.07466322;0.057368282;-0.11396277;-0.14973664;0.071122214;-0.10464245;0.120267734;-0.13451411;-0.5265403;-0.2193072;-0.09903281;0.26163712;-0.11139104;-0.09824396;0.1077781;0.057439126;0.24317294;-0.22655837;-0.049966518;-0.111519314;0.062343784;-0.009193041;-0.060724597;0.07412027;0.10348938;-0.027289184;-0.08118366;0.23421077;-0.12207718;-0.18041456;-0.19309674;-0.083051704;-0.13090865;0.008765851;-0.29825076;-0.31101537;-0.15382986;-0.01954737;-0.09691863;-0.2596969;-0.08072372;0.23252566;0.27931866;0.024781134;-0.20476772;0.092184365;-0.06575609;-0.17498828;0.03069512;0.23576917;-0.015956877;-0.05724704;0.13046865;0.052721456;-0.20699804;0.13040426;0.05564624;-0.1608658;0.007846939;-0.09691822;-0.025709823;0.034710526;0.03158796;-0.1780704;-0.2276197;-0.027744927;-0.06716175;0.0187149;0.06429333;0.19994362;-0.022211393;0.17088886;-0.0062717507;-0.13288826;0.07529615;0.14267579;0.023762777;-0.069201194;-0.40092275;-0.06631085;-0.6143943;0.022262722;0.0864659;-0.5245787;0.023202047;0.27971977;0.1987288;-0.19014104;-0.15683922;-0.003639916;-0.14776485;-0.0019078964;-0.36266145;-0.18236636;-0.2677819;-0.09921059;-0.11496689;0.060927015;0.20047903;-0.018588537;0.08230075;0.055885658;0.21198142;-0.0788518;0.23236251;0.09948131;0.16061121;-0.08146312;0.09753121;0.18139833;0.4474827;-0.13773353;-0.12525487;-0.040587995;0.17597806;0.27567354;-0.057924137;0.20372102;0.009893244;-0.12135562;-0.028933449;0.035378583;0.1266805;0.07830094;0.08885955;-0.50044584;-0.095169134;-0.1283118;-0.12401919;-0.051314786;-0.09413534;0.06855258;-0.08499571;-0.0008090184;0.005909826;0.31018928;0.27230263;-0.12514122;-0.037397858;-0.03190079;-0.11284323;-0.0004381997;-0.3691062;0.2691933;-0.16910626;-0.26264998;-0.040588986;0.12848756;0.095772594;-0.028412627;-0.029337225;0.065137394;0.14333677;0.039753612;-0.13481346;-0.076178245;0.14877948;-0.0649587;0.16671397;0.0056318175;0.18933131;0.033170234;0.04288659;0.2120751;0.023969064;-0.30043232;0.1673228;0.15347263;0.07084787;0.35066366;0.0650435;0.2535889;0.061302237;0.29374498;0.3344283;0.119987324;-0.2818505;-0.2511574;0.14661054;0.10060992;0.05039971;0.19981642;0.11822918;0.36842346;0.011377081;-0.19475496;0.0013025444;0.2375947;0.11569262;0.12461928;0.19320585;-0.01226047;-0.15120514;0.0796395;-0.019037714;-0.23050025;0.26888067;0.2267254;0.02687828;0.1974116;0.040846117;-0.13917398;0.10284834;0.27427274;0.16644113;0.07750392;0.12263487;0.1323652;0.016337818;-0.1521928;0.060783852;0.42677796;-0.09966813;0.1332143;-0.09816233;-0.2994907;-0.1772402;-0.10734082;-0.09730692;0.17205976;0.022410382;-0.29308087;-0.23377019;0.045393523;0.16519059;0.036520112;-0.1177619;-0.33953732;-0.036207255;0.12423725;-0.21345846;-0.19011073;0.050429113;-0.34228364;0.1664281;-0.2339569;0.06316753;-0.04060663;-0.15591344;-0.095690675;-0.07129008;0.14947459;0.0016576643;0.035847973;-0.23144546;-0.17913084;-0.1848656;0.1901476;-0.10121645;0.30640948;-0.18294707;0.0023539774;-0.093221;0.0068465206;0.18166947;-0.2303115;0.07327148;0.22660477;-0.04501293;0.13105097;-0.17868152;-0.011506329;-0.32363182;-0.11383117;-0.040665075;0.052240085;-0.22727871;0.024690932;0.25243315;-0.20836332;0.25944597;0.24852476;0.18288754;-0.08846044;0.19544709;0.009239028;-0.22079806;0.24267176;0.13158476;0.27056766;-0.3368029;-0.13440602;0.07238822;-0.08879105;0.020110762;-0.4087974;-0.0035467357;-0.12580726;0.114870705;-0.08256883;0.05825462;-0.021337427;0.047086477;-0.110525124;0.035638694;0.06616071;-0.01272089;0.089383036;-0.19878088;-0.121139154;-0.23547418;-0.049157236;0.01772195;0.076308094;-0.1372668;0.04976992;0.11556523;0.3117188;0.5878321;0.2159804;-0.10884868;0.11190502;-0.14019246;-0.032521777;-0.1966403;0.02312731;0.06323697;0.36388457;0.18381137;-0.025711486;0.09156985;0.118471526;0.23085012;-0.3570616;-0.029371941;-0.018103687;-0.25850984;-0.12374708;0.07436277;-0.11844116;-0.2684158;-0.18399362;0.45892268;-0.070820004;-0.0535856;-0.016835647;-0.01691333;-0.042243235;0.17655891;0.10425914;0.19553426;-0.40634397;-0.10419595;-0.04589373;0.06521099;-0.018162763
0.082595736;-0.2873079;-0.038493205;-0.06671934;0.19914918;-0.20887977;-0.13927644;-0.008917463;0.12380727;-0.23508611;-0.20950639;0.2019869;-0.16416578;-0.20388104;0.37291625;-0.108342156;-0.043339297;-0.19013722;-0.07825491;-0.059342913;-0.16420904;-0.6041018;-0.3467327;0.0572449;-0.061362386;-0.16302894;-0.028327107;0.10640679;-0.22886378;0.27080214;-0.14541526;0.2555696;-0.027073001;0.044504795;-0.14024922;-0.039542057;0.06686281;0.3019096;0.08645372;0.27985656;0.035823755;0.10808278;-0.1222281;0.009881747;0.43402576;0.025260236;-0.24598314;0.09130234;0.06517613;-0.031211764;0.07931313;-0.051545113;-0.023957852;-0.121194914;-0.19231035;-0.044993535;-0.060546797;0.07224049;-0.11423162;-0.052740272;-0.500621;-0.49993783;0.15179768;0.1091505;0.20561787;0.11571714;0.029810937;0.1920482;0.15065572;-0.63724154;-0.05130667;0.17091867;0.02973944;0.19799696;-0.01671775;0.17443706;0.03486257;-0.25096235;0.158389;0.028976368;0.18092938;-0.09742622;0.01738961;0.15504263;-0.1435024;-0.17813052;0.048457;-0.063440874;-0.30004913;0.008292243;0.07957601;-0.20978378;0.13112031;-0.109332986;-0.035798337;-0.57034546;-0.011692513;0.18930614;-0.04605414;-0.05921715;0.2736858;-0.03838715;0.22627114;0.023759553;0.020652946;-0.055584285;-0.20801863;0.028901817;0.25115702;-0.12131978;-0.05411432;-0.035494223;-0.024742346;0.23176825;-0.06723048;0.26457742;0.15616365;-0.12599406;0.10233818;-0.3588466;0.057945367;0.33470708;0.14130075;-0.15197815;-0.048194703;-0.019147716;0.026405262;-0.09283467;0.090318576;-0.048390485;-0.17876995;-0.30308136;-0.0280722;0.10018834;-0.046926;0.031080833;-0.24670877;0.16397859;-0.054912638;-0.021602808;0.30778328;-0.24449839;-0.21112001;0.18987446;0.01797363;-0.17345415;0.084672414;-0.16540883;0.07939045;0.21862711;-0.078985855;-0.11853374;0.17596224;0.06467477;0.025954545;-0.08162312;0.05907992;0.1170521;0.06987408;0.055198375;-0.192734;-0.030860206;-0.22789018;0.088162154;-0.06149521;-0.109709255;0.22606774;0.0071436404;-0.0972734;0.117105566;0.05276684;-0.107479475;-0.1266196;0.18081976;0.3733375;-0.04048324;0.18850198;0.0048391563;-0.1627973;0.29136595;0.243858;0.021941671;0.077847905;-0.07082224;-0.22743782;0.06697675;-0.09917182;-0.35460392;0.13458678;0.1383078;-0.041629855;0.009217226;0.25170678;-0.021403372;0.27362603;0.16511594;0.039559238;-0.04524217;-0.27138066;0.13666588;0.06514103;0.039502304;0.29966578;-0.034033407;0.055608947;0.17286514;-0.0877511;-0.06709673;0.25491038;0.19890082;0.12683919;0.037919648;-0.23417212;0.21596232;-0.115747236;0.09274336;0.10142436;-0.14642362;-0.14139302;-0.058943737;-0.049514297;0.12491373;-0.037385847;-0.011620462;-0.05795389;-0.08089888;0.009320687;-0.274139;0.18384294;0.0081888195;0.1633434;0.17747606;0.04803097;0.046699665;-0.0014065572;0.04714787;0.17623596;0.15315795;-0.18334061;-0.12786092;0.0954231;0.13170055;-0.13747403;-0.07091377;0.12307561;-0.0035732044;0.10519544;-0.16470595;0.10153292;0.24313582;0.18721889;0.055872604;0.036755223;0.0789515;0.036772486;-0.21127516;0.04484545;0.26458007;-0.05830856;0.11748101;-0.13244973;-0.027114138;-0.026233898;-0.10681793;-0.28351858;-0.17163844;0.05953659;-0.26797244;-0.15039586;-0.1889132;-0.017212436;0.055325832;0.24622707;0.124820225;-0.43905258;0.37748915;0.2598055;-0.3834033;0.19974574;0.119078144;0.11027942;0.15623778;-0.35667396;-0.15388373;-0.02530899;0.3100355;-0.26142487;-0.25510454;0.11850367;-0.13556188;-0.15230167;-0.04538958;-0.011270338;0.034397002;-0.020081785;-0.26251695;-0.036024317;0.16728632;0.23745261;0.25450447;-0.00045204815;0.09070126;0.1337546;-0.005743175;-0.16569716;0.10173337;-0.07027993;-0.09078091;-0.5608301;-0.20017111;-0.30044594;0.0048437878;0.07381266;-0.20471403;0.2601459;0.07964134;0.23858403;-0.07396253;-0.056619756;-0.19772775;-0.06402107;0.09470326;-0.32179767;-0.16319528;-0.30581772;0.10330221;-0.15926911;-0.18873553;0.33075342;-0.030522093;0.06944205;-0.1359064;-0.074182056;-0.30831015;0.32519823;0.19696645;0.18077715;-0.11400349;0.098367624;0.12776943;0.09719811;-0.03089983;-0.08712675;0.071821675;0.007646446;-0.0007197284;0.12315782;0.0667439;0.0566533;0.0728327;-0.014623318;0.034712754;0.07154772;0.06006936;-0.05102288;-0.1512405;0.04782467;0.0033812255;-0.20983951;-0.36301333;-0.067169115;0.01867304;-0.07813287;0.36588117;0.29814127;0.46633238;0.053586766;-0.19343753;0.053427383;-0.12622774;-0.2014441;0.058920495;-0.21995796;0.122825526;-0.13129918;-0.10517552;-0.31367394;0.08718423;0.032411058;-0.07922471;-0.072061166;-0.060766935;-0.17904966;0.043110657;-0.0077398857;-0.083384804;0.26927188;-0.02222391;0.11184243;0.12088646;0.053586673;-0.022446433;0.15222293;-0.03657907;0.109732546;-0.17450328;0.20913701;-0.057263687;0.074404284;0.17227182;-0.16723743;0.0033515815;-0.028915642;0.1241083;0.31497967;0.039962836;-0.15555754;-0.12401999;0.33469686;-0.033037152;-0.024715807;0.3036575;0.38736263;0.20727369;0.18530631;-0.31000024;-0.22564797;0.19848683;0.27483538;0.10757702;-0.23328231;-0.24865314;-0.18964446;0.03362416;0.041619476;-0.31297505;0.19146563;0.23046963;0.047120236;0.20386393;0.16917178;-0.27191457;-0.03885856;-0.009249886;0.04289691;-0.0050506312;-0.17392723;0.15742938;-0.0027627603;0.026985716;-0.04342844;0.36997315;-0.05174958;-0.028428055;0.11123612;0.0025882653;-0.036884006;-0.19581401;0.08556273;0.13347323;0.0036727712;-0.15784639;-0.16774036;-0.07785754;0.1704842;0.18426552;0.09747657;0.06656066;-0.13486673;0.15039209;0.09600839;-0.28473952;0.121370696;-0.25058866;-0.15977892;0.017264169;-0.112175025;0.0059899865;-0.1656136;0.31764036;0.05863221;-0.14723824;0.072077796;0.105990514;-0.13759984;0.016631512;-0.06586918;-0.084227465;-0.03269055;-0.030909576;0.07568558;0.18847512;-0.017415062;0.118178025;0.029489364;-0.045960836;0.03569782;-0.15319265;-0.085538425;0.109382495;0.17621022;0.13353221;-0.7377187;0.0077037388;0.021464517;0.06172941;-0.24599054;-0.014316299;0.18577115;-0.35932684;0.17804812;-0.102342114;0.07790187;-0.40948778;0.24718736;0.16002615;-0.24424905;-0.043332625;0.025396029;0.1669945;-0.08547108;-0.21350887;-0.012940179;-0.30109358;-0.13455142;-0.10337184;0.45079172;-0.19305965;-0.28442463;0.049314428;-0.1963697;-0.058389664;0.04265793;0.1811582;0.2540613;-0.016359573;-0.17676641;-0.17822824;0.25342643;-0.49004573;-0.09288183;0.10726603;-5.5561122e-06;0.17216258;-0.34165457;0.02435466;0.17509538;0.09076701;0.3486779;-0.060357135;0.1061668;-0.17742299;0.18782072;0.17834474;-0.28053823;0.05848869;0.22229546;0.06687888;0.11342556;0.24429913;0.11380889;0.19250686;0.18915488;-0.4286076;0.11442076;-0.062316157;-0.2784023;-0.5125508;-0.24611478;-0.08362472;-0.18779041;-0.06540989;0.14504589;-0.052071504;-0.319173;0.09759526;-0.047483534;0.07340994;0.12735128;-0.3234602;-0.0342409;0.07267403;0.10580064;-0.2582452;0.16568665;0.026256587
-0.3306654;-0.17212701;-0.37447622;-0.016644873;-0.16101919;-0.027713224;-0.07813377;0.04231599;0.10535723;-0.06755021;-0.13333975;0.07635408;-0.07707641;-0.15706883;0.3005236;-0.05724926;0.058863908;-0.04411202;-0.2641915;0.025650155;0.15521507;-0.22501019;-0.06867309;0.004558831;-0.11250772;-0.17354327;0.20417099;0.053705066;-0.21397078;-0.04252953;-0.16877604;0.1238008;0.080057316;-0.022419488;-0.40081924;-0.16622193;-0.22049719;0.41269988;-0.12860301;0.15415691;0.07569363;0.25350818;0.07973333;0.06269116;0.2671105;-0.23498687;-0.34879455;0.21611324;-0.06045679;-0.20483774;0.49601135;-0.03683427;-0.03911232;0.024909824;0.113670684;0.13208552;0.34403494;0.26723346;-0.27254236;-0.3782411;-0.04937116;-0.3158502;0.31731963;-0.08324487;0.18823355;0.062065855;0.1501584;0.21675217;0.095871076;-0.61947364;-0.17075837;0.13118675;-0.053901788;0.039022353;0.17201237;-0.04103849;-0.0276032;-0.41056433;0.2978934;0.26422167;0.14560345;-0.06483754;0.15220779;0.36466882;0.1796226;-0.1612347;0.031758998;-0.1398206;-0.2307622;-0.021020727;0.20595871;-0.034182236;-0.072546415;0.21667497;-0.19919442;-0.62935627;-0.033874977;0.12424261;-0.31231818;-0.20215479;0.28080425;-0.002989932;0.07927306;-0.033222605;-0.015732173;-0.099286854;-0.4581614;0.050815303;0.16599393;0.028288582;0.034967013;-0.21367224;-0.006493195;-0.012009436;0.09007759;0.30975035;-0.014751529;0.06685472;0.0685852;-0.017534027;0.23759176;0.244657;-0.13317753;0.14030856;0.2270357;0.24648619;0.044764742;-0.12056191;0.047851503;0.13270119;-0.41518205;-0.19919363;0.043255918;0.20562615;0.0778991;-0.081644654;0.11711159;-0.025665816;0.08293264;0.1015411;0.3323912;-0.29786628;-0.4369178;0.1571792;-0.030992894;-0.1195909;0.09327497;-0.038875733;0.10971798;0.06845754;0.14332682;-0.009878945;0.16858424;0.22375454;0.051334504;-0.052220363;0.16827473;-0.13297111;0.10628779;-0.18428405;-0.40953475;-0.24127714;-0.0037910428;-0.023442287;-0.23047723;-0.12077195;0.17370102;-0.03820337;0.0488764;0.123672225;0.005965247;-0.048285484;-0.10244215;0.45212603;0.2842462;0.18189476;0.32404962;0.14141032;-0.13724251;-0.16780539;0.1027754;-0.060735747;0.09016576;0.13000873;-0.2228315;-0.13285922;0.17500687;-0.180573;0.21355999;0.021618908;0.11988108;0.13587892;0.12355983;-0.008898402;0.05188618;0.052217264;0.09499024;-0.028087303;-0.14990066;-0.045506403;-0.064958856;-0.12479862;0.29883316;0.02585356;-0.2962541;-0.23128578;0.21779744;-0.34478214;0.1293594;0.14654571;0.17341338;0.020513285;0.033273607;-0.10989639;-0.2332849;-0.030637689;-0.048649013;-0.04298738;-0.10471847;-0.12087213;-0.10718334;0.14330485;-1.6179301e-05;-0.03832108;-0.043230146;-0.0642294;-0.04823327;-0.3373295;0.12029855;0.034529794;0.046990443;0.25568947;-0.020393595;-0.10984811;0.1020802;-0.3093983;0.20074825;-0.07561174;-0.08553923;-0.10795312;-0.12680359;0.1863411;0.016723847;0.0028470969;0.3687552;0.100375585;0.23555416;-0.13262127;-0.005718908;0.19823614;0.17867574;0.07707392;-0.025966816;0.013280535;0.15824838;-0.034206625;0.3154493;-0.10245491;-0.06366277;0.18239512;-0.09730018;0.046908617;-0.0879218;-0.09784178;-0.13090718;-0.13912773;0.022579184;-0.38548952;-0.11694345;0.07304579;0.08367317;-0.10314002;0.38373974;-0.18077621;-0.3161645;0.029596921;0.23834698;-0.20146842;0.18357983;0.015874524;-0.15968789;0.021541215;-0.4603717;0.044242635;0.057994574;0.112917155;-0.2964535;-0.0136197535;0.17238198;-0.20746595;-0.35971725;0.10906413;-0.0126155;0.18451102;0.013437394;-0.14165516;0.05582887;0.142795;0.14721733;0.024770351;0.030630164;0.007725571;0.34744886;0.027873276;-0.24778956;0.14547507;-0.054143485;-0.07790897;0.29619277;0.2843139;-0.11880835;-0.109418906;-0.1430623;-0.037895996;0.030030528;0.14877175;-0.017616553;-0.1358822;-0.17962512;0.014779196;0.037258096;0.2375055;-0.41290668;-0.08169075;-0.35299495;-0.04724951;-0.051342208;0.07429307;0.18207404;0.012862353;0.091874935;0.00094806054;0.009177946;-0.38892463;0.18196972;0.085169606;-0.13567425;0.29427624;0.05446541;-0.06120993;0.034792215;-0.28158575;-0.16700944;-0.17470862;0.11784424;0.116870694;-0.012548783;0.06445796;0.0019194732;-0.08477587;0.013184085;0.11101549;0.14846656;0.32959008;-0.22099398;-0.0891132;-0.100496925;-0.072683565;-0.05217;-0.32879865;-0.12753709;0.113771364;0.2131623;0.15251246;0.2896025;0.39776492;0.21162996;-0.19829516;0.08034686;0.081095874;-0.04615093;-0.024524586;0.0607923;-0.08430393;-0.092306666;-0.08160806;-0.108078204;-0.007856979;0.058326785;0.12892784;-0.10550171;-0.061292566;-0.25026548;-0.050318275;-0.019632353;0.021699723;0.2143431;-0.43148717;0.103088096;-0.005988128;0.2354133;-0.26921386;0.09215005;-0.15018506;0.3200098;-0.15944798;0.12480605;0.041526843;0.096437044;-0.09286545;-0.03955162;-0.2258083;-0.044854607;-0.05691892;0.1713631;0.14396346;0.07799779;0.121865645;0.33458775;0.039218165;0.011193129;0.32865655;-0.028982565;-0.27089396;0.17609154;-0.10191455;-0.14407039;-0.01436472;0.16269302;-0.15058172;0.109694585;-0.31653506;-0.22810155;0.052453507;0.1781944;-0.48487198;0.062494636;-0.1872277;0.04444117;0.1743226;0.05118689;-0.26136157;-0.028617093;0.102290936;0.19520672;-0.10115022;-0.003745774;0.3103679;-0.057252776;0.092266805;-0.014472974;0.25369963;-0.04223413;-0.035137065;0.18804424;-0.13736677;-0.066014;-0.113069594;0.23662016;0.094636284;0.111090876;-0.5779656;-0.12701191;0.09255562;0.16428669;0.14191934;0.16157529;0.40702185;-0.051687136;0.11967184;-0.050149426;-0.15258351;-0.049984463;-0.18139178;0.12718494;-0.2051943;-0.08862667;0.0007034626;0.034943998;0.061661676;0.15712269;-0.25333792;-0.08843357;-0.032770216;-0.26098263;0.07381701;-0.07773529;-0.13561526;0.027561272;0.16406395;0.19189431;-0.010399587;-0.15027551;0.11905334;-0.034606483;-0.08446401;-0.059526864;0.12808008;-0.23929189;0.13245374;0.22486177;0.121639706;-0.3979822;-0.09223302;-0.24271177;0.13184525;-0.13887352;0.30807453;0.14149393;-0.36450395;0.3596592;-0.099727824;-0.1483419;-0.24725808;0.02279724;0.095281646;-0.26515;-0.058062688;-0.0030260892;0.33651653;-0.012553701;0.064688005;-0.029183596;-0.36707962;-0.1037595;-0.00675505;0.00857837;0.02170109;0.000336862;0.06878974;0.036931172;-0.19511649;0.2114516;0.112340905;0.20765449;0.001724239;-0.034981184;-0.24015084;0.24483797;-0.6715141;-0.19316475;-0.06279752;-0.06402663;0.13246323;0.09180374;-0.32686576;0.27745512;0.24776347;0.43023545;0.15932925;0.11096179;-0.34201422;0.055623647;0.07394668;-0.111309044;-0.028308988;0.18384925;-0.09197145;-0.052528318;-0.09574401;0.0037077677;0.031056399;0.11246937;0.06113373;-0.08840358;0.04357289;0.17535853;-0.4158965;0.059899613;-0.17823637;-0.23047665;-0.012545078;0.21992645;-0.09255452;-0.08912301;-0.031770118;0.0076442705;0.13883425;0.23937751;-0.12648466;-0.102456234;0.17475797;0.12967354;-0.0023556089;-0.00484563;0.07177545
-0.019168992;-0.35906494;-0.042226207;-0.29328212;0.07168688;-0.23833537;-0.07545872;0.034394786;0.123256855;-0.083087035;0.09028189;0.002282519;-0.25260857;-0.020392941;0.12532824;-0.09921236;-0.20430602;-0.10372491;-0.15683773;-0.07423689;0.019099222;-0.42104444;0.08338311;-0.016673712;-0.13390134;0.0437672;0.10463038;-0.1246047;-0.19216064;-0.23974822;0.10730539;0.08215499;0.09183316;0.14257658;-0.22647335;0.051500317;-0.27035964;0.5709928;-0.0132693425;-0.060265064;0.25777915;0.1651099;0.055849887;0.045672763;0.26467225;-0.24767601;-0.23237772;0.13724339;0.0110212;-0.18479611;0.18989159;-0.4283919;0.041437645;0.09052373;-0.2569384;0.40478063;0.051407885;0.329373;-0.29355532;-0.10336893;-0.015883762;-0.16577786;-0.09102572;-0.012410804;0.3328431;0.13501997;0.13270324;0.11795828;0.01959751;-0.38990813;0.12751105;-0.021818839;0.22180863;0.050910145;0.17908451;-0.13908823;0.09085042;-0.17224243;-0.046055;0.113800414;0.15281525;0.019643435;0.22518173;0.34420443;0.21599576;-0.27765998;-0.0944874;0.07725358;-0.027823485;0.123333886;0.15484565;0.028266493;0.2883448;-0.022034818;0.14307205;-0.45140058;-0.120718576;-0.13948527;-0.007945643;-0.16473518;0.104469635;-0.18919738;-0.22678606;0.117141;0.12804113;-0.21230015;-0.19632898;0.06423256;0.13906677;0.3039848;0.0062293205;0.19836715;0.09556882;-0.04429052;-0.028806096;0.20947945;0.073492564;-0.19226184;0.081302896;-0.18792011;0.28435022;-0.030784734;-0.038071465;-0.00012674286;0.2470033;0.24653225;0.30238152;-0.067767166;0.06023978;-0.15172714;-0.20024;0.28569612;-0.0006643603;0.2012445;0.05634816;-0.2079714;0.22003695;-0.023279935;0.20530939;0.26220936;0.13935094;-0.41317192;-0.26154932;0.29603812;-0.09023383;-0.066800974;0.029942652;0.085630246;-0.004168501;0.08932438;0.21099263;0.0067313756;0.025085539;0.2536183;0.13743919;0.022766465;-0.13558523;-0.017461991;0.19005689;-0.16475038;-0.26082414;-0.21169817;0.078917995;0.058382053;-0.08252165;-0.18488455;-0.0934913;0.102344975;0.18462476;0.0016071869;0.12808818;-0.091330014;-0.344546;0.010396168;0.2896476;-0.38668197;0.08684991;0.23351756;-0.1543397;-0.35743973;0.11095845;-0.18794686;0.0092077665;-0.045617636;-0.17911248;0.015456904;0.15218686;-0.262094;0.10312044;-0.061724517;0.20535043;0.05572743;0.1279728;0.198637;0.037729457;-0.19566199;0.0627094;0.10822718;-0.15265323;0.20579226;-0.24680686;-0.07889834;0.19546144;-0.09046734;-0.093084104;-0.1943089;0.026496818;-0.3874377;0.055757105;-0.22776505;-0.03290917;0.12519708;-0.02827385;-0.18338579;0.040645815;-0.030474152;-0.08204539;-0.14336608;0.022137465;0.26914415;-0.02258908;0.035821296;0.2797644;-0.035003215;-0.16833553;-0.07689191;-0.14912267;-0.23446198;0.07083685;0.008928279;0.024496933;0.3602343;-0.21324198;-0.041253757;0.06800781;-0.14286079;0.22499621;-0.025334237;-0.32529157;0.22543146;-0.103030466;-0.21382038;-0.27712554;0.045081764;0.25618303;0.09017613;0.19774942;-0.07486612;0.092238486;0.2535176;0.13632764;0.106871344;-0.025850127;-0.008198377;-0.24230766;-0.0477692;0.29937077;-0.06324988;-0.23642077;0.044367265;-0.14101255;0.019226547;-0.22563986;-0.15722404;-0.12149019;-0.040290583;0.2684192;-0.055960618;0.060299493;-0.07549436;0.16308415;0.11011688;0.04395963;-0.27921486;-0.26373398;-0.39924678;0.08023903;-0.2515423;0.08084694;0.046004873;-0.08988193;0.12541868;-0.27247483;0.19895539;0.14241324;0.36653265;-0.25755867;-0.14340916;0.057493467;0.16646618;-0.42944413;0.00045058457;0.11360574;0.018829608;0.3119393;-0.10318197;0.013980164;-0.0017144544;0.18980785;0.28639114;0.10686446;-0.123761326;0.38528466;0.049335063;-0.07528563;0.19321942;0.21595725;-0.19251487;0.266076;0.14184901;-0.045349937;-0.10905895;-0.014374724;-0.20943569;0.05174105;0.02908793;0.04530816;-0.10334858;0.069087215;-0.13207816;0.15917008;0.010879797;-0.13511887;0.07671991;-0.30801493;-0.26606494;-0.09014699;0.05699184;-0.08931697;-0.015417072;0.0132740475;0.06255705;0.13726525;-0.3074229;0.08564648;-0.22714;-0.16283582;0.25767952;-0.06539635;0.0671399;0.1306971;-0.19634044;-0.32873657;0.07610635;-0.09888472;0.2624923;0.03418652;0.14886722;0.013285653;0.10381906;-0.113722205;0.0736289;0.3868446;0.28655308;-0.17983945;-0.079982735;0.01826728;0.089372724;-0.23921488;-0.14603724;-0.19059277;0.16450945;-0.11568167;-0.22205251;0.1013795;-0.039361525;0.35375574;-0.13982725;-0.03962733;0.1024775;-0.17284088;-0.05732489;0.06243357;-0.035670623;0.027188657;0.08498903;-0.16792361;0.14792752;0.09064776;-0.23475607;-0.2062172;-0.06499335;-0.07867273;0.26175895;0.01055064;0.01979001;0.14040096;-0.68148744;0.024457613;-0.13799815;0.18619989;-0.11623551;-0.12189978;-0.19713682;0.32561734;-0.21149513;0.20371468;0.16505566;-0.08952471;-0.004236466;-0.120897174;-0.13243428;0.015724178;-0.16665217;-0.15993866;0.001915578;0.23947999;0.0061882245;0.06821968;0.23099889;-0.10155349;0.15346546;0.12190484;-0.029705444;-0.07191547;-0.008840305;0.06549927;-0.08783658;-0.04692628;-0.21031564;0.07064967;-0.12728326;-0.23477778;-0.20099847;0.15009221;-0.43968832;0.15229021;-0.5435082;-0.04488673;0.05250472;0.19898187;-0.11496413;-0.0856025;0.17984521;0.14554799;0.006126793;-0.15230407;0.034754235;0.020091092;0.1392564;0.023606924;0.20586012;-0.088446945;-0.019538622;0.23841922;0.15541473;-0.37379277;-0.12312483;0.13511053;0.08060135;0.08562081;-0.24921888;-0.23022877;0.04011819;0.051441167;0.18235438;0.24359235;-0.08919543;-0.19423491;-0.10370792;-0.09430418;-0.067249656;-0.45394465;-0.02339855;-0.124757946;-0.20783944;0.09235207;-0.35627106;0.02366368;-0.13083854;-0.006915023;-0.014027527;-0.020377927;-0.04762057;-0.21192662;0.036282882;-0.09565732;0.09963017;0.09094385;0.010305344;0.25040093;0.1132238;-0.1312176;0.12979807;-0.09791967;-0.09018842;0.0033868493;-0.03726731;-0.01645707;-0.017427823;0.18250847;0.037883807;-0.011653993;0.13587935;-0.206688;0.061812986;-0.21797556;0.24353068;0.012386352;-0.19500755;0.34033135;0.13559611;-0.16372822;-0.23973182;0.017439947;-0.12991975;-0.19429798;-0.25797498;0.21650538;0.014910597;0.0062472164;0.11975907;0.16698705;-0.37247252;-0.047177102;-0.076768234;-0.20953922;-0.06784218;0.16160727;0.009017623;-0.019263381;-0.0996657;0.072945714;0.10393366;-0.0043309624;0.06402564;-0.14831361;0.09382162;0.1929853;-0.58836883;-0.13578898;-0.150127;-0.051280834;0.059280667;-0.02900309;-0.104079805;0.322657;-0.022718785;0.17559001;0.16433932;-0.02063049;-0.48196888;0.102081686;0.30815104;-0.34914598;-0.0100839995;-0.0699968;-0.20184454;0.18138115;0.0890285;0.1843778;-0.023916854;0.110997446;-0.049343;0.22052796;-0.14110611;-0.05688014;-0.046843648;0.36695492;0.14660256;0.14194942;0.019949155;0.2572089;0.14120649;0.25721622;0.0006900102;-0.12111732;0.23783255;0.3996327;-0.08106333;0.0339267;-0.22352298;0.24217162;0.042557746;0.10543248;0.023387972
0.18199287;-0.2206689;0.043111965;-0.04339694;0.0323482;-0.29791203;-0.16031732;0.074733004;0.39050317;-0.10122684;0.17411275;0.06815407;-0.48257947;-0.10278731;0.0072523425;0.014514988;-0.033267856;-0.025255004;-0.15063313;0.3765449;0.11579645;0.08031343;-0.09295516;0.08159673;-0.11437883;-0.030869056;0.23273018;-0.26757878;-0.15580808;-0.042401217;0.05418111;0.23796663;0.041622616;0.1942082;-0.48376969;0.14536963;0.02270292;0.38623255;0.12856129;-0.046090823;-0.0034341607;0.09313542;0.03001115;-0.51505864;0.1207645;-0.03857833;-0.045310933;-0.014694595;0.12688504;-0.08701046;0.10925155;-0.33777186;0.08920285;-0.077777274;-0.36363292;-0.16911782;-0.40632573;0.10974126;-0.23380548;-0.005677291;0.29964736;-0.14992623;-0.49492997;-0.07575928;0.17532325;0.08361555;0.10879327;0.18986803;0.06075557;-0.3724879;0.012714956;0.031817786;0.2093678;-0.12864766;0.046725795;-0.21355145;0.03273328;-0.13190763;-0.06552213;-0.042006567;-0.34659618;0.07695101;0.2198745;0.38615584;0.1784587;-0.24381264;0.024734614;-0.123377964;0.04793805;0.016287252;0.17205071;0.12548955;-0.16141494;0.050485823;0.09819521;-0.31255323;-0.085626684;0.049370594;-0.08606868;0.05247688;0.22270948;-0.17300355;-0.18793844;-0.1026068;0.25060564;0.03634067;-0.0407401;0.29953337;0.1438846;0.29463765;0.07961968;0.08612336;-0.0809449;0.029481258;0.047285553;0.20823221;0.3233419;0.043869797;0.15122601;-0.24644703;0.10407316;-0.19905367;-0.35567397;-0.043524258;0.16308756;0.18166451;0.45770785;-0.16025095;0.09672031;0.11002946;-0.09346119;-0.10739053;-0.2076902;0.20873398;0.054012906;0.021303227;-0.009972266;-0.09268863;-0.1861593;0.09820901;-0.045597326;-0.02417452;-0.11189666;-0.012711338;-0.27302006;0.26328442;0.23202214;0.009845905;-0.16583376;0.36479574;0.01974762;-0.09434414;-0.103839725;0.1541519;0.27419606;0.15302968;0.072631285;-0.043593135;0.27257404;-0.16022429;-0.10796798;-0.014363708;-0.209503;0.09575011;-0.17911059;-0.12329335;0.022338215;0.016805839;0.3407531;-0.03645111;-0.0027454467;0.020175619;-0.3643507;0.18364106;0.31855264;-0.3787207;0.102116235;0.2825054;0.13198747;-0.2522646;0.14323401;-0.13276969;-0.022777705;0.22049151;0.0687178;-0.05120042;-0.19497474;-0.12758556;-0.043911334;-0.09317516;0.3403178;0.027644815;0.194685;0.07619345;0.15518825;-0.13501857;0.06327969;-0.035732083;-0.09702135;-0.014741233;-0.23214413;-0.025206223;0.10652711;-0.24846576;0.12717363;-0.2708804;0.028321153;-0.2345015;0.09550465;0.16568424;-0.2842003;-0.028718771;-0.16869369;-0.30182764;0.13885364;0.12588584;-0.22034302;0.016865771;0.20136727;0.1393711;-0.08566136;0.06294928;0.4178781;-0.36549452;-0.19051574;-0.1343627;-0.2869794;-0.21087094;0.06601383;-0.13329841;-0.0045113945;0.3807904;0.042248618;0.030143943;0.115378045;-0.08534527;0.2270757;0.0142137455;0.11902793;0.23670368;-0.04638524;-0.10873559;-0.19366439;0.07480236;0.054947063;-0.11245079;0.050772846;-0.046416465;0.24618757;0.36088973;-0.08734059;0.1053861;-0.012656865;0.08898373;-0.282585;-0.16244778;0.20559128;0.029908827;-0.20766813;0.23733276;-0.0010759619;0.15187763;-0.2871015;-0.14016002;-0.35515743;0.024020622;0.19775918;0.011077766;-0.31355342;0.13672282;0.22714296;0.038910232;0.1001675;8.798691e-05;-0.06189512;-0.4770545;-0.009170729;-0.13594279;0.12697361;0.013238364;-0.048835486;0.27620295;-0.08674189;0.4552183;0.09178109;-0.07758552;-0.31214333;-0.17660019;0.08853217;0.01821737;-0.11631599;-0.038726654;-0.03730165;0.0031140354;0.12372175;-0.08092963;-0.14129354;0.036969956;0.16650864;0.2758353;0.022351962;-0.041546136;0.3084997;0.066127814;-0.14894462;0.08213978;0.020391323;-0.20470423;-0.3043042;-0.16161443;0.016860042;-0.16326629;-0.17749481;-0.010949285;0.046873372;-0.007691873;0.06208228;-0.046328533;-0.034034878;-0.07844879;0.0403792;0.12760673;-0.40612164;0.07612355;-0.13020875;-0.020461593;-0.007591877;-0.051697824;-0.14322506;0.02382753;0.039083607;0.011725198;0.2540391;-0.010278033;0.16052055;-0.09926341;-0.33651835;-0.024933303;0.0010869113;-0.13232298;-0.15657192;-0.10189785;-0.09599805;-0.13956225;-0.07822122;-0.18382524;0.0070237727;0.22803374;-0.046357278;0.11208643;0.0068899207;-0.031417094;0.074683465;0.3064249;-0.07974566;0.34925577;0.10615253;0.08689715;-0.097747296;-0.38159293;-0.12035677;0.07152926;0.031906944;-0.15891704;0.20845579;-0.39046016;0.13514505;-0.12183998;-0.25371668;-0.003140294;-0.15030345;-0.06225916;0.0009788246;-0.14088984;0.10452366;0.2412351;-0.30268347;0.12719885;0.24317254;-0.24373052;0.034953225;-0.13126968;-0.34500995;-0.108085684;-0.008584781;-0.013025646;-0.16141045;-0.21234877;0.14151949;0.056140386;0.064205825;-0.25612614;0.037320513;-0.27742085;0.14811975;-0.086263336;0.068592325;-0.15275632;0.014553331;-0.1300518;-0.25156227;-0.2309613;0.11768335;0.063551836;-0.19433473;0.21349177;0.025849046;0.13138396;-0.05939954;-0.0108358925;-0.1919966;-0.06561279;0.03491639;0.04150666;-0.048824336;-0.09392657;-0.020894624;-0.06446717;-0.019824844;-0.031343214;-0.08692176;-0.2786464;0.032565646;-0.20505942;0.5172224;-0.67564094;0.012806847;-0.33346424;-0.094856165;-0.030926777;0.36153755;0.2310948;-0.3450092;0.02843797;-0.018040475;-0.16506533;-0.35357812;0.09175594;0.07542978;0.030773597;-0.047637705;0.11717762;-0.055986524;-0.03773682;0.101251006;0.110034056;-0.22563238;-0.017148616;-0.12865014;0.08826644;0.17225227;-0.18228596;-0.0053630522;-0.13576415;-0.024343742;-0.085614905;0.29091358;0.10787262;-0.2712703;-0.056656826;-0.041843265;-0.0016266224;-0.4993351;0.093896225;0.03612929;0.031926412;0.19449235;-0.536337;-0.30662605;-0.09063376;-0.06566768;0.14627415;-0.15131159;-0.11286803;-0.03624004;-0.089632556;0.21073739;0.10067151;-0.13508892;0.051610935;0.074274264;-0.025490593;0.018084414;-0.12099028;-0.08960689;0.05660683;0.043933198;-0.10152189;-0.036751747;0.05310502;0.18677521;0.04042643;0.007089204;0.092645206;-0.20992905;0.31795081;-0.049533635;0.36266914;0.15356761;-0.4338787;0.5432955;0.12437576;-0.27118486;-0.2542032;0.17807256;0.0023809972;-0.13162456;0.0057537346;-0.26628655;-0.16118786;0.0619915;-0.11276054;-0.027394399;0.045487706;-0.08537903;0.25227574;0.03002834;-0.09655039;0.3181367;0.011862946;-0.16204159;-0.022206388;0.24430665;0.07839099;0.17010878;-0.016016912;-0.37083238;-0.088960744;-0.06771086;-0.357584;-0.08358444;0.013523412;0.345148;0.21616691;-0.088374764;-0.12183941;0.19119592;0.047847364;0.44112957;0.18226443;-0.12576056;-0.27731633;0.003165136;0.3765969;-0.28711736;0.09446245;0.15514591;-0.091242775;-0.06016758;0.03439632;-0.07874557;-0.25566712;-0.011568597;-0.0068041;0.036456387;-0.06874047;-0.018827235;0.038751133;0.13036968;0.37242883;-0.06286277;0.096532136;0.18636665;0.04984344;0.11150147;-0.06986046;0.07019479;0.1987833;0.16201794;0.25210252;0.12150483;0.2175479;0.3418965;0.08003807;0.037481066;0.059441503
0.25951046;-0.17124599;0.02719913;-0.16272093;0.0667817;-0.19300155;-0.018909417;0.089528166;0.07248865;0.2040968;0.11816264;-0.013315591;-0.57040054;0.14464971;-0.18926223;-0.171961;-0.16071248;-0.15749767;0.13994987;0.10170432;0.14074409;0.034791686;-0.08852532;-0.0103683565;0.14168966;-0.0921805;0.2224602;0.1034648;-0.07814512;0.065224126;-0.010950633;0.1268224;0.021038754;0.029235126;-0.39114642;0.12350212;-0.18992431;0.39748523;-0.109239794;-0.081764825;-0.18681528;-0.011512982;-0.052748475;-0.40897018;0.14732884;-0.033799995;-0.041532848;0.041783042;0.05401917;-0.07172275;0.16720459;-0.25864854;-0.045844823;0.046783116;-0.5206616;0.24710722;-0.004347167;0.23430867;-0.528765;-0.120593;0.2899344;-0.1027007;-0.25030115;-0.23897238;0.11341673;0.10599158;0.090047255;0.18578358;0.2648748;0.035753373;0.22988454;-0.032784544;0.3200823;0.13490433;-0.034329206;-0.07611521;0.0393621;-0.19791779;-0.018073346;0.17185369;-0.13898832;0.09073595;0.017762402;0.22117506;-0.19993882;-0.17300765;-0.040970854;-0.19524458;0.12379847;-0.08907299;0.109689325;-0.083236836;-0.023042506;0.11977687;0.17141347;-0.27888793;-0.16763741;0.026336238;0.081506535;0.03810737;0.25805557;-0.07114247;-0.05916986;0.008276138;0.015360117;-0.13566911;0.13216029;0.27819806;0.15810722;0.30972502;-0.113891095;0.0003924005;-0.10820817;-0.078198;0.023659403;0.28083187;0.22420935;0.031819243;-0.10256589;-0.27020028;0.25578317;-0.055864614;-0.0702246;0.13647062;-0.0024600269;0.13372852;-0.0068383855;-0.34617424;-0.41945595;-0.08396413;0.018086413;-0.02022409;0.10072243;0.28240559;0.19127333;0.08138379;-0.057442937;-0.030392027;0.026475865;0.23787346;-0.138587;-0.14080477;0.0031587102;-0.0055103833;0.24971516;0.070987135;0.23542584;-0.021819409;0.09226959;0.21204881;0.018107895;0.042890385;0.21130672;0.16338389;0.39788318;-0.0033647479;0.08849328;-0.14017524;0.086377434;-0.16995998;-0.11134411;-0.26227194;0.075777575;-0.30811927;-0.10026006;-0.23297183;-0.10539492;0.117482245;0.25790805;0.02175751;-0.34168643;-0.025496267;0.06984557;-0.051318116;0.022822991;-0.2711439;0.19208722;0.070279725;-0.13134369;-0.17930433;0.055894166;-0.21358773;0.17153218;0.18222404;0.15900184;0.0015187528;-0.021105377;-0.15875679;-0.05415835;0.04983051;0.3525727;0.30805057;0.19196196;0.23555927;0.174135;-0.05758152;-0.11136547;-0.22561572;-0.038002454;0.16689876;0.05186807;-0.20943081;0.25074422;-0.17385903;0.08787412;-0.15073946;-0.03033536;0.07666717;-0.084117845;-0.010724259;-0.104117416;0.29997638;0.02984283;-0.15890855;-0.11121105;0.036406383;-0.026342882;0.027414413;0.1541201;0.15420991;-0.0056151673;-0.015905304;0.056804337;-0.43386325;-0.37136456;-0.28769287;-0.18697403;-0.37790784;0.019985385;-0.28497458;0.048828073;0.20854597;-0.047936626;0.027315803;0.064720675;-0.10638368;-0.022430018;-0.032088842;0.15227953;0.24819477;-0.04742508;-0.022969572;-0.28647858;-0.18419245;-0.0949307;0.41244152;0.09955878;-0.074230805;0.082589224;0.06452832;0.05079228;0.19508962;0.13424928;0.20873836;-0.26719144;-0.05506089;0.32777977;-0.13511366;-0.04900779;0.05511204;0.073904455;0.116670296;-0.26209733;0.073001735;-0.25681695;-0.10319484;0.09447279;0.059202168;-0.13920425;0.05877262;0.08507451;-0.06775346;0.14493966;-0.3970709;-0.3172356;-0.2099599;-0.19698508;0.08168498;-0.0054421406;0.036860954;-0.24461539;0.21794367;0.28332126;0.08799992;-0.18750197;-0.018716564;-0.07536645;-0.012480537;-0.11031623;-0.07004663;-0.12732361;-0.022910018;-0.21014373;-0.12291369;0.21564347;-0.008974134;0.1645667;0.21336122;0.21778102;0.22335546;0.080961816;0.11490593;0.11916135;0.029628469;-0.0692042;0.17393838;0.25212595;0.093784146;-0.14174326;-0.18892404;-0.32344303;-0.23924996;0.07281162;0.092872016;0.20995349;-0.07209113;0.13443679;-0.0563328;-0.12575012;0.05814177;-0.22625771;0.15993607;-0.47123042;0.11737006;0.020685567;0.14764605;-0.050566033;0.11836057;-0.44238845;0.19984904;0.10971583;0.12003478;0.078831926;0.001151304;-0.006553971;-0.14116931;-0.27316034;-0.11992257;0.011117019;-0.00062647194;-0.15655093;-0.17524774;-0.113939926;-0.12529466;-0.30344623;-0.113755606;-0.1369734;0.1826247;-0.011688033;0.013972175;0.08579142;-0.049129453;0.14978588;0.24544789;-0.15704165;0.32565302;0.09521793;0.01679371;-0.057070814;-0.07634821;0.02455129;-0.13505325;-0.025598679;0.03978284;0.13128856;-0.41656289;0.12559406;-0.03736257;-0.09083531;-0.27330974;0.13961932;-0.10916443;-0.051718287;0.060815316;0.068603255;0.27814826;0.029504366;0.22320636;-0.027132584;0.105167374;-0.011153022;-0.06468617;-0.30453554;0.19496639;-0.0077340477;0.089917436;-0.06926815;-0.21730989;0.07729261;0.22020066;0.26418695;-0.04607942;0.087545834;-0.10342702;0.13036013;-0.20504871;-0.013772347;-0.3514663;0.03489213;-0.044783864;-0.22468413;-0.122009985;-0.17324781;0.11337904;-0.088828705;0.19509448;0.109053165;-0.14692897;-0.10827356;0.050304554;0.06815569;-0.0047836704;0.12691757;0.29021108;0.09446398;-0.113008864;0.3011413;-0.17148456;-0.021596774;-0.054525957;-0.03588174;-0.23524047;0.02530741;-0.22536889;0.29927504;-0.48677683;0.22721992;-0.46464223;0.07488981;0.18274716;0.17253934;-0.13091753;-0.0063969283;-0.017981295;0.18621612;-0.09800973;-0.061452087;0.04619558;0.24682443;0.11340423;-0.037375256;0.0917327;-0.058132857;-0.027885668;0.1821612;0.38393822;-0.045764375;-0.06474808;0.018519504;-0.0890768;0.046082858;0.1572211;-0.102873154;-0.16888593;-0.018797295;0.20671703;-0.15497021;0.11406429;-0.07980466;0.024584752;0.055054057;0.025462681;-0.19367753;-0.30216646;-0.10392736;-0.14243402;0.0046516284;-0.04647458;-0.21631795;-0.041480735;0.08907422;0.1704334;-0.17374942;0.0026112772;0.18152072;-0.022449072;0.060757004;-0.04209413;0.034380335;-0.31205165;0.05130057;-0.15827964;-0.2746419;-0.11560058;-0.273801;0.15044573;-0.06443473;-0.24421641;0.04317976;-0.05450285;0.339167;-0.01602855;-0.18167207;0.13508649;-0.03268555;0.091674924;-0.24918471;-0.27465132;-0.036064338;-0.20209739;0.4266163;-0.030561198;-0.21238442;-0.118265815;-0.16840202;-0.10805547;-0.23859277;-0.014564707;0.14678358;-0.1371088;0.241529;-0.12661567;-0.25294867;-0.20299628;-0.0081254225;0.09402819;-0.11297562;-0.27988994;0.08150241;0.03840202;0.040701352;-0.12849244;0.18697076;0.08915602;-0.11799264;-0.06746842;-0.17585813;0.031720348;-0.055663418;-0.049734157;-0.23178686;0.23672476;0.1411403;0.012952413;0.03611586;0.08967662;0.11388577;0.23639959;0.07652678;-0.066113874;0.16207653;-0.36831045;0.10357916;0.45276415;0.080868796;0.12896012;0.05108169;-0.16804469;-0.14146756;0.06689624;0.1042113;-0.111782536;0.12547502;0.2630653;0.05954383;0.12137799;0.08766923;-0.13328955;0.13922654;0.09770815;0.09281107;0.12005306;0.0949544;-0.017401323;-0.07988954;-0.0042149625;-0.06720705;0.12440331;0.23436978;0.22936256;-0.054835264;0.326537;0.12423393;0.029967062;-0.072796494;0.36454722
0.111147165;-0.17501673;0.2548389;0.019593611;0.100540504;-0.37720326;-0.29213995;-0.032224096;0.04294849;0.13931933;0.1480516;-0.13455892;-0.14395241;-0.094346;-0.06703353;-0.16128896;0.13921253;0.094241045;0.042876944;0.21034066;0.034830015;0.13880439;-0.2575761;-0.031475138;0.32981542;-0.08056862;0.37182632;0.04686627;-0.040844694;-0.14903916;0.0061002583;0.005208588;0.048006237;-0.1125879;-0.29831675;-0.06122523;-0.05193261;0.41099223;-0.11216685;0.08534134;-0.13173653;-0.025426764;0.0026050366;-0.3206164;0.067379065;-0.30747852;0.23315708;-0.22201322;0.12217154;-0.2603978;0.13755542;-0.041884053;0.058295075;0.15453456;-0.0883504;0.3689867;0.20220996;0.1587006;-0.35337904;-0.289707;0.21964335;-0.2571441;-0.118138604;-0.15833664;0.023131344;-0.08780185;0.08136489;0.11812567;0.030189123;0.10319367;-0.13036649;0.1399832;0.29750815;0.011421133;-0.13531083;-0.122416;0.0036546038;0.018832633;0.059945006;0.26580575;-0.13841215;-0.10385861;-0.017596355;0.14162375;-0.35522965;0.013246566;-0.024684153;-0.45391083;-0.12674078;-0.06450484;0.13191362;0.27422366;0.1279639;0.28011978;-0.29224703;-0.26472738;0.14729924;-0.055752587;0.23836331;0.17463604;0.046731073;0.03297164;-0.061034586;0.1852064;-0.08625561;-0.0343999;-0.16880715;0.23591635;0.0038889355;0.020391645;-0.2213804;0.119279124;-0.07574231;-0.31113046;-0.121182136;0.21984226;0.16839963;-0.14978725;-0.15886332;0.107676506;-0.0067266924;-0.3389125;-0.18054101;0.09504873;-0.10332697;0.33518457;0.26622173;-0.1415498;-0.20025617;0.13313554;-0.23458476;0.26694417;-0.030849377;0.28161064;-0.013201494;0.01676804;0.12657803;0.3516066;0.022588532;-0.053263832;-0.27856365;0.09893117;-0.13223007;-0.1296343;0.106034294;0.22469041;0.17024688;-0.030784616;0.06978886;0.021538666;0.14737236;0.02359976;-0.04059429;-0.03892647;0.45424545;0.117979206;0.018386947;-0.039115086;0.17149706;-0.24411893;-0.15715936;-0.057074964;0.170039;-0.18493591;-0.18121088;-0.057681106;0.14635675;0.06846698;0.008297788;0.013395179;-0.2428363;0.01976564;0.021524664;-0.100657016;-0.1288013;-0.29831427;0.147662;0.18047532;0.040023006;-0.36633322;0.084237956;0.123778716;-0.12763;-0.01805429;0.16137576;0.042901695;-0.0019528895;0.033195667;0.117388405;-0.19139093;0.38356045;0.15941118;0.11814936;0.19008185;0.056739457;0.02770351;-0.20389049;0.01812744;0.41901964;0.27146474;-0.2531329;-0.27369982;0.091129616;-0.06811588;0.02675576;-0.18446298;0.09203095;-0.10774721;-0.006251831;0.019396087;-0.23300733;0.18354799;0.01980063;-0.09796358;0.23949628;0.1794858;0.10621809;0.13880555;0.14468956;0.2539708;0.12478185;-0.17492212;-0.27242878;-0.29219332;-0.18518007;-0.13844821;0.0028477581;-0.44229892;0.37023032;-0.08023784;-0.12457785;-0.037160818;0.07245866;0.13253006;0.04871217;-0.16639803;0.11391996;0.11141602;0.3300436;-0.068565436;0.1269927;-0.16054831;-0.15466775;-0.11431035;-0.15437143;-0.13157624;-0.0751758;-0.08601677;-0.011905837;-0.24226695;0.03963919;0.35301435;-0.068565145;0.05352826;0.1192607;0.022225948;0.037797235;-0.048871517;-0.18496232;0.037417457;0.008809574;-0.050923616;-0.08458903;-0.15290979;-0.39452538;-0.10591734;0.054450218;0.102365516;-0.16438001;0.15784033;0.0514512;0.11625536;-0.038594894;-0.14654471;-0.19724394;-0.23578341;-0.2558482;0.21319528;-0.06676961;-0.14052857;-0.00031540712;0.3049799;0.45783144;0.18746237;-0.19172281;-0.34077343;-0.023143606;-0.14341392;-0.10027298;-0.21614458;-0.12994781;-0.02130627;-0.18816593;0.010386993;0.14984392;-0.03553518;0.13930173;0.008845922;0.37423816;0.38201112;-0.028323293;0.018908484;0.10180364;0.027038094;-0.0717515;0.017721478;0.052486144;-0.008540818;-0.06486185;-0.20414414;-0.14509471;-0.14108263;0.31032544;0.05670708;-0.06778419;0.016686436;-0.112179;0.015135749;0.008608586;-0.10581772;-0.11183627;0.08224337;-0.28479934;0.23026882;0.18865524;0.13966413;-0.17892773;0.086477004;-0.4689087;-0.10505936;-0.26699787;-0.092892066;0.096695766;-0.021380933;-0.03233953;-0.37793764;-0.36350137;-0.08581041;0.19476046;-0.11256048;-0.21933271;0.03900545;0.1712843;0.14716955;0.05888999;-0.014965093;0.05694851;0.18875684;0.001676252;-0.034467995;0.24903512;-0.20964384;0.10114465;0.09485603;-0.087059245;0.15430556;0.15979737;0.07853632;-0.03608147;0.13237368;-0.03869832;-0.023009842;-0.33910888;0.0059121;0.07470448;-0.38949472;-0.07361887;0.1021576;-0.05708296;-0.006182545;0.07394741;-0.09674893;-0.26898682;-0.2115347;-0.03570034;0.10994534;0.09659525;0.10825853;-0.12343371;0.3034333;-0.04910945;-0.08593767;-0.23957242;-0.12930775;-0.035550937;0.12552267;0.039758388;-0.08057801;-0.11680585;0.229087;0.2592265;-0.2289776;-0.068901286;0.07477689;0.27216196;-0.004783915;-0.21946764;-0.37581918;-0.10118106;0.055357046;0.010531659;-0.21658985;-0.2507901;0.14067781;-0.13564883;0.2930941;0.32283577;0.082192115;0.090460815;-0.099539064;-0.1203491;0.18467721;0.33997068;0.27095234;0.013640016;0.008081193;0.22270882;-0.13533671;0.033806045;0.12965457;0.026534569;-0.11456679;0.04557079;-0.07390808;0.42073163;-0.3780482;0.053582422;-0.10502829;0.15063046;0.01804284;0.11444335;0.09768082;0.10243682;0.08539108;0.12848742;-0.09175291;-0.19342937;-0.044651896;0.22589432;0.13620627;0.08555732;0.13343486;-0.11826254;-0.045638088;0.017333502;0.24791554;0.058794245;-0.014509086;-0.07036884;-0.021728968;-0.15211119;-0.12948936;0.07120245;-0.13331988;-0.01007635;-0.011448848;-0.3599877;0.034083642;-0.021273494;-0.13278654;-0.15913962;0.17871855;-0.01650716;-0.28309497;-0.03944425;-0.1011427;-0.10279254;0.069387086;-0.2726819;-0.16032884;0.09623173;0.009168165;-0.12815352;0.017975455;0.3128325;-0.010662029;-0.07850569;-0.18249895;-0.3298527;-0.20815748;-0.09758614;-0.0019023457;-0.31150472;0.023022193;0.0652845;-0.06439296;0.07538027;-0.14344464;-0.028621051;-0.096404105;0.17729574;0.1068452;0.18751211;-0.0017765226;0.14139573;0.0403106;0.05572945;-0.21174403;-0.053483795;-0.1653431;0.28855753;-0.1195067;-0.2999132;-0.2030132;-0.2208;-0.20159124;0.16181432;0.21718763;0.08283137;-0.33169615;0.04986412;-0.07401056;-0.12344513;0.06900821;-0.012783187;0.08957793;-0.28505766;-0.035082705;0.35361096;0.0581185;0.12435087;-0.07047111;0.29984668;-0.08856358;-0.07508825;-0.080007836;-0.086521395;0.24979201;-0.060108516;0.11656224;-0.37452453;0.18589674;0.17555419;0.028543008;0.36343682;-0.017628066;0.14774197;0.25921762;-0.25481474;0.015779026;-0.12514356;-0.118858345;0.089307636;0.3555584;0.11357911;0.12966864;0.097213015;-0.05671109;-0.06405825;0.059199225;0.15602508;-0.23907906;0.069165625;0.121116236;0.10691075;0.04026372;0.2078669;0.024477279;0.22261493;-0.02161595;0.24313904;0.04847106;-0.28677776;-0.113219015;-0.17315975;0.03655363;0.12850171;0.13081236;0.27259448;0.04555495;0.05944088;0.37579495;0.10161607;0.00998662;-0.16766134;0.42634338
-0.016127056;-0.24339439;0.26263827;-0.2751897;0.05476186;-0.19402568;-0.28167066;-0.024303334;-0.04011305;0.15211229;-0.0245424;0.12239566;0.08850967;-0.13579214;0.15514754;0.13065952;-0.09052805;-0.01739925;0.36271018;-0.029302038;0.28175676;-0.0011058734;-0.24481577;-0.23907118;0.18336739;-0.1066759;0.25981018;-0.09769405;0.014224647;0.09843067;0.12337678;-0.102892786;0.015760735;0.06055814;-0.10455756;0.0009176989;-0.06971931;0.32822117;-0.15685903;-0.16503312;-0.014973018;0.047744777;0.1895324;-0.27640083;-0.11215766;-0.21846874;0.13745835;-0.2913048;0.19164887;-0.026470805;0.1206663;-0.05310327;-0.013200352;0.07899635;-0.10843421;0.19788186;0.17381111;-0.10303149;-0.18020819;-0.16607666;0.19917175;-0.24844204;-0.013449916;-0.13701434;-0.063232556;0.07355994;0.07805974;0.10876564;0.076389186;0.010409106;0.04282387;0.11325575;0.121092066;0.36111146;-0.10061163;-0.10206944;-0.014480671;0.2781069;0.10680716;0.0029551329;-0.23865363;0.21271206;-0.14960672;0.23481737;-0.31142515;0.071115516;-0.0018147235;-0.29889628;-0.09864988;-0.09908888;-0.03959999;0.27359778;-0.0041806926;0.25423035;-0.27868217;-0.42534298;0.00766441;-0.12375478;0.35324752;-0.033901412;0.095673084;0.03911031;0.025413306;0.15728217;-0.078426436;-0.019917343;0.04253936;0.23221025;0.025343807;-0.09487841;-0.21975484;-0.17356218;-0.08003873;-0.30904776;-0.06460443;0.14292668;0.16614975;-0.17109346;-0.12611842;0.081891;-0.10196376;-0.08450031;-0.23744363;0.076675236;-0.13503566;-0.049497478;0.17001693;0.0022221715;-0.24244612;-0.124679714;-0.25459528;0.26952448;-0.08435024;0.16634795;0.13414337;0.013215909;-0.05422066;0.038656782;0.050544616;0.02338613;-0.16877988;0.15013842;-0.36806044;0.27042964;-0.248554;0.15550163;0.06064113;-0.025510104;0.025299389;0.30693215;0.2713405;-0.13187458;-0.20656863;-0.097106986;0.4480146;0.21027146;0.096748985;0.18074872;0.031964574;-0.049084008;0.07692128;-0.09165002;0.032762505;-0.41516852;-0.25795385;-0.13309008;0.11807814;-0.021449283;0.09523447;-0.066198796;-0.3350452;-0.06813239;-0.41041264;-0.19916505;0.035247587;-0.12293268;0.0062733507;0.16868433;-0.043642692;-0.39716315;0.13377108;0.1649151;-0.034613043;0.0960529;0.023358872;0.12506413;-0.081312545;0.16712643;0.20880802;-0.1388083;0.29479045;0.122065604;0.21264844;0.08646319;0.09373488;-0.11185986;0.002301571;0.08251978;0.18715714;0.2721349;-0.068177156;-0.23808622;-0.06266361;-0.020494342;0.2445175;0.1312812;0.02518613;-0.029274669;-0.20416754;-0.066387266;-0.049215477;-0.07893944;0.0376842;0.21328367;0.056205764;-0.20759444;0.07004874;-0.07595566;0.075387284;0.14192761;0.10819084;-0.15902434;-0.36698765;-0.26588282;-0.15244395;-0.2663575;-0.038986295;-0.3219294;0.19609687;0.046118937;0.034155134;-0.13027345;0.12754242;0.16079141;-0.089363836;-0.078650095;0.055161983;0.23411326;0.32502782;0.087147884;0.259289;-0.10910294;-0.03379799;-0.19730006;-0.012866907;0.009733732;0.118982844;-0.13686456;0.30463;-0.123414256;0.18784767;0.12466237;0.13996288;-0.20369974;-0.00049982226;-0.023913667;0.17894356;-0.12583771;-0.04654408;0.006681696;0.047431745;-0.0006956;-0.24624044;-0.1914627;-0.37548894;-0.20987605;-0.029116001;-0.046173934;-0.14683051;0.14566982;0.07528794;0.24942847;0.057939406;-0.45355707;-0.11818959;-0.052056145;-0.011595549;0.015384428;-0.017633662;-0.17914821;0.25700185;0.13393705;0.0057223276;0.1515162;-0.18236639;-0.30753928;-0.040578734;-0.10530039;-0.18236768;-0.07555688;-0.13700445;-0.05887093;-0.043875325;-0.052391768;0.15367901;0.11566659;-0.063702725;-0.05667267;0.041715525;0.19291396;0.027010612;-0.16133748;0.027584493;-0.041838817;-0.039301723;-0.05191752;-0.05712833;-0.00089120463;-0.038504582;-0.23099647;0.0075368714;-0.16556746;0.19946578;-0.11461388;0.427515;-0.049661316;0.007985678;0.16667676;-0.19163133;0.30247647;0.05140247;0.18568496;-0.53912413;0.121270604;-0.055070464;0.3090618;-0.14315343;0.19140995;-0.23703216;0.120287046;0.11675869;-0.140807;-0.04152402;0.20603359;0.056395214;-0.35965428;-0.30089995;0.053527147;0.19846247;0.0795478;-0.22444128;0.22068155;-0.08263613;-0.08800921;0.06662816;-0.21373597;0.012205349;0.32382715;-0.006711562;0.05402201;0.012881142;-0.20603915;0.1657805;0.1595706;0.02019618;0.18335387;0.27873176;0.0043437015;-0.16095525;-0.030149216;0.061468825;0.036361158;-0.014708304;0.04714923;0.2506216;-0.22660647;-0.17328872;-0.106062554;-0.081845455;-0.031691283;0.067165636;-0.09021315;-0.21598539;-0.2514605;-0.169788;0.028202398;0.26263008;-0.009129334;-0.04942006;0.3160496;-0.01951463;-0.011874193;0.1432546;-0.049642462;0.22093229;-0.07436625;0.0039872457;-0.11799044;0.042718153;-0.07376341;0.0754225;0.0028322025;0.12792818;0.04829163;-0.12808256;0.15976904;0.030896518;0.06892889;-0.0028426384;-0.002995463;-0.12152959;-0.0106075145;-0.09467374;-0.06503695;-0.14463069;0.24001846;0.404074;0.046194855;0.108042866;-0.088406295;0.13898852;0.079272434;-0.01695007;0.15798321;-0.20887747;-0.17874333;0.1450244;-0.32610044;0.04033883;0.10421952;0.008655948;0.021315064;0.095197655;-0.19027227;0.21515395;-0.2122223;0.13544706;0.0134036355;0.1532942;0.10532474;0.24572833;0.23529969;0.24822655;0.10833387;-0.08011426;-0.10377862;-0.092801474;0.005100566;0.17208596;0.040100943;-0.04473689;0.24100572;0.023843797;-0.037249606;-0.018383298;0.20942609;0.069521636;-0.17039503;0.13275711;-0.22220445;-0.21815145;0.0947914;0.2652473;0.020561544;0.013935239;-0.32378492;-0.14973775;-0.24101043;-0.06873177;-0.09556531;-0.018168721;-0.06433331;-0.03454097;-0.40672725;-0.052636445;-0.051466163;0.054337204;0.09644552;-0.3362444;-0.34002662;0.057299044;0.13970064;-0.080202006;0.04909563;0.12686484;-0.091670245;0.35551742;0.00040475663;-0.22162253;-0.033601712;0.17122386;-0.120781064;-0.1859624;-0.019893885;0.068298206;-0.13010399;-0.14570181;-0.06483482;-0.10379585;-0.20271526;0.16753317;-0.15337375;0.1566588;-0.2011341;0.020176526;0.102948785;-0.07096826;-0.22805266;-0.09293798;-0.11619781;0.41481158;-0.06856506;0.0008728462;-0.24335264;-0.1585587;0.09156399;-0.045934975;-0.025836429;0.06819652;-0.1431219;0.08064531;-0.13964702;0.1950289;-0.08466611;0.14531654;0.020750904;-0.15106189;0.041117582;0.13127981;0.16860235;0.003816416;-0.19704095;0.15178673;0.09044928;-0.037981957;-0.08031861;-0.15875916;0.2329433;0.08110346;-0.18579848;-0.022572406;0.026071427;0.027871845;-0.16133238;0.02568812;-0.09868702;0.20072642;0.11811644;-0.124512814;0.042081274;-0.07634722;0.13846684;0.08428177;0.07080292;-0.13015048;0.07357199;-0.0054235742;-0.079319775;0.0034102313;0.03993369;-0.06466549;0.065951295;0.20705716;0.19474806;0.09887097;0.098423965;0.14719202;0.22140412;-0.17797107;-0.14198002;0.12112348;0.054500885;-0.15380397;0.056002878;0.14239676;-0.08886365;0.2834784;-0.0704754;0.033855777;0.09484882;0.010117368;0.28186622;-0.059082143;0.11607402;-0.00071383547;0.012528065
-0.20798914;-0.007966385;-0.038515843;-0.23066582;0.14041807;-0.039647732;-0.042742014;0.054488126;-0.20753378;0.13750467;0.01878181;0.19954118;0.090759635;-0.11154895;-0.07630569;-0.024763636;0.16180871;-0.032136038;-0.0012775694;-0.08161061;0.34731814;-0.014928021;-0.46216166;-0.10055226;0.21316874;-0.1665108;0.18499252;-0.081470475;-0.06405849;-0.014518244;-0.027636733;0.021676548;0.0017473064;0.08175928;-0.20250934;-0.018353822;-0.21643034;0.092681;0.08155864;-0.0046875295;0.0026300976;0.066218145;0.1456286;-0.13154323;0.08872874;-0.11078685;0.27435392;-0.14181788;-0.002428844;0.13832803;0.194094;-0.037662942;-0.05845093;-0.12841088;-0.20872805;0.19542697;0.19308664;-0.19217484;-0.139169;-0.17501064;-0.11769707;-0.18145442;-0.1352586;-0.27595633;-0.06385936;0.033052824;0.16301587;0.11245813;0.027068283;-0.20394057;0.06039742;0.3097187;0.15799192;0.24982846;0.12898791;0.11610808;-0.07054589;0.12722974;-0.121606566;0.030347746;-0.26793456;0.14330699;-0.07267591;0.2321176;0.015402344;0.08915176;0.016434625;-0.053257614;-0.09525691;-0.28850725;0.040524185;0.017977297;-0.06206265;0.24630655;-0.13719827;-0.55871844;0.084842324;0.07468613;0.20456034;-0.09997521;0.0756639;0.106456056;0.19722465;0.017394304;-0.11317831;-0.19110608;0.023844251;0.28156155;-0.014565125;-0.16017637;0.058848277;-0.039304007;-0.13336353;-0.01204324;0.103806674;0.018764012;0.09084427;0.18158734;0.12247006;0.23293386;0.011290502;-0.12760854;-0.214771;0.21488436;-0.09792751;0.072785355;0.027998157;0.012614634;-0.15834554;-0.30021513;-0.25408363;0.11220194;-0.16361134;0.054732203;0.14084013;0.009155796;-0.26453412;-0.16336083;0.10950125;-0.13060139;0.05527825;0.07517764;-0.14993441;0.06702844;-0.2840676;0.28631043;0.16763516;-0.40531522;-0.13346797;0.34985304;0.23941323;-0.10790919;-0.21569172;-0.13595907;0.10382774;0.21859865;0.04803415;-0.051261254;-0.09761342;-0.1928526;0.02936099;-0.17848475;-0.010311261;-0.40001938;-0.29816622;-0.071159676;0.0483015;0.26377034;0.10925088;-0.021043995;-0.45439547;0.09991792;-0.18035337;-0.107481025;0.18586384;-0.046844237;0.075136274;0.105523996;0.074997455;-0.06522747;0.05879447;0.17716387;-0.11345117;0.071163535;0.15364192;0.090528525;-0.0144861415;0.32725844;0.09061772;-0.10732686;0.1426502;-0.03102287;0.013760484;0.22496447;0.19676206;-0.019310607;-0.043027796;-0.068639055;-0.19384463;0.16710848;0.022936204;-0.24952431;-0.05404103;0.034371585;0.5000942;0.15796843;0.224996;-0.07259109;0.007388308;0.0056386846;0.00205452;-0.17518808;0.11265064;-0.1099307;-0.35318002;-0.018837968;0.07704928;-0.14370877;0.008374738;0.21257941;0.04752467;-0.14082193;-0.3736498;-0.26098847;-0.015685959;-0.0039022046;-0.060373764;0.036596403;-0.11999096;0.056964353;-0.127588;-0.10086021;0.2108211;0.24970269;-0.15949456;-0.17289302;0.092651464;0.09347623;0.5022468;0.26184684;0.08348277;0.014911542;-0.0047118785;-0.19733475;0.11859314;-0.14255936;0.118771516;-0.12763916;0.14654885;-0.17960636;0.0476162;0.3089845;0.22481295;-0.07246833;0.051544543;0.27021536;0.027756298;-0.021561526;0.055435266;0.1552162;-0.07229326;-0.13056913;-0.17071287;0.18263756;-0.2673799;-0.27293646;0.052051082;-0.02142029;-0.38700458;0.16551326;-0.0026902594;-0.10565459;-0.037467223;-0.32621375;-0.025408797;-0.071711086;-0.007716154;0.027043555;-0.3155843;-0.031527687;-0.01953656;0.0010721083;0.001163246;0.03622952;0.012397314;-0.21923213;-0.017000193;0.07264526;-0.09505339;-0.12406123;0.000598882;-0.1836108;-0.11457847;-0.12981823;0.066546984;0.2851951;-0.023210375;0.0009379067;-0.019415332;-0.065433085;0.22635096;-0.034301516;-0.011133297;0.11966364;0.19505522;0.08364448;-0.0675455;-0.013882056;0.054301668;-0.4136444;-0.2020823;-0.079032116;0.38603354;-0.035761524;0.2092615;0.017573804;0.21166128;0.028572764;-0.19728395;0.3568213;-0.12944107;0.21079776;-0.3847504;0.14052045;0.10285577;0.13224317;0.0143151665;0.0074779913;-0.1480851;0.17088841;-0.05300277;-0.2857858;0.14743984;0.24701494;0.067203544;-0.14584684;-0.24679317;-0.08514336;0.13415296;-0.35855708;-0.21948813;0.10354245;0.02816905;0.10173203;-0.14225437;-0.37737936;-0.10823962;-0.11288132;0.039944872;0.0075074537;0.093561776;-0.057210512;-0.124542125;-0.048793886;0.057375047;0.013551093;-0.07980816;-0.0573634;0.08723804;-0.1720878;0.16678283;0.114408724;-0.31820846;0.2572968;0.2464715;-0.35137287;-0.0352944;-0.11266049;0.19084968;-0.023570096;0.24617694;-0.17566323;-0.20154648;-0.5225006;-0.028414618;-0.1164383;0.35957456;-0.024007257;-0.04257044;0.12460781;-0.06369747;-0.19864725;0.16730303;-0.32097337;-0.03001156;-0.06315853;-0.32601672;0.13282368;0.19452918;-0.1863136;0.3797958;-0.0036101064;0.32273647;0.11344146;-0.30117697;0.2002096;0.098146416;-0.23112655;0.042166915;0.1275242;0.016673999;-0.35255554;-0.08150811;-0.041888047;-0.12604842;0.39553058;0.25897107;-0.0031273917;-0.23718913;-0.25414887;-0.13226895;-0.01766172;-0.19016777;-0.3082787;-0.16911519;-0.10510636;0.14095543;-0.27273422;-0.059716333;0.14434537;0.18517654;0.037409794;0.23066598;-0.023365654;-0.11735406;-0.21394295;0.06181856;-0.007135368;0.27064964;0.15668589;0.010209805;0.4537023;0.12823792;-0.02810729;0.08428032;-0.0068121357;0.113388754;-0.041013606;0.15872402;0.06164126;-0.012000099;0.12769665;0.11687227;-0.09707708;0.07868006;0.33578143;0.053798724;0.06138182;-0.06269165;-0.1839775;-0.3260854;0.16730267;0.31111094;-0.011182074;0.22985493;-0.36684373;-0.19072448;0.061008006;0.04927456;-0.051443063;0.043943983;-0.23442872;0.055724137;-0.13913183;0.0504987;0.06777146;-0.12887749;0.22088233;-0.2527916;-0.1643037;-0.0105237365;0.13452825;-0.24927893;-0.21456066;0.10490723;-0.2252786;0.28653774;-0.043240305;-0.14874704;-0.08412968;0.14764863;-0.24599795;-0.37413403;0.39337537;-0.011139706;0.18582048;-0.21559462;0.015223633;-0.06994402;-0.08886666;0.24839035;-0.008268928;0.16771948;-0.2654995;-0.04786037;0.09271143;-0.03151088;-0.25076845;-0.17786437;-0.2598669;-0.04451663;0.04113927;0.007862735;-0.13565722;-0.12792106;-0.03915544;0.39545184;-0.1776184;0.086147636;-0.2868227;0.004365852;-0.01674038;-0.0066788215;0.15048116;0.075272806;-0.06664802;-0.18452188;0.05618143;0.19732913;-0.13370259;-0.03479112;-0.25028375;0.3518615;0.07530424;-0.080816776;0.07394177;0.002979076;-0.07197197;0.0021734165;-0.018272659;-0.122262545;-0.0011456304;0.047245648;-0.17458886;0.22377658;-0.102382064;0.1099054;0.18022767;-0.06153177;-0.16688317;-0.33573046;-0.004527052;0.08390459;0.19261609;-0.04901195;0.11356475;0.0865458;0.02800734;0.121666424;-0.2891888;0.048738893;0.22396351;0.06589408;0.07462438;0.07006501;0.19559918;0.117609866;3.7271424e-05;-0.010649947;-0.14044201;0.022971718;0.1742556;-0.21013504;0.07162325;-0.102759704;-0.011353478;0.2138327;-0.094492726;0.34935877;0.030350009;-0.085248806;0.21072248;-0.0015951043;-0.24438247;-0.049943063;-0.056870088
-0.21715909;-0.09311083;0.26879635;-0.17472179;0.04102684;0.038726594;0.03954961;-0.12838763;-0.24721597;0.10103347;-0.19023055;0.40582457;0.21138322;-0.13298574;-0.040260185;0.086192444;0.20539036;-0.022354582;-0.10738529;0.15879758;0.15954413;-0.27487147;-0.17019285;0.090816595;0.19691871;-0.09724988;0.1420959;-0.12654285;-0.11248449;-0.06909356;0.04061872;0.056842946;0.09313284;0.30601504;0.054011077;0.07481883;-0.1740492;0.15683785;0.18772593;-0.0933619;0.18993266;0.0059728287;0.19585943;-0.181476;0.1052247;0.36321008;0.17304672;0.21721429;-0.16790354;-0.198891;0.18776998;-0.15483755;0.19526176;-0.017215643;-0.10713973;0.3035598;-0.0222668;-0.1347007;0.078818284;-0.12963334;-0.047162037;-0.1809518;-0.1350825;-0.14771104;-0.05276663;0.057576053;-0.046262346;0.13669416;0.14252204;-0.42671126;-0.20262036;0.17187864;0.17106;0.16206399;0.02194638;0.09946905;-0.14097764;-0.019561406;0.060999855;0.16143636;-0.12665406;0.20452753;-0.1970779;0.16964237;0.12631732;0.29246542;-0.07337756;0.17953566;-0.13981314;-0.17305447;0.048242453;-0.13539526;-0.10304203;0.17378218;-0.26135823;-0.5497939;0.2475803;0.1595435;-0.018799935;0.10546581;-0.008141115;0.12066254;-0.009239996;0.011421112;-0.05238406;0.24825701;0.35269955;0.15851328;-0.12896077;-0.0926128;0.12953803;-0.10318893;-0.122450806;0.12938686;0.19958486;0.17987956;0.008169557;0.45182633;0.0786015;-0.07569914;0.08601946;-0.04434688;-0.104387365;0.22391014;0.045379817;-0.10512517;0.036760986;0.009873501;-0.02838536;0.22731219;-0.3719148;-0.027552936;-0.10349604;0.10644061;0.08970589;0.010914588;-0.24078076;-0.11355906;-0.21309052;-0.13302124;0.11090208;0.19356425;-0.19729646;0.23193431;0.023021735;0.29888627;0.33304226;-0.19540504;0.3266182;0.2045548;0.03409072;0.103304684;0.027143722;-0.23181996;0.3206869;0.06275053;-0.0072854715;0.10214383;-0.09885505;-0.29775873;0.07298054;-0.07748163;-0.040696584;-0.16074266;-0.38849416;-0.038220774;-0.024114734;0.089979135;-0.19809213;0.06238004;-0.34348315;0.009109119;-0.6560812;-0.1818407;0.2978978;-0.044663794;0.06334157;-0.090040766;0.2304821;-0.10073485;-0.14599437;-0.112221666;-0.06064621;0.09650819;0.11256015;0.005878;-0.04805107;0.29630205;0.3852754;-0.23637709;0.21652935;0.027115347;0.1294075;0.2974932;0.24942414;0.09179953;0.26275092;-0.18606697;0.035386473;0.12081406;0.033961806;-0.24171138;-0.14706482;-0.26508328;0.3704104;0.09851252;0.22446363;-0.23806246;-0.17866646;-0.031688232;-0.010039927;-0.17891963;0.007151781;-0.14242719;-0.23884155;-0.1035824;0.09197652;-0.0070559587;0.038606264;0.120209984;0.000341981;-0.0034946075;-0.16685921;0.022969877;-0.053313877;0.108693995;-0.5355773;-0.030528292;-0.032701;0.14646778;0.036089644;-0.16256142;0.2921815;0.20518632;-0.18030617;-0.09237116;0.062488966;0.09313756;0.15263219;-0.28857714;0.19590186;0.03139652;-0.36367577;-0.07117148;-0.016194947;-0.2720963;-0.07270524;-0.25513944;0.24121474;-0.033479158;-0.059492804;0.07039462;0.20549883;0.024083022;0.18675351;0.1725254;0.11850388;-0.21463373;0.11790945;0.3506822;-0.12221327;0.12783222;-0.17452309;-0.0029164616;-0.21959075;0.00017265808;-0.1346693;0.004754979;-0.0931366;-0.14549872;-0.0849054;-0.28520155;0.19545726;-0.49163303;-0.11294872;0.054939784;-0.08824355;0.09981228;-0.30118415;0.10360467;0.07339635;-0.038569257;-0.2634525;-0.04734821;-0.03272726;-0.22220057;0.12999395;0.03197358;-0.11607138;-0.033796296;-0.0049543777;-0.15959479;-0.097997054;-0.22028363;0.21856721;0.1602477;-0.21572246;0.04399208;-0.17720948;-0.15863931;0.038861986;-0.11993506;-0.09126701;0.048385475;0.45328742;0.18739913;-0.25967902;-0.07328626;0.38839644;-0.22536927;-0.09038632;-0.0034448237;0.25019515;-0.2019357;0.32793805;0.31614345;0.18397859;0.061651465;0.026426692;0.30673268;-0.1321011;0.18075025;0.10366971;-0.19568096;-0.12425963;-0.20068465;0.0025963185;0.050248466;-0.0062408526;0.16924623;0.15543552;-0.23053436;-0.0028784992;0.22329617;-0.26985475;-0.24105117;-0.10862152;-0.22873971;0.16993923;-0.10633888;-0.26119345;-0.012428841;-0.010473966;0.23184551;0.011492129;-0.15200895;-0.07864954;-0.16263972;-0.078723304;0.2300249;0.11610101;-0.099178635;-0.12894693;0.045465946;-0.006696547;-0.023341324;-0.050474714;-0.19623159;0.026189001;-0.05478183;0.109702975;0.02782013;-0.1506852;0.08095847;0.122980766;-0.5183544;-0.22205946;-0.08486787;0.105346546;0.012887808;0.27772662;-0.16547436;-0.34943512;-0.60428876;-0.25969088;-0.17911626;0.29454088;0.050065964;0.113341704;0.054939188;0.15272498;-0.18234304;0.24670406;-0.026138965;0.101065844;0.18988045;-0.19773713;0.034534037;0.2690254;0.046588223;0.077445805;-0.039467737;0.121820964;0.015857784;-0.17708658;0.0040597054;-0.16844615;-0.28442088;0.07449727;0.07944387;0.08822233;-0.14075069;0.093605846;-0.2229787;-0.060310107;0.09488607;0.3059702;-0.06891909;0.049183868;-0.023815472;-0.0729152;-0.067797005;0.008789008;-0.13456343;-0.18745407;-0.036746804;0.17232935;-0.3963975;-0.117078304;0.29845634;0.031025762;0.045442007;0.14120404;0.11790794;-0.124675475;-0.13065742;0.21460259;-0.24691777;0.28152746;0.34577525;-0.018431075;0.19757955;-0.049182102;-0.054675248;-0.051858176;-0.19055618;0.16839302;0.055788405;0.12599012;-0.077098854;0.002957717;0.18070845;0.20261471;0.012612907;-0.098438784;0.19602996;0.008565932;-0.006022491;-0.15688968;0.048775204;-0.49421114;0.4599421;0.31884003;-0.07093561;-0.025913993;-0.07130648;-0.098020494;0.11931716;0.0059548286;-0.09393795;-0.05634569;-0.20412146;0.15779573;0.1148938;0.07362391;-0.09096971;0.25486937;0.08605468;-0.21868822;-0.1428057;0.054644685;-0.0973069;-0.22358622;0.062278047;-0.079132624;0.029276876;0.021206448;-0.08455937;-0.20061016;0.16931677;0.066300906;0.06253971;-0.5314328;0.15490286;-0.118966766;0.07436708;-0.12546542;-0.042761497;-0.18279351;-0.09535506;0.092357464;-0.11288739;-0.010256354;0.006139571;0.1176467;0.038217098;0.1813948;-0.36223006;-0.14079256;0.031548295;0.09834614;-0.10694513;-0.08638822;0.11219515;0.020085176;0.11564865;0.25224385;0.093941376;0.06289335;-0.104248844;-0.02174332;-0.11321164;-0.086691454;0.046208028;0.091783755;0.05006214;-0.13647296;-0.07585037;0.025728056;-0.14597285;-0.086682655;-0.062388413;0.142016;0.15647371;0.020301644;0.04174898;-0.027216464;-0.14733367;-0.13382626;-0.32332703;0.07462798;0.086812526;0.05448626;-0.14284277;-0.11827575;-0.032598663;0.10612607;0.11579452;-0.17000577;0.014544042;-0.29669797;-0.06818234;0.15681463;0.5212457;-0.06076019;0.25014868;0.20034106;0.023980353;0.06087244;-0.09498203;0.13929068;-0.059200894;-0.07515514;-0.06665667;-0.023384504;0.28063056;-0.022852411;-0.06254263;-0.07358892;0.057371363;0.20351061;0.19794193;0.023609651;-0.054610502;0.063105375;-0.015261836;0.13780493;-0.3093525;0.54100513;-0.0778235;-0.17748924;-0.20837313;0.14124298;-0.19684215;-0.21343267;-0.18404773
-0.024896368;-0.11035431;0.10847284;-0.1332621;-0.13439302;0.1892883;0.35358346;0.029609013;-0.35263878;0.16662264;-0.23104158;0.23817478;0.48142722;0.014904359;-0.2997748;0.061207842;0.13258106;0.041039683;-0.12772648;0.07691453;0.30663878;0.06274142;-0.23765296;0.16618966;-0.021129044;-0.033244338;0.048441384;-0.057798345;-0.004589907;-0.26788634;-0.025682783;-0.09653618;-0.0729051;0.028684627;0.0075658984;-0.027048746;0.4250299;0.028309155;-0.0391701;-0.29448745;0.12480456;0.020154078;0.19353937;0.016994588;-0.16984671;0.074660055;0.057481043;0.21578273;-0.00632304;-0.11558576;0.35404962;-0.070264876;0.034424026;-0.10098709;-0.2782354;0.071459584;0.17667168;0.05087446;0.1081664;-0.06204064;-0.1641767;-0.22008327;-0.3077174;-0.19181374;-0.07188715;-0.15241571;0.086597726;0.0012995849;0.15836439;0.059511404;-0.132976;0.17751622;0.22108501;0.15116054;0.038310893;-0.08334731;0.055380173;-0.13934848;0.4203915;-0.09623143;-0.018556474;0.03522689;0.05124426;-0.025482416;0.17169885;0.17923328;-0.08204584;-0.06765946;-0.24724993;-0.33931783;0.17118591;-0.07761527;0.15265356;0.25110263;-0.37718272;-0.08604965;0.053649325;0.057325892;-0.34695753;-0.104301885;-0.017798059;0.19246444;0.22254884;0.011853018;-0.07883897;0.123593174;0.10382624;0.0675495;-0.14013427;0.03575116;-0.012886963;-0.19405778;-0.1538273;0.2890956;-0.024359409;0.09766588;0.14457247;0.16364717;-0.16040228;-0.21990323;0.29695776;0.024099505;-0.19264211;0.21457009;0.07757569;-0.09592932;0.10213645;0.045797348;-0.019729909;0.25090837;-0.17439313;0.22480124;-0.17503117;0.11456159;0.047107484;0.07622409;-0.25874376;-0.24693552;-0.36794144;-0.12838842;0.08211015;0.19565853;-0.074610114;0.0023059621;-0.37090784;0.41135544;0.100656286;-0.25761688;0.04077201;-0.04538993;0.009072862;-0.109551;-0.17155433;-0.062053148;0.19591019;0.019875003;0.07653403;0.072022095;-0.06397905;-0.12933578;0.19182375;-0.12875265;-0.12822118;-0.057295315;-0.18633881;-0.1677203;-0.34204736;0.20359716;-0.17404999;-0.08407585;-0.11216386;0.013840599;-0.352319;-0.33047733;0.3374557;-0.0679313;0.0147241615;0.037570607;0.033561558;-0.2320722;-0.29729694;0.115684144;-0.016648173;-0.05384021;-0.0866127;-0.17962418;-0.046603326;0.17322868;0.17703284;-0.03838125;-0.005873442;-0.08162052;0.1854395;0.072454475;0.18525997;0.038293157;0.111040205;-0.17259651;-0.24349329;-0.074226126;0.008020584;-0.18463193;-0.0027628953;-0.21235837;0.29692575;-0.021642845;0.25753978;-0.35098788;-0.08490311;-0.14966124;0.042720288;-0.3033956;0.06976391;0.13636316;-0.38753265;0.12219841;0.13506912;-0.016078414;0.13198218;-0.09284452;-0.10792428;-0.07173347;-0.12611055;-0.03161883;0.13803853;0.07441312;-0.31544393;-0.021216072;0.16137081;0.10956988;-0.10776829;0.16193184;-0.03434241;0.16449113;-0.25779778;-0.1711735;0.016639039;-0.019753579;0.06911806;-0.065284215;0.09720941;0.008853065;-0.15971498;-0.31019297;0.19690807;0.10054809;0.24097615;-0.23209648;0.02569024;-0.11549214;-0.07273271;-0.40135667;0.035125636;-0.07747465;-0.16888997;-0.21021341;0.080919966;0.09404814;0.033926483;0.24253096;-0.24041802;0.040728256;-0.023919165;-0.005840139;-0.15331016;-0.051349774;0.027308235;-0.1615547;-0.13817897;-0.2770243;0.21830638;-0.25610664;0.1890694;-0.11530703;0.006410069;0.21855439;-0.076804414;0.07934813;-0.27460945;0.1900214;0.052292716;-0.14205498;-0.18724132;0.11157851;-0.085633904;0.110636495;0.2472268;0.098062515;-0.20778994;-0.15710147;-0.20809393;-0.004182584;-0.11474124;-0.05511436;0.06254105;-0.17113513;-0.30629733;0.12281698;-0.4931541;-0.0024859873;0.07602443;0.034806605;-0.078360975;0.16392359;0.15646163;-0.007149105;-0.06751022;-0.0049680932;0.2943487;-0.1800959;-0.034539618;0.14373441;0.19081548;-0.25128186;0.4314234;0.19180852;-0.0060266564;-0.044727366;0.06699305;0.0029690638;-0.21871668;0.24425845;0.2401691;-0.35049114;0.061413467;0.062710986;0.0001349842;-0.11444991;-0.023641838;0.05419892;-0.08477964;-0.4782267;-0.28373823;0.29923478;-0.24343154;0.0964847;0.11493794;-0.24642345;0.004888664;-0.093593255;-0.26270112;0.1812926;0.0043368926;-0.025930915;-0.33435348;-0.05746871;-0.004402989;-0.08087736;0.047776222;-0.042318903;0.09454006;-0.14306232;-0.14877155;0.06447707;0.15616699;-0.10310958;0.011446924;-0.1793886;-0.08942337;-0.13176334;0.07399184;-0.011794828;-0.043531414;0.02074148;0.110298745;-0.18405615;-0.01957853;-0.07144403;-0.11847886;-0.23427486;0.18025252;0.05940603;-0.50002503;-0.38533616;-0.14061753;-0.016136251;0.18135785;-0.13886774;0.111774586;-0.05033905;0.055771228;-0.3397141;0.018407818;-0.15018442;-0.03163119;0.073270775;-0.021888062;0.1942258;0.13368385;-0.035455186;0.0756374;0.012326014;-0.23880434;0.24498549;-0.16906378;0.09330955;0.15216267;0.07435461;-0.042023502;-0.083250426;-0.03706343;0.06978703;-0.05990276;-0.20990606;-0.040962063;0.026623892;0.2181367;-0.31726047;0.061491672;0.006947944;-0.19173081;0.050647777;-0.23697576;0.027715098;-0.1654203;-0.16719759;0.10638211;-0.37354788;-0.19575618;0.24631864;-0.09629937;0.037210252;0.3054065;0.041968305;-0.19009613;0.0409016;0.09210124;-0.12881684;0.29267555;0.43062645;0.045562927;0.26388505;0.019331494;-0.026247568;0.035525814;-0.13506225;0.20852526;0.06610279;0.22691722;-0.023861108;-0.072957315;-0.02421541;0.2850365;-0.13791431;-0.08262653;0.109176636;0.0038710807;0.2211814;0.11672509;-0.14824542;-0.33980998;0.40113515;-0.0068917465;-0.18546909;0.06727586;-0.052468445;0.010260167;-0.20745705;0.18509474;-0.057333633;-0.09267761;-0.033001103;0.07420514;0.04183533;0.19688149;-0.24765688;0.10333314;0.15924798;-0.05747773;0.09732585;-0.035406318;-0.0044899117;-0.30535924;0.010556029;-0.014568527;0.09465446;0.0155402105;0.022257581;-0.16012897;0.040632393;-0.09897932;-0.40106207;-0.17122982;-0.07334982;-0.14891133;0.10357528;-0.4593384;-0.03624617;-0.17227232;-0.117108345;-0.11802528;-0.24306403;0.24595807;0.16261774;0.17397614;0.0791688;-0.080848984;-0.0013034503;0.05709736;-0.027040802;0.11554171;-0.17881255;-0.067382775;0.34141985;-0.2026312;0.030384645;0.26637298;-0.19796479;0.22728813;0.012678752;-0.023485396;-0.2022222;-0.07969657;-0.042477284;0.055237208;0.07816953;-0.02286497;0.009736569;0.12102809;-0.10019782;0.09241937;-0.04111662;-0.0130493855;0.14570026;0.11191951;-0.089148276;0.079799205;0.07156694;-0.1822949;-0.15941085;0.012190582;-0.10694041;-0.06747692;-0.054589678;0.056610808;-0.00083152356;0.18707304;0.06237222;0.05609337;0.23342223;-0.017883398;-0.059315152;0.12342123;0.46356353;0.037981503;0.12925088;0.07295903;-0.10770295;0.1793646;-0.11557082;0.106950924;0.13148667;-0.14701667;-0.03207285;-0.091250844;0.39897653;-0.057689752;-0.13530132;0.0138388425;0.13365138;0.11579606;0.20456111;-0.303724;-0.031400453;-0.09414556;0.22240771;0.23035215;-0.046074167;0.4921684;-0.02431849;-0.31113806;-0.09907615;0.03463006;-0.011412349;-0.11608197;-0.1253287
-0.24608128;-0.0538607;0.1109841;0.070895575;-0.011774376;0.065550685;0.24927747;0.07440435;-0.32006893;0.10675536;-0.049718875;-0.028880699;0.0904633;0.02437019;0.017373623;-0.042402826;0.13341777;0.082661964;-0.12233022;-0.026689267;0.07195983;-0.13044252;-0.351182;0.155787;0.22284284;0.14279638;0.083650306;-0.07778031;-0.104373105;-0.12139162;-0.11039935;-0.11087014;0.04593567;-0.09229903;-0.53014296;-0.11351352;0.27474707;-0.017971506;-0.10398011;-0.005221904;0.08818062;-0.14533791;-0.10628497;0.426837;-0.14120665;-0.29953742;-0.11235533;0.06546499;-0.08191877;0.11931598;0.20917134;0.101093605;-0.00018638493;-0.17367113;0.1078757;-0.09409934;-0.05473011;0.107102185;-0.05282237;-0.009844732;0.1469115;-0.17397073;0.039714117;-0.18792573;-0.117649764;-0.31097636;0.10108706;0.041848738;0.15394232;0.007607075;0.17717363;0.3344541;0.25066626;0.23133612;-0.09796588;0.07428308;0.05736058;-0.10637553;0.070530795;-0.119333215;-0.2544909;-0.115042254;-0.22614072;0.008045112;0.067861974;0.09521866;-0.006672986;0.07137466;-0.15209502;-0.17393392;0.30246043;0.27290568;0.026412375;-0.01295979;-0.4528369;0.030347493;-0.01123406;-0.09337759;0.06374145;-0.0877799;0.037117142;-0.07483617;-0.031575374;0.13030286;0.07239701;0.111146525;0.22761437;-0.21506074;0.014355468;-0.25681517;0.09999006;-0.028188102;-0.16075635;0.13801067;0.25291124;-0.055136167;0.002223274;-0.022754692;-0.20027454;-0.071532905;0.08017745;-0.015628064;0.17872962;0.112479284;-0.15743272;-0.3704585;-0.18744689;0.04779832;0.032946553;0.013849178;-0.063750364;0.077920705;-0.0821798;0.078730926;-0.009323055;-0.26064068;0.1965119;-0.08333142;-0.21951729;-0.23671049;0.025937876;-0.07634952;-0.046968754;0.15582213;-0.16517885;0.3491536;0.3307105;-0.299801;0.11247585;0.04161991;-0.090903535;-0.095254555;-0.08108825;-0.020488385;0.012785068;0.091784276;-0.010455924;0.019827046;-0.07324692;-0.18438837;-0.075265095;-0.19720067;-0.05200887;0.02314561;-0.2242714;-0.018985309;-0.19441846;0.046424072;0.002200307;-0.22476667;-0.03933263;0.09525982;-0.2372388;-0.24473318;0.021918248;0.074210234;-0.06676227;0.17537779;0.1275033;-0.18073098;-0.1531488;0.04155783;0.19341366;-0.109616704;-0.018650126;-0.10248914;-0.032010574;-0.090807006;0.16403009;0.06431906;-0.06673135;-0.08565654;0.22676349;0.116227336;0.38717964;0.09923532;0.11068679;-0.05674663;-0.13044032;-0.051517185;0.16363274;-0.07944282;-0.059273113;-0.23669177;0.3239072;0.069067374;0.13249072;-0.38502255;-0.07900559;-0.33813876;0.05883012;0.11588157;0.10662433;0.09658186;-0.085089006;-0.09124368;0.0036652493;0.014495824;-0.070794776;-0.066982076;0.06907749;-0.07612147;0.120759815;-0.004380783;-0.14466411;-0.11486883;0.14815626;0.33921137;0.09133399;0.054463606;-0.034386992;0.14484163;-0.07998655;0.033013795;-0.0246096;-0.014620071;-0.05639847;-0.048051976;0.23939988;-0.09955139;-0.1818503;0.21037942;0.2859766;-0.21439679;-0.16510044;0.0061955643;0.21918242;-0.30193067;0.06840593;-0.17512107;0.13825132;-0.09783601;0.065378286;-0.04500726;-0.19415094;-0.35202312;0.061450034;-0.06035874;0.024561014;0.08299728;0.012147275;0.22590007;-0.071310416;-0.21095042;-0.31828898;0.07613162;-0.09402538;0.073825784;-0.121611305;-0.6059848;0.052553743;-0.38412392;-0.13333355;-0.1921054;-0.037400622;0.17370556;-0.040958494;0.016051661;0.07965692;0.04520929;-0.03777702;0.1421551;-0.16200495;-0.29555684;-0.12919044;0.059042566;0.19636133;0.17631075;0.014015995;-0.12846893;0.07454736;0.07816074;-0.07933574;0.021061625;0.049289137;-0.20580912;0.047478624;-0.16993675;-0.084642716;-0.22897862;-0.18883674;0.09797701;0.16511138;-0.028713686;0.090051316;-0.10269124;-0.11629278;0.08274198;-0.18489966;-0.0504851;-0.06459293;-0.22902934;0.15919432;-0.011152119;0.13947058;0.1837171;-0.19060491;-0.14884299;0.10542962;0.011422757;-0.11196403;-0.016980624;0.078180104;-0.093956634;0.027960146;-0.09445769;0.1487169;0.07393802;0.17595522;0.078934036;-0.12623073;-0.30485246;-0.19672868;0.24718241;-0.4770249;0.03306005;0.24280529;-0.23986128;0.167974;-0.23602076;-0.18565153;-0.17540295;-0.14195332;0.10216528;-0.13378745;0.1642524;-0.07770677;-0.02700587;0.042136043;-0.040827677;0.13606875;-0.32046565;-0.088169485;-0.08880931;-0.14264928;0.06328327;-0.12098604;0.0025135227;0.22538574;-0.1389596;-0.2372657;0.11077571;-0.08061093;0.051688418;0.026300859;-0.24253812;-0.12080401;0.25250435;0.30058002;0.01563741;0.2725458;0.12516573;-0.25494033;-0.26141408;-0.11219341;0.023454947;0.053835656;-0.16077724;-0.11261554;0.05599979;0.03381601;-0.5707177;0.05135211;-0.061387967;-0.06294981;-0.21600822;-0.005595726;0.2424554;0.16126277;0.02743873;0.024476621;-0.27063346;-0.2096169;0.064097404;0.12419764;-0.019061895;0.4466054;-0.0727855;0.14884529;-0.10798894;-0.018603088;-0.49212795;0.117928766;-0.3417149;0.18462187;0.23257704;0.19684307;-0.31554264;-0.20960426;-0.11156855;-0.16010286;0.11703774;-0.25052798;-0.041794557;0.22189003;0.08710316;0.15282084;-0.07484501;-0.23785189;0.1957152;-0.12720239;0.033208266;-0.16209972;0.019619394;-0.1670214;-0.094689965;0.15575969;0.068126045;0.15851498;0.15671256;0.028781228;0.12616217;0.22987276;-0.1034897;-0.14710473;-0.038619194;0.109693006;-0.10147517;0.007046278;-0.044132542;0.030645512;-0.2123479;0.1853622;-0.15844622;-0.12022156;0.23781592;0.0122240875;0.25661826;0.016546896;-0.03807131;-0.42866614;0.22712094;0.146997;0.17261063;0.271068;-0.12301375;-0.13687788;-0.08201679;0.026849253;0.09705973;0.012151586;-0.049369168;0.253976;0.29720074;-0.037362747;-0.1323865;0.05054097;0.18944336;-0.07840324;-0.15049356;0.09355383;-0.1588429;-0.13472632;0.07066944;-0.10964638;0.13010201;-0.07700082;-0.06865449;-0.009625041;-0.15147175;0.062384173;-0.21247521;-0.3095969;0.15425327;0.1072669;0.067868076;-0.45239776;-0.14146537;-0.045116913;-0.10339765;-0.106296256;-0.31859002;0.24244662;-0.010453377;0.02247327;-0.03306669;-0.22966272;0.072093524;-0.10205178;-0.26345697;0.022770057;-0.17002912;-0.03680442;0.07816021;-0.45567206;0.10725796;-0.087983556;-0.15285397;0.12250657;0.13329034;0.29685232;-0.13925883;0.3729732;0.2167001;0.013572735;0.06929392;0.035336282;-0.14286692;0.045125782;-0.04137569;0.009092523;0.04374579;0.014971096;0.2035274;-0.047046192;-0.021532884;0.204885;0.41320455;-0.003790494;-0.212224;-0.0883733;0.087195165;-0.036577377;-0.22200213;-0.06615455;0.12970063;0.22058745;-0.009828135;0.31058413;0.12936857;-0.105948836;-0.21243511;-0.019437013;0.23708159;0.19606791;0.06816568;0.102272525;-0.11076716;0.025022192;-0.07423729;-0.015671788;0.08849791;-0.0051466627;0.10893402;0.05657095;0.1461338;0.11774993;-0.006033304;0.24580047;0.30444258;0.17100208;0.3801238;-0.27769628;0.19027515;-0.008856767;0.16434076;0.015411694;-0.3378154;0.30814958;-0.12902994;-0.0960678;-0.23862487;-0.089826174;0.12656215;-0.023774205;-0.19514829
0.13181011;-0.18454722;0.19042279;-0.30228147;-0.029325366;0.010459471;0.25543886;-0.003213855;-0.4808331;-0.06679268;-0.09398182;0.14447467;0.08879702;0.024245854;0.07510954;-0.23085901;0.2851741;0.15779878;-0.18808213;0.033509847;0.038871944;-0.2517695;0.016612709;0.1039893;-0.03719437;0.29809028;0.022316188;-0.279694;0.010854514;-0.18001077;-0.12571323;-0.00039820012;0.032681666;0.2367141;-0.20357421;-0.04699299;-0.02909753;-0.0167517;0.037771314;-0.21301842;0.051256377;-0.02688653;-0.07042455;-0.11746106;-0.16167958;-0.17462867;0.22634438;0.17126708;0.06880828;-0.033618934;0.111802764;0.10151194;0.089656666;-0.098583125;-0.083929114;-0.058254726;0.013573279;0.105818786;0.10685343;0.15120691;0.036765426;-0.23640494;-0.27122113;0.013598786;0.03536559;-0.09441828;2.4475452e-05;0.055694293;-0.07416187;-0.11316794;0.18029907;0.16332906;0.02850615;0.18769749;-0.19402397;-0.09135402;-0.1052981;0.02486283;0.16735642;0.15132636;-0.44438273;0.025379261;-0.042558163;0.053586613;0.079313606;0.05795577;-0.061180167;-0.13819702;-0.09142201;-0.079789914;0.1679872;0.21614969;-0.09547073;-0.47022456;-0.43761352;0.0033218388;0.045461446;-0.061078556;0.2887303;-0.22715819;0.11133528;-0.13020948;0.08110367;0.0939943;0.006087459;0.014894432;0.082021475;-0.07646218;-0.04708753;0.038853675;0.16658236;-0.006334463;0.14653382;0.09227576;-0.004896065;-0.070117325;-0.06479788;0.042288143;-0.03267432;-0.187046;0.13000184;0.07809985;0.12314622;-0.14615485;-0.092350915;-0.6909269;0.0054566697;0.06941583;-0.16184884;0.1597938;-0.07854406;-0.10912084;0.027507234;0.21608745;0.08511364;-0.17220892;0.07215999;0.0657298;-0.14988351;-0.14050639;-0.10982372;-0.022564348;-0.018718204;0.12545064;-0.6236003;0.37106264;0.0339783;-0.16513732;-0.07482464;-0.18235108;-0.08835641;-0.24925236;-0.10515931;0.12205523;0.18582654;0.12577632;0.1251277;0.09684767;0.12413192;-0.0491137;-0.058721133;-0.0454621;0.055003338;0.09968181;-0.2841687;-0.11761756;-0.11978689;0.07537824;0.0055557312;-0.038507782;-0.03790837;-0.15381406;-0.33615088;-0.229661;0.0015064025;0.017790224;0.009938998;-0.001369663;0.17481683;-0.1157309;-0.12337877;0.05411907;-0.045546066;-0.15463358;-0.06124358;-0.18580182;0.15234618;-0.26088998;0.16940193;0.24132712;-0.08201043;-0.27574196;-0.0050992533;0.011118105;0.15424529;-0.085017376;0.24033257;-0.19416714;0.123458825;-0.17724626;0.107931666;-0.21910745;0.107449956;-0.07084525;0.23369937;0.069300614;0.08484379;-0.32254288;-0.008331947;0.14515834;-0.26068732;-0.12152393;0.08702128;-0.015435972;-0.111967824;0.069381624;-0.13569857;-0.3027092;0.03806168;0.13639061;0.009582076;0.014883611;0.17553237;-0.0100269765;0.1864457;0.061448917;-0.35610902;0.063653246;-0.14967522;0.026177686;-0.18591546;-0.003726933;-0.24282074;-0.18948689;-0.16930103;0.15216249;-0.067647316;-0.091414176;-0.08300106;-0.06296412;-0.22687246;0.2122714;0.06619572;-0.23362274;-0.08957437;-0.01384122;-0.028426986;-0.12781729;0.13129431;-0.09047333;0.02725569;-0.26579002;-0.23542888;0.07218841;0.0444678;-0.5309232;0.06187761;-0.25904864;-0.08705484;0.085501246;0.022090022;0.010865183;-2.6481019e-05;-0.23766686;-0.3092634;0.14407387;-0.07163519;-0.1022746;-0.016881043;-0.614158;0.26329556;-0.07528744;-0.022447009;-0.057811994;0.15889172;0.295501;0.07013472;-0.033284206;0.10997169;-0.16468637;-0.048054747;0.056970984;-0.46997407;-0.25725693;-0.11109255;-0.38463184;-0.03267157;0.16339424;-0.032954443;-0.11454767;-0.14275827;0.13332981;-0.04083748;0.09647532;0.0395379;-0.24450889;-0.17685445;0.14989673;0.2124567;-0.21002781;-0.26556367;-0.080776095;0.180934;0.13151301;0.14071612;-0.26113302;-0.005300472;-0.019088622;-0.07792293;-0.06272796;0.07839388;-0.15454963;0.20049511;0.006280757;0.1737543;0.2334106;-0.2216;0.10177678;0.01952026;-0.16323918;-0.042838644;-0.20516323;-0.009875617;0.28162643;-0.043479547;0.018567743;0.22631817;-0.3158533;0.373998;0.11502883;-0.01892405;-0.24443394;-0.23356152;-0.0062795086;-0.13803847;-0.04909132;0.020463623;-0.19025695;0.13682804;0.20678735;-0.21983778;0.2319791;-0.14425774;-0.050554447;-0.05410214;0.17052412;-0.03327907;-0.055933774;0.06992994;-0.009788777;0.03454481;-0.21042955;-0.23809339;0.028865267;-0.2650795;-0.035572004;0.014290486;-0.10418495;-0.04164423;-0.04293052;-0.1090167;0.12598394;-0.010047374;-0.10609108;-0.15438558;-0.05441939;-0.2633973;0.22957347;0.42463318;0.15166485;-0.15289277;0.26742312;-0.20475186;-0.29918692;0.1594842;-0.16229892;-0.18235743;0.029035347;-0.02197515;-0.079929546;0.112500414;-0.48569742;-0.18747102;0.040515468;0.0047574397;-0.19821313;0.09920832;0.14905159;0.16032535;0.13564175;-0.15168639;-0.15627064;-0.37976715;0.17326666;0.15531805;-0.25725806;-0.10619005;0.10438829;0.042146645;-0.046217553;0.141755;-0.22690035;0.098324575;-0.19152577;0.0077257873;0.28944153;0.0075301253;-0.47887087;-0.19080754;0.24530518;0.015361515;0.14406504;-0.039798092;0.019639047;-0.1726523;0.04419143;0.0962489;0.124847345;0.032278754;0.07841546;-0.14137676;-0.06779229;-0.088662304;-0.092308134;-0.20029527;0.008346845;-0.0106193675;-0.307621;0.15739964;0.0431887;0.0798565;-0.14328219;0.009316744;-0.091579795;-0.13560806;-0.062248535;0.10721691;0.020441439;0.20904543;-0.1453331;0.03168798;-0.012347005;0.15713356;-0.08676571;-0.1877892;0.3551431;-0.14014564;0.0758327;-0.15619777;-0.18677786;-0.37404203;0.2634058;0.16796511;0.097351745;0.06969315;0.05898887;-0.02725509;-0.20797397;0.018589329;0.007457081;0.07041187;-0.1875079;-0.009488767;0.077380724;0.044866007;-0.20550755;-0.0848923;0.15984419;-0.043140553;0.29584372;-0.044650003;-0.12238773;0.06027014;0.22026263;-0.056341548;0.016491259;-0.0598266;-0.19345291;-0.027230952;0.09409293;-0.37568277;-0.04687464;0.014256288;-0.32178935;0.11638026;-0.07534257;-0.2055763;-0.13016976;0.12899642;-0.16720596;-0.15067303;-0.2403638;0.29059595;0.15548347;-0.08798694;0.062012307;0.18326232;-0.10143401;-0.17475522;-0.040381033;-0.11039587;0.23841834;0.22441128;-0.022678904;-0.18896441;0.33189014;-0.019576149;-0.25541437;0.205021;0.12048444;0.0680827;0.011865446;0.2549496;0.14944145;-0.14423546;-0.007814095;0.03087557;-0.3696736;-0.3911301;0.044434775;-0.0046552476;0.044785764;0.086229265;0.17934212;0.018075671;0.02447991;0.21651624;-0.23706952;0.19853635;-0.10770028;-0.004794422;0.107815385;0.08849012;-0.2034079;-0.16483496;-0.08151443;0.064102724;-0.040861458;0.17397387;0.2665672;0.13628756;0.14783166;0.038116034;0.1849767;0.19209497;0.014685838;0.12992954;-0.0353768;0.03010952;0.11653595;-0.019346401;0.0029191228;0.09946057;-0.013324153;-0.104404174;0.1309414;0.07875628;0.04416143;-0.0023192992;0.06633986;-0.015173515;0.09031084;0.19258109;0.09883279;0.01076053;0.002471569;0.16307868;-0.3547823;0.020193249;-0.07753493;-0.2604815;-0.2893579;0.07934896;0.055201087;0.032739364;-0.26619783
-0.11025022;-0.2226518;-0.15694296;-0.23241471;0.2916661;0.16292028;0.3559663;-0.0039102067;-0.5808095;0.025997475;0.054311775;-0.011748171;0.20577058;-0.01638227;-0.1673746;-0.030637344;-0.0010250105;0.11479455;0.107191265;0.0037715277;-0.25133866;0.00411031;0.06473039;-0.047900733;-0.021466404;-0.14139766;0.02837032;0.17726971;-0.24826595;0.033644862;-0.19746137;-0.17345284;-0.12910783;0.011483602;-0.49401402;-0.098998725;-0.017080888;0.176798;-0.25738567;-0.31084946;0.022709126;-0.031045876;0.043938264;0.4334069;-9.7735334e-05;-0.1647102;0.09678768;-0.06796686;-0.30112964;0.057723567;0.22857875;0.10006001;0.02847919;0.08346931;-0.25104174;-0.104325555;0.21237415;0.21331061;0.058547925;-0.12730949;-0.16023088;-0.060928635;-0.2549068;-0.19118148;0.053654138;-0.18178995;-0.1344139;-0.0067364722;-0.28375953;-0.084122434;0.06712745;-0.031907503;-0.031606678;0.23221184;0.057395656;-0.050594915;-0.0042759697;-0.057106864;0.09999106;0.106060624;-0.011044878;-0.10978017;-0.036806643;-0.078928396;0.10844185;-0.093789466;-0.11058139;-0.31386337;-0.111172736;-0.07880382;0.108517624;0.30886507;0.06257112;-0.12391516;-0.43854797;0.06602346;-0.010208603;-0.045647737;0.20862073;-0.5056882;0.2026667;-0.079272196;0.21348833;-0.003847168;-0.17956817;0.1900619;0.12656105;-0.20906937;-0.08819764;-0.08329356;0.26483214;0.12586969;-0.071444444;-0.23459;0.06931653;-0.17597814;-0.06763639;-0.04166402;-0.09976017;-0.066723615;0.2556678;-0.060742512;0.03685742;-0.27975884;0.077010445;-0.36900213;-0.14532796;0.10952923;-0.16904692;0.15526813;-0.06006574;0.091633715;-0.18010932;0.038900793;0.13674082;-0.051363874;-0.085831426;0.024435924;-0.058664907;-0.1569694;0.04093959;-0.050219532;-0.03609471;0.053526;-0.36790466;0.22669117;-0.14006582;0.05272434;0.065502375;-0.15947099;-0.042648472;-0.02473458;0.08319236;0.29022628;0.09905756;0.15292248;0.031918965;0.06110015;-0.21642621;0.053263545;-0.054838594;0.06507347;0.18446076;0.15718366;-0.15092911;-0.24739052;-0.1951273;0.15588406;0.045976456;-0.14451826;0.23118699;-0.17444763;-0.25994807;-0.12965408;-0.14894907;0.23021042;0.039568383;-0.037002243;0.06749156;0.09588947;-0.06304746;0.26439655;-0.07935922;0.044011444;0.07952259;-0.13294175;0.016482351;-0.045662355;0.057303734;0.046015598;0.060956888;-0.2764571;0.190708;0.07014963;-0.063722596;-0.09371751;0.15086739;0.05671771;0.09306457;-0.16800496;0.2173568;-0.18192528;0.16294229;-0.06133914;0.3006217;0.19134362;0.057777736;0.028869214;-0.085612535;0.069416426;-0.2172213;-0.27975067;0.26392913;0.052248325;-0.037747275;0.2360608;0.19479537;-0.22231984;-0.08978412;0.16376741;-0.09596754;0.033941798;0.09201711;-0.18148158;0.04417022;0.12851991;-0.54185015;0.06039126;0.011640723;0.030112987;-0.16642022;0.022455938;-0.38476697;-0.06859674;0.04402585;0.036682937;-0.025511594;0.0959597;0.14736591;0.015768824;-0.13770227;0.3721906;0.11383644;-0.18197654;0.043291405;0.14607273;0.10038074;-0.098795205;0.22503251;-0.031120475;0.0513745;-0.16021612;-0.3034466;0.067375295;-0.07503943;-0.5730804;0.07797453;-0.54054505;0.115529455;-0.14259426;-0.21715102;0.07867794;-0.1976779;-0.32545882;-0.35926905;0.08901359;0.08531379;0.046351727;-0.10588351;-0.27412063;0.02564313;-0.24213256;-0.07558746;0.021959187;0.24666779;-0.0031803765;-0.123602316;0.095687106;0.011809185;0.062357537;-0.11925358;-0.116864584;-0.3721103;0.01042695;-0.20747545;0.060720745;-0.0036502925;-0.005920292;0.12336152;-0.10222004;-0.04374229;0.15602748;-0.06522161;0.4612904;0.00024029794;0.01129544;-0.043195702;0.016047804;0.21162935;-0.07478841;0.20179538;-0.2545933;-0.044232707;0.24636586;-0.26190606;-0.045341965;-0.05678701;0.12232133;0.11151786;0.12509447;-0.12937258;-0.28490505;0.24156736;0.11194509;-0.21973868;-0.060952753;0.13031138;-0.12617852;-0.17708088;0.015477679;-0.058184512;-0.24597931;-0.14235663;0.076053075;0.20290428;0.0129480865;0.09290671;-0.15213296;0.09581686;0.10201042;-0.18337062;-0.38970172;0.033863332;0.00059892365;0.1179328;0.03776731;-0.079745926;-0.16541728;0.040227972;-0.333677;0.07756794;0.09815069;-0.0798242;0.16653538;0.030541781;0.13393475;0.14819703;-0.013083924;-0.031143703;-0.031140177;-0.012440244;-0.21660271;-0.14439394;0.029658968;-0.25967804;0.35048902;-0.2630927;-0.19161682;0.0075558233;-0.10121778;-0.19728225;0.036497224;0.030818349;-0.013629501;0.013964599;-0.031870473;-0.11027557;0.08117585;0.21521671;0.040518545;0.13189505;0.15584847;-0.19453262;-0.1758725;0.14390112;-0.3219033;0.016537042;-0.16975597;-0.1680674;-0.06592407;-0.10356156;-0.015406677;-0.19853617;-0.19663653;-0.017386064;-0.15008551;-0.0965118;-0.0070989965;-0.039769173;0.081054986;0.1644698;0.2560227;-0.1992241;0.10743633;0.18637659;-0.14561768;-0.28985927;-0.06202059;0.21890573;0.11627293;-0.18591022;-0.353555;-0.2193962;-0.37041762;0.068680964;0.19401956;0.15841137;-0.09016129;-0.32057968;0.23715454;-0.029707521;0.05765362;-0.3232711;0.024441922;0.004485399;0.08295873;0.06805619;0.2656215;0.046999156;0.083861925;0.065925166;-0.061955053;0.109284215;-0.119560786;0.015400913;-0.16666785;0.16933417;-0.3663508;-0.11524417;0.11451041;-0.018958347;-0.17477453;-0.2881178;0.02206062;0.082568325;0.18223919;0.21684836;-0.24436635;0.08735081;0.034063123;0.045214634;0.0028135336;0.11212796;-0.2080083;-0.08148896;0.19810371;-0.16930601;-0.0680716;0.089033976;-0.13461058;-0.515481;0.1766832;0.054860134;0.01207789;0.049308434;-0.14474164;-0.0117911;-0.14812367;0.20136109;0.3517699;0.30629414;-0.030618975;0.06739411;0.121827304;0.0852671;-0.2412063;-0.11882977;0.13396117;-0.04023546;0.19849575;-0.043711435;-0.04503868;-0.1737766;-0.16151612;0.019420687;-0.22333914;0.08063218;-0.09844719;0.1473797;-0.078214265;-0.30118287;-0.3447434;0.098420724;-0.089758076;0.27294594;-0.07063971;-0.1978399;0.076203324;0.02388242;-0.12951697;-0.1717988;-0.11559289;0.06326627;-0.00690271;-0.1663068;-0.08275009;-0.13329995;0.093986765;-0.022012236;-0.11821;-0.11469312;0.21256049;-0.16018277;0.06378463;-0.37687182;0.32990193;-0.12029212;-0.07833551;0.07607038;0.03760424;0.036691353;0.024906166;0.04581162;-0.016776735;-0.16220172;0.0876298;0.14686902;-0.13609388;-0.0700675;-0.012005588;0.09640865;0.09523308;0.18483534;0.27988645;0.09633391;0.06956498;0.17806673;-0.4207083;0.32161438;0.022433268;-0.21749072;0.19804469;0.19325662;0.09006667;0.23664458;-0.12733924;0.036332592;-0.021958347;0.2713938;-0.011162516;0.13960524;-0.12256202;0.059633262;0.16290711;0.4771531;0.20347634;0.15518372;-0.08253423;0.2091129;-0.19734666;0.026754916;-0.017887963;0.26230556;0.12227956;-0.16707548;0.17929102;0.032714512;0.22075611;0.5197143;0.16587569;0.051936723;-0.05829568;0.38353884;0.06913294;0.07023701;0.03369879;0.27486137;-0.03596575;0.07588607;-0.08756454;-0.25293967;-0.1848849;0.0094015375;0.04692677;0.19378518;-0.11389647
0.16807012;-0.29807284;-0.27195773;-0.15498607;0.07864246;0.27331206;0.115476735;0.036206763;-0.567418;-0.06781933;-0.14968695;0.07384528;0.0929021;0.035683066;0.0023021495;0.07447723;-0.44655555;-0.0056535355;-0.037615143;0.26929832;0.080135114;0.2247659;-0.14735924;0.19850749;0.08821684;0.007196398;-0.06644893;-0.025294825;-0.02877049;-0.040453997;-0.10822354;-0.17033377;-0.16530228;0.1440478;-0.4260793;0.024461154;-0.14221798;0.14836997;-0.030087447;-0.15763322;-0.092726186;0.12457558;-0.15820926;0.06666647;-0.048397254;0.0727704;0.06512682;0.32880247;0.0063538444;0.007501227;0.14713943;0.22026558;0.1817981;-0.32530302;-0.03377315;-0.009122897;-0.11226622;0.14322086;-0.15369138;-0.09682511;-0.06126645;0.0070718694;-0.0065738084;-0.19073975;-0.11194054;-0.115098715;0.017177923;0.14174746;-0.30808127;-0.0508288;-0.09947399;-0.04391919;-0.13530907;0.10374144;-0.12200195;-0.050279763;0.004018105;0.09058436;0.38410708;-0.014914259;-0.026376817;0.03250837;-0.06958707;0.31364357;0.19483441;0.11755894;-0.032255147;-0.14265215;-0.14345124;0.07360033;0.010358088;0.007661976;-0.1880082;-0.19780752;-0.3961349;-0.07610176;-0.09410827;0.14671591;0.26825193;-0.4563898;0.10339686;0.08443111;0.08474076;0.01728727;-0.03159287;0.15161169;-0.2016987;-0.045536026;-0.3467771;-0.08326031;0.38001966;0.13582164;0.012763662;-0.14994633;0.055176746;-0.22553235;0.16888852;-0.17882377;-0.086458504;-0.12520285;0.013987839;0.029157763;0.009949922;-0.17219825;0.03424684;-0.17206328;0.009615081;0.11417858;0.18802194;0.00407947;0.016725926;0.17693338;-0.2210611;0.15562412;0.17870902;-0.019263867;0.020645443;0.039333794;-0.27429613;-0.15411592;0.036874495;-0.14668413;-0.018270383;0.08096772;0.12783599;0.23963043;-0.059064638;0.0012226197;-0.00824198;0.11195757;-0.00068622053;0.07464861;-0.13077082;0.23715888;-0.01827957;0.15196937;0.06486155;0.2435212;-0.29787576;0.007127136;-0.15441822;-0.10150462;0.16103351;-0.1996648;-0.42280978;-0.31410307;-0.12919521;0.09673744;-0.023074262;-0.22517948;0.13523896;-0.13368192;-0.24745186;-0.2744651;-0.13409257;-0.04690058;-0.12762515;-0.11092714;0.21551916;0.2661054;-0.007092091;-0.0065148063;0.023459932;0.03619468;0.052986793;-0.091698825;0.093380965;-0.20272763;0.3400957;0.00021305277;-0.11787668;-0.08316276;0.22626667;0.07095089;-0.05256508;-0.028154938;-0.050762456;-0.12425291;-0.16511686;-0.13923642;-0.013932736;0.06385748;-0.04179856;-0.055907927;0.27537987;0.4084967;-0.0751903;-0.18495214;-0.032023218;0.054503936;-0.22279032;-0.13809136;0.18267518;-0.12320198;0.049577992;0.3848258;-0.14552985;-0.14552662;0.10708527;0.08106642;-0.18519223;-0.04454289;0.0037790963;-0.16747801;-0.005747768;0.36580285;-0.20979835;-0.045353107;0.04282108;0.07993263;-0.10572315;0.15942876;0.0025050726;-0.19591208;0.079777986;0.0025354538;0.15183751;0.31832057;0.18019408;-0.076393485;-0.26764387;0.4557983;0.13617025;-0.18560828;0.33996418;0.10733785;-0.33414006;-0.3505485;0.123682566;0.29525757;0.058196507;-0.09310715;-0.1337568;-0.014626584;0.13363835;-0.23988016;-0.0032457672;-0.2202785;0.043598585;-0.024955388;-0.227369;0.20411062;-0.1425082;-0.23371612;-0.2946703;-0.10855949;0.004356128;0.03772817;-0.19107212;-0.21229318;0.2056929;-0.19311504;0.2175521;0.20013614;0.08161957;0.010744772;-0.1518515;0.059704807;-0.003901542;-0.0064377855;-0.032827605;0.18272948;-0.49655703;0.07688443;-0.114548326;-0.18296768;-0.26280147;-0.07348485;0.048369586;-0.17897645;0.23485714;-0.020757947;0.15457433;0.3795869;0.06077312;0.03653571;0.058994282;-0.09137637;0.029907724;0.08401214;-0.15204789;0.13400963;-0.06616008;0.09379277;-0.25636795;0.0333004;-0.14679609;0.06528369;0.1453277;0.18090785;0.16225497;0.029669262;0.3440603;0.21580373;-0.10312182;-0.1346845;-0.11046308;-0.24307825;0.14890663;-0.09429627;0.19391234;-0.1424943;0.059708603;0.1007153;-0.045896173;0.11053969;0.12578021;-0.11529752;0.087201074;-0.012725245;0.2361903;-0.35964686;0.0681826;-0.15108472;-0.35395822;0.25744298;0.0386696;0.00021344847;-0.067583814;-0.5233834;-0.020428037;-0.14966598;-0.14502189;0.24432153;0.0057657096;0.28402466;0.20696639;0.16144016;-0.08915508;-0.2243942;0.17176476;-0.024276325;-0.3578233;-0.17555064;-0.26688528;0.22372857;-0.11762792;-0.14022477;0.17711371;-0.09788283;-0.027872112;-0.04879059;0.1957522;-0.14468013;0.15927513;-0.049382236;-0.17232917;0.09650354;-0.08276196;-0.08077512;0.12834059;0.05671602;-0.0058078766;-0.33921212;0.41429836;0.029669736;0.11596176;0.06658361;0.15780458;0.013454077;-0.017987357;0.156318;-0.28206828;-0.20774381;0.13419625;-0.25599042;0.29821053;-0.07871783;0.032955013;-0.043064773;-0.05052934;0.20771518;0.12520573;0.045366235;-0.08620174;-0.0248508;-0.3003521;0.18476684;0.2024438;-0.11929653;-0.20712963;-0.076209;0.089729555;-0.17698318;-0.0062305816;0.1326233;-0.02740542;0.03364817;-0.0933211;-0.1924405;0.01056811;0.09293394;-0.33949924;-0.11528592;0.034425;0.008072057;-0.066163;0.061263636;0.14982155;0.15593868;0.11486396;-0.05984433;0.04556696;-0.13531715;0.37743276;-0.0019834486;0.18796408;-0.4663885;-0.2418368;0.056505833;0.09812826;0.035902288;-0.08387342;-0.10083298;0.07103668;0.038438316;0.06489182;-0.024485273;0.07890658;0.014999216;0.014835078;-0.15470862;0.18697226;-0.39090645;-0.098279946;0.30450466;0.06721623;-0.32249957;0.066252105;-0.14307246;-0.61600584;0.21450073;0.4200103;0.03247716;-0.07890155;0.14697932;0.046295024;-0.1276452;-0.016498946;0.1494009;0.16182476;-0.13968563;0.004354975;-0.05610858;0.1307015;0.1753752;-0.06458862;0.0914418;-0.09975373;0.30069464;-0.021047186;-0.26961216;-0.13371813;-0.041157003;-0.2650522;-0.04635766;-0.05132088;-0.19213104;0.23925564;-0.31197855;-0.1515411;-0.24017493;0.095750146;-0.19815119;0.4944217;-0.022558909;-0.18172896;0.046793222;0.056663398;-0.07113108;0.006777491;-0.058711033;0.12754384;0.12472327;-0.32421246;0.12567134;-0.27768603;0.32739142;-0.17074257;0.11098044;0.14209022;0.18560387;-0.2859226;0.05188478;-0.17873316;0.23950943;-0.30088982;-0.029321048;-0.039722405;0.17392327;-0.0151072275;0.03278357;0.14603673;0.19892026;-0.34303877;-0.03643535;0.0711266;-0.47756606;0.031465515;0.24705772;0.13687989;0.14859605;0.17169566;-0.017839663;0.13673887;0.07504779;0.10800223;0.047852587;0.16828813;0.24569584;0.013478545;0.12608558;0.2045625;0.32159117;0.006962257;0.16906857;0.07715295;-0.07225713;0.23772436;0.15744881;0.05778959;0.09612549;0.2550077;0.15213738;0.23652302;0.082839645;0.17591569;0.026173586;0.2950898;-0.12626556;-0.15927927;-0.2614837;-0.10687607;0.102565594;-0.111496985;-0.005907355;0.09774452;0.10311964;-0.03624039;0.08922418;-0.050993007;-0.047803458;-0.20722988;0.055887535;0.015655953;0.22679028;0.030018497;-0.15126039;0.027777722;0.16362973;-0.3070887;0.041711032;0.2914443;0.048083518;0.010436576;0.11077579
0.09865177;-0.26372212;-0.23508099;-0.2123995;-0.041894708;0.34249222;0.11250854;0.036178526;-0.18527316;0.008016981;-0.018388923;0.305429;0.07596342;0.22222702;-0.22734194;0.13417612;-0.3075913;-0.11669281;0.14926735;0.2864244;-0.011711315;-0.14306857;-0.051548418;0.25805488;0.38039982;0.01219028;-0.032413088;0.17656198;0.11052479;0.02120277;-0.01706713;-0.022405172;-0.11804231;0.082870685;-0.008361302;-0.08255002;-0.06852233;0.087838985;0.09415618;-0.05468553;-0.08751212;-0.108946994;-0.20539436;-0.21420392;0.104964316;0.06873633;0.014866103;0.39599633;0.043565307;0.14503385;0.0069090766;0.12011286;0.04079241;-0.20418005;0.02128494;-0.016329626;-0.12775853;0.31994152;-0.37115186;0.079382166;-0.062579915;0.18886973;-0.10863914;-0.18033747;0.035797253;0.0076739495;0.011233874;0.124638125;-0.36205626;-0.043071575;0.14669493;0.2139297;-0.04040859;-0.11103606;-0.084933236;0.042100444;-0.06257896;-0.18247311;0.42275235;-0.1176424;-0.050729662;-0.24820535;0.124646656;0.15894556;0.21911214;-0.12921897;0.11604883;-0.25071147;-0.2635476;0.10670664;0.074929245;-0.016878195;-0.26345062;-0.30488822;-0.30144128;0.018450232;-0.00020274193;0.026848018;0.47612876;-0.32776472;0.12699828;0.027348723;0.15455423;-0.08860984;-0.2233514;0.023124779;-0.2577335;-0.060187645;-0.17512187;0.07663028;0.19224994;-0.10073729;0.07281951;-0.49401918;0.21213682;-0.14991526;0.21895194;-0.19036943;-0.08428177;-0.16951677;0.14430131;0.18305144;-0.2049355;-0.035507873;-0.16624673;-0.21133512;-0.2802098;-0.088621154;0.1318656;-0.103883035;0.12597273;0.12350064;-0.23750713;-0.03778551;0.378465;-0.12668578;0.1032182;0.031595662;-0.35487273;0.11366183;0.35851493;-0.4004315;0.050527044;-0.061610576;-0.27326974;0.12377124;-0.24803364;0.17162097;0.053474437;0.26001596;-0.08772394;0.11241687;0.156513;-0.025150793;0.19014202;0.07064895;0.19890486;0.05314484;-0.38595206;-0.010748156;-0.17257121;-0.10419149;0.30366147;-0.28559133;-0.58808357;-0.17296676;-0.36119223;0.097969174;-0.13439462;-0.29342616;0.043491565;-0.057682518;-0.24674757;-0.15337983;-0.11162054;0.12641166;0.034656335;-0.08488892;0.16934279;0.27347174;0.024018839;0.043997277;0.072914116;-0.14923787;0.2924492;-0.057774168;-0.16455488;-0.057025146;0.34987193;-0.021042945;-0.1013701;0.011174281;0.26843303;-0.038450442;-0.24259955;0.093997434;-0.101357155;-0.23078851;-0.4315864;0.037086677;0.12841605;-0.008135507;0.06971392;0.085196994;0.33156496;0.44403145;-0.112221874;0.047647517;-0.08076791;0.1473489;0.13278057;0.083092675;0.012159886;-0.07987196;-0.19319396;0.15129739;0.13013472;-0.046698656;0.20160034;-0.07317452;-0.112113975;0.1775887;-0.08028103;-0.22921686;-0.16602144;0.41934955;-0.31690973;0.24890135;-0.2677333;0.0070331576;0.013011113;0.018401952;-0.11843507;-0.4912446;-0.014749658;0.0658656;0.027361749;-0.07629732;0.11009402;0.3159696;-0.08981829;0.37268633;-0.24270067;-0.29895982;0.5292967;0.07316981;-0.22442348;-0.41314462;0.3644812;0.2474718;-0.075868964;-0.19175115;-0.08025105;0.012457876;-0.04454374;-0.45113578;0.046955958;-0.06793706;0.16818807;0.08639456;-0.18030192;0.21686535;-0.2482226;0.042602126;-0.2243288;0.0220406;0.07915719;0.17144877;-0.17766355;-0.26967424;0.285662;-0.16842653;0.27038133;0.13236356;-0.07636356;-0.029200554;-0.038266182;0.19318259;0.07644416;-0.026912082;-0.044234972;-0.0036042202;-0.4889519;0.04203742;-0.21707122;-0.20041431;-0.13140266;0.09326862;-0.08301614;-0.19472657;0.23141316;-0.13534537;0.11235204;0.14930123;0.12947834;0.10287227;-0.10192021;0.08792696;-0.084500335;-0.07924261;-0.015690178;-0.027883492;-0.26600498;0.09769705;0.18799412;0.042815864;-0.040680144;0.087306716;0.2757756;0.12953079;0.06629154;-0.043651197;0.124022275;0.12228708;-0.009980234;0.036776878;0.23447807;-0.18264994;0.11483203;-0.13016878;0.20407295;-0.017018016;0.19927782;-0.025371907;-0.18776917;0.090083465;0.17770766;0.017886782;0.2822766;0.095796116;0.07418571;-0.3128615;-0.03657844;-0.19173607;-0.046161775;0.17531773;0.2392674;-0.052359693;0.12825346;0.33970687;0.1555812;0.0134691475;-0.03619568;0.29821825;-0.28320396;0.06686857;-0.051656127;0.12412204;0.049737487;-0.28689036;0.0012017854;-0.14077425;-0.06769594;-0.12066496;-0.10002803;0.054004487;-0.17452961;-0.12778962;0.02576298;-0.07609171;0.008183661;0.050603956;0.2852433;-0.24913508;0.19690384;-0.2187725;0.12639365;-0.022816261;-0.24328458;0.20922796;-0.07830694;0.15837437;-0.26935837;-0.1882061;-0.045014493;-0.08716743;0.14219001;0.18788019;0.022074156;-0.037426904;0.05619338;0.14595237;-0.020457393;-0.071202576;-0.028973714;0.23425938;0.14382719;-0.24679337;0.15471654;-0.029898623;-0.10102222;0.16523077;-0.1287886;0.21666278;-0.13665913;-0.12460642;-0.015299781;0.0687366;0.19208449;0.10629113;-0.15971632;0.013615293;0.00022987704;0.068022266;-0.047901392;0.12923469;0.05698054;-0.21220183;0.05184392;-0.25257418;0.2394135;0.36835697;-0.42347348;0.31552;-0.06605466;-0.23452717;-0.041996382;-0.08283297;-0.05202646;0.2716592;0.0967137;-0.061386287;-0.010101369;-0.059443265;0.024461534;0.11482918;-0.027465865;-0.48356417;-0.39773068;-0.1524973;0.20213589;0.15182477;-0.11870324;0.15326832;0.076795004;0.067040406;0.056911264;0.04120229;0.022332639;-0.10843742;-0.038152203;-0.096270375;0.058963254;-0.24964197;0.023462407;0.26214644;0.032783274;-0.19194089;-0.17852326;0.0057869013;-0.51035243;0.14324245;0.034181826;0.07639221;0.04873508;-0.005223782;0.10606556;-0.43090233;-0.13330695;-0.05819777;0.058058795;-0.0595984;0.19522688;-0.003083924;0.0932859;0.10440995;0.016380973;-0.13034938;0.0291946;0.2497862;0.21628205;-0.2468191;-0.12526554;0.081832826;-0.10764658;0.038756818;-0.20364548;-0.26135823;0.10071253;-0.5115689;0.021558426;0.0012674895;-0.0841575;-0.07540839;0.39826685;0.09778698;-0.25373915;-0.073332496;-0.10152782;-0.0991979;-0.11625751;-0.11052356;0.17893508;-0.026680112;-0.16402881;0.18858558;-0.1791446;-0.084696345;0.019620344;0.17076083;0.15208189;0.46916616;-0.084764004;0.078101546;0.22770597;0.062383544;-0.25864556;-0.020381832;0.12051081;0.315013;-0.16618171;0.09213549;0.013571306;-0.09722726;-0.1052979;-0.030084943;0.13924424;-0.3229074;-0.11702945;0.20622422;0.059377577;0.010434697;-0.020539025;-0.0063937935;0.06890351;-0.09285091;0.16592985;0.16755253;0.20031849;0.3103184;0.023095686;-0.030848633;-0.004393124;-0.101351134;-0.25984675;0.0151837915;0.05997979;-0.014129606;0.26182318;0.093712315;-0.065532655;0.06937488;0.19454044;0.20323938;0.09618837;-0.066538416;0.023536716;0.0030033207;0.2533336;-0.19807416;-0.23046945;-0.12072352;0.011399747;0.009007002;0.024656717;0.049696106;0.073782995;0.037462298;0.032931335;0.08850032;0.057794686;0.073229656;-0.10577989;-0.06461859;-0.07262696;0.003405545;-0.04419284;-0.19203362;-0.039968938;0.020375587;0.0026133459;-0.055014543;0.18778254;0.18055746;0.116140805;0.30004182
-0.31713477;-0.2984751;-0.0070267385;-0.16928543;0.09890707;0.1556194;0.038692996;-0.10877345;-0.20400411;-0.034269944;-0.050832815;0.16089477;-0.052602008;0.2127184;-0.06449021;0.09280053;-0.20875269;0.27174547;-0.13376294;-0.04641063;0.35996446;-0.41782287;-0.17674027;0.1992521;0.3243419;-0.09082428;-0.040784754;0.2012042;0.13080105;-0.19104698;0.003564464;-0.08312405;-0.10372497;0.09218113;0.0454568;0.034212075;0.14906174;-0.0044326554;0.021654774;0.1940299;-0.036879417;-0.137194;-0.13363105;-0.20748314;0.044901453;-0.115529776;-0.0046342816;-0.15279685;-0.21965021;0.10892125;-0.1295729;0.116156936;0.093162216;0.13881423;-0.017565554;-0.34332848;0.06825926;0.43304995;-0.023070917;0.015109485;0.3135454;-0.078096844;-0.19958381;-0.14272739;0.056782555;0.108906314;-0.003314512;0.016663158;0.001637318;-0.1750515;-0.021490943;0.14917651;0.018371489;-0.032858245;-0.17822836;0.2295053;-0.023312073;-0.15795667;0.33749443;-0.06907669;-0.1448744;-0.3095086;-0.04792447;0.22406687;0.16365218;-0.037533205;0.062873125;-0.06778738;-0.21610951;0.28850427;0.1672586;-0.12744762;-0.34197998;-0.1575911;-0.085408874;0.2686682;-0.08085662;0.06160711;0.63281655;-0.2667215;0.087609306;-0.06125991;0.06619025;-0.02940966;0.1499237;-0.0970914;-0.11925015;-0.108344994;-0.087577425;0.24418843;0.040825095;0.054097544;0.12024645;-0.5392943;0.109252036;-0.077080354;0.010460812;-0.034924805;0.0075508417;-0.31827426;-0.02104824;0.20942341;-0.12723432;-0.31529146;0.2775315;-0.100575455;-0.55044335;-0.28870115;0.058222286;0.25725207;0.09183338;0.02917087;-0.15768388;-0.09295518;0.32362804;0.18587506;-0.13003917;0.27807638;-0.108811945;-0.08163433;-0.059564013;-0.18274207;0.20888552;-0.007130104;-0.25918987;0.28850687;0.012019495;0.02459606;0.16341585;0.002972498;-0.013638949;-0.015393587;0.2381979;-0.070361815;0.0692636;0.105750725;-0.019941127;-0.02919722;-0.2601876;-0.08412818;-0.14272372;-0.004945122;0.28084585;0.0014460721;-0.551136;-0.13339378;-0.23557305;0.080038026;0.22480878;-0.23460172;0.012329594;-0.21642275;-0.38424826;-0.1613904;0.25123173;0.17589335;-0.013765821;-0.16932425;0.11059264;0.22299144;0.21275464;-0.06063128;0.092043385;0.022385184;-0.014689608;0.09803562;-0.31845433;0.23554711;-0.07113143;-0.09932014;-0.049705714;0.00461377;0.09864863;0.07257197;-0.041935373;-0.07107761;-0.09180842;-0.104884215;-0.30720624;0.03486296;0.23599528;-0.18223976;0.062277265;0.104860075;0.07748562;0.24064381;-0.0036790846;0.01684373;-0.07423427;0.057277627;0.042756032;-0.076358795;0.12717243;-0.093100086;-0.30102748;0.21096209;-0.094686106;0.016956426;-0.12054772;0.26160407;-0.12059047;0.18365182;-0.030594233;0.00574506;-0.206555;0.1376219;-0.5917;0.37219536;0.0011784433;-0.00084222323;-0.21886386;0.017626956;0.05883685;-0.6120905;-0.23531672;-0.05222353;-0.21322736;-0.08508511;0.0028866958;0.17313962;0.030188594;0.23044994;0.003498517;-0.24077938;0.16606876;-0.11080892;-0.45839435;-0.09473129;0.27780342;0.18729264;0.0052501503;-0.030832205;0.0692962;0.31036443;0.14102916;-0.14942728;-0.11732732;-0.019371988;0.19653574;0.16703726;-0.1514042;0.22753988;-0.11391665;0.07501034;-0.29869893;0.1053786;-0.082423724;-0.051205464;-0.18011406;0.11274039;0.36250892;-0.031135488;0.14406368;0.080932945;-0.13605577;0.00035923356;-0.021563714;0.013261802;0.023536481;-0.33613285;-0.09570449;0.13640626;-0.103045024;0.06644682;-0.1384822;-0.43534788;-0.18752532;-0.016840711;0.021702101;0.074640214;0.36297852;0.00036973925;0.16838585;0.2513289;0.009017959;0.023291565;0.111620136;-0.23212737;-0.006371452;-0.11729374;-0.11469176;-0.26646933;-0.057373773;-0.100965664;0.14689352;-0.16643512;0.13074526;0.16457772;-0.0034069675;0.09462466;0.6156375;0.024710292;-0.1353869;0.37377182;0.0892049;0.029542388;0.07032733;-0.121904686;0.069109775;-0.11851892;0.2167132;-0.14734222;-0.12205456;-0.009295069;-0.09131981;0.17389077;0.29069307;0.08854597;0.039865628;0.1473344;-0.07852981;-0.26381746;-0.047649737;-0.2895735;-0.11987225;-0.061623916;0.0333549;0.03775189;-0.17079394;0.278762;0.18376905;-0.1934512;0.26596698;0.21760608;-0.27857587;0.22517736;0.01590762;-0.07683959;0.002353042;-0.19398803;-0.14994398;0.04835837;-0.4336999;-0.29622748;0.097498186;0.045530207;0.17638524;-0.051190656;0.3040245;0.037064154;-0.036202915;0.090886;0.1504062;-0.48519704;0.010139857;-0.043882083;-0.16355848;-0.057023007;-0.27234894;0.100658655;-0.16507043;0.2362132;0.09880236;-0.10697072;-0.07860208;-0.08633869;-0.27171808;0.0031989838;-0.07063048;0.0010339165;-0.15823777;0.066360205;0.008286572;-0.18934238;-0.14557657;0.38210317;-0.08715434;0.07516961;-0.006170268;0.020872155;-0.0061447853;0.07740044;-0.428746;0.07556115;-0.062212482;-0.23727645;-0.07732858;0.0016581323;0.24066499;0.06200439;0.04545679;0.09552179;0.009962524;0.03269635;-0.17306247;0.47063354;0.01183797;0.04992433;-0.016149381;-0.08910536;0.032098405;0.32593286;-0.011034695;0.2632835;0.17942993;-0.15317822;-0.2151408;-0.118791535;-0.09788036;0.28846365;0.01500968;0.058072705;-0.13380559;0.10748153;0.17693684;-0.16817972;-0.04158532;-0.37841246;-0.4019428;-0.28366545;0.10330724;0.24076127;0.21973433;-0.10632768;0.03343183;0.019755129;0.050863035;-0.10239611;0.01350211;0.08435777;-0.049461015;0.0027216722;0.16862282;-0.25527254;0.06922806;0.18231122;0.02058165;-0.27204433;0.0954582;0.073478304;-0.14595614;0.18001527;0.049628563;-0.006617826;-0.12715006;0.31783974;0.036497507;-0.35303986;-0.4922589;-0.11595801;-0.062335927;0.0025394605;0.25731248;-0.016524173;0.07330982;0.0046881516;-0.0005842396;-0.0072238264;0.07684064;0.019838791;0.023517212;0.13134654;-0.03391266;-0.12659952;0.036918566;0.0656221;0.07295963;-0.17199276;-0.034325287;-0.24564362;-0.11807257;0.27169752;-0.26402918;0.028590642;0.11152767;0.03920946;-0.40808773;0.04667387;-0.10809518;-0.03995134;0.09955155;0.02648683;-0.14566189;-0.23001067;-0.05045224;0.23481162;-0.04460609;-0.43135118;0.1270171;-0.1914803;-0.10198164;0.12048472;0.15049997;0.04551722;-0.12808429;-0.18862422;-0.037110873;0.12674345;0.099071324;0.036784098;-0.11584942;0.03753537;0.17768146;-0.17522325;-0.18146583;0.06506286;0.096275814;-0.1345141;0.17255276;-0.08879401;0.0831332;-0.009529284;0.16999036;0.20258789;0.024530472;-0.1419201;0.03179707;0.31422323;-0.16543476;0.35109228;-0.10794532;0.12172269;-0.13682218;-0.32925913;-0.040651362;-0.16894542;-0.21368271;0.08879561;0.066115014;0.15011801;0.1935515;0.06405855;-0.047004163;0.07715998;0.17879099;-0.050944265;-0.08429007;-0.08588683;0.27836308;-0.06649479;-0.08028698;-0.08279977;-0.12453749;0.10697003;-0.05771099;0.043147754;-0.090780415;0.08329013;0.10336136;0.15478471;0.075509906;0.14268045;-0.04284508;-0.11771438;-0.18976949;-0.14647393;0.0014717038;-0.22251092;-0.04440278;0.040313665;-0.055448268;-0.004614615;0.0074844304;-0.036725316;-0.16505653;0.09937872
-0.15960746;-0.2987014;-0.4574938;0.19731884;0.009310482;0.20177889;-0.20800008;0.04428355;-0.0014621053;0.1294819;-0.23081489;0.20561849;-0.024382003;-0.031719554;0.029343896;0.102815315;-0.073534526;0.3814637;0.092041746;-0.1221526;0.3704256;-0.2918671;0.107028015;0.35263777;0.15415844;0.07289199;-0.013976581;-0.047306616;0.08853269;-0.022229416;-0.06850718;-0.071245;0.030068116;0.14370802;-0.032781955;0.016156418;-0.05176293;-0.063301146;-0.072139986;0.10757214;0.09804656;-0.2503436;-0.3305496;0.043600436;0.0766414;-0.14746277;0.02043114;0.36256886;-0.021399092;0.05635232;-0.28264815;-0.07294905;0.21468303;0.064044654;0.058919694;0.04616714;-0.12383889;0.3130153;-0.15025079;-0.0061289435;0.1694068;0.047102924;-0.028640015;-0.017512001;-0.1365694;0.2668751;0.14451452;0.010436364;0.14216283;-0.5101174;-0.102508456;0.10247899;-0.10378665;-0.033317;0.04552837;-0.012993535;0.09733653;-0.27616605;0.32519805;-0.16600944;0.25547794;-0.08566766;-0.0024630167;0.14510098;-0.0077745966;0.22164461;-0.13637753;-0.17883663;-0.20656407;0.12320199;0.18072782;0.060090564;-0.24812467;-0.2900853;-0.04843008;0.3083098;-0.04373279;0.01810068;0.37761638;-0.091786124;0.065921165;-0.06974385;-0.14065586;0.18244801;0.10809745;-0.15065049;-0.09675209;0.047109447;-0.019172834;0.18083198;0.21462585;0.17010903;0.01916262;-0.29376882;-0.08775955;-0.14407527;-0.10424996;-0.14237705;0.2258743;-0.12846619;0.1875811;0.03708768;0.023641689;-0.049763653;0.11323168;-0.16740702;-0.5203624;-0.092822276;-0.23935498;0.072806396;0.0077194907;-0.13746919;-0.0073760184;-0.2377605;0.22968702;0.29257157;0.008698944;0.047844324;-0.35381576;0.05834133;0.057414968;-0.21904804;0.29003882;-0.0054026446;0.10910073;0.15659614;0.13503525;0.31191847;0.28647703;0.013140702;-0.20215997;-0.033393063;0.12621751;0.17353202;0.09496877;0.006189718;0.20150645;0.02203823;0.15647478;-0.031041939;-0.18732215;-0.06565415;0.33073154;0.03432898;-0.6371565;0.054943938;0.028232783;0.13378775;-0.007758651;-0.032319415;-0.18171494;-0.045665037;-0.07560154;-0.14947258;0.115575805;-0.03648167;-0.0071854875;-0.14704475;0.20283689;0.41413328;0.21740885;-0.2402401;-0.030409573;-0.01080235;-0.022287384;0.1985946;-0.46716094;0.28072146;-0.09208062;0.20201376;0.13793199;-0.13930687;-0.002078766;-0.20872758;0.20491764;-0.023162417;-0.015087657;-0.097496;-0.2531977;0.074799664;-0.13114314;-0.0751518;-0.092445485;0.11083438;-0.22021435;-0.018307297;0.035532534;-0.19055654;-0.15619443;0.02279685;-0.10775547;0.060631037;0.21379346;-0.013074401;-0.022412516;0.027876614;0.003863617;0.15978105;0.25860822;0.07207282;0.008940892;0.3898083;0.2416149;0.10976694;-0.40959775;0.13953063;-0.2053371;0.18598849;-0.42411932;0.124111034;-0.21028522;-0.09185649;0.05179927;-0.70244884;-0.08576395;-0.1013727;-0.35123557;-0.101842314;0.15343004;0.2578675;0.057491362;0.14715233;0.012303805;-0.145839;-0.13738123;-0.06640231;-0.22161539;0.15752974;0.13628119;0.18739113;0.05138031;-0.2958631;0.061238736;0.10123233;0.14647469;0.12922049;-0.036199357;-0.12389104;0.07727499;0.34122682;0.14489415;0.12791215;0.12224645;-0.25044653;-0.14401983;0.11977078;-0.19591665;-0.00070407084;-0.066234544;-0.001439668;0.13696988;-0.19405669;0.27923852;0.17749365;-0.060476724;0.09573495;-0.24700935;0.13352744;-0.12265414;-0.2623904;-0.0052129854;0.36230308;0.1068075;0.040939603;0.30854523;0.28048673;0.17941743;-0.038533673;0.26911318;0.13635194;-0.029158019;0.07001421;0.10009783;0.028705098;-0.008681666;0.001456529;-0.105038874;-0.23785919;-0.15426938;-0.23460755;0.24899;-0.06611649;-0.22312869;-0.09621016;0.095572494;0.028441127;-0.010385803;-0.023663837;0.092441894;0.0961837;0.5667124;0.14051713;-0.06675579;0.16717249;0.05619214;-0.0059093656;-0.07355068;-0.022416225;0.025460878;0.14049448;0.18700539;-0.17832759;0.0879893;0.18594563;-0.1052574;-0.122117266;0.34620807;0.2160368;0.110903464;0.13680126;0.009228624;-0.27463195;-0.05450912;-0.179225;-0.2797002;-0.064279065;-0.13264865;0.19598469;-0.061799046;0.21106106;0.12989433;0.026227992;0.110272765;0.3084697;-0.17080809;0.05975591;0.07417454;-0.040864706;-0.05508801;-0.20185755;-0.14792515;0.2632344;-0.12341631;-0.30523965;0.06934199;-0.020994402;0.022029934;-0.08521335;0.03984764;-0.26135346;0.018328086;0.14972372;-0.078569144;-0.6034056;0.031380024;0.05630454;-0.2426497;0.121415675;-0.0633831;0.19840553;0.115563;0.083389305;-0.026140757;-0.12599085;-0.61213964;-0.32148173;-0.21987309;0.11254359;-0.16757286;0.00874591;-0.18678954;0.34425285;0.025436291;-0.31330663;-0.01539557;0.26434588;-0.27597627;0.14081524;-0.0449864;0.14539295;0.0041182567;0.26100543;-0.378679;-0.05875849;-0.0066063697;-0.30510202;-0.09588088;0.27679527;0.011800443;0.068048395;-0.1692561;-0.3230038;-0.045005154;-0.14612146;-0.04252794;0.30635372;0.20209084;0.13515344;0.03706725;-0.12009078;0.053689294;0.08794515;-0.09947469;0.15255491;0.014269976;-0.18877518;-0.25920904;-0.21047503;-0.12726413;0.15109777;-0.07284764;0.0018324013;-0.07457849;0.047808446;0.1210981;-0.3946844;-0.031022139;-0.18199602;-0.18699159;-0.5437053;-0.10897057;0.2649432;0.08742079;-0.044664204;0.10066431;0.053716272;0.04410009;0.1194756;-0.046223078;0.28977457;0.09676423;-0.040007625;0.24573962;-0.07718644;0.24320813;0.19595815;0.1917505;-0.06374421;0.123744294;-0.08724488;-0.08213893;-0.036530603;0.20328209;-0.053928517;-0.09657152;0.35974178;-0.00606266;-0.12159985;-0.4355573;0.17592469;-0.08832267;-0.207733;0.11020659;0.21781288;0.05524335;0.13362545;-0.019575186;-0.08254734;0.13421237;0.2693292;-0.35394618;-0.21213393;-0.18930686;-0.14602718;-0.04823938;0.19735359;-0.026199492;-0.2833453;0.12171898;0.23033401;-0.06620344;-0.019090703;0.057886124;-0.15077244;0.18251094;0.09249379;-0.08073123;0.11698;-0.15957433;-0.04479817;0.24693726;0.01678506;-0.11736104;-0.20212856;-0.12550837;0.12264081;0.24851193;-0.725433;0.048559032;-0.054964855;-0.1897859;0.12778023;0.123508856;-0.08981137;-0.018253237;0.02340239;-0.06063287;0.1514405;-0.1580477;-0.02453121;0.046609554;0.059728716;0.18546906;-0.09114202;-0.21771505;0.105770424;-0.17085741;-0.12284547;0.12595756;0.11330847;0.16850924;0.016802385;0.1492995;-0.07262017;0.01396704;0.018751988;0.25085497;-0.13477431;-0.025998728;0.016474437;0.043877155;0.053497564;-0.21129318;-0.51474816;0.04649901;0.07934959;-0.1815967;0.18427603;0.32732782;0.10439597;0.111961566;-0.12623584;-0.10919969;0.32498482;0.057452295;0.052041814;0.06843885;-0.15107784;0.36752415;-0.018545698;-0.07510353;-0.083586596;-0.026611708;0.18588701;-0.104528554;0.0443551;-0.103075184;0.08494408;-0.111022964;0.08773158;0.115316786;0.06683318;0.050805796;-0.300838;0.016355101;0.015741888;0.2992869;-0.29153582;-0.17532359;0.16608979;-0.007433159;-0.21778682;0.12464285;0.12627527;-0.076641075;-0.16760278
-0.16539879;-0.35215402;-0.45205483;0.31015292;-0.0036499493;0.03613302;-0.1721983;0.08534245;-0.16346648;-0.13610485;-0.06980601;0.11547023;0.18758911;0.08856322;0.15917596;-0.019698255;-0.04991991;0.11991368;0.12853892;-0.009676251;0.0647745;-0.351668;-0.19544156;0.17143956;0.3315319;0.0028652574;0.059954125;-0.08767923;0.081649326;-0.1086931;-0.12214821;0.0058734585;-0.13557948;0.01898174;0.20325962;0.21737498;-0.14766197;-0.16898873;0.017111175;-0.01575642;-0.051935002;-0.1339956;-0.21800202;-0.020292314;-0.10850032;0.09992704;0.2665994;0.045536377;0.04046811;-0.09365769;-0.13004276;-0.049006317;0.40030187;-0.000868689;0.3097969;-0.04794873;-0.19605932;0.19813274;-0.052331954;0.11274349;-0.027390411;0.33989838;-0.047271974;-0.15338986;0.16040865;0.12227161;0.042333752;0.025354968;-0.015210707;-0.32999924;0.14965764;-0.08559855;-0.043735117;-0.0055304607;-0.20795299;0.024607018;0.028615078;-0.18213218;0.12006925;-0.2890577;0.39118966;-0.09214049;0.2109167;-0.21800105;-0.12160105;0.18583772;-0.031244775;-0.090566255;-0.09998044;-0.003887709;0.13511182;0.15009035;0.0735238;-0.30166692;0.2948748;0.111107364;-0.116297826;-0.13390781;0.27474204;0.10853047;0.16792612;-0.060869817;0.052805327;-0.088238105;0.14421153;-0.067287095;-0.09266649;-0.059731197;-0.11967973;0.02852753;0.1402931;-0.12855643;0.08186108;-0.22772545;-0.060383197;-0.17494573;0.20095222;-0.64634323;-0.045215007;-0.09683448;0.20716636;0.1307276;-0.11155811;0.07308289;0.21145071;-0.10661062;-0.18567406;0.009166785;-0.25390965;-0.15741286;-0.011790243;-0.15479746;0.22450086;-0.2866695;0.25126192;-0.078932144;0.16490611;0.16409655;-0.29685673;-0.10261961;0.14762671;-0.023617325;0.06660291;-0.112155974;-0.43013772;0.21656977;-0.09559288;-0.018291974;0.17222874;-0.02821575;0.096819565;-0.25782654;0.0061143246;0.101429135;-0.19335374;-0.0062681832;-0.07981374;0.20473158;0.03074294;-0.19169801;-0.089545004;-0.3883279;0.115262;-0.023262568;-0.18360265;-0.018066658;-0.107914336;0.10116188;0.023821315;-0.054388475;-0.4164906;-0.07492091;-0.08460013;0.11461731;0.19104333;-0.056408983;0.31891245;0.0155051695;0.090755224;0.22311878;0.09367724;-0.34706086;0.08369273;0.14249536;0.13345449;0.16276605;-0.12645532;0.11413487;-0.2116763;-0.047351427;0.07186145;-0.109755315;0.009331567;-0.14171687;-0.0027304972;-0.041493952;0.016794905;-0.3879187;-0.14303903;-0.08820502;0.08398956;-0.03928758;0.270316;0.10987646;-0.30978066;0.07466471;-0.12903118;0.17018196;-0.2175056;-0.066676825;-0.23142193;-0.3349905;0.21336687;-0.10284304;-0.13314193;0.058382824;-0.15384051;-0.06348809;0.14358483;0.086947;-0.28050002;0.3195413;0.3073443;0.23726098;-0.052426755;-0.14997742;0.2738104;0.13501483;-0.3547274;0.11472149;-0.033378776;-0.09614588;-0.2137259;-0.4334584;-0.23460749;0.15079749;-0.019508418;-0.09791888;0.061769485;-0.012429539;0.18702812;0.0099186525;-0.16983362;-0.0018422625;-0.015158537;0.123532854;0.10087518;0.05005176;0.26947248;0.34664062;-0.052623518;-0.14471298;-0.22209455;0.10948504;0.26104364;-0.10466038;0.029074352;0.3328203;-0.078194425;0.34593573;-0.054432187;-0.022820722;-0.021299757;-0.0071940664;-0.08881813;-0.13630188;-0.09539033;-0.10858859;-0.12644915;-0.054201037;0.29976246;0.04562862;0.11352118;0.113397345;-0.2231028;-0.036887653;-0.30379;0.0026471622;-0.08220465;-0.46249795;-0.023679212;0.060621988;0.5273942;0.06567717;0.19264443;0.21289386;-0.08111046;-0.15690583;0.0673627;-0.16580546;-0.18045728;-0.05881025;0.22837454;-0.0021697695;-0.09072062;-0.016057227;-0.14594409;-0.10176392;-0.056358274;-0.16672853;-0.007760922;0.00038564322;-0.027429393;-0.03598598;0.38801935;0.060166884;0.11242533;0.008906868;-0.08910762;0.049401615;0.25429165;0.021690158;-0.10446097;0.0031405173;-0.120565586;-0.18006353;-0.08667224;-0.118459255;-0.034651972;0.05564237;0.24227381;-0.09306972;0.22778086;0.06651881;-0.39961246;-0.24533732;0.26898685;-0.075778276;-0.16758695;0.30511722;-0.16691624;-0.44915438;-0.1254745;-0.097735584;0.12830225;-0.1000741;-0.07868564;-0.070996635;-0.08016961;0.16958557;-0.12431303;-0.16447179;0.34934565;0.008355999;-0.26775715;-0.15836364;-0.064171776;0.13829257;0.075259864;-0.12781505;-0.10865584;0.12178148;0.10068321;-0.05581618;0.37356853;-0.22814327;-0.09692063;-0.11978408;-0.07903645;-0.05340774;-0.1377828;0.088238634;0.27832672;-0.48844668;-0.07177014;0.27295238;0.030382583;0.027009262;0.076182835;0.16543788;-0.031048436;0.22251555;-0.32454234;-0.20154339;-0.23160997;-0.11749737;-0.26459062;0.13420294;-0.12656458;0.15505332;0.19774194;0.32554096;0.080692865;-0.14858341;0.012957038;-0.11750419;-0.22211029;0.24473733;0.0647058;-0.05415746;-0.027618043;0.20635906;-0.43453968;-0.14519985;-0.18190469;-0.40381274;-0.16631952;0.4037961;0.13338347;-0.06594389;-0.04107181;0.18391368;0.21570443;-0.11728972;0.102153465;0.2731606;0.08808085;0.103500634;0.015101472;-0.113502786;0.14187375;-0.048130076;-0.0926536;-0.14723736;-0.27573422;-0.18177849;-0.26203966;-0.1662332;0.0018545426;-0.097300254;-0.25910783;0.009632297;0.12737387;0.15156865;0.3838534;-0.03607017;0.06375549;0.11337808;-0.09953236;-0.35873005;-0.051280998;0.20150767;-0.050792176;-0.03738854;0.15729003;-0.057796143;0.004790428;0.120329425;0.01956221;0.18635252;-0.042720184;0.113888554;0.1263348;-0.01260143;0.2838506;0.06178413;0.344346;0.13911645;0.2758533;-0.22848226;-0.118344024;-0.103629574;0.18046506;0.075360715;-0.061600253;0.25352916;0.027482985;-0.5618917;-0.27634302;4.0919083e-05;0.084637724;0.13485667;-0.21179755;0.26070747;-0.015566698;0.27989393;0.109281324;-0.5451531;0.024129832;0.08625601;-0.31671235;-0.039214388;-0.13137662;-0.014981928;0.050098084;0.1279053;0.46395114;-0.020793129;0.0065689604;-0.25697646;0.10706214;-0.007032959;0.02750625;0.2133054;-0.025131196;0.07104362;-0.1447448;0.002445771;-0.08575;0.00032928886;0.20682487;0.1446106;0.07999597;0.0044756737;-0.04064244;0.08135031;0.16447818;-0.20982479;0.10929011;0.03952494;-0.045184255;0.08168486;0.26727122;-0.058904026;-0.11197742;-0.20087841;0.29885578;0.0031347717;0.090807244;-0.22914957;-0.10232173;0.12339336;-0.053004194;-0.13005917;-0.2196645;0.13765137;-0.093040176;-0.2952347;-0.104134224;0.10122302;-0.07520171;0.08186526;0.5883756;-0.14328429;-0.14248557;-0.13742118;0.059892748;-0.08190135;0.01018997;0.1996959;0.1753053;0.12161403;0.07710257;-0.3369797;-0.15160155;0.15128045;0.06972135;0.21231636;0.3742273;0.006229874;0.26108557;0.09052697;-0.15852065;-0.08076892;0.07614516;0.10426254;0.3798825;-0.19030343;0.2548846;-0.058455244;-0.081968084;-0.14145847;0.0561305;0.18213955;-0.057182327;-0.13476413;-0.12216764;0.056679364;-0.03640489;-0.054050326;0.010870183;-0.016738469;-0.18427248;-0.33609405;0.049227893;0.1144419;0.09851874;0.3117292;0.20986636;-0.12581974;-0.25071886;-0.3181345;0.13612568;0.0993145;0.050208144;-0.11011479
-0.18872644;-0.12635936;-0.3727108;0.18959804;-0.06345997;0.18974899;-0.18135287;0.1026442;0.072450735;-0.09199476;-0.040289447;-0.0761516;-0.13101101;0.14242451;0.022646796;0.24985899;-0.029168291;0.24703272;-0.16938567;0.10165255;0.4307932;0.19517049;-0.055120967;0.015442147;0.21779314;0.0027989314;0.41182488;-0.19799827;-0.044754162;0.019850142;-0.04162854;-0.21518674;-0.14004709;-0.15193094;0.012540449;0.19533212;-0.27215374;-0.17037195;0.10449036;0.01605246;0.051162712;-0.05795575;0.043598246;-0.035515394;-0.14304164;0.042445518;0.12256023;-0.048126675;-0.15560965;-0.2032256;-0.2199091;-0.15727083;0.18833841;-0.017175939;0.017280404;0.042598326;-0.0797479;0.37548596;0.07309303;-0.11148917;0.078165166;0.25614488;0.05208802;0.0063053835;0.21270138;0.022610305;0.014085012;-0.06936045;-0.10100446;-0.32828364;0.021541689;0.02537343;-0.17071305;-0.23644286;-0.048569057;-0.18816039;0.07233007;0.0778323;-0.04898839;-0.07017441;0.2792362;0.028465768;0.2476159;0.11512588;-0.1097319;0.008345004;0.09314475;-0.13955654;-0.13277963;0.027890995;0.24663292;0.18512382;0.14291736;-0.48354888;0.27551937;0.2563152;0.05476418;-0.046083238;0.18512045;-0.19514048;0.2125127;0.0058791405;0.039919827;-0.0905414;0.11370115;-0.014457977;-0.0076962356;-0.03074507;0.07694394;0.037934233;-0.106280096;-0.13959053;0.047183007;-0.17788875;-0.061301813;-0.027942544;-0.005898567;-0.48593524;0.034123234;0.279627;0.38630775;0.06633271;-0.004227156;0.20612752;0.068972446;-0.28152207;-0.08655376;0.15230903;-0.2783239;-0.16827706;-0.064711414;-0.29539648;0.18945388;-0.27176312;0.15834405;-0.09018711;0.0324417;-0.0017905169;-0.22540455;0.07864367;-0.14091031;-0.0722587;0.13583934;-0.0021453653;-0.41235074;-0.0027557556;-0.07544491;0.27932236;0.07243326;-0.22647269;0.1744736;-0.07638214;0.09766337;0.23646103;-0.34821805;-0.088533774;-0.07440516;0.010997931;-0.011460889;-0.04935545;-0.13076912;-0.29824224;0.2604592;-0.19393542;-0.34232327;0.14672609;0.007255224;0.05719691;0.19554663;-0.047541417;-0.28653008;-0.1328667;-0.07710138;0.18757023;-0.06512127;-0.15763411;0.32297856;0.008553992;-0.0800384;-0.25629663;0.045934435;-0.18083645;0.020954559;0.0960854;-0.18212596;-0.033575773;-0.32582602;-0.20329028;-0.16690908;0.03491279;-0.11011577;0.043141443;-0.3344341;0.24657147;-0.009741248;-0.03762861;-0.13914536;-0.40752736;0.017876789;-0.40355033;0.25885692;0.10562546;0.14327598;-0.12630628;-0.029197557;0.039862953;0.007170599;-0.04069685;-0.19848804;0.018150505;-0.07949472;-0.1215544;0.030311804;-0.0959825;-0.019289268;-0.10083754;0.16481137;-0.019877765;-0.18912916;0.29265237;0.0029209103;0.21182214;0.38525516;-0.0014246124;0.082352854;-0.17676818;-0.11552169;0.16429666;0.105941564;0.043315534;0.06542099;-0.03865695;0.074015476;-0.36046112;-0.030182151;0.05063362;-0.19648916;-0.15798467;0.005114585;0.028872428;0.001676223;-0.033490866;-0.22228864;0.025611471;-0.04009506;0.109302975;-0.030740762;0.0045722807;0.27084026;0.24989733;-0.005117291;-0.27673686;-0.06148976;0.14949317;0.095241345;-0.03215575;0.03774623;0.25884637;-0.034930006;0.01154953;-0.052609235;-0.07444063;-0.050343215;-0.11350992;-0.20466898;0.05837873;-0.024170954;-0.13222966;0.12630951;0.16222656;0.027760519;0.15557747;0.20238402;0.080966644;0.21926264;-0.1538787;-0.1271558;-0.084687866;-0.20539267;-0.31930256;-0.085811846;-0.018712027;0.4328106;0.1206197;0.18104158;0.055841845;-0.1263993;-0.16267149;0.037219677;0.021441896;-0.042154916;0.014735323;0.18617705;-0.10125121;-0.05255345;0.12216885;0.004874603;-0.28415874;-0.04972018;-0.14634244;0.1466335;0.089312434;-0.3352328;0.01851361;0.22927685;-0.09508871;0.09171067;-0.010322545;-0.023733145;0.22506404;-0.07819239;-0.025745964;0.04763763;-0.0018157671;0.170353;-0.16674027;-0.3379512;-0.06565049;0.01030951;-0.077090055;0.04497813;0.09513237;0.28102183;0.17194048;-0.25137058;-0.21216796;0.06130832;-0.09021573;-0.06427405;0.2824977;-0.042082172;-0.11581616;-0.11347426;-0.19869962;0.09602014;-0.3755324;-0.18497963;0.19710934;-0.29000595;0.13246217;0.16244105;-0.09449742;0.09413886;0.05066369;-0.1090378;-0.20048623;-0.029446855;0.12510557;-0.031924594;-0.2160333;-0.39714393;0.22594652;-0.029300889;0.034829326;0.4180381;0.28211275;0.06186574;-0.057233572;-0.019489387;-0.40138248;-0.15991023;0.163504;-0.040014893;-0.47500566;-0.21963285;0.35628185;0.039427783;0.12314953;0.09944478;0.0818997;0.21166137;0.08273577;0.043697212;-0.13720846;-0.36026356;-0.27163142;0.060179785;0.056450345;-0.20093028;-0.169153;0.007628448;0.25195435;-0.3332257;-0.13124542;-0.09111229;0.15842608;-0.11537097;-0.19754778;-0.15206705;0.14108722;0.04082328;0.28344023;-0.39929736;-0.1763451;0.14548378;-0.3648334;-0.097136475;0.22541153;0.14856616;-0.05674744;-0.015566212;-0.070006154;-0.015658686;-0.2271041;-0.041727625;0.44118318;0.26580745;0.32758278;-0.041612305;-0.15418296;0.094404295;0.07078553;-0.26846948;-0.042138573;-0.1498954;-0.08864352;-0.18960461;0.054342624;-0.116952024;-0.10080084;-0.22023602;0.032419465;-0.09894077;0.06007933;-0.15884118;-0.18900408;0.031193392;0.11244395;0.19224094;-0.20793265;-0.13199002;0.039819695;0.09537364;-0.018472984;0.22706464;-0.106976196;-0.05897363;0.011367607;0.0979224;0.15661256;0.042526845;0.06213725;0.3854038;-0.20154397;0.29642037;0.3128645;0.24192604;0.35868084;0.2926763;0.045246072;-0.038450144;0.015604389;-0.111974575;-0.059499342;0.23459627;0.10255594;0.098435864;-0.07247833;0.0064460896;0.088412024;0.19703473;-0.5147659;-0.23384385;-0.06375342;0.1217187;0.10416403;0.044417925;-0.25813264;-0.09200218;0.04908438;-0.1308832;-0.020744106;-0.16873987;0.07768317;0.0916845;0.031205019;0.24102539;0.14474835;0.13897084;-0.00598872;0.11389667;0.08018695;0.00086156593;-0.092094325;-0.12319956;0.17431192;-0.038273625;-0.032793395;0.065541044;0.049941227;0.03153677;0.18950303;0.018442627;-0.062276166;0.17734532;0.018290218;0.13692802;-0.41005158;0.18907659;-0.119093224;-0.14808345;-0.43345907;0.18185528;0.18457934;-0.4264433;-0.15185194;0.14692542;-0.12722091;0.12309646;-0.12488199;-0.14788042;0.07082826;0.09907254;-0.2990094;0.04217721;0.3512563;0.04052693;-0.112287834;-0.13688344;0.18897378;-0.122191094;0.20216592;0.17469312;-0.27331713;-0.058784086;-0.022378407;0.043978088;-0.1877366;-0.12818994;-0.09906891;0.13290814;0.20146884;0.042574268;-0.3734857;-0.1953098;0.061011758;0.2167373;0.0031800428;0.31329072;-0.1263573;0.17303367;0.10737809;-0.07121752;5.8477417e-05;0.11626091;0.17139457;0.11284356;-0.23302071;0.25867593;-0.23997146;-0.13928479;-0.15964773;-0.05698824;0.32193175;-0.111936346;-0.14312373;-0.0026913895;-0.0037830728;-0.14007379;-0.026484845;-0.010231759;0.13641098;-0.113124296;-0.34703928;0.10174374;0.21262376;-0.027232958;0.12903109;0.38270786;-0.11792778;-0.13975027;0.1600915;0.012812111;0.18370388;0.040404394;-0.22508982
-0.14968768;-0.2676636;-0.10347397;0.25596163;-0.008546087;0.17235316;-0.0739784;0.09249184;-0.012968081;-0.0038978232;-3.257027e-05;0.1216986;-0.145924;0.195728;0.0031409746;0.13416742;0.21415564;0.04228027;0.06515102;0.17198788;0.3797825;-0.21718511;-0.16659741;-0.10510529;0.25906956;0.2156176;0.023169784;-0.04787912;0.04569536;0.042465396;-0.0046047466;-0.25818655;-0.06506801;-0.18894733;0.07322985;0.37739897;0.11181191;-0.06620628;0.18505648;0.075182706;0.31914592;0.2637674;-0.011090378;-0.14451563;-0.21416922;0.06593091;-0.15855414;-0.058619063;-0.083963625;-0.3346794;-0.2091716;0.12358479;0.26424602;-0.18161382;-0.04394408;0.3283478;0.115944535;0.04373333;0.074507214;-0.06377432;-0.037988264;-0.025426574;0.27297467;0.09350341;0.2850983;-0.028838824;-0.084859684;-0.0025656251;-0.15984991;-0.40670386;-0.13600779;-0.051551666;0.010971913;0.30240148;-0.25101402;0.030800631;0.030179774;-0.25495553;-0.12706198;-0.09685487;0.17924732;0.08961272;0.0024156685;-0.049425416;-0.073115885;0.26091248;-0.114635706;0.029430043;-0.051300604;0.13142659;0.167227;0.093233645;-0.008460105;-0.47104296;0.04192302;0.1308281;-0.09449076;0.17255597;0.18670195;-0.23829685;0.18697444;-0.10982327;-0.022892537;-0.09212887;-0.07305762;-0.13805605;0.1219843;-0.056473408;-0.02788424;0.09989888;0.0013106506;-0.16551903;0.1609575;0.09309475;-0.1883093;-0.2518741;0.023522919;-0.3827719;-0.04800804;0.16719916;0.11841534;0.06766928;-0.06621282;0.11544775;-0.03494782;-0.43398315;-0.003179501;0.25175148;0.23947869;-0.10832585;0.1444862;-0.3484991;0.13723007;0.2633353;0.114602946;-0.13353366;-0.27759305;0.12896788;-0.08859052;0.18894646;0.10501173;-0.10878797;-9.027573e-05;-0.05273667;-0.035417862;-0.33197194;0.0030895239;0.114856325;-0.09412513;-0.21050984;0.021169674;-0.048876334;0.2916101;0.101210505;-0.3304474;-0.15836312;-0.185657;0.19292977;-0.23480858;0.08991096;-0.08927479;-0.2240368;-0.013540742;0.0030121738;-0.17326057;0.22382227;-0.19688167;0.06878742;-0.08689293;-0.046283796;-0.10460937;0.1444845;0.21307974;0.20569478;-0.116574384;0.06882557;0.34435597;0.07867617;-0.27790013;-0.38385233;0.011053705;-0.27439663;-0.12169809;0.20359328;-0.08413997;0.24408935;-0.18700892;-0.14371225;-0.13353102;0.04292388;-0.12925172;0.097541064;-0.058307197;0.077149026;-0.08433552;-0.030971177;0.10335774;-0.15898328;0.030311624;-0.12052841;0.08500241;0.25835365;0.100101404;-0.028713232;-0.10764227;0.054514777;0.008485861;-0.06472136;0.15163307;-0.15323809;0.08976114;0.10525969;0.007876466;0.051778432;-0.17321923;-0.34099257;-0.14344719;-0.14800335;-0.28004903;0.4379513;0.045431234;0.15942433;0.3109888;0.2610143;0.14176956;0.0027506275;0.25161108;0.13025348;0.050742555;-0.05961811;0.26515445;-0.06150605;-0.09248927;0.06322649;-0.15166949;0.1269243;-0.20659462;-0.14452448;-0.08337117;-0.13008642;0.1934866;-0.095465444;0.05621843;-0.034551635;0.21617737;-0.06850288;0.10033419;0.018457472;-0.034233473;0.2066769;0.08673356;-0.05153844;-0.07127707;0.2758983;-0.06531967;0.14154437;0.009702473;-0.034889665;0.117379434;0.09526907;0.14672688;0.121003956;0.10626464;0.0799689;-0.08728539;-0.07392796;0.014809582;0.16516095;0.08369757;0.24552745;-0.023829326;-0.053638984;-0.13320877;0.19494392;0.03357611;-0.20507449;-0.18362316;0.008826462;-0.039158612;-0.22795196;-0.05967904;-0.17264722;0.29460505;0.1924754;0.34815562;0.22778094;-0.44415587;-0.04783405;0.049518403;0.13201325;-0.07220165;0.21658482;0.10807485;0.02834992;-0.051134557;0.108590566;-0.010903052;-0.41972023;-0.0017610282;0.04487058;-0.05306435;0.21414743;-0.16952166;0.019172706;0.18732323;0.06254428;-0.07061787;0.026002072;-0.26131132;-0.0338781;-0.41542482;0.051023263;0.09074963;0.22400321;-0.20566805;-0.20458016;0.078817025;-0.081832215;0.039988276;-0.06784204;0.15897045;-0.023897257;0.17668721;0.15146357;-0.08585738;-0.2872365;0.11654889;0.15605083;0.07598923;0.12723729;0.22048551;-0.19106407;0.063912064;-0.19844408;0.16547261;-0.23953146;-0.20871016;-0.49212024;-0.025526615;0.09860447;0.16534445;0.062277213;-0.04417911;0.073870495;-0.26511857;-0.02304893;0.056459654;0.058965366;-0.062918104;-0.10506569;-0.3319482;0.022893341;0.034754615;0.08930924;-0.1633996;0.25245684;0.15928416;-0.0010077812;0.15980102;-0.21857135;-0.3073194;0.12994765;-0.101908736;-0.4889061;-0.13755724;0.075005926;0.058470752;0.14102086;-0.17364712;0.038110003;0.36223492;0.110632226;-0.3589037;-0.16140437;-0.14459717;-0.33148256;-0.053785037;0.03896325;0.0049928785;-0.1744984;0.1809534;0.020350525;0.005623919;0.09235196;-0.08228422;-0.120073415;-0.013905079;-0.408365;0.0417198;0.109896734;0.10491116;0.13438693;-0.26122263;0.00817268;0.15016724;0.002387283;-0.08128866;0.07871889;0.10314903;-0.017140755;0.017620929;-0.31333062;0.006654522;-0.097769484;-0.07793426;0.18494055;0.10559956;0.108296305;-0.17243853;0.05386357;-0.07892324;0.20326523;-0.5906438;0.28919503;-0.14687744;0.10012824;0.061333455;-0.080469;-0.078158855;-0.10560907;0.1180486;0.11774628;-0.018892346;0.018585507;-0.31055793;-0.046635617;-0.06556501;0.08107856;0.13157053;0.037206523;-0.037592944;-0.02543876;-0.290273;-0.009814479;-0.040397383;-0.09934956;0.03924584;-0.3761313;0.18440582;0.091380075;0.055546585;0.1126899;0.37226135;-0.298984;-0.012997602;0.4876816;0.25733665;0.2638375;0.30647597;0.068263896;-0.023365803;0.1777059;-0.01359729;-0.16890116;0.19867268;0.032452732;0.20278738;-0.44442382;-0.035578784;-0.024383908;0.15213631;-0.57956743;-0.23095474;0.04854706;-0.05109722;0.017810106;-0.07123613;-0.17932475;0.08775817;0.05048768;0.19494052;-0.10062848;-0.18070878;0.13240767;-0.05015004;0.18495245;0.24822247;0.20455429;0.08838587;-0.30461925;0.06166955;0.08388551;0.1526339;0.30383047;0.114010565;0.23523735;-0.067186356;-0.43389103;0.045651074;0.03320689;-0.09071465;0.1680796;0.08919041;0.077981934;0.10613156;-0.08159097;0.09835606;-0.27506408;0.26353377;-0.317034;-0.10387061;-0.26824257;0.0797303;0.13960893;-0.16911396;-0.29583278;0.07188887;-0.17993893;-0.005038125;0.11938362;-0.15383767;-0.041772354;-0.111038156;-0.25566363;-0.0902515;0.17413968;0.121493086;-0.49989593;0.3104757;0.2194954;-0.24411564;0.095969535;-0.28059292;-0.38566843;-0.14778253;-0.032947004;0.1036322;-0.14140907;0.036418263;-0.20740385;0.06282366;0.35596845;0.045649964;0.009867117;-0.107026726;0.15629366;0.16940318;-0.036114868;0.029534228;-0.19142865;0.20165671;0.10244903;-0.08304592;-0.04955805;0.13810794;0.33027947;0.09480294;-0.20028646;0.1763953;-0.1857706;-0.19178627;0.23179145;0.24016123;0.008156446;-0.05501603;-0.3182157;-0.07845362;0.1922665;-0.018017558;0.121398784;-0.031108262;-0.071649514;-0.19739327;-0.31841704;0.06818676;0.19901699;-0.2011753;0.044713315;0.086081386;-0.1973246;0.18261383;-0.2167758;0.20315129;-0.042585798;0.05004604;0.099219844
-0.016154775;-0.2752406;-0.27868196;0.07199008;-0.08286536;0.08875824;0.088224456;0.10881575;-0.09028479;-0.29704797;-0.16393903;0.13341877;-0.34232685;-0.16768302;-0.061660122;-0.031190174;0.3840239;-0.002935453;0.1301341;0.22477768;0.1832176;0.018708782;-0.21148299;-0.16264673;0.1873813;0.17105138;-0.10693725;-0.07405443;0.10817987;-0.081526764;-0.15391329;-0.10833399;-0.14062966;0.026516048;0.2936383;0.30833423;0.029472776;-0.15780057;0.098472275;0.042792924;-0.059097946;0.3099244;0.1195573;-0.27216974;-0.3274911;0.25504762;0.11261836;-0.059613194;-0.032024663;-0.16139758;0.009367163;-0.13192558;0.1714791;-0.33884257;0.007768745;-0.12122619;0.089953884;0.1254703;0.104777135;0.17639117;0.112839915;-0.15181224;0.10216574;0.19372593;0.42959714;-0.06728917;-0.03190583;-0.1455379;-0.23698701;-0.6057031;-0.0080414405;-0.12582253;-0.050363924;0.10354061;-0.3026398;-0.05760635;0.010818033;-0.20373866;-0.053302165;0.042165086;0.3617581;0.15495448;0.14604165;-0.04025663;0.074867725;0.24209082;0.08568537;-0.13180535;0.02122158;0.14613076;0.22623453;-0.03957718;0.028258095;-0.24554656;0.09552647;-0.06664075;0.050495613;0.037906487;-0.10260535;-0.15380514;0.33157372;-0.20516235;0.32362193;-0.2271546;0.012859375;-0.07160612;0.10218023;-0.10002123;0.12574574;0.07977801;-0.008405198;-0.27742615;0.024038399;-0.107770555;-0.096339926;-0.3315732;-0.15072407;-0.06774027;0.17628884;-0.0028204876;0.1990538;-0.18297647;-0.28413752;0.106548205;0.067207366;-0.057622638;0.002526204;0.31340635;-0.2269976;-0.13451856;0.14692879;0.03138578;0.28351793;0.069383;-0.08424949;-0.45760778;-0.11416706;-0.20602119;-0.27856106;0.4054588;0.09923145;-0.07432938;-0.12696865;-0.052474737;0.14423358;-0.24234222;0.05591678;0.08037046;-0.25190485;-0.22917947;-0.082010575;-0.087929554;0.06631648;0.15904646;-0.13090375;0.0027997878;0.08746574;0.10875651;-0.10772724;-0.041763417;0.10246149;-0.02425118;-0.4753622;0.14557014;-0.3571823;0.23933212;0.28449228;0.19001327;0.073003024;-0.056512;0.054692715;0.10908421;0.071606666;0.11337139;0.03400427;-0.11933091;0.38231492;-0.06766361;-0.2202455;-0.048700456;-0.20515846;-0.10676884;-0.060629826;0.032337803;0.1409515;0.10849695;0.28513056;-0.13662595;-0.28458616;-0.033141904;-0.23976296;0.118051074;-0.023698704;0.056581423;-0.115910456;0.0073369835;-0.23564406;-0.36977914;-0.18755338;-0.20712371;0.033507526;0.2533729;0.23182495;-0.13496733;-0.49482432;0.14404275;0.2166935;0.1055717;0.16509248;0.20586315;-0.037265036;0.062284995;0.22296631;0.105861716;-0.32227027;0.009045076;-0.20406857;-0.14120825;-0.073335245;0.027906906;0.06207594;0.22115952;0.27661255;-0.08817671;0.17108582;-0.08205126;0.024282273;0.069100395;0.11934298;0.00045242868;0.15852785;-0.022550318;-0.27397662;-0.1706021;-0.22057225;0.09109987;-0.24250689;-0.076674156;0.08193869;0.028566739;0.11653709;-0.108860426;0.2589208;-0.050128154;-0.0039515286;0.21535751;0.077341646;-0.16389334;-0.08317481;0.006311133;-0.11416312;-0.17933817;0.13666475;0.31135207;-0.10130149;0.26811543;0.09633698;0.11413131;0.003785439;0.16215993;0.092720434;-0.10251977;0.08798223;0.10723918;-0.16630778;0.060235314;0.027540177;-0.048854932;0.02895329;0.18931983;-0.068368085;-0.030128684;-0.08082982;0.16052064;-0.1568905;-0.046521157;-0.08845052;-0.023494057;0.00015900526;-0.34566352;0.09238622;-0.2430542;-0.009679924;0.0981517;0.21386743;0.09719438;-0.15166116;0.12749285;0.16542846;-0.015204635;-0.12532519;0.104287736;0.04350082;-0.015784023;-0.27125725;0.15671837;-0.0693628;-0.20768389;-0.16118681;0.16498584;0.021536803;0.296381;-0.025720024;0.006552789;-0.12935722;0.2512218;0.12721857;0.009904435;-0.09914267;-0.13413735;-0.05375601;0.16901186;0.033165626;0.07760841;0.014645473;-0.07809191;0.019642185;0.003940192;0.07021211;-0.29016113;-0.109446436;0.009872028;-0.02946257;0.26144508;0.034207143;-0.028179342;-0.011751322;-0.02849047;-0.110419884;0.13283259;0.19891673;0.05879461;-0.054286484;-0.12175634;0.0662633;-0.14626041;-0.08003304;-0.28990492;0.06734553;-0.020912115;0.3162562;-0.055260655;-0.010496559;-0.11440796;-0.25498998;-0.07878284;-0.0902724;0.20678313;0.05126863;-0.093681864;0.19639;0.16626383;-0.093557425;0.27796665;0.11925951;0.117426984;0.09347782;-0.0908146;-0.14951342;-0.22490977;-0.100633785;0.02892375;0.310495;-0.19966312;0.0727407;0.19857147;0.25602946;0.10209467;-0.098263115;0.059319988;0.012805535;0.06224141;-0.27833718;-0.2595874;-0.088151425;-0.07440347;0.05586132;0.122692965;0.038095616;-0.21556814;0.0146818105;0.08969696;-0.0732888;0.14941348;-0.07147329;0.22392662;-0.04124853;-0.05395601;0.101291;0.055624772;0.105337545;0.28630516;-0.10159905;0.0958226;0.08689993;0.12862994;-0.11406991;0.22341914;0.19387631;0.072234295;0.016583074;0.17247069;0.0510513;-0.13856757;-0.13220167;0.054615006;0.0623484;0.12778543;-0.2456348;-0.43959963;0.12536742;0.2036199;-0.5322605;0.22633645;-0.17922892;0.18724386;-0.085682265;0.06931344;-0.022268105;0.06117866;0.12642688;0.104555294;0.06539655;0.19329657;-0.24964128;0.28618836;-0.12954418;-0.015241689;0.045852553;-0.0046594352;-0.09905416;-0.0191021;-0.07444026;-0.12321034;0.11475945;-1.1388001e-05;0.30877683;0.013722684;-0.07399085;0.02912683;-0.0025695413;0.15532827;0.19949794;-0.29085585;-0.108111136;-0.24666199;0.059930936;0.040136185;0.15036646;0.19810714;-0.03948867;0.21659814;0.015591376;-0.08375426;0.24139336;0.043838844;0.15491447;0.046992887;0.15556698;0.06641428;-0.01673166;-0.70374364;-0.105599895;0.22418974;-0.012296626;0.09715511;0.043018397;0.10155183;0.10516553;0.13710716;0.21328184;0.06806963;-0.16170253;0.013412008;-0.014565838;0.20081767;0.22432952;0.15539683;-0.020955727;-0.3519494;-0.26440322;-0.12464219;0.03343685;0.16204268;0.15425466;-0.058007643;0.13734733;-0.15005594;0.09638037;0.117632195;-0.033155095;-0.035496827;-0.12330809;0.10323421;-0.004697602;-0.13311505;0.050689146;-0.21626018;0.280909;-0.04641436;0.017259711;0.23729014;0.08988847;0.041344788;-0.17025918;0.03445405;0.11566524;-0.27470282;-0.09272424;0.09053494;-0.17571467;-0.023651605;0.09920578;-0.17525138;0.09060906;0.20845544;-0.01539621;-0.36940202;0.13873126;0.111636266;-0.18708272;0.11731192;-0.110690996;-0.19829375;-0.1744215;0.089469716;0.3179561;-0.1278956;0.10636973;0.31514123;0.044227522;0.07068458;0.2891247;0.24318346;-0.269839;-0.12117843;0.24000251;-0.18920277;0.14875786;0.17669564;-0.03959822;0.12752408;-0.06943113;-0.028244916;0.034049;0.10119168;0.0446791;-0.23609704;-0.08934244;-0.14057381;-0.104449585;0.24755208;0.25754064;-0.10521364;0.020773996;-0.17913176;-0.0060749617;0.18104994;0.15868841;-0.003741381;-0.26537424;-0.12311447;-0.16334118;-0.14732479;-0.30677247;0.013994003;-0.09418301;0.07342678;-0.2205915;-0.09462285;-0.003664604;-0.09527919;0.03133367;-0.003061699;0.12720047;-0.18956366
0.08396423;0.043037992;0.09009449;0.15821701;0.31143478;-0.10844989;0.26255307;0.10683489;-0.2423719;0.012419152;-0.15849914;-0.15432459;-0.33451122;-0.003295345;-0.017476454;0.11590032;0.11004045;-0.0047293743;-0.056240514;-0.010973047;0.29162624;0.111016184;-0.32751662;0.06668878;-0.12254582;-0.03141301;0.17401671;0.16415548;0.05815541;-0.101259194;-0.12500341;0.08211962;-0.007470195;-0.26180577;0.13535029;-0.18078472;0.09676993;-0.010734964;0.026035763;0.21681626;0.13515057;0.08169571;0.0987215;-0.025840608;-0.049722843;0.090253815;-0.02262444;0.02222345;-0.06815883;-0.0036814453;-0.179251;-0.1116911;0.22755076;-0.14253205;-0.25728884;-0.106114484;-0.07289776;0.016951187;0.2195757;-0.10814329;0.0894353;-0.1766858;0.040881764;0.15415916;0.38900724;-0.22961734;0.025781484;-0.18808934;-0.22339723;-0.3252547;-0.070471495;-0.14195994;-0.01925257;-0.13461033;-0.3075839;-0.0045980695;0.11017349;-0.14373267;-0.163933;-0.02756647;0.26479504;0.29971352;0.11763052;-0.3701302;0.12592974;0.07946138;0.121528916;-0.21024278;0.09097948;0.12395413;0.1273546;0.15991792;0.020107735;0.056858696;0.013306803;-0.049531356;-0.11915425;-0.13993825;-0.2926048;-0.27263623;0.30209303;-0.057778936;0.20009723;-0.09243311;-0.19044316;-0.04133859;-0.3742089;-0.18579409;-0.01243752;-0.088803746;0.028789606;-0.07880661;0.011358356;-0.5271261;-0.01831473;-0.2276273;-0.18764399;0.155581;-0.08778237;-0.15566456;0.30080792;-0.010860603;-0.2500219;-0.08447591;-0.15806296;-0.14812231;0.36129093;0.3486529;-0.45781994;-0.16790868;0.28039566;-0.1587118;0.4020819;0.26835755;0.080458924;-0.33583245;-0.17165174;-0.1951153;-0.11019558;0.16294008;0.056679916;0.2762555;-0.15343916;-0.0061193174;-0.08035613;-0.008298771;0.18461813;0.109996095;-0.21517831;0.12719668;-0.27150556;-0.07086626;0.21933793;0.13820706;-0.008983989;-0.05495062;-0.22931892;0.18060964;0.08978478;0.07994318;0.22959554;0.01678886;-0.28572348;-0.096214235;-0.18984441;0.06928173;0.011461024;0.17333232;-0.04312067;-0.08009894;-0.13909554;-0.02533794;0.13950182;0.0067593353;-0.1754901;-0.017286668;0.409206;-0.06747441;-0.19226354;-0.19556515;0.016225008;0.13949089;-0.08177916;-0.13293146;0.027228666;0.14241739;0.120569564;0.057260796;-0.43473577;0.014552393;0.030196166;-0.023652576;0.09273228;0.1535038;-0.04001741;0.01134069;-0.17082189;-0.18652739;-0.37981743;0.030260744;0.19051597;0.091623604;0.36812562;-0.38116;-0.27387735;0.22453162;-0.0018356255;0.31398183;0.32412437;0.06033581;0.097105995;-0.025224661;0.030191751;-0.049500246;-0.2069619;0.08065987;-0.1656675;-0.08778688;-0.19840197;0.009328855;0.19755183;0.0777974;0.32880396;0.043361194;0.33880487;-0.14709151;-0.04794344;0.0731903;0.432034;0.12375066;-0.20631553;-0.073968746;-0.19782923;-0.11644082;-0.21642517;0.03630146;0.023278734;-0.05393755;0.030281032;0.09291826;0.01250805;-0.06222575;0.25636083;-0.046935204;-0.20590866;0.05654617;-0.06882591;0.10168365;0.001007589;0.08419409;0.017912079;-0.22473258;-0.15137565;0.4479099;-0.12623928;0.43315;0.082264684;-0.095816605;-0.15930517;0.3283892;0.05179217;-0.10552729;-0.024599347;0.4126087;-0.03919942;-0.035893407;-0.0985568;0.06483254;0.20344093;0.11936677;-0.16719717;-0.038875785;-0.027690902;0.12132302;0.027804889;-0.46797246;0.17883006;0.081373096;-0.052398514;-0.14654368;0.02270402;-0.221123;0.039116997;0.25167274;0.0756671;0.13379025;-0.00475697;-0.029744096;0.118481115;0.17273206;-0.16834655;0.2457594;-0.0013600719;-0.17947225;-0.2895116;0.20196146;-0.05554184;-0.11245344;0.05003912;-0.06404144;-0.061577607;0.043753542;-0.009199815;-0.04641001;-0.29352695;0.07892616;0.02556341;-0.13159406;0.093981184;-0.04200569;0.07615405;0.09530359;-0.36325863;0.09594695;0.14653137;0.04103723;0.09729448;0.00091355114;0.16788447;-0.31738424;-0.12061135;-0.11658351;0.051411603;0.31704307;0.019582434;-0.059253298;-0.016669372;-0.39692762;-0.11777788;-0.13680099;0.25329068;0.08696582;-0.15462926;-0.22648133;0.28149533;-0.08953564;0.10709253;-0.21786815;0.02379913;-0.079294115;0.23691025;-0.3809667;0.18980141;-0.21968699;-0.22988342;-0.08250311;0.14717668;0.12296177;0.072529;-0.08291796;0.3805989;0.002480091;-0.050593365;-0.09583596;0.10403975;-0.061019722;0.23166518;-0.08327323;-0.092092805;-0.13316217;-0.18533489;0.030672131;-0.07859316;-0.36451805;0.0023156945;0.09221749;0.13837506;-0.009139393;-0.0031459304;-0.054873526;-0.0011940608;0.010935224;-0.14682055;-0.015660882;0.0033714776;-0.10824808;-0.057396844;-0.17187174;-0.051769342;-0.22009861;-0.005654312;-0.030745927;0.15171131;0.16321224;0.0025479323;0.26951614;-0.21622613;0.23747116;0.117194824;0.28062695;-0.103703275;-0.010689567;-0.06939522;0.046107877;0.13573423;-0.06963321;0.23851632;0.13617572;0.12194931;-0.0110966135;0.23752178;0.005072363;-0.018934881;-0.086718656;-0.35157105;0.095322184;0.15073422;0.050891586;-0.009172109;-0.33202446;-0.22975338;0.074469365;-0.49867386;0.13568242;0.055447474;0.06368933;-0.09150828;0.1442211;-0.12931554;0.1475546;0.15871863;-0.11829379;0.1049587;0.1424759;-0.16969569;0.25336248;-0.052007556;-0.06839868;-0.041851286;0.0810785;-0.32627946;0.11203349;-0.16860273;-0.01744569;-0.0006482617;0.027745597;0.31896982;0.07580958;0.026349058;0.094576016;-0.005187633;0.15975013;-0.005688728;-0.21116664;-0.21091366;-0.070507884;-0.14926301;-0.032571632;0.24997053;-0.07142498;-0.07996202;0.46976933;0.005628191;-0.15086327;0.4699974;-0.12285936;0.14278482;0.018513583;-0.043562427;0.018003915;0.028861094;-0.6857711;-0.16521871;0.32510263;0.054776102;0.16834939;0.065044776;0.10559808;0.2735127;-0.12434203;0.17662556;0.40718976;-0.020369919;-0.107186824;0.13551848;0.042250752;0.32506037;0.07751386;-0.12181577;-0.48406175;0.082651414;-0.4579835;-0.07774865;-0.15516895;-0.25204995;-0.16914375;-0.02343297;-0.08671522;0.1050513;0.09495201;-0.059937622;-0.008654512;-0.009171506;0.12401894;-0.18600482;0.049704723;0.09682721;0.054809384;0.37744033;-0.04068214;-0.093000434;-0.108501896;-0.07913593;0.11347915;-0.14308752;0.1816395;0.22681034;-0.02327754;0.049411163;-0.0030511187;-0.020828769;-0.09706629;-0.23816927;-0.34918636;0.005929254;0.32901073;0.3018507;-0.28601742;0.13884668;-0.15497231;-0.14261796;0.12209611;-0.028637929;0.0029154324;-0.31190693;-0.036091533;0.2566089;-0.035034925;0.45548716;-0.18074067;0.16635373;-0.12915936;0.20448507;0.16001494;-0.056729004;-0.15829323;0.14300184;-0.035092305;0.06315497;0.12092015;-0.067117594;0.35033262;-0.1136977;0.072697654;0.08393629;0.20259619;0.1528444;0.009285231;-0.021088593;-0.08705896;0.014987713;0.13401872;-0.0069346777;-0.30192915;-0.061094206;0.06506034;-0.22726375;0.23213837;0.13628827;0.011680309;0.066820905;-0.12368983;-0.16220547;0.036956076;-0.31842312;0.10804976;-0.08173972;0.029417556;0.06925874;-0.33935133;0.028976014;0.03151107;-0.13057342;0.19155636;-0.0905555;-0.39311233
0.06833732;-0.019929841;0.16110387;0.104633495;0.23026249;-0.23569684;-0.062323023;0.11375431;0.0036706403;0.038974445;-0.3755787;-0.07317288;-0.45422095;-0.11066315;0.071864925;0.16614285;0.021139953;0.07895034;0.0013726028;-0.059225343;0.08091732;0.0662426;-0.06099794;-0.017545521;-0.12358573;0.039771408;0.23164672;0.05123784;-0.065628484;0.094053015;-0.013092918;0.0063495245;-0.08961016;-0.17261595;0.24308467;-0.15851459;-0.10044835;-0.15074196;0.3314593;0.21832745;0.35120028;-0.0010431953;0.20475549;0.13289036;-0.15452634;-0.13103549;-0.008349053;-0.09980242;-0.028319202;0.016271304;-0.15675595;-0.018702628;0.060529105;-0.30713677;0.18562204;-0.18694647;0.05421754;-0.030560916;0.23772238;0.025681822;0.2069952;-0.00072221574;0.11654837;0.053407542;0.051112562;-0.22960167;0.1596276;-0.24053775;-0.07230093;0.10811237;-0.16395685;-0.06437675;-0.007290578;-0.023180675;-0.14988993;-0.09936085;0.16062568;0.07297686;0.046306282;0.038078878;0.27657014;0.095173866;0.019531997;0.050050892;0.27918983;0.17434153;-0.028303828;-0.21684308;0.09378258;0.26704407;0.05720705;0.4053282;-0.25612953;-0.080038145;-0.12912135;-0.13539888;0.11270645;-0.00038891664;0.11886103;-0.0586162;0.017708996;-0.07224112;0.05641099;-0.10840022;-0.17971173;0.005489391;-0.12159769;-0.31965455;0.061591044;0.095762916;-0.022303566;0.0049341517;-0.09720972;-0.24183223;0.14912342;-0.20671117;-0.11810909;0.14181629;-0.17291026;-0.24946718;0.1405842;-0.016381724;0.04936641;-0.062162466;-0.1394035;-0.39662948;0.2925909;0.2791476;-0.13928656;-0.25378802;0.2536409;-0.20989096;0.31246528;0.087571174;-0.30894774;-0.022247128;-0.013823879;-0.011175878;-0.2620776;0.19347835;0.19497761;0.24902968;-0.3279012;0.27433813;-0.17918727;-0.001593481;0.13207366;0.14566323;0.17390278;0.27145714;-0.31587186;-0.05441966;0.10806723;0.043937743;0.10370289;-0.21501946;-0.31839156;0.098230876;-0.07831271;-0.06825177;-0.11747884;-0.06380975;-0.11224438;-0.0585761;-0.11469059;0.17901577;0.12601142;0.005597996;-0.09007405;-0.18494347;-0.050275415;-0.1024856;-0.012230464;-0.3533158;0.0065895375;0.112443745;0.15730976;-0.44971886;-0.16377199;0.09512676;0.025766175;0.08263065;-0.047999974;-0.2509582;0.17794397;0.2134625;-0.3552261;0.06659757;-0.048829325;0.17463344;-0.11108863;0.17381504;-0.09027061;-0.03913131;0.36050686;0.02908676;-0.055780273;-0.044992063;-0.070727296;0.21165667;-0.093025066;-0.017760506;-0.06711686;-0.33999547;0.4819877;0.18539903;0.12893958;-0.07405139;0.22593181;-0.10727246;-0.063244104;-0.14075021;0.11243101;0.077575855;-0.13489361;-0.10929744;-0.2158617;-0.19782595;-0.30185542;-0.009419769;0.13101901;0.20750543;-0.016490791;0.1184174;0.22074552;-0.16821136;-0.2527708;0.2879796;0.23021288;0.24269827;0.016531944;-0.031536803;0.036797263;-0.078256436;-0.10509924;0.1676467;0.13004106;0.06585182;-0.045891423;-0.034167297;-0.11931052;-0.15507413;-0.10700412;0.10907798;0.07074257;0.18441245;0.18316364;0.09130022;0.06629443;0.115699925;-0.13799705;-0.18748584;-0.0096786935;0.19389066;0.06469953;0.18795754;-0.1768028;-0.18500407;-0.12010191;0.17936556;-0.023430306;-0.19667195;0.06403259;0.30241904;-0.13580333;-0.1144782;-0.10418139;0.030571362;0.1841015;-0.117857896;-0.20390007;-0.0037606256;0.13658282;0.24954778;-0.2794635;0.0250934;0.15341431;-0.17020668;-0.1462803;0.04676676;-0.1743353;-0.08118928;-0.06950126;0.18222892;0.07061605;-0.12621328;-0.11455355;-0.025770394;-0.05985073;0.079855226;-0.11360153;-0.20164223;0.06071068;-0.36550513;-0.109740905;0.21173131;-0.24693973;-0.12076671;0.059682406;-0.08688711;0.085037;0.21990786;0.10976591;-0.05989518;-0.059202876;0.13927439;-0.05079336;-0.097206235;-0.39853764;-0.15796758;0.13842964;-0.031128405;-0.08609458;0.2242584;0.042092048;0.06668988;0.06758789;0.039197482;0.2663537;-0.16109575;-0.022667658;-0.24550873;0.0026053;0.07807065;-0.065750405;0.05822572;-0.044501357;-0.25665653;0.06561931;-0.1767109;0.33170125;0.004309174;-0.13835737;0.05470426;0.1694231;0.18968219;0.079854175;0.061811775;0.304266;0.023146473;0.30337882;-0.055046078;-0.28102756;0.16668597;0.013415755;0.18441987;0.046120014;0.340895;-0.035817508;-0.10388903;-0.21767035;-0.15758498;-0.14126877;-0.102256805;0.07783745;-0.06998804;-0.108811125;0.1031898;-0.048685245;-0.2548148;0.006830186;-0.16237643;-0.3077151;-0.4600134;-0.13938057;0.12017526;0.09544316;0.18424848;0.033385884;-0.018924009;0.1231437;0.12609863;-0.41327333;0.16911903;0.15312415;-0.10843864;0.16122557;-0.043888707;-0.04369518;-0.12501833;0.108093984;0.18402912;-0.29264733;0.04021639;0.046143208;-0.06020338;-0.0060378765;0.12643893;0.1613624;0.12828209;-0.10643884;-0.13244438;-0.026722578;0.08441367;-0.001793141;0.0038661272;-0.03274453;0.13713714;-0.038559385;0.049123313;0.10412048;0.069074176;0.059117004;0.020690726;-0.2786527;-0.16370338;0.19456004;0.105677575;-0.006561719;-0.053646166;-0.15285136;-0.09074258;-0.14917922;0.022480575;-0.13790073;-0.074603446;-0.076505646;0.35554102;-0.16438487;0.092875384;-0.0077561704;-0.10675528;-0.06470148;0.046112858;-0.007120144;0.0038986467;-0.033656396;-0.0847199;-0.1878657;0.2134255;-0.11470974;-0.038264528;0.12699679;-0.049504343;0.01083877;0.0650659;0.2542428;-0.11763528;0.24594969;0.057259943;-0.06058232;-0.07511581;0.28390256;-0.22272705;-0.06373804;0.014268506;-0.29334244;0.0825023;0.028158367;0.008647282;-0.01723243;0.11618162;0.25391763;-0.14858364;0.2022081;-0.13650878;0.091754325;-0.14607047;0.04869482;0.1822984;0.11939675;-0.41759932;-0.024473814;0.35703126;-0.12073542;0.24059483;0.06322775;0.05132265;0.24454467;0.036895826;-0.049140897;0.11600332;-0.067893416;0.12947302;0.33954844;0.12974636;-0.078389205;0.1620725;-0.19187133;-0.34595603;0.274223;-0.23243141;0.19426866;-0.14375526;-0.008022286;-0.03529691;0.0234975;-0.2439906;0.117610194;0.03575843;-0.23757471;-0.09015039;-0.07596413;0.22515783;0.11345238;-0.004539673;0.24039203;0.0751156;0.37497526;0.12399235;0.08038443;0.06072612;-0.1165107;0.17555687;-0.052885693;0.44987655;-0.1374134;0.12355627;0.09622872;-0.077796265;0.14431576;-0.10707258;0.2576546;-0.16970018;-0.08851584;0.24352916;-0.2521827;-0.14872794;0.099643804;-0.08334112;-0.19620517;0.16284978;-0.13207646;0.04417142;-0.16041276;0.0061258;0.052829284;-0.2799719;-0.10786609;-0.12861535;0.57981104;0.14493352;0.18251845;0.13075422;-0.19895893;-0.08857978;-0.094212934;-0.21021593;-0.1206243;0.1730279;-0.06516802;0.358507;-0.027211556;0.2576765;0.22113875;0.15306015;0.37159956;0.022757951;-0.13867648;0.10424734;-0.002349482;-0.13766114;-0.1995183;-0.27163395;-0.013894079;0.14073941;-0.016520174;0.11673759;0.16842951;-0.28761312;0.031210499;-0.008158912;-0.007487482;0.013737625;0.3081727;0.12575288;-0.10917957;-0.10041121;0.09488486;-0.31477377;-0.01208311;-0.4260799;-0.14135854;0.25961065;0.004910989;-0.3594896
-0.1882196;-0.100581095;0.26500311;-0.026881834;0.00085825694;-0.09518107;-0.11960135;0.15892592;-0.09600986;-0.07262521;-0.5269252;0.012051788;-0.15719423;-0.29655764;0.10517068;0.034605194;0.095203914;-0.12925187;-0.007949139;-0.024872366;0.17156263;-0.10389706;-0.11565248;0.17415157;-0.123674236;0.097814865;0.07348596;0.13312586;0.14362828;-0.050135355;-0.032671724;0.16184801;-0.028387131;0.123708;0.25429454;-0.07488309;-0.12564698;-0.26633915;0.50263983;0.15052016;0.24860422;-0.062445443;0.103952415;0.01230776;0.08145621;0.19482858;0.10353807;-0.12054451;-0.06642784;0.06323225;-0.15497045;-0.10110736;0.14557314;-0.3445833;0.10766542;0.21707202;-0.02706503;-0.3202715;0.22402373;-0.017760484;-0.11984212;0.10575184;0.14949575;0.023524297;-0.19570704;-0.032352112;0.07127966;-0.18672734;-0.17615812;-0.18077876;0.13163665;-0.041012995;-0.0061721923;-0.08045744;0.17382558;-0.046995662;0.18177678;0.040216308;-0.17989488;0.098672576;0.27663434;0.21160638;0.035743095;-0.042069517;0.103714265;0.08183895;-0.081566446;-0.15186168;0.340259;0.07915341;-0.09205594;0.22645317;-0.29380995;0.13279969;-0.12845865;-0.31149027;0.023780204;-0.26116097;0.060939975;-0.064326465;-0.14779112;-0.2466036;-0.007818515;0.05591528;0.13681488;0.035514023;-0.05308637;-0.14409992;-0.038542017;0.2177303;0.033646874;0.07798312;0.07897728;-0.12256025;0.2146372;-0.14354494;-0.050951526;0.034757618;-0.10705384;-0.25773716;-0.06422187;0.03953774;0.05707802;0.05359959;-0.00853029;-0.31034365;0.064621076;0.12024044;-0.18296205;-0.12887911;0.09217506;-0.34201682;0.06359887;-0.07139929;-0.1720689;0.14809687;0.104704164;-0.2955483;-0.15502033;0.1086528;0.32572305;0.09938439;-0.16406311;-0.14149219;0.02323248;-0.2601282;0.166833;-0.040291212;-0.1563736;0.14787263;-0.004827419;0.052634854;0.079390354;-0.042105667;0.110613845;-0.240086;-0.0396834;0.17956977;-0.006629166;-0.033436976;-0.2822314;0.13569243;-0.17831518;-0.14657316;0.09156177;0.12761192;0.11671655;0.010648461;0.08014507;-0.09780076;-0.16914183;-0.0062262183;0.17031741;-0.07153439;-0.1412564;0.2804254;-0.12982777;-0.46697423;-0.019359319;0.34287778;0.19080862;0.3216059;-0.014192753;-0.17291941;0.431042;0.31951225;-0.23875333;0.15969749;-0.10784534;0.25386268;-0.1367119;0.057308905;-0.039486483;0.08591471;0.17314832;-0.11038975;-0.016188977;-0.33078098;-0.08444217;0.07587564;0.053284656;-0.089260034;-0.27133104;-0.3605664;0.3843458;-0.24414814;0.22496012;0.14633507;-0.07643921;-0.25156626;-0.2904675;0.19717105;0.14884785;0.14096321;-0.11044553;-0.12703224;-0.14489447;-0.18331422;0.10227085;-0.012109435;0.0664734;-0.016338184;-0.17726745;0.08389626;0.08771684;0.104362845;0.28630096;0.078142814;0.16586179;0.19226614;-0.0829113;-0.18499058;0.13261862;0.019928241;-0.060911465;0.20275006;0.106616616;-0.109292515;-0.03201592;0.015251712;0.10737097;-0.20969324;-0.5137738;0.25522664;0.1092871;0.34831965;0.13806963;-0.10796536;0.109000444;-0.044003252;-0.14452294;-0.12324978;-0.00811874;0.06750956;0.035592485;0.0825751;-0.0746544;-0.051904324;-0.12092624;-0.22443902;-0.10676623;-0.21623752;-0.028897693;0.26587886;-0.04101187;-0.2787074;-0.060365684;0.12122766;0.12443078;-0.039057937;-0.050951753;-0.1043057;-0.14250165;0.10575258;-0.1139887;-0.009038493;-0.06599906;-0.2775904;0.11290541;-0.03813192;0.23830296;0.039258987;0.16887827;-0.04895854;0.09191686;-0.21863724;0.111470416;0.051083464;0.07097657;0.22435832;-0.02833111;-0.07938001;0.08572221;-0.3928516;-0.0024961457;0.22375962;-0.3209453;0.16895926;0.025108486;-0.13646902;0.23816584;0.19349253;0.020368619;0.11495981;-0.20516427;0.2571992;-0.022279873;-0.07239455;-0.16779514;-0.3230037;0.31318697;0.05679297;0.18024127;-0.057958826;-0.15327258;0.2942897;-0.20052315;-0.013620232;0.30890214;-0.05529359;0.25644842;-0.052266233;0.26186195;0.28297776;0.038275514;0.060833544;-0.15602158;0.020383235;0.21240266;-0.13025251;0.1501672;0.35294235;-0.23351891;-0.036874298;0.029424986;0.36967117;-0.04095052;-0.0091785025;0.30792183;-0.21039803;0.112970024;-0.10531768;-0.051762573;0.4902339;0.19699238;-0.052856132;0.16908763;0.28111005;-0.015838265;-0.10160663;-0.12060068;-0.093057446;-0.20562188;0.048710894;0.13003294;-0.17584878;-0.028200777;0.12705432;0.051093455;-0.42860296;0.17047232;0.088513516;-0.035588708;-0.06415857;-0.09042653;0.29013738;0.063218884;0.039697707;-0.1848412;-0.058197092;0.0014854947;0.001531239;-0.2843702;0.31184512;-0.046124868;0.054694325;0.025984887;0.20175369;0.101022676;-0.3156062;0.07420079;0.03323891;-0.16950217;0.29817396;-0.0033446096;-0.18975286;0.20170848;-0.08433326;0.10939904;-0.02379678;-0.19115071;0.15826009;0.31535903;-0.04251366;0.05215044;0.16230884;0.022103678;0.11620796;0.07237651;0.08350444;0.045228083;0.09508279;0.038896132;-0.1694493;-0.25177324;-0.26157123;-0.20763735;-0.09092812;0.024398737;0.15663454;-0.16164352;-0.27712938;0.095073506;-0.007066852;-0.19762129;-0.29946753;0.16249603;0.15460621;0.076675884;0.15870737;-0.14959812;0.08966861;0.09441906;-0.071699426;-0.20317332;-0.11828714;-0.10277055;-0.057682466;-0.21792482;0.1809895;0.014044469;-0.08308661;0.14424784;-0.17772323;-0.11564183;-0.009267786;0.022151014;-0.04169638;0.06173955;0.12482652;-0.01946774;0.03680363;0.111002676;-0.26962516;-0.1085827;0.19977024;-0.046665397;0.18823592;-0.08238927;0.08333371;0.029668406;0.06073225;0.056432214;-0.11386146;0.16877432;0.42244625;0.038644344;-0.26640174;0.034131255;0.12859517;0.042082254;-0.32737273;0.05340512;0.25164536;-0.06341336;0.1938305;0.31174627;-0.09683044;0.16773848;0.03198097;-0.19644804;-0.010753107;0.04022448;0.12560067;0.21746454;0.4264462;-0.19837165;-0.14869076;0.14149323;-0.143579;0.41198963;-0.09243075;0.2066469;0.03680928;0.30861986;-0.13875204;0.06752569;-0.15319444;-0.15868275;0.008887733;-0.0814944;-0.051426876;-0.06547583;0.119446166;0.046877164;0.16438302;0.29382783;0.20849463;0.16731778;0.3877667;0.12912557;-0.23699178;0.05374326;-0.033424888;-0.11697892;0.032409277;-0.033616353;-0.146469;-0.44025248;0.0008318191;0.107900925;-0.08341889;0.28061906;-0.08965922;-0.059152234;0.31734535;-0.25342065;-0.124950975;0.050143376;-0.052131575;-0.24518615;0.117674716;-0.13262042;0.037467495;0.15553842;-0.008075673;-0.14388037;-0.2613568;-0.005652527;-0.10213497;0.6835849;-0.045479216;0.07209663;0.19148588;-0.39265028;0.041914117;-0.33429408;-0.06991972;-0.08014738;-0.0015914473;-0.036564264;0.14684917;-0.010964542;0.03948963;0.24061458;0.094270356;0.06853629;0.07485315;-0.17274472;0.11305306;0.00059067376;0.008158997;0.048557065;-0.20754491;0.120356336;0.07018505;-0.011311083;0.10893452;0.2503357;-0.26841936;0.14494592;0.086468294;-0.11485087;0.030618414;0.068883136;0.071423456;-0.30934468;-0.082838416;-0.054384213;-0.15301082;0.022824556;-0.65948576;0.12381644;-0.019710105;-0.23498464;-0.28441906
-0.38207752;0.070966095;0.1207972;0.2227277;0.006605407;-0.16593853;-0.0147360945;0.122657;-0.18295088;-0.12726168;-0.080837205;0.018036848;-0.31036824;-0.4135962;0.14587197;0.1355002;-0.09317977;-0.08991925;-0.022717591;-0.13834691;0.016932406;0.35040703;0.23401716;-0.037418976;-0.33298546;0.05172725;0.2751158;0.10261011;0.09877061;-0.021152256;-0.07233575;0.16084744;-0.088977985;0.085220285;0.08754424;-0.17866711;0.25947672;-0.27357405;0.20866275;0.3195994;0.16466798;-0.061110176;0.18898685;0.06234164;0.26471853;0.18779063;0.10069338;-0.14687797;0.060315486;-0.23433928;0.074161425;0.01059138;0.09614701;-0.16677777;0.113210805;0.3801688;0.12453715;0.018276563;0.1079862;-0.20748885;-0.30964372;0.20937452;0.17175874;0.036312073;-0.0761064;0.020435136;0.05043705;-0.2122557;0.1845775;-0.22783446;-0.26937196;-0.10256871;-0.05319263;-0.21596575;-0.17927974;0.019104937;0.1375015;0.067332305;0.02499855;0.028707286;-0.021857299;0.12868005;0.22840735;-0.35255778;0.043683033;0.09194702;-0.06695798;-0.22278696;0.006971302;0.054516923;-0.07697598;0.005953409;-0.14260021;0.019496838;-0.28506458;-0.2890903;-0.049071483;-0.11907031;-0.07644338;-0.25518367;0.026898181;0.04217005;0.12316883;-0.12612267;0.016828345;0.00049723685;-0.22644535;-0.17964025;-0.022801818;-0.014255045;-0.14531977;-0.051262833;0.054691203;-0.056145817;0.2373871;0.092765674;0.057437178;0.39101398;-0.12090719;-0.19058046;0.102178685;0.023655785;0.038242195;-0.23073898;0.25389478;-0.15536253;-0.020026088;0.17411596;-0.29622683;0.035216894;0.070180625;-0.029752742;-0.099856086;0.02096754;0.18566291;-0.15114729;0.16256604;0.046228003;0.06434321;-0.06228073;0.47986883;-0.00816456;-0.24076134;-0.021631513;-0.25861648;-0.28574255;0.1563716;0.08934495;-0.05406514;-0.08186306;0.1141723;0.14674401;0.15957072;-0.04354018;0.0051271454;-0.11958464;-0.09128066;0.07717538;0.28170794;0.03648291;-0.17027587;0.0058990987;0.16184038;-0.22687018;0.1633754;0.13164584;-0.0065013994;0.065700814;-0.11790304;-0.11495888;-0.26440835;0.069763646;0.2686258;0.005800077;-0.13138583;0.38585812;0.21037386;-0.16385122;-0.005373573;0.03514696;0.039103366;0.48785618;-0.0720651;-0.12240671;0.30615073;0.30469826;-0.24631916;0.08658797;-0.08406301;0.34055611;-0.2952409;0.050878767;-0.08492115;0.17935722;0.18000163;-0.003851277;0.17140107;0.16675211;-0.040790047;-0.07527101;-0.09255484;0.013582461;-0.016411252;-0.24095634;0.13023378;-0.02642888;0.25100878;0.09481504;0.080702156;-0.2231591;0.14824419;0.11300283;0.031448275;-0.056837484;-0.00010524949;0.15387592;0.252295;-0.10115143;0.111215316;0.24881896;-0.019192727;0.017349027;-0.11358613;0.1900154;0.27813306;0.12192073;0.014573876;-0.13029036;0.3680146;0.122256584;-0.26326168;0.069713525;-0.22339322;0.22141579;0.09155533;0.1404671;0.16986834;0.117357865;0.12948708;0.14744557;-0.05635931;-0.13734126;0.08685378;0.1229081;-0.2307046;-0.07168201;0.02727079;-0.12813194;0.13415183;0.06646826;-0.09718856;-0.11287976;0.025478704;0.123206496;0.30168244;0.29929048;-0.07864875;-0.2331204;-0.105983034;-0.19086057;-0.18086357;-0.11326707;0.018919833;0.24122275;-0.027681164;-0.08721722;-0.104473665;-0.11150052;0.09138132;0.05583897;0.07986843;-0.090885185;0.18072245;0.25063157;0.07037194;-0.42214853;-0.15837015;0.119713046;0.13176309;0.0429861;0.29886386;0.03679439;-0.2777833;-0.017225355;0.06650951;-0.06802562;-0.13909212;0.09008952;-0.080736786;0.01959366;-0.13109553;0.13707118;0.035226855;0.2240028;-0.16745909;0.11052655;-0.034636594;-0.05050522;0.038291268;-0.0036698587;-0.011452214;0.29223672;0.13023241;0.012232615;-0.2610234;0.20445728;-0.021852668;0.09168345;-0.31841677;-0.13006759;0.048557036;-0.20067334;0.164859;-0.025854724;0.20713173;0.117545895;0.12110907;0.021338478;0.24093622;0.14599925;0.2712622;0.17181173;-0.00356109;-0.17734367;0.08536294;0.091913395;-0.07642217;0.02405372;-0.121518776;-0.04806488;-0.15223984;0.10561711;-0.06687086;0.18219116;0.050349884;0.28165033;0.043053493;-0.10532961;0.123359784;-0.050630715;0.087031424;-0.055639066;0.12132168;0.4188109;0.23913877;0.022985071;0.08661391;0.08646168;-0.042967446;-0.1834615;-0.207321;-0.1583079;0.05334128;-0.13598189;0.05271126;-0.2515563;0.027640374;0.04498151;-0.13631707;-0.35390395;0.09351089;-0.10514185;0.04588307;0.016086757;-0.019577753;0.21340439;-0.044020966;0.08669054;-0.35097587;-0.21510243;0.11899877;-0.017775614;0.082518585;0.19322953;0.16180345;0.02617435;0.13004665;0.071097;0.013976332;0.0049796104;0.06977376;0.0370314;-0.2677398;0.16373551;0.06989048;0.05094083;0.047600787;-0.029239567;0.08698666;-0.2584648;-0.060735878;0.24299978;0.0568422;0.20938502;-0.07515365;-0.08487523;0.30336493;0.23262508;-0.060612213;-0.054333575;-0.109965734;0.11052144;0.07135395;-0.14683051;-0.24675292;-0.3691562;-0.15538849;-0.08654752;-0.10592393;-0.0433701;0.00073685613;-0.19146653;-0.008017957;0.22742753;0.032556582;-0.22516835;-0.06327022;-0.08416509;0.13954388;0.09114191;0.15295026;0.19122858;0.24974531;-0.044797443;-0.09776308;-0.06871647;-0.15085734;-0.08017033;-0.10969508;0.26191562;-0.11396;-0.13807136;0.17797485;-0.017752739;-0.057047274;0.16920882;0.088426;-0.025506517;-0.063300386;0.049219012;0.012457856;0.07107758;0.25978932;-0.21599711;-0.13405687;0.3045809;0.018223772;0.38269147;-0.07042369;0.23018256;0.062374637;-0.10000874;-0.13040386;-0.2520679;0.21913254;0.31438774;0.15808201;0.24175972;0.16405696;0.10211823;0.044574864;-0.5053381;0.30353954;-0.019189658;0.19045566;0.14930546;0.18133011;-0.22391018;-0.033016473;0.03696103;-0.21381292;0.016546303;0.01465632;0.089179955;0.30232847;0.11053594;-0.07638161;0.043643095;-0.00976645;-0.25574046;0.29842195;-0.110472985;0.035397507;-0.007448672;-0.14249627;-0.1408326;-0.015104321;0.09847759;0.0437203;0.27077714;-0.012427476;-0.2306983;-0.09547083;0.079556435;-0.009559921;0.011425259;0.08290997;0.16966504;0.11547864;-0.039817046;-0.14089273;-0.1842755;0.08486761;-0.015857155;-0.087530196;0.09024169;0.12495537;-0.153646;-0.23454319;0.14573787;0.1171395;-0.042675313;0.17317349;-0.10545996;0.01167915;0.0634688;-0.2562187;0.040387202;0.029630803;-0.03358306;-0.20062749;0.037000928;-0.071894355;-0.2746093;-0.07642399;0.0371568;-0.2630711;-0.05493309;0.0042700632;-0.27511805;0.59087324;0.044767775;0.17845227;0.29274774;-0.0875109;-0.15272453;0.02942989;0.044401098;-0.06656884;0.17159195;-0.0036553885;-0.36479864;-0.025567764;-0.30549443;0.0893878;0.18813099;0.019903842;0.031707693;-0.11608652;0.09617947;-0.1568592;0.0015634238;0.25303707;-0.17057653;-0.06202158;-0.076633275;0.08006925;-0.16048402;0.064874694;0.02639493;0.08591476;0.20444106;-0.13276456;-0.061469648;-0.1851663;0.0045271786;-0.28725803;0.030492347;0.15548615;-0.25556138;0.3304106;-0.033781365;0.19975792;0.029204378;-0.017286401;-0.20295995
-0.38747644;-0.15269983;0.2553584;0.0755815;-0.23167607;-0.1543156;-0.23719728;0.012327197;0.071595564;0.1554437;-0.20279033;0.18176536;-0.10335756;-0.26882762;0.18179682;0.21713176;0.07724054;-0.13872167;0.21371664;-0.24081106;0.10512866;-0.10901374;0.072315894;0.08572691;-0.09865599;0.071625076;0.41231018;0.036434866;-0.11622372;0.05781315;0.10279704;-0.06263998;-0.049776874;0.15407036;0.14194523;-0.15025419;0.78689027;-0.072234616;0.04923304;0.17603248;0.036779538;-0.08380937;-0.0883759;0.24363862;0.1793719;-0.43541428;0.3227008;-0.058927014;-0.08188974;-0.37291935;0.18489087;0.027123079;0.2789948;-0.2116495;0.06845517;0.29188067;-0.08677422;0.03838306;-0.04476016;-0.33850807;-0.18079017;0.36574897;0.18330933;0.004485163;0.15106235;-0.015464102;-0.091064736;-0.29183653;0.3100228;0.007391749;-0.40213826;-0.18933071;-0.01320572;-0.15608214;-0.13349599;0.04376211;0.19263658;-0.10277785;-0.0017948875;0.100103386;0.26953202;0.16149487;0.16692512;-0.49506184;0.011663231;0.123297736;0.16769294;-0.28791896;0.07073991;-0.079459004;-0.10588979;0.084794305;-0.047854066;-0.046630733;-0.28188744;-0.22156952;0.11252512;-0.07306704;0.28190398;-0.084186874;0.042903274;0.11470772;0.13357279;0.0680541;0.06888695;0.16929823;-0.2293065;-0.24361776;0.018583717;0.16477178;-0.08255662;0.021595355;0.065533385;-0.0689282;0.2401137;0.11077858;-0.29577222;-0.07135486;-0.22794703;-0.28845492;0.22472602;0.12405891;0.08188929;-0.14945495;-0.16868615;-0.07989818;0.20442246;0.17459954;-0.48557624;0.113401;0.18563752;-0.16237077;0.06875962;0.10540025;0.16166547;-0.17721128;-0.07999412;0.20915975;-0.0029122108;-0.032092076;0.29056382;-0.21257228;0.13382688;-0.11339013;-0.019151235;-0.25284737;0.2100211;-0.09038711;-0.32533234;-0.22294866;0.044495977;0.029343639;0.16171552;-0.15671444;-0.024758378;-0.15312433;-0.1642577;0.104334116;0.2859332;-0.08730948;-0.17084141;0.13213679;0.18571389;-0.15249941;0.11028668;-0.028034713;-0.010751895;-0.04866179;-0.21597706;-0.15053302;0.06374865;0.10273719;0.28275922;0.3060183;0.03447865;0.05457624;0.1737421;-0.25851;-0.13332915;0.0008133596;0.005117404;0.24827994;0.09765769;-0.07004369;0.090561524;0.25418195;-0.44724002;-0.11354146;-0.072974496;0.24911416;-0.15544818;-0.019895662;-0.1279853;0.08434698;0.06678287;0.1542188;0.1893701;-0.033311713;0.0871254;-0.13859281;-0.18235989;0.09974876;0.097863294;0.1508898;0.046938293;-0.22086784;0.22058809;0.12193701;0.16408087;-0.08040601;0.11297304;0.08048646;0.042213093;-0.22862336;0.1196994;0.43808848;0.27471963;0.005237926;0.14001349;0.05731757;0.062328923;-0.085733354;-0.2009808;0.12298715;0.316969;0.054978892;-0.23128282;-0.18075998;0.15973148;0.17236914;-0.50960004;-0.16156515;-0.07123301;0.31678256;0.15607691;0.093701765;0.19023137;0.21579185;0.12707692;-0.0068902415;0.10334191;-0.15229982;0.31723708;0.27519375;-0.040608384;0.08818777;0.24520229;-0.17875478;-0.12851498;-0.06824788;-0.15753482;-0.17371999;0.034681786;-0.08056764;0.17865498;0.2378049;-0.17698169;-0.2074327;-0.0418261;0.0138386795;-0.0746208;-0.0024070262;0.06327022;0.020690663;0.20803535;-0.1916029;0.0026071528;0.009391577;-0.21053936;0.399359;-0.08293842;0.081494845;0.023586951;0.08522638;0.08383512;-0.514055;-0.2148637;0.03579161;0.15151834;0.110271476;0.13990892;0.093178675;-0.4433233;0.23712777;0.017184129;0.12483041;0.23807612;0.018172309;0.01595865;0.18039869;-0.016151605;0.17402066;0.12234388;0.38864148;0.08445873;0.08053148;0.051226236;0.21236028;0.12947024;0.011311454;0.11278236;0.06303308;0.10590609;0.06970776;-0.07511181;0.1698481;-0.003584464;0.102302276;-0.16521174;0.13182358;-0.10670264;-0.31085017;0.13669933;-0.22378246;-0.07731709;0.10205108;0.084742375;-0.013165356;0.09888528;0.089128956;0.3202243;0.049921148;0.3142531;-0.09718291;0.1975581;-0.17113017;-0.25535372;-0.13317287;0.13784412;-0.022490747;-0.21191621;0.20307972;0.14264157;0.037823763;0.23430695;0.26887915;0.0907418;-0.083916515;-0.0030176514;0.013548515;0.21108356;0.04030631;0.07098591;0.45181823;0.036947057;-0.020367796;0.12123251;0.15244421;0.08541331;-0.08804229;-0.08963419;-0.08924145;-0.044966776;-0.14759097;0.002515691;-0.40111807;0.12205247;-0.021972619;-0.2743802;0.13014778;0.20733654;0.007532865;-0.22225778;-0.016069854;0.033174127;0.18632273;-0.06119537;-0.07652314;-0.21625634;0.12325179;0.2647079;-0.054546174;-0.13970806;0.217866;0.43254757;-0.17557313;-0.18065721;-0.044477805;0.17745079;0.036518134;-0.00016665658;0.30528188;-0.22263145;0.029868713;0.29169384;-0.19666387;0.14954671;0.26400194;0.10727712;-0.18435928;0.079996966;0.062393602;-0.23543715;0.016719945;-0.11078606;0.1275477;-0.013659939;0.07334906;-0.088510625;-0.0055706915;-0.23849589;-0.2233719;0.10351016;-0.04093674;-0.011416734;-0.08552404;-0.006685003;0.2653425;0.23386598;0.13112703;-0.0038701394;-0.013835234;-0.23472817;0.057880044;0.06203668;-0.043520257;0.08612493;0.13733557;-0.012195607;-0.074067995;-0.114771135;0.08674885;-0.029198242;-0.03279482;-0.08329569;-0.07076946;0.02694899;0.08767226;-0.05762952;0.18967073;0.04559382;-0.2003907;-0.09077027;0.13210857;-0.16682811;0.02747575;-0.12372677;-0.04801985;0.17543598;0.16562773;-0.007887545;-0.04339397;0.17143208;-0.25669494;-0.26465628;0.13794535;-0.18551055;0.2882982;-0.15741405;0.06942897;0.08484567;0.0065062316;-0.3540401;-0.2369424;0.17272653;0.3313361;-0.23342654;-0.20414226;-0.13864487;0.21562697;0.11516563;0.09253075;0.46894172;-0.014760013;-0.03066591;0.12056857;0.040605556;0.1392039;0.12930441;-0.14426973;0.058377717;0.01669861;0.039705977;0.06876854;0.17420855;-0.074280046;0.42154765;-0.15596011;0.1790711;-0.08392793;0.10984731;-0.34859174;0.04078175;-0.15544368;0.06625534;-0.2567955;0.2016317;0.115014486;-0.018129745;0.283253;-0.2503445;-0.09863047;0.22909497;0.2532634;-0.1620173;0.055636823;-0.09142469;0.08134122;0.030623846;0.16201343;-0.07806377;-0.11531467;0.17145662;0.07167917;-0.009758343;-0.1627675;0.05648706;-0.012363427;-0.23275311;0.42458224;0.00036747323;-0.07840359;-0.07375552;-0.23566307;0.07536918;0.049036756;-0.21327673;0.13112982;-0.3252204;-0.07196553;-0.06896749;0.06406642;0.02588843;-0.111605324;-0.13684958;0.0081053255;-0.12970434;0.0716801;0.03875792;-0.036714;0.37032092;-0.30344766;0.11138094;0.14143263;-0.1651442;-0.19207174;0.0795152;-0.23833637;-0.07255612;-0.08901909;-0.27308667;-0.17390609;0.29001966;-0.15451388;0.15262751;0.15773588;0.039701086;0.20674653;-0.004800802;-0.0071393303;-0.059322976;0.11770737;0.2215925;-0.3254124;-0.010617321;0.087464176;-0.113457546;0.0012965027;-0.07938363;0.13330753;0.16786459;0.10992574;-0.14609735;-0.15088238;-0.24438123;0.34983087;-0.06470163;0.24244313;0.19919074;-0.3953386;0.281928;-0.15305707;0.07378644;-0.119186565;0.09766745;-0.17645966
-0.19908619;-0.17408046;0.047074113;0.03568286;-0.45635295;0.19456984;0.09055818;0.12605962;0.2439152;0.014615333;-0.09498604;-0.23242465;-0.0821272;0.030670924;0.050017115;0.21698672;-0.27700135;-0.2008846;-0.098345295;0.045295015;-0.026894175;-0.17553875;0.18585005;-0.016759751;-0.19330111;-0.023634776;0.22736079;-0.1513401;-0.013523008;0.13397455;0.09990344;0.06242281;-0.012918026;-0.14883497;-0.17787673;0.13226707;0.37300894;-0.012598628;-0.07529872;0.20043819;0.18376623;-0.01267783;0.20009597;0.3128794;0.22607304;-0.66976786;0.006118523;-0.17262785;0.18182679;-0.19259816;0.12423361;-0.12626211;0.1406584;-0.21461475;-0.14493798;0.1030799;-0.08900962;-0.07534213;0.27582717;-0.31084162;-0.15500012;0.25930318;0.1135301;-0.06327897;0.11369975;0.09101543;0.07245459;-0.17847441;0.35166577;-0.25794205;-0.2063792;0.051247362;-0.10839199;-0.19769804;-0.21218447;-0.0848505;0.08055715;-0.06658845;0.04810571;-0.04569067;0.16847944;0.16242315;0.31006697;0.013739956;0.09305549;0.15886433;0.044401493;-0.1282553;0.038421802;-0.0040185237;-0.18721366;-0.23261924;-0.07880909;-0.1128297;-0.069148585;-0.35532823;0.026781328;-0.0010281308;0.15994738;-0.1367581;0.123335324;0.10232694;0.13751514;-0.027893683;0.14178067;0.17441024;-0.1814712;-0.049570583;0.06066509;0.011425904;-0.08482881;-0.058490563;0.090363264;0.12000374;0.2797154;0.01188939;-0.2593555;0.18470544;-0.17100964;-0.050003245;0.10067751;0.052659605;0.24040028;-0.044134565;0.040855095;0.18117656;0.105870105;0.1844329;-0.31946;0.26559064;0.18872066;-0.30245978;0.09276587;-0.10657088;0.073039696;-0.19040501;-0.0465232;0.28864366;-0.03021753;0.14072317;0.29199228;0.05410717;0.071226;-0.07143656;0.02274365;-0.27283946;0.24579555;-0.0044917557;-0.05294427;0.035648607;-0.08463201;0.11930572;0.016977185;-0.13559169;-0.035165396;-0.14146107;-0.06461224;0.22798963;0.10107891;-0.3683319;-0.055562995;0.21723963;0.07758451;0.20971435;0.2964836;-0.023412863;0.21485294;-0.086562194;-0.051625058;-0.15072446;0.1485008;0.107541904;-0.028496362;0.17491208;-0.11531893;0.20244224;0.17340882;-0.12405447;0.020313974;-0.5789052;0.042815555;0.034497246;-0.02777891;-0.03703611;0.06577735;0.21246813;-0.056306433;-0.06529514;-0.041918624;-0.04200826;-0.20107557;-0.15133874;-0.02941777;0.026216898;0.044724904;-0.03645791;0.094605036;0.19678779;-0.2599866;0.052558895;-0.24523751;0.09614777;0.086094506;0.20061095;-0.041752785;-0.123473085;0.22705576;0.035000537;-0.010522293;-0.043092556;0.09478177;0.03370437;0.008537174;-0.3178261;0.07177348;0.17922664;0.2073855;0.035113323;-0.06764315;-0.1345524;-0.036481638;-0.032319814;0.03821362;0.23404719;0.14728323;0.11395039;-0.30214375;-0.29241675;0.12819059;0.12594512;-0.36820313;-0.026000796;-0.07047671;0.21660784;0.069787465;-0.026007665;0.23374386;0.2080835;0.07924177;-0.134887;0.050562624;0.058787167;0.36615944;0.019427236;-0.02929594;0.43127447;0.35181847;0.15599386;-0.12805016;-0.09826376;0.00944562;-0.17873111;-0.178507;0.039863322;0.24995117;0.2748884;0.034755245;-0.30965823;0.09762952;0.058873937;0.06911936;-0.008939654;-0.038839668;0.023267698;0.16096663;-0.29117906;-0.14324635;-0.20842867;-0.24557461;0.18236168;0.0026481552;-0.08791572;-0.1367171;-0.18874674;0.40342614;-0.29877016;-0.27991822;-0.027142797;0.09438092;0.04622897;0.21676272;0.13695602;-0.12656821;0.3343453;-0.058310226;-0.023307784;-0.04261075;-0.0449834;0.06476381;0.03571942;-0.24118853;-0.04947271;0.035565645;0.26064786;0.018745802;-0.078651756;-0.016173808;0.22326194;-0.046927016;0.059048355;0.07128875;0.052533217;0.15304892;-0.056656443;0.06272155;0.10232397;0.2047113;-0.027936477;-0.19649996;0.09440264;0.15036099;-0.20495169;-0.049727395;-0.0014370464;-0.14626688;-0.04817346;-0.050119534;-0.044043552;0.040606737;-0.1958155;0.3132986;-0.007585521;0.1685777;0.005873836;0.10262045;-0.100922495;-0.30595326;-0.06548577;-0.073564164;-0.054850403;0.25041524;0.33363828;-0.045837108;0.07504418;0.02670295;0.11049732;0.0759296;-0.46746925;0.07314723;-0.27218497;0.2527464;0.22309087;-0.17041163;0.32213545;-0.25646025;-0.13308015;0.088208124;0.15616754;-0.06944078;-0.017603252;-0.08975335;-0.09560882;-0.24609394;0.092613496;-0.15296707;-0.2995938;-0.11042749;-0.0309744;-0.122813664;0.00426813;0.32494113;0.06258117;-0.035481952;0.13088349;0.111926496;0.21038868;-0.11123424;0.02493133;-0.05640249;0.060047004;0.22027864;0.046629664;-0.06921165;0.13155276;0.10051708;-0.08552192;-0.25670514;0.034748927;-0.053163674;0.14200754;0.17710337;0.16458131;-0.08221712;0.121206306;0.26504102;0.24123345;0.3446138;0.115733154;0.14257862;0.0065651373;0.07459056;0.11404733;0.043661907;0.047732383;-0.41256502;0.03616336;-0.050699547;0.26903376;-0.08252311;-0.2581725;-0.4154825;-0.23278858;0.049865402;-0.100892454;0.1472442;-0.055868853;0.06960297;0.42957363;0.15011811;0.09318159;0.11464644;-0.08328264;-0.3501278;-0.23558825;-0.123267524;0.13852695;0.10676004;0.24461956;-0.02075005;-0.030146027;0.0678072;0.1213285;0.012933726;0.00086492166;-0.27234665;-0.17317078;0.2520363;-0.11211465;-0.1925762;0.040405486;0.20030907;-0.18653251;-0.22471704;0.14753579;-0.26956332;0.07241649;-0.0319688;-0.3289291;0.0304554;0.07307647;0.00016731145;0.13264589;0.017610135;-0.14841323;-0.040481523;-0.09175977;-0.32595485;0.17824602;0.07669669;0.1630051;0.021571029;0.0015388178;-0.2068384;-0.21479902;0.047236823;0.09235221;-0.13134949;-0.03920077;0.10298947;0.07967959;0.015429141;-0.120661974;0.08250631;-0.1387915;0.14420442;0.09547761;0.20183831;0.053061824;-0.058079343;0.13474199;-0.13021576;0.09488898;0.045391366;0.115622304;0.031422436;0.025572052;-0.046230655;0.18484941;-0.10743318;-0.21027018;0.062277455;-0.25460497;0.07527988;0.10043011;-0.08457242;-0.0250777;0.32126367;0.17660485;0.05939228;0.020815596;-0.25756723;-0.10746331;-0.06539827;0.32163972;-0.17920241;0.0649012;-0.05023723;0.14074452;0.0486258;0.21293986;0.16513498;-0.21797533;0.03445642;0.26845124;-0.2652842;-0.1826115;-0.036170106;0.10347301;-0.38882256;0.3059326;-0.01866868;-0.011663298;0.06349125;0.0745963;0.0037590368;0.020124508;-0.3657802;0.10101911;-0.24815835;-0.0033858754;-0.08284257;-0.007405757;0.015064193;0.10164505;-0.09630705;0.15565483;0.017372508;-0.037666146;-0.021588778;-0.41239026;0.41319776;0.107240245;0.12642658;-0.03842454;-0.20425507;-0.26490828;0.1160471;-0.13442217;0.14465034;-0.25966898;0.09425231;-0.10646706;0.027021222;-0.20014931;0.13407068;0.0154855605;0.13109045;0.26727566;-0.056136075;0.041098803;0.025812166;-0.1057764;0.38874447;-0.23925495;-0.013163809;0.2866781;0.18431932;-0.1579561;-0.046919268;0.2577593;0.18598036;0.02678805;-0.023292031;-0.008631856;0.12084528;0.038776677;0.011688798;0.26618272;0.17874512;-0.074465685;0.11484055;-0.35016686;0.056642897;-0.07796801;-0.18427709;-0.32644057
0.14161512;-0.025607115;0.08405364;-0.17557584;-0.33969846;0.07748049;0.073961705;0.082185954;0.12513302;0.11135088;0.11110658;-0.24894568;0.22904187;0.14653793;-0.11294557;0.10539707;-0.2780461;-0.004839876;0.10070217;-0.016858686;-0.0855584;0.013612077;0.015198981;0.058416843;-0.1885613;-0.08548663;0.18476056;0.05681217;0.000969524;0.044720035;0.23285437;-0.20948759;-0.09818186;0.060782213;-0.029680204;-0.0704256;0.24322055;-0.15344879;-0.13235284;0.060003687;-0.10306978;-0.1132282;0.039461575;0.20766602;0.043689936;-0.17189558;0.2752048;-0.13076442;-0.00032026833;-0.15795417;-0.10412203;-0.22381447;-0.03163646;-0.17152421;-0.11969706;0.035199903;0.18301688;0.045753185;0.23168261;-0.27547404;-0.10813781;0.21525234;0.21269499;-0.11177206;0.16418979;0.14094716;-0.14259589;-0.19619615;0.110094495;0.29463786;0.005632732;0.003891882;-0.05547985;-0.10142491;-0.19806188;-0.036756273;0.091126844;-0.095530994;0.17336388;-0.21322444;0.11396027;0.08561095;0.2845084;0.10419409;-0.25819415;0.1973727;0.17332274;-0.11645194;-0.03340921;-0.07096547;-0.05780766;-0.0458213;-0.14771783;-0.28940696;0.083535805;-0.18691005;0.24522911;0.044229362;-0.013091609;-0.2820607;-0.15013963;0.3088117;0.10325402;0.20616554;-0.19877273;0.16805762;-0.31593323;0.018457795;0.0777202;0.10777964;-0.04957906;0.08144051;0.0051790015;0.030016478;0.07273045;0.11604369;-0.18266807;0.15683006;-0.044169553;-0.3676189;0.20170885;0.18440492;0.16212976;-0.14971502;-0.14934574;-0.14103238;0.16494375;0.19338733;-0.4222388;0.43518987;0.12540269;-0.13672368;0.03263997;-0.12106132;0.16378786;-0.35347995;-0.12802902;0.28413936;0.11269925;0.10806853;0.31958413;-0.112424605;0.20730974;-0.13900039;-0.07359182;-0.011296467;0.18551114;-0.044961043;-0.1287645;-0.27041492;-0.24201764;-0.14876841;0.16115937;0.09507406;0.06459288;-0.14439753;-0.20413405;0.04625249;0.24933101;-0.3164328;-0.0036537447;0.15648316;0.049405657;0.21947786;0.20255844;-0.015318603;0.14217423;-0.1879611;-0.02815621;-0.013032273;0.18307243;0.1275059;-0.26707274;0.03839581;-0.054435298;0.13593273;-0.061316617;0.097125396;-0.036256123;-0.3369231;0.055962984;-0.09327828;-0.12576875;0.14350592;-0.07593731;0.12374265;-0.32843378;-0.0888104;-0.21129262;0.01839715;-0.12243259;-0.08657082;0.018438602;0.026426947;0.09372855;0.000592141;0.18587813;0.0013789557;-0.21217003;-0.0015545506;-0.17454948;0.16583839;0.14310195;0.21484332;-0.013539133;-0.35904562;0.3488529;0.021649903;0.16487919;0.116019815;0.17418645;0.03815684;-0.1922882;-0.33170757;0.016984614;0.15979308;-0.13431138;0.13099828;-0.21289639;-0.15004425;-0.18941116;-0.11857651;-0.05696407;0.06629875;0.2046488;-0.13074031;-0.36130163;-0.09853953;0.053315293;-0.07831275;-0.21244973;0.100047;-0.039465405;0.12754498;0.06414179;-0.07859343;0.020282274;0.168809;0.018153802;-0.29752076;-0.16600034;-0.043372624;0.048302867;0.1713692;0.025340645;0.16668634;0.23563732;0.07809087;-0.11568557;-0.2754554;-0.11614626;-0.1659206;0.023776114;-0.1938519;0.27996314;0.2569587;-0.12695234;-0.26142552;0.1148383;0.048046537;0.010310264;-0.047499735;0.06271732;0.32783228;0.14480686;-0.07376033;-0.17044514;0.023530936;-0.3927398;0.26831776;0.073753335;-0.0026619032;0.07465493;-0.075707726;0.2642277;-0.22903125;-0.41054267;-0.01226018;0.02236282;0.18979241;-0.23023993;0.08710939;-0.1333906;0.40164685;0.02876809;0.13258347;-0.050761797;-0.091358334;-0.13554299;-0.12602827;-0.18683739;-0.13046381;0.239099;0.106293365;-0.15457359;-0.08869407;0.06299372;0.25452077;-0.090187125;-0.15563662;0.12017314;0.09660256;0.06258728;-0.14536048;-0.5696192;0.1005387;-0.059666473;-0.117917486;-0.055672646;0.04011659;-0.031259872;-0.07631544;-0.43854252;0.047569018;-0.0542384;-0.046647448;0.0983007;-0.14075197;-0.006994593;-0.30119735;0.29238027;-0.1962084;0.4201016;-0.15625846;-0.18716031;-0.07724803;-0.13557823;-0.27244955;0.04058469;-0.015528027;0.26346502;-0.088769734;0.052871;0.14076407;0.07293326;0.39607453;0.14726856;-0.18227015;0.042780712;-0.27061975;0.3184071;0.061460223;-0.23641144;-0.002120467;-0.18137729;0.03359655;0.003944837;-0.045105945;0.04477785;-0.008872417;-0.32184175;-0.13405383;-0.30364695;0.069465764;-0.032034345;-0.36838806;-0.18625274;0.0065694633;-0.2294932;0.12088153;0.14456463;-0.045874707;-0.06902019;-0.047195274;0.007986706;0.12662098;-0.16951782;-0.18889374;0.07915251;-0.1848869;0.2380377;-0.024315238;-0.15310091;0.014008115;0.20155814;0.122337595;-0.10649833;0.12771785;-0.06608631;0.032819547;0.006547001;0.05012576;-0.120507546;0.053447995;0.3868842;0.30999088;0.16366185;-0.1485235;0.069421306;0.13931133;0.2736066;-0.03854958;-0.18264374;0.14688721;-0.5957219;0.05474792;-0.0019598138;-0.045844615;-0.16809012;-0.104579836;-0.27879497;-0.313005;-0.021466283;0.07815667;-0.18260531;-0.0064774808;0.18698433;0.29473183;0.073576465;-0.13020208;-0.07094814;-0.14873047;-0.09462034;-0.066549264;0.0195381;0.1472449;0.14070998;0.10853109;-0.1517685;-0.010296049;-0.23159203;0.22344954;-0.14461382;-0.034728386;-0.1331711;-0.17994457;0.19519275;-0.40341717;0.15133423;0.002798122;0.2949231;-0.13939478;-0.10453051;0.0638875;-0.18363234;-0.113995336;0.015724529;-0.33649555;0.17381044;0.09258676;-0.04767023;0.1806043;0.23195808;-0.2154184;-0.16219285;0.088862725;-0.06788265;-0.04862951;0.1517431;0.073778324;0.0655369;0.1590699;-0.32572564;-0.010354512;-0.014007322;-0.42830408;-0.036897745;-0.27690172;0.056174718;0.050038297;0.11763857;0.19500445;-0.10924985;0.16918057;0.04800377;0.02727071;0.061856445;-0.078141585;-0.25480497;-0.017234163;-0.05884776;-0.10994116;0.06679029;0.14034969;-0.02794804;-0.06075318;0.027428124;0.38363743;0.068135776;0.10099352;-0.0034221595;-0.12610109;0.043379683;0.07477073;-0.27795333;0.010330684;0.271581;0.09018513;0.07178499;0.10030358;-0.009394028;-0.008695551;-0.11126217;0.34856626;-0.049318753;0.04330218;-0.07680721;0.23197274;0.28955233;0.10450279;0.09140481;0.20737724;0.05757612;0.06003941;-0.26757675;0.007046801;-0.10388904;0.31610578;-0.3835454;0.17336385;-0.031164542;0.051385615;0.0793554;-0.12160298;0.046432063;0.002703179;-0.33746967;0.12504418;-0.35770327;0.056754157;0.0033927967;0.20279527;-0.15804724;0.093900725;-0.07537416;0.14385962;-0.040286273;-0.020005088;0.018114083;-0.1737913;0.12730883;-0.008919578;-0.074691206;0.0074604927;-0.22348894;-0.19847226;0.025940973;-0.41671294;0.08702552;-0.39656657;-0.04749328;0.12358723;0.08279325;-0.15840493;-0.015406233;0.16403538;0.14102654;0.6179793;-0.22338007;-0.011642195;0.0065538045;0.04353104;0.20365588;-0.21779923;-0.06839094;0.21859165;0.15736723;0.018689154;-0.14836119;0.2949145;0.06753352;0.1886158;-0.11831105;-0.05805798;0.22947516;0.14314127;0.011289435;0.24264503;0.21750134;0.038198955;0.14685686;-0.41846114;0.19584288;-0.29366252;0.13383973;-0.18825503
0.02376916;0.040577624;-0.06096984;-0.34885094;-0.22548752;-0.00797488;0.03003368;0.13639764;0.07464653;0.044126134;-0.14644703;-0.06965198;0.1345373;0.15881208;-0.068596624;0.030216625;-0.0074937874;-0.0985196;-0.08772192;0.06245458;-0.19791973;-0.06767857;-0.2827152;0.22721925;-0.021040784;0.07379785;0.27235267;-0.007009307;0.09455086;-0.18120386;0.22920822;-0.055142462;-0.07606746;-0.0096346;0.205787;0.15900113;0.18122725;-0.16476351;-0.19995199;0.10366786;-0.030995099;0.16031772;-0.09637865;-0.023574252;0.09385453;-0.16794907;0.07984644;-0.089264825;-0.18198854;-0.24565876;-0.2920722;-0.113940686;0.1562443;-0.06297186;0.024116494;-0.2083917;0.032190338;0.06067272;0.32166827;-0.27649218;-0.14583758;0.28475213;-0.10477966;-0.13011296;0.14410102;0.059254557;-0.0656199;-0.062526554;0.32121128;0.115381226;0.104870185;-0.13423707;-0.014515219;0.0034045435;-0.19724832;0.004849651;-0.0009946646;-0.05307249;0.11599796;-0.18857038;0.109807104;0.15085831;-0.06776963;0.1379961;-0.24267714;0.14197145;0.21078095;-0.21552272;-0.083690345;-0.024726992;-0.020290093;-0.038679685;-0.01675524;-0.3549218;0.15312864;-0.10117129;0.19835006;0.088105164;0.1401663;-0.100570284;-0.1144128;0.14088373;0.19258775;0.045585327;-0.18793237;-0.06659488;0.041604705;0.1926844;-0.0057118097;0.22632706;0.018151337;0.1316106;-0.04240207;-0.02983499;-0.039846048;0.07632037;-0.079220235;0.13271214;0.06007564;-0.2050826;0.052134853;0.28528905;0.22678271;-0.11822195;-0.102194905;-0.2089808;0.19354194;0.11232451;-0.47463408;0.33231315;0.24129108;-0.24137922;-0.027186057;-0.32007432;0.12842982;-0.4382524;-0.30559266;0.113495186;-0.043968532;0.2136701;0.28980374;0.026986936;0.2825028;-0.067933135;0.05393337;0.056198873;0.10517514;0.16316986;-0.20015848;-0.2014348;-0.07750828;-0.04144373;0.381026;0.16902298;0.09377146;-0.01053452;-0.02596814;0.27194273;0.18639794;-0.107248895;0.07568721;0.21406825;0.14391027;0.31166697;0.07199981;-0.0017149904;0.16877484;-0.091115505;-0.142902;-0.17526446;0.07147287;0.15083735;-0.054655153;0.027366081;-0.10899663;0.050719056;0.018029371;-0.11473178;-0.09837233;-0.091464296;-0.03891608;0.007869139;-0.08562728;-0.010050134;-0.17117429;-0.08682163;-0.34842747;-0.23811978;-0.21905933;-0.2513968;-0.16083607;0.09026911;-0.05880464;-0.094230145;0.27918482;-0.08538739;0.21716557;-0.10625343;-0.06289433;-0.04136232;-0.034102388;0.21077132;0.033885613;0.20101205;0.18720752;-0.40436992;0.13291241;0.2494506;0.04324601;0.018538995;0.3216608;0.14893699;-0.015633114;-0.15343088;-0.024829479;-0.057446595;0.006084112;0.045038823;0.053257566;-0.2501015;-0.3303889;-0.11703542;-0.11492813;0.16107398;0.21196954;0.0036189647;-0.26488063;0.11378293;-0.10886596;-0.010983449;-0.029562527;0.06732689;-0.028959397;0.092262134;-0.07038493;-0.034807213;-0.0849734;0.16241266;0.11237104;-0.012702564;-0.103941694;-0.18385643;0.10964537;0.08455421;-0.02339712;0.03284595;-0.0048170146;0.23567474;-0.31339487;-0.11846276;0.07940073;-0.1447381;-0.05192584;-0.23778631;0.13726105;0.22691227;-0.044925753;-0.18528819;0.108322896;-0.040219042;0.0008768692;-0.041384105;0.05528142;0.1430524;0.07840952;-0.08090422;-0.15805197;0.1900579;-0.19826151;0.23015225;0.065119244;0.026963571;0.08114041;0.169914;-0.015360851;0.0004293173;-0.2611598;0.14130965;-0.013574505;0.10598942;0.21100679;0.32446128;0.024784092;0.42440963;-0.034964703;0.12151933;0.20959727;-0.12959701;-0.1630182;-0.17582549;-0.20677513;0.012390987;0.12844472;0.17901693;-0.042971764;-0.117772005;-0.014939427;0.2552147;-0.08701878;-0.17048688;-0.013230506;0.13202564;0.096956946;-0.2311514;-0.26292405;-0.09267818;-0.094803214;0.004730896;-0.49006096;-0.21014757;-0.031109175;-0.21868451;-0.11123974;0.110823974;0.009321362;-0.11326106;-0.016715305;-0.05345333;-0.06677595;-0.14527129;-0.027762186;-0.068474725;0.35501176;0.07816505;-0.27239594;-0.6880706;-0.07100579;-0.14374399;-0.06837397;-0.10412979;0.28562805;-0.15156843;-0.16683996;0.2339976;-0.113201275;0.14603938;0.05162503;-0.43499917;0.36242357;0.051972587;0.2331854;-0.0044478993;-0.18741618;-0.02554646;-0.39845926;-0.02923624;0.009375677;0.005249714;0.0063594095;0.05175182;-0.2712435;-0.13732924;-0.15754734;0.0023079985;0.050241623;0.05388053;0.23548877;-0.15060306;-0.10830475;0.09882552;0.03968944;-0.020798901;-0.30223876;-0.33479142;0.045882292;-0.029447144;-0.18417652;-0.037369914;-0.2205626;-0.114119;0.2527932;0.05763484;-0.12480915;0.078874744;-0.064368196;0.11219303;-0.040184658;0.2451269;0.015371914;-0.04226113;-0.015336114;-0.14875303;-0.10509831;0.3803524;0.31697452;-0.03780453;0.05613636;0.17532538;0.22458395;0.10382645;0.054620955;0.05691594;-0.36997938;0.2642402;0.021015257;-0.0045911507;0.14947766;-0.1268654;-0.14774221;0.10522751;-0.24022374;-0.18668318;-0.12772562;-0.07314521;-0.28858897;0.03513624;-0.005969204;0.22551183;-0.08094369;-0.21831387;-0.24615766;-0.0058359494;0.11875485;0.2366136;0.2641503;0.26006362;0.16099745;0.20330682;0.108763985;0.0631139;-0.16904186;0.057109654;-0.087198295;0.167453;-0.0150245465;-0.22021987;-0.0009092559;-0.23375879;0.086252876;-0.008641698;0.27109146;0.009044272;0.048015226;0.044358887;-0.34798098;-0.04361996;0.039787173;-0.08075585;0.21055965;-0.13804626;-0.013545923;0.13453622;0.362517;-0.3070983;-0.081832424;0.24105889;-0.19459994;-0.2169537;0.052542496;0.08691887;-0.11086647;-0.21013737;-0.14640781;0.027683547;0.013682678;-0.27192408;-0.10908647;-0.4115046;0.07367702;-0.07384276;0.14364167;0.28496587;0.12893131;0.24219002;0.097406924;-0.026822874;0.35725203;0.07411842;-0.32588503;0.029082516;0.0490204;-0.25848415;0.22736797;0.2011295;-0.16799778;-0.12539701;-0.021194343;0.16767418;0.15579939;0.13909872;-0.11305594;0.31843257;-0.02415624;0.10898166;-0.0424126;-0.1765801;-0.05527261;-0.15325665;0.19882005;0.15175503;-0.04349162;-0.049011327;-0.114664234;0.12443613;-0.07922899;-0.036547463;0.06905839;-0.10720196;0.12549584;0.046162378;-0.17222483;0.06391551;0.163305;-0.07609946;-0.16468987;-0.036949553;0.019624533;0.016782518;-0.5370938;-0.10566685;0.028265959;0.0063889334;0.13241836;-0.11120347;0.16675246;-0.18928683;-0.100276016;0.039151024;-0.06328091;0.15115985;-0.06926529;0.18973236;0.23204431;0.27070177;-0.021640021;-0.1482588;-0.21439005;-0.043942463;-0.029132389;-0.37788168;0.15165563;0.11738345;-0.00977514;-0.057076644;-0.1737114;-0.043608602;-0.11575649;-0.19507182;-0.2208958;-0.46459877;0.17890003;-0.006927642;-0.05768214;-0.36079413;0.0077140313;0.05039845;-0.01481494;0.36314607;-0.00035771512;0.23293908;-0.17390189;-0.15451609;0.31026995;-0.25586656;-0.10358186;0.16750063;0.013800294;-0.37960413;-0.04364228;-0.09097183;-0.014098;0.1409303;-0.24848062;0.25921667;0.10606275;0.11763549;0.15486488;0.1813277;0.2628981;0.15449968;0.096924126;-0.62816083;0.15645741;-0.036351625;0.20486376;-0.22358137
0.02936267;0.0036000498;-0.09546655;0.11344988;0.077527575;0.13507618;0.06257095;-0.003160209;0.24579212;0.14403094;-0.14047904;-0.16533902;-0.15690085;0.05146993;-0.15647395;0.13534465;-0.033568446;-0.03334575;-0.13845553;0.0051052445;-0.24023378;-0.048386097;-0.4112126;0.05875655;0.05804952;0.043004945;0.16953212;0.10108278;-0.12038795;-0.050652146;0.1480094;-0.20317988;-0.051135648;-0.22044471;-0.35814646;-0.0393054;-0.10611868;-0.35198322;-0.2942082;-0.11312762;0.09375327;0.030408975;0.026221748;-0.12342743;0.11408175;-0.28711408;-0.020675648;-0.15398262;-0.25955465;-0.06970035;-0.16454256;-0.17526244;0.16551968;-0.12126498;0.13629791;-0.049358677;0.24961348;0.07029885;0.05611332;-0.29986504;0.13837194;0.052859887;0.0027167804;-0.06753038;0.011573574;0.1928332;-0.0022942543;-0.07392237;0.23590091;0.358292;0.14516546;-0.11784811;-0.014671821;0.03881136;0.027005702;-0.11116575;-0.11312529;-0.17232849;-0.14640363;0.03712946;0.2509251;0.15938172;-0.034543432;-0.21844873;-0.17359284;0.085239135;0.06041895;-0.29662284;0.041131895;0.041589156;0.088414624;0.2466426;-0.032222304;0.051397853;0.10916796;0.039446805;0.2692429;0.12311475;0.068648264;0.12458964;-0.26470453;0.29164094;0.17782505;0.16237529;-0.09386976;-0.052788418;0.038897656;0.22545952;-0.270919;0.0046977806;0.19499801;0.092904545;0.10156265;-0.12745047;-0.025256284;0.21061553;-0.08507121;0.23043214;0.022752998;0.15784612;-0.24975963;0.05153628;0.0045836046;0.080908336;-0.021668734;0.06876881;-0.0036246094;0.11463186;-0.2295821;-0.1745921;-0.17660898;0.0005825656;0.071761414;-0.22046614;0.2181265;-0.40252367;0.059248134;-0.14656569;0.23835169;0.3054132;0.26130888;-0.104960896;0.2545828;-0.07682209;0.10366903;-0.10004956;0.027771808;0.19438918;-0.17819874;-0.05017591;0.16594799;-0.013233507;0.29843378;0.18316187;0.2027198;0.1253283;0.00939551;0.21895;0.18566813;-0.35025516;-0.08239552;0.09729895;0.0013438073;0.1682576;-0.0826881;-0.08663137;0.20995323;0.084060326;-0.10654548;-0.04052116;0.000789629;0.031196458;-0.20925115;-0.21187374;-0.06982113;0.19539529;-0.1474824;-0.19922417;-0.1208494;-0.16812076;0.103718735;0.36355606;-0.03728179;0.031253725;-0.1626328;-0.07578484;-0.2904196;-0.32992515;-0.029958354;-0.34716967;-0.23723245;0.1470817;-0.021862013;-0.13482954;0.09193199;0.24856144;0.04291608;-0.082264476;0.13778757;-0.13866244;-0.22255771;-0.006048139;-0.07689747;0.26828575;0.050348293;-0.13541223;0.2170025;-0.08087322;0.15091552;0.16020225;0.14437863;0.05416646;-0.11321782;0.057631813;0.11143431;-0.16707434;0.21403939;0.03660574;-0.16736147;-0.25804654;-0.22151615;-0.37981024;-0.056970134;0.07402034;0.25877446;-0.117349364;-0.05349528;0.08812259;0.0040332843;0.055601437;-0.053608;0.060222454;-0.01989042;-0.039705377;0.0949327;0.02868297;-0.12967794;0.08471328;0.38213995;0.007466995;0.07524868;0.056960363;0.08564754;0.08048996;0.19599491;0.28318542;0.17575395;0.1435443;-0.015987957;-0.08905365;-0.014270816;-0.07959803;0.011211474;-0.40391883;-0.1710414;0.26342613;-0.03523427;-0.15883608;-0.05637211;-0.067928165;-0.07338248;-0.004580738;-0.058096662;0.27639994;0.18684313;-0.10700689;-0.117144376;0.016007002;0.0014493251;0.3203221;0.12333025;0.20266289;-0.120415434;0.054172263;-0.104159445;0.21241148;-0.00037143021;0.14940087;-0.08834383;0.04923745;-0.09605244;0.26959807;0.07194233;0.31232303;0.020373413;0.11818331;0.117468424;0.0053833677;-0.13428812;0.085002676;-0.20080212;-0.1384914;0.06945623;-0.08258278;-0.14198497;-0.10690363;-0.019619701;0.10352129;-0.15353434;0.05285021;-0.14979404;-0.21463652;-0.081414565;-0.20243545;-0.15334609;0.008365505;0.08292173;-0.14174047;-0.2856008;-0.054628614;0.25954634;-0.16588849;-0.00621943;0.101494856;0.02347529;-0.055245887;-0.08739467;-0.08627633;-0.1740817;-0.19472252;0.06943399;0.13898773;-0.007366014;0.11494262;-0.023568075;-0.29531094;-0.07868432;0.13340162;-0.10326545;-0.035229392;-0.15057902;0.13581035;-0.0033482458;0.16590673;0.043224167;0.15039064;-0.12827995;0.050922666;0.15383413;0.04831309;0.2012839;-0.061227802;-0.21111058;-0.021639787;-0.18294951;0.048597734;0.1145026;-0.22804251;0.062542655;0.12527841;-0.20161727;-0.0006766297;0.027018895;-0.0868811;0.27330703;0.25986496;0.20874625;-0.055657815;0.017775578;-0.039183754;0.06776014;0.06358012;-0.18969531;-0.16698042;0.071865425;0.15519065;-0.05148986;-0.08197716;0.10929421;-0.02667081;0.16211301;-0.15716891;0.100425966;0.1036118;-0.23498805;0.24379505;0.23653232;0.01186677;0.08588674;0.053236306;0.087048985;0.08804161;0.21147689;0.1737691;0.036131334;-0.11572699;0.13121134;0.098588206;0.13558197;-0.36791676;0.053668663;0.122053914;-0.27683496;-0.105100304;-0.35838974;0.08313188;0.13451098;0.092399076;0.056938495;0.22668187;0.010644874;-0.25038064;-0.0070401942;-0.0680621;-0.033011686;0.022272496;0.32741028;0.26136276;0.1572027;-0.3218637;0.07289521;-0.040923305;-0.02295389;0.19271874;0.24529143;0.06473456;0.0724146;0.16558115;0.18069665;-0.082832776;-0.17145346;0.06852067;-0.23423107;0.13332461;0.23570241;-0.35239148;-0.06498516;-0.16081406;-0.11052196;-0.20274502;0.05875174;-0.0566196;0.08905639;0.2950706;-0.11180369;-0.025361616;-0.037347656;-0.04774806;0.15872757;-0.06827284;0.06581939;0.08713924;0.028296228;-0.12666231;-0.11234249;-0.06424397;0.109677784;-0.011263011;0.06197893;0.0049906527;-0.10009725;-0.42194557;-0.10951908;0.19319692;-0.03328576;-0.29356742;0.039744485;0.034064826;0.10017298;-0.054348808;0.116829686;0.11787314;0.06518547;-0.017594384;0.026024768;0.023895966;0.26476216;-0.17887303;-0.15038507;-0.16386577;-0.0055740597;-0.03266374;0.03269436;0.011746743;0.16523422;-0.27838016;-0.13261573;-0.05313357;0.12446112;0.0017063647;-0.14490022;0.09567583;-0.15903956;0.37029412;-0.23208451;-0.1803664;-0.02989855;-0.1246557;0.16109847;0.10218879;-0.058638223;0.08384876;-0.033510804;-0.091495164;0.15032277;-0.073588006;-0.027331946;0.029110707;0.27007958;-0.027153183;-0.023050992;0.030383471;0.12318335;0.26539266;-0.30044433;0.17836517;-0.047395747;0.21823709;-0.055063102;-0.16372882;-0.08515241;-0.047346383;-0.016398795;0.03156664;0.30786765;0.17476337;-0.2524259;-0.075673625;0.008725007;0.0359119;0.26394594;0.12113821;0.033421226;-0.021375803;-0.07930281;-0.006906919;-0.037749693;0.17209296;-0.012884251;-0.28610763;0.21233991;0.14863962;-0.26158077;0.08795292;-0.22438201;-0.014901521;-0.0886374;0.15485649;-0.06683373;-0.17733732;-0.059960365;0.0009591837;-0.10190379;-0.070544116;0.2101728;0.07981939;-0.051021997;0.28779966;-0.104103774;0.20904407;-0.05638965;-0.12619995;0.27607575;-0.30521262;-0.030214317;0.20467421;0.08796414;-0.07089634;0.089370094;-0.35461327;0.13005513;0.03324754;-0.038971085;0.14961766;-0.122018695;-0.051018607;0.2606502;0.13819282;0.08693364;0.09835621;-0.07932179;-0.28227675;-0.3122593;0.11999087;0.07943805;-0.4837276
0.0331639;-0.19442816;0.0011281032;0.43018478;-0.079058245;0.063507274;-0.059953384;0.011566753;0.43929046;-0.14655174;-0.18346652;-0.07590569;-0.250957;0.27693412;-0.074991554;0.053146258;-0.3714279;0.19282854;0.0049621766;0.058201868;-0.14674717;0.20098376;-0.32583225;-0.026483184;0.10588345;0.3104167;-0.05632413;-0.1143449;0.02924298;0.020879075;0.21781775;-0.13636862;-0.010497536;-0.26048952;-0.038609996;-0.06885164;-0.09129938;-0.22180423;-0.2724808;-0.0716757;-0.0886691;0.010397181;0.11704104;-0.2629335;0.30168557;0.03966075;0.07170173;0.1462585;0.013994716;-0.16406171;-0.03520581;-0.13257213;-0.059075378;0.063778855;0.19507566;-0.18128291;0.052803654;0.13624205;0.014380645;0.07229247;-0.11894503;0.04473516;-0.20579928;0.21632646;0.09118643;-0.017926829;-0.02853016;-0.3091932;0.20425823;0.14138243;0.20340583;-0.090537265;-0.039129484;-0.07865879;0.19582212;-0.10044443;-0.012493797;-0.01019938;-0.12478415;0.02809461;-0.02320268;0.07158922;-0.057391148;-0.2741931;-0.22890624;-0.082291275;0.10746156;-0.09615979;-0.054820593;0.20449866;0.07428223;0.17282645;0.18650098;-0.05986826;0.14326586;-0.068548426;0.31573692;0.06987368;0.2895304;-0.09065413;0.0051034153;0.23520264;0.13358623;0.19593489;0.09733134;0.15345174;0.025151968;0.027055738;-0.11044092;0.10374839;-0.024225548;0.110335104;0.18590017;-0.14083096;-0.1031955;0.0639346;-0.08074217;0.08825797;-0.008503653;-0.05175458;-0.28940418;0.007208418;0.03582377;0.1312173;0.14443941;0.20231599;0.13312514;0.049127884;-0.12389667;-0.3509257;-0.22180592;0.06529343;0.16127977;-0.08112563;-0.055871498;-0.3204205;-0.12792905;-0.1253645;0.3088875;0.079686664;0.33560193;-0.188974;-0.08862121;0.054549772;0.04229361;-0.08929934;0.0045625265;0.40915456;-0.1266849;-0.049181506;0.014149499;0.020253409;0.120396845;0.23980215;0.16035965;0.3201364;0.03719575;0.018138627;0.06471969;-0.33668095;0.26750767;0.1140564;0.099248484;0.073030055;0.14686742;0.004877659;0.32876828;0.003950517;-0.20755422;0.0450362;-0.051345732;-0.043532122;-0.54409754;-0.034135867;0.06771503;-0.06848791;0.055927318;-0.03586211;0.0600644;-0.4044683;0.14474931;0.21867979;0.18078852;-0.15193829;0.106364064;0.05105494;-0.3695694;-0.23325987;-0.27259335;-0.25080135;-0.092032865;0.15797637;-0.105707444;-0.19692627;0.106145896;0.3246703;-0.14199762;-0.07978828;-0.24010928;-0.1730904;-0.29831082;-0.041684818;-0.17417364;0.34863535;0.28028297;-0.08896139;0.27708378;-0.100184865;0.119663484;0.026623646;0.056760196;0.017366806;-0.12675385;0.19024721;-0.116902694;0.059670985;-0.019901948;-0.07768414;-0.058882352;-0.26454306;-0.12242246;-0.29502383;0.15411606;0.025978277;0.19671342;0.19606121;-0.15550478;-0.24372743;0.12034755;0.020301478;0.05782812;0.033389132;-0.1877481;-0.18689395;-0.02867289;0.06685019;-0.19709416;-0.08582592;0.34413818;0.025668602;0.13681306;0.012518895;0.13186444;0.018562716;-0.08686981;0.35008296;0.0503359;0.1603943;-0.3880224;-0.026824884;0.11674629;-0.091983974;-0.030871239;-0.13743065;-0.097295105;-0.01969809;0.029171888;0.15768884;-0.1496609;-0.04194757;-0.017787328;0.0495439;0.14927232;0.093638875;0.11354918;0.070861146;-0.15385376;0.025850162;-0.015904587;0.39960027;0.22540063;0.1587906;-0.11991593;0.058318626;0.15916118;0.25557184;-0.26266629;0.040910035;-0.11275123;0.25342864;0.12356969;0.34153858;0.16486245;0.120913714;0.18802272;-0.18064883;0.08434923;-0.033188667;-0.1471895;0.07569945;-0.15169093;0.040766902;0.09882136;-0.016088936;-0.19791193;0.045835055;0.12873143;0.18640396;0.036721185;0.20338619;-0.048454728;-0.30528918;-0.017211735;0.070820056;-0.09700125;-0.012199617;-0.026331106;-0.11745794;-0.006165186;-0.07246504;0.16252108;-0.23690756;-0.0059771263;0.10454698;-0.043070037;-0.007940026;-0.1151693;0.09680363;-0.35228688;0.0006900663;0.17773536;0.18339194;0.028441668;0.23879176;0.108197235;-0.061444227;-0.20380904;0.010246884;-0.28829786;-0.38327903;0.015396381;0.07911153;-0.10717076;-0.07248079;0.2288456;0.024753427;-0.26808843;-0.018596994;0.015361289;0.03431701;0.00809345;0.25949237;0.18396473;-0.30997002;0.051129133;0.027289843;0.110206306;-0.29051316;-0.05225889;0.1078662;-0.13682783;-0.015348431;-0.07993889;-0.14448978;0.27647945;-0.045791592;0.32616627;-0.004616041;-0.04328916;-0.084185675;0.12136913;-0.090937234;-0.49912465;-0.06784446;0.09470352;0.33850563;0.13852032;0.095714696;-0.089990996;-0.08864949;-0.10140056;-0.0123177245;0.34959826;0.23681675;-0.1361603;0.2930896;-0.16114187;-0.049874485;-0.04968516;0.030036205;0.090093195;-0.25252274;0.2572029;-0.13926367;0.027960764;0.00055160053;-0.09854598;0.14329264;0.15128611;-0.14550503;-0.03293019;0.41955063;-0.29171926;-0.0042360956;-0.4302624;0.006434242;0.06966471;0.18413147;0.06276321;0.20896693;0.017076436;0.024105206;0.16407292;0.15807357;-0.23130997;0.12473432;-0.014674316;0.17951515;-0.03799832;-0.10566478;-0.040537726;-0.19088241;0.08388985;0.14772633;0.2109697;-0.19412465;-0.06659151;-0.0107021695;0.08727467;-0.12110188;-0.16711004;-0.13353859;-0.09532925;-0.0037412392;-0.1377871;-0.027025064;-0.23977348;-0.18770991;-0.29218954;-0.2459014;0.112029426;0.27693757;0.01841006;-0.027872374;-0.050204016;-0.023574201;0.046513442;0.046472177;0.07147325;-0.035260424;-0.05929122;0.23806149;0.095846035;-0.12984696;0.05222509;0.1957241;-0.08189648;-0.15249096;0.4285778;-0.07769017;-0.0025533275;-0.24241433;-0.15916334;0.1647777;-0.028786061;-0.46507895;0.088228226;0.33969852;0.1514604;0.021299189;0.031772994;0.36273748;-0.28995195;0.15564445;-0.043260645;-0.08763599;0.22433966;-0.15911902;-0.058317333;-0.30499724;-0.101925395;-0.17682515;0.18376218;0.054516677;0.0047916546;-0.09346058;0.032435305;-0.0096511;-0.45249435;0.14984941;-0.19897692;0.14354385;0.045627512;0.28922066;-0.1959114;-0.13641639;0.09686165;-0.07293897;0.049497496;0.058023315;0.175048;0.17183529;0.15064605;0.022100212;0.07310642;-0.07212782;-0.16622095;0.15598354;0.29282564;0.03286024;0.037283532;0.17442706;-0.067991555;0.1715428;-0.02389416;0.25641042;0.17598592;0.089129575;-0.02407968;-0.13799678;-0.12082695;0.17995474;-0.019452335;-0.11853117;0.34853882;0.1314182;0.27578342;0.141199;0.036165975;0.028334415;0.22923695;0.22032166;0.18008669;0.11434225;-0.053148903;-0.01857207;-0.075353056;0.11680266;-0.19766179;-0.7435312;0.03374817;-0.08156774;-0.22772093;0.21573207;-0.29031724;0.015763147;-0.06450858;-0.21693642;-0.2842378;-1.8538314e-05;0.07942887;0.17443928;-0.17931272;-0.002660166;0.06561588;-0.011799023;0.06789236;0.047013644;-0.026020901;-0.05358936;0.038959455;-0.08384361;0.54458445;0.0056470227;-0.108742535;0.0675488;-0.04719936;-0.08055688;-0.20115313;-0.60574484;0.28302813;0.002837176;0.110379;0.22308111;-0.07126705;0.10856733;0.26888523;0.20545493;-0.34851807;0.030586785;-0.085289046;-0.1642982;-0.17143893;-0.071085356;-0.05648597;-0.4831155
-0.04183526;0.07981384;-0.3064433;0.49321416;-0.173103;0.05034762;-0.04589054;-0.16770151;0.03180103;-0.031971365;-0.11247548;-0.056013834;-0.018599564;0.12408953;-0.076421775;-0.12919413;-0.20127407;0.1441399;0.017442988;0.07064253;0.018909102;0.1441588;-0.4377895;-0.053344347;0.06776481;0.26732305;0.10213422;0.21043193;0.14068083;0.14323665;0.06893324;0.0016322811;0.07205807;-0.17200005;-0.6231626;-0.17641406;-0.04293983;-0.20291196;-0.15552525;-0.049642127;0.043362852;-0.07496222;-0.050284974;-0.030216962;0.2828254;-0.1419715;0.101979695;0.24063055;0.106440626;0.09118644;-0.18833205;0.21165802;-0.037647817;-0.1534645;0.040944226;-0.1944097;-0.003986619;0.08434873;0.21859002;-0.18756168;-0.14016238;0.2757367;-0.16493517;0.085074075;-0.11396962;0.06477747;-0.10789919;0.049679365;0.037465475;0.023418186;0.28886193;-0.005805325;-0.19257233;0.15270828;0.19675511;0.08782654;-0.07700544;-0.052364755;-0.16926336;0.18673941;0.19385104;-0.10684449;-0.16348971;-0.28845823;-0.14410019;0.09561833;0.02107936;0.2926872;0.105230935;-0.025268897;0.042305242;0.11599475;0.10070844;-0.0055682804;0.39980933;-0.032105975;0.5214902;0.22143127;0.20961197;0.04642334;-0.021212954;0.26703832;-0.013053309;0.27423096;0.062772594;0.21785705;0.14351217;0.11670578;-0.29936346;0.23867495;-0.24028437;0.022198742;0.1090877;-0.26311097;-0.15984407;0.10788422;-0.0061098086;0.12050255;0.17311834;0.13312633;-0.17299315;-0.23416354;-0.13638474;0.25876975;-0.008450807;-0.13914783;-0.033130787;0.10021878;-0.06503366;-0.15509032;-0.19386576;0.20742586;0.17017137;-0.26949984;0.3074234;-0.41381088;0.016123282;-0.17704903;0.18594785;0.1597943;0.44136104;-0.07247277;0.04628886;-0.02122855;0.0030723407;0.19072278;0.124211214;-0.07816084;-0.076150976;-0.1134942;0.025889866;-0.02915518;-0.0931452;0.105713785;0.07819229;0.11555254;0.102879256;0.06537612;-0.06617479;-0.3674091;0.308327;0.09034482;-0.09157435;-0.017849853;0.22964998;0.01884831;0.3103309;-0.033737987;-0.14646617;0.05686288;0.031783182;-0.09534112;0.012616648;-0.06797072;0.059162498;-0.06385989;-0.04918396;0.07621467;-0.058659114;-0.37875897;-0.015912848;0.31596252;0.09742629;0.125907;0.069022685;-0.10830888;-0.08779077;0.12888196;-0.17446211;0.030910248;-0.099564545;0.048555322;-0.09976296;-0.096328475;0.21571872;0.3035814;0.041270673;-0.1111827;-0.15484507;0.042992994;0.023253387;0.041407302;-0.121113434;0.11027238;0.31459627;0.020578507;0.36215684;-0.0066575203;0.07942128;0.070947185;0.09317098;0.2779749;0.0023933498;0.36944476;-0.13713567;-0.020269519;-0.021207763;0.116944395;-0.09539554;-0.19129461;-0.24833828;-0.23234685;0.31527424;0.054990638;0.030950274;0.21751226;0.28221032;-0.06570996;0.14869018;-0.009878168;-0.011237165;0.14715452;-0.12766767;-0.22479202;0.00684305;0.11193256;0.015037959;-0.019120349;0.0043551372;0.03330063;0.24555436;0.16698727;-0.012138108;0.014021472;-0.028061548;0.086032346;-0.16939238;0.17211601;-0.052812878;0.009941022;0.09388318;0.039664067;-0.18597841;0.022895157;-0.14589174;0.052084357;-0.053089898;0.44330767;0.023348367;-0.003908474;0.068381704;0.056776002;0.18215923;0.057745535;0.13182624;-0.15542905;0.2742269;-0.13597582;-0.086639404;0.2166998;0.0721816;0.283105;-0.21273619;-0.07741722;0.12045491;0.32567453;-0.060747467;0.008629364;-0.08771743;0.0045305756;0.21817966;0.29580793;0.09653345;-0.23999518;0.112505786;-0.006501134;-0.004219817;0.095054016;-0.049874425;0.16785826;-0.09942688;0.108748116;0.13954984;-0.120912775;-0.07116792;-0.06005369;0.21995705;-0.102756366;0.113478966;-0.0602823;-0.27430677;0.028393133;0.08317767;0.15884013;-0.36096287;0.34250143;-0.38817292;0.080173686;0.16723429;-0.09880719;0.13630897;-0.10352139;-0.017918838;-0.04794654;-0.038167514;-0.016722102;-0.014784615;-0.032778647;-0.22973788;0.1771141;0.11559219;0.018075708;0.03699287;0.22665502;0.025348784;0.031592056;-0.23259537;0.19701324;-0.11250856;-0.11219503;-0.037787937;0.4102243;-0.076011986;-0.21619937;0.24272615;0.070266105;-0.12641011;0.0728759;-0.17862615;0.09623825;-0.021793744;-0.11330805;0.103224106;-0.4422674;0.012354428;0.11107253;0.07224371;-0.30549207;-0.022954011;0.09039276;-0.31797257;-0.08654282;0.017847136;-0.19451758;0.012881548;-0.028258113;0.13594721;0.11399348;-0.10796775;-0.07177622;0.14456707;0.0648906;-0.6204038;-0.2010515;0.10371376;0.3234732;0.045150325;-0.11482329;-0.13570955;-0.24265982;0.11009257;-0.20540088;0.10977233;0.25573283;-0.22881712;0.181066;-0.2507446;-0.043964013;0.067091584;-0.2600317;-0.013952964;-0.07931553;0.31696618;0.06476998;0.12086347;-0.25699618;-0.2511871;0.0002973197;0.06796274;-0.050332747;-0.03085227;0.005416938;-0.41476044;-0.040248662;-0.238729;-0.037880436;-0.028759614;0.0863476;-0.08391109;0.05824938;-0.13925563;0.12468388;0.23781289;0.25415334;-0.1952872;0.15601729;0.19000205;0.14803027;-0.20595033;-0.20802699;-0.086451694;0.014173923;0.10939998;0.070859164;0.3186987;-0.1412258;-0.043061405;0.070876114;0.13388424;-0.16081692;0.00057065906;-0.07571194;-0.030747218;-0.06064012;-0.43288848;-0.14761208;-0.12356553;0.1831407;0.07310954;-0.26176253;-0.05153037;0.2062919;0.081717685;-0.19403253;-0.032948457;0.13623558;0.23620473;0.16181752;0.20521279;0.087429576;0.05148257;0.28164914;0.11617028;-0.012725101;-0.24498418;0.29215288;-0.013413696;-0.16298002;0.100186594;-0.10934173;-0.012611717;0.03617052;-0.015660616;0.12341204;-0.054458402;-0.22244701;-0.13503338;0.21806617;0.18947;0.18387108;0.15591426;0.13221198;-0.23132768;0.08063045;-0.04633447;0.13197945;0.24432872;0.46066278;0.045854155;-0.17469779;-0.19144112;-0.14582367;0.059060678;0.15948592;-0.095147535;0.00618414;0.15310638;0.26263666;-0.15210012;0.018991416;-0.117388085;-0.0723418;-0.2997375;0.04527923;-0.10427291;-0.04608771;0.05273949;0.20282534;0.044509415;0.09846171;0.106923714;0.27767637;0.002999179;0.1956244;0.15526792;-0.23070052;-0.17131905;0.09896613;0.063539706;0.01284991;-0.41851923;0.34830952;-0.09944385;0.26307988;0.021831946;0.24703611;0.36830583;0.10224805;0.15077685;-0.096313484;-0.16410673;0.3167846;-0.15543535;0.11421647;0.1140479;0.14401412;0.39114183;0.05469415;0.11202226;0.042946696;0.015996061;0.11562556;0.13602996;0.21131505;-0.21483478;0.055108685;0.009689647;0.057563707;0.08264799;-0.7443779;0.10200487;-0.029743757;-0.33840257;0.12719521;-0.2237768;0.07994197;-0.015969409;-0.24001834;-0.37445787;-0.06840957;0.037729014;0.12764274;0.020884125;0.28094238;-0.05982823;0.021796038;0.1788468;-0.078056246;-0.31641975;-0.15268882;0.16558221;-0.012052074;0.28870445;-0.28442246;-0.041398477;0.083263956;-0.04822902;-0.30639178;-0.39339375;-0.30844373;0.21315119;0.14283402;-0.21446931;0.052682582;-0.35282025;0.21140382;0.17222427;-0.075284675;-0.2904966;0.07574229;-0.26164216;-0.13283567;-0.17176118;-0.09078329;-0.0108750705;-0.60731643
0.10515686;-0.047064874;0.19148022;0.09399898;-0.34689587;0.2540618;0.027907047;-0.2948442;0.2404607;-0.029845184;-0.14695542;-0.04210266;0.13617659;0.12647626;0.09634548;-0.034580108;0.032880258;-0.114524536;-0.22604586;0.14120786;-0.28313747;0.32371932;-0.19837539;-0.09750274;0.20213458;0.2152966;0.10559705;0.2797232;0.12841281;-0.0920345;0.0338784;0.017020842;0.21485531;-0.046305206;-0.5298118;-0.22417991;-0.012056843;-0.16658805;0.047398385;-0.17473765;-0.13647844;-0.05533268;0.032162193;-0.1862086;0.277409;-0.49574667;-0.007667668;0.061352473;-0.1296193;0.0064015337;-0.20599578;0.20085134;-0.15494852;-0.1043683;0.411046;-0.048632782;0.17454901;-0.050212633;0.2916434;-0.15919688;-0.29802138;0.23045261;0.087321796;-0.030354634;-0.27327096;0.027731968;-0.22977898;-0.15823136;0.079427116;0.4822781;-4.7972302e-05;0.12864678;-0.10964339;-0.1230408;0.1131309;0.07129896;-0.17087437;0.19045095;-0.077625856;0.100705385;-0.107693054;-0.06653653;0.095784575;-0.082859196;-0.26364687;0.20131235;-0.20065354;0.1701938;0.1985368;-0.22457722;0.13537224;0.3524864;0.09293513;0.0070192674;-0.06109975;-0.015336377;0.340608;0.12175631;-0.31838694;0.14548062;-0.033615656;0.21598224;0.1320914;0.16982661;0.027566638;0.11446277;0.14644314;0.063917086;-0.3618278;0.18811892;-0.12622881;0.046963967;0.11820465;-0.22584355;-0.17439716;-0.096015185;0.22224128;0.012127007;-0.12327585;-0.071129754;-0.24116638;-0.21366446;0.03263101;0.20210177;0.14523114;-0.17470203;-0.021900555;0.20519143;-0.36979663;-0.092924386;-0.22074994;-0.16678351;0.17812856;-0.38327116;0.3020137;0.11025342;-0.2574098;-0.09047288;-0.17045708;0.0814278;0.17081848;-0.22489616;0.10848192;-0.10337593;0.03080491;-0.060766514;0.014854889;-0.21668877;-0.003278552;-0.03240737;-0.08971131;0.15878522;-0.085903056;0.023022009;0.22856867;0.13121253;0.09898804;0.009303707;-0.074275866;-0.2728239;0.21288459;0.052048013;0.16678704;0.11010129;-0.07119641;-0.09102644;-0.17976733;-0.06417017;-0.1987924;0.19190949;-0.08945365;-0.20872305;0.025992298;0.049769517;0.17893313;0.07582919;-0.12601927;0.034773257;0.13033141;-0.098882474;-0.15761915;0.14620064;0.038764227;-0.038048077;0.1703795;0.122851886;-0.18155955;0.033829775;-0.22877626;-0.09034158;0.13669993;-0.095880605;-0.1963278;-0.1498858;0.14479937;0.22144677;-0.039594006;-0.015007673;0.1042602;-0.034507506;-0.23122516;-0.010682134;-0.25107628;-0.0011143462;0.09701447;0.13456628;0.08925183;0.08733214;0.010343799;-0.0975346;0.10106683;0.24505162;-0.013255919;0.12635754;0.0155881345;0.07129031;-0.006612975;0.0003963345;-0.2055998;0.2759522;-0.053056475;-0.22098364;0.1817646;0.061986294;-0.046589825;0.22098672;0.20766628;-0.08419862;0.18022951;0.08442062;0.07464896;0.07834806;-0.07504117;-0.06665074;-0.030679325;0.0823873;-0.07292022;0.0753288;-0.2864173;0.026154077;0.2662364;0.16435122;0.055135965;0.21720819;-0.04221731;0.10805716;-0.24761997;0.2760239;-0.19904788;0.080400355;0.23506589;0.09113998;0.20052993;0.12188847;0.10142391;-0.2799892;0.18438287;0.23467854;0.14982623;-0.17695206;-0.013799767;-0.075391434;0.09249479;0.09332611;0.07364052;-0.14355966;0.13361537;-0.11087549;0.12588435;0.14600798;0.12119467;0.14705919;0.07825237;-0.052415393;0.1628771;0.28819546;-0.27651584;0.052000538;-0.034608554;0.056168277;0.05130311;0.08585551;0.25852796;-0.03046417;-0.019706523;0.0062700873;-0.110259;-0.19082128;-0.17158668;0.17318732;0.1405651;0.05606227;0.20334959;-0.19636774;0.0044445884;-0.2925264;-0.15434109;0.090613276;0.06501052;-0.29284152;-0.5498701;-0.18057294;-0.12028927;0.17503063;-0.29856956;-0.04958933;-0.22136459;-0.041514542;0.16245405;0.10682121;0.11722421;-0.066282175;0.12780921;0.045814276;-0.18233399;0.19761862;0.2649453;0.16260764;-0.07945059;0.11885796;0.23672847;0.006428741;0.204037;0.23114392;0.17577086;-0.17806716;-0.10706787;-0.008175772;-0.1397386;-0.19331412;0.12962097;0.09490955;-0.12329814;-0.20752868;0.17918141;0.028335921;0.16208749;0.11540357;-0.13391595;0.106295;-0.10309602;0.11458721;-0.044413354;-0.45243865;-0.06310078;0.21034963;-0.02509665;0.037704546;0.008282985;0.2131296;-0.20258918;-0.14310697;0.44267747;-0.12379399;0.17171773;0.1268952;0.039924067;0.18124706;0.12434336;0.24177456;-0.059154853;-0.09679986;-0.5674857;-0.17121784;0.11972323;0.14791518;0.086364076;-0.08153104;0.11850417;-0.1784577;-0.0036601399;-0.06822328;0.08108522;0.29422328;-0.1467602;0.20716393;-0.2465614;0.12150149;0.16625567;-0.13158628;0.20327492;0.033281475;0.15144108;0.03243499;0.15028122;0.12968293;0.11296363;0.03447399;-0.09639446;-0.28571555;-0.06931567;0.15097103;-0.3830695;-0.24659969;-0.06909233;0.19727379;-0.06696965;0.056943867;-0.08337077;0.27010462;-0.18609582;0.16102879;0.24298118;0.25238228;0.23090078;0.06593748;0.2552834;0.22980675;0.22578974;-0.13329366;-0.17862882;-0.007327678;0.18660736;0.053776573;0.0864963;0.17333718;0.14666659;0.23872729;0.31557906;0.006083013;0.2530998;-0.0061672293;-0.053714328;-0.109424464;-0.5305073;-0.12744479;-0.047856927;0.07249113;0.29533294;-0.19784927;0.18294793;0.12273273;-0.098441504;-0.13860323;-0.020932488;0.03658892;0.16937353;0.20962088;0.036563538;-0.20814176;-0.04355756;0.34014735;-0.036310636;0.019688344;-0.038312722;0.34194326;0.10808107;-0.022080041;0.34434146;-0.04189037;-0.05822673;0.27471223;-0.17408893;0.07873695;-0.00783898;0.10749125;-0.017567929;0.3585053;0.04224221;0.19779176;0.08069565;0.18050231;0.11872537;0.111109465;-0.12589306;0.0863341;-0.10955204;0.41082966;0.11270488;-0.05536977;0.06446421;-0.14033903;0.1569402;0.018077482;0.11172387;0.005719265;-0.02234336;-0.11237028;-0.03375206;0.011087655;0.14176747;-0.2796727;0.018850451;-0.18748431;0.116200164;0.041386172;0.03780315;-0.08588987;-0.07191699;0.035726972;0.14164175;0.14087227;-0.040938273;-0.08710114;-0.07749466;-0.027443282;-0.062410645;-0.13623688;-0.07051961;0.16632368;-0.06534665;0.117079906;-0.08280917;0.30650505;-0.10392127;0.1527345;-0.057184923;0.21957546;0.21400449;-0.10858821;-0.09352975;0.16268444;0.005541468;0.108005986;-0.09990922;0.17446592;0.20472072;0.08866637;0.026009161;0.2709777;0.14478429;0.028048871;0.12647647;0.33139753;-0.20719409;0.010328706;0.028616674;0.073701516;0.004679626;-0.4072979;-0.16159584;0.044918202;-0.07618273;-0.15235598;-0.10408898;-0.056082923;0.14290974;-0.24196899;-0.073192105;-0.009279647;0.29645318;0.1332619;0.1775016;0.12514986;0.17089757;0.1322842;0.30926633;0.27102926;-0.15403517;-0.0008074405;0.074298136;0.13180614;0.10547811;0.076232284;-0.08592972;0.027225094;0.14556728;-0.3569989;-0.09117061;-0.088617295;0.07040591;-0.008816535;-0.5300173;-0.04063885;-0.18028821;0.23051415;0.13508326;0.070562415;-0.3158413;0.12309442;-0.13950858;0.23769984;-0.2813682;-0.17447685;0.057063986;-0.51571465
-0.2112262;-0.0068883775;0.020870812;0.27746567;-0.28960654;0.010948196;0.20649268;-0.30513614;0.24952385;0.051077906;0.110549115;0.041848946;0.20260619;0.18663064;-0.066629544;-0.021788387;0.11322288;0.14874573;0.039023306;-0.013650913;-0.37438777;0.0672482;0.10909628;-0.19246034;0.10486845;0.18895924;0.012476156;0.10428837;0.027575681;-0.021620635;-0.058535602;-0.11206983;0.04713369;-0.13229856;-0.15445954;0.024228116;-0.06741382;-0.083950564;0.029309547;-0.2365992;0.09752874;-0.14145473;0.11855312;-0.07438614;-0.104150794;-0.08960458;0.053418368;-0.1597634;-0.20173205;-0.111392505;0.013335046;0.009491501;-0.24165;-0.09859183;0.39245102;0.16712622;0.14219818;0.04093583;0.3713848;0.08000482;-0.37094688;0.3610105;0.009610615;0.14601283;-0.037615404;-0.22059445;-0.20829612;-0.24167188;0.14809923;-0.105613716;0.11008434;-0.009803294;0.043758035;-0.42197162;0.18159479;-0.14095038;-0.14054851;0.20122941;-0.056766998;0.14485948;-0.053212695;-0.14077267;-0.085527115;-0.14294219;-0.057097062;0.004273751;-0.1151493;0.20865303;0.115064174;-0.18698323;-0.039469194;0.039146785;0.033596978;0.08370037;-0.21017022;0.11218356;-0.03705003;0.10828578;-0.1565634;0.14007159;-0.0044358075;-0.12927774;0.082738474;0.2318577;0.3717067;0.25922427;0.1622292;0.107174344;-0.10560431;0.13064474;-0.29906404;-0.032416932;0.14526309;-0.02641149;-0.13819186;-0.08385435;0.12178482;0.023443148;0.08196057;0.022713797;-0.24101049;-0.06514694;0.36109784;0.08367007;0.1931256;-0.298573;-0.1699148;0.06342103;-0.19718985;-0.08938661;0.06302003;-0.05793267;0.10114694;-0.2613736;0.22370581;-0.13462995;0.0864245;-0.061736166;0.011857678;0.17892826;0.23491259;-0.29675695;-0.041929554;0.027760254;-0.027499469;0.04033811;0.11022928;-0.26538786;0.038529765;-0.07096222;-0.1659173;0.12990241;-0.15349747;-0.111859456;0.30865186;0.08395946;0.020265505;0.08572263;-0.2183974;-0.08847134;0.012038941;-0.07440725;-0.078919716;0.044240817;0.006788142;0.039668243;-0.11668743;-0.04060869;-0.38533157;0.2826361;0.03889818;0.0741967;-0.04935455;-0.20989802;-0.24614021;0.061488595;0.042007178;-0.14592132;0.007953319;-0.031992946;-0.07619346;0.21196924;-0.023471907;0.012858658;-0.04659504;0.050930414;0.10175939;-0.10724714;-0.15705457;0.011693408;-0.079944745;-0.044628136;-0.19244224;-0.26621857;0.081975535;-0.03048656;0.13716997;-0.018135604;-0.0270381;-0.113539666;-0.18324058;0.12452784;-0.04173377;0.20033386;0.069231786;0.14921309;0.29833588;0.063478015;-0.07254024;0.21716313;0.2548706;0.2051583;0.13694704;0.13315332;-0.041447185;0.13269801;-0.07885017;0.019569846;-0.17829278;0.3985192;0.0014111561;-0.14234427;0.11179592;0.22713646;0.15377736;-0.017507358;0.10931214;-0.15952285;0.064717725;0.13364133;0.042738862;-0.008597411;-0.071140066;-0.21409595;-0.03056514;0.18905845;0.024408871;0.039401926;0.00038834818;0.17642412;0.103214934;0.12601337;0.065716535;0.11180296;-0.039430045;0.13363665;-0.0406137;-0.021172678;-0.09253435;0.18875173;0.26400533;-0.1143092;-0.113384284;-0.16187215;-0.13965887;-0.061139233;0.23515669;0.059611596;0.13309897;-0.17788586;0.18974905;0.08806226;0.16712406;0.0836963;-0.108492;0.22583576;0.030358294;0.101689935;0.21879324;0.25797576;0.18472607;-0.026229003;-0.09245375;-0.046993326;0.1347026;-0.017525842;-0.18503428;0.18490027;-0.020198738;0.07747084;0.13859971;-0.104384;0.22846588;0.017227326;0.12160336;0.31666446;-0.029760318;0.004147495;-0.012118283;0.25372723;-0.118552744;0.097082384;-0.01525315;-0.11583792;-0.12166968;-0.24808814;-0.14725687;-0.11019893;0.12284201;-0.26045737;-0.30237177;-0.20642537;-0.20734422;-0.011827644;-0.2665461;0.002621113;-0.12159382;-0.112094484;0.039134182;0.034942497;-0.115653984;0.35968724;0.07188612;0.12342982;-0.202239;0.014109919;0.23124234;0.14361171;-0.07407175;0.047641728;0.27138907;0.12148759;0.20701721;0.068634756;0.2572127;-0.18976574;-0.13064592;0.03841645;-0.1418644;-0.12617597;0.18074784;0.26511273;0.08142208;-0.1431003;0.22844222;-0.030019652;-0.07863619;-0.03344621;0.00091916346;-0.033838633;-0.2900953;-0.013351036;0.09874234;-0.39626974;0.2393427;-0.0023586736;0.19379085;-0.024294717;-0.021928707;0.19236428;0.11609685;-0.02917355;0.13697071;0.047096867;0.1470686;0.103003085;-0.36050126;0.19637507;-0.0967879;0.28260997;0.007592637;0.029498437;-0.14680882;0.15774146;-0.100351065;0.11199273;0.10355845;-0.05118238;-0.008591197;-0.004789274;-0.15560576;-0.11939636;-0.1010216;0.09846389;-0.3990999;-0.06893031;-0.25172612;0.034826685;0.09865635;-0.28514123;0.07041919;-0.049320623;-0.09486399;0.021325035;-0.07950972;0.023697801;0.03960371;-0.23026872;0.052136842;0.12960775;0.09109431;0.11714363;-0.22641194;-0.05161836;-0.1274014;0.059966087;0.1815516;0.12087488;-0.08086907;0.32368165;-0.061182752;0.041466188;-0.013693531;0.19989091;0.4067167;-0.011634615;0.18350373;0.27444935;-0.14717653;0.043249484;-0.1715055;0.08148986;0.07958948;-0.110075064;-0.08431989;0.22125171;0.13204567;-0.13780552;0.34988207;-0.1473291;0.29940617;0.09236783;-0.25234494;-0.09349329;-0.39772496;-0.08103988;-0.15122361;-0.114198826;-0.08556168;-0.4389454;0.23245163;-0.12743172;0.12801524;-0.1721617;-0.10896382;0.1741141;0.11820732;0.07458955;-0.15927485;-0.1783933;-0.018781874;0.09661675;-0.1741955;-0.009106298;-0.09539692;0.19387475;-0.011156291;-0.054386154;0.18695244;-0.14824975;0.10337066;-0.009699866;-0.37866297;0.18226278;-0.10554903;-0.21625215;-0.047682412;0.32191795;0.028962065;0.09512657;0.018309709;0.18640651;-0.15509465;-0.14184535;0.042449754;0.022342049;-0.10747386;-0.019412516;0.21431051;0.06726032;-0.020823382;-0.025077982;0.102995716;0.082163684;-0.14625756;-0.16177973;-0.17427027;-0.03718804;-0.21208595;0.06706291;-0.042384498;-0.2285753;0.17077413;0.31204823;-0.03188258;0.07251832;0.11823544;-0.09524225;-0.1627753;-0.1009036;0.0129723335;0.12553892;0.38665825;0.015127974;-0.06297697;-0.045195103;-0.07378886;0.02517948;0.0032357639;0.013209892;-0.014260049;0.14856988;0.01733061;0.22687496;-0.315379;-0.2578502;0.13306119;0.2835167;0.30007592;-0.08543324;0.15032293;0.1858347;-0.29438806;0.22261442;0.013820312;0.15972258;0.22281818;0.08055624;-0.038995445;0.2568987;0.07425906;0.05450904;0.18240567;0.2564249;-0.30759078;0.10619303;0.27207085;0.34381846;0.17147467;-0.4083843;-0.18102816;-0.09703379;-0.008506064;0.05986804;-0.13337849;0.0048422753;0.21180691;-0.22482228;-0.023652503;0.1985024;0.0069269384;-0.048965327;0.06392928;-0.003570635;0.18480186;0.30445346;0.3670852;0.21208575;-0.01423685;-0.03058245;0.18155406;0.2696677;0.1640723;0.1551778;-0.23606658;0.089587584;0.22125168;-0.35047126;-0.088786356;0.049564943;0.08617587;0.20438787;-0.5028757;0.02218355;-0.16455117;0.112755865;-0.0810507;-0.021341126;-0.46164382;0.1336607;-0.049978267;0.08738546;-0.063790455;-0.19294806;0.10568335;-0.67976713
-0.027531825;-0.058072135;0.011163145;0.39621583;-0.3700223;-0.067601725;-0.12857692;-0.17290302;0.07327457;-0.13216338;0.12907137;-0.19592907;0.10743279;0.12237807;0.09583288;-0.27050635;0.14897971;0.090157054;-0.11015516;-0.14753981;-0.15915997;-0.18925118;-0.2098581;0.013119721;0.028860725;0.2867957;-0.030749047;0.07579343;0.24440058;-0.1660087;-0.1628727;-0.0012918662;0.10421846;-0.19407393;-0.21262826;-0.07587875;0.10819313;-0.15130162;0.16898061;-0.26882413;0.17569053;-0.28810605;-0.09447835;-0.061907306;0.052691314;-0.052050177;-0.08469196;0.06876546;-0.2016225;-0.064484484;0.060124755;0.21530804;-0.01828945;-0.027203342;0.2870882;-0.082708135;-0.05217833;-0.16536991;0.3240258;0.04121663;0.11296678;0.07424229;0.15108639;0.14056873;0.010631025;-0.34164023;-0.10599756;-0.14678104;0.09829193;-0.39051384;-0.21992262;0.12998843;0.14206909;-0.14871229;-0.03893782;0.03296505;-0.08994141;0.2677804;-0.15361992;-0.0007581032;-0.3588778;-0.18046165;-0.35424146;0.10711776;0.07459172;0.08018936;-0.08620841;0.27153808;-0.0015735421;-0.11559895;-0.13395049;-0.0036459817;0.18503466;-0.06567197;0.04062255;-0.007858099;-0.02930403;0.034069974;-0.27020982;0.13831213;-0.032346673;-0.022961244;-0.05076716;0.12754518;0.063778535;0.16371976;0.16943102;-0.08289062;-0.26688164;-0.026918307;-0.23373729;0.1501063;0.046608195;-0.08303368;0.062027045;-0.08456249;0.20132545;-0.009553819;0.03730273;-0.17592932;-0.0944846;0.101195045;0.35175022;0.20173146;0.1180343;-0.4091953;0.053911906;0.11984327;-0.108211435;0.30019453;0.17853804;0.00325272;0.05830468;0.33037633;-0.09962006;-0.21564482;-0.014720635;-0.059147865;-0.075899854;0.14947489;-0.00052272866;-0.21936211;0.18584691;-0.11875328;-0.26040924;0.23661095;0.06854634;-0.12819695;0.066160336;0.0075950613;0.02916174;0.20521906;-0.28408527;0.009451295;0.39585614;0.1473122;0.05412938;0.11242727;-0.1345509;-0.23024833;0.0032409502;-0.17762402;-0.11948958;0.037130237;-0.019725677;0.07066566;-0.10972643;-0.017087359;-0.051295903;0.2654653;0.04537218;0.07789837;0.3209944;0.0010421644;-0.29169017;-0.12940143;-0.01764219;0.15980312;-0.041734103;0.048949268;0.01953006;0.21735908;-0.2891558;0.05003315;0.30744833;-0.035823077;-0.107592605;-0.29460356;-0.21722944;-0.26846212;0.087741226;-0.17621899;-0.009636555;-0.2631505;0.24493928;-0.029102875;0.064579435;0.090819955;-0.19998947;0.0040208255;-0.1764466;0.019192755;0.06855335;-0.04687004;-0.05686601;0.29889658;0.1914581;-0.24955408;0.1963335;0.07706703;0.28794762;0.17277978;0.0034002138;0.10505359;-0.015497377;-0.089952834;0.13502605;0.009983678;-0.0073856805;0.20934352;-0.17805491;-0.24600857;0.06271601;0.18478784;0.08124624;0.02763204;0.1558913;0.052753866;0.05884575;0.037403904;-0.010680542;0.024945555;0.11801085;-0.17464861;0.112881556;0.13985814;-0.0036335986;0.07424674;-0.27308348;-0.35823867;0.09091636;0.19559802;0.09671523;-0.03328606;-0.018521251;-0.1738659;-0.2186076;0.11945602;-0.16698472;0.09210175;0.22368132;0.023502553;0.16024983;0.17275323;0.08426143;-0.25700706;-0.06354624;0.07789101;-0.06801813;-0.02717893;0.28775534;0.07707537;0.005126257;-0.21265914;-0.22828406;0.05686357;0.15823707;-0.02698196;0.19067518;0.40936837;0.23129243;-0.0354493;-0.08510165;-0.35812032;0.097842306;0.23871659;-0.15379967;0.12940314;-0.007145408;0.019369029;0.17517437;0.0013291191;0.11630709;-0.14409593;0.055513944;-0.14844854;-0.11355427;0.17208676;0.06923004;0.2241303;0.17179282;0.097140856;-0.14344412;-0.088108346;0.036499187;-0.53156394;0.21883687;0.038831033;-0.0014076681;-0.41607466;-0.5291951;-0.10019253;0.051766045;0.052732553;-0.27176607;-0.21824446;-0.051031318;-0.05331757;-0.19894078;0.15112413;0.16507992;0.36892015;0.014967142;0.09914757;-0.03806654;0.09171069;0.03674705;0.029777454;0.1641657;-0.17543858;0.17920093;0.12420669;-0.0050655636;-0.22798386;0.16450326;-0.37699047;-0.051417917;0.08690952;-0.050140936;-0.13496;0.16708337;0.27978992;-0.15057378;-0.07403519;0.02083866;0.20287873;0.046523646;-0.34469956;0.10344841;0.041639443;-0.10015141;-0.040057514;-0.10389772;-0.28303903;0.2127935;0.14218087;0.3434025;0.024415117;0.054904047;0.15576257;-0.040414978;-0.07870118;0.15466277;0.12161371;0.009015558;0.03912778;-0.37896207;0.2514544;-0.048610523;0.04387898;-0.08346517;0.12607615;-0.03506599;0.32702988;0.05269692;0.023362085;0.13567805;0.004838525;0.15092602;-0.04542475;-0.046229877;-0.053338937;-0.21892752;0.0823716;-0.07662234;0.085826956;-0.24801658;0.10438949;0.026962284;-0.15319525;0.2741216;-0.39303434;-0.266933;0.025089107;0.041504543;0.0322766;0.04654034;-0.022225799;0.049457435;0.12683058;0.2633881;-0.29877195;-0.14390212;-0.20234233;-0.27629834;0.100474484;0.15280281;0.029308194;-0.12852755;0.11823684;-0.050184283;-0.08470116;-0.1360888;0.1685614;0.23377517;0.11858595;0.032057825;0.21561001;-0.11287416;-0.12574854;0.078912154;0.00636346;0.2841468;-0.29578027;0.13842404;0.29930437;0.31001943;0.08232179;0.34079656;-0.021911459;0.18318212;-0.108851545;0.0832497;0.061535798;-0.51546776;0.04775723;0.13222207;0.21051519;-0.15088636;-0.35070965;0.132392;-0.1388938;-0.087590516;-0.28023955;0.25320688;0.09824618;0.041111708;-0.015878137;-0.19477694;-0.022675032;0.036945064;0.024943233;-0.18805003;-0.049280614;0.07430338;0.19622236;-0.093842655;-0.16374579;0.24989483;-0.2553656;0.36689618;0.13960636;0.04570555;0.007156485;-0.081940874;-0.08880049;0.09176759;0.06787225;-0.017533839;-0.083632514;0.17519903;-0.14902903;-0.05794971;-0.25869036;-0.06440892;-0.00051014416;-0.17961678;-0.039809342;0.30155385;0.03982789;0.11427749;-0.14114125;-0.061925277;0.20966601;-0.10470707;-0.06271012;-0.15051652;0.17521827;-0.26331165;-0.03361929;0.2410996;0.2567647;-0.06893255;-0.06602;0.10424378;0.15098156;0.15470323;-0.17331235;0.13101782;-0.20196496;0.022505317;0.09366659;0.17174484;0.07554611;-0.02275416;0.14727958;-0.105562784;-0.015510665;-0.35190535;-0.08098716;0.031888444;-0.081656694;-0.015475684;0.13981655;-0.26107278;-0.3803888;-0.12887435;0.021319091;0.20154189;0.26794618;0.22232948;-0.068385385;-0.15162121;0.14873286;-0.10228347;-0.1458901;0.1524337;0.10271454;0.0160334;-0.20033912;-0.07402085;-0.026840048;0.039739016;0.02672431;-0.32622072;-0.07735468;0.10984359;0.0745084;0.07497279;0.10909212;-0.16588722;-0.052161686;0.01701095;-0.032499216;-0.13894482;0.10751274;-0.06271122;0.04153243;0.002637753;0.23284335;-0.09170408;0.02794041;0.23435517;-0.23814946;0.15666497;0.11577891;0.05008523;0.088032715;-0.05896179;-0.09671107;0.01261098;-0.061041392;-0.019794645;-0.029030807;-0.03447684;0.11427661;-0.07748852;-0.4522626;0.029123556;0.2618437;0.25530884;0.132277;-0.6424147;-0.11975133;-0.28169817;0.05330702;-0.18538114;0.0858671;-0.19984174;-0.14551312;-0.20691895;-0.036336582;-0.19114903;0.14407004;0.22248104;-0.26972705
0.109538496;-0.12985554;-0.061533995;0.15697657;-0.25547674;-0.39604804;0.0010163911;-0.2697092;0.25470433;-0.37129128;-0.037934475;-0.22889191;-0.06609371;0.078457415;-0.08822992;-0.34494212;-0.21530862;-0.21018085;0.06305575;-0.21506914;-0.16695516;0.01765831;0.23179016;-0.16300389;-0.15947276;0.19375627;0.016146706;0.046332605;0.112588055;-0.09302794;-0.06360094;-0.10587832;0.14459501;-0.21054228;-0.21565524;-0.24069442;-0.014836259;-0.35986006;0.0065430277;-0.21582052;0.11836609;0.17055103;0.0059986548;-0.18623395;0.15295953;-0.035953745;-0.02503875;0.112967044;-0.25495258;0.051085148;0.22194432;0.1703211;-0.08726358;-0.063155495;-0.11667284;-0.13261446;0.050397463;0.026175037;0.009241386;0.16452271;0.04567608;0.05867067;0.09620625;0.095174946;0.18428643;-0.31324226;-0.1904133;-0.078527816;-0.0002627485;-0.13832304;-0.1101716;0.17277214;-0.044841498;0.09352516;0.18156147;0.004409388;-0.25368103;0.4293232;-0.05372903;-0.11721084;-0.33993766;0.12794721;-0.044280663;-0.23530084;0.14616154;-0.101384886;0.0044365213;-0.28336996;0.26144105;-0.14083774;-0.1578204;0.060333777;0.17842193;-0.21117692;-0.106103554;0.14414443;0.043085147;-0.13939136;-0.37852207;0.24235119;0.26212567;0.031233596;0.07088063;0.0149564445;-0.12774125;0.15674481;0.07091022;-0.18362513;-0.36078966;0.07721423;-0.21027356;-0.14958212;0.14236322;-0.3874364;0.010323591;-0.15763478;0.11169547;0.025535496;0.02759393;-0.047711637;0.08193254;0.19590694;0.04877546;-0.0017194267;0.06739013;-0.44557422;0.20359334;-0.032340568;-0.17223248;-0.013672256;0.018211666;-0.33021113;-0.07927545;0.13603356;-0.0028283377;-0.030641142;-0.16624953;-0.14112322;0.0085579725;-0.01285839;-0.19282448;-0.26103473;-0.15222539;-0.06631747;-0.017387485;0.22175136;-0.15781483;0.15227285;-0.20434941;-0.029062523;-0.2032239;0.13261932;-0.3248971;-0.07947712;0.2884221;-0.020615812;-0.08356446;0.02816466;0.06009702;-0.0086054215;0.10674734;-0.019538404;-0.005288117;0.058021028;-0.03720251;0.02912595;-0.01536602;-0.11711335;-0.17074797;0.2000563;0.03514824;-0.011424458;-0.041044585;-0.1557528;-0.16006406;0.15762776;0.11787219;0.0916432;-0.020211056;0.21517853;-0.13086957;0.0054646158;-0.2967473;0.12429202;0.3968414;-0.06421389;-0.002232662;-0.28124335;-0.1608591;-0.18385002;0.083615065;-0.028082054;-0.12852396;-0.18306784;0.12037207;-0.10769737;0.008107993;0.16948736;-0.0028739232;0.250629;-0.053325526;-0.10807335;0.25651708;-0.095648415;0.006843984;0.21294646;0.2721578;0.09903365;-0.0091264825;-0.035573043;0.23733291;0.21383178;0.16562337;0.16703002;-0.110586554;-0.14245622;-0.016333843;-0.18144871;-0.092060305;0.015229787;0.01424946;-0.00887656;0.058070406;-0.001205338;0.09133219;-0.20337284;-0.33219737;-0.07353949;-0.10073491;0.09246737;0.19407539;0.015137449;0.050266407;-0.18801558;0.10085642;0.2768628;0.06492257;0.13163961;-0.4073664;-0.20475888;0.09586738;0.11399788;0.0689434;0.009561835;-0.16707627;-0.02702841;-0.03974007;0.10427238;-0.2623846;0.26886278;0.006347893;-0.0145822;0.18267524;0.1140685;-0.025223946;-0.114517145;0.0896859;-0.18954611;-0.045965698;0.01091485;0.11633036;0.09483575;0.05145409;0.05991111;-0.02656264;-0.028459433;0.12914917;0.10456819;0.17277247;0.22419636;0.11467641;0.29928342;-0.147257;-0.2391579;-0.052771088;0.17872772;-0.086309925;-0.026688121;-0.01935148;-0.019146992;0.1277487;-0.17354608;0.016926553;-0.09271386;0.033105694;-0.1048133;-0.098134525;0.005234056;0.14152178;0.16862139;0.028862178;0.06153697;-0.12164759;0.065269925;0.06400709;-0.22234826;0.1666795;0.14462987;0.13548872;-0.30698037;-0.2998787;-0.35440946;-0.00079791446;0.11947692;-0.085771665;-0.26746643;-0.16394703;-0.06266444;0.014136584;0.12685983;0.22749293;0.28917497;-0.14429083;0.13498046;-0.04625215;0.05442673;0.10736271;0.1163899;0.042654242;-0.17776853;0.03490077;0.027640348;0.0034611276;-0.21841249;0.26070917;-0.0717775;-0.08285709;0.026048765;0.0056156646;-0.050670527;0.090795554;0.18785758;0.022769319;-0.008405735;0.2532858;0.24263474;0.06823034;-0.03297619;0.34338504;0.23242548;-0.33175716;0.046753004;0.24371232;-0.26827276;-0.04708096;0.15974128;0.291879;0.048617754;-0.017588247;0.22182313;-0.39400265;0.17697038;0.0007556304;0.057035785;-0.1019815;0.31812772;-0.077550806;0.2094795;0.0024483295;0.027757946;0.08452681;0.062403806;-0.081740595;0.10778193;-0.1262462;-0.12758756;0.121644296;0.023095902;0.08915344;-0.16154574;-0.03157373;-0.109919325;-0.18827032;0.16847847;-0.1556975;-0.067278616;0.026474899;0.045934707;0.046280786;0.15223506;0.16331226;-0.07281313;-0.210469;0.023333456;0.107672624;0.09075704;-0.050712377;0.1252404;0.06240671;-0.1114852;0.27638704;-0.26852387;-0.0133265015;-0.0061285705;-0.07440059;0.07580758;-0.018968266;-0.17721316;-0.28350386;-0.060702093;0.19731747;0.119240455;-0.12736519;0.0013430548;0.13487026;0.14904849;-7.3649426e-05;0.15399824;-0.026223376;0.14235894;0.03922093;0.090447135;0.3708699;-0.42214504;-0.020300884;0.24089406;0.22757621;0.2574118;0.17962298;0.04835213;0.034865342;-0.014554108;0.16556582;-0.1218004;-0.31571665;0.08786095;0.13446578;-0.41777214;-0.18580878;-0.36441094;0.032132555;-0.18969074;0.040019635;0.041252285;0.08294562;0.21996115;0.15208448;0.09294595;-0.06317354;-0.15058854;0.0118474355;0.18940924;-0.07295243;0.103708714;0.06662039;0.23438214;-0.080645844;-0.007718542;0.13326378;-0.13880388;0.20490585;0.009283575;-0.19838783;0.06929527;-0.051731464;0.06068582;-0.0072669927;0.40281418;-0.081674084;-0.021788867;0.13081965;-0.012018411;-0.036497705;-0.117332935;-0.025931958;-0.19145182;-0.16285472;0.274117;0.20720938;0.020961914;0.05011121;-0.06697044;-0.055696744;0.048462432;0.17492126;-0.081054226;-0.060986135;0.25961456;-0.14562914;0.07215986;0.060904793;-0.24490698;-0.0032966863;0.19559686;-0.13904469;-0.07287156;0.17908022;0.0218734;0.07208398;-0.20126402;0.18568695;0.05552426;0.29034266;0.009244491;0.005569795;0.011411701;-0.15166064;0.032807827;-0.097178966;0.24116135;-0.18260697;0.0803815;0.026563812;-0.007385225;-0.02066623;-0.10764721;-0.33544675;0.1952846;-0.124844745;0.17367645;0.1792875;0.14858301;-0.12008111;0.08229438;-0.058400035;-0.08665278;0.032524623;-0.04904446;-0.18805796;-0.1888718;0.067493826;0.20713009;-0.057781976;0.25599995;-0.29499462;-0.0959059;0.038205273;-0.47506222;0.3034268;-0.102156445;-0.05234373;0.027204392;0.10859466;-0.2113948;-0.06295741;-0.043083318;0.054864068;0.041146304;0.06022108;0.38596022;-0.11425581;0.22245748;0.13431056;-0.27330092;0.18004593;0.1322729;0.122745626;0.18233518;-0.00052136625;0.1345109;-0.02341413;-0.15762542;-0.18903643;-0.12723061;-0.18475273;0.2537647;0.13626237;-0.11260229;0.22052406;0.20373458;0.20846094;0.1747622;0.19583185;0.089218296;0.2072191;0.07263838;-0.03351445;0.026746798;-0.093826406;-0.048914634;-0.027618224;-0.022153756;-0.07583503;0.021684397;-8.206467e-05;-0.15188414
0.19918552;-0.1295568;0.03232638;0.14969414;0.0029591226;-0.3355627;0.20552361;-0.22121331;0.18346278;-0.18226647;-0.10748191;-0.18418533;-0.05456245;-0.0594702;-0.15189277;-0.26608407;-0.055963915;-0.2575244;-0.05876728;-0.3043374;-0.64566565;-0.23304914;0.00073677825;-0.08336515;0.03459556;0.26826283;-0.1793298;0.22663905;0.22169442;-0.11102459;-0.025514718;-0.038996384;-0.06218686;-0.009849134;-0.10181422;0.023092072;0.19983822;-0.45285183;0.1304333;-0.21370551;0.01875113;-0.11614466;-0.03962878;-0.41534728;0.1213631;-0.037325;-0.034265094;0.04998731;-0.2806781;0.26712298;0.07902571;0.1511884;-0.04101243;0.03918796;-0.31339622;-0.1237224;-0.31036142;0.27083918;-0.11278453;-0.044044368;0.2197736;-0.04705356;0.17116602;0.1696026;0.13916534;-0.007492524;-0.19958259;0.13091466;-0.06734239;-0.29370108;0.023709057;0.0819487;-0.026774898;0.028422257;-0.032333843;0.13218543;-0.1756461;0.252931;0.036116123;-0.07606999;-0.053787123;-0.14436902;-0.18772157;0.025514428;0.08912769;-0.1822701;0.04501655;0.021857385;-0.008313611;-0.020736568;-0.101257585;0.1447013;-0.042024937;-0.38662034;0.022680692;0.12681891;0.16141729;-0.06434429;-0.10147776;0.03903122;-0.026430152;0.14807497;-0.05395137;0.0393336;-0.14917246;0.02024079;0.32846612;-0.17734794;-0.046960853;-0.0025393898;-0.053399507;-0.16331124;0.097428516;0.11672626;0.027786031;-0.14502835;-0.16687456;0.26245102;-0.016645988;-0.12027031;0.09346807;0.057684828;0.13740301;0.07790958;-0.230806;-0.45195362;0.32508513;0.10797234;0.29429036;0.178272;-0.13855468;-0.25711885;-0.10242121;-0.13630912;-0.053240176;-0.16804583;-0.13867247;-0.27211282;0.12668428;-0.13963248;0.016993431;-0.14057143;0.17316073;-0.034106046;0.0436509;0.06349966;-0.08533656;0.16477089;0.1978192;-0.20564264;-0.030426914;0.1779898;-0.1346167;-0.03973787;0.119649924;0.0635354;-0.025246521;-0.120263204;0.12838972;-0.0788113;0.08330699;-0.15696114;0.066966236;-0.011006144;-0.03052542;-0.03805779;0.37718242;-0.16307926;0.029470494;0.14546031;0.028647121;-0.19436155;-0.29007536;-0.10396744;-0.09362998;0.14820912;0.0024413653;0.18501408;0.16471268;0.22496524;0.14428836;0.28890735;-0.12136253;0.028913932;0.13059314;-0.30173066;-0.10660531;-0.23738556;-0.097940594;-0.16157255;0.26593184;0.12290757;0.0080023855;-0.09355877;-0.06913757;0.0671012;-0.1279841;0.02809255;0.3199391;0.23791146;-0.0006704797;-0.05512428;-0.041905668;-0.16450274;0.3173174;0.1484789;0.37457952;0.06435584;-0.23112388;-0.11364556;0.06595072;0.20848866;0.11164765;0.2854015;-0.22341868;-0.07343651;0.08148512;0.0219264;-0.21208772;-0.0014522477;-0.038499143;-0.17581916;0.08404524;0.21229042;0.05126959;-0.30704477;-0.51129407;0.1841092;-0.3280397;0.15773751;0.094813175;0.057489734;0.24625605;-0.33552554;0.1483563;0.13638546;-0.021600233;-0.028340455;-0.012324952;0.008324464;0.0029286854;-0.016629728;0.005330062;0.025799168;-0.2805158;-0.2766916;0.033368148;-0.11676468;-0.26235646;-0.0850032;-0.07926548;0.096554205;0.2608642;-0.18953404;0.034814607;0.07026487;-0.014537376;-0.039483916;-0.046738733;0.05947821;0.19173056;0.05516972;0.12103631;0.2526836;-0.014974162;0.12720984;0.14817181;-0.082381666;0.39178988;0.15511902;0.12464666;-0.020222854;0.0009826883;-0.059216242;-0.047485135;0.014518977;-0.100398555;-0.13290524;0.06636539;0.2586864;0.19417319;0.018681254;-0.07936549;-0.27210963;-0.030836605;0.077803254;-0.11084614;0.091001846;0.25337532;-0.0199198;0.011857442;0.17147495;0.14054616;-0.012014698;0.17171106;-0.074811555;0.052229527;0.20757408;-0.08763269;0.1667215;-0.15259203;-0.20975201;0.09963946;-0.0020243726;-0.24548826;-0.18986121;-0.027435321;0.09338076;-0.04399517;0.121976785;-0.02530629;0.22681804;-0.1473654;0.06642905;-0.017539352;-0.08462328;0.024392169;-0.030397728;0.32220906;-0.022965653;0.0043828753;-0.10804996;-0.24456362;-0.11196111;0.28391996;-0.12277653;-0.00653958;-0.10668614;0.084581286;-0.12726252;0.15616582;0.29939663;-0.008849913;0.13821673;0.22111216;0.3418272;-0.27888978;-0.031540878;0.34009495;0.08082262;-0.2632124;0.08565146;-0.0018443268;-0.14685175;0.25595492;0.062083445;0.40289196;0.094530344;0.0052463682;-0.019482644;-0.25118667;0.28943753;-0.23256399;-0.088097915;-0.3736017;0.21468021;-0.05884379;0.039343756;-0.089154325;0.14069891;-0.02659048;0.03687414;0.055511896;0.04118829;0.00015357469;-0.3470418;0.19630733;0.11453435;0.023185447;-0.16199787;-0.0077106296;-0.19643275;-0.13351235;0.03690849;0.13620646;-0.0011143177;-0.10594763;0.29381365;-0.1230333;-0.046203416;-0.08430643;-0.008608971;-0.24929467;0.09932789;-0.18390898;0.0348915;0.11122085;-0.18411729;0.0700982;-0.22842404;0.27543595;-0.24431743;-0.05122227;0.18403393;-0.0038460966;0.030316329;-0.0967502;0.0072861216;-0.31267428;-0.09532029;0.15580763;0.08969028;-0.24093573;-0.014746275;-0.16409892;0.025306907;-0.09296218;0.15070328;-0.17727344;-0.042319637;-0.22659148;0.26761088;-0.022497686;-0.43287528;-0.10004958;0.4005994;0.14816377;0.16945745;0.13749234;0.042697843;-0.107686825;0.07011206;-0.10135658;-0.14339711;-0.2550236;0.0076344297;0.04629894;-0.23996449;-0.25383458;-0.6246387;-0.1579284;-0.18107396;-0.24448338;0.12139183;0.13179712;0.24449728;-0.020471385;-0.14080298;-0.13637798;0.12705308;0.04229508;0.05265748;0.15353999;-0.08416119;0.011688343;0.038321145;-0.11523416;-0.27619907;0.061978444;-0.112145044;0.27066112;-0.08294459;-0.19872047;-0.017147554;-0.16338228;-0.19268064;0.10310257;0.48246986;0.08548557;0.1156323;0.12285439;-0.18684424;0.17699975;-0.09997277;0.1403114;0.019855438;0.016759224;0.2185705;-0.041030888;0.17522942;0.12505667;0.12923944;0.013100038;0.03691252;0.036991604;0.067915566;-0.089611545;-0.041510716;-0.0059828204;-0.22999145;0.0025221119;-0.022853075;-0.20004193;0.061088517;-0.005605087;0.08099667;0.22628812;0.26634574;-0.06864153;-0.3986517;-0.08964997;-0.051970426;0.12805395;0.19857292;-0.03084574;0.23116355;-0.10654593;0.13850029;-0.24362889;-0.031579807;0.014800525;-0.11480807;0.043654952;-0.03775733;-0.19771944;0.022073641;-0.234084;0.30732846;0.019859571;-0.054500803;0.20583498;0.2605611;0.30350202;0.26092356;0.19068277;-0.44954577;-0.07935328;0.12777352;-0.46577552;0.04839264;0.114847876;0.09792642;-0.20088957;0.13163927;-0.17254499;-0.12490061;0.04675274;-0.5732335;-0.04317229;0.1258005;0.20007196;-0.027540503;0.15521713;-0.071676776;-0.42155072;0.15295881;-0.0652639;0.1164029;-0.03342972;0.011940881;-0.27273032;0.03305059;-0.040461686;-0.25409323;0.2782088;0.1589716;-0.11691995;0.23165712;-0.12734948;0.3175534;-0.13638908;-0.0065400386;0.044580948;0.097055525;0.04336988;0.13201103;0.072661206;-0.24533395;-0.0039702174;0.18378797;0.09833355;0.038069393;-0.107118905;0.015775857;-0.06968744;-0.035874512;0.09447904;0.05722323;-0.34613296;-0.22529696;-0.18954833;-0.09250665;0.17992434;-0.024528697;-0.14408949;-0.099661574
0.08080427;-0.10200722;-0.3006437;0.28981346;-0.010285961;-0.16410816;0.05742024;-0.1854073;0.11424366;0.03259482;-0.28993958;-0.10787902;0.004535558;0.072618894;-0.022990886;-0.19240238;0.009918879;-0.33839267;-0.1591147;-0.3417683;-0.656727;0.08826491;0.11413021;-0.00552556;0.23554127;0.16755666;-0.263592;0.393146;0.19637361;-0.10509879;-0.20301743;-0.031093914;0.05969337;-0.029367095;0.0055775135;-0.14987233;0.25618058;-0.12970005;-0.020687442;-0.15776084;0.07142597;-0.010157182;0.024880484;-0.4271816;0.0946375;-0.4213348;0.22767872;-0.30847025;-0.111297056;-0.20124066;0.14781162;0.011852514;0.16832095;0.056322437;-0.11662134;0.07492903;-0.068862416;0.08063821;-0.11852371;0.036173064;-0.07427957;0.26132312;0.14988835;0.014619465;0.15201913;-0.2293877;-0.027745113;-0.17661238;-0.11773838;-0.19783096;-0.07926167;0.10197998;-0.0909537;0.118336804;0.17248023;0.25375995;-0.21020007;0.19074579;-0.060090173;-0.14221542;0.09261664;-0.09756914;-0.037177894;-0.13601671;-0.16810055;-0.13684152;-0.19344419;0.15068798;0.015634557;0.012487963;-0.08868772;-0.0074665137;0.14505881;-0.17528045;0.09638774;0.34991825;0.0881953;-0.13675159;0.012629725;0.0020586713;-0.054381523;0.08911985;-0.1645141;0.048912175;-0.14094338;-0.09984997;0.2513037;-0.13788176;-0.026468268;0.21346724;-0.089599855;-0.054641377;0.08919688;0.32025275;0.13495609;-0.034529246;0.0027816922;-0.0036721337;-0.110950775;0.033813316;-0.0014402873;0.08892586;-0.09409636;-0.0065262597;-0.16088703;-0.22189826;0.12625279;0.19237125;0.18910663;-0.077792235;-0.16134214;-0.003180741;-0.24795379;0.27993703;0.19752924;-0.17000878;-0.037227847;-0.07428342;-0.19686833;-0.10415081;-0.11651842;-0.15560944;-0.05126487;-0.059669882;0.10893224;0.10252127;-0.34197846;0.08526085;0.25135985;0.11908228;0.013028298;0.16938819;-0.26057523;-0.24394524;0.053845163;0.114167236;0.03115306;0.065698005;-0.049460705;0.2650344;0.24290973;-0.3074381;-0.05717892;-0.051368374;0.08295821;0.040084064;0.26432326;-0.17416981;0.070097014;0.13348626;-0.15518631;-0.28487262;0.013312619;-0.24310054;0.07995404;0.04651863;-0.104684055;0.12022175;0.15369509;0.16661645;0.074679606;0.13635473;0.0056342236;-0.09633625;0.06329125;-0.11157346;0.033889424;-0.14224528;0.13310611;0.020070149;0.24179825;0.011965293;0.23546033;0.019534096;-0.06559127;0.022478377;-0.02032567;0.381295;0.023736307;0.3395323;-0.14807713;-0.20846592;0.092532516;0.065231115;0.11829981;0.09432668;0.13801675;0.12583841;0.14283034;0.057750255;0.054286957;0.074061625;0.087260656;-0.12358876;-0.026600258;0.05085002;0.14312555;0.028138855;-0.11058159;-0.19058691;-0.012634351;-0.0029379132;0.3080064;0.03459193;-0.16452542;0.053828392;-0.17570077;0.105628535;-0.28000548;0.1744128;0.06797799;0.01810808;0.16093458;-0.32728225;0.13380355;0.08712707;0.048733976;0.020342873;-0.21470378;0.33824328;-0.029771036;-0.043030024;-0.07718369;-0.06975793;-0.15767428;0.038259625;-0.060076624;-0.043720156;-0.23632014;0.20514748;-0.07333875;0.079603285;-0.07027733;-0.48438078;0.20674784;-0.07759051;0.11571639;-0.12662062;-0.08933068;0.045367382;0.10560869;0.1033763;-0.025461327;0.1743164;-0.058701396;0.024957227;0.14336644;0.11413144;0.20258798;-0.17134957;0.1832253;-0.06916716;-0.14263369;-0.23226687;0.105268545;0.10577088;-0.20023488;-0.12132851;0.07840606;0.20613916;0.13050683;-0.060985807;-0.0026611784;-0.019919956;0.047625463;-0.15135716;0.099359095;-0.00082855124;0.19899236;-0.087132156;0.13380094;0.0010531883;0.09725564;0.15364516;0.109744355;0.011292877;0.011804543;0.027247606;-0.19530903;-0.075459376;0.18868431;-0.15273719;0.12236838;0.057891108;-0.02353462;-0.3549642;-0.24687427;0.05926734;-0.10693169;-0.0015965126;-0.109003395;0.045226548;0.041589607;0.043476354;-0.3518796;-0.052717283;0.14524297;0.11579176;0.16186279;0.167988;0.2960001;0.09305773;-0.08013649;-0.053232487;0.39666036;-0.19118832;-0.07246546;-0.051216673;0.060858667;-0.16575529;0.092570946;0.06172354;0.06810504;0.15302896;-0.20413148;0.18467855;-0.0710537;-0.034552988;0.105127655;-0.30546272;-0.22375607;0.19091165;-0.09202128;-0.034829214;0.06524748;0.025869591;0.24250759;0.22445828;-0.043830603;0.0021189724;-0.047515027;0.29171893;-0.056693643;0.030324265;-0.11227494;0.15180705;-0.11186775;0.18831074;-0.01670373;-0.021884345;-0.013628917;0.057895336;0.05699405;-0.07164099;0.1179526;-0.082227275;-0.038485404;-0.29317304;0.019035857;-0.07432623;-0.020961715;-0.0011723015;-0.040558435;0.22346264;-0.16793339;0.06637627;0.02501432;0.16811162;-0.22718784;0.03340116;0.03185746;0.17674968;-0.06469639;-0.023556411;-0.082562126;0.09697183;-0.007846369;0.24915034;0.07173217;-0.21904163;0.0778829;-0.14883539;-0.0041098716;0.07713032;-0.12628685;0.08903486;0.08595221;0.18300176;0.023100818;-0.16434248;0.0269163;0.28010538;0.109393716;-0.13745776;0.1969926;-0.24319321;0.089423366;-0.13412328;-0.22380777;-0.2944328;-0.1414192;0.13128789;-0.094542906;-0.30131146;-0.1132557;-0.06703373;-0.10378765;0.022410262;0.10838653;0.030885486;-0.062119395;-0.0146714235;-0.078048415;0.1667717;0.2658562;-0.05221368;0.04934739;-0.3486022;-0.123358764;-0.53927654;-0.18161815;0.16766112;-0.060487874;0.050502434;0.2361399;0.078525774;-0.021405602;0.10515522;0.015584432;0.031586282;-0.04101058;0.042847108;0.13483672;0.07885397;0.07402687;-0.20289393;-0.13510625;-0.3128707;0.027387576;-0.13490477;0.096424095;0.06951436;-0.35390708;0.048141945;0.15402706;-0.5415046;0.07769807;0.119274616;0.035769325;0.22839233;0.08875741;-0.12834203;0.13075568;-0.24288131;-0.031557184;0.09265836;0.027880795;0.035793707;-0.1677124;-0.026376996;-0.26012298;0.13879956;-0.02764474;-0.16389298;0.060101442;-0.14075617;-0.03443001;0.099672824;0.03653352;0.14741664;0.07199783;-0.11883896;-0.06633281;-0.027948141;0.024549626;0.16938062;0.23770171;0.18976033;0.04333669;-0.27417132;-0.18692243;0.0011021146;-0.00900518;-0.12856473;0.10631699;0.15668705;-0.20972705;-0.297568;0.011479806;-0.00039180266;0.032118887;-0.05561937;-0.08922252;-0.078297414;-0.048748672;-0.3137219;-0.34445918;0.07667858;0.09951922;-0.028498907;0.13797429;0.28477785;-0.25043148;0.08515766;0.15571044;-0.32360175;0.24113306;0.104876176;-0.11603494;-0.10179178;0.016865134;0.0003935551;-0.2726059;0.20494784;-0.107693106;0.110352226;0.21977381;-0.10627916;0.027362157;0.13354531;0.18759553;-0.056150507;0.16810119;-0.5210415;-0.1522621;0.16282038;-0.02546319;0.1929294;0.2319007;0.06561186;-0.16399504;0.026517563;0.026235664;0.027084768;0.10900962;0.08649458;-0.038443457;0.07245394;-0.23020563;0.5536429;0.12768038;-0.058324575;-0.1989314;0.11048872;0.061805014;0.18109143;0.25893125;0.12904148;-0.16855459;0.115746364;0.053649608;-0.06557832;-0.15913735;-0.0006965224;0.14660385;-0.060647637;0.10251811;0.33091706;-0.7029537;0.19748433;-0.24854569;-0.010732139;0.113045946;0.14303017;0.15870605;-0.015433264
-0.2216211;-0.092089005;-0.3766248;0.22009261;0.17832895;-0.071952365;-0.094372466;-0.16920586;-0.039218303;0.017504187;-0.22304805;0.123179145;0.35251698;0.27322853;0.03085063;-0.107283436;-0.059498325;-0.32486114;-0.24256055;-0.24626146;-0.29068902;0.06751954;0.058252394;0.1226647;0.15809268;0.020109514;-0.0564137;0.48671576;-0.09613285;-0.27345258;-0.17856547;0.091774784;0.044500668;0.12261428;-0.04022073;-0.17180146;0.49800897;-0.11867247;0.037370503;-0.11605711;0.034982186;-0.2369481;-0.027618684;-0.13324074;0.1163449;-0.4302623;-0.07578753;-0.13569184;-0.16255295;-0.09875592;0.17670359;0.113006085;0.069297366;0.1093005;-0.19502859;0.23585072;0.031208169;0.041151393;-0.12773769;-0.19133441;-0.068842314;0.056217972;-0.09456462;0.07778075;0.06486226;-0.12693177;-0.12406686;0.0125238;0.056513675;-0.052985564;-0.29262877;0.09885797;-0.044857364;0.11640848;-0.12407003;0.44878066;-0.3943803;-0.03751762;-0.18646619;0.055616837;-0.13646983;-0.23196389;0.11856027;-0.122703865;-0.16835527;0.018960554;-0.1018424;0.10890406;0.055422556;0.15445718;0.113075286;0.18149886;0.23614499;-0.15589459;-0.17598206;0.50970364;0.17261705;-0.35933104;-0.18335977;-0.01321414;0.08262262;0.014163815;0.0048702615;0.2180714;0.11035389;-0.120452985;0.25750634;-0.19308323;0.18277603;0.050292514;-0.17425838;-0.05180776;0.17109801;0.3808317;0.0789018;0.11126814;-0.078803495;-0.001711503;-0.010097841;0.2777667;-0.0019498379;0.20598981;-0.029168887;-0.32284504;0.006732126;0.089949265;-0.533323;0.21795787;0.024871966;0.012184907;-0.32761458;-0.20985095;-0.12356347;0.22612846;0.33278224;-0.17024529;-0.1748835;0.047368348;-0.014280576;0.06689593;-0.37576917;-0.02286245;0.17410304;0.0009997762;0.40007785;0.040675715;-0.113177866;-0.15269755;0.1679953;0.11281381;0.21572283;0.13798848;-0.00027071155;-0.13716231;0.23326032;-0.081537515;-0.1862669;0.16189817;0.04854052;0.029515918;0.14502023;-0.0032360377;0.0018590399;-0.035347097;-0.008620335;-0.05023087;0.1478362;-0.10709325;-0.04087882;0.14790973;-0.12132861;-0.15306452;0.3794797;0.17417231;0.17087702;0.03184144;-0.045613892;0.15330034;-0.057431754;0.17193182;0.062408738;0.40264067;0.19098909;-0.018032368;0.037447922;-0.025413496;0.002585134;0.109917015;0.39362785;-0.024351014;0.18601854;0.29999968;-0.080837674;-0.09012241;-0.09655647;0.111776434;0.25763056;0.052839097;0.32611963;0.2357362;-0.017596928;-0.23830198;0.015691767;0.21508141;0.0033378198;0.032613926;0.17458321;0.11731634;0.18760587;0.03527571;0.022024164;0.117831334;0.11107367;0.104772076;-0.27555788;0.06073316;-0.07469736;0.21052924;-0.20988555;-0.41211975;-0.03069477;0.023759987;0.0869341;0.033710316;-0.22584465;-0.13666113;0.115466274;0.12295556;-0.3601851;0.3823876;-0.21236409;0.007322936;-0.20277639;-0.37629884;0.09400251;-0.021555562;0.23691237;0.00014173215;-0.080960646;0.21082208;-0.076163895;0.12695065;0.1435746;-0.021851556;-0.2696654;-0.18394436;-0.31250566;0.010688731;-0.13324921;0.3409398;0.0059402864;0.14314687;0.2327894;-0.033371318;-0.05704377;-0.031768307;-0.121368535;0.012225061;-0.14742418;-0.08799266;-0.019664012;0.29248846;0.13896407;0.43258002;-0.041483212;-0.058280084;0.046987575;-0.02198108;0.20923959;0.14330561;0.02883312;0.093347915;-0.1242756;0.10149477;0.19291288;0.16236505;0.20381889;0.108342595;-0.0006697107;0.046706967;-0.06639697;-0.04881222;0.15686595;0.038219817;-0.07203257;-0.2669397;0.059423316;-0.03663579;0.015758988;-0.018960701;0.1755908;0.09581484;0.28097793;-0.04618554;0.046772376;0.0447229;0.010178917;-0.0091138;-0.21370913;0.059264094;-0.005005975;-0.3738677;-0.0056291595;0.17580064;-0.10879959;-0.14229776;0.10849185;0.33745983;0.16856773;0.28385097;-0.06672629;0.0025703367;-0.15118591;0.14977117;-0.34581292;-0.011922248;0.54254407;0.08163541;0.15109098;0.08202099;0.33577338;-0.04060562;-0.19133022;-0.14094424;0.34511814;-0.16923305;0.043191653;0.007608811;0.046970945;-0.07759403;0.10094639;0.1457814;0.041311525;0.10224409;-0.14146456;-0.07902045;-0.11817703;0.13379024;0.018680114;-0.45631078;-0.13472575;-0.06949811;-0.02906596;-0.052762274;0.11152563;-0.058765568;0.24941197;-0.11855227;-0.019330842;-0.07452334;-0.3041635;0.04365323;0.1328072;-0.17536512;-0.013928791;0.042933214;0.18409374;0.0843296;0.265397;-0.008921726;0.058203556;0.03649331;0.09837442;-0.008658171;-0.02041585;-0.19838415;0.015469459;-0.2342577;0.17498904;0.062749185;0.13525568;0.004804549;0.091028996;0.23891136;0.12603714;0.20503059;0.3160402;0.1883119;-0.1518164;0.07616586;-0.15515596;0.07610485;-0.13129176;0.111938536;0.0025742215;0.15623671;0.050609224;0.30912364;-0.02281901;-0.3057765;0.22156;-0.14630336;0.025736134;-0.097081155;-0.00395051;-0.05319288;0.20061934;-0.26020816;0.062438086;-0.032667108;0.0573338;-0.13045923;0.1703545;0.09584237;-0.12435262;-0.3051308;0.20541598;0.022818707;-0.44423747;-0.28825912;-0.22873451;0.12018061;0.008238274;-0.015933523;-0.12577046;-0.18762296;0.25430453;0.251944;0.004641587;-0.17388234;0.055294503;0.13245465;-0.29418707;0.08849948;0.13321298;-0.15404108;-0.13224167;-0.06819105;-0.1479285;-0.6827003;-0.05892892;-0.19650315;0.13602197;0.13824995;0.3944313;0.2732382;-0.020641075;-0.02340135;0.16044752;0.08319537;0.0049313884;-0.08134868;0.15775445;0.070031606;-0.22521883;-0.24756089;-0.07180776;-0.27512184;0.14217444;-0.17853981;-0.020897118;0.32831427;-0.08232976;0.06276346;-0.02100341;0.16255623;0.11537958;0.099903174;0.060388535;0.34006932;0.26814368;0.15631865;0.046155546;-0.12969373;-0.11366868;0.070243664;0.2319748;0.13622084;0.11347819;0.048392452;-0.0025842865;0.2498537;-0.042174462;0.19278698;0.09251;0.0114020845;-0.5298683;-0.105082154;0.38821805;0.13057451;-0.012779438;-0.5760898;-0.23319581;-0.030788202;-0.20105872;0.05968264;-0.0006525499;0.06548756;0.02207323;-0.28677788;-0.34049723;-0.020996101;-0.24655667;-0.12037637;0.14610426;-0.013589054;-0.19537966;-0.84410506;-0.045206416;0.024424842;-0.023437202;-0.12217434;0.034573168;-0.007590414;-0.10886726;-0.094520025;-0.15507631;-0.29846376;0.06951345;0.0040177545;0.12448168;0.22751404;-0.24109086;-0.066658996;0.04805378;-0.025424732;0.23971038;0.08367553;0.10995707;-0.034651704;0.1268655;0.019756392;-0.018355537;0.0009649429;-0.052073896;0.05680615;0.07702834;-0.32628495;-0.07644896;0.16906829;0.21164282;0.0037327895;0.15392187;-0.56688505;-0.20217295;0.1309981;-0.17297295;0.28990656;-0.06369981;-0.11298334;-0.05944345;-0.093167365;0.00824978;0.1586344;0.17144379;0.13779344;0.09467473;-0.08111707;-0.17329372;0.38503405;0.15504359;-0.016592113;-0.13095815;-0.12946792;0.078711785;0.16397595;0.089924246;0.13688132;-0.1622851;0.35253075;0.08325056;-0.123946615;-0.33648077;0.041166134;0.03209776;-0.04985338;-0.016983306;-0.048639562;-0.7454125;0.27082765;-0.12966104;0.17257412;0.18141553;-0.06375746;0.1623225;-0.05311784
0.08864942;-0.2107739;-0.34429398;0.105432875;-0.030942867;0.0011845873;0.015527874;-0.064078845;0.1506959;-0.068974175;-0.39588818;0.025996126;0.45447034;0.35314256;0.1026368;0.13499632;0.13534664;-0.04558272;-0.050780527;-0.22254719;-0.17419529;-0.24179453;-0.16123956;0.2490783;0.21103632;0.045955632;-0.2733647;0.14228171;0.03965207;-0.171698;-0.22863081;0.17486769;0.12678392;0.027374463;-0.10093703;0.031094486;0.13703522;0.31204456;-0.05154577;-0.007631759;-0.10153104;0.06821458;0.0037160704;-0.17291154;0.19832534;-0.18130009;0.03192448;-0.3272838;-0.10172689;-0.039945696;-0.117797524;-0.12709515;0.15806039;0.2648477;0.04968462;0.056046136;-0.25317365;0.16113618;0.0026750516;-0.21566649;0.0011732811;-0.4007079;-0.03913409;0.11865029;0.2065244;-0.19829166;-0.08052925;-0.04892385;-0.07627724;-0.39076155;-0.14302394;0.15965271;-0.077885084;0.30110553;-0.22801417;0.3212383;-0.19492655;0.007161246;-0.027324965;0.077650435;-0.26986757;-0.17292856;0.24622102;-0.31430003;0.042388026;0.1397454;-0.023629354;0.049942754;0.08643491;0.14795332;0.037339155;-0.08759106;0.08071416;-0.046509568;0.12789734;0.14554138;0.18457654;-0.31856084;0.38441634;-0.010988345;0.16492927;0.006923924;-0.08350105;0.07906635;0.05724122;-0.057088215;0.0830998;-0.012299562;0.19492353;-0.22759637;-0.20976652;-0.07882831;0.077340744;-0.12136621;0.095299564;-0.04300602;-0.16534542;0.14420643;0.14371371;0.030127633;-0.22763424;0.09462359;-0.13505852;-0.16140583;0.08509811;-0.07469426;-0.648367;-0.1289152;-0.11161639;-0.17832035;-0.36805096;0.016251883;-0.21860442;0.024522945;-0.007456913;-0.09792959;0.04701968;0.16356887;0.00058481435;0.054319482;-0.5395926;-0.09828165;-0.09692092;0.03695701;0.28752184;-0.040132362;-0.27102733;-0.20640229;-0.10438365;0.36973912;0.1316695;-0.020236155;-0.064998254;-0.24061893;0.17378661;0.012617725;-0.13015848;0.23295462;-0.2053577;0.1916945;-0.16769005;0.13321352;0.075232595;-0.010456884;0.1673647;-0.024825063;0.28821048;-0.25504518;-0.07737382;0.16398348;0.048438128;-0.35797992;0.27177888;0.15115279;0.3137614;-0.050869826;0.18735112;0.2020937;0.11445102;0.01625482;0.077328585;-0.014977167;0.17334409;-0.19030838;-0.058351822;0.20199957;0.13588965;0.19398142;-0.10112662;0.0032611615;0.040639732;0.23482928;-0.023405222;0.00024054728;0.07930993;-0.038237628;0.26575792;0.18466732;0.2081035;0.16911703;-0.040272694;-0.21409994;0.21713892;0.119481355;-0.2535012;0.043636963;-0.09886715;0.1567718;0.27441168;0.1531231;0.15118633;0.11859103;0.1818989;0.017549688;0.116848044;0.1385867;-0.11415251;0.282799;-0.003149514;0.09302202;0.08631582;0.17121086;-0.020958357;0.17429362;-0.16687565;-0.06382629;0.21708006;-0.26839843;0.08275713;0.276884;-0.16484842;-0.020010684;0.31329948;-0.29373494;0.08355511;0.20111401;0.015361222;0.11132674;-0.1416032;0.29314235;0.13203527;0.07437366;-0.050975133;-0.1031638;-0.18430488;-0.15123029;-0.1484168;0.100012034;-0.13228223;0.12149238;-0.092470095;0.09201043;0.50787795;0.019686624;0.036947563;-0.10674333;-0.17382209;0.07671609;-0.2705331;0.16932176;-0.06408301;0.31464702;0.058388636;0.4163969;-0.1426951;-0.1985461;0.04856662;-0.2485886;0.10619699;0.11066291;0.015992183;0.017030636;0.10641778;0.13859752;0.12511663;0.16069092;-0.04990933;0.084318236;0.23430724;0.07716776;-0.11429398;0.06300812;-0.05401591;0.15575773;0.21671474;-0.37436345;0.05462874;-0.16305663;0.23236156;-0.09365219;0.2066458;0.1483796;-0.028335923;0.037879836;-0.15172316;0.0499077;-0.1010288;-0.33420748;-0.12841363;0.08956088;0.059630066;-0.081309006;0.18163088;0.21421763;-0.03707092;-0.33153722;0.18261746;0.29969293;0.042964716;0.3722003;0.33718345;0.080058105;-0.24403867;-0.00984257;-0.48352677;-0.017108507;0.2105548;0.09639889;0.08341067;-0.056736343;0.2200541;0.29150057;0.010805249;-0.35651204;0.12093282;0.24007706;-0.004398005;0.18691562;-0.010913333;0.04463786;-0.04789581;0.031281665;0.19476792;-0.02599853;-0.2757688;-0.07822341;0.038668893;0.108279996;0.16560623;-0.5818073;-0.09273462;0.30894253;-0.22193985;0.17251262;-0.035309445;0.057413507;0.24486934;-0.043176267;-0.011771232;-0.10412123;-0.17461278;0.094913915;-0.04581607;-0.0016939302;0.0372956;-0.036393516;-0.042870093;-0.1237866;-0.033249382;-0.014818598;0.11547187;0.058244266;0.19936271;0.024964206;-0.16635229;-0.36762756;0.0926126;-0.19710134;0.027025415;-0.05509957;0.08653929;0.03206294;-0.111869946;0.3429337;-0.097883195;0.22823451;-0.33464947;0.14163856;-0.04297421;-0.1034378;0.1430352;-0.26273197;-0.15654106;0.11287173;-0.036324706;0.2267475;0.19127625;0.24049775;-0.016791368;0.027450686;0.054106474;-0.13167708;-0.30488414;-0.12385094;-0.012224407;-0.24336256;0.3171697;-0.0065866136;-0.14779978;-0.18919362;-0.077341415;-0.07681107;0.19207825;0.050306994;-0.13681234;-0.101063326;-0.092794366;0.14034505;-0.6728815;-0.48136947;-0.31951296;0.113658644;0.22172023;-0.06506897;0.015301443;-0.14047809;0.13286239;-0.11797144;0.27978426;-0.0365062;0.026645346;-0.010276025;-0.006387574;-0.016516555;0.17906204;0.035317127;-0.19622937;-0.17124066;0.025247691;-0.5441731;0.24072519;-0.21833178;0.0064777825;0.08613902;0.42817795;0.029274791;0.0017738398;-0.27507532;-0.021613056;0.2678178;-0.028744122;0.11937852;0.074937366;0.0457106;-0.18094084;-0.28576404;-0.03297884;-0.32170528;0.10340133;0.074248925;0.13652538;0.43551967;0.008247757;0.07338247;0.2013158;-0.083297454;0.21522567;-0.052305084;0.119749546;0.22711407;0.23315048;0.23401418;-0.1392481;-0.17023431;-0.06616221;0.064288065;0.37394685;-0.4409089;0.26672277;0.2853173;0.05217268;0.121547595;0.011702905;0.24587518;0.13597085;-0.05990486;-0.066486545;-0.035952844;0.10673558;0.12013987;0.13727994;-0.3636024;0.07607349;-0.16145466;0.14109147;0.2460159;0.22368412;-0.12128163;0.14290398;-0.36458504;-0.03014299;0.18108636;-0.123766094;-0.18224807;-0.15497051;0.071031034;-0.19558942;-0.38217813;-0.12554234;0.14077704;0.28946942;-0.03545618;0.003032493;0.013681562;-0.070240505;-0.09022489;-0.0077084024;-0.2862467;0.085188776;0.18895185;0.11387762;0.12524778;-0.52194107;-0.008787544;0.11136413;-0.20865916;-0.042317282;-0.14634933;-0.009630784;0.15173647;0.0025323287;0.0039723045;0.118635386;-0.031417787;-0.10503946;0.12617943;0.17325619;-0.053467564;-0.21517879;0.0011820669;0.31803796;0.068676814;0.03901637;-0.24291916;-0.15912493;0.109505974;-0.14980292;0.22482742;0.076015435;0.0334902;-0.13859949;0.060910955;-0.0072987126;0.045803476;-0.05072713;-0.11717222;-0.046851598;0.2052798;-0.07960745;0.17317124;0.18399611;0.007913632;-0.40884078;-0.19927928;0.08232559;0.116630495;0.06960188;0.11063099;-0.03289798;0.2581067;-0.06960448;-0.20790537;-0.29547527;0.10037853;-0.33419144;0.09346095;-0.10402493;-0.05976039;-0.3919377;0.17215969;-0.081675105;0.061542667;0.20039472;-0.17030776;-0.03821603;-0.012640606
0.005479158;-0.11779322;-0.17494549;0.16835247;-0.29090858;0.084414095;0.12466274;0.05080727;0.3730058;0.05018301;-0.36328563;0.027959153;0.37179175;0.14593172;0.087185934;0.115795426;-0.13002734;0.17686073;-0.073663354;-0.22888263;-0.20084725;0.13601139;0.015468579;0.15603052;0.03397595;0.26222953;-0.34336707;0.096695654;-0.012104431;0.18083966;-0.041613225;0.19502737;0.20558912;0.07980049;-0.3790816;-0.06185941;-0.1998223;0.19350171;-0.104452126;0.021114886;0.0135343755;-0.00177599;0.12876518;-0.22114715;0.1331646;-0.30390203;0.2960794;-0.04555761;-0.009261649;0.084080584;-0.07797437;-0.33870018;-0.00219895;0.15394583;0.30006856;0.07361806;-0.53523076;0.18415405;-0.08606722;-0.035956707;-0.1386423;-0.06208585;-0.06525584;0.16979821;0.05891111;-0.20662889;-0.06814392;0.07282453;-0.08411619;-0.2634392;-0.058147192;0.1764739;-0.15000057;-0.0074738283;0.004582086;-0.07326484;-0.15799043;0.21409248;-0.03150145;0.112620406;0.09118974;-0.13403179;0.18424147;0.0013014181;0.11661855;0.22072844;0.1481007;0.013483197;0.09920395;0.13269447;0.005340805;0.06174803;0.09394224;0.037986126;0.20818184;-0.13836227;0.024646185;-0.30730703;0.18438724;0.054731444;-0.24203925;-0.11498454;-0.06592833;0.044359498;-0.24274547;0.007398235;-0.033040546;-0.10924547;0.09743344;-0.36217687;-0.16149177;-0.2224814;0.030882787;-0.06927244;0.10014466;0.08896308;-0.2600028;0.025179744;0.18056728;0.07297125;-0.15248698;0.12959614;-0.16073716;-0.072706826;0.12315227;-0.303086;-0.17971164;-0.074823506;-0.5111656;-0.19987814;-0.32957926;0.55577683;-0.06334216;0.110225126;0.038376607;-0.36930558;0.31992197;0.1533128;-0.11774764;0.04047974;-0.44599947;-0.08642669;-0.22647662;0.013572008;-0.041663148;0.08475677;-0.3391026;0.06965062;-0.09467426;0.16348523;-0.15087111;-0.106892906;-0.083360255;-0.27349788;-0.041149534;-0.06701669;-0.13347825;0.01005262;-0.079877295;0.20081867;-0.11952316;0.29412672;-0.112380564;-0.2664198;0.41057393;0.08380208;0.24726172;-0.34585598;-0.13843273;0.20631312;0.01602191;-0.22234005;0.18130039;0.019019922;0.07808604;0.023205597;-0.041478883;0.41306686;0.034225196;-0.16219695;-0.17831841;-0.115182355;0.21121019;-0.045404553;-0.32096764;0.06066906;0.276766;0.35291335;-0.094436385;0.17630403;0.13406745;0.109548055;-0.15066907;0.010872703;-0.1617447;-0.16372117;0.1357906;0.31236827;0.15472054;0.29552597;-0.077942915;-0.07576237;0.04665827;-0.039452765;0.06535839;-0.108500324;-0.059356056;0.17992006;0.17903198;0.20201267;0.3028615;-0.12845838;0.13787417;-0.0026998252;0.02513306;-0.10690141;0.06831797;0.13364229;0.032023393;-0.08138491;0.03867616;0.16935085;-0.08024309;0.13133422;-0.24267942;0.060832486;0.0014609533;-0.33408144;-0.025941994;-0.04535564;-0.13805735;0.0514663;-0.05800264;-0.055212233;0.04238491;0.016460406;-0.20451915;0.18619938;0.10809212;0.47972736;-0.05264616;0.011677879;-0.06990108;0.056025673;-0.0878201;0.19111149;0.22545424;0.29562676;-0.09102708;-0.02369645;-0.1148597;0.24831049;0.18980618;0.030077798;0.12545176;0.039500207;-0.08265545;0.1981785;-0.012928037;-0.016020756;-0.14872043;0.19795245;0.12747803;0.13014397;0.1462803;-0.060696837;0.025971383;-0.41791236;-0.05386602;0.12517905;0.087100424;-0.1352253;0.20402691;-0.13133927;0.11677128;0.015678763;-0.29378974;0.06908145;0.26678514;0.015913513;-0.18989635;0.06685012;-0.004478999;-0.058319204;0.1399451;-0.06935098;-0.0057528727;-0.27188227;0.1810703;0.01134256;0.17797439;0.14528397;0.10264234;0.030597357;0.13065125;0.1720694;0.023239907;-0.011140731;-0.20311543;0.111987494;0.18706682;0.05784613;-0.08221622;0.16233085;0.012399816;-0.1309425;0.17736998;0.13900518;0.27493715;0.27962875;0.01727644;0.052402474;-0.0060486663;-0.30335486;-0.17680022;-0.007963188;0.058372743;0.09737843;0.052942324;0.15971294;0.11333658;0.27566674;0.19594963;-0.34484395;0.12555756;0.4261095;-0.05204926;0.1999001;-0.070159376;-0.05285039;0.09207513;0.18603939;0.3377007;0.16396901;-0.16158287;-0.27795863;0.3588016;0.2151198;0.25195482;-0.5775967;-0.0364311;-0.0044968645;-0.22045417;0.2705279;0.053519268;0.07903218;0.19766495;-0.05987561;0.01633642;-0.0019043502;-0.051468518;0.16373004;-0.018082265;0.0685717;-0.036010686;0.14856619;-0.42440164;-0.090600275;0.006088766;-0.37548214;0.17935108;0.13489641;0.040709086;0.066094436;-0.2102838;-0.23827912;0.09720678;-0.18046968;0.16549216;0.030302227;0.02672436;-0.10270776;-0.1819047;0.26177326;-0.14727028;0.10368971;-0.24692583;0.01449893;-0.01902991;-0.01509878;0.10597665;-0.1756249;-0.1367097;0.14693403;0.04902775;0.008336841;0.12060581;0.06879744;-0.18343155;-0.15308923;-0.004197291;-0.018619258;-0.5132788;-0.095611006;-0.07114285;-0.08447876;0.29471055;-0.026607137;-0.07711215;0.03342884;-0.2061697;0.007658607;0.014523861;-0.015782857;-0.19785385;0.21206622;-0.31515893;0.05228867;-0.28355154;-0.5302153;-0.26015943;-0.0077418825;0.330803;0.09686372;-0.039013676;-0.030361041;-0.16483809;-0.37945336;0.15728968;-0.2726642;-0.0024093252;0.153348;-0.08689788;-0.026728531;0.0903808;0.032164015;-0.033068165;-0.16594508;0.1337928;-0.5353858;0.09553156;-0.21223216;0.34735325;-0.079222836;0.37722692;0.18111868;-0.021556228;-0.33641794;-0.03896137;0.15273361;0.031852044;0.14370157;0.1272631;0.024236146;-0.17250891;-0.21287768;-0.14303903;-0.20845594;0.3087817;0.02485563;-0.1465825;0.22952758;0.15878887;-0.12370219;0.41697183;-0.31562647;0.061777618;-0.08208871;0.024662843;0.14543374;0.040903777;0.29749927;-0.20485602;0.08655355;-0.2474095;0.18098287;0.38654533;-0.31090015;0.19551511;0.045423023;0.17432433;-0.077988304;0.12877186;-0.043019615;0.040133007;0.03378733;0.023153692;0.2231174;-0.09625279;0.17414111;0.068490475;-0.24699281;0.22714947;0.05557452;0.03763604;0.06553859;0.38281924;0.08446061;0.2750795;-0.088724926;-0.11317655;-0.14433385;0.2861737;0.08650579;-0.090231895;-0.18042652;-0.093287595;-0.10334272;0.112300955;0.3382224;0.08790495;-0.1006481;0.1230866;-0.18593962;-0.011231347;-0.13093346;0.1090542;-0.28230304;0.11334381;-0.045664933;0.25340903;0.24476206;-0.48133522;-0.23938876;0.09821341;-0.36625996;-0.22936656;-0.09031117;-0.15318613;0.02523341;0.23843819;0.14210656;0.16576877;0.041094802;0.07285912;0.2982451;0.22740255;-0.06279597;-0.2754212;0.045445234;0.11423181;-0.09689627;0.14582093;-0.18131256;0.0091568865;-0.021572063;-0.009346197;-0.03119889;0.33297002;0.071611114;0.10850664;0.34171823;0.07628997;0.03325156;-0.022709452;-0.06412356;-0.27149412;0.1974236;-0.20785893;0.108980134;0.25919452;-0.24421585;0.0023575805;0.14535788;0.19129513;0.068125285;0.002164487;0.37309393;0.026348187;-0.2451713;-0.14885569;-0.14669536;0.0032652076;-0.0015587215;-0.1804338;-0.010295357;-0.02254031;0.120423846;-0.51872575;0.1234005;0.009475673;-0.051101916;0.07741341;-0.0934874;-0.09187904;-0.039899062
-0.030907596;-0.07940539;-0.19516066;-0.11501638;-0.20586722;-0.06660043;-0.02935681;0.16023043;0.16326101;0.2589075;-0.06769277;0.013198611;0.15386993;-0.09210391;0.111235864;0.020478653;0.2639819;-0.1095269;-0.2620659;-0.03251774;-0.11514766;-0.14194658;-0.091686;0.16211365;0.03787957;0.18278053;-0.10439154;0.12585364;-0.10228104;0.22440091;-0.07445348;0.07042533;0.15624683;-0.014737207;-0.19318666;0.043184943;0.11585987;0.16242908;0.18949375;-0.013952813;0.05985832;0.11062031;0.024608156;0.017634166;0.039991807;-0.091934174;-0.030489326;0.16943423;-0.0593716;0.04869278;0.014952404;-0.072501145;0.12521523;0.09095116;-0.004637307;0.11586005;-0.5317877;0.041444764;-0.07414746;-0.26390758;-0.34433696;-0.22991168;-0.14427738;0.12932287;0.07343068;-0.093530424;0.07094493;-0.018696839;0.04446802;-0.14683713;0.12314125;0.21816935;-0.06283075;0.20817958;-0.16311052;0.07737272;0.1473552;0.22241457;-0.32215878;-0.012712051;-0.26210457;0.16059653;-0.056574885;0.053604174;0.25029787;0.295578;0.05021729;0.1971768;0.103536345;-0.20998265;-0.10091306;-0.11859211;0.026617434;-0.03952994;-0.086491466;-0.06600123;-0.0039873007;-0.27493683;-0.13509299;0.06304217;0.04680945;-0.18214417;0.024558589;0.15126583;-0.02223097;-0.042349897;0.14309144;-0.15478551;0.1407398;-0.19052589;-0.05012156;0.0077973655;0.045137525;0.38972238;0.03607082;-0.04688206;-0.14064637;-0.098041944;0.24570408;0.3771565;-0.2229138;0.1265308;-0.053951904;-0.19134921;-0.059246145;-0.17846777;-0.42790455;-0.0032799526;-0.22696617;-0.18426915;-0.063402034;0.22849461;0.07994118;0.11156074;0.08069453;-0.08928877;0.11655148;0.25163624;-0.19770522;0.0265422;-0.26330423;0.036412016;-0.16950649;0.06920509;0.031063022;-0.17041253;-0.18047704;0.058687843;0.08337505;0.2523473;-0.062082008;-0.10372006;-0.0688981;-0.15212011;-0.20466289;-0.02371864;-0.18243197;0.1548895;0.16206041;0.067583464;-0.15865019;0.14276218;-0.09634851;-0.019334177;0.33097512;-0.0857289;0.0868414;-0.28822613;0.0053799087;0.037292715;0.15549964;-0.10379987;0.29429722;0.11516451;-0.07092569;0.13538362;0.008602745;0.31492388;-0.086031295;0.19923721;0.017060075;0.021766687;0.20446767;0.20095927;-0.34226277;-0.013342185;-0.071274154;0.1504436;0.037390366;0.18252726;0.10199121;0.05778273;-0.08223699;-0.07233323;-0.09920244;-0.32730457;0.19271073;0.27387366;0.23102793;-0.033406254;-0.12546633;-0.07563533;0.105655126;0.05960665;-0.24186526;-0.09774401;-0.05595306;0.199559;0.110385366;-0.060843665;0.06132584;-0.005199658;0.15132283;-0.14772967;0.11175778;0.097748645;-0.0694333;-0.09737757;-0.0040107043;-0.09796593;0.18506563;0.043514602;-0.22702304;0.043559805;-0.19254115;0.07127138;0.143858;-0.3400499;-0.056792796;-0.015586862;-0.18868083;0.053792153;-0.42808104;0.09485735;-0.089526705;0.051208634;-0.0013448085;0.051529136;-0.10882111;-0.010171638;-0.06818436;-0.117989935;0.3826291;-0.103769235;0.0711466;-0.14572656;0.12535636;0.008484013;0.05477272;-0.0068578045;0.118913494;0.15867934;0.13013196;-0.17457895;0.059161723;0.11241329;0.0011604242;0.2586155;0.033374004;-0.055520825;0.020648435;0.15444182;-0.011028958;-0.06264583;0.14405957;-0.30245176;0.07786179;-0.19023608;-0.15861951;0.15630317;-0.056443505;-0.17329165;-0.01654477;0.002734442;-0.023203008;0.008298761;0.094750196;0.20897269;0.08774958;-0.009938797;0.0437966;0.13634776;0.3803444;-0.21496847;0.0904282;-0.14354677;-0.02665025;-0.059721906;0.10073011;-0.08532156;0.3164656;0.13347144;0.24997318;0.23934275;0.04612669;0.2361625;0.05609504;0.08745535;-0.06401183;0.063699976;0.15212667;0.09867199;-0.08847115;0.14448994;0.02072038;-0.07330457;0.1202112;-0.08649035;-0.066692516;-0.0909633;-0.45057827;-0.03790404;-0.008174111;-0.1284999;-0.39084908;0.10273293;0.05842243;0.07705796;0.12060378;0.350586;-0.12926318;0.28447005;-0.056274917;-0.20966691;-0.008395056;-0.017532304;0.012654448;0.07359499;-0.24509554;0.15669784;-0.014491985;0.3462036;0.027703991;0.19985835;-0.32858032;-0.37497538;0.17062968;-0.04951866;0.141564;-0.45015907;-0.053720262;0.15018335;-0.39949498;0.09753601;0.1403065;-0.04332709;0.21962218;0.05204977;0.006423054;0.14150056;-0.058114972;0.068787985;0.0090400195;0.05779298;-0.15084583;0.07387919;-0.33660653;-0.17994979;0.20753437;-0.24969369;0.18103215;0.15053803;0.042473968;-0.028224135;-0.06457882;-0.09780959;0.050299067;-0.104600936;0.28733078;0.06796748;0.17064261;-0.07485977;-0.32057005;-0.006814822;-0.17849216;0.31228095;-0.14016818;0.17209409;-0.01339052;0.14646183;0.008961936;-0.16812113;0.077571355;0.33750612;-0.00155011;-0.07036901;0.19768505;0.32326654;0.053527337;-0.016986676;0.24858508;-0.06193114;-0.31894246;0.01343608;0.25894058;-0.08872262;0.24248984;-0.15101664;-0.18362862;0.04240183;-0.10918206;-0.28816494;-0.0043807076;0.027940428;-0.3437601;0.039772682;-0.2613444;-0.07055317;-0.6015511;-0.5069671;-0.30895504;-0.19087553;0.2561109;-0.59228635;0.09499679;0.11214955;-0.14776239;-0.35725248;0.21137117;-0.15272322;-0.007393336;0.119962834;-0.0655831;-0.11923162;0.20163417;0.071038336;0.03288244;0.17786656;-0.063553974;-0.14898978;0.23683219;0.06303215;0.081504114;-0.17828822;0.1369015;0.09319591;0.113008074;-0.12955542;0.010459278;0.09906807;-0.005918423;0.20257102;0.14541365;0.006661535;-0.013889456;-0.24897557;-0.08903454;0.0618257;0.10633745;-0.011753212;0.01610363;0.2751202;0.14326929;0.021614324;0.3417386;-0.10778511;0.1602241;-0.32164595;0.042340007;0.09600087;-0.047558874;-0.027809465;-0.30950525;0.12321432;-0.3456416;0.097554855;0.20917131;-0.07236523;0.09010686;0.036697254;0.32331932;0.07291589;0.1879752;0.014449843;-0.16709226;0.24902639;0.078379706;0.07545174;-0.032858443;-0.08859209;0.07326205;-0.18633732;0.18176927;0.08286761;-0.15947579;-0.026198473;0.24301745;0.0059693055;0.28946462;0.058176752;-0.077572785;0.024553137;0.07662145;0.025702683;-0.101945475;-0.06993495;0.03293888;-0.09848495;0.10643679;0.14823648;0.08980176;0.069644354;0.08982475;-0.23389618;-0.16456512;0.0011116852;0.090469055;-0.16842769;0.057353523;0.032265183;0.23161763;0.060523033;0.01083367;-0.020202467;-0.025705379;-0.0159193;-0.09677792;0.097196296;0.008332665;0.27633864;0.008229812;-0.060343176;-0.043361377;0.20663898;0.09098096;0.18795013;0.31968185;-0.19298896;0.019911649;0.12096205;-0.0075244526;-0.09324555;0.026762063;0.2057783;-0.09299692;0.035975758;0.050335582;0.13957253;0.43300918;-0.066622354;-0.040419478;0.18834156;-0.01936539;0.13226086;0.11462108;-0.2171597;-0.24564798;-0.26532018;-0.24308278;0.20566063;0.18633457;0.040703997;-0.05851748;-0.17744279;0.18197009;-0.21043219;-0.07449174;0.13743447;-0.038081277;0.033313815;-0.13366547;-0.09126038;-0.26762134;0.103688054;-0.20025362;0.014280248;-0.00042467943;0.18956837;-0.4041104;0.01639448;-0.1084658;-0.22449972;-0.0014711522;-0.22153428;-0.17222027;0.15852045
0.06699206;0.15108655;-0.0861926;-0.34485447;-0.09523613;-0.07209174;0.039558936;0.0327871;-0.03821627;0.20402928;0.09712192;0.24163389;-0.15288468;0.12932694;-0.029720686;0.30789974;0.1842033;-0.30114385;-0.20182285;-0.04611297;-0.24079816;-0.2567366;0.12283279;0.28136122;0.10561941;-0.19376567;-0.078473695;0.0032785626;0.06572646;0.3401491;-0.08159158;-0.115169115;0.15671408;-0.18573664;-0.10176669;0.09420913;0.18475014;0.15148723;0.1829995;-0.13511623;-0.16009566;0.099526465;0.14445621;-0.10253974;-0.34183738;0.09039536;0.13101414;-0.03868193;0.09652533;0.0066595003;0.106448255;0.07185913;0.21917665;-0.11393375;-0.15866418;0.16108716;-0.46841556;-0.15031527;-0.07099128;-0.005608108;-0.28810328;-0.3817975;-0.18784823;0.10180579;0.3095719;-0.2049499;-0.19375733;0.14183165;-0.10446607;-0.1325041;0.31227475;0.14810678;-0.04065355;-0.059549607;-0.12752695;0.055704523;-0.05763261;-0.02488335;-0.17899792;-0.061133705;-0.102954574;0.11766722;0.09907386;-0.041562513;0.06514824;0.21669564;0.06372786;0.37601355;0.37308612;-0.22241306;-0.10795529;0.028232642;0.15980405;-0.21874033;-0.040973637;-0.10565777;0.07032492;-0.3395394;-0.2573863;0.12871312;0.24363394;-0.10972087;0.16218989;0.07937188;0.24184848;0.07362122;-0.31068856;-0.1488021;-0.09398919;-0.24917802;-0.17531173;0.053628158;0.011080514;0.5531205;0.017329719;0.05681868;-0.04723791;-0.24020018;0.19315955;0.2439675;-0.01792343;-0.036750562;-0.057996184;-0.18171036;0.08767505;-0.46655717;-0.39882493;-0.035496004;-0.27554992;-0.13831;0.27517283;-0.025689643;0.17128515;-0.15270895;0.12883939;-0.018224943;-0.24851172;0.17803094;-0.3561643;-0.0355752;-0.49569532;0.02868623;-0.1578663;0.15427336;0.21280403;0.03408591;0.0016950789;-0.094568;0.12538633;0.23711097;-0.17578286;-0.07513344;-0.09516269;-0.1344216;-0.11217611;-0.0735182;-0.32332578;0.09337823;0.2051151;0.25955954;-0.16365169;0.31537166;0.08261058;0.004075758;0.3472764;-0.04200938;-0.13471864;-0.15974408;0.047530893;0.053895704;0.24983941;-0.07626002;-0.09711787;-0.34871107;0.17493054;0.11534427;0.15111546;0.08673177;-0.0909743;0.12443576;-0.04716598;-0.21365087;0.22004214;0.16761312;-0.3028414;0.041553542;0.028339565;-0.09775203;-0.05785445;0.3236903;0.026242921;-0.19379772;0.01982463;-0.07405401;0.0072453716;-0.406988;0.0829398;0.5408426;0.2070352;-0.096032955;0.05368884;-0.0002809964;0.2900226;-0.13836984;-0.31488168;-0.03249211;-0.3037848;0.004753171;0.27078453;-0.020132095;0.021477787;-0.07226276;0.15840672;-0.1351259;0.06502749;0.33981338;0.13568746;-0.05182624;-0.014856852;-0.24286865;0.04409431;0.2034001;-0.115828335;-0.06610725;0.16142386;-0.03968631;-0.19423337;-0.36006537;0.087325044;0.0012375235;-0.03936209;0.12646882;-0.6607073;0.18993847;0.09554827;0.20502637;0.35767752;0.032036357;-0.24264213;-0.075003356;0.018955586;-0.18756625;0.7036012;0.07326996;0.13021672;-0.026788946;0.19728248;-0.07775959;0.42602506;-0.1075553;0.0855607;0.007131667;-0.0773367;-0.24995548;-0.17621638;0.05511889;0.03121788;0.07729446;-0.06969715;-0.07043956;-0.06366402;-0.08036652;0.089677185;-0.0006751215;0.13883327;-0.46257395;0.07640285;-0.020065453;-0.061341256;0.20072055;-0.0065505505;-0.05433801;-0.0246978;0.18343872;-0.110315256;-0.071343206;0.1574452;0.020020794;-0.06392383;0.13169698;-0.16961583;0.13048264;0.20562035;0.002718888;0.1486144;-0.25823364;-0.29311264;-0.09732274;0.16332604;-0.0634131;0.33353305;-0.08058161;0.07418587;0.36290538;0.16577335;0.2576201;-0.07694949;0.1476762;-0.22443672;-0.074270695;0.16685376;0.011078634;-0.16400678;0.2809797;-0.037432864;-0.28718427;0.13015394;0.0393989;-0.07672636;-0.17784396;-0.45780924;0.04141696;-0.05016442;-0.039195254;0.00029225647;0.022931417;0.008778548;0.017512964;0.20844635;0.23630193;0.0027904147;0.2170666;-0.2223335;-0.4324316;-0.07154013;0.17451625;-0.014663214;-0.11880651;-0.10901316;0.29807067;-0.020600919;0.020929225;0.062327962;0.022064902;0.13407563;-0.11105319;0.18849239;0.09075188;0.26868588;-0.33945838;-0.07436877;0.1458439;-0.5887836;-0.003573282;0.13694008;-0.26467693;-0.10575354;0.37372807;0.07481062;0.20205575;-0.29000545;0.14447604;-0.06862888;0.13707381;-0.19211368;0.010876286;0.15024945;-0.24750826;0.11483237;-0.43113193;0.30524626;0.06743013;-0.11996542;-0.16471541;-0.10321401;-0.13766904;-0.22145124;-0.18727541;-0.009372914;0.14803049;0.28936276;0.09179876;-0.09785307;0.12280968;-0.0045977356;0.23246917;-0.15894018;0.22833222;0.18131833;0.16669814;-0.07212315;-0.09930792;-0.033050917;0.17650467;-0.07382358;-0.29283252;0.2097081;0.43954587;0.09913947;-0.08837285;0.107626185;0.08177106;-0.3502546;0.13890868;0.20005293;0.06229037;0.17435376;-0.038982023;-0.10210798;0.24529073;0.08861134;-0.13897933;0.13969025;0.116804615;-0.42586112;0.016422777;-0.08347599;-0.04215167;-0.18232813;-0.07625393;-0.07637318;-0.20858221;0.30813727;-0.3248091;-0.015108208;0.052982178;-0.23190093;-0.3206087;0.17338753;-0.067461245;-0.106157936;-0.07792859;0.2055214;-0.12527221;0.15082559;0.050553046;-0.04462385;-0.008451402;0.15507188;-0.10287978;0.0948042;-0.113548905;-0.10967313;0.021548737;0.109625034;0.108766384;0.1433236;0.088635564;0.079057686;-0.06410536;-0.0347192;0.33979246;0.12440569;0.24317117;0.018973209;-0.5357841;-0.081435256;-0.078362204;-0.040714532;-0.14352748;0.1936214;0.2776398;-0.1864219;-0.084979646;0.37532178;-0.10709649;0.048785202;-0.08460581;0.081971794;-0.012797503;0.012357896;0.12857965;-0.09516546;0.13568945;-0.2345587;0.29754487;0.1631998;0.13097014;0.12517682;0.10269133;0.0628174;0.20612349;0.16160934;-0.16872606;0.16134389;0.18385367;-0.055894334;-0.078460276;0.050785635;-0.041478112;0.16658145;-0.3878424;0.33299118;-0.10278388;-0.4349742;0.017827192;0.12706025;0.025602499;0.06399841;-0.011396239;-0.16365393;0.19293684;-0.07834603;-0.045706;0.22013369;-0.1717668;-0.27351427;0.07438516;0.11284751;0.024980815;0.17741854;-0.044248585;0.07342972;-0.12985964;0.05400431;0.12471136;0.014763599;-0.1825095;0.021042727;0.008663636;0.105147325;0.14517763;-0.07289802;0.14539102;-0.09472642;-0.117270894;-0.05776532;-0.06297008;0.21217158;0.2608893;-0.0973922;0.038416397;-0.2942586;0.04084224;-0.006750174;0.13517724;0.25083452;-0.13368715;0.1425662;0.0069215395;-0.1064522;-0.139297;-0.08378924;-0.13242084;-0.35408586;0.071081355;0.28784913;-0.011750383;0.23704162;0.078972764;0.1121388;0.1538834;0.14186417;0.27843067;-0.011341808;-0.3098354;-0.12593254;-0.20823404;-0.0027015803;0.22542052;0.090745136;-0.11830774;-0.12845339;0.07734101;0.20077868;-0.10332853;-0.15636964;0.22576804;-0.14087239;0.15651761;-0.26446036;-0.08495171;0.13670385;0.13233171;0.22714819;-0.29768;-0.192137;0.30867445;-0.48913842;0.36262298;-0.10210691;-0.32330143;0.18578461;-0.37901956;0.013655453;0.33574733
0.21758129;0.0055692955;-0.010367064;-0.22997704;-0.19906792;0.089822724;-0.19954677;0.22021192;0.02263633;0.22540912;0.1391752;0.09016139;-0.07463609;-0.017703675;0.09348837;0.20008576;0.089746706;-0.00040147462;-0.019509241;-0.117434986;0.05325596;-0.09422648;0.15023196;0.19235903;0.0029797077;0.07511008;-0.025714519;0.11634567;0.1154501;0.29374585;-0.16715927;0.04669673;0.054529868;0.06722398;-0.049711704;0.0265218;0.43338785;-0.24955675;0.22904226;-0.15728793;-0.235518;0.032259658;0.074823126;-0.071757145;0.013167878;0.22291781;0.14052764;0.2050168;0.19106881;0.032023843;0.08821976;0.17509936;0.2822581;0.2883533;-0.23589575;-0.0013120958;-0.21124868;-0.16451868;-0.09748361;0.055077214;-0.3511433;-0.20683202;0.15239555;0.1470496;0.14034696;-0.11511645;-0.20505442;-0.046595868;-0.2304482;-0.31465408;0.102296494;0.07359424;0.13109864;-0.5326138;-0.17197901;-0.19128259;-0.07188704;0.1762303;-0.094111145;-0.009347165;-0.35989213;0.1508295;-0.11485951;0.08044116;-0.0133657325;0.057424612;-0.0020585544;0.23769355;0.25416654;-0.13898744;-0.04851607;0.017664526;0.095941424;-0.05490951;-0.48897547;0.09952935;0.05799041;-0.14464553;-0.53100294;0.12987557;0.34613335;0.10903578;0.22712989;0.19531222;0.058845896;0.064020224;-0.6213275;-0.09940989;-0.20269437;-0.14645381;0.2794132;-0.17585188;0.15065733;0.26697266;0.028137637;0.056675516;-0.09769886;-0.11082427;0.02991781;0.27230147;0.05019318;-0.074291855;0.18103474;-0.1498857;0.24629737;-0.28621143;-0.04390986;-0.10617555;0.061692983;0.17345372;0.30328196;0.010261043;0.29771322;-0.22458139;-0.044486787;-0.037049357;-0.2595456;0.25285274;-0.019772556;0.14413692;-0.4132777;-0.14896427;-0.32009917;-0.11384068;-0.068820916;-0.11377525;-0.13110267;0.11391145;-0.39380214;-0.13697104;0.12499059;-0.07097823;0.08692668;0.14943658;-0.3506614;0.02927367;-0.3535678;0.1201183;0.21228485;0.11316746;0.19170573;0.08748771;0.029887753;-0.30144134;0.014907873;-0.16981864;0.14484763;-0.16774032;0.19198857;0.22687338;0.12057878;-0.08236613;0.06148098;-0.26372114;0.09262788;-0.03669953;0.28837138;0.16607508;0.04732274;0.281762;-0.02372441;-0.048132297;0.011390439;-0.16755426;-0.36090818;-0.0068527274;-0.066838086;-0.017471941;-0.23175292;0.09102461;0.0682566;0.030662123;-0.15199892;-0.14194031;-0.06140532;-0.11981701;0.18472178;0.11698751;0.34967753;0.1498842;-0.16338538;-0.10541723;0.2654259;-0.31901294;0.036876313;-0.07420365;-0.17993394;-0.0999344;0.20927945;-0.18677127;0.04810361;0.2329912;0.054059353;-0.20220868;-0.1261199;0.3297181;0.118632935;-0.027853455;0.4188682;-0.10199172;0.06526314;0.08145097;-0.092939;0.118774004;0.23752703;-0.013732691;-0.13270691;-0.12389001;0.1294024;0.05018385;-0.177829;0.03689468;-0.46575034;0.14557509;0.08572811;-0.2427459;0.2417856;-0.34184152;-0.01964465;-0.14107572;-0.1299147;-0.138866;0.38040522;0.17875196;-0.05128872;-0.21345298;-0.033683375;-0.11969359;0.33941987;0.05247652;-0.037166215;-0.013963488;-0.23942052;-0.0054165185;-0.025996765;-0.13281453;0.0155289555;-0.23905423;-0.01220321;-0.13604102;0.14271493;0.005268741;0.040956713;-0.202629;0.07925693;-0.30319464;-0.23327301;0.15322372;0.036655806;9.126642e-05;0.012842908;-0.11515348;0.0072077233;0.30892816;0.017508227;-0.049813487;-0.0054634647;0.081034146;0.14438304;0.11333884;0.3265547;0.216825;-0.05706706;0.071454026;0.23722523;-0.07239379;-0.40702865;0.114343956;0.14004177;-0.066737264;0.37033883;-0.25460413;-0.020600563;0.2735636;-0.13483916;0.11032138;-0.24341315;0.20267323;-0.107531466;0.10049191;0.03151114;-0.118658;-0.2422579;0.2142831;-0.18961488;-0.19228537;0.033851612;-0.010523261;0.18194477;-0.3144655;-0.5173149;-0.076154254;-0.065063626;-0.40291664;0.107319124;0.24870013;-0.055907387;0.092083365;0.07379004;0.34941074;-0.21065761;-0.027830819;0.17349291;-0.42615566;0.019744076;0.30120733;0.1303895;-0.10707596;-0.2562419;-0.014179162;-0.0762875;0.38331893;-0.09677973;-0.1870234;-0.04168043;-0.16347325;0.092606045;0.114014745;0.308518;-0.46116424;-0.28971815;0.1853661;-0.41817367;-0.14980347;0.40352666;-0.38107446;-0.024132013;0.113993615;-0.019090043;0.23140524;-0.29009452;0.29926735;-0.0790208;-0.061311666;-0.11226704;-0.31507275;-0.22317103;-0.15228342;0.13843487;-0.4334787;0.33999845;0.12035468;-0.041722294;-0.16919166;-0.041042898;-0.2509744;-0.025928779;-0.2915477;0.14771782;0.12396899;0.13727227;0.1481264;0.038999174;-0.0015238882;0.063661695;0.11320708;0.07102972;0.16636255;-0.15951167;0.115096994;-0.1910991;0.10991826;0.14430587;0.1733689;-0.40209997;-0.1623228;0.07682371;0.4547135;0.13870315;-0.26102972;0.22361602;-0.1542463;-0.5873686;-0.04604236;0.11737515;-0.30565864;0.14116436;-0.38233042;0.0402696;0.12829524;0.086630866;-0.23183896;-0.06870514;0.30838212;-0.28371894;-0.115825854;-0.20939247;-0.2615295;-0.26516956;0.21100165;-0.2847716;-0.37126645;-0.030676365;-0.16432944;-0.18581778;-0.027628545;0.22704387;-0.14904732;-0.048147794;-0.0874299;0.11921195;0.0896727;0.08471833;0.086138;0.14226657;-0.09242938;-0.20106918;-0.032801088;0.05771594;-0.22142619;0.08401081;-0.13810334;-0.22986238;0.0012557025;-0.048224866;-0.041817304;0.23997478;-0.21487905;-0.13053429;-0.042218022;0.023528699;0.36396813;0.018067434;0.38957462;-0.16723558;-0.23772344;0.27371472;-0.26321426;-0.060047187;-0.17294253;0.18325026;0.20296818;-0.47639596;0.051986203;0.24098152;0.10718349;-0.057829734;-0.15143064;0.058611114;-0.047240876;-0.13853559;0.3009841;0.21529217;0.26076645;-0.10679031;0.07083476;-0.1768617;0.047120016;0.028260266;0.033749864;0.13345222;0.11060265;0.23565423;0.01539762;-0.087779805;0.19497739;0.06889844;0.04869893;-0.08676149;-0.08304373;0.24574254;-0.2857146;0.39317134;-0.06073651;0.008003106;-0.01863024;0.04679438;0.19508451;0.39095652;-0.09355225;-0.1668142;0.16566133;0.18810819;-0.0519991;0.12978742;0.032902125;0.03480138;0.15959153;0.16144808;0.47322136;-0.04900678;-0.045675382;0.08975516;0.0072171963;0.033714972;0.27080873;0.07935758;-0.1267;-0.06335248;0.13443159;-0.044990554;0.12994859;0.07468166;0.09089498;-0.19388019;0.03891542;0.10689962;0.20993692;0.22802097;-0.25674108;0.059532735;0.08667999;-0.23888944;0.027520925;0.043087367;0.24515964;0.1980368;-0.17248848;0.22547205;-0.04417005;-0.117293485;-0.016467711;-0.10887347;-0.032964684;-0.11761636;-0.22523667;0.26605096;0.07987504;-0.017229196;0.068882704;0.34215063;0.39385208;-0.19151877;-0.07836655;-0.1838815;-0.039163362;-0.4415466;-0.26717407;-0.22588766;-0.14962411;0.14268646;0.25103477;-0.01613692;-0.043290656;-0.073363304;-0.08766523;-0.043025497;0.20637691;-0.035448518;-0.12962167;-0.0885716;0.20286115;0.07142725;0.018103015;0.07220853;-0.008013569;-0.23351464;-0.3575221;-0.53019387;0.17988545;-0.08777502;-0.14684407;-0.08749427;-0.116387956;-0.23758215;0.29854062
0.040748343;-0.14171661;0.03546703;-0.37027302;-0.38241223;-0.0066991197;-0.18874624;0.16754095;-0.12952206;0.17094973;-0.065898806;-0.13462168;-0.29083624;0.041058414;0.044387866;-0.008497656;0.14080268;-0.11625699;0.17351952;-0.21672529;-0.07884282;-0.5200376;0.008534247;0.1200179;0.11198332;-0.081638105;0.025935536;0.010258043;0.3073067;0.098152384;0.08928783;0.09556108;0.005338533;0.13834415;0.038624987;0.10841965;0.3651659;-0.038829833;0.23517373;0.054663025;-0.0912529;0.14705917;-0.017252311;0.0071744397;-0.06814395;0.025944311;-0.0662488;0.07784639;0.13207552;0.21305677;-0.036791872;0.2020191;-0.04099275;0.054045625;0.09292018;-0.3066026;-0.04014357;0.12536658;0.041006386;-0.19589435;-0.22961934;-0.35109323;-0.018524276;-0.0051570632;0.29824528;-0.23572902;-0.003876759;0.0065084016;-0.041537356;-0.65136325;0.05459699;0.10734443;0.0021904297;-0.18927035;-0.12679812;-0.12574463;0.034867298;0.103255905;-0.0579416;-0.14772645;-0.2410613;0.11182935;0.05003393;-0.13885783;0.07030746;0.3672416;0.07009201;0.026637906;0.22565916;-0.070760496;0.15798998;-0.62055075;0.114930525;-0.051933132;-0.23619594;0.107534915;-0.27899465;-0.31643856;0.05016953;0.22160405;0.3499113;0.25719458;0.20755452;0.008338697;-0.117960334;0.118865274;-0.40792784;-0.10253154;0.044178054;0.047268875;0.15721628;0.022454865;0.13556466;0.4087368;-0.18115684;0.13693091;-0.060073785;0.007941654;0.10584876;0.11876029;0.05061051;-0.32455912;0.11730505;-0.21659037;0.14819598;-0.5331396;0.1970168;0.20144618;0.20771933;0.16357383;0.19993842;0.036042534;0.1481749;0.352091;-0.08932993;-0.07844514;-0.20613775;0.2518921;-0.010660819;0.18721479;-0.16997567;-0.018637165;-0.14979419;0.053193625;0.027434886;-0.18236068;-0.06717555;0.20532261;-0.33167252;-0.07890957;0.34483775;-0.048289355;0.22278962;-0.020932997;-0.59637195;0.18493524;-0.092788815;-0.080228955;-0.18742539;0.280007;-0.17346105;0.035615448;-0.15675068;-0.2527446;0.19487995;-0.24573416;0.21499014;0.024801426;0.27091384;0.2320273;0.12179877;-0.11593981;0.09238507;-0.13675295;0.028377755;0.0029955017;0.12117247;0.19933665;-0.114860274;0.5510359;0.16825688;-0.30345502;-0.037850525;-0.059490032;-0.23241478;-0.03972932;0.2489588;0.15179889;-0.2960674;0.17045707;-0.0007494328;0.017291145;-0.16462497;-0.099761516;0.21205541;-0.06834895;0.017013185;0.22148143;0.09859737;0.0833015;-0.1818396;-0.08440192;0.31820402;-0.23812066;0.1506068;-0.1852733;-0.18151435;0.005669796;0.26526952;0.032833237;-0.07053546;0.073216274;0.01779856;-0.15028788;-0.05369692;0.23594688;0.025014408;0.10339605;0.3727476;0.11799833;0.042044606;-0.031453636;-0.19857861;0.13723518;0.16811098;0.09662972;0.09788899;-0.102003746;0.12863168;0.025329648;-0.114546545;0.32696822;-0.43899992;0.23297836;-0.12416295;-0.10997145;0.27318522;-0.43043894;-0.043987434;-0.330347;-0.33757046;0.06600111;0.38726324;0.13339706;0.14805295;-0.05053808;-0.080579795;0.15846144;0.40437934;-0.01861928;-0.00015006434;0.21983695;-0.16992119;-0.2803167;-0.17039931;-0.0900275;-0.1424929;0.002927675;0.2547628;-0.07507672;0.16102925;-0.0054489374;0.006878234;-0.1892222;0.4115634;-0.3035981;-0.17207062;0.19048594;0.013790393;0.19171132;-0.08220713;-0.0015127129;0.049122125;0.11891625;0.057787117;-0.28119734;-0.19287287;0.08085939;0.023764309;0.13078016;0.37157077;0.33477587;0.09516835;0.0676348;0.015280072;-0.15047856;-0.0026720187;0.2522764;-0.02909256;-0.12468935;0.3200247;-0.21092194;0.36930227;0.32888928;0.102870874;-0.12779258;-0.12679443;0.079447776;-0.16051298;0.25031632;0.0034103468;-0.06716696;-0.12056547;-0.0032239126;-0.085770674;0.14251523;0.041682895;0.02979709;-0.027830133;-0.19409981;-0.23290627;-0.121675536;-0.03587133;-0.17154358;0.10756121;0.18828662;0.30839497;0.13193375;-0.007059317;0.42343554;-0.33988205;0.06327586;0.050835654;-0.2938764;0.008227087;-0.3312607;0.1360153;-0.1363675;-0.09577488;-0.08067664;-0.037581004;0.39317694;-0.023948539;-0.05429579;-0.17115705;-0.23480663;0.15904817;0.2435489;-0.0487051;0.15498531;-0.102075696;0.11986432;-0.38734427;-0.02989067;0.20852664;-0.08849847;0.012414525;-0.03547961;-0.015122276;-0.043854456;-0.3242869;0.2449253;0.072356485;-0.08242987;0.04801256;-0.5149879;-0.31610876;-0.21325465;0.063376665;-0.115747936;0.38137546;0.18317018;0.17527114;-0.19038466;-0.14249206;-0.20333089;0.13184902;-0.19186243;0.18954554;0.332184;0.22051823;0.12767318;0.2680064;-0.015344191;0.1799223;0.13193771;-0.016255498;0.30565378;-0.22321533;0.14466046;-0.32392657;-0.20765525;0.13157108;0.17123918;-0.35055384;-0.23734856;0.012389457;0.2731661;0.186296;-0.2514807;0.33214897;-0.18101141;-0.26935616;-0.04810403;0.12829666;-0.15570457;0.078293666;-0.10859892;0.072358415;0.32244515;0.21772647;-0.2516291;-0.048591334;0.22029684;-0.3407909;0.021099886;-0.24245991;-0.18950592;0.06102095;0.3080093;-0.111778624;-0.32304987;-0.059047334;-0.33068573;-0.14455259;0.064651154;0.33961934;0.0078033716;-0.08588898;0.070503265;0.24252501;0.21160528;0.06322533;0.19500549;-0.0044467887;-0.10623776;-0.25525454;0.24074048;0.20946088;-0.06550751;-0.023255391;-0.20659387;0.0010702417;-0.018134685;0.13895142;0.084967256;0.11182639;-0.075620696;-0.22468767;-0.07894653;0.0073382743;0.08208477;0.15951918;0.18934627;0.008954879;-0.10430506;0.3577742;-0.42211622;-0.052062303;-0.14074844;0.014301692;-0.1462291;-0.25037178;0.01106418;0.23236245;-0.019316792;0.03929717;-0.49004567;-0.06552279;-0.24033737;-0.1678914;0.10259414;0.20179118;-0.02750658;-0.12147115;-0.027211215;-0.024064576;0.23436691;0.10717455;0.13571616;-0.020875378;0.1432123;0.1334968;0.13316393;-0.27829477;0.05362032;0.17576122;-0.12372045;-0.088106796;-0.19346105;0.2960143;0.16252574;0.23775226;-0.3425508;-0.02544701;0.048505604;0.03961001;-0.21506998;0.13271694;0.085777685;-0.100649916;0.013613503;0.5718779;-0.026201641;-0.058922507;0.17869933;0.09958464;0.3333456;0.1098332;0.4352015;-0.009443014;0.16519612;0.11759003;0.049960554;-0.15368368;-0.22691779;0.13479012;-0.062135372;0.027944703;-0.16964267;0.061789818;0.09204104;-0.19227105;0.10082317;-0.07100146;-0.022045624;-0.13269782;0.10835308;0.1810813;-0.13190882;0.13184808;-0.0019831161;-0.13651708;0.0794131;0.11653569;0.06596677;0.063911654;0.15489298;0.29366723;0.07375519;-0.2230938;0.22622761;0.34242982;0.57780796;-0.10251793;-0.2263375;0.10449095;-0.048664384;0.10973405;0.16896135;0.22593607;-0.0026107652;-0.3269642;-0.13151802;0.058572333;0.07215371;-0.2371914;-0.31453672;-0.2905247;-0.25311142;-0.06554415;0.13131598;-0.061159078;0.22170751;-0.12676533;-0.15451068;0.12222648;0.08745584;-0.08601891;0.06355156;-0.06337557;0.3540759;-0.25306982;0.13597913;-0.19357863;0.14726284;-0.30952898;-0.19777821;-0.36107743;0.02774761;0.061722167;-0.39168873;-0.23138517;-0.119818345;-0.009460787;0.36841887
0.09124484;-0.20046785;-0.17046131;0.08824274;-0.08332247;-0.035482265;-0.024612905;0.02728859;0.0071507357;-0.060960058;0.16142444;-0.046888452;-0.66420805;-0.090373725;-0.1727767;0.014146693;0.3635836;-0.13030776;-0.043810237;-0.3897243;-0.13943641;-0.6464421;0.23694088;-0.20211853;-0.04413818;-0.32272664;-0.07169509;0.1851294;0.20263043;0.10120373;0.19863883;-0.09067113;0.08269639;0.09487818;0.031245608;0.19340482;-0.025586765;-0.07533147;0.30644336;0.04564656;0.045723442;0.13788223;-0.14687312;-0.3887448;0.0224415;0.24408518;-0.039531786;-0.0078568775;-0.016680043;0.20277752;0.1493752;0.22180684;-0.10030571;-0.06643472;-0.028883914;-0.23120435;-0.024771908;0.116898395;-0.06974582;-0.27111548;-0.4037769;-0.23872773;0.05211551;-0.12488641;0.13404965;0.004774659;0.10062414;-0.25966382;-0.027580315;-0.5204995;0.30464205;-0.17239326;0.019461984;-0.36423582;0.0025647867;-0.14723936;0.10164022;-0.0071958336;-0.11316458;-0.06952939;-0.035572972;0.1702065;-0.029814284;-0.24000148;0.06747764;0.109953284;-0.18427199;-0.058209587;0.16478835;-0.11734509;0.22471793;-0.3724673;0.25606424;0.026940541;-0.026663974;-0.12160682;-0.33771104;-0.5905236;0.024816873;0.27897283;0.41642904;0.15607011;0.13159928;0.027813857;-0.08968191;0.20804197;-0.28547105;-0.077097386;-0.028136153;0.031988215;0.2025759;0.13165228;0.14453502;0.104115136;-0.26593164;0.15021929;-0.19962193;-0.8433213;0.013209342;0.12693033;0.17047115;-0.26612473;0.16792983;-0.14166193;0.2099768;-0.271155;0.07575823;0.120430134;-0.15692963;0.19990084;0.15467481;0.20768878;0.005622926;0.23174416;-0.18402858;-0.057843987;-0.15837337;-0.024852013;0.21084833;0.31446415;0.12510183;-0.014611422;-0.20993467;0.01953841;0.061766453;-0.066891454;-0.098096386;-0.0695671;0.0017853798;-0.41485414;0.31958622;0.03932369;0.1533321;-0.087834105;-0.33592865;0.053505342;-0.014439135;-0.15728685;-0.2254333;0.15840478;0.08408894;-0.039876394;-0.010668278;-0.22174558;0.1743052;-0.42305592;0.047230385;0.012119797;0.20447321;0.16435276;0.0009827857;-0.19377543;0.23188716;-0.066714756;-0.09533063;-0.061391506;0.12626807;0.11329434;-0.15332824;0.5015104;0.23723966;-0.16932303;0.019126844;0.05279047;-0.10088564;-0.10171098;0.104198806;0.01818527;-0.23690836;0.22629213;0.090458535;0.17200841;0.012541558;-0.22347301;0.14279969;-0.20346905;-0.095861115;0.1642012;0.3122433;0.11718851;-0.46874237;-0.22024366;0.16793074;-0.16417743;-0.0019134493;-0.36333427;-0.064922564;0.13836347;0.40201533;-0.30771592;-0.44786537;0.17067295;0.12713169;-0.27099308;-0.07849927;-0.021800209;-0.1278983;-0.018848848;0.33882174;-0.18087845;-0.35949957;-0.14751875;-0.09284524;-0.14930151;-0.006008643;0.22096385;-0.054245584;-0.21548626;0.020609053;0.14380981;-0.14493105;0.27872634;-0.16874868;0.26198283;0.007260734;-0.2076812;0.23236406;-0.19665895;0.07404836;-0.12553982;-0.35892612;0.13648504;0.21910326;0.119667955;0.23858829;0.23356219;0.1904778;-0.026026016;0.53567;0.14562772;-0.13155106;0.28058755;-0.03468928;-0.17850989;-0.15303715;-0.029729981;-0.021913072;0.016886348;0.28684187;-0.21915554;0.17120074;0.09793384;-0.070947975;-0.33984944;0.6613861;-0.23339264;0.08394066;0.09708599;0.031780917;-0.22358407;-0.17539941;-0.0012607127;-0.043764465;0.08894907;-0.48102498;-0.15518145;0.17622097;-0.21505839;0.13669132;0.14349806;0.23108661;0.381354;-0.15514672;-0.057297528;-0.035660133;-0.3405537;0.13090429;0.24028224;0.100360624;0.006118328;0.13208237;-0.29718688;0.44472083;0.07547607;0.26063287;-0.13494486;-0.10254529;0.22465761;-0.010206918;0.28136644;-0.0033353905;-0.26871416;0.28249002;0.12718713;-0.16400604;0.33461034;0.04043376;-0.029835552;-0.13562837;-0.12747641;0.0527026;-0.037680253;0.12778835;-0.22893178;-0.1182469;0.050982457;0.2750065;0.04648007;-0.17446908;0.430384;0.05510755;0.098723456;0.11216694;-0.25009918;0.16232409;-0.12951146;0.0008789019;-0.117253296;-0.2810206;-0.030390903;0.13423698;0.40580648;-0.051417436;-0.1395542;-0.22931804;-0.1463772;-0.07776684;0.38623273;0.0990539;-0.22890836;-0.22308515;0.19641511;-0.8935802;0.031167373;0.30687004;-0.04148157;-0.28642628;-0.05982699;-0.02254092;0.09422995;0.044246465;0.16614841;0.021700865;0.017758366;-0.20990239;-0.46036473;-0.22790125;-0.09960182;0.25184444;-0.20406471;0.23095024;0.20864263;0.16325465;-0.0026620731;0.013394106;-0.050632346;0.19538298;-0.099400185;0.36862007;0.32362622;0.03627734;0.06023563;0.2459155;0.021279097;-0.03739881;0.2932964;0.25278574;0.23808487;-0.36381608;-0.114401534;-0.29951245;-0.3787811;0.15675487;0.06697967;-0.21307349;0.080334894;0.16673781;0.11358611;0.08090143;-0.24573275;0.29752728;-0.14682622;0.0654402;-0.020961339;0.27056575;-0.44669625;-0.15723892;-0.009512924;0.04848598;0.47004998;0.13040937;-0.17102462;0.12273538;0.011349563;-0.20502536;-0.08496586;-0.24741411;-0.1776682;0.2898024;0.22598985;0.05279088;-0.5130275;-0.27644867;-0.4564384;-0.21445015;-0.14274918;0.16717423;0.17209567;-0.2505583;-0.05755534;0.17487995;0.23646545;-0.038416076;-0.038070206;-0.06559441;-0.13194811;0.0048003145;-0.0074141184;-0.017876081;-0.00076651387;-0.1283573;-0.29645446;-0.059311092;0.12502776;0.34711087;0.029306857;-0.027760282;0.39783722;-0.24835816;0.030608492;-0.0025701944;-0.04933268;-0.06346448;0.17961231;-0.01425666;-0.07308822;0.14603336;-0.30716306;-0.2762084;-0.092381604;-0.083798245;-0.095701754;-0.4299304;-0.03706763;0.0016188631;-0.07268003;-0.011854307;-0.41968954;-0.080193706;-0.06622844;0.10647244;-0.06956156;0.2043043;-0.054388568;-0.027233727;0.19032268;-0.06702213;-0.19234519;0.06987946;0.11478786;0.008711251;0.4083029;0.14331296;0.28458387;-0.40449145;0.28765827;-0.13319421;-0.09937865;-0.14346232;-0.38496932;0.23154284;0.13076383;0.26038495;-0.04989876;-0.0458155;-0.001256756;0.18880145;-0.29790434;0.16710643;-0.1279004;-0.23232193;-0.11822831;0.284745;-0.09322304;0.032824263;0.28642884;-0.04060719;0.23631425;0.26459554;0.41350734;-0.053862177;0.23103073;0.24841997;0.110852405;-0.15089723;0.10269321;-0.018399315;-0.019201266;-0.08535153;-0.069179066;0.1553481;-0.04246175;-0.56928015;0.17168865;-0.106269896;-0.10407372;0.0375778;-0.007220811;-0.03972159;-0.012606329;-0.10013728;-0.10881975;-0.22295445;-0.0020870706;-0.0005657517;0.16334851;-0.112924755;0.06763398;0.07650018;-0.07869684;0.040470947;-0.044002254;0.45141014;0.45511743;0.09767537;-0.21421988;0.123712406;-0.093285315;-0.06448651;-0.06321545;0.17621222;-0.27595732;-0.2892073;-0.16323669;-0.059088364;0.25993022;-0.14144829;-0.09242808;-0.36115035;-0.10224494;-0.047281694;-0.1846999;0.16663961;0.24042334;-0.23864818;-0.08409798;0.1963264;0.24955797;-0.0202134;0.1966908;-0.007929062;0.2410097;-0.055418897;0.08986861;0.18963794;0.14218731;-0.15470207;-0.44140175;-0.42836118;0.08715081;0.08176687;-0.30036628;-0.17613773;0.09720139;-0.0459896;0.07619974
-2.8440802;-0.70062244;0.8006188;-0.49941564;-2.018968;-0.061281085;-2.9729342;-0.7019796;-1.1623539;-0.007434058;-1.9415936;0.35857186;1.231858;-3.3232064;-0.7501256;0.6496278;-0.5096252;0.538734;1.0234079;1.245382;0.35310936;4.988927;-0.012656432;-2.1659462;0.2561034;1.291649;-1.5215398;0.72561824;-0.19717516;0.24371459;-0.7736828;-1.4678363;-0.30652165;0.6566084;0.39950106;0.009076233;2.1082063;0.47378483;-1.6116847;1.1328739;-0.40514797;1.0371132;1.7790917;-2.004245;-0.98585486;1.4142509;1.8177918;-0.17831402;0.4701563;-0.79280126;0.9368677;0.5366771;-0.40715426;-0.10698333;1.533568;-0.92896086;-1.18311;-4.8799486;-0.019455073;0.051391244;1.863186;1.6684146;0.5598979;-1.1316729;-1.918276;-1.2210727;-0.89353776;-0.103204876;0.3089366;2.8876736;1.1760887;-0.5340098;-1.3789363;0.80396444;-1.4148748;0.45063037;-0.7357673;-1.0244681;-3.4109936;-0.7453077;1.9207476;-2.0927873;0.42146748;1.2206764;0.15205593;-0.87580633;-0.6766554;-2.8026845;0.96505874;-1.1573985;-0.6126755;0.015730226;-1.9913355;1.4574887;-1.20806;1.4905629;-1.3268691;0.84941626;-0.6159856;-0.21117817;0.5904076;1.6453865;0.05101369;-3.1000834;-0.6355084;-0.23454441;-2.534089;-1.0738156;-2.0856516;0.030121824;-3.1319282;-2.0504334;-0.3054997;-2.5484648;1.4815533;-2.3356502;-1.0059818;0.71159273;0.35913518;1.5995183;0.25633037;-1.3011388;0.3878451;0.050213177;1.041667;3.013768;0.74189466;-2.2427194;2.1564064;-0.31876782;0.8470735;-0.42502737;-0.94281965;-2.5045705;-1.9722222;-1.3650768;0.83033717;-0.83309144;0.9124452;-0.95580816;0.045540564;-1.8154007;-0.5080809;1.6636686;-0.40784752;-0.3473217;-1.011163;0.7401105;1.2121677;1.7894617;2.3667753;-0.5419363;1.1691859;1.6075735;2.4968932;1.2234057;1.0730385;-1.534815;-0.5536658;-0.80550545;-1.2875369;-3.9985185;-0.1577572;0.43821838;0.8635554;-0.3968614;1.5598627;0.3706848;-0.42588407;0.4789332;-2.1734023;-2.8693175;0.8794395;0.21317096;-2.4963155;0.9039451;-0.21515167;0.83777523;-0.36041903;-0.633258;-1.1842422;-0.6375803;-0.9343235;-1.1177685;1.0115802;0.0668514;1.2254146;0.28675827;0.539975;-0.75860304;-0.30567014;0.09852192;3.4068813;-1.6327473;0.8549996;1.5482863;0.52784145;-0.36916044;0.67759484;1.0210747;1.64539;0.6724253;0.083318755;-0.5541038;3.4161148;-0.7181238;-1.5906887;0.42263305;0.7574014;1.5784433;0.76673067;-1.4886638;-0.6104166;-2.5547295;-1.2031052;-0.13216119;-0.75356275;-3.2371507;-0.014410349;0.69743294;-1.0476378;-0.33295372;0.47382474;-1.0889628;-0.7136559;0.8507401;1.8072618;-1.0604974;2.7910156;2.2135124;-1.1421402;-1.0268323;0.13115822;-1.7618911;-0.793444;-0.6428133;-1.0509208;-1.2522231;2.2369711;2.655444;-0.48132393;-0.73233765;1.1168369;0.7043081;0.7783675;2.663894;3.0449395;0.12264524;-0.6890997;0.36035368;-0.7791218;0.86778057;2.5274122;-0.54477084;0.37877682;2.773384;1.1585047;0.009383579;-0.6088064;-1.8352296;-3.4717805;0.36906633;-0.008516648;-1.1261562;-1.0315777;-0.5518794;-1.0405817;0.74524945;0.32378364;-0.046127956;0.3073154;-1.1696022;-4.576106;0.04233778;0.5493048;-0.90870076;-3.5100973;0.22202483;0.21412133;2.8513937;-0.30499178;-1.2651016;2.464301;-1.546023;0.249171;0.44032833;-2.5319667;-0.14504886;0.7389389;-1.3465408;-2.2252078;0.278272;2.4452627;0.25905386;-0.74977046;-0.27432844;-0.7888481;1.2648827;0.1562801;-2.705133;-0.65188396;2.0752156;1.4291625;-0.17534721;-0.46398404;-0.87733394;0.37578565;-0.52754146;-0.20401469;1.6246554;-1.1128762;-0.20799445;-0.11281191;-0.6958285;-1.5749855;-0.377557;-1.8828957;0.54805535;-2.229574;1.7112327;1.3408799;0.45783052;-2.4858787;1.5405779;-0.41397473;1.8768616;-0.34319755;-0.61220914;0.8238526;-1.1052425;2.586215;-3.7619388;1.7503785;0.16216819;-0.26820153;0.7753821;3.5050275;0.16421074;1.2386464;-2.7494526;0.67742455;0.9941399;2.7900307;-0.118054055;0.3434029;0.5265616;0.19441283;-4.651642;0.0900338;-0.22776735;3.0585866;-1.8462672;1.325109;0.93781346;-0.08419679;-2.760717;-1.6523411;-0.32607764;1.3479602;0.14040646;-1.4463044;-0.9026103;1.7134955;3.112758;0.10754374;0.45390403;-0.14775711;0.11683992;-1.3584276;1.7371303;-0.99343884;0.4588148;1.2200104;1.548157;0.8399007;0.6873449;0.46688893;-0.0871755;-1.7236536;-0.90778637;0.15212138;-0.763728;-0.7570074;-2.6017957;-1.3567475;1.962481;-1.4534968;0.7071685;-4.150219;-0.44415188;0.2377671;-1.3843473;-3.8996067;-0.35239166;-0.40887746;0.93380237;2.71456;1.0601746;0.49124783;-5.251338;-4.0684175;-1.4872353;-0.019247571;0.3346585;-1.0797849;-1.9490808;-0.39410183;-1.3158468;-1.5443554;-0.9749824;-0.608839;-1.1535754;-0.201017;-2.400521;-0.46634838;-0.54809535;0.69424087;0.84699744;1.425176;-0.6216749;-0.875574;1.1295238;-1.3244193;-1.1222125;-1.7806888;1.1347536;-0.72179604;-0.5079766;0.822922;-1.5496842;0.5420516;2.1625917;1.0091937;-1.9059776;0.46993405;-0.10221057;-0.6270316;-0.6358096;-0.14339796;0.3058582;0.11716553;0.63101876;-2.1014447;0.42024887;-0.3659637;2.4897957;-2.7221212;-1.4376106;0.21294878;-0.45295888;3.5946136;-0.3218075;-0.7112969;-1.2242131;0.8122642;0.39786988;-2.0558772;0.4914999;-0.20543419;0.5608432;-0.52275777;2.1810203;0.2934566;-0.7145065;1.2993858;0.86183304;-1.2099771;-0.24633986;-2.0447733;0.2784928;-2.6698525;-1.5843258;-0.15494366;-3.9264338;-1.5215421;-0.4413931;0.86339;-1.7147039;-1.3451536;-2.746688;0.5652793;0.6597475;1.3421127;-0.21331324;0.10251406;0.93552536;-0.0042720535;-0.25971434;0.61649257;-0.058931623;1.2487291;-1.66105;-0.36543888;-1.2695928;-0.5032969;0.39920503;-0.22237252;0.45552617;0.28581083;2.8484254;-0.1017817;-3.092914;-0.85237527;1.6764042;0.5963207;-0.48917785;-1.2540346;-1.7080038;-0.78492516;-2.2892895;-0.5167031;0.5143464;-1.2385834;-0.5635708;-1.0536319;1.7994108;-0.72186494;-0.23664063;-2.024523;-1.1624372;0.059600756;0.047426302;-0.1881543;-0.21988714;0.6807218;1.5190136;0.04696456;-0.35130748;1.4915916;1.0386252;0.39072978;0.82332516;1.5154821;-1.4974129;1.0613128;-1.1741647;1.1571491;2.098858;-2.509103;-2.8164005;0.70112586;2.3381755;-0.72403896;-0.81746507;-0.5416835;1.5793941;2.9931853;-0.84107333;-2.240267;-2.0350785;0.7002105;-1.9092402;0.06237564;0.24381903;-0.08937866;-1.0883887;2.499206;0.7100524;-3.2761066;-1.8444262;1.5981375;-0.9067092;1.748099;-0.35415745;0.51848596;1.2049284;-2.2635243;1.7890588;-1.202883;2.8514934;0.2954538;0.9762501;0.8190265;0.22680488;0.7654659;3.596408
-0.060266796;-1.4212176;2.273845;3.05995;0.9114326;-2.0183306;-0.37994927;-0.1655218;0.61030483;-2.9388335;0.406213;0.44620258;0.58985794;0.19501391;0.23706824;-0.56957877;-0.1918377;-1.1273534;-0.08653495;-0.5014576;-2.9644957;0.59089214;1.5883429;-2.3078172;-0.33953363;-1.2018402;-0.8356558;1.6754919;-0.16728167;-0.49487343;0.53559625;-5.019876;-0.33353966;1.2211607;-1.2271142;-0.57922226;-3.884671;0.10576545;0.6176011;2.2906208;1.3141102;0.08970396;-1.2013633;-3.1319098;-1.7613602;0.96024406;0.7279385;0.26945028;1.106638;-2.3273346;-1.3902051;0.7406893;0.97266066;-0.7778982;-4.791398;-1.9681401;0.32851183;0.2738525;-0.3984078;0.39068002;1.6713129;-0.21227247;0.19739756;0.20517966;0.109090015;-0.68210983;-0.2506503;-1.6425812;-0.92638034;-0.854054;1.4024786;0.51684946;-0.80821925;2.5484412;-1.4686779;-0.22028191;0.89024454;-0.84508747;-1.5950551;-2.6975572;-0.38370174;-2.2241929;-0.9775361;-4.389928;0.51784086;0.16016679;1.5680661;0.27263367;-0.9877352;-0.22099012;-0.46587905;1.1536671;1.9879566;-1.1492009;-1.01796;-0.81080955;1.6038178;1.3620199;2.6881638;1.1449735;0.767205;0.77106446;-0.020191142;0.71408564;-0.69624674;2.0096047;0.21599284;-1.076825;-3.652281;1.3496089;-1.900413;1.8941644;-0.81056726;-4.201712;0.5829108;-1.5413257;0.013575086;-3.4611063;2.1098893;-0.021821877;1.3772123;-1.7705317;1.0218168;0.9646655;-4.3950696;-0.60717154;2.0367374;-1.4338037;-1.3710053;2.3960845;1.0123248;0.30010518;-0.68066835;-0.8019678;0.5209472;-0.65473825;1.886071;-1.8806455;1.7618401;-0.9389348;1.2665823;0.034501813;-1.5260576;1.3462876;-1.5451375;-1.8192606;-1.6664222;-2.308987;-2.4239712;0.8570832;0.40500078;-0.9263169;3.1756277;-0.23488952;1.7299247;-0.2651464;1.2891984;0.17066053;-0.38120127;-0.1342717;-2.2557154;-1.8063678;-1.9822294;0.5638082;-1.585403;0.56717724;0.1360582;0.7152024;-2.2172446;0.1578197;-1.8778692;-0.46702015;0.14354265;-2.6691754;0.050790805;0.20774363;0.99850637;0.8633818;0.4082606;-0.80578333;2.3998759;0.9578842;0.18664937;-0.66001755;0.026758522;0.897199;-1.5570731;-0.591117;1.5485901;0.40872502;-1.2558062;0.8183767;-0.7620277;-0.1503514;-2.093595;1.964496;0.7912864;0.9111871;1.6623669;0.2298493;-1.3114423;1.1295514;0.62660784;2.5140073;1.7148573;1.0839312;-1.671123;0.2724936;0.25204444;-2.7103348;1.6282921;-2.0694842;-2.3457112;0.0068385196;-0.4381177;1.8089063;0.26844844;-0.5630103;-1.0935162;2.8377655;-1.7824255;-0.7456854;0.07498077;-2.6080172;0.26045698;1.4376441;0.030709945;0.2226361;-1.8524404;0.65726286;-2.459866;-1.9217037;2.0467546;0.61299515;0.22628398;1.5979902;0.9824238;0.028553009;-0.60449475;0.5291722;-0.60771614;-0.43156135;1.1048765;-0.8189206;-0.34953976;0.107549615;0.46979773;-0.3762862;1.3939145;0.53410184;1.0000907;-0.46324843;1.6119288;-2.0056694;-4.8298225;-0.85557497;0.88181;0.3754582;0.06944511;0.15346026;1.0451698;0.8196071;0.5497251;-2.9791522;-1.541395;2.024029;-0.36595926;-0.032493375;0.41098893;0.72735983;-0.2572754;-0.7877374;-0.37515718;-0.1300944;-0.2344658;1.3974154;1.1692301;0.5022573;-0.9895203;0.35761952;-1.2211065;-1.3918701;1.033588;2.954368;1.1216975;-0.061932046;-1.485458;0.87517357;1.0395676;-0.56258357;-0.62500244;-0.78834385;1.4462216;-4.307454;0.97703;2.9714587;-3.095203;1.4665531;-0.8442196;1.944579;0.8258197;-2.239211;-1.5673716;-0.103196144;-0.09538758;-1.2265393;0.56536573;-0.16648832;0.131986;1.0888319;-2.4910874;-0.42714137;2.7902327;-0.43579963;-2.0363297;-1.1175393;-3.0504737;0.068147406;-0.19619265;-1.3089424;-0.63929033;-1.3517857;-3.864108;2.1594663;1.9040258;-2.4327333;0.47748926;-2.4025867;-1.319505;0.20879352;-1.3857118;-0.08020143;0.08314162;0.7908795;2.2185597;2.5900376;-0.2795394;1.0415682;1.1665235;0.37068155;-1.8949102;0.74213934;-2.4115336;2.3258615;1.4224573;1.7830113;-0.0048267446;-1.1488858;0.021829788;-0.7645987;0.22262894;0.58412147;-0.4955835;-1.3320419;-0.6754592;-1.9097642;-1.7455463;0.22901882;-0.6467576;0.39030105;-2.081697;2.1572666;-5.8965144;1.4624141;-1.3644845;1.101768;-3.2455852;2.2786722;0.87186277;-0.5432451;-1.2143359;0.145838;0.7234321;0.24364474;3.240531;-0.17169432;1.905454;0.8113476;0.22022477;1.5306691;-0.10995783;1.5638305;-1.8091012;-0.29371133;-0.87511224;0.5043673;-0.08910081;-0.29217884;-2.397495;1.1235961;-2.3235178;1.2943207;-1.3941416;-0.46708885;0.21839885;2.1750548;-1.0602803;-1.8869208;-0.5306116;-3.6778386;0.78593457;2.104167;0.82623786;-0.3241325;1.5194353;2.6989803;1.4967798;1.4241424;-0.43337497;-1.293546;-1.6694156;0.8679934;-0.0044478904;-1.3502564;-2.5623624;-2.1989858;1.6509986;0.924097;1.4799559;1.4168851;0.26985967;1.4917289;1.2832867;-0.89330786;2.530297;2.329657;4.4066405;-0.41263813;0.33419216;0.29639804;-1.5913371;1.9426702;-1.8035359;0.80221933;2.2674658;0.22732355;-1.2786642;-0.31268555;-1.1207932;0.28753948;0.069100924;-0.35436523;0.22919123;0.07256193;-0.022534598;2.4504051;-2.5726748;1.2983153;-1.5642997;-0.42754906;2.7429905;0.8243788;1.9319867;-2.107852;0.9996932;2.526788;-2.990944;-3.139013;0.5341833;0.15942651;0.4540465;-1.942869;1.5939568;-1.1899167;-1.4183114;-0.3974527;-0.44731638;0.727813;-1.344191;0.10544733;-1.8868761;2.6669407;-0.009929657;-2.2881994;0.22361362;-0.35343918;-2.3238602;-1.5714186;-1.1553338;-0.29860276;0.3973425;-0.6005348;1.1968079;-0.7190378;0.18790881;0.32749093;0.12809874;-0.5713091;1.0891819;-0.13985692;0.17204356;-1.2236754;-0.72683185;0.7157289;-0.58152944;0.2220711;-0.8761252;0.677846;-1.2195364;0.04104973;1.1457423;1.2028168;-1.460232;0.86632544;0.6063539;1.5052208;-0.68849295;-1.4825227;1.9456277;-0.267254;1.5579993;-0.24506964;1.0145155;-1.0904814;-2.1218328;-2.2482436;-0.73491573;-1.6141188;0.018667974;1.773984;-1.1702095;-0.7273464;0.5122798;-0.7253684;0.11584815;-0.30344883;-0.7418634;1.000242;-1.5217141;-2.3325562;0.7186748;0.64157325;1.6788309;0.438623;-1.1501569;0.79668945;1.2605728;1.8977283;-0.39617994;1.2686813;0.16611628;0.6556527;1.1479841;-0.021774992;1.5778418;-1.318167;0.111976445;-1.2523081;-1.5252461;1.8173852;0.4406207;-0.45678878;2.2585654;1.2341496;-0.00847392;-2.2592099;0.22391585;2.962613;1.3363806;-2.6514208;-0.2590574;-0.058474638;-1.2053378;-0.946966;-3.3825696;-0.29044533;-3.2089167;-0.14108406;0.626578;-0.71136934;1.0964141;0.47096318;0.7694594;-2.4097412;0.106308766;-2.9808238
-2.823077;-1.9766148;-0.01886101;2.6925554;2.5563858;-0.33534914;1.0243549;0.20098661;0.16739678;-1.1151301;-0.87578917;1.4751381;0.36791512;-0.57021224;0.49543118;0.4566023;-0.52384496;-0.3046505;-0.5605156;0.18083933;1.8081563;1.6674186;0.8715511;-2.1948218;-0.15110001;0.41915601;-0.24102284;1.5477294;0.45517474;-2.7688494;-0.9005132;-0.2088551;0.047419246;-1.1739866;-1.6044644;-0.7365776;3.344565;-0.4703841;-0.3904507;1.7505548;2.0649767;-1.6171564;0.9017982;-2.8331385;-2.721842;-1.4943194;-0.7531728;0.19546199;2.9570236;-0.8038862;0.5868751;0.993147;1.8727089;-0.5779381;-0.11768782;-1.3277494;-0.9749447;1.5510845;2.46076;1.1146178;0.46929726;-0.4058185;2.3504293;0.42786583;-0.38274372;0.2548584;-0.20372792;-3.5300944;0.36227116;4.149644;0.73810303;2.031431;1.4077824;1.7877889;-1.4237067;0.41430336;-0.23010057;0.8051029;-2.1157656;0.16208754;3.2301428;-0.08861037;0.63519734;0.4690566;-0.4932419;1.3744701;0.43098155;0.9817627;0.89811635;0.14057367;0.7963948;-1.4708438;-1.7443483;0.12413953;-3.1505458;-0.10653204;-0.24405012;0.3483431;-1.8724808;-0.6379057;-1.5753168;1.216257;-2.4080331;1.3366354;-0.87492955;0.0013106839;-0.92912006;-0.43075305;0.118859485;1.1937085;-2.7596056;-0.3851194;-0.1230272;0.6935324;-0.96239763;0.24290605;0.5202118;-0.18175605;-0.070806235;0.38254288;1.3424095;-0.85236716;2.1461704;1.0258151;-4.0299096;0.5008058;3.9712417;0.80251765;0.63593465;1.0433472;1.2961267;-0.6832093;-0.37956393;0.5876038;-1.256508;-0.7276783;-1.0896221;-1.6387993;0.49496472;2.5610383;-0.45586455;0.88891184;-0.58599204;-0.22915833;0.8032009;-1.6521794;-2.4107692;-1.5034987;-0.842596;-1.6451391;-0.39052993;-1.077163;-1.8651665;-0.55451405;0.55894196;-0.9832785;0.8126339;0.35182905;-0.40683913;-0.19381428;1.1794248;-1.50784;0.20330916;-1.5547484;-2.6371856;0.76846623;-1.0650481;-0.2826638;-3.0962615;0.21350172;-0.7137375;0.5461609;3.2903943;0.1752314;-0.021720782;0.4982962;-1.6274565;-0.71165335;-1.3212205;-3.303933;-0.072540216;-0.861944;-0.12664875;-0.5613137;0.3551642;1.1893053;-0.47988585;0.38570282;0.8614334;1.8085779;-1.9500716;1.3711655;-2.3101895;0.40630773;-2.8275979;1.6148924;1.3459673;-0.38152778;0.5683143;-0.47633722;1.0590798;-0.96708316;-1.5108898;-1.5795271;-1.0831202;0.50046533;1.8065761;-1.0474501;0.51764363;0.21790117;-0.9756907;-3.7002707;-0.5293424;0.3081813;-2.271671;0.94635195;0.8054003;-2.3380895;-1.0888858;-0.8323792;-3.4653215;-0.12524387;-0.80095774;-0.06331614;-2.123751;1.5518698;5.2390285;-2.061539;2.5620234;-0.745335;0.35221907;-2.4306302;1.6083835;1.6395125;-1.1645949;2.0601985;-1.1820617;0.80854446;-1.7654771;-1.9242734;0.8594627;-2.619571;0.9690756;-0.6067656;2.4356384;2.0016057;0.3483434;-1.0236001;0.51210576;0.72531503;1.3279743;1.7069048;-0.8487134;1.2206398;-4.639482;-0.29638496;0.3147268;1.5278983;0.70473856;-3.4818792;0.00017694633;0.10191177;0.6941548;-0.5416151;-2.5054634;0.048952598;-0.72022134;-0.052661594;0.81130195;1.6150502;-2.1791637;-2.6656215;-2.8679223;0.3501921;-0.06091995;-1.0763797;-1.8965411;1.2481099;1.7973175;0.63733006;-2.7328696;-0.4735209;-1.584627;0.8236749;0.42485812;-0.06803218;-1.1398295;1.6776893;0.25957626;0.28541034;-0.6650409;0.71320945;3.0091496;-0.79990035;0.020706777;0.5646187;-0.6113892;-0.12879512;0.093022116;-0.11286852;2.2746625;1.30666;-1.6824305;-0.61967766;0.15220979;-0.6267392;-1.416576;-0.43626177;-2.14186;-1.8045443;-0.3125859;1.536431;1.5984257;-1.1136883;1.3779829;1.3520237;-0.42321724;-0.05679008;-2.6498847;1.027239;1.8784704;0.17437671;-3.075159;1.163646;-0.9437255;-1.8804594;-0.5286215;0.27869084;0.81291795;-0.5671411;0.33136556;-0.18364997;-0.43054724;3.1306114;-0.41745716;-1.540905;1.2824811;-0.23547612;-2.3327434;-0.9837909;-0.50001836;1.013157;-1.9651303;1.3448471;3.418285;-1.0067002;0.97849584;-0.77176505;0.052548;-0.06745845;-0.37764898;1.0559784;-2.7452815;0.8163448;0.46077815;-3.3161373;-0.29225987;-1.0307437;-1.0776087;-0.2732622;-1.9491351;0.7851389;1.3933691;-1.0032759;0.34705034;0.3048985;-0.7383567;-0.51660556;-1.0120134;-0.07211336;0.127832;-0.66507965;0.730443;-0.24700037;1.4171302;1.5721294;1.6248707;1.2357063;0.77445847;0.68285185;-1.9257;0.95214456;0.6009212;-1.7520436;0.3222029;-0.45306554;2.0142188;1.7072313;-3.6514897;-0.66205645;-1.9952668;0.13393016;-0.25928932;-0.5630889;1.091919;-0.6407248;-1.5209658;-1.0976225;-0.4459364;-3.2532742;-1.384395;1.9327649;-0.6461308;-0.4653314;0.3752064;-0.41893202;-0.9408122;2.79584;-0.54100406;-2.2534988;0.22074349;0.39232862;-1.4987425;-1.5116049;-0.0395588;-2.020113;-1.6277808;-0.21182747;1.7692311;0.1693492;-1.5989205;1.0516139;0.7314783;-1.8224995;1.1868082;0.11488438;-0.82527083;1.2850903;1.9769412;3.0325012;-2.9456487;1.1780391;-0.49538434;0.12154405;-0.5475844;0.42085302;0.54759306;0.50828177;0.57619655;0.040952794;0.08232364;-0.43576577;-0.5159207;0.3366499;1.1829022;-3.0497818;-2.319286;1.1035225;-1.1618004;-0.93803424;1.5523771;2.5589523;1.5590212;-3.4181235;-0.36076084;-0.3706832;-0.75484264;-2.1736007;2.0108469;-0.1036668;0.72867626;-1.2030448;-0.83209074;0.8350112;-0.5472276;0.042308193;-2.7142537;0.10768248;-0.52217734;-0.5000556;-1.7341512;-2.1300638;-0.28273937;-3.3781712;-1.2493114;0.27666143;1.9540623;0.6422569;-0.9728635;-1.6659483;0.5012369;-2.319772;0.83468795;-1.2704803;-0.059461754;0.18788524;1.1778575;-1.0195963;1.3679043;0.9045365;-0.3387074;-1.7492875;-1.8510196;0.023175301;-0.74335974;-0.05367298;1.0728214;1.4561645;-0.9641457;-1.225772;-2.2622073;0.5573502;0.5415903;0.84259826;0.83904445;-1.6472279;-2.5717666;-0.11887472;0.5271926;0.07622874;0.9419518;0.060560558;-0.32276776;-2.9416978;-1.567604;-0.4312987;-3.5453115;0.12896572;0.36835638;0.8723105;0.04861694;0.1634574;-0.6157624;-0.5903029;-0.72494185;0.4372992;-0.090904735;0.10993572;1.0740823;0.22220182;-0.88979363;-0.6158957;0.4463499;1.7342433;-2.5156362;0.98909545;-0.25977945;1.5263274;-0.54139197;-0.22430843;-1.4371234;-2.6880894;0.8623323;1.2782807;-0.87967414;0.8977501;2.1258962;1.5390773;-1.7075137;1.828794;2.012634;-0.45746824;0.04928864;2.9866548;-0.12054579;0.4634959;-0.0047588055;-2.4497006;1.0587745;1.4009513;0.7034723;0.10895835;-0.7294906;0.5020837;-0.70349056;0.020171318;-1.3078959;1.7471982;-1.8161151;0.117674746;-0.5493578;4.7431793;-0.20575869;0.060481504;1.6987873;1.8752093
-1.6474557;-0.07536912;-0.84548014;-1.6947575;-0.4302775;2.022911;-0.49954656;0.8594365;1.6111737;-0.7972218;0.27641678;0.55793834;0.28119987;-1.2383232;-1.7897837;1.311336;1.008361;1.2045455;1.5057497;-0.153368;1.6082591;2.9539258;2.532488;-0.8438269;-1.052946;-1.6771547;-2.8081996;1.036508;0.15546823;-0.8017861;-0.44720367;0.58097434;0.43875328;-1.1470335;-1.9554639;0.49382812;2.3982618;1.1793472;1.0906684;-0.5327119;1.5329368;-3.0991304;0.34582692;-0.21777298;2.7474873;2.0031514;-0.03438691;-0.1391199;1.1568239;-0.62117;0.75871325;-0.77689344;1.6364552;0.48962623;3.5871053;-1.3719721;-0.26075625;-0.8909226;-2.400663;1.4020278;0.18323717;-1.1670991;2.6891322;-0.5636265;0.54719216;-0.6695017;-0.6460833;-2.6828086;0.552987;0.64379156;1.2985251;2.4867568;0.8419284;-2.6633353;0.81523895;0.8968987;0.21602172;2.1389265;-0.7911823;-1.0778017;-1.1410315;-1.9216232;0.4071812;0.8871662;0.48008335;0.24812089;1.4586494;-0.69920826;0.9350991;0.5203089;-1.5314566;-0.5316652;-1.2697458;-0.6044237;-3.1409764;2.5313659;0.16739596;1.3536687;-0.21758094;-1.6020858;0.15101777;0.48554704;1.2277155;0.24442682;1.1821063;-1.4495454;-0.15632026;1.3575554;-2.1705737;0.103010096;-0.44549212;-1.7431566;-2.252468;1.3980544;0.07693167;-1.9162273;0.7268721;1.8085839;-0.49835894;0.3422532;0.18585281;-0.21316426;0.6269762;-1.4128702;-1.0846677;0.05789941;-0.16055259;0.14710958;2.7949517;-0.053607404;0.6456698;0.036275502;-0.28980666;0.117200695;-1.4399163;0.01399573;0.3042784;-1.1859393;-0.8158762;0.6419294;0.3350394;-0.252041;0.38670564;-0.11878761;1.7613956;-1.6834549;-2.0138006;0.2019546;1.0905112;1.7075112;0.90168226;-0.861781;-4.166004;1.8709686;0.49841845;0.96824944;-0.23883435;1.150919;-2.5966988;-2.4498725;-3.9455798;-1.7651205;-0.16998932;-3.6882586;0.3101331;1.4742461;-0.5671704;-0.011052924;-2.2674258;-0.13496767;-2.4170332;0.2164059;1.9089015;-2.3351;0.69317997;0.66408086;0.6458159;1.3174381;1.4707503;-1.496644;-0.29536492;-0.12651859;-1.4805778;1.0149956;1.4199435;-1.0748996;-1.8994834;1.1016934;1.5547458;1.3161461;-1.811427;-0.94329447;-0.44879174;2.0132189;-3.177067;1.5664637;0.35518193;-1.5976354;0.744503;-2.609124;-2.6155984;-0.3200916;1.1328962;-1.1683336;-0.50392693;-1.2158508;1.0482858;2.3128428;0.659252;1.5427223;-3.4317806;1.022478;-2.160509;-3.4030554;-0.060606014;0.7691789;2.1628647;-3.108129;-0.86469823;2.652834;-2.9534328;0.27718022;-0.67914754;-0.28471547;-1.3363657;-1.4952334;1.0706918;2.6576917;-1.434164;1.3989128;-2.206291;-3.4072301;-1.1076277;-1.6917467;1.7465017;1.78579;-0.5554107;-0.059228845;0.44149947;-0.601796;0.054900195;-0.68142897;1.8577281;-0.62880945;0.6232634;-0.8308285;2.284217;0.62179965;-0.918931;1.4398646;2.292917;0.54612076;-0.46685922;-0.28809533;-2.6142423;-1.5782378;0.30795258;1.0171809;0.79732746;0.9079773;-0.40714294;-2.5527375;0.62880117;0.005139923;-0.94379497;-0.06373971;-0.6359627;-0.36791188;0.032104943;1.0917398;0.3100775;-1.461306;-0.26389754;2.148657;0.6381274;-2.7739918;0.7929951;0.62055385;-1.067757;1.2557497;-0.7278487;-3.4311423;-1.3022445;0.77526474;0.39087468;-3.5341613;-3.001575;0.06991756;-0.80107814;-0.015595085;-0.9489045;-0.99751234;1.225002;-0.322205;-0.70304966;1.8478;0.026382567;1.3123336;-2.0299294;1.5813648;1.964375;2.595604;-0.74669975;-0.009165028;-1.3845242;0.25893196;-4.203831;1.666775;0.968959;0.96277314;-1.7736454;0.73404914;3.4865913;0.053580064;-0.5142503;1.2058738;-0.6077686;0.7451667;0.94472003;0.84999156;-1.2710747;-0.2071471;0.8929104;-0.6742129;-1.9675822;-1.4543828;0.11447541;-1.7020503;-0.052751485;-1.0456554;-0.65085626;0.84778655;-0.1621404;1.8230288;4.469227;-0.5632601;1.8981236;1.9455;0.88627774;0.23547032;-0.027227905;1.6248767;0.76804453;-0.4795966;1.1790494;0.41410726;-1.4602368;0.3598476;0.21256706;0.6461097;-0.21425304;-0.8141226;-0.45115358;0.9869804;0.38714987;-4.937636;0.8575084;-0.3524196;-1.5789014;-1.7368969;-0.52294517;0.0003111824;-0.8496273;0.28047284;1.1858274;0.51242685;0.7611195;1.1476715;-0.07112427;-0.7008546;-1.8879772;0.93203086;0.5206973;0.46418005;1.3053787;-1.4528741;4.458997;-1.370941;-0.08913268;-0.022788955;0.7471065;1.957994;-0.15930039;0.9051554;0.6883128;0.48803008;-1.644152;1.653996;-2.6834688;1.075871;-2.3477826;-2.5278525;-1.4221506;-0.74272525;0.28812224;1.3768766;0.3716801;-0.79798657;1.1396302;-3.666689;1.8005037;1.7016307;0.5962897;-0.1346643;2.139537;1.1259905;-0.25729784;-0.91246635;-3.2403972;-0.9764587;-2.4172463;-0.71971166;-1.0415765;3.2399666;0.8915061;0.55741584;0.96437186;-2.030122;2.6727684;0.15910959;0.8571168;0.5408196;-0.15102203;0.052288495;1.017721;0.09914158;-0.54551214;0.14604057;-0.62135357;-1.3763599;0.73642504;1.8387852;0.7340209;2.7483263;1.0500178;-0.5864484;-0.7152081;-0.5511383;-0.36190343;0.88782066;-0.06775361;1.5299765;-0.554239;0.19244513;0.18588006;-0.010846634;0.35321206;0.42469913;0.85809594;0.18207099;0.9451078;-1.020736;0.09295079;0.1412694;3.2710943;-1.0818237;-1.128434;-1.0965525;0.42569146;0.20505695;0.5105234;-0.79094255;1.4765968;1.2677997;0.6208306;0.177211;-1.0702189;-1.340843;2.7464573;1.1676868;-2.0087428;-1.0547185;0.80236304;-4.1375213;2.4392176;0.16132535;-0.47915667;-3.1894674;-0.4969174;-1.7232319;0.91597015;-2.5638661;0.23710959;-1.8017409;0.33014986;1.0911443;-0.39078328;-0.43285117;2.1450279;0.51324165;0.8447554;-0.4887173;-0.24946801;0.89747894;-0.81231695;0.7068484;0.62785023;-0.5769683;0.09317113;0.42667332;1.3476082;1.6230562;-0.18242088;-1.0591311;-0.12082548;0.75850016;-3.3690026;2.2873702;-1.7487489;-0.6017974;0.059845313;0.7293096;1.7827439;0.038741414;-0.867088;-0.87418884;-2.9043097;0.30109072;-0.63233185;0.16362916;0.3095529;-1.2894486;-0.75017667;-0.84760034;0.28277785;1.3296474;-0.74145484;2.1273007;-2.2698872;-1.7672027;-0.72693175;2.0361702;-0.085896775;0.79615414;3.250634;1.2880158;1.7609677;1.6934521;0.21168448;-1.2193965;-3.3021955;-2.366081;0.586661;-0.15201516;-0.7233076;2.0232766;-0.6466814;3.7914703;-0.037400603;-1.2896441;1.5820312;0.42383942;1.7939142;0.8687464;-0.280448;1.4369599;-0.4262637;-0.7592904;-2.5486777;-0.25382864;-0.36795992;-1.2514188;-0.68926704;1.8214043;1.0368193;-0.5160325;-2.5407524;1.4255682;0.27049765;-1.5566177;0.7603152;1.9879045;1.5884476;-1.2985747;1.3007613;3.623125
-0.8210155;1.7089266;-2.1135669;2.0207117;-1.6908953;0.9704913;-0.33836094;0.48500758;-3.201523;1.1323754;-2.1005552;0.50498796;-0.049351756;2.124441;0.06641755;0.57953674;-1.398396;1.0168511;1.2928197;1.6434433;0.43091366;-0.8646378;1.8041537;-2.9168665;-1.3471712;-0.32046488;1.520966;-0.77380645;0.1477699;1.6839489;-0.59593153;0.029713966;0.3974143;-2.2329516;-0.010916808;0.44552743;0.079134785;-0.15986046;0.7928672;-0.48330998;1.1193124;-0.0836061;-1.0954225;-3.215856;-1.319004;-1.1747935;0.40730247;-0.5543816;0.67184913;-4.0262814;-0.40629733;0.52432334;-0.42225397;-1.2515773;-1.4245889;0.52129275;-0.52817833;-0.86312485;0.31940076;0.17554033;-0.6915927;0.41611007;-0.7761685;1.269179;-1.1927029;-1.6526127;0.3313793;1.8224173;0.9760074;0.014815641;1.9280472;2.679112;-1.43881;0.63928246;-0.016530078;0.9663297;0.17043331;1.4497324;-1.8291842;-0.36481747;0.41937563;-0.22930431;2.445838;-1.2930796;1.2028068;0.46000147;2.3470898;-0.26246047;1.794907;0.46122992;0.2934144;1.2443807;1.3476212;-0.7381303;-0.71314734;3.088526;0.022415409;0.41498417;-2.6307204;1.1152933;-0.26212895;-0.22107694;-1.1299012;1.4185921;-0.6094868;-2.1087852;0.49977905;1.356441;-0.53328073;-1.6469817;-0.006102091;-1.4709609;-0.06619048;3.3049254;0.14057092;-1.0732958;1.7891212;-0.5754594;0.17848745;2.2565944;0.5257546;-2.9508712;0.012333088;0.92319244;-0.104205534;0.5957887;-2.1668289;-1.5470487;0.386487;2.313661;-1.2372758;-2.0287304;0.90343136;3.342004;-2.6974332;-0.3261303;-0.49233404;-0.45384648;-1.3518454;0.6004841;0.32567778;0.7573051;2.7110732;1.1820525;0.82028806;0.10952947;0.38065276;2.0202367;0.99407333;-1.4625006;1.9146203;-0.64664614;-3.1203198;0.5858792;1.8752768;1.2767565;-1.156569;-2.349098;0.8410516;0.044643708;0.97800666;-2.0394828;-0.7991467;-3.056615;0.630904;0.4158981;-4.243332;-0.36475497;-3.8096135;0.24315394;-3.1460247;-0.06947153;1.7173117;-1.5970358;-0.48977828;-0.72845113;-1.0988861;2.2318149;-0.41970205;-0.6165925;-0.16998853;0.86883575;-1.1756693;-1.3825163;-0.607056;-0.11349061;-2.8100574;0.7816019;-0.08637599;0.49207252;-0.421452;0.08412557;-4.127693;1.8402933;-1.4089156;-0.9961993;2.9161098;-0.8868991;0.064175986;-0.3241045;0.050322942;-0.47694603;-0.08152809;0.48794308;1.6364889;-1.9646083;-0.456047;-1.4519817;0.2868239;-0.6425393;-1.870458;0.7368707;-1.716546;-1.8425783;-1.6570897;-0.10179084;1.6802955;-1.6100848;2.6836264;-1.1718816;-3.1045945;1.2157981;-1.8796577;0.49731758;0.5492371;-4.383544;1.2398996;2.0254443;-1.9188662;-1.0280116;0.33371538;-2.3542776;1.6875523;2.2524788;-0.700921;0.21661495;-1.4292555;0.42035678;0.15402572;1.8351324;0.6949142;-0.7577485;-0.6823644;0.45205075;0.2299865;0.14197092;-0.6859432;-0.6840748;0.744619;-2.1216698;-0.9157492;0.51232827;0.7584465;0.118475206;-3.1846757;-2.7144773;0.19100542;1.257596;-1.1484784;0.07325118;-0.5526669;-0.7485814;1.1687673;-0.8745981;1.8457578;1.8165008;0.30019465;-1.6256591;1.0705725;0.4305305;0.33815387;-0.32863086;-1.3739944;-5.601876;1.3403716;-0.06269011;1.0361161;1.8744111;-2.2751873;0.89379585;-0.51916677;-1.2672276;1.5086051;-0.33627754;2.602689;-0.3458394;0.8993826;0.10853401;1.3863393;0.15480629;0.333362;1.7781832;2.0021892;-3.111961;0.025085552;-1.2504935;1.4264218;0.54569733;-1.3681338;1.2461146;-4.2055044;0.47886842;-3.945605;1.5282203;-2.8194892;-2.0935683;-0.8711146;1.3095078;0.85314023;1.8580008;0.6790413;0.58787024;1.8951617;-0.62936574;-2.0925338;1.2951868;-1.5946367;0.50481457;-1.0483994;-1.342572;-1.8088164;-0.27526376;2.05586;0.7111584;-0.69417155;0.048306156;1.0169013;-1.7960277;0.5716651;-0.1252298;-0.99803835;-0.5157893;0.36117736;2.9860435;1.4485191;0.62456495;0.65638393;0.5524884;1.4083772;0.8879372;0.14474303;0.26832673;0.83445954;-1.8310574;0.4751947;0.8534753;-0.09069294;0.29016322;0.037451673;0.34521666;0.24723484;0.8672441;1.5848501;0.4533681;-2.606404;-3.7012799;-0.9956102;-1.8159678;-0.19163993;-2.0249336;-0.10034693;0.18157673;-3.1824527;-1.4840851;1.3571972;1.1911644;-1.4837363;1.0984224;1.0027784;-0.55665773;-1.4877716;0.62101924;-0.351915;0.75044054;3.1784747;-2.7976177;0.9824396;0.4575449;-0.8612071;-1.8860557;0.79255337;-0.45658612;1.4417326;0.22033955;-0.41009074;1.1354514;-0.84272116;-3.2091901;-2.673196;-0.8913415;-0.9130337;-1.4891999;-1.3245248;0.95215046;-0.16332905;0.08370391;0.8461441;-0.4538365;2.6737936;-1.5985867;-0.578857;0.65599835;1.0515318;-1.7266679;1.835518;0.06527169;-0.087620266;0.22634263;-0.97461957;-1.3549081;-3.9940798;-1.8003219;-1.0619483;-0.057892058;1.0481424;-2.372136;-0.80726177;-0.8332598;1.5486449;0.011152033;-0.122892484;-0.15448083;1.8263395;0.13537447;-2.479705;-0.21573238;0.67701083;0.76093066;0.5673731;0.49152672;-0.26116207;1.7319698;-0.10064148;1.0549289;1.3513931;-1.177841;0.9560903;-1.4916427;-0.99012;0.44583496;-0.0033679155;0.6429063;0.80187744;0.4214662;0.545624;1.6319497;0.01327255;2.381764;-0.8790856;0.875595;0.5502039;-2.2788684;0.9343549;2.12636;2.6147513;2.4109094;-0.9367744;-0.62996;1.209112;-0.2627532;0.63437253;0.50999653;2.0845287;0.16201565;1.1151906;1.3029741;3.68368;-2.621005;2.0773776;-1.4174427;-2.3207114;2.4300466;0.5147891;0.90405357;-1.114069;-1.0634938;-0.48051113;-3.7446423;1.1462646;-1.0014776;1.5738873;-1.4122195;0.47788957;1.9946568;1.137892;0.44205025;0.26893607;0.86896926;-0.49259475;-0.21510331;-1.6529973;-2.3533046;0.63479507;-0.8203838;-1.221695;1.7936454;1.3295472;-1.2033296;-0.8058672;0.21288808;-2.6935318;0.31450182;-2.789021;-2.1434925;0.5251604;-0.29133552;-0.80800194;-4.0160694;-0.21777141;0.3600358;-1.0204151;0.5552752;-0.5606287;0.1665833;-0.35519016;-0.13765903;0.81383145;-0.6189176;-1.5921746;-0.8777133;-0.19547574;0.022429025;-0.5329176;1.409858;2.2066793;0.5974889;0.37838483;-1.1698785;-0.11555498;0.09559399;1.4324471;-0.7987625;-1.713958;-0.8086549;1.7064602;2.0897276;-0.57900196;0.8064775;-3.4074395;0.8483647;-1.2389193;-1.2181317;-0.51007134;-0.42778695;1.4803149;-2.08046;-4.4410434;-0.1821623;0.1417337;-2.7558184;-0.2773435;0.023854267;3.033728;-2.173197;0.9037283;0.95340455;-1.3740091;-1.7622716;-2.8993568;0.07362237;-0.07056676;-0.6589565;-2.9360092;0.6667655;2.5602381;0.9500447;-2.7927995;0.22492331;-2.0396214;-0.8595287;1.0514129;-1.2078725;-0.9441469;1.4370744;-0.6001157;0.89444023
0.015347216;-0.30413103;-1.0184098;-0.11100496;0.9999631;-2.8707373;0.61758226;0.751496;0.6249225;-1.039606;0.74776745;-0.2672064;0.7351497;-0.88567364;-3.018754;-0.74679834;0.33742645;-1.2086579;0.18449461;0.37903047;0.33775467;0.4714691;0.22642122;-0.68013674;-0.9370028;1.1254531;1.4835514;1.175345;0.21761984;-0.88222814;0.020307992;0.25201204;-0.10527903;-2.1956422;0.50513035;-2.2677102;2.277766;-1.3066305;-1.2804301;-0.56089044;-0.37487957;-0.510576;-0.123392574;1.1368738;-1.0087758;1.2446235;-1.9022753;0.08964667;-2.408153;-0.24902606;-1.7927923;0.17501824;-0.45153219;1.0748887;-1.219804;-2.6150184;0.49015212;-2.9092975;-0.32469508;0.35206035;-0.8414286;1.2373836;1.5116149;-0.73915654;-0.8922479;1.7207425;0.4460848;1.7368109;1.956736;1.689662;-0.807279;3.1176007;1.8500979;-0.9483152;0.751715;-0.1261909;-0.23106465;-1.2530175;-2.124458;-1.2654394;0.72770137;-0.538374;-1.3896868;-3.649233;0.40663248;0.25769517;-0.6275441;0.22502066;-0.7069323;0.2675228;0.4729877;1.4613451;-0.74867284;-1.147547;-0.8010539;-0.8955022;-1.4164783;1.4584996;0.33096308;-0.22174485;-0.77322316;0.6768922;0.08833013;-2.6134405;-3.9922676;-1.3188128;-1.713674;-1.5959319;-0.829766;0.916464;0.17396139;1.2953851;-0.09852581;-2.589243;0.04764465;-1.3635235;-0.93650883;1.0227361;2.1053846;-2.4928756;1.0410727;1.3712587;0.5185108;-0.5746528;0.13034344;0.16426106;-0.7573147;-1.9007558;0.12284139;-2.548186;0.22906826;1.4391203;-0.4588847;1.813594;1.3030981;0.71447474;1.1056592;-1.6486115;0.012711774;0.3100853;-0.6589691;-1.4717557;1.0656432;1.2790873;0.19493936;-0.048441708;1.5156544;0.96319103;1.084009;0.52779293;-0.37722707;1.7615826;-2.7001405;0.90371794;2.351004;-0.4341621;-0.19392334;-2.4142208;2.0380225;0.117872365;1.1454293;-0.06824295;-2.7938159;-2.970704;-0.23531438;1.4604785;-1.2195516;-0.27944446;-1.3106824;-1.1384866;-1.7966335;1.4728882;1.5707293;-0.1418172;0.61756533;1.2847242;1.000176;4.4045343;-0.64470446;1.0504595;0.3314691;-0.69025284;0.59428746;-0.602494;-2.4441836;-2.4974036;0.7142626;0.5588958;-0.2983278;-0.8280644;0.9765098;-1.338361;1.7019733;0.7962869;2.2488277;1.3053081;1.7883016;0.937957;1.7833107;-0.70472825;1.0543752;1.274843;0.3995855;-0.5238655;1.0562589;-1.7034044;0.11352951;1.5655277;-0.0774728;-3.1795297;-1.6162986;-0.39621168;-1.6172749;-1.825247;-4.086706;-2.2054079;0.9309815;-2.8235214;1.5160965;-1.6614331;-1.4035032;0.90988576;0.24013062;1.3145444;-2.6987638;-0.02140481;-0.9218046;-0.16740459;2.789043;-1.0303552;-0.6656077;-0.6028886;0.03539509;-0.36803278;0.4426086;-1.9988518;1.2408614;-0.8667067;0.75570357;-3.0421262;-0.9661847;0.7412795;-0.7407229;0.38864857;1.936586;2.2655299;0.13275254;1.9714575;2.5988238;-1.1499481;0.19996037;-2.140417;1.08622;0.030443026;-3.9528425;0.18317679;-1.991316;1.7983354;1.7858465;0.7871482;-0.6703244;-1.0034714;1.1790823;1.1134712;0.28460348;-0.19426402;0.16738808;-0.7354482;0.25621417;3.3517082;-1.5689254;1.1694942;-2.8715587;0.56951547;0.095389195;-0.177524;-0.6755212;0.2609344;-1.5889398;-0.0046140603;0.6220773;2.3427355;1.2438935;-2.2182379;-0.6603139;0.70245814;-1.530274;-0.83524776;0.026534151;1.1394379;-0.41573676;-0.87438655;-0.9157962;-0.80637527;0.73403513;0.22687235;-0.52930766;0.9765982;1.301885;-0.18985845;1.7175003;0.9829658;0.8754874;-0.91383535;0.20340367;-2.2080698;1.6594204;0.34090593;1.1720778;-2.1337779;0.21163508;0.9195721;0.9855924;-1.6795223;0.368215;-1.7463425;-0.17326586;-0.16617332;-4.157235;-0.6459759;0.63514346;-1.2377605;-2.5494146;-2.2535932;1.436919;-0.79003555;1.436901;2.4561555;-0.102172375;0.68769264;-1.5597368;-0.14410348;-0.40038604;0.020556433;2.177463;0.16408852;0.3114436;-0.25836828;-0.21647307;3.1266398;2.4302816;0.67238885;0.8437347;-0.45734605;2.3978765;-0.32867122;-3.277569;2.0878887;-0.13533446;1.1174254;-0.63083464;-0.8002792;1.5262072;-0.29695192;-0.4170449;-1.2992461;0.97257197;-1.2604387;-1.1521536;2.0123823;2.1784778;-0.42675412;-1.1223136;-1.7812495;-1.0143094;0.5001584;0.031417325;1.8669436;0.5227571;1.2492303;0.47791615;0.617901;1.3349776;1.915426;-0.67182463;-0.62978494;-0.069968954;-0.096818745;-3.1826732;-0.82457674;-1.0402642;0.49468318;0.29661593;2.2536623;0.6288611;-0.24020217;1.2178812;1.578906;-1.003641;-0.9015164;1.6473196;1.2141982;-0.7195627;-0.87310964;-0.7584915;0.53102624;-1.4155159;1.7218064;-0.14328992;-0.44634044;-0.6865624;1.6573645;0.15769331;-0.9705363;1.0021374;-2.538526;0.48574898;-2.0457823;0.41642523;-3.7533643;0.5488531;-1.2597066;0.3448657;0.9519979;0.003631019;0.6957206;0.9438726;-5.060328;1.8178071;1.1682795;-1.5052055;0.28292152;1.0186698;-0.07577484;0.07632122;-2.0723038;-0.7327649;0.36003068;0.5374207;-0.035328865;-2.0591743;-1.6589715;-0.7856874;1.3845503;-2.1167493;-0.2667093;1.205454;0.779668;-0.24387705;-0.9117864;0.045106415;2.5527165;1.8461397;-0.20177603;0.21335521;1.4583312;-1.3333404;0.37571177;-1.8371701;1.1895593;0.1707393;-2.7388678;0.40425175;-0.81438285;0.97543883;0.75817233;-0.9938343;-0.7925174;1.6477487;1.440681;-0.8416841;2.015395;0.2496484;0.52711964;1.4984465;-0.11145255;-0.31188694;-0.36292356;0.899329;2.7188528;-0.4278453;-0.62283003;-0.54856765;-0.78517485;0.91132957;-2.5505552;-1.772144;-3.050454;1.3368864;-0.59739697;1.0339277;-1.8041772;-0.99389595;1.6426444;-0.45291248;0.5189582;2.1153831;-0.03465079;1.7979556;0.2823471;0.32417497;-1.1762428;-4.3397374;-1.6723878;-1.2825276;1.265444;-1.8336397;-1.9515824;-0.36850223;-2.6428127;0.29364663;-0.28428316;0.06498805;0.933963;-0.06732522;2.1155965;0.07831144;-2.1292832;-0.5386121;0.4770445;0.80476636;-1.7392522;3.0868335;0.08151804;-0.079248555;0.72721446;-4.896574;0.45900112;0.16629663;-0.8511955;-1.2046789;-1.7291901;-1.7974089;0.7198116;-1.6278664;-0.14788692;0.31387943;2.65571;1.114847;1.7637476;-0.3093981;0.65747124;-0.17987847;-2.1993725;0.7240607;0.2010249;-0.683105;1.2030458;3.9961321;1.1067383;-3.0659075;-3.7492676;-2.9929357;0.6380037;3.343762;-2.2493541;-2.5677671;2.4411247;-0.19168119;1.2066963;0.6400075;0.87951046;0.54779625;-0.044702824;-0.13596106;1.0869088;1.4684552;-0.24520497;-0.22896834;1.1389307;0.13251702;-0.6151902;-0.96137977;1.2583793;2.8856173;0.7345975;-1.8701853;-0.6864671;-2.6454144;1.6851299;0.94446474;0.7282697;-1.1683276;-0.44335818;1.1075783;1.9798009
1.7885166;0.06663457;-1.8246869;2.156767;-1.7902045;1.294516;-1.5209736;0.89038277;-1.6503959;0.09427848;0.97360617;0.18219118;3.0228708;-0.9235141;-0.3698341;0.29109618;1.400602;-0.62452257;-2.712516;0.18806706;-1.3951677;0.067824006;-3.436316;-3.0861576;0.7959006;1.2580016;1.4249835;-0.7155639;1.0069561;-1.1117685;-1.7612759;0.12532222;-1.3241109;-3.256509;0.27394584;0.30850744;2.8490598;1.498912;0.79487073;-0.6136664;-1.0696434;-0.90670437;-1.9142157;0.99644685;-0.6908652;0.16331427;0.08657727;-0.809541;-0.29953182;-1.2986327;0.83177716;0.8328093;-0.32175082;-3.9522498;-0.8508804;-3.4337146;-0.08988323;-2.9305956;1.0882301;0.79796386;-3.4032533;1.5822612;0.26391056;-2.1743686;0.9396358;0.10771312;0.8998656;1.9289179;0.65789104;-0.9649867;1.0570288;1.0547428;-3.1785157;-0.24928868;1.7156734;1.8625026;-0.6575956;-0.7794013;2.4768364;-1.8798718;-0.23378178;0.09904734;-1.1303233;-0.24169798;0.00080900564;1.3077646;-1.7323071;-2.0130515;-0.74188286;1.0842092;0.39849412;-0.15673076;1.7233698;1.0651937;-1.9026424;3.4284883;1.146435;-0.21163109;-1.364616;0.2568554;1.4490072;-2.4904504;-2.8376732;-1.5315197;0.68446684;0.96891224;1.6555699;-0.9221589;-1.1194073;3.049733;-0.6660955;-0.45018834;-2.1673894;-0.34477133;1.590625;-3.1542652;-1.6154807;3.4219184;1.6452111;-2.9652355;-0.8770618;0.2823381;0.7201691;2.5952857;-1.5608522;-1.0084933;2.0952954;0.18424532;0.17393935;-1.7090667;-0.07371046;-1.7986379;-0.7782021;2.2658954;-0.021393506;-0.49814776;0.4255742;-0.4829766;1.7130846;-0.2975766;-0.14353001;2.2234473;-1.7400353;1.1328464;2.8194337;-1.2880408;-1.4608328;1.3195893;-0.24915361;0.18487573;-1.2921433;-0.19109143;0.38452312;-0.44967467;0.8498079;-0.92927045;-0.46550274;-2.2797816;-0.09515457;1.1852757;-1.384607;-0.7372863;1.0285645;-0.5662879;-2.0962307;0.087442786;2.9064994;-0.35222778;0.025304303;-0.9878046;-0.012311964;-0.7995483;1.6143122;-1.2849668;0.20823634;0.42318407;1.0891311;1.866824;-0.027028102;-0.90343976;0.06796843;-3.1874409;2.567845;-1.8081353;1.7276609;0.75247025;0.5052484;0.49081194;1.5463079;-0.979391;1.7865305;-1.432849;-2.9122126;-0.40424892;-0.060533326;0.2894824;1.6205184;0.17039905;-1.9944793;1.0988638;0.023136381;0.03829744;1.1170144;-2.6293855;1.2126616;2.7047822;-1.4430492;-2.0974169;0.119889736;-1.1751713;-0.53560686;-2.1837173;-2.9119742;-1.8510617;0.013157884;1.6515577;-0.8661023;-3.448944;-0.60309374;0.4975628;0.56095827;1.5132772;-1.6683829;1.1902528;-0.68847615;-1.9878109;-0.018471552;0.26419705;2.0557275;1.2880292;0.47040963;0.40625113;1.7595595;-0.90406585;-0.13251063;-1.0722059;-2.985829;0.7275882;0.63375664;1.8087151;-0.9903445;-3.3671334;3.0232956;-1.6604787;-0.06949009;2.0113132;-1.8073202;0.70144606;0.51068777;-0.17166369;2.2200868;-0.9545723;0.66830355;-0.1186142;-1.8937612;1.5137498;-0.13079304;-0.1568183;-0.35451636;-3.6032763;-0.22312866;-0.8138347;0.95187616;1.8220646;-1.0682385;0.3225265;0.6711444;-0.254649;0.19934162;2.454742;-1.4004673;-0.6734057;1.6418078;-3.976431;0.52249885;1.8905654;0.600213;1.3706856;0.18363161;-0.17900194;-1.6266078;1.3790324;-1.2668704;-0.92553496;1.0006834;2.684567;1.1230246;-0.8559082;0.74441713;-0.72527194;-0.56118613;0.81977224;0.88340014;0.43215573;1.5008029;0.94107205;0.13094634;-0.3836283;2.832654;0.5017268;-1.4154468;1.0457398;-2.96555;-1.066026;0.605774;-2.3459697;-1.1976646;1.2568426;0.91713685;-0.49496344;-5.955996;0.9924254;0.64275676;-0.042496786;-0.80164737;-1.6068645;1.2618252;-0.96130097;-3.2278628;0.63549507;1.1820006;0.9620605;0.93858624;1.102026;-0.9849248;-1.1392496;0.5975263;0.47133768;0.5307918;-2.9996681;-3.11582;-2.0183585;0.5746975;2.3433661;0.45104808;-0.2375359;1.9332166;2.7099826;1.3201996;0.82560676;-0.63825846;-2.2116885;-1.8036362;-0.44093868;0.6261451;-0.85545;-2.0518444;-2.8895926;0.27449077;-1.23847;-0.7274608;-1.2761949;-3.386951;0.21699323;0.114502855;-0.10148681;-0.32752186;0.49522978;0.9117041;-0.779989;1.2914369;-0.4562499;-1.1397591;0.9015984;-1.8656751;-0.9603947;-0.9697912;-0.1416569;-0.39424568;-1.9876205;-0.9718211;0.34694645;-0.30153662;1.5617782;2.3447597;2.325115;-0.2617835;0.1225362;-2.3926594;-2.1938212;-1.2373576;1.0398829;0.5889714;-2.384009;0.9047627;0.03860411;-1.0152241;-1.774817;0.2860036;-0.31846493;0.426164;4.304184;-1.2526269;1.0158845;2.2416835;0.674897;0.24897984;1.1286218;-1.4492738;-0.29405352;-1.188263;-0.37956068;-0.4982263;-1.6261653;0.5129645;3.5096588;-0.6025769;-0.3047077;-0.17321639;-1.6130327;-3.5954585;1.0514052;-1.4816403;3.3040357;2.3364317;1.5668986;-0.5761763;-2.8603544;1.6112211;-0.1814197;-2.4556525;0.06698037;-2.312341;1.4172298;-2.0896163;-0.7370049;1.6479646;1.4097445;0.85893255;0.63847256;2.4001853;-0.45888174;0.3279172;-0.16896407;0.10436997;-0.33886987;1.073269;-0.27933773;-0.67138404;-0.4251612;0.05000453;0.79432046;-2.2318294;0.6699799;-0.22388338;4.3732114;-1.1940228;2.006828;-2.060126;0.5724984;0.15873782;-0.040839653;-1.2338786;0.3491169;1.433337;0.14009975;-1.7234967;2.8887827;0.12171197;-0.01869144;0.07824428;-1.3853185;-0.6055067;-1.467883;-0.39816433;1.3117522;-0.37925285;-1.2764596;1.6915708;1.6096689;0.9069525;-1.2805828;0.5054033;-0.30757704;1.3211392;-0.14369142;3.1504042;-3.5332596;-1.1294322;0.99331087;-1.2575938;-0.6106491;-0.10299724;-0.08284335;-0.27883792;1.1310098;-1.0293292;0.09910409;1.8402269;0.1682546;0.63998705;-0.81901723;-0.24495086;3.303226;-0.41676652;0.8036089;-0.13314408;2.0047321;-0.3188439;2.8213072;1.0224935;-1.5412003;-1.0181347;-1.1244613;0.60717684;-0.21963742;0.7877878;-1.5941658;0.24587388;-1.842721;-0.5564755;-0.010722341;-1.6989577;0.022387717;-0.8193056;1.3784997;-2.5371892;-1.4193666;-1.2168387;0.92170584;-1.0270098;-1.0559503;3.1493664;-0.22531813;-0.7972654;0.72055936;0.38826564;0.274315;-0.8162987;-2.1768408;-2.853201;0.8147908;-0.6352617;1.0543234;-1.5763611;-0.9328327;1.1751858;-0.28773874;3.2726;-2.1600857;-0.33917654;0.055176895;1.5014895;1.200518;0.1660778;-0.0064317696;2.382523;1.4110528;2.2016785;-1.082013;1.397991;-0.097297445;-0.14811713;-2.8208582;1.1385098;-1.3096774;0.1708105;-2.1532974;-0.7155796;2.4461362;0.8898215;-0.7555439;-1.3433888;0.41087684;-1.1525588;2.749207;-1.4696212;-0.6476298;0.7798123;3.1744604;0.52427816;-2.0260706;3.3640716;0.5411697;0.36400253;0.40372065
0.15521581;0.7926875;-1.2708691;0.32708094;-3.2772994;-0.67462415;2.1719022;0.08924496;-0.7412;-0.46623287;-0.5749054;2.31932;2.129717;-1.0803604;-0.6156298;-0.31575847;-1.3280811;1.3157862;-0.57230425;0.7439775;0.38593844;-0.30382565;-1.9825989;-3.2576928;0.80939764;1.7691998;0.8461145;-1.119646;-0.24849728;0.448459;-1.2771132;0.11927076;-1.6431025;-2.1945245;-0.86432016;1.0342975;0.63838255;0.2540655;-0.3421311;-1.2489523;1.3636229;-0.33651963;-1.1903358;0.023711879;-1.083115;0.40131474;0.23111203;-0.24876708;0.5314883;0.86721206;0.78189343;1.4895233;0.46767;-1.4444531;0.9175967;-0.6257888;-2.8220215;-2.4206262;3.9380643;-1.4712006;-1.3868939;1.1008329;-0.022033839;-1.1039422;-0.12482413;-1.3259814;0.4698413;1.620452;-1.5401888;0.64740926;0.1371141;0.8070055;-1.4939868;0.75242394;0.5477615;0.21335971;-1.201743;-1.0051754;1.2314174;-1.8088341;0.692272;1.3732022;0.055102866;1.7008901;-0.066295534;1.5741643;-1.3706979;-1.2241784;-0.112953946;1.2497301;1.0994406;0.11493589;2.257907;-3.8941674;1.1002477;2.5925686;1.1779914;2.1257882;0.8821674;-0.5785975;1.120362;0.03588473;-0.80898404;-0.18507826;-2.776528;0.817319;-1.7294412;-0.43058506;-0.887762;1.8576344;-1.6416632;-1.1489204;-1.2015474;-1.6808562;-0.07732302;-2.0656285;-0.6835689;2.1972344;-0.005060585;-0.061017353;-0.6084688;-1.9455458;0.9769288;2.4455197;-1.4275432;1.8125381;-1.633422;1.2692412;0.6169051;-2.0224175;-1.4390594;1.377175;-2.0975912;1.735871;0.3502158;0.6015208;1.4936082;-1.1748685;-0.21474728;-2.21736;1.1844568;0.10038749;0.65349805;2.1463306;-1.9217771;-0.36583218;-0.90391695;0.39341515;2.4865074;-0.33211678;-0.11288712;-0.7719358;1.5515617;-0.21039066;-0.18728217;1.7651069;0.1796807;-1.9918649;0.87751013;0.69145495;-1.7605752;-0.51723456;1.7225779;0.22627099;-2.3127644;0.79584765;-0.606211;0.117746726;-1.8686739;0.08846205;-1.0222223;-0.369144;-1.0078511;0.57597005;2.5203092;-0.46566266;0.29422086;-0.28107688;0.40810385;0.5743215;-0.12335094;1.9545981;-0.36626285;-1.1381042;-0.8370298;-0.66570914;1.151091;-0.9280041;-0.27006105;-0.98777425;-0.5586803;-1.4008479;-0.3067037;-0.6612724;-2.9817111;1.3550742;0.9192663;-1.0369974;-0.6805267;0.32957873;-0.4439324;0.3233902;0.7016376;0.45977688;0.3036761;-1.2543106;0.49244422;-0.44634312;-0.20899437;0.9798738;1.294097;-1.3540225;-0.23625112;0.26090577;0.25790974;1.3733582;0.7061543;-1.7532264;1.0125133;-0.65801257;1.6933775;0.5690799;-0.5646798;0.31086358;-2.2647128;-1.5550758;1.372049;0.5637934;-0.06351037;-0.8285951;0.73349684;1.8785187;0.70840126;-1.4644415;1.139751;0.68468535;-2.3135874;-1.4358838;0.12604693;1.3204143;-1.9963673;-2.0295987;-1.0918019;0.31763837;1.2812814;0.59453636;1.3220357;1.3093082;0.83051586;-2.6343858;0.9191124;-2.9947977;0.3310411;-2.9954457;0.09667468;-0.12058185;2.7147176;1.9962784;-1.1269568;0.8362582;-0.69872016;-0.3766334;1.287456;-2.0416696;-2.5108583;-0.86065435;-0.29743916;-1.324777;0.12569088;0.14443733;1.158732;2.4745092;-0.20177434;-2.5903273;1.5778174;-2.523633;0.623641;-0.24909516;0.42178857;0.88487554;-1.7143492;0.79351515;1.3335131;-0.28615674;0.50917894;0.4515648;-0.38992277;-0.13054653;1.8902245;-1.6676482;-0.78368807;-0.7070053;1.6742145;-0.43332765;1.0561937;0.096547686;-0.16045603;0.7778582;-0.3266347;1.6674515;0.87528515;2.7956972;-2.3573062;-0.20516819;-2.818598;-0.90458643;-0.05416732;-1.6900294;1.3129724;-0.76399964;-4.65478;-0.1570048;1.0119399;-0.21356393;-1.7530136;-0.15202667;0.5129557;-1.3255445;2.1891015;0.3902767;-0.3619708;1.0167542;1.4406885;-1.5444205;-0.13302156;0.74171025;1.2692913;-0.4493623;0.58721036;-0.7908165;-1.6332061;0.5266375;1.8066107;1.1781762;-0.22187987;1.5286229;1.2345732;-1.9930907;2.4920976;-0.39647752;0.600415;-1.1652167;-0.8004873;0.1523061;0.5929457;-1.6575787;0.3596347;-1.9119387;0.16310082;-1.0663223;-1.7811066;0.9606911;-0.18319719;0.031798728;1.0502263;0.36656785;0.49398133;-0.124311164;0.25155038;-0.67494243;0.5523422;0.77923584;1.6334897;-2.9090025;-0.02020398;1.7771289;-0.34533006;1.6717998;-1.2827203;-0.30586877;2.2725;0.7782284;-4.1281815;1.1449361;-0.47167093;1.2621058;0.31582108;1.3199;-1.6435379;1.447534;-1.2187976;1.9072491;-0.48526767;-0.06674912;-1.2109045;1.2813714;-3.5702295;-1.9633174;-0.10480769;-2.0780387;2.0210128;3.5529094;0.49685407;2.5033011;-1.3282095;0.088637374;0.37925842;-3.2908115;1.2944555;-1.3748808;0.61593246;-0.026235493;-0.6806257;-0.1118268;-0.6446528;0.93984354;-1.563718;0.3536464;0.22935624;-4.1719456;-2.13536;-1.1150651;-3.3709633;-3.9957826;-0.90484875;2.9923236;1.7218009;0.9491807;-0.5186997;-0.7487546;-1.7035725;0.5381944;1.4075654;1.628483;-0.3483992;-1.3481538;1.0866416;1.7357733;-0.6752519;0.61314887;1.5738243;-0.12876086;-2.6646147;1.2859498;-1.879275;0.90014166;0.24430345;0.58173704;-0.42211387;0.71824914;0.00035813803;0.17023891;-3.289179;-0.4228814;-0.23292883;2.0192442;1.7488534;1.3120141;-0.63549715;-0.4805285;-0.32327294;0.14848141;-0.6602252;-2.1214218;-0.14720157;1.5125359;0.7954691;2.0552192;0.1404859;0.4379541;1.0432184;-3.8832629;-0.1279901;0.006654793;0.6620734;1.7399212;-0.63770205;2.2647765;-0.046572108;2.5643675;0.70253915;0.17046683;-0.18476982;-1.3039886;-1.7903712;-1.7121456;-0.41255438;-0.32490212;0.5120288;1.1572822;-0.20914242;0.40205458;-0.43090352;-1.5462976;1.6522899;-1.0252955;0.98071903;-1.0097848;1.0075741;0.75911325;-2.8877463;-1.3895192;1.5848193;-0.48216605;-0.7153511;-0.06213271;0.0005562399;0.42183626;-1.354687;3.0062497;-0.40941468;-0.14776742;-1.4952759;-0.57757056;-0.9528605;-1.6926022;-1.8017193;0.4830833;1.6239499;0.29291192;0.5574926;-0.10102238;0.07096554;-0.15141949;0.01643853;-0.6182825;-1.9403003;-0.46331742;-0.37508485;-1.0860646;1.1998785;0.07904266;0.8584945;-0.32511884;0.06678717;3.0467699;0.88333386;0.8041121;1.4735496;1.3156886;-0.22190455;-0.26928648;-3.1703448;-0.5269481;-0.16230975;-2.4337533;0.25350714;-0.06429435;-0.219787;0.0692295;-1.3490753;2.9751709;-1.4092375;1.2177228;1.1448473;-1.121073;-0.50901854;-1.4345518;2.0082798;-1.9726198;0.24342728;0.73525226;1.028929;0.9777181;0.44204852;-2.612107;0.0023155753;0.46281773;-3.1082327;4.057931;-0.062771566;-0.038879;-4.8000045;-0.73723006;-2.6383612;2.2311087;-1.741381;1.2425677;-0.5230955;1.530759;-1.1477499;-2.7581902;-0.042255618;-0.71107465;0.39534235;0.16744249
-0.97594476;-0.5576039;-1.0581363;-2.2672114;-1.9810227;-1.3883414;0.6008756;-0.32033977;-0.4636223;0.43727425;0.05460313;5.5108256;4.109823;-1.0465988;0.19916566;-0.8132706;-1.3511481;-2.301625;0.81166476;-0.16408174;-0.10334637;0.25680083;0.6396461;0.122324966;-1.1673887;-0.9024136;0.6592003;-0.91446126;-2.2729676;2.481434;-1.625623;-0.4199082;-1.7545171;-1.4398718;1.3302368;1.6307061;-2.0393183;-0.7580873;-2.9751122;-0.43926662;-1.6272042;-1.3461283;-2.0022974;-3.4319425;0.89605194;0.9518371;-1.2647333;0.24086289;-1.0384989;1.8547004;0.354621;-0.35936657;-0.46195608;0.6105241;1.3113451;-1.074593;-0.87332004;-2.9132717;2.7962985;-1.3305811;-4.113282;-0.9802847;0.77847457;0.70966697;-0.17598431;-0.079501614;-0.7230891;0.14224334;-1.528525;-0.8648324;2.200172;-0.42950964;0.47398517;0.98710185;1.0438243;-0.7177079;-1.0174142;-0.018889772;-2.0020902;-0.112492815;2.6104834;1.481455;0.86329144;1.4401677;-2.3657331;0.702628;-0.8105545;1.0289729;-0.26917988;0.060345728;-0.4884258;0.16387704;-0.22659558;-0.10097847;-1.8081301;0.3025615;1.3288836;2.1579497;-1.0680723;-1.8621731;2.3069425;-2.1210299;-1.2309785;0.15496641;0.44343343;1.6483542;-0.34862313;-0.8316216;-1.8662813;-0.25147137;-0.1342012;-0.5051086;-0.22930655;-1.1678046;0.14367084;-1.9699227;0.076364204;-0.17665416;0.04330483;1.1983806;0.0046445485;0.71333396;0.33259237;0.9352701;-1.5820421;-0.24881804;0.9216064;-0.0015264405;0.2661964;2.4082272;-1.8335669;-0.29620564;-0.9195734;-1.4132347;-2.0893595;-0.8353052;1.4385085;1.026161;-0.9791504;-1.423803;-2.001798;-1.0756234;1.0180641;0.15270756;0.4642357;-0.90705454;-1.7639921;-1.4669788;-0.83878887;1.382558;1.0781041;-2.4476106;0.5508732;0.30274993;0.60938823;-1.6743184;-1.1186862;-0.83989394;-0.15395087;2.0701401;-1.5071211;-0.07461381;1.1646714;0.6189632;-1.4837334;-0.66655177;2.5459566;-0.27861786;-4.1122665;0.5450924;-0.37574756;-0.74410385;-1.3571385;-0.9409706;1.2471788;-0.026916085;-0.27786392;-1.936668;-2.3201559;1.3419893;-0.73898596;1.1342489;-0.024502775;-1.927375;-0.015547081;2.0204058;0.6626652;-0.030342998;0.7151033;-2.732494;0.28491777;-2.0593715;1.3778467;-0.11374372;-3.2282314;-0.12953487;0.553442;0.37079188;-1.8558685;-2.1248283;0.7353844;0.5791903;0.68735003;-2.239236;-1.547583;-1.1957463;-1.4537411;-1.4674519;0.60490745;-0.990381;0.57847935;0.058795698;-0.46171096;-0.87616205;-2.2177982;1.0225848;1.7907019;-1.6086136;-1.7560743;-0.8844296;1.8879814;0.55110335;-1.050645;1.2267641;0.83442897;0.052063856;-0.67747533;1.7154855;-2.758933;-1.1818758;-0.26164326;1.801175;0.72317713;-2.0816698;-1.0450983;1.8623968;1.7286239;1.6445905;-1.002506;1.5830301;0.9681179;-3.566845;-0.27806717;-0.091986395;0.82957065;-0.035460133;2.0205414;-0.6577732;-0.49972552;0.8216668;1.0285056;-0.3227666;-0.881553;0.5535452;2.2794652;-0.8558917;0.006466862;1.5477815;-4.5026813;2.0434055;0.26682;-0.58788973;0.4140989;0.44926688;-0.26913255;-1.0238438;0.32415685;1.3143017;0.9867179;0.77643144;-0.39682892;-1.5200857;-4.173125;0.9802129;1.1922414;1.0260268;1.798726;1.4254119;1.6337985;-0.08872402;-1.4620018;-0.014586338;-1.843342;0.24404183;1.0852119;3.087625;0.050306644;-1.6173942;1.6263639;-0.23141417;-0.3569133;0.8709713;0.8958494;1.4981498;-0.5667856;-1.9861525;-0.96449536;1.2063812;-0.82664067;0.38311473;0.38728875;2.3427777;-4.647053;-0.06565917;-0.5130927;0.82182485;-2.5228074;-1.7623057;0.800813;1.341143;1.6604792;-0.72624;-1.5649403;0.8057106;-4.2119126;0.31367674;-2.3165128;-1.331214;-1.0315734;0.66074175;0.8787547;-0.31779882;-0.12323898;-2.5135732;-0.895675;-2.2198389;1.2698051;0.16298582;-1.2453133;-2.063947;1.9108398;0.74959946;1.1871456;0.6233502;0.29078248;0.014130409;1.1291726;-1.3292788;1.3045373;-2.0086513;-2.6107028;1.2055452;-1.5924529;-2.8756187;0.7074292;3.8773463;0.42503223;0.51271135;0.112988785;-0.42383024;0.12247791;0.23271239;-1.3223286;-1.3136594;0.4698245;1.1107626;-2.6732676;0.4777583;-1.0504338;0.4668599;1.5479262;0.74436575;0.28806263;-0.03506877;-1.0437036;0.9170304;-0.11709951;0.48417968;1.0051892;2.6772044;1.3755442;-1.535894;-0.80321115;0.11622717;2.6409552;-0.1103869;1.9828769;1.1560247;1.2761103;0.27831855;-0.3178501;0.517711;1.8513613;-3.6714187;1.7147368;3.1142397;1.751335;-0.37439767;-1.3938811;-0.39789796;1.0816269;0.5509929;-0.905249;2.2190385;-1.3344331;0.4510435;-1.1295897;0.2787597;-2.6131608;-1.8798422;-1.0000522;0.26171255;0.17036162;-3.7073557;-0.37808347;1.8547367;-1.2337923;1.7136624;-0.7621114;-1.4559082;-3.082686;0.5915109;-0.87633395;1.6451757;-0.044330202;0.886153;1.5818799;-0.26544377;0.5095159;-1.2627906;-1.1083617;-1.3058292;0.94566905;-1.1222442;2.3088515;1.6593636;0.5676267;-0.8474304;0.9779643;-0.99616;-0.77966917;-1.2270417;-4.3136897;-0.7706936;0.5280501;-0.17756227;-0.018617656;0.47202978;1.8944236;1.104553;-0.13818869;-1.9966137;0.3717577;0.44086128;0.18450195;-0.1508171;0.36441353;-0.12760608;1.1317824;-0.8903562;1.8050344;3.023915;-3.264199;0.7275959;-0.33444488;1.7916609;-0.42334598;2.2839823;0.9760133;0.43681002;1.5485927;-1.3813396;-2.4859493;1.6374803;-0.19480392;1.1048737;-1.8529035;-4.2755284;1.3330705;0.95153314;1.1697373;1.2391429;-0.39710218;-1.8471047;2.667381;-2.34719;2.4013202;-1.3915409;-1.7773939;0.09822022;-0.74236065;1.0341811;0.20884281;-0.058477227;0.32086477;-1.5525509;-0.4673439;0.6796725;-0.15141131;1.5380007;1.2674214;-0.43686;1.2623358;0.27279904;-1.1296929;1.4601755;0.77262694;-0.91489893;0.24489143;-0.08239721;2.3258452;-1.8816178;0.59199256;-1.1150866;1.6014743;0.7879182;1.1550753;0.10742223;0.4328151;0.9390955;-0.25036877;-0.23857832;0.49281254;-1.8358513;-0.4242576;0.44231397;-2.804148;-0.17512418;3.8691754;0.68775827;-2.7913587;0.76984096;1.500526;0.9437515;0.14845257;1.6907;-1.6018891;-1.8018901;1.7504151;2.2844448;0.2911228;-0.17312379;-3.1891334;-1.2987663;-2.8559225;-1.2335749;-1.5783598;-2.6139588;1.5601373;1.1493686;1.1840527;-0.6644826;2.952898;0.61717874;-1.753375;-0.6723751;-2.1040955;0.8328604;2.7907557;2.055089;-0.079398826;0.39889073;-2.382377;3.3356657;0.96454805;-0.48661947;-0.679501;-0.92511505;-1.0364379;1.4146856;0.23377088;-1.6992708;-3.4061334;-0.16155615;0.017904336;1.8183439;-0.83023006;-1.2324221;-1.7878591;-0.48810253;-2.194532;4.1054597;3.2586865;0.5264597;0.8714651;0.0004893065
-3.0491455;0.42729288;0.15177472;-0.71040475;-0.46147665;2.2401304;1.4565152;1.9269798;0.5113847;1.5482779;0.024199285;1.5865381;2.5658815;0.02220974;-0.80759484;-2.7584128;0.4987498;1.6473991;-0.34858435;-0.26817414;0.77233505;1.3686674;-0.5829223;1.9407288;-0.09407281;-0.15586075;-0.41231304;-2.1171224;-0.5631519;0.65113854;-0.4236183;0.01579274;-1.1813005;-0.63867366;0.3277101;-0.738847;1.3787284;-0.39406857;-1.11117;-0.20023239;-0.7508194;1.2028464;-0.7351981;-1.1292462;0.70629036;-0.88616645;0.018228453;0.41805005;-0.49730998;2.7592628;0.37711805;-0.89162195;0.86262274;1.1294914;1.0288125;-1.6870675;1.1736355;-2.436239;-1.0900276;-0.8501969;1.8269981;-0.8251247;-0.557515;-0.59104097;-1.1045226;0.596635;0.9426165;-0.13505538;-0.99552536;-1.5008003;-0.20527053;-1.2487317;0.25816086;-0.9266369;0.99905497;2.575875;-0.34314558;-0.44635874;-0.7829233;-0.32470798;0.36882058;1.3028376;0.809284;0.5109833;-0.34784797;-0.8526607;-0.20015845;1.0083704;-0.769063;-0.9140163;-1.6060526;-0.06555759;0.20522673;-0.07892919;-0.15650925;-0.5597779;2.3767734;-1.7995557;2.324657;-0.2027541;0.36447945;0.21417671;-2.4720595;1.3635844;-1.9809574;-0.18255082;-0.25094414;-0.45435047;-0.78464866;0.80227983;2.8159735;-1.2337452;-1.122655;-0.308193;0.78453463;-2.6490924;2.3389552;2.94782;-0.7674335;-0.24691454;-0.1413864;1.4644883;1.8070335;0.6658341;-0.39832032;2.7757773;-1.2017375;-0.6173589;0.019671103;0.742173;-1.709038;0.38014767;-0.20902266;-2.1642535;-0.7220136;0.98983365;1.3491154;-3.27442;-0.68479973;1.4410446;1.3147229;-0.2841853;-1.6467748;0.19226062;0.57834536;1.3384123;-2.2692816;0.4339286;-2.2508588;-0.13350542;0.768228;-0.13115126;-0.85970366;0.54899466;-1.7944049;1.5236578;-0.27763274;0.98884964;-0.7088126;1.048416;2.592557;0.5719283;-1.0396118;-0.98669416;-0.45784724;0.35107896;1.192585;0.23382325;0.48702592;-0.019575182;-0.37448335;0.66630965;-0.24357861;0.40424258;-2.309026;0.76938885;-0.85553;0.11964532;-0.14411026;0.37755433;-0.548552;-0.41494504;-1.5350311;-0.9028826;-1.1381629;-0.7016953;1.877942;-1.0025774;-0.016728355;-1.5231185;0.6505793;-1.7494607;1.3305271;-3.8832834;-1.9535402;-1.9221942;-0.67812496;1.4112163;-1.7419953;-0.7332186;-0.26961246;0.1401607;-1.1392571;-1.8032541;2.685589;-0.7661225;-2.1505427;0.5667224;0.37414345;-3.323099;3.2777913;1.8243302;-2.0272505;1.1722722;1.7460383;-1.7141738;0.53135043;-3.8430724;-2.6398466;-0.22046505;3.464867;-0.89759976;-1.4758388;-0.3591785;-0.3235438;-0.9189609;1.450027;3.0329244;1.2619584;-0.3105347;0.0068563065;1.5397722;1.0343418;0.563441;0.11299599;0.69494486;0.052002173;0.32135248;3.3623266;0.83718437;-0.5077958;-4.357049;1.5562221;-0.21804379;1.2605203;-3.293581;-0.033105094;2.2838495;2.986003;-0.36620554;0.6481111;0.33857417;0.25160533;0.66782075;1.925032;0.0026072408;0.088121146;0.773243;-1.7225499;3.080559;0.15907599;-2.7103736;-0.11717843;-0.94645524;0.6871842;-1.6337171;1.6109941;-2.1830258;1.2636081;0.7707908;-1.3210495;-2.821045;-1.4123445;-1.5072217;0.7635337;-0.7871674;-0.48994777;0.39917585;-0.3506047;-0.57005167;1.7232703;1.942958;0.058053434;2.238254;-0.9327842;0.9206987;1.9618633;-0.37168154;-2.4116144;-1.5908633;-0.5062331;-0.4974758;-1.0932281;-0.22232452;1.3166589;1.2148886;-1.4378425;-0.8537404;-0.39009982;1.8939065;0.71094716;1.7307085;-0.12524727;-0.4467549;-0.75541496;-0.28450745;-3.307821;-0.35233188;1.9608383;0.9231226;1.817684;-0.15063658;-0.64738435;-2.361548;-0.7914741;-0.26572365;-2.7527447;-1.116608;-0.6003372;-0.1285366;-0.20011632;0.96962583;0.3965092;-1.779339;0.2513256;-4.4895673;-0.84386605;3.3942447;1.6417757;-2.8946226;0.10127664;0.13718018;0.8072946;0.6527933;0.014425575;1.0187384;2.0937245;-0.16497126;-0.27059695;-0.16283467;-2.8832502;-2.2845845;-3.2361293;0.3986673;-0.8002758;1.9803572;0.06013266;0.8777402;0.16959152;-0.9939012;-0.675371;-0.6638428;0.29820782;0.18246022;1.4590071;0.32490933;-0.79347813;0.07385935;-1.181624;-1.8456733;2.0244923;0.6234772;1.8374007;1.4328789;0.31973687;0.20175649;0.59970635;0.13520324;-0.041600924;1.243122;1.382838;0.23563659;-1.8285198;1.7877656;0.4824398;1.4725622;1.9104489;0.32789314;2.2253895;1.4147259;0.42289808;-1.8757924;0.50194776;1.0501193;0.042472906;-1.9957854;2.0247474;1.9168864;1.5580741;-1.563955;3.830678;-0.3450605;0.7733305;0.528653;2.6913536;0.74376076;-3.289593;1.4630113;-0.15655115;-0.19945386;0.18415096;0.04931202;-0.052642077;-1.106187;-0.18527597;1.1833013;-0.36226362;-0.58680654;-2.4014444;0.08884484;-0.9396107;1.7057561;0.8464336;-1.012024;-0.59524506;1.9163964;0.71472937;0.3460874;1.3400687;-0.45195058;0.1741912;-0.7307511;1.5557203;-0.23852709;0.4469528;1.555615;-0.8150319;-1.1817052;-1.5204335;1.8231434;-0.2267571;-1.8957338;0.8631211;-0.67692864;-1.6478181;1.0724078;-1.4761244;1.3518606;0.05507595;0.097165875;-0.096553974;0.18377349;-1.816233;0.62271786;-0.32714584;1.307933;-0.4724385;-1.0477071;-3.0881143;-0.2653064;0.14973505;2.5735886;-0.6469098;-0.14500566;-1.44855;1.2546804;2.2813897;0.48523477;0.18129404;0.83049;1.1893063;-2.1449738;0.16741674;1.9759537;0.49307388;-1.5905797;0.0033566612;-2.103981;0.20582488;-1.9191074;0.6216716;-2.395626;0.15572658;-0.28015018;2.5082712;-1.496286;-0.34181726;-0.8215623;1.1432408;0.21758938;0.15792958;0.05278536;-1.3087534;0.8852838;0.08139905;0.15842123;-0.44212753;1.698061;0.46230114;0.92216307;-1.580181;0.040346198;-1.0986503;2.7356355;-0.25334713;0.38969144;1.8594908;1.1216702;-1.9622552;0.6234721;-0.12575474;-1.0816672;2.5834076;-0.062233623;0.68717456;-0.2821694;0.63261557;1.8252116;1.3193064;-1.8603582;-0.20721285;-1.7970421;0.6626766;-1.3205316;0.71492773;1.2370816;-0.11932338;1.091689;-0.8241968;0.435481;-0.7554892;-1.7515048;-0.52759886;-1.8080142;0.7357184;1.4024495;-1.2783023;-2.293708;2.6313126;1.211196;2.7695222;-0.76810944;0.26350805;2.2625804;-0.6256544;2.3274956;-1.7019143;-0.27574068;0.9989842;2.1094196;-0.88151747;0.7481533;1.0611489;2.4375463;-3.3933249;1.0582198;1.2848403;4.971731;0.6780457;2.8726082;0.13068384;0.6892238;-0.71150255;0.4873385;0.0049025323;-0.57119155;-0.2399857;0.3671226;-1.6583399;0.2370451;0.14053878;0.09015385;-0.6825805;2.6448255;-0.82297355;0.3283303;-0.5627607;-1.8407245;-1.096954;1.7030281;-1.8041261;-0.0027175676;0.7118206;-0.12415847;0.06672015;0.31385556
0.84502727;-1.3736482;-0.33803794;0.050371304;2.3573983;1.4251839;-0.44955823;0.031321537;-0.5524808;0.6603157;-0.18600579;1.6001428;0.05193797;0.746107;-0.010883141;-0.3429485;0.055057373;0.15310095;0.113583505;0.49618164;2.478388;-1.3082541;1.8338312;-0.4223327;-1.1670567;0.77229816;1.1118658;-0.75695485;-0.1133935;0.17172371;1.8040268;-1.111262;-0.536018;-1.5756807;-0.3086383;-0.46489546;3.4478798;-0.13048708;1.2856431;1.5495805;-0.5180355;1.9691061;-0.29437408;1.2337775;-1.5763159;1.2421845;0.4918296;-0.645246;-1.0106779;-2.556589;-0.45810467;-0.3205524;1.1038855;0.05921213;0.83858603;-1.5107832;1.600587;-1.7788448;-0.29212326;1.3521993;0.21241017;-2.3131547;1.1280398;-0.1692662;-1.4492563;0.13838303;-0.3043746;-1.0898838;0.60067;0.72825354;-0.095830046;-0.12789015;-0.017311981;0.17254524;1.5566125;1.0200957;0.3366307;1.1621305;-2.0820837;-2.5607054;-0.29180416;-1.3133425;1.733359;-2.7072845;0.814181;-0.022195715;-0.36736572;2.3502605;-1.086529;-0.12948936;-1.0366763;-0.38928986;0.5121305;-0.09905232;0.62394106;-0.30960044;1.6845113;-1.7070522;0.40063244;0.8143016;-0.44837674;-0.034449268;-1.5616165;1.2412698;-1.6255931;1.1840056;-0.32025105;0.51050746;-0.6429171;-3.2358747;1.3554853;0.6730362;-0.62619966;0.35342225;-2.846862;-2.2657533;-0.19502433;-1.8300545;-1.0638283;-1.4099319;-1.8360071;-1.2849467;0.09537843;-1.0370646;-1.424746;-0.32858548;0.1001691;1.1501878;0.18656157;-2.0620651;-0.6202188;-0.30140045;2.2704232;-2.3931277;-0.25230542;2.717947;1.9073527;1.8238568;-0.037131965;-1.4566898;1.2405062;0.6317801;-0.52434653;1.5851077;-1.2191163;-3.1485884;0.4702184;-3.5317926;0.42211902;0.28389588;2.0894508;-1.1915336;1.9031999;-0.42221603;0.5092378;-1.716704;0.045999862;0.27924588;-0.4404979;1.8034259;2.2041686;-0.7422233;2.9598002;-0.76887447;-3.4581788;-0.44386292;-1.1301273;0.22839952;-0.21910654;-1.3573122;-0.51259965;1.5224693;2.10313;1.6066883;2.8344269;0.5661785;-2.635762;-2.8548143;-1.0709862;1.3137908;0.9003853;-0.62230134;-1.0549233;0.19892551;-2.0501668;-0.83673346;-1.0546086;-0.66351;0.08697863;-0.023279583;0.6436801;-1.7677946;-4.2463965;-0.24513777;-0.30691132;-1.6027288;-1.5134089;0.6014058;1.5877553;-0.027583923;-4.262287;0.719435;-1.8841022;-0.73259056;3.8261702;-1.057592;-2.6731384;2.6585407;-1.5870774;-1.8793116;1.4846436;2.7760046;0.41525036;-1.582798;-1.4048555;-1.9722016;1.1953677;-1.1713756;-0.16030645;-0.6876961;1.2379078;-1.0530859;-2.6654913;-0.56833667;-0.31717917;-1.7113593;-0.8186214;-2.0763526;0.5643224;-2.0823796;0.20311736;1.3222953;0.25119382;1.1814014;0.16943845;-1.3755497;3.1056402;0.68680996;2.0872114;-0.03899334;1.0406736;-7.5746765;4.7917814;1.881826;0.23458926;-0.9692871;0.090375856;-0.37110862;-1.9851841;0.41335234;2.4607232;0.7953179;-0.09239733;2.979108;-2.1138935;-2.0150158;-0.39246133;1.0440099;-0.15390834;1.5234469;-1.5371617;-2.90179;-1.6584684;-2.179973;-1.0705229;-0.19326586;1.7677555;1.1425849;-1.0512722;-0.097754896;1.3375165;1.8185323;-2.7023835;-0.0075373426;-4.124209;-0.5585168;-0.20644732;-0.24197589;-0.9789126;-2.9972148;1.8577573;-0.41113448;0.56540936;2.7953568;-0.25323924;-0.40666974;0.35085222;0.51524115;-0.020280715;1.5005703;0.8847492;-0.3523194;0.305262;-0.42185733;1.0129951;1.9629402;-0.6091985;-0.6692506;0.3468099;2.629583;0.05813735;-0.10142846;0.22688143;-0.9260582;-3.2488768;2.5157585;0.5311375;-1.9399004;0.82559776;0.79420567;1.2751096;-1.6736187;0.28869674;-0.048478805;0.35024798;-2.3515754;-0.6779334;-0.07799623;-0.17997491;-1.1511588;-0.72833014;0.52528435;-1.5237844;-2.412169;-0.28075582;1.4780093;-0.7516172;1.5356268;0.30687448;-0.8481713;-0.41676626;-4.3529396;1.4282998;-0.99787533;3.1512825;1.3034686;0.37380645;0.8552472;-0.84730506;-0.357561;-0.3089269;1.9639287;0.33544567;0.032408535;0.64164305;3.4891274;-0.8638035;2.5660539;0.23126802;-0.64386886;0.2504647;-2.2142904;-1.929272;-0.13886762;0.33040074;2.8334124;-2.86012;0.06700156;0.56591266;1.3828449;3.0459783;0.49123645;-0.08959704;-1.3026727;-2.6354477;1.4699162;0.3776191;-1.060134;0.4162148;0.5200657;1.7885525;0.8515269;0.03921062;0.27307323;3.676144;0.8580793;1.4477452;-1.1634216;1.5845501;2.442959;-0.3085953;0.52872646;-1.7919068;0.6437621;0.45685622;-1.0624402;0.4906849;3.0890326;0.9582269;-0.022254964;2.937197;1.25605;-1.1704903;-0.7100251;-0.16813056;2.7573655;1.4196088;-0.89551246;-0.858792;0.84325963;3.279985;1.6161811;-0.46484217;-2.32477;-1.168579;1.0806409;0.5463139;0.47994426;0.81395555;1.9781995;-0.63501376;2.689442;0.20893419;0.60547096;2.235586;1.0691326;0.65834934;-0.31398332;1.8619562;-4.5693536;0.31414807;-0.76384085;3.8244765;-2.1122231;1.1231586;0.21185802;-0.5803133;-0.8747878;0.6334892;-0.3549822;-7.2944245;-0.34649816;0.6557308;-1.6124797;0.23314133;0.86976385;-1.3960317;0.9054602;0.78929514;0.26737052;-0.13260989;-0.39167565;0.14462264;-0.23323172;1.2765732;0.23356704;-1.2500597;-0.60646534;1.0529878;1.8915324;-0.235009;-3.5467184;0.2536637;0.4535842;-1.4707321;4.5211987;0.4482223;-1.1243347;1.3146195;-0.3100906;1.4433728;-2.3917527;-0.16547294;0.20413959;0.13791862;-0.45884;-1.4569541;-2.2060232;0.2895081;-1.1534305;-0.13014214;-0.8776265;-0.59957993;-2.932754;0.7212657;-0.88978165;0.7954772;-4.4803386;-0.6044255;-0.66095406;-0.14186682;-0.5766498;1.6770587;0.36070096;0.8136746;-0.97046304;-0.5765361;2.9107907;0.42439345;2.258568;0.2673792;1.3112358;-2.3281517;-0.028851392;1.0207775;-0.8302883;0.37667683;-0.5002332;-1.8859978;-0.70826656;-2.3208334;-1.2734326;2.0695617;-1.3220224;0.28909692;-2.0592277;-0.5109543;0.25229672;-1.845497;1.5776924;-0.37136573;-0.032011516;-0.8488926;-2.1166482;1.2216132;0.23547412;0.7687753;-1.1898936;2.091153;0.5351828;0.4571563;-1.0824568;1.1382955;-0.6058646;-0.96625984;1.3078558;-2.3900566;-0.6931105;1.679888;1.2053468;0.061151315;-3.4889576;0.40284115;-3.863292;3.014519;1.4600586;-2.4219246;0.27762973;-1.8117043;0.8935993;-2.7764158;-1.8062565;-0.32399994;2.1972525;-2.3505685;0.390305;-1.3133597;1.7623618;1.1700608;0.6798935;-1.086307;0.4259142;1.9678048;-0.74553096;0.3573133;0.20564003;0.3973446;0.4297764;2.049912;2.1500018;1.1618049;0.8251338;0.76243323;-1.0919574;1.7912359;-0.8191634;-0.79615754;0.48442322;1.5760173;-0.5504327;-1.9261459;-0.8513398;1.5771651;-1.0195632;0.5192299;-0.21376315
1.7450844;2.384322;-3.0705402;-1.3095989;0.64635336;0.94759935;-0.160666;-1.5075234;1.0431935;-0.28012797;0.89230996;0.53554434;1.8514489;0.55341876;-0.3322465;0.78390986;-2.2079668;-0.10052574;3.0291467;-1.8361732;-0.09701185;-2.6208756;-0.53183585;0.0004007766;0.823871;-0.013751149;-1.5326209;-1.0444875;-1.4712982;-2.0251114;0.86112386;-0.19168027;-0.44625774;-4.554184;-0.2271296;-2.0371473;-0.82321656;-2.1842349;-1.0907644;0.5048749;2.0639725;-0.25627944;1.1375991;0.5743083;-1.2424206;2.0413659;-1.5169222;0.16865538;-1.0046406;0.7987561;0.5769329;0.38121444;-0.07138972;2.0341983;0.92837304;-0.6193139;3.418038;-0.43788674;-1.8363997;-0.663989;1.4331297;-2.1862018;1.1303445;-0.9039485;-0.20665324;-0.15037034;-2.2684793;-1.1072128;-0.72574574;-1.8601192;-2.521487;-0.2180868;0.06274575;-0.73572904;-0.42614067;-0.3646338;1.5340073;-1.9224958;0.21667679;-0.69398934;1.3688787;-0.5550066;0.8933689;1.2127389;0.8820253;1.3126777;0.5804042;-0.040014654;-1.1453642;1.0658729;-0.84292626;-0.3492803;-0.3611901;2.8433754;0.0055632223;-1.1752822;1.0533378;-2.5365052;3.7234952;-1.1658301;2.5870314;0.6355471;-0.69972205;0.2550323;-1.8097398;-0.04900341;-1.6837287;-1.4673986;-1.2401671;-0.42136133;0.011012559;-0.91121733;-0.4207498;-0.6355672;-0.0029582577;-0.96334904;0.05188863;-1.8130807;0.91123;0.77543443;-3.0707881;2.9877367;0.37408587;-1.3587785;1.3536154;1.0164403;-3.0808396;0.5189949;0.8115614;-0.43611225;0.17630157;1.001216;-0.2672359;-1.3355196;-1.8438953;0.4527217;0.75572526;-0.5147878;1.8206009;-1.7961687;2.6951387;-0.79746336;-1.2279371;-1.6024448;-2.1843302;-0.27872768;-0.2877627;0.45049575;0.48063943;-1.928186;0.79918355;-1.3849255;-1.2761787;-0.023024876;-0.61252916;-2.6571074;-1.8968759;0.2614813;1.2041731;2.5012822;-0.88924116;-2.4570444;2.0231607;-1.6616871;-2.165295;-0.6773628;1.680565;-0.31686318;0.37466034;-0.25060847;-0.82549393;-2.2732444;-2.9816287;1.2027811;2.7275572;-0.2994814;1.4214218;0.791315;-0.09616036;-0.4667198;-0.06577916;0.32950878;-1.0054276;-1.3966784;0.39103118;1.8093657;3.6318529;1.3462687;-1.1089625;-0.87522864;-1.1116707;-1.2964262;0.16943362;-0.73454607;0.45836803;0.29143912;0.44405848;2.3382545;-0.13714711;0.8819621;2.1463056;-1.0144532;0.99991065;-0.87259674;1.1399904;-2.6765363;-2.7711422;2.3996208;-0.11777922;2.9192219;1.5852588;2.350534;1.4101886;0.05262405;0.13374916;2.9441712;-0.87356883;-1.6651182;-0.44268578;1.045163;-4.143302;-1.675161;-1.8072295;-1.6083336;-1.4094487;-1.2380589;0.28345206;-2.0220754;-3.3262708;0.25809044;0.18419312;0.90837586;0.7034751;-0.20918426;-0.42632648;-1.4066004;1.7246474;0.7559539;2.0822637;-1.0869033;2.176115;-4.5226364;0.98001415;1.271666;-3.3762512;-0.46406218;0.83627325;-0.5389184;0.6812355;0.9562257;-1.202333;0.1178594;3.0312016;0.5970856;0.74876297;1.7292156;-0.13949054;0.97161156;0.60963804;0.91849697;-0.42034602;-0.888528;-0.011389438;0.61341864;1.4121535;-0.28115124;1.3994851;-0.08833703;-0.5068034;0.23065937;-1.1550477;0.45121926;-0.9611297;0.0025187337;-2.7025092;-2.649937;1.4243566;0.5866714;1.1568899;2.2973247;-2.070973;-2.8338509;-0.123264015;-0.42818725;0.14190465;-0.5495875;-1.0578202;1.0505341;1.5238937;-0.33746994;0.5662331;0.11282608;-0.3206666;3.2449584;1.2134852;3.1265492;-0.7920165;-0.68712133;0.8830764;1.4629747;3.2154307;-0.6305833;1.9154474;-0.6179482;-0.22655812;0.37728152;0.6012157;-1.0537733;1.8505155;-0.25763747;2.6889594;-0.78368443;-1.4474325;1.0696031;-1.5705978;-0.9855444;0.47646436;-0.10322223;1.3490739;-1.2471508;1.4991663;0.8914979;-1.8455676;1.8180583;1.6983532;2.6048398;-0.3854435;0.85139555;-1.3627595;-1.2129377;-2.956005;0.60896146;1.806761;0.70904404;-3.662957;-0.7171282;1.6140714;-0.7803646;0.17589219;-0.47334135;-2.6053336;-0.84977937;-1.3408527;-0.8906592;-0.6382267;0.116900116;-2.5068116;-1.8258318;-0.0040218467;-1.3931692;2.932355;-0.5446174;-1.0978658;0.87811756;0.6320532;1.3946819;0.6817664;0.11538447;1.6890824;0.14986832;1.0063688;0.29803747;0.87916315;0.8622274;1.2234718;2.3958054;-1.3373663;0.70067346;-1.6684241;-2.0324237;2.199331;1.067663;-1.7140735;-0.17637713;-0.7501755;1.1544291;0.62856644;-3.1771486;-3.7235832;-1.5222186;-1.4867692;0.5619723;-1.3452834;-2.0649323;0.348843;1.0359353;-0.71245694;0.17261203;0.74446166;-0.6380446;0.91128516;1.518525;-4.446027;1.0080236;-3.0147252;-0.44068906;0.8974384;0.060694586;-2.2372863;-2.8814647;3.6422577;-0.6645422;0.32313535;-0.3714608;-0.52461433;-0.8387994;-2.9547489;2.0473156;1.4974805;-0.23132771;0.21193886;1.4094405;-0.573964;1.889519;-0.39905554;2.4439607;-0.126604;-0.5196479;-0.1443166;-0.97104806;0.27940816;-1.5826817;0.6447538;0.0031350297;-0.3245;3.1838844;-3.4578032;-2.7940629;0.3812504;-1.8349762;-5.3805394;-1.4219408;-3.261293;0.7007808;0.49083558;1.5100464;-1.2624326;0.2431438;-0.8879543;0.4180763;-0.0012071045;0.5710756;-0.32204;0.36964822;-0.009908876;0.6532383;-0.98755056;-2.5888443;0.069094345;-0.18762846;1.1411649;-0.2136863;-1.3052418;0.53810316;1.4401159;-0.7934909;-0.041385703;-2.21829;-0.56954086;-0.25214896;0.13417368;-3.0419388;-1.0466491;-1.3648835;0.7079029;-0.7265409;-1.1431192;-1.7566983;-0.49124756;0.27447724;0.43139452;-0.48046002;-0.35387197;-2.746055;0.8652333;-0.94056654;0.32405907;3.0805252;1.533944;1.2261412;-0.8892604;1.5641617;-0.104867466;2.0263295;-1.1892391;-0.3561443;0.82624805;1.2131846;2.4891481;1.1150631;-1.0903176;1.1380615;0.52610016;1.4642217;-0.14801605;-2.1150346;-0.45618203;-4.1625147;-3.0963042;1.0375904;-2.6415527;0.9630005;-1.1426095;-0.63657826;0.5427022;-0.22302769;1.652209;0.24419843;-1.2272058;1.1056657;-2.1344202;1.5333143;-0.982404;-1.1378263;-0.1563753;-1.2638886;0.6691564;-1.9532825;2.2439618;-2.2976952;-0.6396952;-0.5620201;-1.2556194;-3.8067899;-0.08377321;2.0245879;-1.5440676;0.5497696;2.7105632;1.5607842;1.8538727;-1.4704367;-0.41887638;-0.72728145;2.152962;0.07378648;0.5923707;-0.94512665;-3.5090728;-0.6124518;-1.2081623;1.1638098;1.3725113;0.8363467;-1.5294123;1.6770355;0.9338309;-0.056970082;-0.3913039;1.0595813;-0.08231029;0.8320953;-3.2874892;1.2623894;-1.2391492;-1.6752794;1.6873325;1.5720543;1.0579298;2.3635068;0.9704066;-0.52733284;4.47903;0.28813785;2.5310187;1.2949051;-0.3993224;2.1627088;3.2881463;1.8703922;-0.08521369;0.96535045;-0.22728126;-0.22882526;-0.11085573;-0.13797481
1.8461695;2.0447443;-1.7995316;1.0602432;-1.2455368;0.29390526;-0.18850173;-0.12671307;-3.5325851;0.43210036;0.2001835;1.0975796;-0.89137036;0.7602589;0.38340282;-1.8116778;0.29049033;-0.0459572;1.0458236;0.28977817;0.25101644;-0.22976035;-3.3956718;0.5288963;0.21871243;0.8845374;0.15923034;1.2719269;1.371514;-1.2829144;1.9085077;-0.97864896;0.26218125;0.94933087;2.1636713;-0.20845686;1.0445757;-2.188582;0.8184804;-0.20377012;1.1955714;1.8666152;-0.27662307;-0.29860944;-0.06984697;1.8766018;1.0459721;-2.3354676;-2.9454415;0.70000327;-0.74509084;0.72612625;-0.39044628;0.460943;-0.36042404;-0.562311;1.6600423;0.52504134;-2.119169;-0.04189419;-0.31451118;2.0461295;1.7667222;-1.3205777;-4.078272;1.0760119;-1.071771;-0.6181863;-0.66678935;0.6790821;0.56707823;1.4650601;-0.4814151;-1.4574162;1.622823;0.36903745;0.7215486;0.8321085;0.23238999;-0.06626328;0.45695627;-1.1967918;0.55228424;3.3198626;0.2828535;1.7634641;0.45125565;-1.0592742;-1.128929;0.82291144;-0.105026916;-0.80334866;-1.4273407;-3.4155033;0.3976215;-0.7830678;0.10503335;-3.2096856;3.3639057;-1.5829036;0.6233402;-1.3132904;0.60760254;-1.7249653;-1.5844977;-0.01433336;-0.65346533;-0.41964012;-1.4363127;1.4302782;0.5392954;-0.3806441;0.34748176;0.12450433;0.08678926;-1.6598368;0.5035434;1.2995006;-0.49170342;-0.35185862;-2.1756237;-1.7386465;2.102385;-1.5591617;1.3837818;1.2385318;2.3016021;0.18917777;0.74668264;1.4331403;0.7679438;-0.4401991;2.1600342;-0.9047998;-0.44762456;0.80043447;-0.40899625;0.4022643;0.04397498;3.5791278;3.5959764;2.0103369;-1.924147;0.95682114;-0.8745999;-1.533245;-1.3933126;0.082932875;0.5095587;0.162675;1.9153005;0.43974757;1.093355;-0.531498;-2.2315133;-0.37640673;0.3460901;-0.76683444;0.13335845;2.01995;2.0658255;0.011958966;0.26659507;1.6014507;-0.9377909;-0.38956967;-3.8287354;-0.06007827;0.49542516;-0.52231926;-0.19228187;-0.07265427;1.0598668;1.9415569;3.1388483;0.33315566;-1.1123654;-0.9658895;-0.4212231;-1.2683078;-0.21158628;0.20660813;1.7361481;0.76813906;-1.2433779;-2.0168154;0.582418;-0.7189543;4.1528735;1.0374978;-0.7590962;-0.6723478;-3.2212071;0.2793511;-2.6142154;-0.24508578;-1.1479177;0.6403377;-0.16522253;-1.8611339;0.20620525;-0.14066073;-0.78564477;-0.30599406;4.272795;-3.387561;-2.6059146;0.054104175;-3.16393;1.4936845;-1.2876711;0.5379711;-1.1471115;-0.25433668;-1.203801;1.6665138;-1.4836129;-2.4888475;-0.15356775;-1.7597201;-0.88722205;-0.25987768;-2.9110627;0.9928352;-0.6442695;0.8234463;-1.5154808;1.9278369;-2.8863268;-1.833349;-0.76377314;1.4644736;0.9918683;0.028278423;-0.48468763;-1.7333287;-1.1601337;1.425028;-2.0571852;-0.8827389;0.22852084;-6.4039335;1.3149089;-0.51270324;-1.3631818;-1.5554168;-2.2463653;-1.8693479;-0.67082065;1.3062028;0.44873372;0.4992535;2.2267103;0.96711993;-1.3398159;-0.6328832;0.36851355;-1.0661036;-0.46455643;0.747613;-0.8234475;-0.13820826;1.3140079;0.41611728;0.17331217;0.38823006;2.2779276;-0.2145615;-0.88812363;0.823869;-0.4510851;-2.4839892;-0.82657325;0.99709266;-3.8582025;-2.3505635;1.2314568;-1.3934206;-0.2697282;0.29403636;-1.909686;1.3778431;0.62191826;1.338445;-0.97640747;-0.66804636;1.9294679;0.7813486;1.2394084;-0.44464752;2.611827;-1.3462677;1.627527;-0.6406925;2.6852999;1.6768118;-0.51227343;1.881536;-0.10210553;2.1586523;0.44028777;2.0548046;-4.618618;-0.34596378;0.5351275;-0.5500116;0.50940955;0.8074432;-0.16832307;-1.6115028;0.37131923;1.3790008;-0.6165416;-0.28234982;-0.76608557;0.19637054;0.99854267;0.44150615;2.5941906;-2.2878616;-1.9263163;0.37011743;-1.4655279;0.66387635;-1.2430172;0.15182003;-1.0831578;-0.3664295;1.8829163;0.49962193;-0.6404108;-3.9406042;0.9125149;0.45399567;-0.41201827;-0.5377002;1.2235296;0.54625124;-3.8835258;0.34318936;-0.2079928;-2.3279529;-0.90305537;-3.0756826;0.19708356;-1.3182774;-1.6868856;-4.1873627;0.16434367;-0.2402125;-2.1036377;-0.90568155;-1.1335919;-0.24340816;-0.60417706;1.898988;-0.15958026;0.7422557;2.1433687;1.1681206;3.4303544;0.3299576;-1.4185139;-3.783726;-1.2312738;0.12495255;0.12795877;-0.093736455;0.15118076;-0.2202028;1.8207915;1.2042761;4.480317;-1.3576007;0.6633844;1.613256;-1.0480925;2.0260923;1.367167;0.14326124;-1.3428124;0.52778965;0.23482394;0.73173624;1.2052785;-1.8237573;-2.4979172;-0.51298547;-0.4380646;-1.9735514;0.43772122;-1.0339348;-1.4078269;-1.7799172;-0.3019605;0.4013484;0.56012076;-3.6058671;-0.43017793;-1.2971977;-0.36411366;-1.2101734;0.6615422;-1.0773683;0.5757166;0.59430176;-1.3658522;2.6068056;0.96042365;1.7760869;0.41593805;2.0358253;-0.2898582;1.8054975;0.021558803;0.4839876;-0.39522392;-1.0277767;-1.1718616;-1.0651139;0.69964457;0.79882693;1.4754951;3.4786482;-1.822381;-0.26947644;1.2973616;-0.048798557;1.6175252;-0.95356274;-0.19295336;-1.6835395;-0.97668666;0.55590063;-1.5545232;-0.8133443;-1.1578782;-0.25903273;1.7809192;-0.65103996;-0.10258256;1.6585106;0.24515703;-0.9565843;0.020379828;2.2672136;-3.146983;-0.88865566;1.4194076;0.10290235;0.29648972;-0.14846908;-1.9971385;0.6782297;0.99126947;0.16885607;0.51281285;-2.131338;1.056233;-0.16467145;1.3474241;0.4543111;2.3420715;0.0063459123;-1.6171012;1.6000512;0.07462179;-4.207089;-5.1401644;0.4507162;1.5562481;1.3170056;0.6007733;4.6109376;-0.69576776;2.5039494;0.516671;-4.0330486;-0.71172667;0.80210865;-0.18790254;-1.4607005;0.60065824;0.71796376;0.7719107;-2.3550773;-2.222931;0.50192374;-0.20199697;0.39068294;1.9964827;-1.3853282;-3.4164248;0.3957515;-0.06333609;-3.6812115;-1.1576625;2.9240174;-1.1497025;2.204556;-2.026092;-0.22790322;1.5272136;-2.3469474;0.9964939;1.7564281;1.5733336;-2.5804722;-2.97745;-1.5334717;-1.0139706;0.8400935;0.5557145;-0.5486341;-0.2684752;-0.87694967;1.3805636;-0.7170358;-1.4782621;0.23424125;-0.73239106;0.21212716;-1.7894799;4.2791576;2.2747548;1.38388;-1.6560929;-0.9771113;-1.9157563;0.5142265;1.3645296;-1.5360993;-0.45438477;0.59814036;-1.1618177;1.9132464;-1.5362215;-0.009934308;-3.7310832;-2.7851126;-0.92999685;0.85467416;1.912347;0.60730845;-1.5777464;-1.0710664;-3.4858766;-1.4047186;-0.9477192;0.27521175;-1.0200878;2.264662;2.7602155;1.3146473;1.3865522;-2.0964446;-1.2279269;-5.8553414;-0.593894;1.5227078;-0.3758553;-0.11127637;1.7469876;-1.4018991;1.0892156;3.0478132;-0.8343192;0.31038463;0.6504275;0.02742395;0.14457482;0.36272275;2.9853442;0.036846492;0.48706374;-0.016691161
1.9011319;-0.3842737;-1.1001422;-0.26776928;1.3670774;2.289429;-1.7816972;1.3742577;-1.5388247;0.14915289;1.974572;1.7660785;3.7420688;-1.1038132;0.3831916;1.3978482;2.3108702;0.5686078;-0.008456013;-1.139504;-0.24759099;0.118794724;-1.6012589;2.256176;-1.5229847;-0.5177138;0.6635438;-0.09068975;-0.48721796;-2.5025947;0.8968289;-3.6572897;0.31937316;0.42751268;-0.13481335;1.3854883;-0.46218666;-0.5323372;1.0035132;-1.8564531;-0.09808732;2.389516;-0.6224633;0.074511625;1.4702983;3.8214667;-1.84385;-0.7654161;-3.2119482;2.1285703;-1.13497;-0.6975487;1.930109;0.11659522;3.0874336;-4.010064;0.31074083;0.26331666;-1.4409907;-0.7022226;-0.96148145;0.9561656;0.8032473;0.12956321;-3.3686197;-0.11310782;-0.023924707;1.0060033;0.46006915;-0.8910359;-0.35016853;2.8896556;0.34587255;-0.37756404;1.0794679;-0.6005437;1.4640424;0.48183143;1.0394955;0.37798196;-0.9545645;-0.09766699;0.12022165;-0.7465051;1.0166922;1.8785247;2.6635673;-1.7733996;0.80657935;1.1923038;0.6088212;-0.6778173;-1.9170271;0.073918924;0.52313745;-0.39844093;-2.7308452;0.33219913;-0.66723514;-0.39729556;0.40887132;-0.4804785;-0.76582074;0.6276755;1.5607495;-0.36219698;1.5888708;-2.9203334;-1.4560931;1.7730528;-1.6786809;-1.5349386;0.6403038;1.4265412;0.44285664;-0.64797986;1.8944288;-0.21635012;0.55754626;-0.11570151;-1.3449228;-0.3571112;2.346065;0.5667094;-1.0883347;1.1410131;-2.0156944;0.024095029;-1.3005432;-1.1637694;-1.1709113;2.0376964;2.4841664;1.9337133;1.0103837;-0.013400149;-0.29648882;0.28934935;-0.41243267;-0.62273;-0.03144021;-1.5599812;1.0053602;0.26205632;-1.5356212;0.4835286;0.55597275;-0.8278409;-1.3849233;0.8450006;-0.9778577;-0.20338438;0.17527118;0.62205493;-3.2678268;1.0727483;-1.0101409;1.3558514;2.6107507;1.4683654;-0.99428886;0.85121137;-1.1614168;1.1533527;-1.0517056;1.1963567;-3.0208921;0.73937625;-0.7608214;0.38852268;0.3900935;0.17000644;-2.2654126;-1.4831674;0.8284173;-0.5704855;-2.507784;-0.45817176;0.38995677;-0.9248457;-0.045520376;-0.6628599;1.3236495;0.52911663;1.4976825;-0.9272739;0.17187552;-0.9844075;-0.08498286;-0.61310047;-1.977912;-0.2816883;-2.0381877;-1.8552837;-1.4560534;-0.23940513;0.69557947;0.40188777;-2.3603003;-0.08723288;2.2268248;0.09472539;-1.5720375;-1.7449261;-0.6946108;-1.4432093;-3.2668157;0.53922015;-0.0017191384;0.95085335;-3.0500295;-1.4135118;-2.2653239;2.463888;0.90210754;-2.2240212;-1.0970219;-1.1685466;-1.1200061;1.407857;0.834082;-2.1503816;-3.1514456;0.33611223;-2.6918573;2.4400966;3.845566;-0.7905421;-0.7694449;0.6742793;-0.9239389;-2.8752434;-0.47020996;-0.8551305;-0.03738625;-1.6391603;-2.064872;-0.26997015;0.518402;1.9030555;0.8525268;-4.1904845;-0.16296965;0.03350815;2.0101187;0.98977584;-1.1102735;0.26992375;-0.72850597;3.699177;-0.7496806;-2.3163242;0.667983;0.9086488;-0.5913375;-0.012685119;-1.0046751;0.02721601;0.62023866;0.53701603;-0.18174765;-0.3428539;1.9602071;0.42407122;-0.6504167;-0.19120175;-0.39074498;1.3042736;0.8217723;3.3256097;0.8164415;-0.55844545;1.4677942;2.5760686;0.4674982;1.4078394;-0.046493024;-2.9980626;0.8159027;-0.5929266;1.3796527;0.570768;-1.3423909;-1.1690648;0.8182304;1.0740402;0.43307203;-0.6730214;1.1554973;-0.03496321;0.44749284;-0.92052233;0.9425284;0.46026585;0.37029272;-0.6986988;-0.91853166;0.83995736;-0.5590625;0.042132616;0.5352665;1.238801;-0.598447;-0.820875;2.295533;-0.55663973;1.0846907;1.4368336;2.8115697;-1.9337358;-0.60450375;2.1724365;0.56356895;3.3190138;1.2757728;1.5379549;-0.16508761;0.38678873;2.599183;0.16504905;2.444171;-1.5279064;-0.29814917;2.5302136;0.9135083;2.1012006;0.91595423;1.703662;2.4847991;-0.7172612;1.2750236;1.0374472;-0.13271472;-1.6470135;1.1462381;-0.85231656;1.3837976;-0.14927897;-0.96554554;0.87994367;-2.6027234;-0.8361111;1.8668773;3.404502;-2.231745;0.29593125;-2.8920422;-2.7427945;0.20417404;0.6582431;-0.64900583;-0.7082604;-0.04706758;0.1709464;1.4168018;-0.57110214;2.8588626;-0.2696514;-0.9100794;1.6014496;1.98401;0.5176353;0.43228623;1.6507647;0.035766434;1.0165526;-0.74685735;0.7665776;-1.9912229;1.3589363;-0.44079682;-0.83388025;0.6361953;2.1596563;-1.2153482;-0.9008611;-0.6591318;1.2106634;-2.6086257;-1.3622485;3.0813959;-1.82631;2.7353148;-6.86834;0.67461133;-0.7839422;-1.6571271;-2.8532755;-0.62641376;-0.54349077;-1.933881;0.117778495;0.8255506;-3.5000048;3.5954962;-0.32065618;-3.0442545;-2.7300816;1.9200337;-2.9875886;2.0346742;-0.5078045;-0.5742454;-1.631476;-1.6220678;-0.63857263;1.7868785;1.2138606;0.6891426;-0.14534664;1.7947109;0.8052892;-0.40899286;-0.67319506;-0.56770396;1.4007226;-1.0227216;-2.8701403;0.8957993;1.4190495;2.1006386;0.8308248;0.20255554;0.7695047;-2.6896458;-1.3013514;0.43859023;0.9261613;0.44211444;-1.0751274;1.1324443;-1.5831789;-1.5703379;1.6699764;-2.100438;0.64632446;0.0023826722;-1.0400758;1.1707678;-0.3140253;-0.029032525;1.6813769;-1.1992395;1.3786644;-0.13756035;-2.8892257;-1.0664679;2.6253269;0.32716393;-0.8386495;-1.0674303;0.39160168;-4.179141;1.1262081;2.3671122;-0.43493265;1.7746085;-0.451407;0.23983872;0.37595633;-1.4013197;-1.2917721;-1.9950479;0.25397453;-0.60955215;1.1928298;-0.7112442;0.7365703;-4.5431714;-1.649058;2.6601577;0.43211567;1.9732327;-1.8926188;-0.5623075;1.1391172;2.1830504;-3.0820043;2.2360766;-0.3354763;0.07192124;-0.37328514;-0.49980152;1.3043453;-1.3554208;-1.6025585;-1.1898569;-0.50454545;1.920416;-0.65564346;-0.8346637;-1.2317154;-3.2765756;0.8142908;-1.831189;-4.663926;-0.27969956;0.45147818;0.461425;0.72646606;-0.35017365;-0.18717484;-0.40742952;-1.3414149;1.11992;1.0165042;-0.23330154;1.3983352;1.0171976;0.561397;1.1975521;-0.32916123;-1.4884726;-1.7376554;0.8728957;3.7843285;-3.0007315;-1.6541567;-2.043357;-0.009322792;-1.0322267;1.4641653;-1.2786223;2.1125662;1.173155;1.0452061;-3.2189388;-1.3570198;-1.8607233;-2.7449226;2.540997;2.2278037;1.6274408;2.113909;0.1546919;-1.0713341;0.72407186;-2.0670402;-3.3954637;-0.12955853;2.3037398;0.8660418;-1.570568;2.391853;-2.4039695;-0.35396034;-0.15803714;1.2300746;-1.4119895;1.6171272;2.0485535;2.220097;0.599332;-0.524648;-0.5676544;-2.6215508;-2.319497;-0.64621454;2.610708;1.1393622;1.0400524;0.040265515;0.8776708;-0.5888699;0.44253588;-2.0934715;-1.5153576;1.1510102;-0.9396299;-0.24944289;-0.6839415;1.822988;3.1752703;-0.93593454;-1.3827912;-0.11980905
-0.47818244;0.10146752;-0.82592887;-0.05521778;0.65458983;2.7840488;-1.8097306;1.0680332;2.2996137;-1.142937;0.82229555;2.1442113;2.7808154;0.48340288;-2.5535946;1.0781782;0.3296559;-0.07572146;-0.6976093;0.38878226;1.0837057;3.4816766;-2.084254;1.5907286;-1.9919162;0.8720689;-0.5988244;0.66221964;-0.39708883;-1.3373988;-0.6003923;-3.719284;0.30379823;-0.086485915;2.9820478;2.594322;-0.122985095;0.0045279786;0.3598499;-1.9548522;1.0044132;-0.102002665;0.54515254;-1.2269149;0.5349661;3.2729578;0.5109198;0.263779;-0.43060187;-2.5466683;0.33149004;-0.089402415;2.1767263;1.687237;-0.95717674;1.5675573;-2.6846578;0.71966463;0.9678934;1.0387182;0.9233654;0.4388572;-2.4813917;1.5297437;1.3310776;-0.23305978;-1.1127546;-0.8172417;-0.8455238;1.2924824;-0.15442076;1.2295038;-0.46717644;-3.122767;-0.21315935;-1.1167657;1.2952771;-0.1245032;-0.5324096;0.27173498;0.64085;0.61245596;-0.748346;0.17716034;0.24382524;2.195367;0.5474216;0.07416606;-2.5544574;0.07590948;1.9967382;1.2305897;0.023577653;0.60669786;-2.492281;-1.3969685;-1.0768152;0.14427677;-0.6690646;-0.77710503;-1.3143395;0.16007337;1.5578614;-1.9172461;1.7706492;-0.21753226;2.0225477;-0.22437052;0.46106204;0.41009462;0.49473014;-0.3214383;-0.00012301699;-0.93025666;0.68334323;-0.15146212;1.0573734;0.5382151;-0.67241895;2.8118715;2.5603433;-2.6960018;-0.50334096;-0.38307187;0.52824986;1.8598956;0.49490353;2.4897075;-1.0846895;-1.6521577;-1.6088595;-0.67149377;-1.5391327;-2.0611153;0.28333977;0.7928515;1.2413484;1.3696058;1.2752628;-0.8588755;1.2785976;0.2086216;0.25069198;-1.8647212;-0.39321798;2.587272;0.7229481;2.694739;-0.91757363;1.7403554;1.4644686;1.8678678;-3.792599;2.2250547;-3.3729856;0.85709107;-0.21846741;1.1368309;1.590746;2.098759;2.2443495;-2.058382;0.41889113;2.2993944;-2.2249494;0.26076826;-1.7361169;0.46878418;-0.5864898;-0.31634694;-2.763484;1.1953027;-1.1931952;-1.4963499;-1.519442;2.4258885;-0.680337;2.4291801;2.3091438;3.2066877;0.9140901;0.29695627;0.56890976;-1.3795106;-1.3172721;-1.0481545;0.07567552;-1.6551166;2.4774063;2.6905391;-0.6971732;0.023676563;0.96559954;-2.041449;0.47954142;-0.3447011;0.6365183;-1.8331397;-1.331982;0.44514614;2.4858267;1.8752475;-0.27986646;-1.8383069;-0.7379108;0.25719392;-0.7883822;0.29298335;-3.1357455;1.6839656;-0.2410043;-3.507706;-0.8314125;0.51137483;2.237621;0.45133966;-1.0903679;1.5053467;-0.10608592;-1.3107996;2.593175;0.5539286;-1.6924301;-0.0076473937;-0.6792305;2.0244687;-2.6725261;-3.2862527;0.99214756;-1.6294448;-0.8339674;-1.2588303;-0.18399468;-0.70215106;1.918629;-1.6301719;1.4573318;-1.2874315;0.3869262;1.5452156;-0.48618233;-5.336486;-0.8556654;-0.8300484;0.16481514;-0.5199698;0.23972417;-2.2923167;-0.49017674;0.10334214;1.4506052;-2.180132;-1.3673097;-0.6706326;1.9906067;-1.9497848;-2.1562986;-3.0797975;1.3774242;0.58819723;-0.7396926;1.7020181;0.6927547;-1.823026;-0.73036957;-0.9320135;-1.9516039;0.66201276;1.0925678;2.2537098;1.5513853;0.58123773;-0.7295778;-3.7122436;0.8028945;0.113472156;1.1115358;1.1692193;-1.2514476;-0.33470166;-4.0745564;-0.4077908;-0.33010393;-3.0019681;-0.3107788;-2.6750793;0.4476798;-1.1268297;-2.3355844;-3.3221624;2.409782;-0.9542926;-0.95328337;-1.7571002;-2.2751422;1.8005548;-0.9598055;0.579352;-0.45848787;0.9838612;0.6388991;0.0652353;-0.34794632;-2.2189372;1.5969801;0.58014655;-0.010872673;1.2327509;-0.25736907;-1.5719321;-1.8923788;-0.8249202;0.704042;3.14693;-0.18720071;1.5030084;0.2710974;0.6472961;2.385173;0.82165635;-0.62999773;-0.26438874;-2.5127544;1.9566903;0.46926865;-2.4338484;0.9339055;-2.1843703;-0.6123954;-0.41158602;-0.97135025;1.559278;0.92789936;-1.7971877;3.1713307;-2.905054;1.7012135;-1.4997239;0.3450836;0.08808107;-1.468128;-2.5743017;-0.7672363;-0.5393001;0.4359206;-2.9699526;-3.2432563;1.8988376;0.016126158;-0.7752043;0.65287024;-3.343672;-0.8454502;0.22277552;0.26896393;0.19984272;1.3648528;-1.8921652;0.1546426;1.0386176;-0.995135;-1.7422924;-0.9276282;0.24267438;-1.5580763;0.22339016;-0.6774091;2.1151664;0.062093403;0.9506784;1.4749529;-0.19677417;0.75269425;1.009897;0.7131022;-0.9683743;3.436877;0.6129807;-0.33523363;0.52526665;3.0007617;-0.8426696;2.856248;-4.0220046;-1.601702;1.8086332;-0.20985386;-0.23824447;-1.6449699;-0.6513215;0.64258015;1.9962305;5.295656;-1.6796516;2.3742924;-2.1310914;-1.5328367;1.1443352;-0.16600195;-3.6238303;1.8437946;0.28600362;0.512873;-3.7491536;2.9563503;-1.600004;0.53176844;1.6868697;-1.3459828;0.8347526;-0.32941175;-0.40597293;1.0728383;3.0158403;0.20530634;1.2655437;0.82615304;-0.5658546;0.5070299;0.5548037;0.012056766;2.2135146;0.7524566;0.14979604;1.7040743;-1.3829829;0.10949774;-2.320243;-1.217214;-1.2874022;-3.2300162;-0.7282507;-1.9319239;1.8325268;-2.047258;-0.56782055;0.08506789;-0.4639619;0.16852175;-1.3178457;0.043720722;1.9765502;-1.8602148;0.22413792;0.054019015;1.2875991;0.71945983;0.82396317;0.71620786;-0.7851009;-1.5828485;0.8414052;-2.524631;0.09501111;0.6339897;-3.921244;0.50513375;-0.33373195;-0.37277085;-0.5237584;-1.1226602;0.19987711;1.2951716;0.9084554;1.0609008;0.7850112;1.4513073;-1.67389;-3.5728657;-1.431352;-0.26059023;0.2857471;-0.94720846;0.79828507;-0.97972786;-0.39974934;-1.8688323;0.10123714;-0.41281986;0.07329719;2.23376;-0.52706337;1.2633251;-1.2164582;-1.7720915;-3.3506424;2.8039992;-0.64174634;-2.2704158;-1.1938246;-3.934403;2.35263;-2.5236235;2.3758967;0.2681691;-0.2871649;0.14408463;-0.57545036;-3.2425075;2.2433803;-0.6637674;2.5553496;0.92710304;1.4963905;-1.2640758;-0.05258147;3.2053;1.12689;2.2166061;1.9599915;0.4249068;-2.001665;0.33200642;0.93334395;-0.4845613;2.1047425;-0.043719936;-1.3758267;-0.5677184;1.0758976;-2.4839704;1.7754565;-0.8052494;1.9282203;2.213741;1.9377518;-1.264025;-1.9078568;0.40605178;0.51232934;1.8442972;2.8258812;3.0749662;0.53700614;-0.23953758;-1.4664768;-0.5065091;0.56271476;0.038808063;0.8285311;1.9403503;0.79042834;0.15225291;-4.2630763;0.57486653;-0.7773579;-2.2850263;1.0716418;0.92243344;0.34385103;1.3447059;-0.95519805;-1.723479;-0.37432256;-1.628827;-0.5847871;-1.9417294;5.4788756;-0.12880372;1.2727798;0.048399143;-0.4826314;2.088948;1.3251823;0.064727016;0.9584278;0.39959082;-0.35548198;-1.2439741;-0.06781171;-2.2967563;0.4602389;3.549677;-1.5719732;1.3097326;-0.07873554
0.41252026;0.3134827;2.7973304;-0.18763551;-3.1847737;-1.0250863;0.756755;0.6068012;-1.1558619;-1.1795927;1.0979381;0.5747535;-0.33759475;1.1962346;0.25574288;2.6079361;1.1983025;1.0549715;2.7332273;-1.617906;-0.058481775;-0.9664608;-7.5708222;1.0494615;2.477974;0.2917503;-0.3719145;0.10952194;0.72961974;-1.0674822;1.3813292;-2.725762;-0.17994322;0.6872837;2.2375216;-0.28346655;-0.2576694;-2.5899978;-0.11116639;-2.2259843;1.6747824;0.66959965;-0.053821344;-0.19788952;-2.015783;0.82414573;1.7913239;2.922529;-0.09657713;1.6702528;0.9479352;-2.9829333;-1.3733746;-1.5208924;-0.35034811;0.21153212;0.84743744;3.509116;-1.1899083;-0.23663688;-2.7280962;3.6036887;-0.61542314;-0.95418215;-1.3655372;1.3266945;-0.15625937;0.35313073;-0.61230135;2.3183167;-1.0687625;2.9295142;0.8410339;0.6146827;0.27964926;2.050996;1.2710905;-2.0186265;4.008151;0.17141578;-0.52569884;-3.162305;-0.23267151;-2.0602195;2.3105063;2.143694;0.15096912;-0.2048138;-1.3746779;0.3701387;2.022187;-1.4012938;-1.1588358;0.4284343;-2.102041;-1.5154068;-0.5246416;-1.4286661;0.9001041;-0.22300003;-3.8156555;0.1087156;-0.7657129;-0.619788;-1.5291502;-1.6866516;-0.13223888;-0.32369128;0.88920826;0.44772035;0.98307526;-0.9649261;-2.1054769;2.039873;2.8823671;0.29443234;-2.3026001;0.7242917;-1.0315397;-3.4978452;0.37801594;-0.64920944;2.520076;-0.802229;0.18054546;-1.4291167;2.878076;2.9638803;0.7872392;-0.91251546;-0.2520425;0.41967663;1.7949108;1.8179866;2.7764268;3.0755765;0.26099393;-1.8466944;0.34016994;1.6648419;-0.3628627;1.0281373;-1.0867567;0.2950608;2.153218;0.56031746;-1.6924188;0.8198321;0.35845947;-0.33306873;-0.88288665;-0.23219827;0.92587334;-1.5646071;-1.3028901;1.4038078;0.41146928;-1.599666;-1.0154808;2.399358;0.06454823;-0.48846066;-0.82640016;0.9812529;-1.1642393;0.14051154;0.04983592;-1.1356848;-2.8339796;-0.65602696;-2.4148703;-0.37483507;-0.73087245;1.611382;0.13909246;-2.1637893;-1.9102498;-0.0849267;1.1577508;-0.10717793;0.6927546;0.6871308;-0.6318606;-2.3397846;-2.0012686;0.018747462;-0.34971648;-1.7944689;1.0402932;-0.8498104;0.005800616;0.90459394;-4.465441;-0.47535533;-0.56988466;-0.6286801;2.8242984;-2.5002935;0.09343108;-1.5567569;0.51733416;1.2725576;-0.53506374;-1.500446;-0.9080272;2.601403;-1.7655311;1.4933476;-2.2828305;1.4431525;-1.0327572;-3.5958383;-1.930675;0.4331665;1.0858543;1.7640964;0.4180876;2.1197867;0.666254;2.668664;1.9796067;-1.5641346;-0.31561503;0.36564064;-1.6815675;0.3037266;-1.4965663;0.09625442;3.9932847;-0.28575343;0.5128964;0.31240153;2.780922;-0.21707357;0.98287714;-0.23602587;-2.7504659;-0.7291128;0.08927911;0.7388562;-0.74205005;-2.738512;-0.38248736;-0.75870234;0.12676196;-2.2999032;-0.5320272;-1.5974803;-0.8207873;-1.1584628;1.6462579;0.7212128;0.6465323;-1.6253638;-1.9176667;0.06595967;-0.71592796;-2.3374398;-1.1672667;2.739936;0.4896387;1.4947971;0.00087172905;-3.0081937;0.41021094;-0.47446537;0.6203495;0.0683463;-0.6230423;0.50119114;1.3741285;-0.36319837;3.3405244;-1.4835484;-0.422346;0.53495455;-0.46098316;-2.005126;1.6251798;0.55583924;-0.8868218;2.4962468;-0.65638113;-1.893955;-1.2020618;-1.1791495;0.84571415;0.15775321;-0.23084718;-0.9741285;1.3722093;-0.7374253;1.7657956;-1.276901;-0.7977491;1.6302199;-0.20839801;-1.370616;-2.7285473;1.9876832;-2.310022;0.7792285;-0.9663869;-2.1374302;-0.4253398;-2.6190212;1.7805344;1.6002111;-0.11092026;-2.1886363;0.5909709;2.3068688;2.51556;1.7329379;0.589868;-0.37269774;-0.15532474;-0.30038118;2.2443445;1.5113332;1.0641665;-0.60854065;-0.38578117;-1.4812169;0.9711838;-5.3767996;0.5491646;-2.8527179;-2.9098341;-1.3409033;-1.2168465;-3.3504043;0.47275198;-0.9842862;-3.417297;0.6999357;1.5729839;2.1432893;-0.9370248;-0.80354124;-2.4280577;-0.1852571;-2.755601;-2.1945226;1.2476287;-2.5762284;-1.1786673;-2.7335088;-0.15636559;-2.0430205;-1.5810617;-2.8691201;0.30696446;0.7330474;-3.0528471;0.45511118;0.1806096;0.34707177;-0.34341556;-0.22366591;-2.1201117;-1.4890712;1.3299026;-1.4104785;-2.5096066;0.6914434;1.4360127;1.1422043;-0.64131385;-0.830979;1.7523214;1.6118956;3.3313377;1.2704735;0.37945238;1.3358105;-5.6805787;0.049145035;1.2381728;-0.8904876;0.7512659;-3.1166801;-0.610825;-6.913748;0.25856355;1.4054829;-1.6789849;0.74101555;2.0363488;-2.0440907;0.6254678;-0.63604426;-2.586169;-0.8448652;0.65481454;-1.453175;-3.8005116;0.7155588;-1.3678697;-1.3768965;-1.1193858;-1.9009908;1.1499146;-4.586749;0.65979713;-1.6329404;1.6046548;0.64781153;-0.6723545;-0.65601265;-1.0826961;-0.53359234;0.7785461;1.026386;0.25466356;-0.84753686;-1.8816448;1.6201537;-0.70750356;0.21881843;-0.81666344;0.15323554;3.5266252;0.8733509;-4.0635114;-0.9124669;1.2504697;-0.16509542;-0.22957481;0.2890719;-1.4939555;-0.19559413;-1.0819535;0.53141505;-1.0627173;-0.8979683;-1.8602135;1.6765542;-0.72795755;0.45686576;0.048200063;2.6307695;-1.1468157;0.7927266;-0.09496901;-0.96984583;-1.6370142;-0.5839641;1.3106123;-1.8659093;-0.88750595;0.033742707;-2.8473873;0.05446692;-0.05123483;-2.1997015;1.1369407;2.5451503;2.763473;-1.4811037;0.12664333;1.725809;3.7459671;-1.9986264;-1.0678575;0.44506708;-6.1061325;0.45737183;-1.2771612;0.34794846;2.827126;-0.81115526;-0.03035508;-2.3694139;1.4455643;0.67671937;0.19938405;-2.0728774;-0.37694252;0.48233917;0.6737189;-1.7413137;1.0432419;-1.858006;-2.4702613;0.468567;-4.4799957;-2.9529693;-1.1104494;-0.269412;-0.3070222;0.25894123;0.0052934755;3.6869295;-0.22805189;-2.2245526;-0.08468809;2.5101216;-1.7847769;5.1860223;-1.5945345;-0.47215894;0.99044436;1.2424873;1.1774583;-1.4948859;1.08536;-3.1671681;1.1833526;3.5482543;-1.5123827;-0.96742684;-4.5593553;0.00797433;0.2814095;-2.1703146;-0.08744267;-0.94326216;-0.511067;-0.18213642;-0.1954192;0.44949847;-1.5270429;2.553971;1.2841669;0.31828064;-1.0673428;-2.263181;2.6778123;0.03974392;-2.5673282;2.5240898;-1.0490416;0.089790426;1.7772398;0.34127328;2.2862878;-0.5226592;-0.7539867;-0.14485174;1.4341427;4.3775773;0.6487076;-0.18866241;-2.5446181;-3.3235373;-4.393478;-0.30921158;1.1245954;0.929451;-0.15022048;0.8288977;1.1485293;-1.3586029;0.6924687;-3.0348892;-1.9501919;-2.1829522;-0.5099561;0.68078876;1.179276;1.301647;-4.4938455;0.35181823;3.281145;3.0967956;-1.7112873;-3.0481107;2.1287384;0.059738994;-2.3725882;1.2832831;1.8017257;0.79109156;2.0923715;-0.20049216
-0.6180151;0.47997686;1.3054637;-0.5053613;-1.1807618;-0.47711363;1.5927968;0.12094882;0.02911467;-0.40086147;1.3236979;1.7450559;-3.5914497;-0.6645374;-0.19309042;-2.9008818;1.9610082;0.54531443;0.04503631;-0.2182394;1.8992907;1.4747366;-0.4777686;0.2328076;-1.5726365;1.9735025;1.3375233;-1.4766829;0.63373643;-1.5940794;1.5506473;-0.7958862;0.68408144;-0.6596125;4.54785;0.7817199;-0.4030379;1.3209306;2.1375937;0.14182314;0.9795645;-0.21830852;-0.89442617;-0.633617;1.7922325;-0.35512945;-0.15775785;-0.12415895;-0.03881504;-0.55910385;-1.1216124;-3.7022727;0.07751379;-0.1569913;-1.2322263;2.2901227;-0.84131104;1.3831921;-0.92259836;-1.2045503;-0.31745622;-0.71167964;-1.1280864;-0.8721359;-1.0840151;0.6530764;-0.53995323;-0.11503826;-0.09265129;-0.090583466;-1.3088611;1.3707767;0.87326753;-0.31006682;1.9782531;-0.026567418;-0.63286626;2.5177155;2.313529;-0.8826407;2.5527039;0.28070906;0.118081816;1.5724264;0.13339315;0.65286833;0.6503861;-1.176993;-2.5848458;-0.89222467;-0.29755008;-0.068095095;-2.2817695;0.8575377;1.8129458;0.20077996;0.2555398;-1.7816756;1.0476075;-0.6133195;-3.119902;-1.6397438;0.12674247;0.96698856;1.1361452;1.476383;0.6843751;0.8926778;1.9547576;0.4769769;0.40642223;0.19554234;0.38464844;0.21855006;0.07776474;-0.9523463;0.6578789;-1.2880824;-0.09331555;-4.276463;2.483541;-1.755028;2.129397;0.8572992;0.854031;-2.5404377;2.5919619;2.9863026;-1.9562284;-2.2310205;0.5854246;1.7380551;-0.4049976;0.99222696;-0.61599576;-0.15529546;1.4473679;-0.11906658;1.5614944;2.109207;-2.7980683;-1.5884007;-0.5636951;1.8412718;-0.0796165;-0.7741963;1.0805242;2.7106502;0.36122167;-1.4428793;-3.4603624;-0.6281426;0.6623298;-0.28791294;-0.6199848;-0.55050504;-0.74370277;-1.7882612;3.056446;-1.3374205;-2.1622202;2.1312313;0.22048877;1.6052834;-2.1794956;0.8491242;2.1544309;-0.8015389;-0.8419379;-0.03160009;0.61936396;-0.27411973;-0.5812198;-4.180086;-0.21252723;-1.0668625;-2.5426042;1.6675552;-0.37940216;-1.8511119;1.5311221;-0.9424661;0.010110381;-0.53177685;-3.5444975;-1.62383;-1.1711282;-1.5435766;3.104011;0.8280955;-0.27581936;-0.3652881;-1.6677096;-0.5461365;-0.58630794;2.3517368;0.32660314;-0.8041464;0.8596202;-0.42655164;-0.17734475;1.5578185;-1.2731018;-2.0195246;1.0700562;-1.336786;1.9278578;0.813665;0.79856884;-2.5767763;1.7560744;-4.9322395;0.9567411;0.19169804;2.2545495;2.7443807;0.86642516;-1.3110473;0.28600377;-1.6316154;1.0725484;0.038292885;-0.8614155;0.06739482;-1.6152655;-0.087594874;-4.5517526;-0.9514489;1.1097281;1.1723274;-0.2345925;-2.645079;0.15438807;-0.29500714;-1.0787538;0.71608824;-1.5733439;-3.18692;0.11537029;1.1451586;-1.725512;-0.9370129;0.9893282;-1.2232602;0.61060846;0.23664394;1.0017033;-1.0674988;-3.7619596;-1.8672163;0.7024833;-0.25362372;-0.10560134;-0.40249586;-1.9265717;-0.623841;0.2483384;-2.7130618;-2.0415497;-1.9315271;0.7753745;-0.2640567;0.7571276;-4.6048346;-0.85931206;0.91764784;1.9576224;-1.6266247;-0.89019;4.1971064;0.8254934;0.7327772;3.3373113;0.7728531;-1.2742753;-1.3381892;-1.9392228;1.4965879;2.4772906;0.9326972;0.68291885;0.7776098;0.295014;0.70480746;-0.43840626;-2.5541055;0.32146135;-1.1995796;1.4656808;-2.7743664;0.73613465;0.74431205;0.8155395;0.26143712;0.24150893;1.5019481;-0.0011249839;0.99933404;-0.06607435;3.0385964;2.0519898;-0.66294724;-0.89401937;-1.9390749;0.39546278;3.0530868;1.1508735;-0.13333316;-0.50780916;-0.23455448;0.5267952;1.3799208;0.31678674;1.4899368;1.6174152;0.13363506;-1.5622662;0.20806134;-0.012907381;-0.67398095;1.7537259;0.9142362;-3.9758754;0.21233356;-2.4662917;-4.7751637;-0.31773737;-0.6166442;-1.419957;1.2053179;2.1172073;-2.952236;1.6543281;0.20104368;-1.2644808;-0.9658993;2.1498597;1.0600317;-2.0630689;0.39337778;-1.0725935;-0.8373525;-0.7712883;0.11116226;0.66064125;-1.5198458;0.6234084;-1.6647272;-0.09442859;-0.4287238;1.268442;0.42424977;0.4707028;-0.51232356;0.6515522;2.1047916;-1.2794137;1.9169406;1.4539918;-0.92040306;1.4026923;0.49400356;-0.16413794;0.7020605;-0.04236718;1.4738286;1.0672323;0.84303117;-0.05007649;-1.416694;3.2296479;-1.6997496;1.8271412;1.0393221;-1.0843719;0.73470545;-2.5164373;1.8778538;-0.87064385;0.8817086;-1.4968435;-2.4506783;1.6048551;-0.9458715;-1.7642504;-0.46381253;1.6138408;2.6199741;0.45204583;1.6750408;1.3735265;-1.577248;0.12080027;-2.2003255;-1.8232018;-1.1939404;-2.6873827;-1.3204907;0.6666198;0.7215551;0.733017;-1.8173249;1.2546263;-2.5574963;0.93493634;-1.288502;-0.45514148;1.5195737;0.5680253;-1.0205739;-1.0281539;-2.336202;0.19201972;0.7633894;-0.83523047;1.6304226;1.6078875;-3.0161648;0.3559681;0.79697055;1.6821887;-1.7517236;-1.4758239;-0.063369855;-1.0795317;-1.5633963;2.8608234;0.10697185;-1.1807895;-0.12177044;-2.0868828;-0.41613087;0.86893296;0.5053271;-0.76672363;-0.55751795;-0.67646277;0.35431093;1.1083777;2.805347;0.022513537;-0.96852744;-2.5529988;-0.40485823;-0.49896646;2.4240282;0.35778436;0.5168914;2.2221909;0.61997116;-1.8760105;0.17623062;0.34068033;0.7972954;1.3532453;-2.1917768;-0.20482455;2.0538602;0.76173323;-1.1665498;-1.6940148;0.3554526;-0.7236469;0.40197855;-1.5622158;1.559154;-2.0900803;-1.8687708;-0.17391719;1.8303981;-2.4107642;-0.078671046;-1.9220861;-0.5204525;1.7499999;0.24517134;-0.16612168;-1.5266206;-0.6243125;-0.83030206;0.034198135;1.8077165;3.9593108;1.8430563;-3.5682464;-0.4998346;-0.3814953;-2.320087;-0.108718984;0.72903055;-0.29874653;0.6189635;2.2773917;0.78944236;-0.56040996;-2.8000243;-0.43388963;4.25209;-0.605827;3.139598;-0.68545634;-4.412596;-1.0523832;2.6566541;-1.697813;-0.74987966;2.1289806;0.12893263;-1.2926447;1.9286339;1.2717224;1.6009009;-2.7447054;-0.5214307;-0.2889071;0.44004712;1.3066937;-1.9626675;0.7209549;-1.2225513;3.0979276;0.93722653;1.0809374;1.2816819;0.3797591;3.7877302;-2.015692;-0.21791741;-0.16807446;-1.6257999;-0.25383234;1.6758863;1.7994081;1.5095164;2.6358328;-0.7099799;-0.92506075;0.70043004;-3.1040306;-0.2922506;0.9206836;1.7773858;-1.3765278;-2.1575632;-0.1337604;3.2943592;1.1428179;-0.10096146;-0.92236876;-0.90563256;0.06712325;1.7726157;2.7768602;0.4207926;0.903422;-2.1664927;-1.6485282;-0.31400236;0.6914807;0.5706376;0.4355196;2.7565532;0.5683207;1.023038;2.9938343;1.3550787;-1.2311683;-1.1703817;-1.0160851;-1.3819977;-0.6523946;-1.1146758;2.9435482;1.3733859;0.31588396;-1.4576379
0.5335546;0.6601932;0.43824652;0.09264548;0.44203278;-1.6074462;-0.17079823;-1.00529;-0.23692763;0.29360574;0.040779352;1.1019392;-1.8979657;-0.911173;1.113795;-0.0823737;1.612199;-1.0947161;1.4238622;-3.0800085;1.8681005;0.9845137;-3.042381;1.2790929;-0.8635526;0.5618395;1.7591163;0.11227195;0.66207415;-1.2795646;1.2471476;-1.2188591;0.9946529;-1.5810891;-1.0150764;1.7092907;-0.33867422;-2.7592542;-1.8092175;-1.5366851;0.8283984;-0.7845624;0.9474677;-1.1496111;-0.4232836;3.4524236;1.2046425;0.15756917;-1.2364416;-1.0537342;-2.76383;0.7524513;2.0448792;-0.6642131;-1.2992157;1.3797858;0.58741206;0.80757785;-0.212707;1.9327385;1.291785;-0.5218813;0.4553567;-0.42732316;-0.95775265;0.45093083;-0.77282506;0.8437487;1.0591207;1.9416603;0.7529945;1.5520717;1.6282905;-0.51468277;0.22957276;-0.30870453;0.30728137;-0.6358101;-1.5168955;-1.6457503;-1.2512031;-0.39973417;-1.2613912;-0.61960727;0.46502006;-0.15848923;-1.2859396;0.08187257;-0.8268734;0.16210939;1.038984;-0.8674693;1.1725059;0.380785;0.96456754;-0.17911391;2.3819005;-2.6362321;0.98420674;-1.0120012;0.4849943;0.43015984;0.08125938;-0.18359844;-0.09909932;0.66606015;-0.832153;-0.680917;-0.693162;-2.0458517;1.1394151;-0.042337563;-0.75964224;0.2913507;-0.07628437;0.24456532;1.4950323;-0.6273012;-1.3584645;0.81823933;-0.43659005;-2.1686296;0.38605466;-0.50770015;0.42384335;-0.26426825;0.93857336;-0.5898343;-0.38735932;-2.8315272;-1.5596143;-5.724654;0.11396492;0.36799425;-2.6832123;-1.141512;-0.7777567;0.7343259;0.8307091;1.6683275;0.14595842;0.5665468;-1.6363542;2.0457525;-0.90519536;0.6226969;0.5341494;0.7453309;4.0823393;0.91562486;2.2242146;1.0175834;0.8631054;-0.88967615;1.1322582;1.2144374;-1.1605732;0.67961156;-0.17025934;-0.77743924;0.18737088;-0.36159745;-1.1453404;1.2220205;-1.7863673;0.7583271;-0.038449027;1.0137513;1.274492;-0.59858257;-0.010294069;-0.14771782;2.8207703;-2.3739526;2.778641;-0.62444204;-0.40791583;-0.8851993;0.63406724;-3.9913304;0.39924243;0.4492427;2.493599;-0.13902055;-0.86097956;-0.09441142;0.98839253;0.8483535;0.5052057;-0.6940588;0.13056402;1.2075306;-4.649636;0.23528352;-2.898062;1.0927116;0.6491518;1.2358149;1.5643123;0.31376243;-0.64558834;0.78813034;-0.37720057;-1.7228558;-2.178387;-2.7655172;2.359376;2.517181;-1.3819922;2.2259216;-0.05646677;-2.802663;0.2859369;3.9427123;-1.3545319;1.9247664;-0.89790595;-0.45865476;-0.090392835;0.47231996;-0.5556799;1.926704;-0.23586354;-0.64113647;-0.90046483;-0.8920755;-0.58634007;0.99449897;-1.0914351;-0.8095018;-1.0959305;-1.6618884;-0.5043985;0.10235045;0.48107144;-2.126915;0.20867738;-0.35093397;1.7473553;3.3311968;-1.0002683;-2.7312264;2.7879405;-0.26568523;1.2030412;0.791306;-4.338178;1.8068677;-1.0708696;-0.30462492;-1.4384934;1.1597586;2.583538;2.2434106;-0.54976493;0.1290507;-0.564459;0.64572376;-0.66213644;1.1437863;0.6066801;1.7579478;0.8057082;2.6806078;-0.5452968;0.56791174;0.25712472;-1.2572546;-1.8186654;0.8156757;-0.42507112;-0.18924993;3.0077076;0.38552296;-0.16080645;-0.5922983;-1.787644;-2.4917128;0.61850876;1.7188052;-2.929174;1.6458069;-0.080002874;0.109158605;0.9531437;-0.5275646;0.05159305;0.610059;0.2632475;0.38673604;1.7517022;-1.0882299;1.6532629;2.5412984;-0.5613231;1.4399204;1.1694417;1.4221522;0.86592144;-0.32366294;-0.30552274;-0.5686246;-1.7831964;-0.13715114;-1.7487481;0.7570601;0.18795717;0.64655256;0.4434414;1.248345;2.887599;0.33831373;-1.4723126;1.5626123;-1.5510734;-1.2377468;-0.39337352;0.8454296;-2.0341353;-0.30527952;0.47901708;0.5352348;-2.386301;0.50830656;-0.058043055;-0.8372433;0.80908597;1.7470598;1.3611145;-0.35341412;-1.3709832;2.1824894;0.09628139;-1.2292817;-0.16522905;0.7531035;-0.5802149;1.4229444;0.7935424;-0.82013553;-3.361362;-2.1175961;0.67343414;3.6728454;0.40579492;0.84048235;-0.046304453;-0.2614038;-0.11596551;-0.41351804;-0.008745227;1.4821777;-1.2578515;-0.46409288;-0.45530808;0.7188175;-0.5425626;-0.2284117;0.18695523;-0.7336993;2.9177063;0.5489023;1.2877966;-0.30588615;0.6131047;0.84249973;-0.507099;1.5531125;2.069911;0.13717484;0.8855704;-1.1412966;3.1891718;1.4703847;-1.9816772;-1.2254;2.1800287;-1.236292;-0.94070905;-0.3610325;-1.45363;-0.93222535;0.90540916;-1.9622105;-1.0531732;-0.8168129;0.06004857;1.9250033;-1.8514104;-0.57385343;0.4957248;0.27752885;0.79956794;-1.6129855;-2.0346756;-1.1918415;0.9156357;0.8696201;1.8995905;2.8033237;-0.244901;-0.046265304;-0.7783773;-3.0744872;-1.2864332;-0.7385042;-0.9326618;2.6788573;-2.1009328;1.1564785;-0.34343803;-1.0558226;-0.9837772;3.1171005;0.85864836;0.7670182;0.85367686;1.2560031;0.39206833;2.1213825;0.5233167;-0.7612721;-0.21510546;-0.018378098;-0.8887111;-0.4764862;-2.7213979;0.01233529;-2.0936852;-0.057968616;1.792142;1.5248551;1.1587687;-1.2542237;0.8152769;-0.29710308;-1.4150982;-1.1031559;-0.3924829;0.31337363;0.19729167;-2.140252;-4.1194577;0.4030086;0.6106124;-0.7436147;-2.8125944;0.60562223;0.3607525;0.03006895;-1.0377767;-5.164464;-1.382204;0.33653918;0.472089;0.18125142;1.1552602;-0.6032631;0.6604658;0.48480687;0.65948844;1.7207804;-1.7076504;-0.7338402;-2.1182678;0.10347394;-1.1987408;0.8700541;0.72301817;-0.99804115;-2.6398857;-0.28364995;-1.2213222;1.0990316;0.7505416;-1.8266377;1.3556793;-2.031234;1.1378169;0.030201608;-1.6276511;-1.2789774;-2.8916066;1.9684912;-0.39425442;-0.23384534;-1.0749002;0.9362752;-1.1062007;1.2571725;1.25125;0.90454733;1.5132027;1.2637427;0.27492976;-2.3495226;-0.72585565;-0.49475983;1.0335077;-0.25909984;0.63758963;-1.1708852;0.59897536;-0.5927724;-0.72668993;-0.5128299;1.6197603;0.35291034;1.0805568;-0.96563935;0.3907699;-0.4441903;1.4281874;0.008605058;0.06165318;0.8942588;-2.871323;-2.5472226;-0.42859113;2.0501883;1.1410791;0.029392438;-1.4202518;1.1812457;0.4353049;1.1078738;-0.5709128;0.18955375;-0.31000066;-1.5622298;-1.8702185;1.6089796;-2.1118925;0.7000254;1.8259991;1.3561333;-0.5209587;-1.5338718;-1.6345114;0.1970475;0.5243731;-1.318997;0.26517245;-2.2242236;1.3612337;1.233917;-1.2085541;-0.95404214;0.4624798;1.5270609;-1.4343259;-0.57235694;1.0348983;2.2998843;-0.31774232;0.8047821;-0.276447;-0.07991756;-1.0175524;1.3041627;-0.52219665;-0.011837036;0.89351875;1.5019126;4.5440702;-1.2610788;-0.4992842;1.4479488;1.9186928;-1.0249833;-2.4014509;0.5262112;0.087045446;1.3840735;0.1801733;-0.30833557
-3.3519597;0.42820746;0.4351397;0.1643206;0.573467;-1.6226649;0.4663287;0.029393502;-3.167756;-0.18211402;-1.1361185;1.0613914;0.8150123;1.4112277;0.8304417;-0.002279103;3.912259;0.48144773;-0.80766356;0.30800116;-0.53560704;1.1346526;-0.24602896;2.8696399;3.1019452;0.6000964;3.1917093;-1.2768302;-0.37042016;-0.8451671;0.97278327;-0.11123022;0.02769749;-1.3300056;-2.0086763;0.40178877;-0.031252895;-2.8847864;-1.1699618;0.7890624;-1.2434046;0.95332044;0.4163019;-0.8424944;-1.3140132;-1.1530186;3.0921028;2.1168396;-1.0299978;-0.72570616;-0.2515969;0.34856895;-0.30411735;-1.2434992;-1.061496;0.72344655;-1.9119508;-0.36892182;1.2201658;-1.8564659;-2.227636;-0.6243215;2.118735;-0.30748618;-0.96847886;-0.84228045;0.31377664;1.0584373;1.001908;1.4419506;0.29743242;-0.789122;-0.12837157;-2.3273203;-1.8859335;1.8275167;-0.20879227;-0.23031063;1.1269361;-1.2303085;-1.0687566;0.6566451;-0.4881527;-1.2101227;-1.469555;-0.21232758;-1.0705589;0.6612565;-0.5846568;-0.6985792;0.5539399;0.21948873;0.8422081;3.2068448;-3.6033556;-0.6260324;0.12451402;0.27263469;0.55424;-1.3521049;-0.77273154;0.6461947;-0.019647976;0.55052286;0.84862304;-0.32307577;0.12261456;-1.6243329;0.62238216;0.8981115;0.93961865;-1.1743491;-0.7816661;0.3730943;-0.82458574;0.757569;-1.4222754;-1.8896941;-0.6327736;0.9814465;0.18070237;-1.9558731;-1.1412629;-0.055518813;3.34688;1.6414337;2.4060593;0.36157352;-0.6790172;-0.7787243;-0.39795476;-0.10787696;0.609773;1.0158623;-0.59838283;0.64443046;-1.4200488;0.6329535;-0.593448;0.9513666;1.6444339;1.3639067;-0.35406545;-0.5524211;1.4408408;-1.0673368;0.69152707;-0.43446997;1.2931048;-0.99792373;2.0107996;-1.3973976;-1.6210718;-0.028759535;2.3554003;0.18679613;-0.93290526;-0.019950334;-0.97478753;-1.4343449;2.0235598;1.7573422;-0.732278;0.6903013;-2.351387;-0.014728341;-1.4899036;0.57117987;0.30139217;0.022376383;2.3459795;0.7376704;3.3321314;-3.564363;-1.1333238;-1.4733686;-1.3426448;-1.4916027;0.46137846;-1.6548543;-1.5391796;0.078392066;1.9851903;1.1805786;1.7357906;2.6471884;-2.2095778;-0.34023613;-0.9607607;1.3126796;0.99014723;1.0960616;-1.2438881;0.5835821;-2.7093153;1.5255746;1.162711;2.117237;1.9951439;-1.0178103;-1.0190673;0.17065233;-1.2493956;-0.7438447;0.444058;1.5730478;2.146747;0.28812855;-1.4208726;-0.90178317;-1.2137637;-0.6805567;-0.036330655;-0.23264474;-2.4661264;-0.8360057;1.628585;-0.27977517;0.97427607;1.0862916;1.8344293;0.3074329;1.1338643;-2.7883587;-0.16492514;-1.5335684;3.2654145;-1.6279671;-1.758112;-1.8172557;0.0027793008;-3.1145346;1.7168128;0.20291388;1.3985331;-1.4153295;-0.44474685;1.2023005;1.3732748;-0.96724755;-0.072999254;-4.4641647;0.22119327;-0.30747244;-1.8148034;1.7194711;-1.1539522;-0.05510708;-0.37125573;-0.5698599;-1.547605;1.5169446;0.59992236;1.2633458;-2.3985887;0.89177895;-0.43961748;-0.010992303;-1.2103566;0.42491767;-1.8132107;1.4029773;1.4008851;1.3198794;-0.46126455;-0.8875411;1.3094175;-1.4678159;-1.0333444;2.018118;-0.25745967;-2.8289845;3.3910005;2.4568267;-0.044840883;-2.5450423;0.25447282;-5.3722744;0.48323527;1.3207537;0.30810776;1.3288654;-0.023620972;-0.93980026;1.6971848;-0.9769648;1.0109239;1.0734619;0.34353372;-0.75433993;-2.9602842;-0.27706313;0.010686149;3.3885446;1.0639839;-0.65966976;-0.26510394;1.5853205;-1.3197148;0.35904652;-0.5921921;0.58707684;-4.3412166;0.20265523;-1.9226702;2.17601;-2.3104997;-0.34693378;2.5400698;-0.09865079;1.0498888;0.27746382;0.8362627;1.3900726;0.19476761;-1.1010638;0.3226714;0.72504175;1.4346167;1.3148012;0.35304543;-0.11817463;2.9833858;2.8994026;0.50582266;-0.44733196;0.9784492;0.8535922;-0.211719;0.055606026;-1.8870124;-0.25894997;-0.25446984;-0.32622296;1.695733;0.773507;-1.932706;2.7106426;-1.2142402;-0.5384914;-0.35200644;0.33592188;1.1318698;0.75235564;0.3213256;-0.022165742;-1.4580631;1.7122723;0.15309975;-1.4644779;3.8376515;-0.32526624;1.3017267;0.5578522;-1.9975762;1.1826948;-1.4124115;0.78645605;-0.98230624;0.64533955;0.5002823;-1.0483675;0.9364519;-0.027905209;0.76524144;-1.4607463;-0.32698506;-0.08594503;-2.457236;-2.964041;0.17249098;2.1346054;1.2989197;-0.23500243;-0.18367125;-2.4857883;1.8019913;0.106287524;1.5163544;-1.9019933;1.9196284;2.7190533;-0.5852681;-1.4568686;0.7972762;-1.5277994;0.6612232;1.4805938;-2.2112532;-0.5347917;0.5874516;0.56377834;0.8800524;0.17789538;-3.6580095;-0.7461909;-0.8009126;1.26136;2.0924892;-1.2157667;1.1088604;-0.6976186;-0.12236691;-2.426994;1.2463503;-0.045823548;0.40566757;2.1452672;0.5667178;-0.569793;1.32469;-0.22370523;1.7571833;-2.2506018;1.1720678;-1.0128715;-0.5069962;-1.2055303;2.7452455;1.867773;-2.327222;2.1903543;0.2710443;-0.2327444;1.5357755;-1.3082345;-0.38517964;0.39985824;-1.4481908;0.30224526;1.3201894;1.8296413;-2.3371613;0.27896547;0.32730594;-1.2280762;-1.5389857;-0.10334932;0.61066;1.3302821;-0.5332231;-1.5060995;1.716628;-0.17253618;-0.63706374;-1.2098156;1.304017;-2.0132382;1.3104507;0.85547274;-0.14590977;1.4424758;-1.395371;-0.77340555;0.22063057;0.49684528;1.3819866;0.2548395;0.19035009;1.1128594;-0.33566833;-0.47958237;1.5972861;1.9121193;-0.7585046;1.5933394;-1.5674661;-0.28025135;1.2763443;0.19856842;-2.411371;-0.49946693;2.0203333;2.8787332;0.5338688;-0.10280484;0.30350357;-2.2904007;1.6171017;-2.0469275;0.3417186;-4.6034503;-1.3387226;2.640536;-1.3274021;-0.14018725;2.128268;1.0527292;0.9591638;-0.5617089;1.4829915;-1.3354278;1.3903825;-1.0631964;0.40858406;1.0978886;-1.2096846;-1.8399715;1.1030124;0.7278898;0.2240792;1.1648535;-1.0130852;0.16952771;-0.025548186;1.0904533;1.5946859;-0.29430807;0.80586135;-2.0843892;0.5960043;1.9267871;0.2013611;-1.6160624;0.06304572;1.5212468;1.9676307;0.2496515;-1.7512445;2.9900389;-1.7264212;0.543474;0.3685294;-0.71885073;1.6179576;0.7907552;-1.0464847;0.9644939;0.6776141;-3.8165948;1.009227;4.2295218;-2.5604703;-1.4436281;-2.730711;3.3002346;2.282445;0.42861274;-0.7833556;-0.9957206;-1.1410104;0.23628503;1.7794279;-1.5062776;0.45781317;-2.0173762;-3.5388002;-2.1644857;-0.43196347;4.015091;-1.1538532;0.61600006;-0.3735951;-0.41786456;2.7040277;-0.19482104;-0.1926047;-1.0749443;-1.595561;1.1182389;1.0592257;0.09451509;-2.0084162;0.5854384;-1.7042769;-0.40395975;0.3262813;1.0660744;-0.2343558;-3.5077865;0.08718234;1.9606816;2.006941;-4.6171784;1.1502283;1.703334
-2.8648696;-0.1267569;0.17440486;-0.07550423;-0.8771011;-2.354818;3.6311324;1.0832357;-1.022442;0.6352069;-0.75662696;3.1345189;1.1915592;0.088765524;-0.6400676;0.7884986;-0.07656057;-0.8903819;0.895773;0.54632705;0.6683179;0.49822444;0.06751435;0.908603;1.3439225;1.6340007;-0.15116583;0.85828793;1.1111737;-1.9525766;0.39896166;0.9890146;-0.7312653;-0.35409686;-0.6466797;-3.1354277;-0.73117816;-1.7525667;-1.960917;0.89275795;-1.078845;0.5789987;1.3982568;-5.161616;-3.0703387;5.1056447;-1.8789414;0.27417353;-1.5373564;0.5592926;-0.08033602;-1.299184;1.8775574;1.1105552;-4.225626;-0.5388801;-1.0831491;0.16390356;0.23751038;0.34815383;1.9443432;0.011567822;0.76190346;-3.2111607;0.7832865;-1.9906877;0.019130442;0.7787888;-0.4645076;0.30213556;0.15147464;-0.45805758;-0.7932602;0.9788858;0.15243644;-1.252379;1.1210704;-2.1425009;0.7413206;-2.2224696;1.4361603;-1.5439444;0.5128448;0.9352648;-0.16666813;0.49265292;-0.5360506;0.55733645;0.15348583;0.421979;-0.53743505;0.365229;0.35874307;-1.2448643;-0.49530852;-3.564256;-1.1645788;-0.82675695;-1.0038697;-1.0406246;-0.02875851;0.4480749;-3.2968926;-0.67663586;-1.6564348;-1.268518;-0.7216308;0.37077284;-1.1397302;-1.2258483;-2.9074264;0.38271374;0.2534805;-0.22412437;-1.9708704;-0.019764679;1.2555634;-0.9691109;-0.15495121;-0.28065455;2.2937534;-3.137815;1.1892762;1.3772475;2.3106468;-1.733966;-0.28710225;0.34854218;-3.6228628;1.5543985;1.8079643;-0.37761885;2.5069625;1.9644616;2.3566084;1.4595324;0.92438585;-1.6352192;0.094298296;-1.9444252;-4.330882;-0.053749494;-2.3316114;0.2908576;0.17449631;-2.0270104;0.31690228;0.64179164;0.86620253;1.433765;-0.6526284;-0.31921053;-3.5042198;0.74802065;2.2267272;0.27218214;0.47528455;0.021118749;2.237572;-0.63732576;3.4876108;-2.1505733;1.3215591;-0.9402844;0.029289901;-0.3295996;-1.4184393;1.4043529;1.5720962;-0.20992354;-1.3070785;0.26019484;0.8896215;-1.1833887;0.45337102;-0.8073297;-0.8292885;-1.7582432;-0.90773195;1.09774;0.84085906;-2.206025;0.10306825;-0.73709655;0.107915446;-1.0680909;-0.49632737;-0.7837666;-0.47638306;-0.37063035;0.30365872;0.7133213;-1.4326502;-0.59329695;-2.1203763;3.1033406;-0.09239494;1.6226007;0.22670512;0.65689737;-0.265956;0.9217463;0.69476426;-0.19402999;0.49019802;-1.5168437;0.0747484;0.9793461;-1.0460013;-3.1581514;0.7230726;-0.43536752;1.3560992;-0.15429454;0.84988564;-5.290991;0.34523985;1.442954;-1.4161861;0.78292465;0.129744;-0.006160792;0.34696585;-0.21563587;-1.5965563;0.6983388;-3.441124;1.9484859;-0.13702886;-2.939509;0.4229386;-4.3788223;0.94746214;-0.5385978;-0.27429447;-3.2699003;1.7555871;-0.29014793;0.5029515;0.08183409;0.49585518;-5.634314;-0.24343723;0.042547975;-1.2996296;-0.8117136;-0.93074304;0.6081284;0.53142613;-2.1509354;0.78175896;-0.51646316;0.7546963;0.6241823;0.14613387;1.880719;1.2174864;-1.5342315;-1.7997885;-0.57139766;-0.86743325;1.1570091;1.3633251;-1.323209;-0.54297477;-1.3090512;-1.0126776;0.30539817;-1.7181548;1.2708786;-0.80873793;-2.5841782;1.1450138;-1.7853884;0.22280803;-0.25222835;-0.21165442;0.09438617;-1.0795285;0.86727583;-1.9555968;-1.018916;0.73010087;-0.6134379;-3.0134661;0.85487145;1.0887023;-0.047514632;-1.6219615;-2.5425775;-0.033894233;0.028197926;-1.2420843;-1.6286584;-0.6500634;2.7889006;-1.7339474;-0.6123877;0.7391235;1.355411;-1.2162205;1.2884746;-2.200232;0.15284853;-0.02328897;2.0018966;1.4331822;0.2759787;1.69113;-0.00030269253;-1.1208017;0.48349497;0.9200166;1.2962372;-0.46466267;-0.36104375;-0.7836858;-0.14251259;0.6584167;0.77827084;-4.065227;-2.2058878;2.2945576;2.7052488;0.39225492;-1.7357343;0.9166672;-0.051883858;0.43027252;-0.7040729;-2.0487196;0.24147253;-3.455768;-1.8966508;-0.24280247;-2.6744986;-2.0142062;-0.40057975;-2.3980486;2.0814075;-1.5571475;1.5393326;0.5218201;-2.3326447;-1.1938155;2.4811904;-2.393431;2.4799914;-0.18237081;-1.8381369;-1.0778388;-0.3999101;0.204207;2.3373373;0.22013474;1.9176017;-1.1952015;-1.6654351;0.7873235;0.9622433;-1.4571965;-0.25864252;-2.6331737;1.3127024;0.44660443;0.44746417;-0.2812747;-3.246042;-1.0549115;-1.3215896;1.086513;0.6045929;1.4931198;0.73383975;-4.723649;-2.9240353;-2.4294176;1.0391054;-0.47052917;-4.335746;2.2176945;3.8075309;2.2740238;1.7513145;-0.66504806;2.329145;-3.1846797;-0.43145648;-0.48238027;1.5381025;1.5261894;4.4703555;1.2357546;1.1229732;-1.8193287;-1.6152955;2.7379496;0.6625302;1.5245156;0.062377032;-0.17755467;0.08688321;-0.5718058;-0.85861915;0.759542;-2.3711429;1.6978446;0.98695356;0.49623305;-0.4775703;-0.5880712;-1.2001525;1.7265517;2.5124497;1.0828799;0.3676458;-2.3329005;0.786649;1.2548724;0.97866017;0.27467212;0.15836604;-0.7027267;1.031652;-0.82513565;0.9732212;0.46414325;-0.07977428;-0.008309437;-0.8111875;-0.7392448;-0.53501344;-0.59847784;0.5652912;-2.9068336;-0.17932835;-0.51255935;0.65584123;1.7726762;-2.1795435;0.231094;0.75642645;1.4182897;0.6221642;-0.8706037;-0.072244436;-1.4450749;0.5663968;1.699297;0.85461754;1.8701365;2.7347965;-3.1080093;-0.2991652;-0.45622995;1.6786419;-2.9219713;-0.7545283;0.86698234;-1.3924515;-2.6509633;-0.97722006;-0.5832307;1.1500198;-0.6774826;-1.1272771;0.15249138;1.8129954;1.5278192;1.7680901;-1.5822322;-1.9119849;-1.7128166;2.0497587;-0.13897441;0.31017214;2.3411138;0.8935927;4.4093604;-0.1885588;0.71393645;-2.0042202;-1.698702;-1.7788833;-2.2454886;-0.8384672;1.373832;0.95438373;-0.028488774;0.20875947;0.6920828;-0.52897674;-4.451842;1.2990928;-0.74327356;-0.24671169;-0.47325334;-0.20539539;0.8541024;0.98497844;-1.2651778;-3.2743454;0.058066793;2.3562481;-1.4595354;3.182927;1.4640968;-1.0208882;-2.5376098;-4.7345505;-1.0093613;-1.0985327;0.48511282;0.88071483;-0.69754314;1.1289893;1.6408198;0.27845046;-0.6254427;2.1101336;-0.72864616;-1.4517244;0.24792528;-0.19484945;0.13971727;-0.4632073;1.1514742;-0.7537307;2.504855;-2.4349422;-1.8966359;1.9252533;-1.8460395;2.3570075;0.05300469;0.9599541;0.71829426;2.366205;-1.7868176;-1.545985;2.4744284;0.8017052;0.4927168;2.1060383;-0.73099846;-0.33120376;-3.4995885;-1.8047202;0.80481505;0.13920048;-0.8517852;-0.42732474;-2.9766862;-3.392493;0.32301217;1.1745515;-0.807434;-0.3358749;-2.853344;0.2464008;-0.3924238;-1.7524335;1.5154243;-1.8374571;-3.5631895;-0.49139595;-0.49080172;-1.7691168;-3.1283057;-0.52882683;-0.87920755;-2.96052;-0.09420596;0.86008894;-0.08140373;-3.401465
-0.8186285;1.0403007;3.647717;-1.4042557;0.38138762;-2.5303288;0.4477134;0.5273656;-0.6132422;1.8678406;-0.3001273;0.2780421;-0.83145154;-0.8083931;-0.86229545;0.7754058;-3.0463085;1.8653476;1.4804454;1.8388273;-2.500077;-1.6468612;-0.12442643;0.19213352;0.75493413;2.1191363;0.2778692;0.9246032;1.9743581;-0.41051745;0.06795142;-0.63045704;-0.20374496;-0.037906714;1.0502855;-0.8845747;-0.14150406;-0.8934147;-1.5359125;-0.78908795;1.7243503;0.5453452;-0.5440201;-6.197885;-4.1964846;1.1482017;-0.04985315;0.7988311;-1.4559827;0.88641274;1.4561099;-0.7341675;2.4488106;1.1666402;0.58029675;0.7237079;-2.5216713;0.5211341;-1.4743041;-1.911771;-2.40602;-2.7290819;1.8330643;-1.1448675;-0.6079893;-2.2849793;-0.40525258;-0.5372782;0.98422503;-2.0303466;0.60492796;2.6826518;-0.39849594;-2.721824;0.4619688;1.5346379;0.7446917;1.4874203;2.8280368;-0.38467643;1.6067623;-0.4321919;-3.680209;1.5241431;-0.32498732;1.233165;0.19901356;0.6131654;-1.7051004;0.5153761;-2.2180521;-1.1732363;-2.1901708;-1.0755942;-1.2425654;-0.99672955;1.9311998;-0.5191425;0.54581916;-0.75944847;-1.0052383;-0.5965321;-0.6437378;-0.38278583;0.36739314;0.107521094;-0.93945605;0.2819973;-1.0530732;0.5138477;-1.0856624;2.0504615;-0.8550543;0.3356306;-2.521084;0.8674467;0.7538341;-2.2788613;0.3928405;0.5506351;1.9933347;1.1363721;0.7195135;1.7882806;1.9578985;-2.885661;1.0940503;0.026202213;-0.62452006;0.21320345;0.09885633;-1.2617186;-0.20723493;-1.9217482;-1.6815743;2.2656188;-2.2113826;0.8631793;2.8684332;-0.77652633;1.3233497;-1.3116999;-3.7704334;2.838159;-1.8648517;-1.5411597;0.9577571;-2.6109087;1.473994;0.6168777;0.631747;0.4556339;-1.7283914;1.5587989;0.46102253;0.39775708;-1.4519172;-1.1064383;-1.07987;0.77785146;0.32649156;0.26234046;-0.13529605;-2.0910757;-1.2303958;1.9573077;-0.3442146;0.63579553;2.240592;-0.044910956;-1.3694704;-0.56005245;1.9156805;0.25515962;-0.80101025;0.28099677;0.170609;-0.3024799;0.9596065;3.2314842;0.82720214;-3.3477116;0.21846145;-0.29520112;2.1783998;0.6456623;-0.24707505;-1.6339529;0.25898734;-0.6948708;-0.39454046;0.26720095;-1.221911;-0.9509151;1.8144618;-0.17019938;0.20104076;-0.9227235;-1.1502738;-0.9393919;-2.9658914;1.5619226;-1.2600116;-0.12947662;2.782235;-5.646835;-0.18874529;-0.03592244;3.7715294;-0.9854247;-0.9111649;0.50997823;-0.06436419;-1.1646346;2.4427514;1.0366951;-1.7671298;1.9203722;0.42002353;1.0528207;-3.2509196;-0.8451153;0.87429994;-0.14176193;-1.9945211;-1.0512029;-3.0883112;1.2625439;-1.3576684;-1.2674493;-0.6187756;-1.926433;1.0168735;-0.18419902;1.0933982;-0.40985554;1.2210121;-2.0005827;-0.79036915;0.61425376;0.94543564;-7.7635646;2.453327;-0.53222764;-0.41485307;-1.0086125;-2.796877;0.17450753;0.94623053;-0.6418033;0.7236136;-0.6609541;-0.5493573;0.99565655;2.0084941;2.6902466;1.1695719;-1.0805085;1.4072883;-0.20867157;-0.51647294;-0.4214727;1.6267933;1.4403195;-0.28715482;-2.6227982;-0.081589594;0.4370182;0.72048813;-0.82256734;-0.709647;0.039047692;4.2168446;2.9022539;0.099845506;-3.500334;0.0654727;-2.4030788;-1.0246447;-1.6504383;-2.1519134;0.08386722;2.055401;-0.88323957;0.14685522;2.6812823;0.32114184;-0.74620247;0.023449125;-3.0502248;1.0269674;-2.3096974;1.7361568;1.1505072;-0.3529369;1.030109;-1.3989598;0.20282616;0.63334715;-0.16206124;1.6776065;1.6248074;0.35035244;0.7525659;-0.1417046;0.9497073;-2.1034856;-0.41207772;0.7622917;-0.15069987;-1.4739335;-0.017483879;0.16733532;1.6300236;-0.32351497;-1.8744013;-2.8559983;-0.2583819;0.33688885;0.44063497;-1.1020058;0.115286484;1.1108257;-0.88365406;-0.87460613;1.1520842;0.26208973;2.0424805;0.48116928;-2.3242226;0.44660386;-0.7254803;-1.034913;-0.6059984;-1.8633957;-0.40880886;-0.59818804;-3.5340643;-5.1218967;-1.643959;0.10526165;0.5615703;0.47878537;3.254611;-2.2788281;1.3253593;0.37384725;-1.1325259;-0.09664456;-1.0404384;-0.67314816;-1.2354053;-1.1544297;1.0326355;-0.40876287;2.0637317;0.19673166;0.08154548;1.559781;-0.32536942;-3.8512406;0.44045562;-2.027096;-0.43997777;-0.4067305;2.0084143;-0.8640397;-1.2454321;1.161157;-0.87930226;0.53359294;2.177636;1.1937566;1.191861;-2.6050527;-2.2867267;1.3786361;2.2265885;0.64571446;-0.90442413;-0.3524826;-0.402906;1.1194968;2.7158465;-1.2136829;1.262694;0.89607626;2.803219;-0.3916137;1.360575;0.25006455;0.009982258;1.234205;1.8437631;-0.6655341;0.1635156;-1.361033;-0.83077073;1.3724937;-0.11603556;-0.00913394;-0.1560104;0.3003261;1.7615272;2.2592971;-2.119666;0.34169412;-0.73849845;0.31956306;2.0603273;1.1964314;2.1306713;1.1817961;0.3239241;1.4298618;0.913289;-3.7305849;-5.30247;-1.0074003;2.2398493;0.39656135;1.1787759;1.0029817;-1.5969466;-2.6194525;1.9117926;0.5756664;1.7207994;-0.26942843;-0.12729813;2.008117;-1.1720845;-2.3549562;-0.63742197;-1.517256;-1.4476817;-1.2741026;-0.48898262;0.03127832;-0.30695426;0.09107647;2.0769827;-3.131934;-0.26207286;1.4795852;-1.1087536;-0.15304227;2.3060186;0.021969458;0.3851129;0.45693508;4.3647513;-4.441774;0.7523269;-1.5520608;0.5920548;-1.8065118;-3.0680125;0.38842216;-1.6020316;0.25684455;-3.284989;0.5951833;0.8312778;2.5418448;0.59354347;-3.9467168;0.19885188;1.9298124;0.3487454;0.6074942;-4.5480065;-1.1944839;1.8599566;-0.76434;-0.14110436;-2.474943;-0.38674515;-2.0513148;2.1564577;2.9189887;-2.3940167;-1.2223283;-1.2777896;-1.9458349;-0.29132596;2.7289937;1.3218749;1.9719509;2.518757;1.0817268;1.2975261;2.8311567;3.1021633;-2.8042316;-3.3967714;-0.59636503;1.9123348;2.545219;3.4352095;0.7790253;-1.3850986;0.22540456;2.2953703;-3.5814254;2.6511836;-1.5847886;-0.8123749;0.37247553;1.3325287;-1.5857812;-1.2519897;-0.4477218;-1.6306258;0.12217683;1.0753483;-1.4214892;-0.7778922;0.5444244;-0.5743005;-1.1111579;-0.77854055;-0.30398804;2.9333475;0.59345615;0.92551255;0.81627965;1.0423207;-0.4876483;-3.8617847;-1.1516747;1.6986834;1.9584064;0.70527935;0.8903249;-1.2256175;1.1752483;-0.25347066;-3.7773032;1.4249232;2.92961;1.0289055;-0.8699919;2.196816;1.2353355;2.77045;-2.367543;-0.35073784;-1.4498014;-0.9938006;0.47748572;1.9491433;-0.54133844;-0.65357584;-1.6293997;-1.449035;-1.2248791;-1.1961862;3.016492;0.8807448;0.004902096;-1.2785947;2.0384166;-3.709874;0.98409945;1.5873264;-1.439564;-0.5185101;3.4536934;0.24372868;1.1539251;0.059763953;1.4345183;-0.06460528;-0.80543435;1.3783053
0.6520449;-1.5467297;2.9466052;-1.8524684;-1.1318125;-2.0622218;0.72628975;0.15312673;2.287261;-0.9033256;1.5342559;-1.8665689;-0.66660345;-0.55188465;-1.5339117;3.5794625;3.4856799;2.774069;1.1594747;0.71352696;0.624051;-2.2339928;-2.5568671;0.060507365;0.810929;0.4450948;1.1950781;-0.62724024;-0.18857838;-1.375571;0.15753746;0.12474784;0.3594608;-2.0649724;-1.0449945;-0.494151;-0.36535192;-1.5978252;-1.6269239;-0.9910323;1.2851399;-0.051312935;-0.69445103;-2.2890801;-1.1407473;1.3012137;0.797868;2.3315482;-0.045761585;2.185945;-1.0468668;-0.77637327;2.0614548;-0.6623093;-3.641128;-4.3446364;1.2325594;0.13701268;-1.0144576;-1.3765621;-3.8391368;-0.14544937;1.2342858;0.8114294;1.8237476;-0.43092272;-0.5420924;0.083045945;0.21116301;2.1847868;0.57744807;0.66370785;-0.059425145;-0.068539344;0.5068689;0.97560126;0.9562841;2.467107;2.9050658;-4.174472;-0.89564466;1.3251394;-1.7347319;-1.7537316;1.2819827;0.19763723;-0.70014435;0.9663995;-0.5019322;-0.3726579;-1.7754138;-1.3404801;0.91483384;0.8672312;0.090840414;-3.6586723;0.20352527;-4.577231;-0.31336495;-0.8447547;-0.84245676;2.8856444;-3.0149822;0.1034412;-2.9769251;1.4205115;-0.017653497;-1.1055409;0.92837596;0.08671398;-0.26626548;-0.5505885;-0.40420237;-0.3240572;-1.6704382;-0.28350413;-0.74990827;-2.0517824;-0.5498451;-0.3582496;1.0721737;0.38126063;-0.014100612;-2.710332;0.0032886493;-1.3172431;-1.0239286;-1.2518947;2.0172117;1.3081427;1.3459306;-0.63349044;0.444128;1.5546942;0.91443866;0.8338272;-1.0764992;-1.2177328;3.5640998;-1.0358984;0.75531507;0.083400674;-2.4972346;0.18538469;0.4850462;-1.1647866;0.49707723;-0.6706695;0.13761152;-0.673027;0.21147574;0.59438074;2.0981448;0.46745932;-0.41795278;1.1840082;-3.372249;-1.9038184;0.35355273;-0.9843886;0.472396;0.14764869;-2.1029744;0.8120317;0.5224619;1.2956394;1.535961;0.3893477;0.921942;0.47319263;-1.1307878;0.40457883;3.5007558;-1.4172572;1.8868594;1.4336289;0.79308754;0.02796958;1.5966549;0.15406229;-0.60451305;1.0443699;-0.002438796;-1.0206295;0.18129018;-1.1074857;-0.37136438;-0.6052725;-1.0882429;-0.5581034;0.16469163;-0.35675487;-0.6769117;-0.16639113;1.589699;-1.0731987;0.54000294;-0.19999148;0.8015994;1.7305949;-0.8178618;2.0837212;0.99562055;-0.44201514;2.6534183;-0.13048968;-0.63528955;0.2776187;2.1952226;0.78628284;-2.8766012;-0.48408788;-2.3617144;1.2043531;0.82171655;0.83212566;1.0499347;0.35523272;1.62575;0.8379539;1.2426641;0.15197974;1.4049251;0.42559195;1.1804129;-0.85782987;3.1745791;1.9861875;-1.7291621;-0.12213438;0.4419158;-2.6176863;2.1665976;-0.5225754;-2.5774615;-0.17631638;-0.66179985;-0.14997709;2.4518857;3.8263986;0.56437904;-4.222784;3.6460774;-0.21973623;0.44707435;0.9413516;-1.2090905;2.578955;-3.3181434;-0.040779054;0.96236956;1.0297502;-0.52638113;2.2391143;-0.77254146;1.1164044;-1.5836526;1.6601909;-0.49168798;-0.5513685;0.25559524;-0.23946045;1.8728663;2.4221191;0.107526205;-1.829735;-1.5307696;-0.2996294;0.03723923;0.36198896;0.07915678;-2.5294137;4.3913355;1.8778838;0.12843381;1.2746948;-0.72695076;-0.2641489;-0.34674534;-0.5361317;-1.2471642;2.5749903;0.30202654;3.3968084;0.05527388;-1.9460542;-1.3811492;2.0565684;0.72004646;0.3603975;0.8213506;0.62313837;1.215654;-0.70620203;-3.0097427;-0.69692594;1.332968;-1.4739976;0.4238495;2.2123108;0.45315164;0.04098631;-0.05966291;1.2800077;0.6595641;1.1804974;0.20748655;0.5903581;1.7958587;0.4349541;0.08752318;0.037566703;-3.846877;1.0140911;2.4398916;-1.2299489;-1.2885387;-0.4787075;-2.262129;-2.4966257;-0.32707888;-1.3337481;3.3041494;-1.1656061;1.415702;1.3246915;-0.9651008;3.1957564;-2.3704267;0.067772746;-2.9288905;0.24138087;-1.7983685;-1.488879;-0.6786726;0.1018748;-0.7686299;1.9944085;-0.5611355;0.7503094;1.3354864;0.6653573;-1.1524948;-3.1073925;1.7906027;1.7741318;1.5161681;-0.39763895;-0.090009786;0.24135323;0.6516752;0.4192601;-0.37226507;-3.6143055;2.253393;-2.023888;3.1495824;-0.27331424;0.5725834;0.19582422;-2.2905886;0.25776;-0.117226794;0.17970988;-1.5866385;1.2285823;-0.12780808;0.5335864;1.2860177;-2.7635226;1.5362862;0.6929093;-0.7524967;1.4414679;1.7098889;1.8556085;0.021293899;0.6533332;1.4385757;-1.9945574;-1.6234117;-1.4547639;2.6454072;-2.5987926;0.9700605;-0.32514068;-0.5624531;-1.9139247;-1.6361037;-0.09880798;0.0073170317;-0.9277354;1.9446294;-0.71628153;0.19437842;0.23463796;1.4920658;-3.2351837;-0.34117988;-1.9293275e-05;-1.2112395;0.88402057;0.40100983;-0.37351087;-0.4428946;-1.7674307;-0.68261003;1.4251032;1.9103266;0.5182113;0.67149043;3.0031097;2.594933;1.2934585;1.7876818;-1.9679352;-2.7735212;-3.1295252;-1.1011227;1.1942096;-0.90762466;0.46574965;2.990498;0.32198855;0.73414195;1.1161073;-1.3763139;0.22552282;0.7061933;-0.8087751;-0.49814495;0.5818148;0.39790982;0.40676188;-1.5210621;-0.68861866;-1.2013105;0.27909696;-1.3096025;0.30975512;-0.012885483;0.21144201;-2.9276357;1.823432;-0.11958373;2.6965332;1.3692871;-0.2710841;0.38284552;0.4184041;0.11144995;-0.0012693409;-1.3671055;-2.666045;1.63129;2.4614325;-1.7575979;-2.2672803;0.5394466;-1.6391913;1.4018474;-1.3890927;-0.7544141;1.1335624;-0.026462106;1.6138188;-1.4239366;1.5284071;-0.5613496;-0.96467036;-0.5506727;-0.5068276;-0.07028109;-1.3210943;-2.1833963;-1.2209994;1.7516336;0.5065848;-0.22902538;1.4222486;-0.5586647;1.384058;-1.3676;0.07117704;-3.10515;0.17171632;0.82795703;-0.3415905;1.5473347;0.65433806;-0.77096856;0.8792581;1.9091451;-0.48611945;-1.0880619;-0.72489613;-1.9657221;-0.41138825;2.2885525;1.8223504;0.71708304;1.1094304;0.6558536;1.4702489;-0.49330166;-2.3871005;0.5740273;3.2254865;-1.2988305;2.2535086;1.2667905;0.56866217;-1.3439322;-1.0225092;0.39713585;-0.68753034;0.012622736;0.7934672;1.289583;-0.28075007;0.18687871;2.6551561;0.24657963;-1.9104533;-0.30193675;-1.4070807;-1.4954696;-2.859068;-1.5264113;0.29688007;0.37397137;0.48382807;2.0770679;1.0176712;-0.36271304;0.64346;1.8187302;-0.7510432;-4.0213785;0.16246721;2.4060848;1.9418299;-0.8812314;1.1752018;1.2490788;1.4704424;-1.6893262;-0.14919855;0.40970716;0.10811855;-0.024538696;1.6077129;1.5803626;-0.23679312;-1.7594496;1.0047376;0.045499127;-0.3629352;1.1285583;0.70554376;1.5798616;0.79472834;-2.131386;1.7038183;-1.0928088;2.8841612;0.55901164;-1.498219;-2.626783;1.5886062;0.39930773;-0.528367;-0.9992403;2.5225008;-1.2437809;5.2286587
1.048495;0.46602613;0.4794849;-1.1413544;-2.6544354;0.52860564;0.7908221;-0.30955425;0.043618727;0.87251604;-0.856203;0.19789246;-4.1372933;0.8562122;0.6980105;0.33213064;0.70195824;0.0056181694;0.5414873;1.1487043;-1.4924723;-1.0549822;0.38738576;-0.12404933;-1.961953;0.03249346;0.83070034;1.14625;0.49765602;-1.4241785;0.08568822;-0.95289546;-1.4453148;1.8703206;1.0930233;0.7958287;-0.38489646;-0.52306694;1.8913172;-0.023137143;0.4569955;0.31604484;0.55028707;-1.603845;-3.4943178;0.12512292;-0.42035118;0.3928282;1.6340545;-1.3258185;-1.5398033;0.78104186;0.2393961;0.9193535;-0.3299039;1.3809856;0.31958413;-1.4069734;0.3615975;-1.4413847;-2.689005;-1.196774;0.16328791;0.0111446325;-0.8924856;0.16634867;-1.2887722;-0.095754944;0.32522705;0.84184295;0.16174614;0.5265001;-0.75299066;0.28294352;-0.8064459;-1.9159573;0.5209096;-0.047179636;1.122251;2.8500304;-4.864162;1.0376163;-2.1242368;0.37888056;-0.07000284;-3.43578;-1.8902407;-1.0954683;-1.4462872;-0.18499556;0.7619914;0.8527093;-0.9498951;-0.25105238;0.21646614;-0.029843152;-0.6876426;-0.6466026;-1.994439;0.4885589;-2.1023166;-0.8084482;-0.63588345;-0.009078611;-1.1499366;2.0311298;0.6470102;0.7475646;0.19426893;0.8161505;-1.3096603;-0.030319659;0.787844;-0.19583224;-1.3818682;-0.98825485;-1.8953776;0.31078997;0.5980718;-0.6279915;-3.1364758;0.674212;-1.4207878;0.7126902;-0.23248442;-0.024424277;0.3068772;-1.2767166;-3.5954704;2.1305501;1.0533164;3.143979;2.168391;0.91653174;-1.7701662;1.6878887;1.3527467;-2.0682986;-1.6017936;2.6066325;-0.50691706;0.71825737;0.4493722;0.08374358;0.99095345;0.91892415;-0.21781789;1.6768548;-0.21870184;-0.12895909;-2.4446154;0.9538309;-0.49214333;0.64447045;-0.4106977;-0.023262076;-1.6433088;-0.62361306;0.77886206;-0.06804822;0.6660292;1.8238355;-2.131083;0.5751625;-1.203153;0.04566507;1.1018399;-0.7039719;-2.384435;-1.2146306;0.08611512;-0.4151635;1.3055837;-1.2555041;-1.9268916;0.48619497;0.14861022;0.57515484;-0.57104605;-2.020888;0.22640835;-0.9454902;-0.5409327;-0.3808688;1.349297;1.6868823;1.0837426;-0.7431084;1.2823932;0.3394483;-0.49152038;0.17521912;-1.2659341;-1.0216631;-0.6917809;-0.28798732;1.9036958;1.2789857;-1.2165427;-2.098585;0.022328174;0.5078295;-0.007952368;0.83361197;0.019782372;-2.2551105;-0.5127724;0.5018781;-3.1463249;-1.9674394;-0.7800556;-1.2675025;-0.7609505;0.32177874;0.41796625;-3.3071895;-1.1690692;0.6269607;0.91497874;-0.50793344;-0.85985833;-1.8355719;0.6621861;-0.18759814;-0.87934786;-0.07157042;-2.061413;0.20457979;0.39732862;-2.0083508;-0.6951946;-1.8084309;2.8404253;-0.2637632;0.7104675;-0.95242697;-0.4908103;0.8986946;0.18200478;-0.64231986;-0.13873789;-5.644561;0.30744064;-0.56660444;-1.5991043;-3.7300987;0.13855405;1.1419836;-0.14103279;-4.0085006;1.1336191;0.982837;0.27584887;1.2125049;-0.009607924;0.38032168;-0.09167944;-0.49797207;1.6424427;1.0947059;-0.45675594;1.1294634;1.6039186;1.7246403;-0.631504;-1.5369672;0.4615845;0.072672695;2.5021324;1.0471995;-0.9792384;3.198522;-0.13682121;-1.2066369;0.09792118;-1.6934832;-0.75243056;-0.18169665;0.39380375;-0.79525447;3.8048406;-1.5710751;1.0411929;-1.8051353;0.1911317;-1.1384289;-0.33556843;-3.3042085;0.15545548;-1.102229;-0.49382654;0.50832117;-1.4557203;-0.35058644;1.4359354;-3.9265292;0.1681288;-1.3687063;-0.6299428;1.0475239;0.20769309;-0.3925573;-1.9337575;0.6833988;1.3262807;0.52130497;0.6863587;-1.7147675;0.24161842;1.6102397;-1.777253;1.1517507;-0.873248;-0.86686194;0.047418516;-1.7592478;-2.865433;-1.4578867;-1.1421783;0.90993404;-0.92799205;1.5296849;1.3027368;-1.067171;-0.32611832;-2.3120253;0.82069916;0.992149;-0.37565085;0.11054415;-1.1143901;2.8117676;-0.90343845;-0.9315976;-0.55622405;-0.9839194;-0.11620546;-1.4103454;3.2832947;2.0277264;0.6268381;-0.47367448;0.35389805;-3.3013892;1.8515025;-0.5031259;-0.14958496;-2.159533;0.07349004;-1.3576144;0.44813073;0.19047822;-0.95703757;-1.7662716;0.62552047;-1.2072805;0.50167847;0.9845447;0.562903;-1.0242;-1.22259;2.1390269;0.7432683;-1.4106334;0.63406754;-1.0021917;0.26658052;1.8535746;-0.7990267;-0.22265658;1.8340421;-0.12013149;0.06274226;2.3885002;-1.1298926;1.4914143;-0.5794508;1.8812355;-0.05285565;-3.2004213;-0.041181397;-4.5562296;0.5504512;0.058791734;0.20956582;-0.4792539;1.1220763;2.300779;-1.1209996;-1.0871373;0.09374337;1.4742149;1.7914182;0.60838956;-2.2467105;-2.7732592;-2.1962178;-1.0047803;-0.8323796;-0.9306444;-1.2531239;-2.506161;1.0726823;-2.6552505;-0.047931947;-1.148017;-0.5401761;2.3890765;0.9066356;-1.9505787;1.063591;0.98202735;-2.632825;2.3786745;0.56350815;3.1842213;-2.2713578;-4.036001;1.9043745;0.9646653;-3.533619;0.07181696;1.5978892;0.09724051;0.7846758;-1.231367;0.30897555;-0.3753673;2.7705004;-0.16065304;2.6607656;0.16987339;-1.779311;1.8979342;-0.13036716;0.00012014447;0.11990428;0.5686309;-0.1478935;0.0018099375;0.2383616;-0.8852989;2.1197848;1.1709406;-3.294262;2.041338;0.31152534;-0.9371082;2.0545342;-0.022073237;-0.69217587;0.57151407;-1.9275022;-2.0076802;-0.044321194;1.5846077;-1.1883416;1.8375545;2.9802272;-0.31821007;0.8620342;-2.7309604;-0.34905908;-0.65448886;0.21869482;2.5018861;1.255166;2.278248;0.013800861;0.28549862;0.47641397;0.39083362;-1.0945339;1.6141719;0.59562296;2.5845873;-0.36678538;0.45827588;-1.9220356;3.0326796;0.12962845;-0.3368318;0.60945535;-0.18218063;-5.4103293;-4.5527434;1.9971188;-1.5816818;-3.6289263;0.3683846;1.4149822;0.8545325;1.2942648;-1.2905338;0.12785643;0.013037189;-0.86170095;0.6460876;-2.1065307;0.124433346;-0.6724407;-3.0323439;0.08310041;1.2354417;1.0420465;-1.3241249;3.0212972;-0.9508933;-0.9738072;0.6025859;-0.029087642;1.2606379;0.51712805;-0.4214614;0.9344674;-0.9169541;-0.54122275;1.2692764;0.02215074;2.061898;-0.13013037;-0.6168972;-1.4886156;-0.41090825;1.4132422;-1.7395873;-2.5379548;1.0155983;0.16827296;-3.640439;-3.2054787;0.39051163;0.6081198;0.53774005;1.3695976;0.5799248;-1.2505819;0.31445172;-0.23793684;1.9322023;-1.2278339;2.5270998;1.5120121;-0.28972143;-1.3982041;-1.7907933;-3.7630572;1.1529198;1.1330973;-0.6619663;-0.6660163;-0.73489434;-0.7784157;0.20513615;0.8366936;2.0471537;-0.20133997;-0.44532683;-0.90895516;0.6400938;-0.38312015;0.41859177;0.39295357;1.8569555;0.2534207;1.5110601;-0.2611162;-3.9465852;0.5977221;-1.1189091;0.24204266;1.6307068;-0.030972045;-0.9693316;-1.2706499;-3.6966603
0.9115473;0.72755724;2.0052457;-0.5641451;-0.9366303;-0.30112612;0.43431625;-0.06997429;-2.1136732;0.0895349;-1.9331847;-0.0070957458;-1.6391064;-0.51276845;0.66197276;-3.4507666;1.1328448;0.80866694;-1.2982244;-0.21447928;1.1679198;-1.2756721;-1.4081501;2.0578587;-1.140331;0.37275162;1.1377659;0.21660388;0.54428864;-0.43384916;0.6586203;-2.790614;-1.9698337;-3.5940804;-1.1402901;-2.258672;-0.3377883;0.99362695;-0.09930024;1.0776452;-1.1102878;0.8399529;-0.03419436;-1.6434374;1.1180141;-0.5936589;0.43511158;1.6001142;1.6807227;-1.1678857;-1.8852857;0.40492645;0.01943395;-0.30604315;0.5861401;0.5474463;-1.251238;0.6435989;2.698916;0.24460968;-3.427199;-1.388531;-1.165242;-2.5062284;1.9462847;0.8592031;-0.00944178;1.5802784;0.5978981;-0.5851774;2.2954123;-1.7554528;-1.6352614;-0.4361955;1.1213907;-0.35795724;0.5849927;0.1947132;2.2888272;-0.9581269;0.71688306;-1.0893615;1.63009;0.16385962;0.09254073;-2.1338928;1.3932663;-0.17113443;-0.050157238;0.53849226;1.4343835;0.23426309;-3.9284377;0.8249385;-2.440476;0.75290686;-0.074183084;-0.35036522;-1.4249821;-0.06548582;0.69440097;1.1479982;1.073024;0.041903105;1.7089028;-0.5990031;2.051725;1.3490796;-0.2670517;-0.8718802;-0.8099134;1.8426847;-0.6689556;-0.14469707;-1.1636795;0.16916658;0.033759058;-1.5759338;0.87265384;0.8347358;-1.7695421;0.062666155;0.1474528;-0.73918;-0.05452946;0.97530144;0.9138916;-0.7239923;-2.0092685;1.2821039;0.95961124;-5.20857;0.056079235;-1.321341;-0.5114997;0.56850266;0.109559186;-1.1653256;1.6065551;-0.56855786;-2.6067812;2.0113578;1.7863272;-1.7650112;3.2198563;-1.5628113;0.29410803;0.49763504;1.6939057;2.0558875;-1.0501431;-1.5177062;0.8008661;2.9367874;0.94961846;0.7818794;-1.0140485;-1.4080898;2.1787455;-2.057024;0.34397253;0.5712681;-0.60297495;1.6056842;0.91105855;1.0578914;2.264422;0.54649955;-0.5564451;-2.2778773;1.6147072;-0.78064585;0.66185313;-2.1236646;-0.19932316;1.9430665;1.3443598;-1.2047274;0.46914303;-3.1856375;2.3339539;-4.216787;0.5383204;-0.5162028;-0.37334618;-2.235464;1.2662113;-1.6090341;-2.0876954;3.343999;-0.38613337;-0.06456365;-0.95721054;-0.32534885;0.22338928;0.48765287;-1.194814;-1.751093;-0.68256193;-0.05976952;-2.892382;0.795435;0.086680174;-2.1486077;1.1834251;-0.89345586;-1.9144516;0.07786848;-3.435701;0.1080964;-0.31253314;-0.6541426;-0.10879567;-0.09382632;-0.23581813;1.0186896;0.45739657;0.492473;-0.69434416;-0.77605873;-0.30082715;-0.5355009;-1.1619085;-1.2939835;3.736967;0.35739085;-0.03246149;1.7397174;-2.424924;-1.8560312;-2.646601;-3.3463118;0.38556156;-0.2249467;-0.9151773;0.44628528;0.73740447;-2.2166111;2.3265238;0.49861956;-0.66411424;-5.757845;1.5264702;0.04747202;-1.3289167;0.7343461;1.2524557;2.788943;1.8785211;-2.4888346;0.09435787;-0.88188714;-2.493093;0.7763497;0.09066695;-0.12838721;-0.4537563;-3.4649127;1.0215119;-0.34764147;0.010159143;0.8313199;1.3948541;2.494709;-0.45124486;-1.2818494;0.3464679;0.6977822;0.66783655;-0.7612912;0.78135717;-0.01671868;0.9259194;0.25334004;-0.48676723;-0.08587213;0.8049571;0.6569615;0.89043254;-1.2012134;0.34157363;0.91876656;1.0813063;-0.19408964;0.6698459;-0.1827301;0.7574631;-4.0832334;1.7264901;0.17411433;-0.82327986;0.29600284;-2.1689599;0.039543375;-0.54732937;0.24051414;-1.7658335;1.4197663;1.4473692;0.7102467;1.5289178;-0.74103034;-1.1874992;0.7406972;0.05175836;0.42572495;-0.85655963;-1.4935021;-0.16688848;-0.5789351;-1.8284092;2.3520262;0.25220925;-1.4936322;-0.707892;-0.9868759;-1.9631853;-0.9996539;-1.1136175;0.0846808;1.1368762;0.21929038;-0.47202262;-2.554607;2.588533;2.8992949;-0.45306674;-0.18402417;-2.3823159;-0.34223562;-1.9674064;-3.3293984;-0.40195903;-1.1553609;-0.35596144;1.1794643;-2.0031366;1.2837952;-0.18680777;-1.8396673;-0.946429;-0.49606574;0.2910887;-1.9068197;-0.9587395;3.157921;-0.4138696;0.42131612;-0.019162858;-1.804603;3.2663326;-0.39525312;-3.156872;-3.3509808;0.28036582;-0.74959636;-2.7023997;1.2182474;0.59548557;1.641951;-0.8555924;-0.48908028;0.8831888;-0.22824128;-0.8283432;0.50809735;0.14604244;-0.71871793;1.0820059;-2.488647;-2.2971861;0.70541024;1.7872576;-3.234238;1.0550731;-0.37915128;-1.230211;0.9311019;0.83103585;1.3011866;0.091777116;-1.0219699;-0.5722225;1.7440976;-0.016142074;-2.281188;2.242226;1.5985988;0.10728678;1.5077457;-0.23342207;-0.19702707;2.3116426;-0.6023327;0.55119896;-2.5195398;-0.84685194;-3.6085203;0.6040179;1.6755171;0.78515816;0.24710631;-0.32013518;-0.28334826;1.1253464;-3.181138;0.21052773;3.918757;1.5519141;-0.53775734;-0.82474476;-2.7262118;1.7190744;1.9096775;0.09648233;2.2914;-3.8613508;-1.2998974;-1.3884796;-0.6311771;0.44253325;-0.0038584864;0.75484693;-0.35248107;1.8487852;-0.032310463;2.761772;1.2033145;0.20630725;0.05151023;1.468763;0.595588;-1.7986388;1.0737296;1.0249023;-1.6031353;0.09124685;-1.3355043;-0.6299125;1.3707885;0.19308063;0.066016614;-2.1249986;-0.23663877;-2.4683044;0.21732947;-0.2705605;-0.4121417;0.44813338;-0.30766752;0.115637496;-0.0708343;-0.1048729;-0.048457768;-2.453985;0.9421247;-6.5691195;-0.91529495;0.33796346;0.98879695;-0.024741538;-0.42421716;-1.1566234;-0.31020302;-0.5938937;1.5448937;0.38608962;-1.1041571;1.2291989;4.0674114;0.53179955;-0.3298203;1.8127495;1.6082175;1.3000168;-0.57805336;-0.091228604;-0.64098024;-2.9695647;1.0765584;0.6800019;0.7596993;2.812231;1.2483888;-3.9500597;-0.46029118;2.4087844;0.3712332;-2.7266562;-1.2417814;0.015078485;0.6285122;-0.6711009;-0.9380242;0.604515;-0.4810615;-1.8789304;0.47236586;-1.2182697;1.4817815;2.6693811;0.31230763;0.9326913;1.3194444;-2.1778765;-0.016904423;-0.10604596;0.085888505;-0.40766913;-0.18656494;-0.17734855;0.124099664;0.71259063;0.3729022;-1.4706396;-1.5121816;-4.6220975;1.7906481;0.10333069;-1.2139679;0.6365372;-2.51044;1.6713704;-3.141866;-0.17304486;-3.0473485;-0.030593336;2.1939957;-2.5562615;-3.2626848;-0.452321;0.74862343;0.8876688;3.13018;-0.640828;-0.86126167;0.23491816;0.7151285;-2.6188233;-0.478667;-0.9549246;2.1074383;-2.8669074;3.9226015;0.9196144;0.9876402;0.93416107;-0.003977406;3.182841;0.96991676;-0.5456811;-0.8183646;-1.4012151;2.2048364;0.10856883;0.7915073;0.4037146;-0.33096159;1.5692563;0.77679205;-1.6545843;-1.8950212;-2.3318694;0.3279504;-0.6263865;-0.19939941;3.0442894;-1.7212958;1.5444423;0.2679994;-0.20891668;2.1839252;-2.9191742;-1.2649642;0.2998863;-0.4794643
-0.2766936;0.29937172;3.0963147;-0.38846037;-0.31909704;2.429148;1.4695561;-0.88906586;2.9968734;1.5875694;-1.3294591;0.19987915;-0.5718434;-1.930153;-1.9718732;-2.0850809;-1.9190482;-0.5029681;2.576598;0.050223704;-1.3017337;0.30149356;-1.6083568;-0.07255773;0.35535365;0.8954813;0.4048563;2.8971548;0.65601176;0.48967004;0.01164342;-1.5168198;-0.788932;1.7279519;-1.2942122;-0.4622477;-0.24739672;1.9595604;0.47902206;-1.2765887;0.21367906;0.24077755;-0.23908763;-1.0869334;-2.653263;-0.083759874;-1.96638;-0.2849982;-1.6976823;1.6945672;1.5353758;-1.5220137;0.62874794;-0.1649108;-1.3491179;-0.1389749;1.519094;0.024693638;-1.4528491;-1.2146604;-3.7460468;-2.8643582;0.4073893;-1.8516178;-1.8610532;-0.20935933;-0.65221363;0.9297989;0.2850987;0.10356503;-0.0038868554;3.482755;0.6411326;-0.530394;1.307259;0.33151576;1.3795894;-1.4937004;1.848386;-0.7370347;2.4090462;-0.43533996;-0.5297326;1.2481709;0.8999825;0.18177514;0.18623857;2.9175656;-0.47419202;-1.5206838;0.24630807;-0.70787203;-0.72809577;0.54570717;-1.610937;0.43271923;-0.48558265;-0.71851224;-2.3317513;-0.047803026;0.19904307;2.3003805;1.1672504;1.6683115;0.62804;-0.6611107;-1.9114306;0.99813616;-2.1322126;-3.2299564;-0.50206935;0.0347513;1.377103;0.07945798;-0.58705115;-0.596183;-0.53711295;-1.957737;-1.9159498;1.120079;1.8506515;-1.5408641;1.3137708;0.42229402;-0.34396794;1.8945166;-3.3949878;1.6387427;0.044479325;0.4777372;1.4593192;2.0968559;0.20316635;-1.3168284;-2.3831716;1.2145694;-1.5940238;-1.1075705;-2.5142028;2.8239033;-1.2767911;-0.38426936;1.4401613;1.3222891;0.03699118;1.2012659;-0.41760948;0.4322169;-3.447119;0.94524753;-2.888155;-1.1244029;-0.01967216;1.2178161;-0.6798504;0.8243596;-1.1055939;-0.68887264;-1.7915075;-0.55341727;-0.39819145;0.82967216;-0.06964358;0.30682492;0.900444;-1.0465163;0.43676516;0.55035675;0.88280946;-1.3939924;1.0877937;-0.6115126;1.5843058;-0.72731054;0.40565792;0.19614464;1.4409903;1.8745745;-1.0974913;-0.73559225;0.10670756;-0.63440275;-0.9468513;0.68281144;0.581762;-1.9905244;0.8365578;-0.45620146;0.75312376;0.10483928;0.46405962;-0.4424972;0.8950511;-1.8484962;0.9123697;-0.11407543;-3.4309711;-0.77415437;1.0195223;-0.42794126;-0.7737683;0.4336601;-0.8227055;-0.2737294;0.4907486;-1.2281288;-0.046116907;0.5653632;-2.9203007;-0.4359445;-1.0311677;-4.2692614;2.2155135;1.0385404;0.32222742;0.9574061;0.55720484;1.0858599;-0.44575366;-0.13431947;1.3035412;-3.7602856;-1.3709667;-0.5058611;-1.4033347;0.16309583;1.0964026;1.2857548;-1.0372908;-2.4668767;-1.0510107;0.29615122;-2.9531424;-0.30188057;-0.5136034;-1.0672057;0.33741224;-0.9320537;-0.6166771;-0.8869407;0.07722294;-5.044499;2.120433;1.3399359;1.9980446;0.69895357;0.55678535;0.14883895;-0.7908394;-2.1277726;-2.6410964;0.4409713;0.47756428;-0.9575288;1.7644528;0.5451191;-0.014786934;-3.107803;2.4499552;-2.1059577;-0.4854071;-2.156776;-0.7904835;1.4455715;-0.032853;-1.6219177;0.03415861;1.554196;2.2421706;-1.5089949;-0.07693243;-0.24984957;2.2708035;-1.417;1.6979837;-0.20847602;-2.042952;-3.7775936;-1.5551409;-0.5553727;-2.3162446;-0.66242015;-0.17725514;-3.6804626;-0.49822518;0.7439412;-0.078747965;-2.9722278;-0.88645554;-1.4604038;-0.5315117;-0.3902261;0.020048482;1.5543072;-0.09678874;2.8727186;-1.5168784;1.3126386;-0.09383079;1.1344994;-0.3110799;-0.6592262;-4.5524;1.1091316;-0.44590217;-0.08303641;-1.6731075;0.2749051;1.8079617;1.6044396;-0.4713886;1.5254691;-0.6388063;-3.2907827;0.46677375;-2.7330515;-0.16010295;-0.044453394;1.3779349;-0.04137193;0.22144417;-0.67547476;-1.586101;-0.9990122;1.5457283;-5.484796;-1.0806862;-0.988921;-0.6549309;-0.7396377;-0.46246192;2.7570896;0.21156725;-0.69572365;-2.5699904;-0.7662664;0.48759893;1.8497044;-3.3111868;1.2004722;-1.1509542;-1.6162248;-0.4714066;-3.6321435;-0.57227266;-2.141035;-2.052369;-1.0940485;-0.015458634;-0.8129545;0.7462458;-1.0308899;0.43472457;-0.76411045;-0.14831577;0.43700117;-2.0899057;-0.81247693;1.5228716;0.7325162;-0.79438645;-0.47924843;3.974983;-2.5241404;-0.7282838;1.4224353;2.2663803;-0.9275336;2.2194607;0.42492878;0.98071355;1.3497783;3.1905227;1.3110863;0.34949714;1.7190213;-1.1566004;0.76428545;0.3724806;-0.28843486;-0.18455358;0.93892294;1.5315014;3.049768;-0.70365995;-0.89496;3.0425725;-0.69588137;-1.2734867;1.3698485;0.8047809;-1.7790296;0.5447165;0.055084787;0.64358944;-2.5467;-1.211018;-0.13382481;0.78267956;-0.74598736;-5.4150405;1.2148247;-1.046659;-0.2558117;-1.1215154;1.5377518;-1.5449522;1.4316636;-0.38376096;0.61960274;-2.362724;-1.400874;0.5967621;-2.3527393;-0.4388077;3.8923626;-3.234179;-1.3925097;-1.3193984;0.5235342;-1.6211579;-0.01338116;-0.51379627;0.9931545;3.1286416;-1.0968102;0.38883206;-0.5928678;1.1682335;0.43551254;2.5104237;1.7599205;-1.6192534;-1.1424277;1.283532;-2.4507272;0.02141974;-2.1250522;-0.9554373;-1.195469;-0.11633447;-0.11821755;2.2080483;-1.4383764;0.31300753;-1.721159;-0.77384883;0.69752735;2.2652009;-2.8458762;1.051598;-1.0125159;-0.060721938;-1.4795258;-0.95747536;-0.82930523;-7.9465704;-3.1906605;2.1932967;-2.570133;-0.72282755;-0.11262672;-1.7367663;2.753662;1.9418406;0.960715;-3.0568702;0.55818874;0.8605601;0.36979336;-1.8330836;-1.359277;0.9085763;1.2850155;-0.40482476;1.7546637;1.4034082;0.67063814;2.7944517;-0.44045836;-0.44183308;-1.5244161;-1.2705725;0.4988443;-1.3098803;1.0091767;0.03028858;1.4403753;0.027776053;-3.213565;-1.179942;-0.30150408;-1.7245584;1.2139819;-1.0634198;-3.558926;0.34789878;-1.6624099;-1.9827611;-1.6655784;1.4687518;1.7386302;1.3698982;1.3062342;-1.3015987;1.4813595;-1.6273034;1.2455024;1.8473295;0.00422481;-0.2659971;-2.2844617;-0.6617717;-0.30717072;-1.2781434;-2.1859841;-3.8171406;2.2658184;-3.5405407;-0.9007686;1.6228255;-2.1142995;2.393415;-4.1244864;0.89280164;-0.837976;1.0534362;0.36521655;0.16232087;-0.5600655;-2.116462;-1.4411744;-1.9752653;0.7155907;1.3379562;-0.0438972;-0.17932196;-1.3203337;2.3911908;-1.2983805;1.6511611;-0.7433208;0.3838808;1.9304295;-0.40189815;-0.04250029;-1.2858438;0.7758254;1.0499008;0.54690266;-1.855276;0.3112493;0.92922795;-1.3060917;-0.81865424;-0.28909445;-0.17789453;-0.26291713;-2.6221645;1.4535505;0.7862125;-1.077964;-0.4443877;0.9228445;3.1696153;1.5153314;3.174467;-5.1064205;1.4522758;0.92247003;-2.5721965;0.50928384;2.1817782;-1.6187798;-0.053155538;-0.21760432
-0.44547346;-2.8179772;1.9434074;-1.3680239;0.72938085;1.6040969;-1.5411533;-0.36415723;-3.1948009;-2.9071605;0.82843494;-2.3280907;1.4579841;2.5916836;1.439593;-3.3148468;0.3543095;-1.0959879;-1.4135139;0.898647;-0.28098512;0.4260334;0.6705935;1.3789968;-0.07198941;-1.8349487;0.121346414;-0.5649223;0.8412694;1.1561526;-2.0400171;0.917775;-2.3327603;-1.9406846;-1.5119457;-1.8629059;-0.6137094;-1.5064058;-1.2918746;0.6518273;1.3371226;-1.7188214;-3.195277;-0.13878745;-0.16110627;-0.3582634;1.1918503;-3.28459;-0.40870202;-1.0227749;0.7776926;-2.602638;2.0830164;0.021110885;2.135506;-0.49477264;0.026159497;-2.1196742;0.03664283;0.5112976;0.41356882;-1.3964698;0.76120275;-0.1409138;0.23371083;-0.22604954;0.43319875;0.3902941;1.0064462;1.2915813;2.3609285;0.0039067804;0.13046075;0.76764226;-0.686536;-0.5694517;2.063311;-0.7610938;-5.720477;2.4942586;-0.14554486;0.12653689;-2.126752;1.3028771;-0.0726043;1.9699482;1.3400612;-0.49875763;1.3203773;-0.74365944;1.5207725;-0.39328808;-2.7517262;-0.41640562;-0.13704395;1.1280015;-3.2055476;-0.46460685;-2.8151236;-0.22549576;-0.90814924;-3.1432881;0.12267319;0.3570999;-0.105860375;2.185086;0.2587157;1.264067;1.0400523;-0.6939817;-0.7312577;-0.21177138;-1.2325326;-0.6737298;0.22146504;-0.39777642;0.21926866;-0.60778;-0.085485645;-1.2339072;-0.7661378;-0.6080063;-0.5820701;-1.9892062;0.4737126;1.3687029;0.8887152;1.8773897;-0.072124176;0.58341604;2.2948568;-1.2876375;-1.1828983;-3.1689146;-0.13958582;-0.0032478834;-1.4249773;-0.3915689;-0.92512095;1.1293654;-3.0567365;1.1002526;3.811933;-1.0626893;1.0626429;0.23021246;-0.81815684;-1.0181094;0.6210529;-1.5359099;-1.6472398;-1.1668334;2.3697255;-1.283505;0.51590174;-0.6149872;-0.15640607;0.8882265;-1.0432069;1.202692;0.7746476;0.04668319;-2.692279;-0.2962685;0.6821607;-1.1075437;-2.290188;0.43834797;0.026366739;-0.76096594;-1.8341213;1.4575986;-0.5043131;2.5538442;0.41821107;0.9267241;-0.96282065;-0.48355886;-2.310406;-0.2791779;1.0531968;-0.49856672;1.205115;0.80022717;-0.07647757;1.5343153;-0.2779896;1.5285435;-2.6679137;1.7649113;1.9796069;-0.29822072;-1.176803;-3.3733861;0.52730525;-1.6140002;0.09625548;-0.5833334;0.5610615;1.7209574;0.7427271;1.6457905;0.5540639;-0.978539;-0.62034005;-0.88316756;-4.023013;0.25996667;-3.4105248;-0.092165835;2.2883856;-4.0540957;-0.42090234;-3.8695145;-0.5676222;-5.179729;-0.7169083;1.6242119;-2.050478;1.2371752;-2.087039;-0.43305153;0.60562104;-2.5888803;0.47111773;0.3690605;1.0539923;1.5844263;-0.2914753;0.5933712;-2.045951;-1.5703329;-1.8499908;-0.72947705;1.1911743;2.4177423;0.15547588;0.07197207;-0.18762605;0.0633425;0.5950759;-1.2766511;-2.8080664;-0.6342901;2.9837813;2.2602825;-3.122258;2.0501845;-3.017567;-0.5718833;-0.28378156;-2.5920868;-1.2912993;-0.6426262;0.3522225;-0.27200994;-1.3110083;0.9747853;-2.7074168;0.18619728;-0.8824982;-1.8293903;0.652749;-0.8653557;-0.21163823;-0.984984;2.33196;2.755177;2.4436524;-0.1975085;0.8041441;2.3387268;-5.133964;2.169901;-0.9453285;-1.0241531;-0.53285736;-2.9773374;-0.053046405;-1.1145478;-2.5916677;-0.89716613;-0.5839478;2.7355866;1.2307656;2.9246528;-0.50842226;1.4829303;2.6001875;1.7341069;-0.0839816;1.2217376;0.39498636;-5.0259356;-0.9369573;0.06729899;-0.4237466;1.3245615;-0.036438342;-0.19663358;-0.8116432;0.23730586;-3.7137341;-0.45562765;-0.30789492;-3.8357627;0.31056425;0.2471993;0.36816463;0.8848963;-0.44460198;0.21603248;-1.9717854;-0.78897846;-1.7008854;-1.1420345;-0.19694445;-2.0579078;1.20102;-1.4028212;-1.2939781;0.9621426;1.250679;-1.1820384;-0.40329063;-1.093109;0.9809469;2.310292;1.6709223;0.474957;-1.4896228;-2.7594082;-0.66328114;0.2688277;2.2043242;2.4097173;1.5748729;-0.14041537;-2.321797;-4.0290117;2.533494;-0.5360785;-1.0243701;-1.3936181;0.8400564;1.1729513;0.5886065;2.748624;-0.27688658;1.0105494;2.1749506;1.324266;0.8620985;-2.9148145;1.8977312;1.7782663;-4.1544237;2.1675441;0.83607715;2.3125548;-2.1906004;-0.5742233;-2.3193743;-1.8184335;0.11761593;0.564619;-1.9592459;-2.4994183;2.6365547;-3.5194054;-0.16915119;0.6970567;-0.53484976;-1.6837772;-1.293651;-1.8612487;-1.152257;1.664244;2.9568791;0.07299806;1.2997923;0.8512358;2.2238646;2.771433;1.2175888;-2.2522154;0.60927343;1.4167491;0.10104682;-0.675688;-2.098786;-0.29635787;-0.9980108;-0.9012835;-0.81816155;-1.472734;4.233529;-3.4398584;-0.51267356;0.02624879;-1.1182774;-0.33969957;-0.24049896;0.03306151;2.2654839;-0.56730086;0.18481201;0.6956742;-0.09064389;0.27729294;0.7667098;-3.9611776;3.3575284;-0.15717973;1.0418538;-2.2234044;-1.3958021;1.5287905;2.4148803;0.24253015;-0.52478886;-0.3087916;2.4523773;-0.75221026;1.1635802;0.31976363;-0.26551834;0.2596975;2.1320138;-0.1935816;0.5911525;1.0587085;-0.18832381;0.67090344;-0.8937657;-1.4488101;-0.16497715;-1.5151461;-0.199102;0.24793264;0.010181031;-1.3170475;-4.2859774;-0.93060744;-3.6171181;-4.976271;0.3078293;1.9816493;2.5801299;0.37030044;0.44141293;2.2716935;1.1267992;1.6683701;1.417002;-0.30659413;-3.4873025;-4.4387712;2.1331022;0.4206412;0.6622044;2.606252;-1.4336784;2.0131438;-0.89546806;0.466016;3.0131793;1.4613284;1.3254398;-0.2752153;1.6266208;4.0628357;3.1891797;-0.9286774;-0.5379831;-0.9956736;2.1809726;1.0936147;1.0850208;-0.6901496;1.5036969;2.2480793;3.078069;-0.9696226;-1.0858457;-2.0091293;-0.32869136;0.5618284;-0.8517449;0.7490554;-4.245688;0.15820561;0.58840966;1.6638527;-0.21993814;2.2470558;-0.09945877;-0.4385651;2.1212785;-0.48962465;1.5976131;-4.3482122;-1.2719989;-1.1798214;0.017354935;-3.8448234;-2.9007096;0.96843475;0.973054;0.1749759;2.4002535;-0.81259745;0.3974771;-0.07481908;0.2970309;0.8389779;-1.3564831;-0.5056146;0.23676029;1.5841533;-1.4274552;-1.1384194;0.89057523;-0.43029955;1.8851141;-2.100323;0.90628743;-0.80911314;0.71603036;0.2138314;-0.8077353;-0.3316184;-0.9091963;0.94140464;0.44789344;-1.1900604;-0.24035253;1.8618635;0.110043816;-0.43186533;1.0500156;-3.707488;-0.6380008;0.48869574;-2.816475;2.2109113;-0.0043049045;2.4604087;1.2582932;0.8374201;-0.02113511;-0.8524802;-3.024904;-0.34372848;1.1738011;-1.611701;-1.3737395;-0.15243936;-0.08388418;0.4960383;0.4783457;-2.9651048;0.43694577;-1.0739402;-1.5603577;0.55553585;1.904458;0.27323923;-0.168796;-0.31260958;0.74322236;-3.5868757;-3.7990215;-5.997289;0.63200086;0.5671131
0.41382945;-1.5737886;1.8965744;-1.7108701;0.007565604;0.89670944;1.473894;0.18100405;-0.97503334;-3.856044;0.7589975;-0.7631328;-0.24233444;-6.59408;-2.0435917;-1.426929;-1.0874039;-0.6261031;3.2916894;0.94029856;2.6247182;-1.9103386;-4.278731;1.0354367;-0.88112324;0.987272;0.901563;-0.14650281;0.16757447;-1.539079;-1.4479064;0.10056573;0.15846102;-1.6948465;-4.511042;-1.3591682;-0.96983474;-1.3073186;1.5366318;3.3745806;-0.51391906;0.5908114;-1.9603028;-1.5223262;0.7200095;1.3046031;-0.31179795;-0.15762459;-1.8067591;-2.8667538;0.051317517;0.29980353;2.4819596;1.1767712;-3.5301921;-0.48585078;0.85599226;-1.1281656;-1.280273;-1.8422722;-0.30493906;-3.3778622;-0.951501;-2.185214;0.5279736;-1.2113881;0.8589558;1.771033;1.7715852;0.7802755;-1.2574708;1.3786652;-0.61921024;0.8990943;0.84020543;-1.2803566;0.68507946;1.8340235;-1.994341;0.68851614;-1.3828586;-0.3281258;-1.2847861;-1.068997;-0.08659804;-1.6021184;0.34562194;0.040407818;-0.3790729;-1.9326751;2.5548515;-1.5396066;-3.0077899;-1.9928634;0.1269855;-0.3557001;-0.5206293;-2.2730033;-2.3238592;1.4895935;0.48709646;-2.8942077;-1.0668727;1.6422845;-0.9866024;-1.7026795;1.5454125;1.7370672;0.2625481;-0.59636164;0.11593865;0.9633631;0.5932977;-0.7547994;1.0290662;0.82858944;-0.26742995;1.7863743;-2.252796;-1.0184122;1.4102322;1.1743269;-0.08290879;-0.9600964;-0.06479203;-1.0966673;1.1054748;0.498733;-1.1065439;0.43889692;1.6125603;0.48615238;-2.6120343;1.7059066;-0.23460859;0.70785075;-2.3849623;-0.48381522;0.012829578;0.23242065;-3.4390254;-1.5146743;0.29753447;-0.037034843;1.0843105;0.70270044;-0.21872576;-4.5699067;-1.6242496;-1.7008965;-0.82067233;-1.0497898;-2.8894894;1.0517412;-1.3325876;-2.0564318;0.6874743;-0.35553852;1.1236163;1.1824595;0.96890324;-2.4530768;-0.041703925;1.7819487;0.94141287;0.7027035;1.3267453;0.8348719;-0.011522236;-0.62694794;-1.2462287;0.061349016;2.7240639;2.0868187;0.89055955;-0.1455572;2.2401204;1.4340917;-1.4663081;-1.548717;1.0604717;-1.3570889;-0.27842927;0.95914143;-3.2529404;-2.8848948;-1.3924754;1.7147388;0.8168533;3.4647357;1.6716306;0.5300948;0.6193024;-2.1126778;1.8936462;2.5742083;-2.5689864;0.90458995;0.34910735;-0.48490325;0.06473775;3.3156605;0.26068494;0.5169186;3.067806;-1.2066697;-2.426638;1.2510742;0.8096876;-1.6132004;2.4075305;-1.212761;0.68869954;-0.5964864;-1.1203167;0.48364484;-0.96613497;2.028631;-1.0112561;3.2152667;-2.8878644;-1.6308637;0.9146964;-0.42133301;2.1769514;-2.4572256;0.8320462;-5.1707606;-0.33733642;-0.7627674;-0.6191311;-2.4032035;-2.001054;-0.6628108;1.0135283;0.66720307;2.0783675;1.0311755;-0.030740349;-1.3089446;-0.5145261;2.030426;-0.7239849;-1.709189;1.5132022;-1.9224535;-1.504871;2.337695;-2.095308;-0.293759;-0.40318874;-2.3552694;0.75301784;1.2643877;0.010445594;1.8332754;-0.98019516;1.4709485;-3.4954767;0.9212904;-0.5361081;-0.90299726;1.1550663;-3.3901687;-0.4850402;-0.9533408;-0.7247789;2.4483607;-1.414028;1.9138343;-1.730639;2.9433277;-2.6411726;1.0736991;-1.123173;1.6822312;-0.80894375;-3.6935897;-0.35042754;-1.1607547;0.986179;2.4582815;0.87143993;2.49988;-0.0013622283;-3.3489826;0.8158875;-0.2698293;0.2657013;0.13996208;1.3384624;0.33290228;-0.4106046;-1.5979749;0.55172324;0.58352244;-1.4956336;3.0128794;1.7375629;0.7175576;-0.9677499;0.005273321;0.1924088;0.527874;-0.11321973;-2.6470454;-0.26606405;-0.58684105;-3.1400945;-1.0366244;0.13308172;0.24800839;0.6744803;1.007778;0.22438689;-0.3720518;0.15887149;-0.32329407;-0.71470964;-1.3958925;-0.2733475;-2.082588;-0.71717197;-0.61234224;-1.5467683;0.58267397;-0.72588474;0.63582915;-0.76352555;-0.6445407;-0.85050946;-1.3216829;-0.26246804;-2.121175;0.3980132;1.2060244;0.46323267;-0.69612134;0.9089673;1.25193;1.0220138;0.18338528;-0.24007097;2.3610594;-0.53390753;0.65604633;-1.0786873;2.1024923;-0.24289131;0.36695457;-1.5296026;-1.3044038;0.5240629;1.4062356;0.85848635;1.7159226;3.000048;0.59483296;0.9268553;1.1704682;-3.8246975;-0.79272914;-0.15574382;0.20281929;0.349634;1.1249834;-0.3564516;-0.48159516;2.01726;-1.061239;-0.94742954;0.26812813;3.5306706;0.19738154;-1.0964295;-1.42126;-0.034911927;1.1260734;0.9533158;0.6737911;-1.3322899;-0.947102;-1.5060271;1.2360674;0.31267363;2.597189;-0.04809264;1.079167;1.5925219;1.8841841;-2.9450622;3.2351282;-3.951821;-0.33815527;0.07374965;-0.9707461;2.132129;0.8136113;0.19396256;-0.5346213;-1.5549172;1.0723475;-1.8981167;-1.1343194;-0.6698786;-1.9134763;-1.4456682;-0.28612155;2.4369228;-0.2125892;-0.45286185;-0.59992284;2.4268496;1.5645477;0.29323745;1.5445131;-0.75647485;0.6952874;-0.52330077;-0.6687555;-0.22911008;-1.4541285;-1.0570661;-0.29856718;-0.18741353;-1.2342753;-1.9540125;0.027889797;2.893592;-1.0245428;-1.4080889;0.757374;-2.4013858;-0.96307135;-0.96355;-0.35484427;-1.0609503;1.2946991;-1.0025643;0.38945436;0.1404001;0.07332586;-0.44846264;-0.365031;-2.4342105;-4.313161;0.8470163;1.1169796;0.4107844;0.33764726;0.47845113;0.9443173;0.13025825;0.9113824;0.40047657;0.20436455;-3.3686867;-0.41467223;1.5943474;-0.3979019;0.8686632;2.9758809;-0.026081232;-0.33326706;2.4178877;-1.1149534;-2.8078938;1.7054983;3.3916833;0.13215606;0.23477218;2.5970209;0.41723326;1.6995875;1.0237088;2.540122;3.0623064;0.38262552;1.8328612;0.6096861;-2.0657864;-2.3395634;-2.4556262;-1.7074255;0.6635992;-1.6570398;0.25737214;0.15045686;-1.2405707;0.7327053;-1.5077288;0.39253032;-1.7927434;-1.944127;0.25708538;1.5944101;-0.74614763;-1.3804477;-0.35055792;-0.9129846;-2.187984;-0.8048758;0.069048025;-3.0899804;0.06700747;0.48151904;1.9230105;0.29538983;-2.8595395;1.1212983;-1.7337025;-1.7281388;-1.1812062;-0.79693156;1.077617;1.5228844;-0.07249764;-1.6846614;0.2798142;0.8640133;0.73090523;-0.9510013;-0.50238585;1.7011849;1.4447552;-2.653283;-0.08074396;1.5433929;-0.87347555;-3.4487321;-2.6331317;0.11375141;2.0692801;-2.4104884;-0.56305283;-0.7774982;-0.010039423;-0.20051402;0.4140404;-2.1698966;0.5250944;-2.0562472;-0.8461087;0.94584215;-1.711772;0.8974799;1.2192628;-1.8246439;0.345631;-0.9588206;-0.23499964;-0.6016356;0.5807661;-3.2684994;0.5236341;-2.6238244;-0.9989459;-0.2368353;-2.7836823;0.06690377;1.2796133;-1.7609524;-3.0224082;-0.8029376;1.1453109;3.6694896;0.14540203;0.6008952;-0.8120054;0.23027779;0.9052869;1.3476655;-1.1427308;-5.30981;2.5129323;-0.61597204
-1.4953355;-1.8452028;1.7147886;-2.2752774;1.0344828;0.910063;-2.5320547;-1.4497879;2.630826;-1.2553083;1.091224;2.462946;1.6301997;1.1371955;0.7986741;0.028298067;2.3424115;-2.7438426;1.2005011;2.70355;0.7524075;-1.1066307;-1.0747123;3.7561643;0.6178787;-2.6831841;1.0183185;-0.27976677;-1.8767323;-0.6943832;-0.59104514;-1.3098097;-1.0810574;0.14891574;-1.2387427;1.0855513;-0.30175206;-1.8905087;-0.5052884;0.2291253;0.8714776;1.5418926;-0.6145434;-0.14873679;1.0256764;-1.4333074;1.3775742;2.1033514;-2.1992457;-0.32432148;0.6260733;-3.7636178;3.0204868;1.2719284;-0.8004704;-1.3978896;-1.1209756;0.6694;-0.5042076;-1.2828499;0.24547446;-1.168825;0.5101924;1.6519191;0.2927426;-0.49605265;-1.0042707;0.7853471;1.5610895;1.0779845;-2.2222874;0.63015217;-0.07295121;1.3943719;0.061056618;2.4862578;-1.0716838;2.0220473;0.45509;-0.94406325;-3.3299437;-1.2394851;-0.19650525;-0.84282273;0.019479107;-1.9350965;0.9596896;0.016240245;0.8699233;-0.59596545;2.6140256;5.3090196;-1.9044411;-2.3292892;-0.14325832;-1.7969947;0.7506255;-1.9929858;-1.0742346;0.9192242;0.447727;-1.2375171;-3.1022065;1.1197214;-1.1489656;1.2094264;0.3716227;-0.5398844;-1.7713168;-2.4484916;-1.9795947;0.339043;0.9175382;0.10497084;1.2335383;0.7074623;0.6907811;5.5167437;-1.5423105;-0.9427074;-0.8148984;0.9444605;2.0834897;1.4193628;-0.81050694;-0.7276451;-3.7114005;-0.18248789;-0.47153634;0.021704232;-0.76905316;1.177299;-1.3652776;-3.3002052;1.3126633;1.8713825;0.8949637;0.32933873;0.9601741;0.7414333;-2.34302;0.89167726;1.6885608;0.04660216;1.5403337;-2.8637867;-0.72903395;0.22660054;-0.6971614;0.661695;-1.3961408;-2.0149028;-2.1883945;1.6532179;-0.5663986;-2.850762;-1.549193;-0.12315894;-0.53453934;0.15403348;1.6649907;1.2368153;-1.536402;2.72434;-6.0774007;0.96479;2.1334255;0.2875497;-1.754224;-1.2932405;2.5681562;0.33076656;-0.630698;0.82419354;0.2682593;3.3124454;1.9529303;-1.2432983;-2.5014765;0.6914084;0.148734;-0.6499142;1.8508214;1.6031032;-1.0710808;-2.6065488;-0.43449077;1.349266;2.0643704;-0.08086388;-0.12922809;0.13153468;-1.0606899;-0.6990221;1.0498056;-2.5939846;-1.180528;1.1304718;-2.1630545;1.2391005;-0.75404495;0.062579565;0.16017324;0.21387094;-0.3586134;-1.9418007;-0.22615854;-1.7331562;-1.0002433;-2.182006;0.5491304;2.6840293;0.7424999;3.1993227;-2.754537;-2.9162765;0.76337165;-0.026563149;-1.9198697;-3.7122824;-0.18963636;0.4045921;-1.0884725;-0.32151365;1.908551;-1.3146626;-0.9783454;-1.3222642;-0.22150755;0.7743907;1.3552154;-2.1359875;0.2671031;-0.28966394;2.7635453;0.06882705;2.8640358;0.5685392;0.06749199;-3.8373964;0.25864694;-1.7190907;0.03688513;0.4102712;2.5611746;-1.5400037;-2.3660824;3.3717246;-1.3053716;2.8167725;0.024072032;-1.1713114;0.3576393;1.1609997;1.6633227;2.2552767;-0.48426142;-1.0272511;0.51368964;-1.625339;-1.0863851;1.7362155;0.27246436;-0.82063735;0.19199498;-1.9495034;0.058960825;0.012430513;1.4146103;2.498972;-1.2537311;-0.8345738;-1.7541435;-2.0401814;2.2661684;3.6868901;-0.23683895;-2.3700178;0.69051933;-1.7038532;-4.0962605;1.2423348;-2.043055;0.51672083;1.4547052;-0.90602034;1.2464067;-9.052446;-0.19609277;0.41120818;0.2706428;0.9676572;-1.2648977;-3.6408482;0.933652;-1.3944054;-1.5649878;0.46176934;-1.1089091;-1.5234696;-2.0209157;-0.5788361;0.6022267;1.2006363;1.1663617;-2.6517296;0.36298054;1.9835037;0.28765705;-0.44874662;1.1587101;-3.092738;-2.734512;0.29294115;-1.118;-0.7868161;-0.68538815;-1.5990299;0.3305795;-0.6188572;2.423298;-1.6942751;-0.42144322;-1.4242114;-0.32272953;1.722212;0.029100224;-0.06843345;0.93957204;1.0422161;0.09862916;1.156567;-1.0642796;-1.8745522;1.4417832;2.0468702;0.031478386;0.39426425;1.7099766;0.21832925;-0.21626697;2.2074642;-2.0202446;-0.2863273;2.7100937;-0.6601369;-0.49317977;2.7607944;0.308715;-0.0891271;-0.830411;-1.2066996;-0.7141305;0.8478128;-2.211834;1.5897537;-0.03202323;-0.14848313;-0.710308;-0.247452;0.058184072;-1.9426419;0.99675953;-0.7837473;-0.8103745;2.1060386;-2.1658237;0.12146265;-0.36006573;1.2304925;-0.7373693;-0.62096554;3.1415007;0.63883334;-1.983896;-1.0344567;-2.3185134;-3.1485262;1.2092872;1.5274221;-2.33577;2.2569625;-0.5337182;-1.0707142;-0.014818712;0.0781239;1.7320524;2.3259482;0.6631809;-2.438646;-1.9836363;0.11167845;-1.9132948;3.702542;-0.72663766;-0.4541765;3.8465004;0.36414263;-2.4938455;-0.7610637;-4.901934;1.2167763;0.14605312;1.8059102;-0.03787238;-1.229699;2.1503646;-0.12843558;-1.163964;1.0361042;-0.06438028;1.0395604;1.1847864;-1.6653711;1.1733057;3.2168634;-0.047397796;0.5173256;3.2228646;-0.17634138;0.36952916;-0.19937852;0.7545925;-0.20783769;0.553262;-0.47336018;1.8852605;-0.12260377;-2.3755693;-0.266043;2.1600542;0.32122874;0.38046655;0.27436095;-1.8511055;-1.1457332;-0.8803045;-0.18833219;0.48981404;0.14950573;-0.0077508157;-0.12549067;-3.653932;-0.4653797;-1.2916013;-0.72806835;-0.8752986;-1.3960028;1.0906287;-0.36356887;-1.8998438;4.4502177;2.0493698;-0.09961474;-1.7343847;-1.5062894;-1.5930417;1.7811352;-0.9855348;1.5024738;1.122545;1.2982306;2.1729755;-0.007490097;-0.524369;-1.4063628;-2.6367424;0.5543524;2.876444;-0.19137406;3.1541243;-1.0318434;0.74276096;2.9719343;-0.12047808;2.100099;-0.34463435;-2.3865285;-0.78462577;-0.7662807;-0.2963118;-1.9057866;0.19340907;-0.4927769;2.2365267;-0.29319435;1.3435004;-0.8302072;-0.6311491;0.08972452;-1.1647943;0.73573387;-0.8045787;0.6985515;0.9775699;-1.2132494;0.0064645763;-3.2223306;-0.7600929;2.0820785;1.3204308;-3.042646;2.0296965;-0.97421545;1.5799259;1.3713856;-3.0801091;0.77186036;1.1974092;2.5511882;-0.7553992;-1.1840862;0.47617912;-1.534281;-1.6731783;2.297102;3.2715704;-1.658618;-0.6691464;0.022178734;0.9185571;-1.7419593;-0.5837858;3.285558;1.5374788;-1.8999991;0.05475796;0.8385785;-2.9239767;-0.32137626;-1.992791;-1.1231606;0.49869797;0.11590034;3.1569777;-0.44738826;0.014798293;0.75819373;-3.8209739;-3.5900626;1.1796182;-0.4073859;1.8259085;0.44700593;-4.6852136;1.1863215;2.62267;2.6128664;1.3057331;-0.87939245;0.30963692;0.860926;-3.438163;-2.8156965;-0.90182626;-1.3507859;1.644379;0.08049922;-0.887994;0.7811024;0.06630726;-0.308935;1.0893425;-1.8893914;2.7661712;4.984641;0.21177618;0.113138296;2.4475555;0.4306373;-0.17051534;1.0007429;2.760667;-1.2380267;1.4599438;0.36566436
-5.0832915;0.11976469;-2.7702665;-1.5049354;1.8594496;4.1365805;-1.3483558;0.12429627;-0.4756864;-1.763152;1.0374857;-0.09495837;0.53684694;-1.0848895;1.3621287;2.4005249;0.19799918;-1.0098488;-3.2159626;1.1442379;-1.0073488;-2.822156;-0.12623052;2.4861789;1.5204741;-1.7635727;1.1999208;-0.6839496;-1.6907327;-0.61145955;-0.25075573;0.33338064;-0.17584385;-2.3904498;0.4013328;-1.4491699;-0.70576763;2.80724;0.3154096;1.8214079;1.6548249;-0.34979898;1.2603555;1.3778055;0.9403803;2.3530183;-2.4147587;-0.5332361;0.7501195;-4.693982;-0.6981794;-4.370799;2.5235524;-1.4233702;-0.27604306;3.1521022;-1.9904628;-4.514104;0.0017618879;-0.6399548;-1.0883203;-2.577575;-0.37804717;-0.16817345;1.4372461;0.7392729;0.818811;0.25751978;1.0911578;-0.103883125;-0.12604068;1.5434643;-0.57066816;0.25444552;-1.7393779;3.5103366;-0.24240223;0.6347784;0.6946349;0.31826335;-0.069241196;0.018385993;1.0805321;-2.158939;3.0402417;0.9540331;-0.91059345;3.4619908;1.084943;-1.3099635;-2.0377793;-2.7945364;0.74784946;0.09031837;2.8488379;-2.0995347;-2.0760958;-0.8832097;0.18571569;0.304024;0.95764196;0.51239115;-3.0434327;-0.21815634;-1.3257579;0.98879117;-0.8377812;-2.8079858;0.41286954;-1.5601101;0.17646612;-0.018665249;-0.18323149;0.2775786;0.97802895;-1.7130024;2.3307285;3.4430854;-0.005914827;2.738975;-0.92549783;-1.7732283;-0.49856967;-2.0336037;0.53895015;-1.6670159;2.0872304;-2.3778212;0.41882414;-1.248179;-0.065408796;-2.1027043;1.6641941;1.7556049;3.8603253;1.7188443;-1.1070652;-2.0402548;1.3050878;-1.97792;-0.79013836;0.46948814;-1.397161;-0.037233584;-0.95499355;1.4567618;-0.89658135;-2.4275897;1.7758504;0.07754697;-0.1702021;-0.21022749;0.3246844;-1.941064;-0.51080424;0.07714639;-1.0715625;1.658073;-1.7428355;-1.3853942;1.3164166;-0.76643944;-0.14169095;2.182968;-0.09660226;-0.080083966;-1.3207123;-0.2861935;1.9634075;-1.3465203;1.7808498;-0.88153875;-0.3205228;-4.890892;1.5009476;-3.819952;0.5874736;0.17505954;0.28689137;0.11242619;0.054421086;-0.46961814;0.69913226;0.43773916;-0.72647804;-0.07435788;-0.9719235;2.341294;0.1611794;-2.5784044;1.0597179;-2.459923;0.64399576;0.1417784;-1.2345909;-5.064536;-1.5584333;3.0349262;-0.86979675;2.778969;1.7244575;0.29451802;2.542222;1.1370535;-0.9610583;-2.5205145;0.48057833;2.0312455;-0.031494126;-1.6689475;0.16818088;3.0636117;-1.5862992;-0.64954907;0.110878184;-3.408092;3.3224516;-3.438427;-2.7577643;2.0238273;1.3627994;0.8625272;1.4324808;0.6605108;4.4447813;0.13190912;0.09329653;-1.5728353;0.3162166;-3.0788426;-2.8794537;2.5375898;0.25191617;0.02785771;1.4947025;0.18133198;0.56004375;2.34845;-2.8448775;0.79997;-1.0545503;-3.9360182;1.2613636;0.69522923;1.4222195;-0.68745756;0.9783296;1.9968063;-0.9993525;2.283275;-0.9804854;0.30461615;1.1728104;-1.8783655;0.858745;-0.13108316;-0.48919377;3.4189522;-4.701361;1.2332212;0.35066614;-4.2147427;-0.12582773;1.2168733;-0.0066997595;0.5118112;1.4614595;0.28198344;-3.758441;2.9042652;0.5381895;-1.4857906;0.87250847;-1.0046574;1.7391411;-0.7354041;0.694487;-2.2086327;1.2289587;0.121278055;-0.43850955;-1.3677806;-2.387236;2.4087403;1.9400147;1.5853168;0.8237786;-8.1934805;1.4558381;0.9272991;1.7216705;1.0724022;0.43793282;-1.8868266;1.2528466;0.8036913;-1.0811855;-0.88586706;-2.0607564;1.1556689;-2.4285526;1.1433843;1.1930324;0.5725584;0.8429106;-2.244069;1.0396339;0.29090708;0.97650826;-0.13312593;2.0445926;0.9969279;-1.6577561;-2.865903;-0.84221125;-1.6392748;1.9930159;-0.67481613;2.145248;0.4794223;-3.116925;0.69806397;-1.8519328;-2.209528;-1.5760874;0.62360764;-0.35692626;1.0806524;-0.03913888;0.93428284;-2.1261141;-1.2834369;-0.6358545;0.29254866;-0.7179281;-0.98731744;0.1912852;1.3123528;-0.57917875;-0.31855112;1.5864018;-2.3741078;-3.1813695;-2.1654508;2.803231;0.6357413;0.004126098;2.730922;0.057399638;0.21830036;-0.77571225;0.20478848;0.21949969;-1.5829191;-2.6083658;1.8773267;-1.5707425;-0.5732634;1.5935986;1.187281;1.5557685;-2.5173328;2.3858128;6.356803;-0.33755672;0.67384094;-3.3295188;-1.8015089;-1.9522792;1.1113707;0.6516458;-2.258292;2.1032484;1.4987017;-2.3232496;1.8983848;-2.5343714;-1.8642616;4.2588735;0.323306;-0.48241556;1.2758164;3.1022723;1.5808418;1.4405549;2.0753238;-0.3247932;-2.6331975;0.5772419;-1.9116695;-0.56337756;1.0556266;-2.7856588;1.7776113;2.1352854;3.1594586;1.366161;-4.2988057;0.66399854;-0.68258214;-2.2885792;2.0834942;-1.034602;-0.63307023;2.8786006;1.4274789;1.2117778;1.8838258;-0.0012684283;-1.454354;0.20087087;-1.2459941;-2.2648532;-3.756016;1.3867375;1.8636795;0.5046113;0.58638734;0.99939823;0.32026443;0.040773213;-1.9086987;1.6455208;0.2964554;0.72037256;-0.098363206;-1.2463757;-1.3243986;-0.20327616;1.2282717;1.1911825;0.29681394;2.1836789;1.0035282;-0.7944877;0.014177295;0.23685369;-2.019597;0.6893926;0.5008843;-0.17771028;0.022427894;-2.1790872;-0.30251652;-1.6777034;0.004527566;-2.131355;0.07040148;2.09663;1.474703;-2.9211178;4.9490786;1.9890894;-0.67185915;0.23578867;-0.85124236;-0.784876;2.221079;-2.2880642;1.3214221;0.7472997;-2.3742692;0.31352934;3.8274114;-1.947158;-1.1603386;-0.41323322;-2.063243;-2.1043487;-4.2350044;1.5538019;1.4135664;0.5963117;0.006560249;0.79120564;-1.6872858;1.825453;-0.22071417;0.2440989;-1.806193;-0.22942661;-4.1379886;-0.4069437;0.9242391;-0.06348587;2.1983464;0.18397914;0.46874195;0.9314858;-1.8085661;3.4732428;-0.8626084;-0.29730392;1.2194674;0.10018585;1.466539;-1.3751723;-1.4718884;1.706283;2.3328054;0.25657025;-2.9177947;-1.9024594;0.5852377;-0.038635448;-2.6649704;0.2626297;-1.6981537;-1.7033625;-1.633641;0.40731266;0.7048515;-3.6019554;0.4339404;-3.7262304;3.6116;1.300726;0.4781316;-1.8083712;0.7564156;1.1360427;1.2367697;-0.5856375;3.816211;0.33671647;1.0150224;-2.127778;-2.5720453;0.75432414;-1.6560416;-4.2435174;-3.763307;1.2848713;-1.463436;0.18184288;0.9840478;0.7021425;4.373933;-0.024431435;-0.8345778;-1.949024;2.7288532;3.6252146;0.07688006;-2.4485087;-5.8095636;-3.5033011;1.1669035;-0.9883932;0.9011917;-1.2346749;-0.28568813;-0.111897245;-1.8349384;1.6041728;4.0276723;1.3871238;-4.5522356;1.4028702;0.37653476;-1.9657816;0.21296114;1.5065478;-1.1362439;-0.057458892;0.45836872;3.748375;3.7914438;2.1421506;0.37181363;0.53722954;2.0195014;0.58510894;-2.825209;2.9382865;-1.8898296
-0.16795334;-2.067506;-1.1199064;-0.9300347;1.5540066;-0.5550408;0.750905;1.5651277;-2.0838401;-2.0715318;0.43694264;-0.84605956;-0.766131;-1.8677636;-2.3848886;-0.5658067;-1.7506762;1.5579729;0.5693718;-0.121573426;0.6195265;-2.6638424;2.1796868;2.559196;0.6938343;-1.4284201;-0.01434284;-1.0139779;0.037033934;1.1944836;-1.8059065;2.5255935;0.30000216;-1.5287856;-3.3551538;-0.6004915;-1.2690307;1.319954;-1.1262317;1.1263474;1.6867161;-3.2221959;-0.6659214;-0.47181046;2.146938;2.314085;-2.6622474;0.39599997;0.58893836;0.016363163;-0.43996638;-11.592488;2.761465;-4.0964174;2.225742;-0.8494649;-3.2517896;-0.6459682;1.5396075;0.08636419;-1.741777;-2.6459048;-0.590908;-0.73604816;0.42436457;0.5511997;1.9693817;0.78241986;0.54185843;0.05462775;0.061315488;0.17903276;-0.68028164;-0.0655801;1.0612296;-0.09577284;1.3285141;0.7351928;-0.9186819;-0.30535433;0.29832783;-0.16743572;-1.307567;-0.77649415;1.4531429;0.16710293;-3.841087;-4.052762;-0.44249874;-1.8916788;-1.6402338;-2.7469378;-0.5382344;0.19181778;-0.28212038;-1.495174;-1.921338;-1.5886043;-0.118640825;1.4434925;1.7986542;0.9956991;-1.3174317;-1.6613097;-0.4187239;1.0437123;0.16546491;-0.53774065;-0.4423882;0.9826908;-2.2322562;1.8986046;0.028161455;1.2190192;1.5348026;-2.2516942;1.0197656;-3.1033986;-2.1710618;-3.237185;1.070338;1.3178729;-1.3057585;1.0647274;1.2310814;-1.7506748;-0.29137543;-4.186562;-0.98744106;-2.947774;1.6600028;1.9511269;0.091491066;3.2877295;-1.4818196;0.039383575;1.5125808;-6.9611173;1.366183;-0.13530801;1.4390153;0.95634216;0.7433963;-2.1482782;-1.8261123;0.5993386;-1.112015;-5.1639867;2.5243227;-0.27634412;-1.056393;0.500364;0.17379434;2.5395799;-0.64064074;-1.4024377;-0.5038463;0.76670784;0.17409663;0.23664443;-3.4636939;-0.034976464;-0.7152232;0.07323865;-2.881114;0.100657396;0.7812386;1.8625724;0.8434481;-0.06810754;0.79286206;-2.1133153;-0.62989527;-1.4736514;0.69173855;-0.44314694;1.0696167;2.1137345;2.5093386;-0.037971843;1.1186604;-2.4436228;-0.16972278;-0.60872275;0.8639749;-3.2415142;-0.19952989;2.012262;-0.9075226;-0.31491637;2.2264876;-1.2992095;0.22275497;-0.9990161;-2.0939286;0.23365636;-1.1136068;-1.594751;-2.8253405;1.422748;0.2603991;-0.44419518;0.9162769;0.04548575;-2.0830643;-0.33444673;-0.68115765;0.2063358;5.0127254;1.0553705;0.39283884;1.6129112;-1.6142823;-3.185805;-0.027519112;-2.4179811;2.516681;0.1411647;-0.3952393;1.4448967;-2.2994907;-1.1422801;0.96309334;-2.8576965;-1.4038177;-0.4718364;-1.4699515;-3.2439048;-0.7915668;-1.5534426;-2.6203547;4.01482;-0.9495688;-0.3429639;0.34788266;-1.0960016;-1.6566948;-2.3542168;-1.4183904;1.2002898;-0.47102702;-2.6197898;-0.31409636;-1.2060533;1.4526601;-0.75335634;1.9650515;2.1381648;1.7073756;0.43764532;-0.70177597;-0.006069218;1.4613441;-0.64419955;-3.3308754;0.14506389;0.98497504;-0.40172356;-4.626626;1.4333487;0.8476232;0.09556971;-0.503824;-0.97967494;-0.17909361;3.4936497;-0.13640213;2.6408508;1.7645957;0.37149662;-0.15995727;2.3424873;-0.3834911;2.3363333;-0.31736195;0.26014876;0.11719216;-1.9607788;-0.17373979;-1.113123;1.5011989;-2.5357373;-2.7767844;0.79208726;-0.06396317;1.6959955;1.2641639;-11.341801;1.0820339;0.3216003;0.06126697;0.7898814;1.4726844;-2.6939056;-0.72184557;1.4730737;-1.3458072;-0.07422556;0.5277673;0.51725286;1.1557853;-0.80176675;0.24678104;-0.7841046;1.6348585;0.11794525;-1.2054052;-0.8664925;-1.6199106;0.7953222;3.9459903;0.03720444;-3.025391;0.22929429;0.4174376;-0.9090325;1.8286471;-0.85072845;-0.35229918;1.7290343;-1.8676834;1.8819294;-4.983873;-2.474612;2.5712788;2.5011356;1.1914743;3.5793355;-3.928808;-3.9068851;0.065767355;0.82511324;-2.3686182;1.2775719;-2.3771012;-0.9656153;0.4809382;1.2803869;-0.2670833;1.6298795;0.53629667;2.2337246;-0.15098539;-2.6528375;0.2501604;0.6219733;-0.88093936;-3.099754;-0.18866402;-0.7893943;-1.8646219;0.95508003;0.54941654;1.1498307;2.000498;1.586034;-1.3090903;-0.63522476;0.3621902;2.08753;-0.41547894;-1.355789;0.0068455944;1.8484557;1.3987397;-3.65894;-2.1251075;0.5994653;-0.6357553;-0.035815362;-0.15803711;-1.1488152;3.8095891;-0.16831723;-3.3260171;-0.0022821384;-3.9962087;-0.31142622;-0.7952335;-0.19675149;-1.6524403;3.6658711;1.8237385;-0.2999187;-1.6515284;1.1609304;-0.8664956;-0.8556474;-0.5633994;0.09109088;-0.5377104;0.62907135;0.5304958;-1.0774262;0.9188371;-0.65124214;1.2619538;-0.17672157;1.8450494;-0.7713408;-2.0676837;0.13735676;-1.301709;-0.7577398;1.6965092;3.094079;-2.6961553;1.9290115;0.82309383;-0.73813754;-0.33705777;-0.62564397;0.6120724;-0.82222754;0.21392308;1.932514;2.1609719;1.8496072;-2.2640777;0.71123517;-0.104489855;-1.8854972;0.28013888;2.572834;0.27042502;1.9683808;-0.07219114;0.09894715;-0.36806834;1.5192647;-0.38610035;1.8142028;-2.4466686;-1.1844574;2.1362793;0.96095246;-0.91268945;1.275179;-0.20871647;-0.089175135;0.006063597;1.6921047;-0.6094783;-0.45050097;-0.014321199;-4.0494742;-3.8709583;0.5306338;-0.16961272;0.25197217;0.32174322;3.2678504;2.887836;0.33736902;-1.6244831;0.35617894;-1.0246855;-2.2542922;1.7719127;-0.19116822;-0.32221434;-2.3730462;-3.3623488;-0.22360991;-0.23106614;0.28036323;0.35004067;0.060305886;0.5627162;-0.5968117;-2.4195793;0.07841199;-0.31390497;-1.7169445;0.69222337;-1.0754855;0.6825094;1.927721;1.1376971;0.17907035;-2.8660717;-5.3439646;1.858973;0.096792415;-2.1003625;0.4628589;0.13380632;-0.041450255;-0.49765584;-0.9810744;-1.7164367;-1.641439;1.061352;1.4387888;-0.36392426;3.266784;0.25502467;1.2199908;0.60568666;-0.15522557;-0.31825134;-0.36755818;-0.19469795;3.16324;-0.38069904;-0.1545196;1.71106;0.43698388;-2.0055602;0.18933783;0.2655563;-0.49890268;-3.4186025;-0.16830204;-1.8662134;-0.29923573;-1.0851622;-1.7826846;1.2958409;-2.9738402;0.20876653;0.47060388;2.2416306;-0.7627402;0.22426616;0.3320781;-0.39624593;1.5743653;1.1144222;-2.9968812;-1.9704403;-0.4764931;2.7973695;-3.8301969;-0.093552105;-0.6278004;0.12335122;1.9274986;1.0886698;0.3998743;-0.8247218;3.633537;-0.9702138;3.5783136;-1.4028095;-0.39198783;-0.97400516;1.0547733;1.221008;-2.5364897;-0.89593214;0.26118392;0.07328894;1.675575;-0.48900914;1.9709113;-0.22615562;-2.479133;1.7692406;-0.20087823;-1.9045407;-0.12534778;4.3823853;-0.25802597;-0.7005089;0.50201106;1.9161767;-0.10502205;-0.22041665;2.3331902;-0.03564883;-1.3444746;-1.4916483;2.559743;2.6563063;-2.3387802
1.8200822;-0.42837557;-1.2703501;-0.881231;0.84527767;-0.09314994;0.63598377;1.9046644;-1.186924;-0.6658098;0.08766604;0.23570181;-1.2465243;-4.833435;-1.5283003;1.638806;-0.35435084;-1.2382855;-0.33432314;-1.0127255;0.7046435;-0.6755379;1.6612247;1.9435297;0.54735994;-0.01107718;0.5423249;-1.4265764;0.88508743;-0.41963008;-2.3346233;-1.6310269;-1.1989197;0.5690842;-2.8637006;0.8590448;-0.74431133;1.6206776;-0.7198553;-0.2289506;-1.1005582;-0.17607348;-2.6645243;0.7286376;0.15971574;0.8667975;-1.0187091;1.955344;1.5071393;-1.610146;-0.064575605;-9.057237;3.5221987;-0.3880801;0.62719005;-0.3238733;-1.2830817;-2.193998;-0.37048092;-1.2036515;1.6063758;-1.6596807;-0.8216689;0.6419457;-0.72704256;0.012049376;1.8129374;-0.5690984;2.0992708;1.234031;1.6094062;-1.6215904;-1.3641497;-0.8126284;-2.2264214;-1.6139328;0.049075983;0.42825523;-3.1325145;1.0551662;2.2125075;0.083618596;-1.0362397;1.083862;-4.3640237;-3.489217;0.16426767;-5.4546285;0.35991967;-1.7924105;-0.28270105;-1.0450788;0.46094814;-1.3891371;-2.1406794;0.8188343;-0.0032391541;1.3120694;-0.35954687;1.4805151;-0.9469686;0.60935986;-3.2147577;-1.4548978;2.167874;1.2870638;3.5035043;-0.23861052;-1.1923065;1.7482622;-0.8674716;0.6501088;0.33635592;0.612569;0.5122096;0.12510513;-0.5479207;-0.26119065;0.8321963;-0.8721725;-1.5234127;2.993138;-1.634918;0.41296217;-2.5365386;-2.343788;0.8097494;1.5358764;0.32458326;-3.3906105;1.3217481;0.49581775;-3.0492992;-0.083530374;-0.64973634;0.5535344;-0.19831677;-2.2747874;-0.19091378;2.6791096;1.2780079;1.3918647;3.8966618;-1.1502187;2.6774657;-0.8829733;-1.0990337;-3.68699;1.0199292;-3.000438;0.6849309;-0.42945936;1.8899459;3.3641818;-0.82061297;-0.78341025;-1.3168037;-1.5836498;1.6559805;1.482294;-0.42446455;0.40849388;-1.4499304;0.34848914;-4.8525534;-0.31993634;1.171761;2.5448995;-0.476513;0.8701159;1.4697465;0.9358915;-2.1455963;-1.1610945;0.6665501;-2.385898;-1.2583592;-0.11473186;-0.17534664;1.4819986;0.98294276;1.6871474;2.9870355;-0.39609492;1.477812;-2.7267241;0.27813002;1.9089342;-0.494265;-0.84944725;1.1398205;-0.6289748;0.50235605;-0.91585636;0.538056;3.7207713;-0.8961632;-3.6374485;-0.794145;2.9467866;0.5636539;-1.3569779;-1.4298385;-0.88053435;0.40963522;-0.10442782;-1.4596086;-1.3644236;1.6640289;-3.3060768;3.0210395;-2.136533;-0.8829542;-2.2572105;-2.0338912;-1.357248;-2.0121014;-1.609909;-1.2194118;0.62426823;-1.32397;-3.0925725;1.4143444;-1.0801834;-2.813102;-0.47612306;-2.2456596;0.4052871;-3.3327563;0.08421022;-3.943507;1.5325687;-0.45437327;-0.23571052;-0.30863258;-0.5899932;-0.035155963;-0.7762792;-2.433831;1.3152859;0.44434923;-5.3810515;-1.548233;-1.396214;0.27844185;4.26208;-0.09157859;-0.3486155;-0.57967865;0.98520607;0.06967226;-1.1624752;0.3189367;-1.2688459;-0.7823261;0.15176436;-0.35851556;-3.8628142;-4.5859547;1.7483149;1.6481584;-0.18150555;0.22263171;0.07467502;-0.19150697;0.7647474;-0.60714173;0.6177236;3.0151303;1.2127717;-1.0744662;2.6017172;-2.5052092;-0.56738263;2.0428314;2.7682922;0.47836605;-0.31277725;-0.58001864;-1.294389;-2.8175461;0.8366615;-3.1005838;-0.16958359;0.8590019;2.810599;0.044584576;-8.780056;2.1126041;-0.64909357;0.1872503;-1.6884935;-0.75973463;-3.1636403;-0.018145934;-1.5746264;-2.3488228;0.37169114;1.6560087;1.3645002;0.32843283;-0.33239996;-1.4902594;-1.799694;2.566649;-1.3674201;-0.6676574;-0.8716709;-3.377679;1.4492227;-0.03784547;-0.2085808;-1.3003079;2.7827919;-0.067923866;-0.087104745;-2.7637885;-1.8359406;-2.5183108;1.5200615;2.0354602;3.0780349;-1.2004043;0.6634613;0.4230071;1.7561606;-0.43586662;1.422779;0.53139985;-1.2780536;-2.6796868;-1.7161326;-0.99112135;2.4182644;-0.76079535;1.1751633;2.1477985;-1.2702117;-4.6064343;-0.364751;-2.0295656;-0.2971556;-4.1914124;-1.596062;0.25369063;-0.41998592;-1.9808075;-0.8880473;0.028529882;0.09093717;-1.1356227;2.0311003;1.0733298;0.7387085;1.696503;3.862631;-1.135082;-0.34385377;-1.4587014;1.1497468;-2.89367;-0.7338659;-2.4831998;1.787697;0.004899981;-0.7063901;-0.55399555;-0.73418623;0.45943096;0.036236774;-1.8018198;-0.531424;2.482681;2.6347075;-1.5009913;2.887409;-3.5429883;2.2351215;-0.36205342;-3.9286864;-3.07972;0.99955034;1.9985715;1.4433616;0.06342674;2.0303211;0.83031213;3.5232296;-0.3292971;2.3611436;-1.029353;4.428473;2.1360307;0.8292639;-0.3963682;-0.74706376;2.0901463;-0.834182;1.1278714;-0.5526247;-4.7136784;-3.2753725;-1.161066;-2.6369617;-0.06778653;1.3567941;0.6536222;1.3942736;-1.0775617;0.91242707;-2.552179;2.146131;2.0564334;-0.9417829;1.1002753;1.4997516;1.6604354;-3.5062785;-1.0824505;-0.29169393;-0.04705529;-0.50635195;-0.0923657;0.18631604;-1.4705775;1.8056765;-0.82914996;-0.87611955;2.891945;0.8236885;0.20877634;0.7702398;-0.48535067;0.9664813;-0.9916498;-2.3575118;0.68834156;-1.9390225;0.89799273;0.3447249;0.64318824;-0.12414544;-4.5046687;-0.28488928;-0.09063657;-0.292524;-1.799186;-0.04324134;0.25694788;-2.047631;-0.93861693;0.95309556;-0.746358;-1.4569951;-2.0010512;-0.048103582;-3.5412853;2.3615973;0.76673293;-2.7280207;-0.49515188;1.1944735;-0.81590843;-1.7057204;1.3699968;-0.31992745;1.5486186;2.1928587;-1.181139;-1.0112793;0.15821639;0.004224163;0.066658095;-0.5221057;3.124919;-0.8520067;1.2247741;2.9604712;-0.75687546;-0.3015176;-1.0358799;-1.315442;2.5507996;1.7496526;-2.3563893;0.10509425;0.5511214;-1.468027;1.4086586;0.55557334;0.44315264;-0.8036297;0.083598614;2.4249809;0.012204412;1.8404032;0.21948521;0.10951873;0.27622244;2.946764;1.3385186;-2.2187147;-0.28613734;1.4437951;-1.0411097;-1.3020722;-4.4221506;-2.1404164;-2.5540078;0.8697273;0.16149035;0.13894565;-0.37678918;0.8936795;-1.5286226;0.17969424;-0.8324477;-0.9404262;-0.042572483;-1.2531906;2.2730684;1.7016562;-1.3273996;-3.3554797;1.9839793;-0.41673476;-4.8177223;1.1480596;2.1540618;1.2373667;0.45357764;2.7737381;2.3976002;0.8867016;-2.241195;-0.05712183;1.1042218;2.0624697;0.7529555;0.37705103;0.92695916;0.84045076;-1.2679893;1.6931816;-1.1295209;3.324507;1.5922745;1.3650773;2.3514006;-1.5486288;1.1361057;1.7102821;0.9977158;-0.22585379;-1.1017853;1.2240968;-1.4928063;0.1904086;1.2058703;0.0156998;-3.1384363;0.0761352;2.7257483;1.1221995;1.6631368;-1.5080038;1.4289887;0.64863366;-4.0357494;1.8399736;0.24925667;2.8907995;-0.76817995;-0.07102905;2.1148963;1.6391267
1.0128777;-0.24171738;-0.47112948;-0.43958387;-1.7530603;0.28932205;-1.0869265;0.8466811;-1.853608;-1.5535567;0.3841308;0.0150729725;0.083335675;-1.9283307;-1.7527355;2.7327726;0.22676131;-0.55174875;2.1028278;0.34771037;-0.38437465;-0.14701618;-0.21339585;2.1116276;0.69250596;-0.29154566;-0.050283488;-4.029981;0.65863633;-1.919493;-3.389756;-0.64929277;-0.38455737;-0.10709382;-3.7166908;-1.5637357;-0.8674352;1.6254447;-2.1344311;-0.5406002;-0.4905048;-1.315075;-2.1881843;-0.608484;-3.255402;-0.59433657;-0.056084357;-2.1801727;0.7424855;-4.9241757;-0.5380179;-3.4760664;1.953806;-0.2072453;-0.53815293;0.8118981;-0.86404467;-1.1537305;-0.40485105;4.0895486;0.4491342;-1.2044141;0.69685906;-0.052538745;0.0023068935;-1.1135445;1.8094698;2.2614248;1.0490044;4.811342;-0.3303341;-0.08380098;-0.04804102;-0.34464684;-3.9005454;-1.0820923;1.1768917;0.52901566;0.5022145;-1.2363333;-2.8762622;-0.8505977;0.2094516;-0.044987664;-5.6108575;-1.4085007;0.8000048;-1.7910895;0.19070677;-2.3437905;-0.34251067;-1.6341854;-1.0497485;-0.9418137;-1.3866935;2.3100169;0.24847288;0.06812719;-1.8462739;0.21004935;-2.6563663;1.6758492;-1.7485654;-1.9745708;1.1605672;1.054168;1.310569;0.3736968;1.5960863;1.6071717;-1.680812;2.0035229;-0.6973299;-2.3497922;-0.22981347;-0.23498912;1.1467358;1.3432435;1.6641855;1.5067644;-0.3797444;0.22269028;1.8931026;-0.34241;0.438999;-2.6314492;0.97173786;-0.726591;0.031769253;-1.6938813;0.259417;2.3816316;-2.536299;-0.83565485;-3.6117086;-1.9413408;1.2202451;-0.5894498;0.35196316;2.441722;-0.0053909873;0.039903793;0.15159081;-0.7570434;2.0977488;-1.4141672;-2.304219;-0.4419622;-1.6540679;-1.730758;-5.2107186;-0.79196227;2.280099;2.1976001;1.2917005;0.108395495;2.6027393;-0.89417875;2.3274834;0.20481668;0.515007;-0.9359031;1.0882801;-3.393481;0.8185818;0.11322867;-0.38251442;1.5607067;-3.0234046;0.093246385;-0.8008978;0.4026394;0.44837192;2.2146804;0.95207393;0.85914755;-0.99292296;1.8367196;-0.50139856;0.46149457;1.8062241;-2.8105373;-0.29978234;-1.4535613;-2.321689;-3.6004283;-1.4976169;0.86084515;-0.6878847;1.3577383;1.2322899;-1.4126345;-0.85819006;-0.53921866;-2.141885;2.8405082;-0.22940977;0.42213917;2.7457814;-2.2805655;0.020085638;-0.87255025;-2.1150274;-1.8413354;-0.14118744;-1.9154;-2.370742;-0.27821645;-2.7518206;1.0050818;0.2755452;-1.4229516;-0.9039944;-2.3369224;1.657612;1.0210447;2.2971613;1.610191;0.34045663;-0.5283574;-0.80360246;-2.6275218;1.862298;-0.5663193;-2.7304065;-1.3957901;-1.7543194;-0.035611387;-2.30128;1.0855843;-2.9466033;0.6253771;0.8821705;-0.57096297;1.3832711;0.32920024;0.27548084;-0.5810964;-2.6398053;-0.29705244;-0.12364019;-1.369285;-2.3603354;-2.1317248;-1.1753511;0.019423826;1.0510738;-0.4217275;-1.4650153;-1.7056717;1.8338076;-2.6638055;-1.2910755;-0.31602252;1.2990882;-3.198897;-0.8947272;0.6299092;-1.4914621;-1.6370661;0.75912493;-1.7881293;-0.9728294;-2.0495963;-0.8259356;2.3885796;0.96746624;-0.035024114;-0.3072486;2.883581;1.1277515;2.884752;1.8643117;0.73113394;0.86593926;1.7880342;-2.2213886;4.5057893;-0.49794605;-0.22738618;0.69515836;0.2629753;1.3189164;-0.9297719;-0.87031204;1.1024958;2.2750123;-6.914028;1.069241;-2.9334242;-0.6038872;2.479505;-1.0558672;-1.0150753;0.50542027;-1.5046135;-5.950962;0.27341828;2.2712462;0.33666888;-0.3543712;-2.9491289;0.226381;-1.849016;2.373719;-0.8026711;2.2720017;-0.29803053;-3.5181582;1.4042917;-0.122422114;-1.3704156;0.5812089;-1.6613735;-2.956558;-0.6047801;-4.4985814;-1.0932271;-0.59794056;1.0982169;1.8760355;0.2114178;-0.14130987;-1.5850984;2.3245275;1.6043154;-1.400306;-0.92884415;0.17672522;-0.93329674;1.0771023;-2.5955691;-0.024409395;0.7711377;-0.045215156;1.1773846;1.4858559;-0.7424131;-1.3590084;-1.5373741;-1.4216465;0.47693053;0.9886762;-0.10347849;-1.4513655;-1.9908323;-1.882576;0.85003114;-0.049775686;-0.24156108;-2.160493;0.4227316;-0.52776414;-0.86946803;-0.8047397;-0.98670363;-1.2370147;1.0766534;0.10183733;1.994443;-3.546621;0.55443424;-3.1548507;-0.7839201;-0.093237534;-1.620483;-2.7136698;-0.77581847;0.9301586;0.78106046;-1.8556998;0.7664915;1.9242349;1.5371324;-1.3434722;-1.4862877;-3.1405911;2.3865213;-1.1136184;-1.4631311;-1.7553399;-4.0094056;-1.485998;-0.52357;0.21684441;1.8321049;0.36449653;-1.8501954;-1.0179048;2.8896859;-2.187079;1.5382311;-0.81145334;1.0790094;-0.6111163;0.23615068;1.2733835;1.1604816;0.67739373;-0.35707262;-0.81297773;-0.2741453;-1.4027311;-3.2503676;-1.4404503;-1.0854366;-0.49794862;3.556387;-1.226115;1.0857639;-0.8783705;0.745957;1.5820876;1.2708911;-0.67181194;-0.86509174;0.672064;-4.284004;0.17847323;-0.008893203;-0.28158182;-1.023402;1.9115037;1.217948;-0.013212041;-2.1487143;-1.0904263;-1.3410485;-0.5757589;1.0031435;-0.049832497;-0.6694004;-0.6947226;1.6058445;0.6393151;-2.167258;-0.95165455;-0.29811734;1.354499;-0.7528625;0.2717236;1.5102808;-0.6240755;-0.07914477;1.144632;0.5812717;-2.775227;1.4740211;-1.0669377;-1.8072307;-0.1309314;0.92695963;-3.2665648;-1.6556017;-1.1703851;0.94363976;-2.1258957;-0.30407605;-1.797275;-2.800488;1.0934861;3.184974;-1.0047897;0.770972;1.1626544;-0.05649602;-0.22923768;1.8493484;0.025462791;1.2372203;0.0849083;-1.9578137;0.59550446;3.2770221;3.816427;-1.4094727;0.38131446;1.3824443;-0.60226125;-0.520217;-1.3173124;-0.61856985;3.514187;-0.37417015;0.31981483;-1.7408063;-1.2791783;-1.4400654;-0.8218243;-2.9704256;0.114208795;-0.59316;0.5038237;0.5315876;-0.6978305;3.5288365;0.9407425;-0.27447137;0.83995074;-0.29822126;1.4453363;-1.0199957;-0.23061821;0.07673339;-0.20903334;-1.6574463;0.080904365;-0.023645831;3.959214;-0.3803838;0.14763996;-1.1250504;-0.20706198;1.1833278;2.409643;0.79589164;-0.82764626;1.8327674;0.41490832;1.1482929;3.1303744;-0.2500267;3.3064253;-2.2905455;2.8511326;-0.7580677;-0.769511;2.1634252;-1.0683839;0.5696117;0.813767;1.7555526;3.283353;0.58826923;-0.9116075;-0.74152356;0.42331645;-0.406416;-0.883192;0.6370842;0.2523063;1.7714437;-3.1576102;2.854855;-1.9997399;2.4861767;0.30030283;2.898883;1.9405133;-1.2858415;0.55468285;-0.08311861;0.3724698;1.4525816;0.59391785;0.8354318;0.47460362;2.7098572;-1.4961175;-0.31301337;0.5669401;1.0071732;1.8219548;1.5326557;-3.049493;-2.329485;1.8062794;0.45878768;-1.0661817;0.72343296;-0.60075086;-0.17530349;0.3274607;-0.7008543;3.7549644;0.3904698
1.9847736;0.5123441;1.795535;-1.0081737;-0.9988939;3.0677903;-2.2137234;0.15346487;-5.0298586;-0.63871205;-0.55647165;2.6538224;0.08819598;-3.024291;-2.0550878;1.4769006;-0.2815575;0.324238;-0.32762042;-1.2962027;1.1024526;-1.5263394;1.2270551;0.69044954;0.96540046;-2.0168116;0.41791642;0.3130766;1.1965585;1.6425738;-1.9559957;-2.2082367;0.6482013;-2.5324926;3.3120606;1.159834;0.041084137;1.6188046;-1.0521863;-0.21567714;-0.07836829;1.3982524;-0.5692778;-1.7445165;-1.1117368;-2.8484116;0.73493814;-0.97463304;1.8411088;-2.8201945;1.1932318;-2.9152095;1.5116043;0.4940403;-0.9391991;-1.1227311;-0.36841807;-2.6078618;1.0359626;1.2822851;-1.6457983;-2.0897348;1.6826404;0.12136303;1.4024884;-0.5813384;1.3904736;0.34951916;2.0118291;0.23597254;0.75231093;-2.5031264;-0.48018205;-0.9668614;-2.4390144;0.6054798;0.10173825;-0.39294684;-0.5572919;-1.8640028;4.7450595;1.1601472;0.7221172;-1.620272;-5.9395328;-0.4418151;-3.4799948;-3.0304027;1.1138438;-1.4419024;-1.8993163;-0.3225466;1.574531;0.34505984;-1.721763;3.3536758;3.0103064;-2.159307;1.474266;-1.0200028;-0.71781874;1.6397473;0.4857357;-0.4660046;1.2751062;-0.30149016;1.5932794;-0.09777626;-2.3490071;1.3415492;-1.8490323;1.8868854;-1.6433468;0.4546996;0.43851274;-1.1782656;2.796871;-2.6927714;-1.3501543;-2.2462711;-0.5207191;-1.3029987;0.062239304;0.12162134;-0.5663365;-4.3319964;-0.80474865;1.5923733;0.94644016;0.30664328;0.8539756;-0.51805985;-0.9649203;0.45945728;-2.5897672;2.4604378;-3.1244109;-3.1289678;0.30661914;2.7657702;-2.4713078;-1.8521796;2.9512904;-1.4709699;2.399109;-1.0464596;-0.14466663;-2.3926063;-4.1125355;1.9548213;-0.46752053;-1.9622484;-4.0620675;2.7417986;0.3871034;-0.7462992;-0.9253087;2.3188617;-1.111311;-1.0598915;2.3486254;0.37327525;-0.11731353;0.680626;-4.4361105;-0.5473769;-1.3024614;0.6701197;-0.97587544;0.07300672;-1.476107;2.8455768;1.1369631;-1.5986484;-2.3489368;-2.3967695;-0.90044516;1.0550712;-0.28500706;-0.1531499;1.252188;1.1900692;-0.8670035;0.82739943;0.06020114;-0.2511922;-2.6954963;0.4746532;-1.6143703;1.6255424;0.25732222;-1.3309127;2.9086246;-1.4349957;0.81530476;-2.7496512;0.104271956;5.9870663;2.4762785;2.7538004;0.5222958;0.020680426;0.42681485;-3.290487;-2.0653017;-0.5648081;-1.3781141;3.4595606;-5.3187246;1.0117218;0.71672094;-5.376286;0.44982287;-0.07426085;-0.46245077;2.7818623;-1.2849562;0.6565903;0.87098676;0.13663377;0.9708791;-3.0406744;1.6750809;-3.607167;1.9613172;-1.0751371;-3.7461038;-1.4491731;-1.2873569;0.14641526;-1.5432538;-1.39098;-1.6242965;-0.42571944;-0.0005845156;1.3802576;-1.4106653;1.4363953;-0.10013466;-0.9757052;3.6904304;-1.837402;-1.3138095;0.05603119;-1.4898636;-0.1940432;0.8134989;2.3820727;0.24467409;0.6003524;0.5892715;0.114590295;2.3953416;-0.4745592;-2.8355165;0.14634036;-0.19465163;1.3879814;1.885713;0.21532457;0.5859087;-2.1638014;-4.400055;1.0770941;-0.29496518;0.037009723;1.6372501;-0.07696838;1.7791467;0.7198367;1.9208395;2.6878731;-0.930042;-0.39194998;-2.7944214;3.559603;-1.2475281;2.5974178;-0.47184414;3.664074;-4.1869884;-3.1115327;1.6423124;1.1072718;1.1662403;3.1017926;-0.14677016;-5.393385;-1.3645153;0.69502765;1.1916066;0.43654275;-1.2360358;1.2935394;1.0792071;0.30595294;1.6532227;-0.7090738;0.46883217;3.3096628;2.0971498;-2.7258813;-1.2979527;0.052051913;2.2059023;-2.21178;-2.4978118;-0.20866819;-1.616559;0.4372716;0.78118086;0.9703511;1.7320987;-4.204381;2.04297;-1.5842168;0.33513767;0.34609103;-0.73563695;0.95401424;-1.1473188;0.40443343;-0.5518832;1.3545477;-0.3423287;-1.3424572;0.30345038;-0.25351545;0.91695243;-1.6798245;-2.4543984;-3.0968816;-0.90625024;-2.8571174;3.1604118;1.3001931;1.4409462;-2.5685465;-0.8242461;0.88032144;-3.3430343;-1.0887537;0.090030596;-4.0404115;0.16723846;-2.0468671;-0.7949261;2.5368373;0.09501399;-0.17135747;-3.4484038;-0.7578854;-0.5420465;0.40793684;0.8158094;0.96596235;2.092778;1.1084486;1.7052597;1.1812282;-0.4464331;-0.27126622;-0.28945348;-1.9062197;0.2726532;-0.08278162;-1.411824;-1.7561603;0.20993927;-0.4147121;-1.5102953;0.9246629;0.11166432;2.198086;-0.32760867;-0.7353681;-1.6729347;-1.1662742;1.6464825;1.9686059;0.94711715;0.7384424;-1.0312225;1.728784;1.9618366;1.1446755;2.7529135;-0.8293163;0.2587328;1.0454092;-1.2053398;3.745588;1.1043595;-2.0438092;-2.2438574;-1.2107327;0.5958792;3.3433917;0.4170151;1.0932137;0.54798156;-2.0356202;-0.55863106;-3.8318658;-0.8252499;1.7059481;-1.748179;1.2090362;0.93032676;1.8504851;-0.5066001;0.27493295;1.0870086;0.16345245;0.8007148;-1.9362679;0.6450103;2.6805103;1.1902395;0.69875306;-0.16097228;-2.345071;4.16518;0.48264775;1.1738675;-3.8551235;0.3530318;-1.3988942;1.2807333;2.3853009;0.4612317;-0.9791777;2.4290528;-0.33749083;-0.40235722;-0.27788255;1.5286391;1.174792;3.001965;-0.24285187;-0.012269893;4.4752274;2.347237;-0.36932954;1.1843036;0.07217904;-3.9716594;3.7776601;0.8154664;-1.3676858;-0.08000248;2.6074743;0.31501785;-0.13388541;-1.8721713;-1.0212964;0.85820746;-2.1300669;-1.0802002;0.6015718;1.6598558;0.69497603;-2.209906;1.4462008;-0.38822192;-0.4228579;-2.196336;0.9158394;1.7285967;-2.3419726;-0.13229497;-0.7055466;0.4189922;-2.3764358;0.5548035;0.25004226;3.627722;0.9956673;0.6813583;-1.5720206;-2.992496;-2.0380623;-1.8709848;0.83305;0.3267894;0.050431877;-2.479867;0.015301381;-1.2609775;-1.722833;3.1215606;-0.0601829;-1.7086318;2.3266013;-1.3570876;1.1630715;-1.2857081;-2.3774242;2.5539207;1.5752226;0.15035424;-0.3143778;1.0839838;-0.68015724;-0.6804598;-0.04085668;0.34157982;-0.46034884;-1.8651447;2.5160494;0.28095374;-1.9192839;2.5243447;0.12204196;0.105177104;-2.9544437;1.8676729;1.3124007;1.878251;-0.6451394;1.3691757;0.59104115;0.04103736;0.75681573;0.09421661;-2.2536385;-0.9587805;-2.6044543;-0.9588729;1.0254692;3.2398403;1.5769941;-0.51421875;0.4906793;2.592583;0.69641185;1.515945;1.7953033;-2.7885864;0.027678864;-1.2235515;-1.4497491;1.2212398;0.9312391;-0.92494965;-0.7103958;-2.5831468;-0.8625685;2.057898;1.9630557;-0.1057953;0.39578182;-1.0319061;-1.5798131;-0.45044407;1.9503684;-2.7183173;2.131103;-0.14111029;-0.5826873;-0.28974473;-1.6501772;1.8191574;0.7265973;-0.7888056;-1.8074304;3.0795608;1.6093892;-1.2255018;0.85978127;-1.7262499;-0.7801685;1.1097139;1.730898;1.4827229;2.114016
-0.74806863;0.07431357;-1.3350158;-0.5146731;-1.0672605;-0.94762015;2.5566523;-1.5701271;-3.2241588;-0.60213536;0.049648244;-0.48851103;0.31222713;-2.5372832;0.7585956;-0.31193003;0.14617741;-1.7160866;0.13043913;-0.2972242;0.26040286;-0.58082914;1.4977096;-1.1046662;1.1723591;-1.1716444;-0.5692594;0.6150161;0.48764852;1.2359184;-0.5932969;-1.4253091;-1.6267291;-0.1807616;1.0044274;1.3541019;-0.32814863;0.3631186;0.010125033;-0.02615887;-2.0746164;0.26031575;-2.2935658;-0.87071764;0.6102939;4.7643204;1.5066662;-0.07071728;1.3253002;-0.6419902;0.8780711;0.24823724;0.06488683;-1.5841038;-0.6409697;-1.4148788;-1.487094;-0.5329387;2.1408982;0.73263305;-0.9906256;-2.1593385;-1.336255;1.2675313;0.17958255;0.22137941;0.5964431;-0.6132569;0.93586165;-0.06607462;-2.484964;0.82985604;-0.12880154;4.5101423;-1.6120402;2.0126407;-0.8419509;-3.3630834;-0.24667612;-2.4493964;-2.0977964;1.065013;-1.4457587;-2.3185961;-5.022379;1.821552;1.1352957;-1.50292;-1.0586121;-3.0044646;1.8951975;-0.6069684;-2.2600095;1.4990865;1.0353277;-0.62765485;0.9018612;0.12689745;0.49677715;-0.79392153;0.48438823;2.0319667;1.2894267;-0.9458733;-0.9801781;1.8229682;1.5776005;-0.24084845;1.2155073;-2.8131895;-3.8962271;0.70910186;0.24155903;2.0241768;2.8671043;-1.1481572;-2.5764349;-2.083006;2.0150797;0.03311511;-2.3018312;-1.5747801;-3.7078338;-1.0320408;-1.2739075;-2.7741692;-1.4408714;-2.4755957;-1.6974759;-2.8382406;-0.7812029;-0.10020281;0.6957612;1.5757968;0.20931797;0.1975936;-2.2405734;-0.59085286;1.8107556;2.0068798;-2.3374956;-3.946783;2.6223807;0.40478486;-1.0553291;-2.0853858;-0.3614247;-3.2724051;-2.1502943;0.54713416;-0.6181843;-0.71070737;-2.135143;1.215823;2.7328734;1.2417126;0.035731565;0.015344617;1.8600066;-2.1064718;-1.6647862;0.7141892;-1.9260565;-0.5416207;-2.4866066;1.7410713;2.157437;0.9083687;0.59374624;0.94602925;-1.2712598;1.6541612;2.9233441;-0.32624465;-0.62459964;-4.1060195;0.08214213;0.28340286;-0.18454258;0.6587959;1.1263365;-0.8476599;-0.97943914;-0.008045931;-1.1399431;-0.3834465;0.7154586;-1.090479;-1.3395102;-3.165329;0.284546;-1.712421;0.57479036;-2.197603;1.302214;-0.9714345;1.4317555;0.56790006;-0.2756398;0.6780279;2.8814216;0.76148975;-0.4301283;-2.27307;-2.1240098;-2.9516528;-0.88434464;2.701363;0.94676185;1.7270383;0.06302484;-1.231654;1.2704822;2.4228833;-1.2474188;1.340701;-0.82356113;2.7789676;0.5703755;-0.8966374;-0.031648204;-1.2638355;1.6301479;-1.428174;-1.04201;0.33678156;-0.25484902;-0.5194077;-0.08977613;-0.21090718;-1.1185172;-0.0511061;-0.005953316;-1.0372524;-1.0005379;-1.3142351;0.9050759;-1.1804199;0.49645856;-1.5571722;0.2807751;-1.2585003;2.4496925;-0.6291144;0.15773496;-0.7860648;-2.5017776;3.189396;1.5802326;0.023144394;-3.0624459;0.09489054;-0.34025759;0.7060781;-0.20763837;0.6100176;-0.119013205;0.9181102;-3.9456875;-2.5163743;0.6344291;-1.7997394;1.202823;0.39875898;0.16771355;-1.3342657;-0.95608705;1.7296722;0.10524647;1.8001382;0.6319678;0.38922697;-0.4277946;3.3797517;-0.013727688;2.7764838;1.4756135;1.0988711;1.0874314;-0.78480655;-0.08979869;1.1666133;0.7787893;-1.3560653;1.5244902;-1.7732997;1.6592721;-2.6298363;0.9942417;1.2636206;2.9582443;0.5773525;1.6649464;1.7004182;-0.4367083;-0.8090444;0.657121;-2.1266015;-0.46677506;0.621784;0.66712654;-1.511966;0.74134403;-0.49730086;0.6586286;-0.48875722;-1.4365072;0.5378475;-0.26816955;0.1311532;-0.6265027;0.036249455;2.4926298;0.6245566;-1.4379836;-0.8045033;-0.67365044;-1.7165319;-1.1196324;-0.07786884;1.561472;-1.1969924;-3.5351446;1.0749675;0.01534885;2.8061137;0.6770473;0.3995304;3.1156628;-0.55565655;0.0730649;-2.913438;-1.9483149;0.92387724;1.9681032;1.294368;0.14785591;-1.8044065;0.8464446;-1.6186864;-0.53814876;0.38971612;-1.9672725;-2.279248;-0.15219334;0.40572706;0.6791326;1.3886068;-0.12263163;-0.8384904;1.2092328;1.4492112;-0.76762116;-0.26019746;-1.6867851;2.4069614;2.069428;0.3251271;1.0608895;1.2669526;-0.1264628;0.9131529;0.77234167;1.0809746;1.0250399;-4.043377;1.5242581;1.1324198;0.2849835;-2.4633024;2.9741592;-2.0009935;0.1850686;0.07674323;-1.3798224;0.7141179;-2.3243227;1.4247918;0.33699808;0.6092991;-2.9434915;-3.6416607;0.4863611;2.3288865;0.2180021;0.7077475;-1.958056;0.7096402;1.1199939;-0.14073312;-0.25025794;1.4886218;2.568382;0.040101267;-1.1482624;1.8897237;0.034960732;4.2239056;2.8912578;0.95610285;2.1264963;-2.0956068;-0.99393386;-0.96993446;1.1792839;-0.7976495;0.8268455;0.13097239;-0.18658525;-1.3205136;0.4839328;0.502781;-2.1298282;1.5965074;-1.5811255;1.9962102;1.5187716;-0.35071248;-0.1120098;1.2075225;1.6155009;2.3303628;1.1864222;-0.33618197;-1.1837064;-2.7621505;-2.5607686;-0.30071756;1.5442543;-0.054701015;-0.77239037;1.0294645;-0.64953566;-0.79175436;-0.50792134;0.27629942;1.5512723;-1.5886941;1.5014924;-0.2528608;0.2364425;1.9645836;-2.6653364;-2.0553477;-0.39433676;-1.945639;-0.5868219;0.795156;0.86294156;0.057610903;0.4343272;-1.0446644;0.011253881;2.2666147;3.5632706;-3.8392153;-2.144972;-1.5944936;1.004438;-1.7957926;-0.55967903;3.042742;-0.37031028;2.3014026;0.88935333;1.3215038;0.8669734;-0.03958641;1.3309284;-5.6591215;-1.5425345;-0.26057345;-0.013150707;-0.5482348;0.25772086;-0.884016;3.1931334;-2.607488;1.1809078;-0.6461243;0.6600153;-0.95032847;0.06398203;-0.483632;1.8837433;-0.2978497;0.45516565;2.9731483;2.6462715;-0.77136594;0.48087487;0.16140617;0.48432627;0.180823;-1.38292;2.0714118;-2.741356;-2.2946718;-0.93162656;1.0976197;-2.6550786;2.5146637;0.9328833;-0.67716485;0.26723355;1.3092512;-0.8270866;-2.4625826;-0.49075288;-0.5130221;0.015619732;1.1628754;0.5451537;0.41820922;0.7735867;0.9442657;-0.28043687;-0.3366494;-0.03250738;-1.151041;3.6573617;-1.6088661;1.0527037;1.0372895;-1.2767239;0.96940494;-2.6888547;-1.9918437;1.3203104;-0.87871075;-0.7187986;1.1747037;-0.046779536;1.0879029;2.0349371;-0.889716;0.14129831;1.4435178;-0.13946764;1.1952896;1.3916373;-2.3321157;-2.342152;1.3950963;-1.8786055;-2.38754;-1.6842433;-0.37293825;1.468966;1.3540897;-0.93346584;1.652775;1.3112597;1.1477684;0.86019284;1.2331883;0.45791367;2.8999062;2.2897305;0.096501105;-1.5577039;-0.88702106;1.9649119;3.4033895;-0.7600701;0.96486706;1.3019991;-3.456718;-2.2601085;-0.20883796;-0.27262226;-0.7182616;-0.94675523;-1.3020235;1.0047927;0.40268087
-2.4238667;1.3129027;0.69441396;-0.98162574;-1.0543476;-0.56771857;1.0169939;-0.3232964;1.3789121;0.58410233;-1.0455412;2.4220903;3.0192065;-2.228625;-0.59573066;1.9600153;0.38858765;-1.4924704;3.930049;-0.3077836;-1.3537766;1.2389299;-2.454776;1.8590047;1.7637813;0.6211238;-1.6068023;-1.3594126;0.972209;-1.3657922;-1.3841633;-2.7693493;-0.6106195;0.28919533;0.66128016;0.04905018;0.3032823;0.33860403;-3.2675343;-1.4177165;-1.7444454;0.02500382;-3.016389;1.8673464;3.4153101;2.9847527;0.2636453;1.9091365;1.8631486;0.40810093;0.054775223;-2.8710268;-0.7488796;0.52139986;0.4454321;-2.8725007;-1.8227935;0.52020234;-0.4748689;-1.459235;-2.4844093;-2.517225;-1.738069;0.91222423;1.9277912;-0.4311337;1.3268349;-2.3821754;-1.1201378;0.5889881;-1.606951;-0.19830196;-0.51212245;0.83645844;-0.6378441;-0.2378556;-1.0278171;0.15701987;1.572542;-0.17799723;1.3947604;1.2464197;-2.5519557;-0.32022196;-4.0488772;0.1653294;0.21227512;-0.9077462;0.36470467;-0.41247204;1.8994975;-2.032871;1.5992053;0.9180191;1.2243143;-1.6444442;3.4647496;-0.650903;0.43269825;-0.43841076;1.0552121;0.25049028;1.147595;-2.434644;-2.3982575;0.86808753;2.4707167;-0.11482998;-0.9196698;-0.17420807;-0.8524504;-1.0334965;-0.7660298;-0.8252451;2.2893806;0.25675532;-2.4377782;-2.3292844;-0.073406555;0.9521699;-0.0048656417;-2.5545506;-3.2429454;2.528325;-2.314044;-0.30044678;0.8727419;-0.6626924;-2.1837788;-0.14501652;1.5934026;1.1665243;-0.0035215213;-1.3588978;-0.41909784;1.9364011;1.1223751;1.3274568;-0.3359305;-1.8613291;-3.6193206;-1.1562603;-1.1579803;-0.87320936;1.2068592;-1.8001614;-1.2287323;-0.4548432;0.38063434;-0.4962373;-3.5738618;0.18207882;-1.656246;-1.568687;1.6407547;-0.6108202;-0.014805501;-1.352604;-1.6856776;0.34991243;-3.743302;-1.3608407;-0.668564;0.21194604;-2.8556035;2.2970054;0.30290323;1.1166843;-0.14854437;-0.39241266;-2.4395752;0.34531233;0.54809934;0.64240724;2.2707024;-1.5532017;0.43301296;0.14673623;-0.79199165;-0.2588054;0.542288;-2.2851934;0.5816807;-1.2806288;-1.2220895;-0.63146716;1.8722336;-0.20401762;-1.0036521;-2.40381;-0.09272354;-1.0796268;0.6825422;-2.2777157;-0.25878653;-0.571848;0.90900683;-1.790077;-0.8056023;1.698466;2.1309528;2.0602758;1.1416228;-3.3500566;-1.7777635;-1.0111649;-0.049017593;-0.952798;-0.61775035;2.213869;2.1283453;-0.6889187;0.6331244;0.5119383;0.66096324;2.1280975;0.4718385;0.9191213;1.078426;-0.9615342;0.21002318;1.2133719;0.3935637;-0.8272851;0.68021345;-0.10813368;-1.7852824;-1.0288249;0.9734955;0.4778839;-2.313092;-1.3146029;-0.69721556;-0.8933114;0.832342;1.0977935;1.7813194;0.22223866;-1.7611041;1.0884576;-0.14866704;-0.25757954;2.9093888;-0.9092422;-0.47217363;-0.18358557;0.32043532;0.27483755;-1.1284204;-0.7657608;-0.5797054;-1.696657;-1.8240641;-0.73124623;-0.14524718;2.5217464;0.5312135;-0.85735494;-2.1211004;0.15956397;-2.3276818;-0.91033244;0.5259703;-0.763546;0.13475664;1.2721556;-1.3462571;-0.6614961;-0.17240293;4.4579434;-2.3816123;0.34762686;1.1462893;-2.119905;0.006381878;-1.2457873;-1.7894751;-0.34919113;-0.7492032;-0.85175997;-3.008659;-1.1033309;0.34998536;0.5043826;0.86742955;-0.42447817;0.019811425;-2.4777708;0.58451784;-0.8843744;0.9448672;-0.047762856;0.47886276;0.22747378;-0.066168875;2.8241792;1.5189224;-2.761866;0.02148449;-1.3218764;0.84910846;1.3835045;1.5829343;-0.6516737;1.2906018;0.07792285;-1.6262226;-2.2237222;2.534721;-0.6994212;-1.9461032;0.5204229;2.914744;-0.6139481;-2.3111527;0.12616567;-2.4604785;-0.51039815;1.4724039;-0.49307266;0.4858883;1.0025634;-0.6791308;0.7231807;0.14471497;-1.0935949;-1.289057;0.37880835;-0.6599927;-2.4535952;1.0430993;-1.9916737;-1.0113425;-1.662219;-1.3674046;1.287842;0.33165887;-0.46392912;-3.2579622;-1.410777;-0.33119285;1.0246962;1.2589426;0.99847114;-0.23785333;-1.0004478;3.0979667;1.443024;-0.22318771;-0.17801645;0.49034238;0.6580185;0.28563666;0.82768476;1.3632575;0.17246012;0.45538586;0.028276589;0.042702235;-2.5757842;0.82840085;0.9660651;-0.041345667;0.101672314;1.6271434;-4.667002;0.043016374;0.5531849;2.8175614;1.3838344;0.32777587;-0.39167407;2.1563492;-1.4345874;-0.8115336;-0.91547763;0.56354815;-0.8692563;2.262083;0.80793965;-0.8345204;2.5300052;-1.2805555;1.6478896;-0.11183956;0.50647557;0.90901154;1.1620058;1.0217814;-0.3624286;0.17313765;2.5114942;2.795005;-1.4359419;0.45443776;-0.2816484;1.4525882;0.027006557;0.25772902;1.625578;-1.2594175;-1.576381;-1.4586458;-2.7004426;0.5243646;-1.1378139;-2.449597;1.2008305;-0.46417508;0.09047622;-1.0029725;0.5565771;0.19353817;-0.1190796;-0.36240372;-0.46821865;1.5122206;0.81341434;-2.3551223;0.44283342;-0.115554176;2.353406;0.5212322;1.1850922;-2.7163618;3.9607282;-1.1252145;2.466498;0.5687009;0.39759952;-0.4858407;-1.3942347;-1.1099279;-0.9415073;-0.6136688;-1.4695631;1.2211076;-2.2422562;1.2481087;-0.42799076;-0.051515244;0.97000855;0.61403644;-1.4516294;0.79789174;-0.3296302;-0.13618074;-0.62994933;0.16884309;1.1202911;-0.78588164;-2.5145876;0.2002345;4.2280946;0.056977894;1.5399251;-4.397388;0.2532963;-0.21743335;0.43753326;-0.41626862;3.1894379;-1.9893262;-1.7281938;1.0583555;-0.3376533;-1.43076;1.2876533;1.6039381;-0.54279745;1.9142591;-1.6787928;1.5432031;0.24755026;-2.9756966;-1.368753;1.7277527;-0.3742579;1.358581;-1.0028114;0.018119654;0.10615758;2.9010086;-0.6345099;0.6200371;-0.23588471;3.3698194;-0.94892985;0.57706916;0.24210474;-0.3686127;0.90856224;2.4829535;-0.18214938;-1.9337068;1.4005744;-0.46182668;-1.1370945;1.2665726;2.679096;-0.42701718;-0.08071606;1.9416679;-1.9130291;0.073977806;-1.2456166;0.6177406;1.5358616;0.77545553;1.5078661;1.2428285;-1.259479;-0.89915115;1.6927601;0.77756274;1.4586717;1.5512134;-1.1191005;-0.3655245;-0.6438411;2.7542405;0.34578165;-0.931367;2.7431097;-3.3832054;0.18847595;1.1431943;-0.0013369753;2.4784331;-0.05259491;-2.2522037;0.60265243;2.7421322;0.47051042;4.0945206;0.09775346;-2.1041067;0.3847745;0.9539811;1.8881409;-0.008362894;-0.94873023;0.92706025;-0.83735436;0.5694126;0.96536493;-0.14646578;1.2568299;2.8622198;1.4205427;-0.60102326;-0.57762384;-2.5451653;0.7022588;0.30481866;1.6442517;-0.9583958;1.5543892;1.5175786;0.06183953;0.7601648;-2.2943728;-0.8870339;0.370115;-1.750966;0.97450316;2.6612523;-3.9365914;1.7200252;2.579137;0.95798236;-1.5738362;0.27379832;-1.0214707;0.35212293;0.8011666
-0.7270412;-0.5072557;1.0418549;-1.6172699;-4.6073604;-0.11007195;0.64494544;-0.3009735;-0.71833557;2.4628747;-0.2569069;-1.7083149;2.2721505;-1.7182444;-3.193963;-0.23700763;2.673831;-2.095762;0.17673483;-0.59055465;-0.5483027;3.785431;-3.2140555;0.35454887;1.7783396;-1.8940772;-2.9430919;-0.33372712;0.9448902;-0.12523188;-1.7879347;-0.6818657;-0.14408094;0.5387916;-0.7862547;-1.7554034;-0.9454047;1.1532263;-4.708274;-1.3333899;-2.5669482;0.7194019;-0.008714581;1.408077;0.38745034;-2.2160168;1.6658546;0.7941805;1.6719027;-0.34456024;0.87848043;-3.6125495;-1.0926037;-2.0284283;1.3357029;2.6859274;-0.99820244;0.2353683;-2.9296045;-0.47673798;0.71331793;-2.113675;2.1548438;1.0266886;-0.11421572;1.8658981;0.74685484;1.5862234;0.07218999;1.5194656;1.1435255;0.26163587;-0.9053641;-0.10273562;-1.1096193;2.8550766;-0.49411902;0.7940135;1.712864;1.4079324;4.245505;1.8124524;-0.23601006;0.98818445;-3.4202557;0.6167429;1.5024375;-2.0912137;0.2880896;-0.32750914;1.068996;1.4393725;1.5000654;-0.094067134;-3.0123293;0.81286556;3.4586005;0.16111782;-2.3155842;-0.417724;1.398984;2.3945441;-0.59911925;-1.9075518;0.973745;1.7749745;4.2245803;-0.11860384;-0.7386563;0.113372944;-3.714987;-1.8637353;-1.9219418;-0.50249964;1.3494033;-0.21876171;1.2934073;-0.077405736;0.3362849;-1.4398745;3.2698517;-4.715735;-4.616773;-0.48321512;0.7469902;-0.9452263;-1.8137342;-0.7242681;-0.16747163;-0.09971585;-3.6132984;2.2271163;0.56048816;2.5927873;-0.15496334;0.09883128;-0.44895992;-1.78684;-0.7765841;2.1380305;1.3575977;-0.6081244;-0.032633144;-2.2193642;-1.7379162;0.008360742;-1.3555341;-2.3688667;-3.7749965;1.9853142;-0.514481;0.71708804;-1.9516138;0.7734707;-0.10864458;-2.0108256;1.6870211;-0.8647613;1.8851815;1.9679086;2.400454;1.2224427;2.32535;0.9250767;-5.059015;0.5754283;3.959789;0.22728744;-0.16549335;-0.4459481;0.83603185;-0.4649331;0.9778024;-2.2761507;-0.26509917;-2.1002543;1.5462816;2.1610506;-0.21842094;-0.68772084;-0.37401375;-3.2106607;0.06959911;0.88620263;-1.1264532;-1.948979;0.6240551;-0.38212392;-0.076830916;3.3196754;0.9342641;-2.1315105;1.5174155;-0.6495751;0.095442764;-1.174818;-3.6407576;0.008285011;-0.1607855;-1.5776039;1.1004303;-0.26004684;-1.3147972;-1.4089322;3.0441918;1.0744299;-1.2107357;0.5910303;-0.2573701;1.2735496;0.84358704;-0.33844018;0.7290031;-3.7193072;2.0833519;1.0190619;1.0882385;-0.14176302;2.0135639;-4.182933;-1.4976552;-2.3929517;0.17847553;-0.7482939;0.32914;-3.348709;-2.20262;-0.35122564;0.8214706;-1.7154042;-0.44372872;2.508414;0.19691712;0.39075762;0.43481806;0.949498;1.0308104;0.085518785;-0.51430446;0.53343236;0.06780375;0.70964736;-0.9122161;0.25782856;2.3445153;-1.661503;2.4822547;0.2573634;0.9133471;-1.7302675;-0.13237013;-0.20573781;1.4066033;-1.3772323;-5.1041145;1.6508133;0.47950107;-0.4723127;1.6102148;-0.5031868;-3.5278835;-2.327743;0.022140518;0.9782352;-0.112788655;-0.26429722;0.9519653;2.1764307;2.6011333;3.1896772;-0.6303022;0.42026553;1.6779615;0.7729073;-1.7501822;0.4357256;0.34195393;0.26310608;-2.9038785;-0.1717924;-1.0189898;-1.9307969;0.0698973;-2.7153451;0.9451028;1.64669;2.0751257;-0.4364486;0.7014859;0.09175418;-3.7815845;0.21768193;0.9910759;0.017158782;0.44774088;-0.66096586;1.5941586;1.2864778;-0.4378729;0.9925628;4.070397;0.14016126;-1.4355769;-0.37337232;0.80743283;-1.3821528;-1.3010898;0.6044637;1.3301061;0.18136844;0.8087161;1.4065592;0.8725109;0.55414826;-2.0808167;-2.6390102;-1.4287263;0.9359594;1.6638919;0.45076954;-2.267898;1.6948327;2.7449677;0.560488;-0.73549956;-0.27589878;-0.6823794;0.2775396;-1.9851401;-0.078037605;-0.71556234;0.5536912;-1.8513024;0.75364935;1.0579346;1.7045177;-1.322371;1.2071836;-1.298572;-0.5771722;0.019865103;-0.01608512;-0.57039654;1.0206451;0.57932156;2.3816538;1.529629;-0.9863816;0.28744444;-0.49616745;0.48178092;0.34664404;-1.2839246;1.0495795;1.6897783;0.88064945;-2.07136;0.3533391;-2.0812237;0.41275036;2.7864861;-1.3511598;2.1015844;0.6295468;1.6081377;-1.7269261;1.7570364;-1.1602082;1.7156533;0.8991388;1.0238531;0.4562801;1.3079109;-0.048016753;-1.0821726;1.0166351;5.3594065;0.37035295;2.5823052;2.3380828;-1.0735545;3.575696;-1.6467595;2.6368227;-1.8974254;1.2625194;-1.8588929;1.5163177;-0.11946286;-0.33700338;0.40868562;2.2028496;1.0741538;-0.95303935;0.98263586;1.3904169;0.39314595;2.5960915;-1.453931;0.11116726;0.8775675;-0.03201506;-0.07049397;-3.1550212;1.6315181;-2.2777665;-1.3834156;0.2466999;1.0513084;0.666973;0.5142652;0.49115112;2.3836474;-2.3381376;1.8838952;-3.7156215;1.6378616;1.1943305;-0.5748288;1.217376;-0.5320228;2.123886;1.5451357;-0.12278613;-0.20328128;-0.69733113;-0.6154006;1.0131663;0.23827577;2.2146952;0.15074132;-1.3921349;1.224826;-0.5819671;1.2159188;0.3507545;-0.30388898;-0.100516796;-0.0590181;-0.5910721;-0.2932877;1.9004656;-0.0009329227;-1.520629;-0.38132998;-1.6676741;-0.52125245;-1.535494;0.36636838;-0.19251506;-0.7946835;0.8977002;0.36466745;0.9648359;-0.3965487;0.5754315;-1.9296652;-2.349045;-0.3224244;-0.17635341;-0.0038121974;3.9670174;-0.33412954;1.2197605;1.120564;0.15182911;2.9140103;1.4848365;2.2805414;-0.204068;0.59190005;-3.1665494;3.1653767;-0.030795064;1.724596;-1.5953209;-0.53934944;-1.1556705;0.9269469;-1.4859849;-1.784692;-5.6979027;-2.647543;-3.0674987;-0.9790918;-0.13896458;-0.80721813;-0.5006722;3.569936;0.22526969;-1.1972172;0.37902364;1.3474966;0.2681254;-0.33210886;-1.1000439;0.9459886;0.03772389;-0.85039574;2.5044694;0.992658;0.68381363;0.39809865;0.17331885;-0.40325472;0.94523907;0.6339713;1.3535837;2.3464885;1.6820463;-2.9812028;-1.3341007;1.0754097;-0.24782428;1.0637087;-2.813059;-1.3287425;0.009706667;-0.76398146;0.93444866;2.1401858;-1.558858;-1.0187328;3.9664726;-0.15589948;-0.17211859;1.7090837;2.6995864;1.1391464;0.5932403;-1.89845;0.9876724;1.0453881;-2.3529665;0.29400182;-0.015535317;1.1128188;0.30427292;1.7297301;0.68730086;-3.5589962;-0.46743098;0.059464667;2.244116;0.48183113;-2.4035566;1.6131607;1.8888999;0.0078833895;0.7623126;0.61609876;-1.1790814;-1.0090961;2.8600867;0.6002219;1.7547452;0.89261305;-2.0991528;-0.72318596;-0.12317883;0.04743529;-1.1159222;-3.3289385;0.8164562;-0.22426386;1.0519674;1.3807353;-1.6182159;-1.5146486;0.17807674;-0.51285607;-0.086026;-0.6325897;-2.123167;0.7741487;0.9295363
1.1054406;-0.40792406;1.9567103;-0.17812826;1.5199671;0.92389035;2.6034806;0.1100588;-2.1312587;0.6202919;1.8586134;-0.8616473;-2.6224868;4.3145976;-1.2219417;0.15653014;-1.3083657;-1.1945608;-0.63867897;-2.272432;0.6784993;1.623635;1.5534041;2.796543;0.52169406;-0.5143792;0.29073384;-0.3181043;1.5158215;0.3295052;-0.5972199;-0.028065616;-0.73488295;-0.0040685274;2.016533;0.7850023;0.0146478275;-0.28633326;-3.212985;0.39239135;-0.43516484;-2.652331;-0.9666484;-2.6610816;-3.3593442;0.07418316;-0.8117677;0.47529122;1.1015903;-0.13765223;0.049774773;-0.7352474;-0.81985474;-1.4462365;0.5417813;1.1244724;-0.52638674;1.037955;-3.5664053;1.5059186;-2.031994;-0.24415253;0.03064044;-1.0388795;-2.569714;-0.21906072;1.1876214;2.2092667;1.5515769;4.0818553;0.80257654;-0.7437197;-0.07990489;2.4956598;-2.7436085;1.9808135;-0.19103673;0.93735015;1.75367;-1.3318172;0.7044427;-1.0674983;-0.015810795;-1.4139811;-0.21208459;-0.9502633;2.5365827;-2.517976;0.5057108;-0.82774955;1.1840724;-0.10056146;-2.8281794;-0.029995676;-2.2538376;3.1770644;-0.7768686;0.55156946;-0.9357468;-1.0477006;-1.698759;-1.6108652;-2.6633747;-1.0239967;0.5510175;-1.3674599;1.6958294;0.01249011;0.05283276;0.2680989;-2.9789443;-0.9304678;-1.3953875;-2.5310593;1.8702358;0.23673327;-0.26794347;0.802568;0.38341317;-0.71857333;-0.39921883;-3.7073073;-1.5531099;-1.6611987;-1.7186521;-1.5530291;0.31369722;-1.4502563;-3.75453;0.17142777;-3.0283475;-1.7882055;0.80168283;2.300115;0.7595211;-2.2676528;0.9817002;1.0185366;0.21762203;0.7931096;2.7529821;-3.439721;2.314928;-0.559832;0.5633102;1.4403845;-0.68076944;-3.532538;-1.0165285;1.3245416;1.5617714;-0.7048694;0.044448495;0.81188697;0.049624145;-0.13551669;1.1482632;-2.4362955;3.8799956;-1.2086388;0.71882623;1.0679848;0.34262097;0.00067034794;-3.1551595;-1.2804728;-1.5248846;1.1626134;0.5911691;-1.3089525;0.4171347;1.6760406;0.27893132;-1.534713;0.24116756;1.1709222;-1.4201256;1.9133852;-1.1591363;-0.12846579;-0.025401056;-3.025682;0.8417836;0.09601777;-1.5634866;-1.9808118;-0.14526314;0.28920785;1.1365379;0.94391257;0.9784324;-1.9876571;1.7369164;-0.61227876;1.2809907;0.37477648;0.62936;-0.5187689;0.88034165;0.8920095;2.0994585;3.0909235;-2.3694308;-0.6477933;2.5922554;-1.608375;-2.336794;2.9479313;-1.960958;-0.65082294;-1.5405583;2.4940722;-1.6991863;-1.2434494;3.6545923;-1.7275873;-0.21017697;1.2781578;0.06053941;0.057918623;1.6227851;-0.57465476;0.060847353;-3.4565713;-1.392399;-3.1360457;-1.479813;-0.19639747;-1.1789232;0.6152645;-0.8621231;1.9518974;0.6134515;-0.16173269;0.69956577;1.3143193;-1.3306758;0.5212112;3.140624;-0.7188138;-1.965089;0.44569162;-1.0376012;0.913533;-3.0915117;1.2370417;2.3497505;1.1828132;2.1061006;-1.4869518;-1.2689009;-1.1043503;0.20948164;-0.39620045;-2.1304462;-0.3779237;-0.25344858;-3.156799;-1.3283201;1.6117961;-0.8824944;-1.8151424;0.15606102;1.6961513;0.05845671;1.5427959;0.73124254;0.16855022;1.2962605;0.46887666;0.044033937;-1.5154742;-0.38297075;2.8184235;1.2603788;-2.8803258;-0.052170906;0.7581901;-0.90576535;0.7846938;-2.4593282;-0.6397696;0.5927834;-1.3493819;-1.3581463;-1.9209371;1.0393662;1.1472577;-1.0350407;1.1348599;1.3390566;0.26510096;0.14801876;-1.3187352;0.46570063;0.2820086;-0.15393423;0.9761019;1.0568938;1.3602736;-1.0775642;-0.4719153;0.026554422;-1.3309013;0.6787605;-1.2059093;-0.57109;-1.668126;1.4679924;0.098722816;0.07430414;-1.2599071;0.18294792;-0.7659597;-0.24167466;-0.96186006;1.73637;-0.24584673;-1.1382178;1.4715868;-1.0061786;0.003449642;0.0062464303;-1.383787;-1.044444;-0.4833764;-0.9826978;-1.299118;-0.26015905;0.39116988;-1.819292;-1.6802005;-0.55328757;0.73350173;-4.1517963;-0.27444163;0.08577218;2.011608;-3.3611047;1.4242706;-0.1206015;-1.2394495;1.7441574;-2.0382824;0.21299195;2.8623624;0.052072447;0.34143922;-0.0026736036;-0.3194899;-0.33769757;-1.4847361;-1.7285851;-1.4809242;1.1271298;1.9169734;0.28654248;1.8776201;1.8803728;-0.67767394;2.12159;0.15685014;-0.60045207;-1.4432224;0.40665594;-1.3052988;1.2809207;0.54741263;-0.41206434;2.5050037;-1.7391415;0.6840725;2.5727215;-1.6006147;-0.50416094;1.8653814;-2.400525;-0.47701606;-1.3216712;1.4007982;-0.1131774;-2.3776908;1.7213159;3.4302413;1.615231;1.9745356;-1.281453;1.024179;1.0887215;0.5695644;-1.4186513;2.1388383;2.0965655;-0.6567995;-0.44804493;-0.55114937;3.9205472;-0.7437059;-1.5233968;1.5515864;0.8839007;-1.8969123;1.0453178;-3.7465856;-2.9219306;-0.5763282;2.35262;-1.430808;-0.64137685;1.1282246;2.3384738;-0.7840353;1.212964;0.6678489;2.8988156;0.48192063;-0.013029262;-0.44636846;-2.7538223;0.657436;0.25955313;0.8358712;-0.8492677;1.1983501;-0.3044667;-1.2839116;0.19388713;-3.2794333;0.15987766;0.8329431;2.1807342;-2.6353486;-0.3037932;1.6187041;-0.46246174;0.43753853;-1.3774016;0.5748704;0.6934152;0.07046823;-0.25854117;1.0696073;-3.0866477;-0.09197753;-0.14133264;0.3523101;0.7016431;-0.69671917;-1.1596291;1.5225393;-0.49523938;-1.1885545;-0.9427417;1.0451013;-1.5700505;0.23817591;-1.6074553;1.9985088;-1.3371859;0.641073;0.2681887;-0.35659006;4.5694623;1.3648901;1.4018874;-1.8189447;2.588397;0.43150288;2.4740684;-1.0226076;2.4059603;1.4982309;2.2589967;-1.4030044;0.98959225;-2.3078356;-2.5005753;-3.4171903;-0.13908833;-0.8703581;0.043682;-2.2179966;0.088407554;0.43989822;-3.460725;-2.5982292;-0.48367357;0.18831918;1.0964843;1.643786;-1.1947124;-4.487094;-1.1228755;-2.1464596;-0.93480414;0.2916879;-2.0051563;4.06044;-0.3445606;0.15401311;0.24190377;-2.3108175;-0.881477;0.024085164;-0.45361143;-0.046404723;0.8397225;-2.1466193;-0.091612265;-1.3957834;1.1983694;-2.6376328;0.5263864;1.6910487;-0.7371032;0.20538194;-0.62781394;-1.0548925;-0.113386326;-0.31185523;-2.3384905;-1.8141694;-0.40654644;1.3776667;0.7827247;-0.75193995;-0.39013436;0.91117346;0.730827;-1.3401597;-0.77738976;0.48689976;-1.8876822;-0.4890694;0.109237224;1.3303046;1.6453326;0.6647439;1.0093752;2.3021343;-0.46383372;-4.6361213;-0.7650028;-0.45153722;0.56112486;-0.17793953;-1.3523678;-0.6513478;-0.6639488;1.6171461;-0.037971243;0.371656;1.0446304;-0.41049942;0.06706997;-1.8735412;-1.876064;0.90530795;0.0029573392;-0.38975415;0.32008377;-0.61550397;0.7573386;1.0340674;-1.4099579;-1.6770822;-2.4158652;-6.0402837;1.4755585;2.4453459;2.2211347;0.10338007;-0.8041646;-1.1295156;0.96770144;-2.0056546
-0.11430201;-0.094124466;0.79055244;-0.6363681;0.39213374;1.2543743;0.3264355;-0.37706986;0.052241914;-0.1846251;0.74059063;2.0228033;2.2671;-0.06219263;-0.73388875;1.6941415;0.69502175;-1.5248253;-1.2989705;-1.2828023;1.2677388;1.5040284;2.2407382;-1.1841955;0.40506893;0.6356773;-0.5990844;0.6779948;-0.0073640505;0.37548852;-0.958896;1.0356103;-0.6821265;0.98132;2.4036698;3.426751;-0.35311633;-1.0992141;-0.94466823;0.34419024;0.30219126;0.27160218;-1.2853324;-0.9540598;-1.2390631;0.1348729;2.1651597;-0.6027691;0.22125195;0.13301031;0.7398687;0.77871186;0.6109164;-1.9297926;0.49118158;-0.6286719;0.5665358;-2.434182;-1.642207;0.09259324;-0.23592211;-1.4072632;0.87797856;0.04352251;-2.158337;0.13210833;-0.86863786;0.43794253;-0.31296548;0.01798055;-1.6819304;3.1821165;-0.50459856;0.21170314;-0.81805676;-2.0140026;-0.019937748;2.4796548;-1.3952439;-2.0222383;-3.4269187;1.0099461;0.12165898;-1.6093769;-5.4796596;-2.4779277;-0.041226625;-2.3263025;1.8438468;-0.8511192;-1.1389894;2.2044382;-1.1997924;0.2132856;1.0117255;-1.3085963;-3.164191;-0.46849778;-0.78107536;-1.0212134;-1.2972326;1.6497835;0.40545055;-0.74723554;1.4507086;-2.4345946;-1.3077819;-0.7445722;-2.6106505;0.42894965;0.9021853;-3.060678;1.8744583;0.7048918;0.18659393;0.9998384;0.06035582;2.4814749;-1.0032053;-3.134033;-1.2452694;0.41601914;-1.2025793;0.17833541;-1.646794;2.2212958;1.4958779;1.2370316;0.4500717;0.4616453;-3.1751425;-1.0599716;-0.72949374;1.240419;-0.8930726;1.7780442;0.9952284;1.8829992;0.24407281;-1.8212385;-2.572324;0.3040816;-0.12910695;0.33916175;-2.1584768;0.7834434;0.29270235;2.413813;-0.26007146;1.2791624;1.2715605;-0.10148644;-1.7533319;-0.16683008;2.6436324;1.6710826;-1.5706536;-0.8018118;3.5661113;0.7720681;0.0040295324;-0.8064518;1.2867792;-0.6298663;-2.2705255;-2.7508378;-2.4748344;-0.47939816;-1.1155456;0.41349775;-1.2786366;0.8465895;0.4843574;0.34647468;-0.19256662;0.29469454;-0.7705372;2.5241559;0.5999925;1.0070162;0.13363668;-3.6600158;0.24945731;0.15099004;-0.33465755;0.7477759;-3.2066941;0.42694303;-0.14322084;1.5375012;-0.32150185;-0.90707994;-0.5362844;-1.5456667;-0.122669585;-0.020253064;3.008343;-1.3115463;1.6339383;-0.65962255;-0.70126235;-0.41226307;-0.5904399;-0.4280997;-0.015790068;0.4840822;-1.8279718;0.6208847;-0.82288444;-0.3632461;2.5867476;0.49271327;-0.13094692;-5.6265464;0.0013183716;0.24700406;0.05848253;0.08146361;0.3503945;-0.29254675;-1.9844825;-0.43657684;1.289564;1.3286922;-0.48645368;-2.0839834;0.03829461;-1.3240483;-0.19629382;0.47598615;-2.9393253;-0.25042272;1.3394523;0.45163375;-1.3803647;0.96040165;-0.8150722;-1.2868176;-2.5686347;0.6739069;0.69677;1.3305105;0.05185126;1.910074;-0.71377504;-1.1311035;1.0760119;1.7478845;0.7753924;0.7952606;-1.1013998;-1.4139686;-0.7368237;0.41126177;-0.5568949;-2.4891708;0.8919158;-1.8381435;-4.275127;1.5551878;1.0338235;-0.4052249;1.5341313;-0.843586;0.060675982;-0.24604683;-0.82167464;0.396911;2.433243;3.6060135;-0.32160002;-1.29241;-2.5514045;-0.91830367;2.0959609;-2.4564652;1.3956226;1.768873;0.03921413;0.056425523;3.5168588;-0.55799705;-0.51242256;-0.60828376;-1.2386054;1.2684878;0.6368925;2.5447297;-3.0036132;2.677962;-1.6038525;-0.7339116;-0.15120675;-0.33705252;-1.0988209;0.10377867;0.07775033;0.90288925;1.0432601;1.3334033;1.6010559;-1.4728836;1.7025944;0.2962506;-1.6775433;-4.0603895;-1.5135163;-4.3354325;-1.8245329;1.2788892;1.4267584;2.117457;1.0376757;1.1876013;1.8893881;-0.28973073;-2.3585417;0.13810694;-1.3893708;0.34448403;0.5950292;2.1747391;1.9502226;1.8140959;-3.2146196;-0.2951442;-0.28184724;-1.053747;1.3150182;-1.301182;0.005027292;-0.3558293;0.18917134;-0.071942225;-1.0223848;0.042319104;-2.1175053;1.0285441;0.3825313;2.2799103;-1.2661711;1.2638476;2.0200562;1.6709672;-2.192478;3.4305322;-0.17982498;-0.32223436;-0.08367866;-0.9293973;1.3360642;1.5747364;-0.22736445;1.5309074;-2.1030135;3.9378896;-0.33951944;-0.4679784;0.5052401;-1.3377134;2.7632399;1.2198588;-4.382764;-1.0363386;0.26882246;0.47713903;0.80112493;-0.23150153;1.856636;-2.2117763;-2.4877954;0.57024693;-0.08393353;-0.15718117;-2.2039235;0.77375335;-1.0720567;1.0293772;0.57127386;-0.6099647;2.0556715;2.7001538;2.3339617;-0.74498117;-0.93316996;-2.661401;0.40763462;1.6360571;-0.09220897;-2.294642;-1.9354063;2.6864002;-2.198551;1.3891422;-0.6745991;-0.6095111;0.16256456;0.4717472;0.63125503;0.89545393;1.7425048;-0.5132756;-0.6634807;-1.7576886;0.37042353;-1.4408574;-0.015479526;0.33559424;2.3799644;0.6036797;0.5564116;-1.5906044;-0.96535176;2.3320038;-0.13098851;1.4976974;0.7939957;-2.0926049;0.8901065;-2.3583202;0.099807136;-1.5836692;1.4249383;-1.994931;-0.90656;-0.38697225;-0.694067;0.5546549;0.11395474;1.0513479;-0.90114677;-1.1838529;-0.78740895;-0.06490987;-1.1624497;0.5246619;-1.1224573;-5.7175837;1.1666207;-1.3748589;-0.2618695;1.7225382;-2.9872534;0.07498401;0.76139563;0.7173084;-0.38304862;0.39953813;-0.03389039;1.3387755;-1.2191328;0.7301743;-0.52612484;1.0190378;-0.79535973;2.090323;1.2365341;1.388469;1.161394;-1.8935844;0.7271828;-1.7725234;2.6412144;0.86502934;1.7339728;-1.9748331;-0.06236015;-0.6563753;-1.1192254;0.3387115;1.5744293;-1.6752355;-0.49689856;2.1488075;-0.54937583;-0.9637596;1.1171895;-0.17084034;0.7459345;0.61896837;-0.71944845;-1.192251;2.106496;-0.1992786;0.64410585;-2.5097318;0.8410403;-0.9489564;1.6445663;2.620883;0.84456515;-1.2013313;-0.3371136;0.98641276;-1.5823566;-0.658121;2.0903993;-0.40444994;-1.078679;-1.4624159;-0.80071926;1.0714144;1.5092354;0.5689084;0.66639835;3.291631;-1.5721061;-2.8423061;1.3548282;0.93678296;-0.9619775;-0.3412425;-1.7692187;-0.04925958;-0.7201088;-0.9231054;0.20765811;-3.447729;-2.7878487;-0.09793644;-2.025418;-0.056861024;2.241403;1.8601757;0.38629624;0.5315913;0.45984337;-0.9305317;0.777262;0.30509165;-0.22039899;2.6885662;-0.3855443;1.506314;0.19891563;-1.222051;-0.09061571;0.26298314;-1.2974753;1.5445275;-0.23396343;-2.1223886;-0.71276295;0.91483;-2.7769752;-0.066485725;-1.1163318;-1.4164878;-0.29914564;2.7406301;0.32333013;0.87263995;-1.1666126;-0.20916432;-0.51699835;-0.29785767;-1.6897401;-0.8688433;-1.7785573;0.12481646;0.7422068;-1.0245724;0.2732301;0.13316439;-1.4240994;-4.1487517;-2.5192165;-2.574055;1.7644937;1.3669233;2.8429995;-1.747965;1.3970884;0.87998384;0.037602365;0.083834715
-3.7524352;-0.69899607;0.74684125;-0.17359762;-0.4905024;3.0486784;-0.3251641;0.5080564;1.5708237;-0.21873221;-1.8077855;1.8570576;1.8454664;-1.8068757;-1.3770084;2.4713933;0.18424425;-2.2142208;1.139277;0.6887669;-0.4082926;1.2704751;2.091763;-0.76070786;2.8078926;-0.37847632;0.005118703;-0.5275002;0.726649;-0.6948115;0.94489825;-2.4201016;-0.6547716;-1.296916;-1.6796151;1.4709399;-0.6266259;-0.06947148;-2.323452;-3.9245644;1.5711415;-0.66502947;0.74190724;-3.9596958;3.7437727;0.40670425;1.0146601;-0.81832904;-2.3511357;0.18247834;0.57997566;2.912316;0.7099154;0.082722254;0.5161481;1.2694532;-2.4795878;0.6182325;1.7364736;-0.044645485;0.6660888;-2.0963137;0.58867186;1.6363101;-0.43747813;0.2170566;0.022489196;-0.8555219;-0.82879287;0.86422545;1.475097;0.74905753;-1.0371047;1.7728513;-1.3497938;1.3098706;-0.024652991;0.4455477;-1.0835837;0.52577436;-0.30161542;1.9713962;1.2162595;0.3376022;-2.9907618;0.46301854;-0.27891952;-3.3269775;1.0482949;-0.32859308;1.8472342;1.2898165;-0.5129975;-1.2642081;-0.84199643;-1.1691053;-0.28972322;0.95685244;-3.0490615;-0.07752624;0.7071334;1.8650599;0.99786747;-0.739885;-0.02222503;-0.60889715;-0.7869222;0.14590545;0.53944874;3.2182617;1.1423151;-1.232177;-0.04223584;-0.017114896;0.9251377;0.83766013;0.025808213;2.225679;-1.6377684;-0.3791278;2.3342257;-0.13147673;2.0520818;0.12057535;0.5983258;0.23427834;0.4901623;1.1164385;1.4599317;0.71921575;0.9913832;-0.59229547;-1.8576527;-3.0149362;-0.108773455;1.2855064;0.5391383;0.94670886;-0.8010274;-1.395385;-0.006568365;1.1978896;-0.38339457;1.3423626;2.9730701;0.110715516;-1.6057043;0.46085644;1.3469981;-0.92294776;0.11357851;0.21918313;-1.0373368;0.10328674;1.1098441;1.0109674;0.7140057;-2.0163386;3.2110314;-0.45633882;-3.8011923;-2.5861952;0.49528775;0.23778717;-1.8640018;0.5330332;-1.1951637;0.8963195;-1.5799434;-0.29855457;-1.4423034;0.9469164;0.3662461;-5.54905;-1.3012174;-0.86780685;0.4393907;1.6185101;-1.6495931;-1.7696391;-0.57312024;-3.2345045;0.62743074;1.1363393;1.4047819;-1.2891426;-0.63028526;0.5635001;1.2820947;-1.5682029;-0.93434036;-0.9271115;1.7508183;-2.4533403;-2.2178094;-2.30046;-1.6722298;1.5358061;1.2061073;0.37641937;-0.4309502;2.397939;0.11348843;2.501285;-0.98661953;0.16728498;-0.7726958;0.04342363;-6.351127;0.2415756;-1.1607064;2.1007533;0.41054338;-4.333173;0.8986505;-2.1852703;-0.24585924;1.6387805;-1.072029;-1.930966;0.31341806;-1.9602057;0.16708785;-0.1070942;0.38667887;0.2441214;-0.60916656;-1.4118162;1.6893543;-0.5622763;1.0883753;1.357608;0.009931655;-0.8475963;-0.6387646;-0.85127413;-0.57308257;-0.30364338;0.0018330459;-0.06639839;-1.6500651;-1.3435668;-1.9529462;1.8847424;-2.3777077;0.34470487;-2.1977592;0.2775091;0.24592641;-0.3895121;-0.8156101;-1.2353624;-2.3051746;-0.92172533;0.5409436;-1.6382365;0.8724104;-4.562319;-1.2839311;-1.5702889;0.38974017;1.2529637;2.7400196;-1.8421558;-0.26704782;-1.3537161;0.90697384;-0.35085487;0.8395298;-0.18623173;0.0940666;-3.2580662;-3.3074617;3.0814135;1.5962306;-3.2060137;-0.7523998;0.41289738;-1.3714167;-0.18048851;2.6140723;0.042906497;-2.120071;-0.032157023;0.6918846;-0.40488353;0.73808074;0.9142162;0.6247824;0.27750757;-0.46489263;-0.7373959;-0.004918791;0.42889464;-2.793934;0.16534176;0.059075747;-1.9795643;0.6286694;0.4899558;-0.7936936;-0.62802726;-1.5436902;0.7488388;-2.9557781;-0.95527107;1.36942;-0.7603726;3.5914385;1.9125614;-1.3252081;0.35078764;0.69600487;2.3593495;1.3471309;-1.7749588;0.6514874;-0.48265398;1.4120413;-1.4058125;-0.042919647;-2.3987217;0.75229603;-1.0919737;0.45168498;-3.4108522;1.2759976;0.718118;-0.9207112;-1.2364541;-0.5283526;3.8159425;0.85110563;1.2080603;0.5224627;0.59489435;1.4886272;-0.98528224;-0.17972305;-0.43929973;0.57898283;3.0679371;-1.7772747;1.2830262;1.4500462;1.6309774;-0.45941538;2.2838678;0.2974591;-0.99930936;-1.3460472;0.22842142;0.46080685;1.4954149;0.19424304;-0.37628716;-3.2338905;-1.2701815;1.451446;-0.07199533;1.0611187;-0.07546999;-0.8691183;0.65755653;0.94329065;-0.55636305;-0.09764314;0.9776858;1.0560546;0.5237161;-0.6544887;2.1643844;4.117898;-1.9016595;-1.5236629;1.1311083;0.4277423;0.63039756;0.8168462;0.86908317;-1.2397848;-2.6431623;0.614933;1.6817409;-1.0579876;1.6218296;0.8308358;-3.8777325;-0.5715206;-0.7008406;-0.2610357;1.1493361;-2.0286658;-0.25730687;-1.3260696;-0.6080644;-0.4438981;-3.2606223;2.0762997;2.348493;-0.7567986;-2.1915774;0.5368283;-4.5317297;2.403195;-1.2465609;-0.30950743;1.6729504;1.1865748;1.6506844;0.81324744;-1.5273856;1.1972489;0.3149997;1.1675929;2.0753286;3.9112318;0.1348924;0.23327054;2.1105025;-1.3175952;-1.7600089;1.0261321;1.163437;-0.6865702;-1.9368981;2.9193325;-2.5278146;-1.1414828;-0.8417133;-0.67648405;1.0242153;-3.8318958;2.7778537;-1.0310295;0.07012324;-0.20288579;-2.046392;0.78880435;-1.0044576;-0.1194717;4.053056;1.1692442;-1.721967;-2.5199733;0.75216323;-0.8360652;-1.4136863;1.4727967;-1.7372516;-0.7458292;3.4013062;0.6433206;-0.45553872;-1.5529667;-1.6186181;-1.7613076;0.8900649;2.3254719;-1.0337871;1.9462844;-1.0459896;0.041842077;2.394655;0.7371434;-0.3709067;-0.36704883;0.82817036;0.30406997;-0.64932555;2.9113853;0.7539901;0.053311255;1.8693167;0.4982143;-1.7296647;3.4759421;0.17369556;-1.128149;1.2865511;2.064037;-3.1536107;1.6053805;2.9330385;1.479008;-3.6955013;1.7031544;0.7092512;-0.70436513;-0.14265735;-0.49190387;-1.5861536;-1.7994574;0.074572675;0.15120792;-0.34109774;-0.088158846;-1.8698467;1.910562;0.18417592;-0.9938105;-1.4475764;-0.85134226;2.260613;0.9770893;2.304197;0.9359168;1.0312788;2.4720106;-1.6446416;1.2593502;-0.60793173;1.2504824;1.5121138;-0.38238284;1.3027807;1.6958616;-2.9443219;2.008175;0.97351617;0.46491805;-0.02323705;-2.5847828;3.9537551;0.4143953;1.6739511;0.6815576;1.5117748;0.048657812;1.400728;-0.98370796;4.5559363;-2.0454829;-1.9003165;1.4816346;-0.55582243;0.82351923;-0.9481062;0.18117566;-0.8920026;-1.0047843;1.0083205;-0.5897782;1.6973563;-1.5772321;-1.0633942;-0.9969319;-2.8354025;1.2613773;-2.0461855;-0.5676173;0.3041024;1.5360057;0.83600163;-0.31043148;0.87886214;-2.098864;2.273674;-0.6693095;0.10900816;0.2796085;0.97539777;0.70100147;-0.63797855;0.47857168;0.29901052;0.09773558;-4.2288637;-0.56582534;0.40776625;0.0053104716;-0.49248812;0.2412935;0.19428405;3.906573;-0.3574247
-1.3902445;-1.6109812;0.5481954;-3.4432564;-0.25723127;1.0963476;1.2812166;0.21658662;-3.3995798;0.94200045;-3.5495927;1.0034696;-0.47665957;-4.5194464;-0.24859187;-0.9631449;-0.15763238;0.24264883;-0.040893137;-0.08056238;-0.8110338;2.5874684;1.939346;0.771514;-0.8812997;-0.84291285;0.20077275;-1.21238;0.029642044;-1.2079837;-0.9684229;-1.6126192;0.103679456;1.4341859;0.72441345;1.6440216;-0.644755;-0.3073567;-0.11526943;-1.2498118;1.8417155;2.1270506;-1.04945;-0.7826266;1.2649425;1.0865302;0.6973666;-1.1779695;-0.89944553;-1.9575568;-0.7274963;-0.2996072;2.2917256;-0.10837984;1.1624646;1.0873859;1.0480415;-0.0151929045;0.547524;-0.7494002;1.1017697;-2.0899308;3.0235362;-0.8602485;-0.31758496;-2.038459;-0.24646756;0.16432849;-1.0325162;2.40662;2.5236588;-1.032783;-0.23550448;-0.49483743;-1.6676526;1.1373346;0.67841476;1.3489302;-0.9595146;0.22519745;-0.6803881;0.4903436;1.9660728;-0.34278733;-0.025578098;-0.21645904;-0.8017589;-2.240481;-1.3642173;1.3331716;-0.04100491;1.4287813;-1.0232646;-1.0387548;2.1105006;2.4928524;-0.77388436;0.6722185;-0.26854575;-1.5165781;-0.35402116;4.154069;1.7927703;-0.44219843;0.8674142;-1.0290759;-1.6815324;1.5683508;0.86425465;-0.97714776;1.243478;-2.050808;0.9131788;-0.6515888;1.9887372;-0.27766654;-3.4380069;-3.182768;-0.5494336;-2.1787388;1.1429503;0.207238;0.055434648;-3.3752646;1.6635225;2.9335477;-0.8962196;2.9670248;-0.023484167;-2.460757;-1.6580954;2.0023074;-0.5508594;2.4115386;1.5660541;0.55242014;1.2436106;2.0111074;-1.387931;0.1963488;0.14181316;0.41976947;-1.6156379;2.438273;0.31260505;-0.36178696;-1.0598134;-4.4095497;1.396968;-1.9785241;0.6236321;0.40719903;-1.887374;1.6076082;-0.51575726;0.8032777;0.9253453;-1.4583648;1.8308898;0.06338053;-1.2512681;-0.9157972;0.3290006;0.045417707;-5.881822;0.8673827;2.4056444;0.58397985;0.5340337;-0.11146316;-3.4238384;1.0759653;0.7941046;1.1515964;0.6751443;-0.43031213;-1.46109;3.1088958;-0.085890315;1.3136482;0.20753337;0.6747979;1.0475388;1.058388;-1.8474847;-0.053220015;-2.2202702;-0.0011854691;-1.1095277;2.9938958;0.64863336;-1.1168439;-0.32145336;-3.5499501;-0.18909001;0.43008724;-0.8257207;2.2768111;-0.93960637;1.1401768;-2.5673585;0.56225884;-0.654028;3.3584702;-1.8576357;-2.7183661;1.0171516;0.8257334;-1.1031597;1.2942752;-0.15827824;1.3043878;-0.80382705;-2.5478873;0.74648166;0.61712897;-2.097367;1.9528141;1.8536285;2.9502833;-6.023469;-0.90974337;-2.2766564;2.1725366;-3.9754527;0.99739873;1.2508682;-0.26604545;1.0777628;0.5556638;-2.3196316;-0.2342314;0.15731803;0.15161285;1.2449714;-0.75276816;0.82650274;-0.40097183;0.8682418;3.403023;-3.6081097;-0.81689155;3.5970628;0.2788333;-0.4827539;-0.3133578;-0.14749755;0.541603;-0.6029635;1.1430168;-0.6707028;-1.3025396;-2.071025;-3.1123917;2.5913222;-3.057101;-0.90908766;-4.1623697;-0.03022819;-1.2617817;-0.13599536;-0.049283203;-0.41748336;-1.4063725;-0.07210734;-0.08736584;-0.43024006;-1.290557;2.4540172;-0.8109382;0.87314785;-0.8048972;-0.15445423;3.9891043;2.4575002;-2.6862972;2.3189716;0.26905608;-0.029264782;-0.8316931;3.2307923;-1.5893934;-0.35582885;-0.97460437;1.2561122;0.1360011;0.82684404;-0.69449943;-1.7298329;0.66432434;-0.5465817;-1.476703;-0.9215784;1.4604839;-1.737371;-0.16751088;0.38486767;2.0046947;0.74085474;0.8725793;-0.5098179;0.027963633;-0.077912174;-0.26796615;-1.1907837;0.52343076;-0.24734162;0.76278484;1.2711592;0.41342413;0.57158965;-0.21932802;2.7587564;-1.9957342;-0.14024132;-1.1174765;-0.18684465;0.18542895;0.52057713;1.735192;3.9764833;-2.8300686;1.797776;0.6931641;0.4100926;1.079382;0.59665;-2.9142008;0.9113562;-1.486907;1.0023006;-2.1920419;1.3080758;0.23139092;-3.0804741;1.3189436;0.78249586;-0.99658024;-1.0163034;2.6091864;1.3067696;1.0276446;0.25522083;2.1736765;-0.7747256;0.029918542;-1.086971;0.19406955;-0.0043240734;0.138163;-0.5605623;-0.58553;2.1375322;-0.98395884;-3.7801585;0.70605695;0.4914988;1.0510092;0.567631;-1.974552;2.3325174;0.28580752;-0.105426736;1.9947991;0.582175;-2.932556;-2.311551;-0.9668286;2.7473986;0.559236;1.0501741;0.37440127;3.5648906;-2.079684;1.72713;0.10497077;0.12889768;1.1533798;0.8192428;-1.7038624;-2.3753932;-1.646577;-1.1889979;-1.0481917;-0.6464057;-1.454031;1.528496;2.6554987;0.9150268;-3.4291747;-2.05867;0.053260338;-1.8779052;2.679535;-0.47853237;0.9480849;0.95534694;-2.3581343;1.5466052;1.2308227;-0.4399633;-0.75933796;0.93328017;-2.1475291;-3.5353935;-0.6478843;-0.6812881;-0.286014;4.255276;1.3233962;1.3926908;-2.3965218;2.2535973;0.6721087;-0.575846;2.3444045;0.74806285;0.13745315;0.8571176;0.50038975;0.08883334;1.3940184;0.65740114;2.4945505;1.681766;-1.9558481;0.10105915;1.0426983;0.09492146;1.2798812;1.9886838;-0.20311314;-0.018199306;1.4528944;0.38179222;-1.4569606;-1.8243206;-0.78910804;0.5507005;-1.2037585;-0.24719112;-0.26122245;-0.5921054;-2.3187435;-0.8029467;2.2451599;0.72800577;-3.7317014;1.6694504;-0.29864556;-1.0245653;-0.19631968;-1.3649342;0.33756977;-2.522488;0.39459768;0.90913576;-1.3687042;2.5018165;0.04569857;0.24470606;-0.010932656;0.8450986;-2.0643635;1.0229055;-0.5174314;-1.2551805;-0.30414727;0.31286433;1.0514839;1.3667542;-1.6582971;1.355653;-1.3571951;-0.8049364;-0.28038263;-0.2719257;0.6757308;-1.3008156;0.5466105;-0.69113773;1.4974964;2.7874477;-1.4446718;-0.12867069;-5.374435;1.2285812;-1.6334656;-0.05076032;0.41633353;-0.11339633;-0.8991379;-2.3055952;1.4467443;-1.0306048;-0.32839575;-2.0166507;1.8827665;-0.48251277;2.7896357;0.23435695;1.4830173;0.6630423;2.043123;-1.6141592;0.56957495;-1.5747036;0.93324494;-0.20811407;2.529934;-0.06590723;-0.45197874;1.4652051;0.33578622;-1.4764614;0.8398436;0.064579874;-2.7436128;-2.123451;-0.9088342;0.94711244;0.37751907;-1.868416;-5.1173453;0.67697763;1.4773463;-0.94957155;-0.37064254;-0.06677833;1.0843421;3.2707279;2.4353096;0.97837627;0.9039304;-2.527542;1.129292;-1.028702;0.63827986;-1.4694507;-0.15574598;-2.7615073;-0.1728862;-1.6624268;3.0511076;2.0785353;-1.9081919;-2.8559284;-1.0284212;0.13606992;-3.1991236;-1.5079829;0.12440497;0.54999095;0.028343558;0.6965065;2.1641855;-0.040783565;0.7254123;-0.9288865;0.905597;-0.17678663;0.74075437;0.02240745;1.2407298;0.40413287;1.2808312;-0.69588536;-1.0164357;1.7328018;1.820962;-1.3592795;1.613726;-0.7031337;0.13975829;1.405112;-0.226387
0.53799313;-1.7435448;-0.50864315;-1.2689531;0.21150757;1.0477157;-1.1005514;0.5207501;0.36629945;1.3815486;0.09032171;2.1036687;1.3728281;-2.1698296;-0.7689191;-0.28094253;-2.7123594;-1.5642964;-3.4430788;-0.50162053;-0.9772838;-1.0732524;2.255198;1.5657873;1.6251754;-0.7538165;0.93654764;-0.35054076;0.10662956;0.6323952;-1.1807374;1.1307662;-0.14744908;1.9781764;0.7255247;-1.5700303;-1.0673892;2.0308855;1.9865474;-0.45925048;1.667114;-0.1092905;-2.9762723;-2.093678;-1.9602087;1.1164482;1.8206437;1.4461938;-0.98516625;-3.176878;-0.6109617;2.2630591;0.49069908;-0.7131627;2.6387076;1.6266125;2.735785;-1.0845782;-1.5075444;0.83557284;-4.6870947;-3.8024101;0.9985874;-1.7923054;0.40026486;-0.96012646;-0.28709725;0.47082087;0.6480333;-1.0819597;1.0221138;-1.859384;-0.24936025;2.9954011;1.2446038;0.8355422;0.15306906;1.5862768;0.06821268;-1.8613989;1.8754517;-1.6472516;-0.5784618;0.77581763;-0.58185375;-3.0982332;-2.2626505;-3.1522887;-1.152443;1.3949877;-3.6388733;0.28126162;0.72117084;-0.2501174;-2.5351682;1.5468578;-2.5832927;0.54914784;1.5610337;-0.42274427;0.1234236;0.7175715;0.8036825;-2.1459355;-2.4505184;-1.1813956;1.1000644;0.5016469;-1.5757914;1.3774828;0.118382014;-1.4945743;-0.18630071;-0.052568935;1.9027929;0.34261793;0.3143285;0.69713825;0.035752926;-1.5696034;-0.22932772;1.4275411;-1.3423113;-1.8077354;-0.5634722;2.6309946;-2.7258523;2.1692748;-0.009355429;1.8280758;-0.26793748;-1.9933195;0.35423875;0.849069;2.922802;0.60456675;-0.04554412;-0.65090644;0.16667837;2.2840695;0.45379058;-1.6526788;0.18824539;0.14078858;-1.0724567;-3.8283983e-05;-0.75523436;-0.86109746;4.676554;1.2232245;1.4361701;-0.11894672;-0.17310113;-1.8708141;0.57441515;0.3660462;-0.36877856;-0.038449157;-1.0781385;-1.1040429;1.1914412;-1.1113806;1.4719024;2.581755;-4.6125355;-1.4549689;-1.2697828;1.3461285;-0.99525595;0.002747579;-0.27780244;0.28904447;1.0785521;-1.3355135;0.8424392;-0.5184253;1.0083292;2.6598952;-1.9144813;-0.7211975;1.0441903;0.65690494;-0.38006687;0.2868243;0.56744295;1.4259924;-2.7316175;0.6875623;0.3650514;0.7476151;0.16271341;-1.9653459;1.4594617;-1.8332634;-1.7986253;-1.0923488;-1.467823;-1.4898108;-5.865751;-0.54473525;1.8307456;-1.2509657;1.146058;0.8045698;1.0286039;1.8148564;-0.81535465;1.3957409;-0.69420403;1.0660117;1.4229867;2.5982144;-1.3637213;-0.79354364;0.0878545;0.26003543;-1.4393138;0.91970086;-0.65148413;-0.24705906;-0.29018146;0.14294988;-3.4383802;0.35537952;-0.6868125;0.6644528;-1.0779574;-1.0950748;3.304034;0.46881577;-1.3714777;-1.1678425;0.30065215;-0.56218594;-1.9955007;-2.7166734;-1.0488193;0.40152055;0.19834897;0.49025252;0.89112425;-0.667921;-1.8014395;-1.3243932;1.879498;0.08369039;-1.4374306;0.09490852;0.023651503;2.4731033;0.31086698;-2.244327;-0.42949572;-1.8974622;0.5660862;0.4290219;0.4605036;-1.1618601;0.95805126;0.81162655;0.18693882;-1.2599502;-2.351058;1.4516196;-0.016654609;0.38259044;1.1943324;0.07559922;1.5673907;3.3586335;-0.4952904;0.8456271;0.84761685;2.07098;1.2089885;-1.53679;2.0176966;0.4254482;-2.5608103;0.3188833;0.023948966;-2.4008744;-1.785794;1.1870338;0.3586917;1.2592862;-0.32123122;2.5486536;-1.6103338;-2.1760325;-0.42825598;-0.36307043;1.031647;-1.593793;0.68143946;1.9735897;0.28297776;-2.6774266;0.601548;0.0009120944;1.5499389;2.2626898;0.60724145;0.3746647;-0.14903097;-1.5884851;-4.2597165;0.4162859;0.63129526;0.2300583;0.76393193;-0.8083801;1.5476379;0.29825428;-0.88287437;-1.4226688;2.1420667;0.08807233;0.35629013;1.6243453;-0.38124776;-2.8042872;1.0421252;-1.8542331;0.30044416;1.7994477;-1.5908715;-1.3673965;-1.5522429;-0.9106136;1.1212927;-0.57354075;-0.46075687;-0.06420917;0.33104652;1.7577178;0.9687547;-0.14494535;-0.5966816;-0.8126836;-1.1519166;1.0198623;-2.1243021;0.8077676;-1.6078634;-0.908321;-0.98167795;-0.2532564;-0.029204719;0.28134122;0.99744684;0.2576522;1.8757206;0.7107182;-1.8064448;-0.73443574;-1.2657322;0.34045336;1.594762;-1.4601786;2.103438;1.3709302;-1.2657971;1.0492338;0.6847073;0.7183258;-2.172042;-1.1721979;-1.1214184;-1.8303993;-3.0600083;0.75652057;0.17556684;2.1133375;-0.8463732;-0.49145034;3.4040995;-0.11335569;0.2979855;-0.90612894;-1.2360204;-1.8512465;-3.0248117;-1.3578899;0.035929047;-1.5630764;2.0739808;-1.7877337;0.15537734;0.07451211;-3.1696057;-0.45499313;-0.9880198;0.47319123;-1.5287175;-1.730459;1.9525411;-5.0797963;1.3560559;-0.44962114;-2.3051922;3.690809;0.3481283;-1.9111817;-0.38669348;0.65079546;1.0725604;0.7209701;1.4365926;0.35308814;-2.1540577;0.039462782;-1.9138016;0.45806086;0.7459167;-2.0448346;0.9242221;1.7099588;1.0340403;0.41426086;1.0907795;0.22920997;0.24120238;-0.577355;-2.2112868;1.7209677;0.17998436;1.8603439;-2.0910938;-0.5181378;2.1041174;0.4163458;0.4704;2.0171354;1.4737066;0.95686674;-0.62754655;-0.8367207;-0.16884463;0.8062385;-0.1556218;0.44062942;-2.2142153;-1.0045301;-0.009792933;-0.038904577;0.033586368;-0.6509127;-1.3218381;-2.0263386;-0.70559037;0.3087812;-0.017312478;-0.3275103;-1.6952451;-2.9244096;0.070961475;1.4509778;-2.3217301;-0.19898923;0.1685324;-1.2281414;2.6676056;0.84029275;1.9796325;0.04420477;-0.52900475;1.0012964;-1.1131152;-0.38584244;-3.5045075;1.6942773;-1.405275;0.6742313;1.0049958;2.4036717;-0.65362257;1.6631274;-0.63311404;0.5886542;1.9656743;0.70253795;2.8572464;0.8949552;-0.028267581;-2.4681542;1.1549044;1.462472;-0.9928701;-0.65363705;1.029184;-1.6220729;-1.6038197;1.4588927;0.9816565;1.712591;-0.45863318;-0.9360092;0.25208762;1.9582243;1.4493717;0.57124484;2.1056657;0.19667397;1.7888349;2.368436;0.2630244;-0.6548548;1.0417047;0.6270107;-0.5088845;0.8527752;1.1047461;-1.0978986;-0.89059895;-0.7770427;0.98326945;-1.5742506;-0.33395755;-0.6427435;0.86931425;0.5455501;-1.2576053;-0.8904014;0.9786089;2.014355;-2.5463505;-1.6649778;1.8949863;-1.6942425;-2.7956865;0.93709046;-0.9631792;0.40353784;-0.76918525;2.3059733;0.7672814;1.1202967;-2.9141269;2.9390216;0.076321736;0.77337027;0.92445797;1.8750194;-0.5466142;-0.9461281;-1.1518716;0.43028462;-0.9572094;0.7827531;-0.5252288;1.4440082;1.4473763;0.18557712;0.6773015;1.5318424;-0.3832283;-0.46209294;-2.6933873;-0.061930083;-0.51233196;0.53267455;2.651954;1.5195832;2.5630407;0.26666024;-0.38746926;-5.1090226;0.6599777;-0.38414878;-3.9824471;1.5904425;2.0869977;-2.233438;1.6957276;-0.252256
-0.4632541;-2.8083296;-0.29634678;-0.67350346;0.6669184;0.601409;0.056616303;0.6119929;-1.5516481;-2.3715482;-1.5152618;1.4070996;1.3094801;-1.0766305;-0.5122527;0.6033126;0.5291493;1.1413026;-1.8815095;-0.27441904;0.48860842;-0.5869171;0.78172296;0.83223075;-0.6750183;-1.9426891;0.8531867;0.23160857;0.37958175;0.34592986;-0.1283562;0.9480912;-0.55895996;-1.3749909;0.72558665;1.1354941;-0.4099188;-2.2299166;-0.563037;0.008425353;-0.716832;-4.2764244;-2.4621766;-0.914127;-0.21331882;-2.2102556;2.4171958;2.5388143;-2.1858153;1.6451708;-0.25400582;1.0539012;-1.0393662;0.6746395;-0.38124216;-2.0658796;-0.16651449;0.44932884;-1.816658;-0.5176064;-0.8606721;-0.7027612;-2.9641678;-2.0083067;0.3903212;0.071011156;0.21376267;-0.03925572;0.2881507;2.9470263;3.292019;-2.1049888;0.01816652;-1.5077473;0.30191565;1.4941108;0.8417493;-0.10903552;1.0941782;-0.5601074;-3.8458974;-0.92776394;-0.6855144;1.7801343;0.4786398;-0.3358454;0.6292482;-4.061684;-1.1489614;1.2286619;-2.1489842;-1.819574;-2.3889098;0.6908707;0.7006768;-1.3545467;-0.19238381;0.89596796;1.1245877;0.9626704;-0.9806287;1.7770855;0.71880704;-0.3630577;-0.7116928;2.22185;-1.060849;0.970635;0.73733354;-1.3659701;-1.1175385;0.53258485;-1.5390047;-0.8714278;3.0516677;-0.39123687;-1.7578188;-1.7700491;1.4973412;-0.83593893;-1.3207881;-0.31228694;-0.0633399;0.78931195;0.92632455;1.5997461;-0.20497368;2.9334195;-0.8302558;0.15397106;0.23877513;-1.2931937;-2.4893248;-0.7203281;1.8086091;-0.25987875;1.2591302;2.1954093;0.6315167;-3.17256;1.7449025;-0.44919333;0.42598808;-1.128022;-1.2406323;1.100849;-0.48282644;-2.3683062;0.603971;0.37654787;-2.1457405;-1.6621952;0.54257727;-2.403893;1.3008581;0.14119434;0.0049738977;-0.90225977;-1.6657506;-0.6022249;-0.13129915;-2.5279996;1.8423598;0.35363075;-6.025033;1.6456761;-1.7499055;1.7516787;0.12958363;-1.0584428;0.12231069;1.3115274;-0.22139694;1.8851632;1.9952627;2.894477;-1.258827;0.5306884;-1.2304945;-2.1548405;0.94878685;0.82120466;0.40187982;-0.6198931;-3.0796444;0.123623185;1.5040166;1.9265252;-1.1650093;-1.7177285;-1.1935315;-1.106156;0.0026265462;0.12504248;-1.0375537;2.4904857;-0.62685376;-1.6046804;-2.7737966;-2.3614933;0.597325;0.009738502;0.4324599;2.7663863;-1.2876582;2.3068;-1.134841;0.7630291;-4.446323;0.80927795;1.4397566;3.564905;-0.39096683;0.9568597;-0.70463985;-0.31554785;-2.3373191;0.7495422;2.8207955;0.8227244;1.0486262;-0.2940795;-1.5919517;-0.36414117;0.5672222;-1.4528401;-1.6773089;-1.7560824;0.8895034;-0.24058467;-0.9045091;-2.5006237;0.9517967;-0.69021606;-1.7968489;0.05889609;-2.2305624;0.6337235;1.6397717;0.7461384;-2.7099257;-1.046506;-1.217271;-1.2947053;0.87138563;-0.65548253;-2.8682644;-0.3787597;-2.4922206;1.3161814;1.4307164;-1.027614;-2.336372;-1.1542245;1.3192779;-4.0131435;-0.840181;4.192568;2.5428967;-1.1926501;-0.30336696;-0.35586026;1.3004411;0.124016695;-0.35157076;1.8755558;0.3390391;0.47826;-1.0720531;0.54430866;1.7254357;-1.0409428;1.5070351;-3.093803;-1.8646551;0.75070214;1.1761352;0.064711794;-0.08343928;-1.5060258;-1.6669065;-0.58187544;-2.0889585;1.608368;-1.2351056;-0.36256772;0.9356325;-0.31707647;-0.1178695;-0.3534352;0.84016156;-0.02123991;-0.9007309;-1.4198279;-1.2896487;1.0316026;0.6329671;-2.7980094;0.7990731;2.1423745;1.9247736;-3.1606548;2.1322372;-0.9276662;-0.059278343;-0.4181087;-1.2861502;0.17983705;-1.6080953;0.26729932;1.7915161;-2.1586337;0.07382497;0.5522166;-1.8880988;-1.5162594;3.3100262;-0.12959126;1.3325526;2.4129782;2.2145395;1.4985459;0.7109673;-2.0457425;2.069839;0.33419535;0.79546803;-0.8804965;0.61249757;-1.9489887;-2.9605267;-0.006310137;0.3962396;-1.7006593;2.3676672;0.904782;-0.5253241;1.853942;-1.8964548;0.9227431;0.39069346;-0.4738658;1.9180048;1.574258;-2.052211;0.85916555;-1.5894102;0.76853114;-0.119278334;-1.6492692;0.06293653;-1.719684;-1.4177456;-1.5214695;0.6382944;-1.4139407;1.8188152;-0.008333203;1.6038306;-1.0791081;-0.031313293;-2.1609902;-2.2763667;-0.47193804;2.0939946;0.81282556;0.9817433;1.6696639;1.2158219;3.3434699;-1.1215806;1.607389;-0.6436079;1.4425776;1.0851415;-1.9007864;-2.9549954;-0.64588916;-1.930083;0.52693266;-5.3026695;-4.9163427;-5.1368337;-1.1462231;0.67675835;-0.25028595;-0.7384933;-1.0945386;1.1229614;-0.59094465;-1.249443;1.8841925;-1.878759;-0.8125378;0.592813;1.7704233;2.9449782;-2.8803399;2.8637412;1.4634666;1.7729734;2.772586;-0.09895698;-3.2485206;-0.5743573;1.6785849;-0.41456997;0.7466834;1.0256741;0.30596462;-1.762825;1.1369507;0.8098992;-0.16457774;1.7757845;-2.7771122;-1.2170886;-2.1077628;-2.3549497;0.11124409;1.9289451;0.15978307;-1.5305884;2.4077756;1.143656;3.3504565;0.4969287;0.61655444;-0.07330576;0.14688264;1.2219632;0.25186792;-0.020430528;0.8574954;-1.0898987;1.7323664;-0.4434176;1.066459;-1.2666157;0.052898925;0.3211081;1.1139809;0.43074483;-1.4027857;-2.6896026;-0.7907466;-0.6199187;-2.7878098;-0.6803149;0.69740933;0.18195897;1.229063;-0.020944845;-0.29034013;0.5335389;0.005812442;-0.8781655;-1.2320697;-3.7343066;-0.20133074;0.9030314;1.0466691;0.43324775;0.25639284;0.47625414;-1.6205705;-2.128555;2.0818102;-1.5198104;-4.085922;1.398456;1.1878995;-2.7962084;-1.751044;-1.62235;0.625234;0.6631107;2.369581;0.023975063;-0.23058884;-0.30636457;1.5037123;1.3764654;0.2065671;0.21594068;-0.80139786;-0.2749276;0.06329513;-2.6271265;0.17375799;-0.43870533;-0.17846535;-1.031565;-1.7722352;-0.35481805;0.8834851;-0.9185758;1.7543509;0.9826158;1.7195283;1.0729094;2.1062105;0.7861401;1.4284258;0.1566972;-2.228887;-1.7003653;-2.0572555;-0.8383997;1.7919275;1.758864;0.61653125;-0.5590915;-0.8863256;0.34798688;1.0028285;-2.5975094;-1.1792543;-0.10614461;-4.4060416;0.18380746;-1.9170834;-0.2647529;-2.6789563;-0.17637023;1.4076253;-0.41216713;1.3084197;-1.8815626;-0.81402165;-1.2057344;1.3784966;0.16847384;2.0882306;0.18820585;-0.8779285;-1.9741459;0.3059679;-0.07986306;0.33342585;0.12374299;-0.34015048;0.7502095;0.16122645;0.95558286;0.9004715;-0.2173649;-0.6773362;0.16164415;-3.118404;0.36173195;1.1896523;-2.3900788;0.59622145;0.4584851;0.42415497;-2.38546;1.3436985;-0.140573;1.1062033;0.5600829;2.77977;-2.903927;-1.6612234;-2.5376868;0.5354423;-0.54813987;-2.1158924;3.570983;-1.6943047;-0.8647725;0.3457597;0.15587166;-2.3721967;2.1631515;-0.49557248
1.0521858;0.8353141;-0.8829226;-1.8774906;-0.04726889;0.7948186;0.18883929;0.015899992;-0.465397;1.8427762;-0.28724208;1.6132692;1.6799738;-2.9462018;-3.0771127;1.0101992;-1.9226507;-0.13703494;0.0028645704;0.42926192;1.1288661;-5.801896;-0.55759996;1.2878777;1.0091368;0.7246506;-2.25734;-2.8802845;0.6761297;-0.88393503;0.9596108;-2.2838397;0.6391555;0.5463706;2.2575698;0.0014907799;1.9715446;0.8488651;-0.8792187;0.5183428;-0.7651539;-2.2867556;-1.5035654;0.83668613;-1.0443602;3.7574775;0.2639313;1.1277387;0.8068279;-0.4318029;-0.001903778;1.7724928;0.8333213;0.65094453;-1.4681803;-2.4854238;1.3301458;-3.243357;-1.2188231;-3.2201564;-2.702482;-0.2021661;2.0267172;-0.12579662;-1.2442093;-0.24848777;0.9034171;-0.65851456;0.062389042;-0.83766603;0.97234476;-1.9342785;0.4818169;-2.2779026;0.50901824;0.5415645;-0.37663174;-1.309521;-1.8622715;0.6577439;0.10985502;2.8903794;1.2067654;1.8606553;-0.51291007;-2.2833369;-1.105474;3.0049083;-0.29450372;0.2596156;-1.9094471;-0.6304616;-0.74081653;-0.23185998;-1.1630685;-2.759795;1.5856366;0.29091412;4.012988;1.3969754;-2.5204153;1.561737;0.1551947;-2.5534415;1.4412911;-1.2884723;-2.019879;1.4176279;1.0039797;-1.2539696;-1.9032906;-0.09380207;0.22918497;2.0208893;0.96421385;-0.6520529;-1.227649;1.4058536;1.2698373;1.8396908;2.3742743;0.7075761;0.5635713;1.5175422;0.82438654;-1.0224315;-2.323608;1.5845706;-0.1801358;-0.28713638;-3.604708;1.8778186;-1.5481306;0.00589205;0.35708356;0.34561568;-0.29739904;0.2709825;0.38552606;1.0505141;3.7528443;0.91564673;-0.46883947;-1.1623063;0.056052472;0.87888587;0.7659881;-0.13693765;1.0029942;-0.15187538;0.52896047;0.24244867;1.0511527;1.6786731;1.8123276;-0.23469807;0.80302006;0.038440153;2.3403652;-0.17166308;-5.7512603;-2.7572844;2.2324889;-0.3187521;-4.3393784;-2.0054877;-2.0365934;1.6353623;-1.3521863;0.056801707;-1.7474442;-0.01866599;0.18767078;-0.6865068;-0.1433672;-1.7068132;-2.129757;2.4597948;-1.0579875;1.0658747;1.7249115;0.28262603;0.30549595;-1.1278058;-2.5840948;-3.7936525;1.8402041;1.5620039;1.2822416;1.9176273;-1.1629201;-0.8238749;2.0704002;-3.3836677;2.7642946;3.6464827;-2.6270587;1.2711192;-2.112129;-5.1025367;-0.22208533;-2.8185494;0.31704536;0.749181;-2.4045937;-2.4204648;-0.85873973;-1.6989312;-3.1521723;-1.0111077;0.8021668;0.8204336;1.0138165;-3.7651138;1.4882736;-0.4305057;-0.9400575;1.8787171;1.0479299;1.8418646;2.309447;-1.7697198;1.0754279;1.602455;-1.1351392;-3.266308;-0.13077183;0.065971315;-0.4432539;-0.9017278;2.4002395;-1.7010891;1.1288542;-0.79325753;2.7988682;-0.5365804;-1.2789799;-2.2269008;-1.7796936;-1.5011916;-2.0700798;-0.15410574;-2.2190065;-1.224644;-0.9408905;0.4819912;-2.4091995;1.2702247;1.3032879;1.1163293;0.7324645;-0.42775384;-0.89850104;0.50577307;1.5395346;-1.2475984;-0.48270822;-1.2807719;1.0351405;1.7435893;0.022902863;-0.507494;1.1237947;-0.79348034;-0.00038224156;0.5566202;-2.8269036;0.6690205;-0.3034859;-1.579116;0.5142231;-0.6227394;-0.5633398;2.4910753;0.19258426;-3.232765;-0.5421874;0.106142975;-3.5128965;0.08683591;0.74573296;1.3341632;-1.7508792;-2.0937278;0.8543761;-1.6325464;0.64686173;0.7242641;0.5515494;-2.0257819;0.23325273;-0.80515236;-0.5430866;-0.06138631;-2.7268493;-0.1899856;-2.2087762;-0.6011573;-0.4070984;0.12015633;-1.8080597;-0.34543484;-0.06342648;0.846052;0.70131344;-0.41575515;2.17896;-1.9535103;0.05153663;0.37337354;2.2423348;-1.3648905;-3.0213492;0.08336943;0.17406797;-0.31026337;0.55645365;0.9955128;0.29018742;2.4473789;1.3593822;-1.6352401;-4.373749;0.66171324;0.47918236;-0.5079637;0.9602096;0.58895975;1.6943996;-1.1396288;0.09568286;-2.101065;-3.4881186;-2.42345;0.9300308;0.8596784;-1.571011;0.27968436;0.33852977;1.295971;-1.9669262;0.52041745;1.9708792;2.1587007;-2.2075589;-0.13684475;-0.3331788;1.1868156;-0.34705466;-0.9892894;-1.2234387;0.64408815;0.13884862;-0.370327;-0.88839287;2.8169355;1.1789453;-0.5781894;-0.90811056;-1.7456046;-1.3411933;-0.93733424;2.5717366;0.45231646;-0.36846954;-1.1554316;1.3396264;2.6721046;-0.94380295;-0.17025861;-0.2958377;1.0910044;0.93651164;1.0777211;-1.3140914;0.2446145;3.0459483;0.72793585;0.2792277;-0.33667505;-1.2685318;0.5038119;-0.27039742;2.3743114;-1.4029859;-0.35486183;1.377215;2.2567937;0.945065;-0.47066182;0.327428;-1.8988428;-0.38877648;0.8698976;-1.4139502;-0.32224697;2.394534;-2.7619238;1.6285985;0.16649073;0.6382816;-2.2827923;-0.4991212;-5.886677;1.2328548;2.9449797;-2.9449997;-0.22266845;-2.1713455;-1.4002191;-1.1996076;-1.0559593;-1.1370147;0.4050662;-3.6064224;1.0157096;1.1651579;-2.4245398;-0.3313019;-0.82335997;1.0417421;0.56984705;-4.0684566;1.6973646;-0.41797936;2.287462;-1.7399133;-2.0155714;-1.2534707;-0.8200901;-0.27632633;-0.64783865;0.17502561;2.0684783;-0.040630832;1.3824538;0.5315562;0.8694489;-1.7095085;0.13118449;0.2606392;0.70355755;0.8245754;0.89427483;-0.79881394;2.3624873;-0.33519256;-0.17904069;-0.14699098;0.18543795;-0.53424674;0.42395455;-5.1736608;1.5693663;-2.211173;2.9398592;0.43950552;-3.3991284;-3.7304106;-1.572153;-2.5653949;-1.3122973;-1.1899949;-0.6694218;1.8837883;0.5662024;-0.50491536;-1.5638909;-0.55104107;-0.015723994;-0.87577826;0.6605343;-3.7447047;0.0259661;0.9559773;0.9441956;-0.4739791;1.28115;-0.07589208;5.199429;1.8393303;-3.6472118;-0.8367929;0.2391368;0.5297615;0.3197418;-3.8295722;-2.6687052;-1.1292747;-0.526563;-0.19884865;0.21979813;-1.9483823;-0.23353666;-0.6804294;0.40582353;1.362735;-3.6783314;-1.3467395;-1.5262161;-0.07622469;-1.6758069;2.5228877;2.2915938;1.6585237;2.1555088;-2.8210905;1.6229631;0.252353;2.3261116;2.546905;-0.09203021;-1.6746733;1.798561;-0.4707897;-0.7717341;-1.4414728;-0.64311904;-3.7928097;-0.647853;1.9662378;-0.6196808;0.43427148;-0.977779;0.33112377;0.86349076;-3.8204396;-4.240212;-0.4137877;1.2414969;-1.2507359;-1.0008866;-0.70729786;1.2276987;-0.46589404;-2.1591349;-0.6075438;0.37480107;-1.3318133;-0.2624751;1.751301;2.7865689;-1.8713552;-0.31925744;-2.3931537;-0.17422651;0.2707113;-1.385272;-0.6914727;-5.5533547;0.7228058;0.85212624;-0.944495;1.8126818;0.18760084;2.9546235;-0.10655766;1.7027887;-1.9429731;-0.19982703;1.5257304;2.579737;-1.5278282;-1.2513583;1.1160035;0.86266613;1.3134023;-4.638162;-0.062225126;-0.304977;-0.5540166;-4.310417;0.49493727;-2.7825024;1.5335194;-0.99091727
-2.319368;-2.7173662;-0.010396121;0.6658717;-1.5352492;-0.75456476;-0.073720664;-1.4714775;-0.95426524;-1.9120625;0.40699205;0.806428;-0.28057852;-4.7380233;3.5944502;3.1587121;-0.78147596;-0.81490505;2.2616212;-1.8783029;-1.4055468;-2.4554005;2.5965052;1.6302844;2.342687;-1.0043273;-1.0128633;0.74107736;1.1311295;-1.9674582;1.0580741;0.7362656;-0.88599396;-0.1244914;-4.2317038;0.17567135;-1.0289662;-1.1318362;-2.538393;-0.9003631;0.25551078;-2.0136218;-1.9305148;-3.0798514;1.984975;0.86595595;3.7080116;1.5238458;1.4362313;0.09165084;-0.38460684;1.1318691;1.9623902;0.94057375;-0.05666924;0.7803364;1.8269985;-1.1228527;-1.7117115;-2.1555386;-2.2651386;3.3113263;0.8468408;1.0311462;-0.8146865;-0.21793605;-0.2645587;0.55300653;1.5687262;0.4141229;1.8143508;0.12009133;0.5795096;1.6585214;-3.356195;0.62526876;0.3308125;0.7081087;1.1697409;-0.7386374;-2.3043818;1.9450375;-0.4571916;0.9447328;0.5649611;1.0046811;1.0468054;1.5470662;1.2001454;-1.7641038;-2.247306;1.6682979;0.01580324;0.3064339;-0.5061742;0.17227839;-2.1391437;1.6021408;-1.0909053;3.190234;-1.2303987;-0.09030618;-0.17120427;-1.6228014;0.65872777;-0.23395026;-2.8193777;-0.24012715;0.21825309;0.6443195;2.3463314;0.78843284;0.13791594;-1.0968851;1.1361762;-0.059989206;0.766187;-1.6381425;-1.2284478;1.2036952;-1.4249042;-0.2684882;0.7303413;-1.5427475;-0.63532025;-0.6251454;-2.317044;0.6455738;0.20297988;-0.6556549;2.1073132;1.3292781;-0.5835104;-1.29088;-0.39646432;0.44266883;-1.6465204;-0.8687582;3.1067996;-0.6062338;-1.4394511;-0.0002851045;-0.18857408;0.023103971;0.4208535;-1.6760601;0.44597343;1.4940223;0.66413623;-0.57558346;-0.064081416;0.42546478;-0.8627897;-2.6124759;-0.14940144;0.119948834;0.17789018;0.8151758;0.81056017;-2.859006;-0.5292828;-2.573121;3.0814612;3.1925888;-5.3082995;-2.052542;2.24888;1.2848451;-1.9935852;1.6962228;-0.037312325;-0.4083117;0.014600101;1.7997636;0.6195069;0.37294066;-1.9070984;0.70912397;1.1378053;0.48511583;1.2632529;-3.5455415;-2.024561;-1.2093042;2.6270547;1.2259052;-0.77842444;-0.3021342;2.2844694;-4.532167;-0.88575613;-1.472382;-0.5009248;-2.306017;0.4001489;-0.6853496;3.3057463;0.59114033;-1.5093826;-1.7499204;-1.2781945;-0.50385827;-1.7278084;1.1549351;-1.006239;-1.6954979;-0.5324392;1.3490903;-3.8460646;1.7386872;-1.8399894;-4.200696;0.16387224;-3.351327;0.76600534;-3.5820096;-0.8768921;-0.3932147;1.870353;-0.7793776;0.7341479;-1.7612702;-1.0199139;3.2574308;-1.1977644;1.0153967;-0.82123756;1.2090684;-1.2817152;0.9053701;-0.55326337;-1.1252682;0.95892423;-0.6867666;-1.2469959;-3.225984;0.49669024;-0.06635809;2.5125947;1.5190876;-1.4227631;0.8440536;-3.7020633;1.0378642;-0.4999171;0.32448912;-1.7917131;1.9805295;1.570163;-0.23935267;-1.0122441;2.1836216;0.31636098;0.7406364;-0.84013474;2.702002;0.14544438;0.038888924;-0.35271975;0.4981298;0.27256832;-1.1144588;-2.1052532;-2.2726576;0.21509372;0.6653396;-0.6339506;1.902556;0.12719141;0.42272866;0.23083067;-3.1824584;3.577641;2.002197;1.0905507;-1.7653122;0.568463;1.9350845;1.9226757;-0.90317225;-1.2315338;0.8534516;-1.2828146;-0.19375697;1.0208522;-0.9824163;1.5941386;-1.8775512;1.0964073;-2.096869;0.01360399;-1.4857892;2.0459955;-2.5679543;-0.9235289;-0.71255153;-0.88320595;-1.0222566;-1.1388454;1.5746522;-0.63009274;-0.113874674;-1.1211894;0.3345092;-0.8018575;-2.7943783;-1.4722209;-2.5962348;1.5716265;0.41467756;3.6489959;2.2767966;-0.44852474;3.8129306;-1.4782468;-1.4814757;-0.5129337;0.87369984;0.1751908;0.59874964;0.39751694;-4.023187;2.7686446;0.6719268;0.96135527;-0.8566523;-0.558647;-1.3058721;0.32082936;-1.7881426;0.6244725;0.3527485;0.59947294;-0.99466014;-1.2095343;1.5704687;-1.3951006;1.2083194;2.3374345;1.0687984;-1.8954618;-0.29586443;-1.1343184;-2.6805055;-0.33900207;-1.2835481;-2.7317677;1.9428818;0.1859432;-1.6654947;-3.6390123;0.96355194;-0.21211866;-0.8011715;-2.1696346;3.3753755;-0.4773633;-0.530694;-1.4687209;1.4316437;-1.8420532;-1.0704584;0.8472481;-0.14925759;1.0030078;-1.1412024;0.82267475;1.2094396;-0.8841346;0.27118334;-0.8951714;1.0050726;1.9335952;1.814887;-1.4419776;2.3667576;-0.6495968;3.017051;-0.55055;-1.5683748;1.9396454;0.19413123;-0.9509881;2.4327745;0.40607908;0.9947199;-2.3549323;1.39901;0.63561606;2.1026316;0.34603295;-0.0067072087;-0.07131283;0.81478566;0.72175294;0.70141786;-1.8818494;-0.31799987;0.1974354;0.9694639;-0.6588279;-0.30119663;-0.60825336;-5.4240294;-0.9115474;-0.5325425;-0.10704595;0.41397384;2.796681;0.9812701;-0.7073615;-1.5432307;0.50785685;-0.6702962;-3.4436188;3.2891066;0.34819326;-0.31436148;0.11775722;-1.7476472;-0.24701744;0.23320204;-3.4962268;1.6448003;3.8592281;-0.7655179;1.4758118;0.55476445;0.708562;-0.37232116;2.0829086;0.6103394;-1.1291006;0.24121706;-1.2249881;-0.7449791;-0.4461463;-0.8400478;-0.8088312;0.033560697;-0.120641924;-1.1499327;-3.110959;0.8327483;0.15065773;-1.7847339;2.384008;2.0814345;1.6761605;-1.4091935;-1.1304544;0.71944886;0.10521972;-0.14359558;-1.4294266;0.042989414;1.1147318;-4.1574335;-4.8393726;-2.391841;-0.78342575;-4.095017;2.7948816;0.32307422;-0.033246677;3.0846517;0.6791365;0.37189406;1.9940076;1.0340892;-1.108731;0.8048977;-0.20952171;-0.2958283;-0.43213475;-0.549091;1.54814;-1.9765188;2.4421992;-1.6738713;0.9031179;-5.795714;-0.98784447;0.41287285;-1.1726705;-2.4647152;2.3595557;2.823564;0.21674675;-1.1408075;-1.0447546;-0.47598422;1.9731673;0.7675294;0.30273238;0.3022878;-0.39833835;-1.1116201;0.4417291;-0.7416042;-0.19691283;3.9427047;-1.3669815;-2.0148437;2.8961902;-0.22459048;-1.0441704;0.037514526;-2.4631476;-0.87796015;1.9335921;0.16874658;0.14504485;-0.8023668;-1.4987849;-1.1306828;-5.0160165;-1.5426377;-1.0191604;2.9548028;-0.20911513;-3.0973785;-1.8719168;-2.9687603;0.29953662;1.7993069;-2.484451;-1.5666027;0.46202192;2.1722836;-1.436478;-2.8417807;1.7842206;2.1996725;-0.7337716;1.5289599;-0.40717041;1.1628275;-1.2196202;-0.1444638;-0.9910744;0.91123796;0.1614495;0.32734498;-2.394353;-0.39664397;-0.2536228;-0.8195183;0.8423468;-0.526378;0.9427659;-2.467678;-0.14262933;1.8529186;-0.7661484;1.0414094;0.11907666;1.1298952;-0.7202104;1.4410979;-0.069080345;0.11379839;-3.131151;-0.018462313;2.2951534;-0.10164096;-1.7206668;-0.080340356;-1.0374047;-0.06586891;-0.51070356;-3.3176038;1.0319715;-2.1849158;2.3228707;0.045672826
-1.6504788;1.4981747;-1.8487837;-1.8308792;-2.949767;1.2058644;-1.6727527;-0.6966573;1.140123;-1.0379249;-1.079525;0.7699193;-0.48232555;-6.983733;2.1329496;-0.06979523;2.2979417;0.7447745;3.4997132;-0.38930392;-0.71103144;-0.9854269;0.3576338;0.34426472;1.6341972;0.7900706;-1.9392803;-0.09127845;-0.22168078;0.6194196;-0.12876368;-3.2742472;-0.6308774;0.34223524;-0.98529834;-0.45464265;2.0228262;0.19240463;0.5733488;-0.029595317;2.138739;-4.513376;-2.902801;2.948666;-0.9113;-1.303941;2.2680895;2.4643636;-0.15391397;1.767365;-2.5926647;0.09771229;1.3554385;-2.8876278;1.6786636;-0.5950197;1.8814452;-1.3688807;0.52877253;-2.7175827;0.19244237;-0.7419549;0.06833019;-0.7664898;1.3430018;0.36797422;0.4957827;-0.7367946;0.19907215;0.042020753;2.7662039;0.9077663;0.3796337;0.7546901;-0.5441674;-0.09082904;-0.6770285;0.04922171;1.5539175;1.0127108;-0.63466185;-0.45988208;1.0875607;0.96710944;-0.83493114;0.14783742;-0.01808628;-0.40153563;1.4676484;-3.371367;0.39268318;-1.6416085;-0.81891537;0.5519404;2.210151;-3.1780283;-1.128058;-0.18089513;2.889856;1.7044672;0.7824855;-0.015605893;-1.3923892;0.032182258;1.0354319;1.0878778;0.9189912;-0.46867412;0.95977783;0.072773345;-0.025505286;-3.2222693;-1.0887743;-0.3930777;1.7587742;-1.5110269;0.1450755;-0.19543438;0.3774595;1.4938507;-2.861364;-1.8802522;-2.0168943;-0.55476964;1.8028294;-0.8288076;0.19476244;0.42759475;0.23487528;-1.5578624;-1.5097269;-3.4674215;-2.4467444;1.0703874;-2.3232093;-0.65183294;-1.7681198;0.54276013;-2.8802114;-1.2590522;-2.1876101;0.122611076;-0.5834708;-0.562036;1.3733103;1.2471732;-0.57569987;0.53299296;-1.1759396;-0.20326565;-0.96380687;-0.38104984;1.6148386;-1.3510923;-3.7836995;0.7738902;0.8032947;0.015353519;-0.50489795;-1.3211416;0.01677539;-0.9313414;2.0113888;1.9792243;-4.2788663;0.12913944;-0.05086168;1.5258597;-1.9442158;-0.33032605;0.8581071;-0.6447118;-0.68829346;3.695936;2.0244765;0.90601164;-0.2206654;-0.63850904;-0.3772846;-0.4486487;0.44723758;-5.467921;1.4817295;0.576613;-0.30414802;1.6528496;-0.85615385;-0.011524488;0.4801758;-3.6201952;-0.83326334;0.02443694;0.08636136;-0.49771205;0.5250692;-5.040573;0.41974905;-0.60729575;0.21401319;-4.6878843;0.909506;2.1084676;0.18473251;-0.28969523;2.1937115;-0.37594983;-2.2679503;-0.5127063;0.9209316;2.7764938;0.3853326;-1.6446836;-0.6377494;-3.339305;1.170887;-2.058057;-2.301411;-1.0089438;0.6091514;1.7644086;0.31745714;-0.40141633;-0.62688994;1.1941798;3.2289736;2.746671;-0.3283979;1.1105427;-2.0712974;2.2572925;0.43689737;0.27302948;1.7569971;-0.03809771;3.2795546;-0.8828067;0.42363337;0.6273076;-1.0091552;-0.24013014;-0.32893187;2.2898598;-1.013325;2.7256536;-0.029035572;1.3851998;0.4907314;0.18634257;0.40261072;-2.0562537;-0.17956783;0.16185102;-1.5126133;0.016827023;3.6594841;-0.56386125;-0.16731587;0.0724051;-1.4667491;1.3451141;-0.7077813;0.08076649;-0.17304547;0.3477589;-0.13543908;0.50855595;-0.18479963;0.7446668;-0.6097501;1.9823598;0.9096817;1.5778985;-0.45893398;3.749537;0.88059354;3.5154634;0.93698645;2.1566305;2.024583;0.89194506;-4.298193;-1.2787505;1.4845626;-1.1211653;0.44715127;-1.2631398;1.5700873;-1.6104547;0.49223238;0.8077208;-2.0088139;-1.2706764;-0.2103551;-0.67055005;-0.22929068;-0.9882477;0.38062477;-1.568666;0.09618752;1.3830792;0.49446422;-1.9979075;-2.3092363;0.5715377;1.5524055;-0.36228126;0.7706732;1.4031671;2.1171625;0.29260486;1.6799432;1.7575346;2.0597818;-0.46506384;-1.2672547;-1.244712;-1.2481982;-0.41178775;0.12922214;0.21640347;1.8025421;-3.5849395;3.0509186;0.02080025;0.49338132;1.1582208;-0.12730034;-1.5735593;-1.7840896;-0.21163984;0.42031553;-1.8027612;-1.6840076;-4.5359874;0.6198992;1.9515007;0.25259474;-3.6746578;0.48485234;-1.7692314;-1.1459242;0.6183278;-2.0808113;-1.2627879;1.394263;0.9121527;-0.90330416;1.4300779;-0.1025566;-1.5765268;0.5401311;-0.9572403;-1.8510302;0.99222827;1.6258273;-0.04455435;-1.6269826;-0.37745628;-0.5324329;1.0885283;-1.136376;-1.2219917;0.22531664;1.1183103;0.79863703;-1.0786788;2.0816722;1.023318;-1.6962028;1.7661712;0.93921804;1.4093119;1.0038096;1.237776;0.021424858;3.374444;2.9107382;0.8467046;-0.49010763;-1.213581;0.82258123;-0.7112258;-0.92529106;-0.9848621;0.61406237;-5.3704214;1.4734123;0.77050006;-0.28158417;3.4112182;0.16804321;-1.3654116;0.3114243;-1.6378299;0.8756133;-0.36551645;1.547992;1.5450412;0.5578278;-2.0827384;-1.5669358;-4.210993;0.40384817;-5.3853965;-0.63593894;-0.3735914;-0.326878;0.52674097;-0.8291129;-3.0206676;-0.3960593;-0.6814035;1.9935688;1.7300216;-0.466029;-0.041623067;1.3588957;-1.1276237;0.5774396;0.35595027;0.32555968;0.8061907;0.1170631;-1.084468;-0.12566164;0.35608906;0.46224025;3.0998938;1.438628;0.45522004;1.5442641;1.2928882;-2.3911185;-0.588653;-1.426652;0.36965978;-2.7714899;0.660361;-0.15235774;0.055510744;-0.19508961;1.6736324;0.43863994;-0.61115813;0.6841264;-2.1327794;1.8505;1.4179603;1.1698802;-0.3749028;-0.02676964;-0.57933754;0.042657286;-1.0684943;-1.6343322;-0.30069458;0.44941345;-2.3492513;-0.29934323;-2.0291486;0.47637;-5.2387366;-0.16468175;-0.0127724735;0.23765664;1.1829234;3.5140033;-1.2282685;0.07485023;1.1072985;-1.0496238;-0.34421805;-0.11233551;-1.3095179;-2.3188195;-0.18384638;-3.4568334;-0.52571577;1.9678336;-2.1177568;1.2631606;-0.50689006;-1.1175833;1.5837637;0.22054198;-1.2640184;-1.9865729;1.911061;-1.9760915;-1.8614129;-2.5983248;0.5459163;1.1870384;-0.14282726;-0.19758968;0.5285219;-0.57360965;-0.4227637;-0.06899877;2.0886407;-0.21395536;1.5031723;2.6911688;-1.8262273;1.049598;-2.6677516;-0.31043372;0.5973675;-1.1435369;-1.3052558;-2.1413093;-0.5909503;-0.11613232;-0.32562467;-0.5610057;0.89102846;-2.9168036;-1.1898007;-2.756273;4.0962796;-1.079461;-2.345537;-1.3728933;-1.599192;-0.99339396;-1.0901561;-1.9165895;-0.65257734;0.38306767;1.765083;-0.38642383;-0.9387039;-1.9557711;0.9154332;-3.8844302;2.2876759;0.57234895;0.35674572;-0.5618782;2.4924438;1.3468399;-0.22041482;1.7555224;1.6587538;-1.0880574;1.6549863;1.233749;1.186781;0.8200167;-1.9471636;-1.0075575;0.0052328818;-1.0440884;-1.2725098;0.25520214;1.3129175;-1.7025719;-3.8284132;-0.21234666;1.2387695;0.033791844;-1.1038246;-3.601889;0.44792098;-0.29196244;1.2392021;-2.8437238;-2.2932465;-2.5001373;-0.28677782;0.47871363;-3.104338;0.026759366;0.69457114;-0.33898726;-0.1574493
0.9449434;-1.1805557;-0.21252507;-2.3469026;-1.7894905;2.3959181;-0.11669259;0.82800394;0.096679136;-1.192967;3.2864988;-0.8222926;-0.25157043;0.30437368;1.1979443;1.2759503;2.0614476;-1.0750188;1.9774225;-1.4492509;-0.45170978;-1.111482;1.4974891;0.6234722;0.61151564;0.9964384;0.34879673;-2.2575393;-2.1286166;2.2054174;-0.7275592;-2.8850236;-0.8601502;-0.07999548;-0.24653915;-4.1257455e-05;-0.54621536;-1.4268925;-1.0638151;-0.19639198;1.67825;-3.0498111;0.30252478;-0.51975346;-2.8905592;-2.3059847;-1.4209083;0.47416073;1.4246604;-2.9623048;0.33805144;-0.21840619;0.014224816;-2.4453375;0.0909016;1.4609729;-2.6807892;-1.8981299;-2.8576345;-1.2524475;-3.2922094;-1.8561432;-1.3245279;2.0352361;0.25216025;1.12646;-0.40578023;0.24736778;1.8972399;0.3515864;3.2022154;2.3728607;0.61214936;0.6505915;-1.0314498;-0.04543108;-0.022899559;0.21625787;1.4103944;-2.7448378;-0.90984315;1.9809127;0.35143587;1.7369138;-5.562783;1.729394;0.45086643;-1.5413923;1.2052473;-1.6448706;0.9996167;0.54633635;2.3197;-0.17360154;-1.0899045;0.032907154;1.7619272;-0.13501678;-1.4083172;2.1856582;-1.1422538;2.9721234;0.72864664;0.3063882;-0.4884451;2.1383188;0.09093561;0.06006237;-0.053646833;-1.8407733;-1.3225456;0.06972452;0.30483145;1.4367001;1.1546246;-1.6015116;0.21606256;-0.99261695;0.01279736;-1.45405;-3.204951;1.0290624;-1.8840961;-2.242455;1.0988843;-0.9386336;2.8126767;0.31960353;0.5679172;-3.1238208;-2.878963;1.6417961;-2.2272608;-0.8331456;0.04696345;-0.06261542;-1.6390947;0.41822046;1.5453929;0.80102336;-1.2938429;-1.4293727;-2.1361043;-0.8601898;2.9584465;-0.69652385;0.28110135;1.4665571;-0.5092479;-3.2681065;1.9245639;-0.96476364;2.4730773;-1.3091757;-2.3607414;-0.042445675;0.042224668;2.0616374;1.7465768;-0.90720296;-1.584641;-0.409978;2.1893053;1.450217;-5.0810866;1.9355565;-1.6692306;0.9563924;-1.3519803;1.5063733;0.9649847;0.9034174;0.53238475;2.4505656;0.34749347;1.5247451;1.5517418;0.14207532;-0.53277427;3.4975603;0.18888646;-0.7359897;1.8000575;-1.7057616;-1.132987;2.058075;0.03790933;0.18479222;-0.046027634;-3.7002904;-2.922192;0.3464367;-0.5835195;-0.92195374;0.80509543;-0.60634583;0.88321203;-0.20510936;0.15902214;-1.8030686;-0.6809721;2.267191;-1.8417985;-0.86000973;-2.4324827;1.9037422;-0.035545096;1.8301493;-3.7659721;2.0861568;-0.19665301;-2.2455404;-1.881144;-2.4209154;0.29990438;-0.3669046;-0.40541664;-2.491925;-0.8273589;2.3424482;0.17917244;-0.3794465;0.12720518;0.96500486;-0.59195167;-1.346571;0.30390275;1.4644253;0.9316903;-0.4800767;1.2785174;1.4174181;0.35407108;-0.08529209;1.0104827;0.21043421;2.7378745;1.9939072;-1.0476404;-3.7472298;-0.82401013;-0.16594356;3.5852866;0.7100607;1.434167;1.5796648;3.4006221;1.1359533;1.243962;-1.5368111;-0.25652337;2.8484309;0.12144593;-0.29818347;0.46440172;2.068129;-0.8022219;0.19933723;-0.16748127;0.5235127;0.6384984;-0.666363;2.3300202;-0.57628316;0.07145049;1.0759658;0.13110696;1.1120986;1.4043438;-0.26392913;0.83912206;0.9612517;-2.091704;2.0203912;-1.3584231;0.62221813;-1.3192011;0.9016515;0.34986666;-0.73466086;-2.386016;1.0759658;0.23883377;0.884765;1.5492197;0.9040798;-2.9684532;-3.7509804;-0.24226145;1.8008859;-0.22934112;-0.9892257;0.6471188;1.9464903;0.10454608;-2.1553214;2.1183662;0.12637144;1.1252627;3.3902323;-2.9038155;2.9977157;-3.1182187;-0.2697185;-1.4027735;-0.08164376;2.0452223;1.159365;0.954876;0.25789633;-0.19872351;0.2024936;-0.6115545;-0.07880104;-3.3776598;-0.1400985;-1.2153249;-0.39298;0.26770163;1.5636896;-1.1829382;-1.0403936;-0.338813;-0.90723574;-1.0269337;-1.3504275;0.07165813;-0.42099923;-2.6792579;-0.44691294;0.89836997;-0.17044519;0.64421827;-3.6799848;1.0346917;0.48477927;-1.3880403;0.5744737;0.056243017;-2.8854806;-0.3710753;1.4367434;2.958049;1.5781277;-0.22400735;0.946213;0.032102514;-0.59893274;0.16108896;-0.41839284;-1.3920236;0.8883536;0.833644;1.2156692;0.33720452;2.2423575;1.8472537;1.0596693;-0.6774711;-0.97709155;-0.8240345;-0.9273865;0.815389;-0.10885171;-1.7543164;2.1255546;-0.32053936;2.009643;0.3440114;-0.09340093;1.7875266;0.779931;1.235879;0.39035454;-0.9712432;2.318167;-1.2800249;0.35707864;0.91979116;2.2021427;0.6927767;-1.2146084;2.2090676;1.255945;1.7468274;-1.9822353;4.457417;1.2183338;-0.75903493;-0.96447;0.008814242;-2.6056025;-0.39559764;-0.58800906;-0.36910945;-0.10369601;2.0267754;0.9852019;-0.4446945;-0.7958007;-0.65799856;-0.61099946;0.8536893;-6.3636785;2.945133;-1.6993631;-1.0806775;-0.72708225;0.26491696;0.29404554;-0.9615418;-0.064873084;2.6459959;-2.2196636;-0.57205904;-0.2575332;2.8951259;1.4281198;1.6548004;-4.3124223;0.30785665;1.9111348;-1.502489;-1.3015584;0.8458246;-1.4197967;-0.72689193;1.2905338;0.9393891;-0.050366286;1.0592855;-0.3182541;-2.121334;-0.29231465;-1.1748009;-0.6492934;-0.8479386;-0.16477545;-1.3841593;-0.4423321;-0.18961269;0.062393457;1.615061;0.6720353;-1.8611778;0.56659883;2.9295673;0.90247667;0.63089865;-1.5395508;-0.02082706;1.842093;2.5242112;1.3839891;-0.73599714;4.3691487;2.8777258;-1.8498602;0.5488519;0.26156956;1.0835094;0.8997756;-1.3385293;-0.06532816;-1.3085991;1.0026141;-0.96608776;-0.085037604;0.5991233;-0.3512527;0.8305462;0.45487216;1.7619408;-0.44739845;-0.451853;0.07812594;0.67047757;-0.8208964;0.30175617;0.19075322;-2.637624;-3.435945;0.025508197;1.642027;1.1099826;-4.0978556;0.34214178;-1.6891282;-0.026028235;-0.37782475;0.7128969;0.93515503;-2.8875613;1.690853;-0.5142009;-5.2594833;-0.19611077;-0.1608773;-0.77850765;-3.1295347;1.9086982;-0.7290969;-0.38060272;2.6940882;0.6789696;-2.187328;-0.4873983;1.9648747;-1.9043221;2.9031107;-1.3379805;-0.039874256;-0.661453;1.5741487;0.6895648;-2.3909504;0.40717566;-0.79499876;0.8485726;3.8844678;0.621426;-1.0948617;-1.9258175;-2.0942085;-0.9902961;-1.3479502;-2.150366;1.484099;1.3821044;0.11782662;-1.2895867;-0.533264;-4.0103927;0.57796735;-0.39677674;2.4496374;0.92444456;-0.838219;-0.24466743;-2.755421;2.2992127;-2.933387;1.0362489;0.4087008;-1.7626424;-1.5174369;-0.89291954;-0.7526798;0.38827172;0.6506256;1.9993924;2.571194;1.9736477;1.7444111;1.1963615;1.6470759;-0.19593921;-0.12248518;1.271611;3.897896;-0.22002292;1.3813304;-2.058543;-2.6496024;-1.1684741;-0.5164774;0.10622925;-0.08714435;-1.5474029;-2.2499444;-1.5496622;3.2407768;0.77877986;-1.5500054;-1.102602;-0.77129453
2.1694388;-1.1078154;0.71321225;-1.4846088;-3.216849;1.0449686;0.76141566;1.2954575;0.6353785;-1.6338004;1.7242789;-0.5298742;-1.1821399;-2.122927;0.8114098;0.62108016;1.7077984;1.3291006;1.7375082;-2.6682258;-2.5359936;-0.507586;0.021254923;-1.1932579;0.5883132;-0.15690452;-0.099129595;-0.06368073;-0.51122457;-0.65602446;0.67672896;-1.8259585;0.47444713;1.2925345;-1.9888463;1.6352531;-2.2494085;1.201321;-0.2416455;-1.2363441;1.0919521;-0.38001177;-1.4538574;1.3790369;-1.2346861;1.9865085;-0.18556151;0.5702992;0.41408396;-0.6542805;-1.5793344;-0.50920695;2.6761336;-5.12416;1.0186014;-0.1707964;0.62642497;0.49180752;0.3418382;0.46909022;-0.025530068;-3.978152;1.4953004;0.030416548;1.1331666;1.0311177;0.67240137;0.09319859;0.43715516;0.1166807;-1.9240738;-1.7508738;0.4309645;1.0711831;-2.7718189;1.3947808;0.47176504;0.7461376;1.4373907;-3.8212507;-1.8438249;1.179446;1.6871327;-1.6428989;-2.2964864;0.2973622;-0.19601963;0.87276477;1.5496773;-1.0832425;-0.34196684;0.14218424;0.63146794;0.14011191;-2.4045086;-0.008216583;0.37971714;-1.4172696;0.6393839;0.88279676;0.7084694;-0.10354677;-0.3351155;0.380447;1.9227093;1.2298331;0.93733054;-2.501408;-2.9636931;0.4190604;-2.0015757;-0.24037415;-0.05082334;0.7996636;-0.17932083;0.17188384;-2.6988416;1.4234769;-0.66383433;2.9994411;0.35461563;0.002029589;-3.7518198;-4.8697057;0.7579763;-0.43510523;-5.1045165;-0.37977;0.6907118;-2.892093;-3.1989655;5.4277134;1.1941875;-2.6118588;1.2046463;-3.2276974;2.2863855;2.4194465;1.0948524;3.1606627;-4.9299135;1.1271803;-0.9596685;0.94341576;3.3088746;-2.2873743;1.1918616;-0.20220108;0.09407981;-1.2801247;2.5190206;0.22470391;-0.70472014;1.3640664;-2.8166037;-0.6321846;-0.60869;2.8035283;1.2034504;1.3294649;1.8380355;-1.6908264;0.91187036;-0.06329468;-5.6672134;0.3315617;2.0181386;0.58384377;0.51514363;-0.9469227;1.0244523;1.0427014;-1.5922661;2.6457243;-0.43051046;3.1882925;0.38042778;-2.7314782;2.0157611;-2.5970128;0.4054349;0.45583752;-0.4702339;-1.3289295;-0.54846585;4.5664067;0.52110356;-0.049544975;1.0095724;-0.233486;-2.406856;1.5040985;-2.0015795;0.09976734;1.8564076;0.3692421;0.2873647;-0.21156465;-0.63904;1.2818569;1.4157252;0.8308969;0.31457376;0.23857592;1.2698603;1.2883911;0.6334517;0.76599973;-1.0754302;2.4261875;0.70632;-0.33592066;0.48700538;-0.498106;-0.3826275;-2.2162013;-2.083594;1.1870013;-6.107014;1.1807272;0.56579083;-1.0263377;1.3472847;3.1043549;-0.35283938;-0.6292854;0.478;1.0345234;-0.3318814;2.835556;-0.882026;-1.9586855;0.20971735;-0.21934834;1.5241194;-2.1819253;2.066532;-0.14143766;1.9591855;-0.11430807;0.89102983;0.5953583;1.1575503;1.473408;-3.2168376;2.747015;-0.5092552;2.876993;0.6396662;0.2908472;-1.0349761;1.2766219;2.1831937;-0.103723206;1.8750907;0.67416173;0.8693587;-0.72316855;0.19627374;0.36968288;0.5083409;1.173319;-1.7628582;0.7146235;0.1469058;0.6584699;-1.8557523;0.24081624;0.44097883;1.5201616;0.42555267;-2.2366257;-0.9594919;2.1732974;4.1800146;-0.5589941;-2.4354393;-0.3003082;-0.17580038;2.5440593;0.64003646;-1.4906306;-0.13451445;-0.7446535;-0.7552718;3.9107895;-3.9745147;0.65131086;-1.3969197;0.34012052;-0.06357136;-0.52840436;-0.366698;-3.164266;-1.7488515;-0.21169136;-0.6853881;-2.2772527;-1.0118151;-0.2683912;1.3904903;0.96142954;-1.9814403;0.80728287;-0.2465111;-1.8767337;2.598999;1.6283649;0.75572187;1.0722662;-2.4104402;0.17833816;-2.4409385;-1.9042746;1.9991949;-1.7509669;0.17331362;0.043950487;-1.7169595;1.3886898;0.9436149;-2.467497;0.99322695;-0.30229947;0.8251483;0.7732637;-0.6334494;0.40879476;2.6922805;0.9911494;-0.6367557;-1.391172;-2.3074033;-3.4129899;-3.6272502;2.582978;1.034575;0.97808605;-0.7226709;2.3734639;-0.75141793;1.0350604;-0.32694405;-0.2576796;1.2455153;0.6673081;-0.33423802;-1.5695332;0.33491102;-1.2625663;-0.3830516;-2.485478;-1.2713251;-0.85222524;1.4693935;2.3078012;1.2971258;-0.70323664;0.7663098;0.392612;-2.8288848;0.07852591;1.528774;0.13615857;-1.3578553;0.61512023;1.3736731;0.41379166;-2.5721622;-0.45224506;1.3957278;0.90773654;1.2086039;1.6968404;-1.311567;-0.57407254;2.5348992;0.36305675;1.5249801;-3.7078145;1.1432381;0.92617756;2.9606028;0.3469202;0.35360527;1.1032227;1.6546159;0.6734943;-0.5040923;1.8200877;-1.7171448;-1.9987078;-0.32787496;-2.3431296;-1.381842;-0.7678286;3.3836813;1.3706757;-0.8574239;-3.0299556;0.45923254;0.18961416;0.43845397;-7.0436;-2.502299;1.1835157;0.8861881;2.2446487;-0.6823477;-0.006014319;-1.3000237;1.4857464;0.4675736;1.3647381;-0.47453108;-2.4181945;-0.14505908;2.1809816;2.1318903;-0.73790586;-1.8988359;4.2074995;1.6142795;0.08574221;0.3804818;-3.176676;-1.2522576;2.089816;0.45179066;-0.020626416;1.8973804;1.4794494;0.48923922;0.17797925;-0.7363099;-0.95194656;-1.1246544;-1.8277296;1.1209545;-0.09493925;-0.0532204;-0.031277396;0.8749605;1.9557188;-1.2684095;0.631631;0.98357344;0.24599238;0.83640134;-0.3840492;-0.59512734;-1.6473427;-0.13818498;2.0200276;1.3168117;-0.8409474;0.04768955;-1.8912388;2.5084472;-0.65982723;-0.55886877;-1.4211098;2.6112118;0.91659683;0.56221914;-0.41328543;1.0182585;3.0465496;2.004003;-2.905767;0.2705714;1.3933861;-1.4882612;1.5080068;-0.3030712;1.7083507;-1.769613;3.2794244;-0.34422147;0.7403761;1.0813818;-4.201668;-0.49285287;-1.4260851;-0.5617066;-0.35520706;1.6730542;-0.7382942;-0.60484046;0.14038156;0.23739082;2.1231868;-2.6288533;2.0746913;-0.787172;-1.2584038;0.109406434;-3.66208;0.115296595;-2.014227;-0.6037202;-1.6291693;0.72515917;1.434779;3.6894677;1.4535414;1.3853306;1.3396786;-3.6914012;2.2383974;-2.3957355;0.048263352;-0.12623279;2.8801262;-0.04368048;-3.2320173;0.93107426;-0.70628786;-3.3772483;0.33208168;2.0085962;0.4452673;0.39610693;-2.7813158;-0.36376578;-2.0799258;-3.8525803;1.4822925;0.61273557;-0.32345867;-2.0665917;-1.1934859;-0.33070958;0.9824522;-3.825402;0.8181583;2.0276353;-0.44717565;2.2683346;-1.5503477;0.5305605;-1.7622246;-0.521437;3.9656644;-1.8681042;0.08504687;-1.2063998;5.4978895;-0.21405905;-2.5698462;0.3522407;4.1881566;0.3297019;-1.5316371;-2.9110227;-0.19243099;-1.558351;-0.43662962;-4.5190234;-0.26311848;0.5468647;-0.6851018;0.3686339;2.5653791;2.4569619;-0.5049553;-0.40657294;-2.7796967;0.40305164;0.87011397;0.6595478;0.0641747;0.98999006;1.4582037;0.4787663;-0.21433827
1.2688426;-0.7155243;2.4883204;-4.7298326;-2.896564;-2.336885;1.8227679;0.3590538;-2.3154004;-0.3480287;1.1051399;1.2306347;2.1225305;-0.22153014;-0.46828738;0.4219335;0.62523144;0.9156473;0.42835322;-1.7551035;-2.3663313;-2.8576186;-2.6872115;2.7761273;0.99152553;0.2458189;-0.040447503;-1.05453;0.41270658;1.1423196;-2.8715947;-1.8361646;0.17110658;2.6146963;-1.2772914;0.6584292;2.018788;0.57104236;1.1443512;0.46520206;-0.21074708;0.7088437;-4.176437;-1.0132234;1.9342331;-1.9620008;2.1884449;-2.0160048;0.32089126;-4.7952857;-1.1873035;-0.457181;1.9627548;-1.7568536;-4.2553296;-2.064068;-0.5431592;1.6905435;0.6538344;-2.8146043;4.335802;-4.1685567;-0.014351107;-0.18077317;1.7155874;0.0947325;1.2009772;0.5877312;1.8338971;1.4480038;1.9428475;-0.114995144;-0.046508037;1.9664226;-5.2489586;2.081837;1.0157615;-0.20490615;-1.4909024;1.9254256;-0.9578097;3.0783412;-1.3999286;-1.6804239;3.4186053;0.31183916;0.5768241;-3.567505;3.6779149;-0.8608683;-0.32962584;2.0660884;-0.10763592;0.0656462;-1.4447742;-2.017603;2.652889;-1.002391;-0.8246015;3.2993248;-0.7541293;0.19704162;-2.4944682;1.9461969;-0.3858535;1.1515944;2.9246533;-0.40399075;-3.2513204;-0.036851853;0.06736004;3.3705149;1.2280446;0.16186166;-0.53833985;-0.9961984;-2.6799939;2.3930936;2.205613;1.3058679;2.187309;-0.1296812;1.6387872;3.3834207;-0.54492575;-0.8432179;-0.6767825;-2.5721178;0.660566;4.224536;-2.701948;-1.6747708;1.0975672;0.6138494;1.9605604;-0.7463148;-2.5757122;0.16515309;0.8167218;-3.5147474;-4.306098;1.8423926;2.6643472;-3.6711328;0.037695225;-0.17063649;-0.37719414;-1.2030836;-4.132735;2.8476396;-1.4157156;-1.3703572;-0.8166684;2.3528402;0.73119956;-1.2281504;1.4075208;-0.86249804;0.45194325;-0.41482964;-1.9767033;-2.6249397;-0.7864605;-0.5672078;-7.497352;1.3457012;-0.24678683;0.5145531;-0.120930806;-0.3081646;-1.5784181;0.8906152;-1.1679431;0.8606084;0.58269846;-1.8429198;-1.1618347;-0.67314786;1.8599504;-3.1031854;0.9368477;0.11688083;-3.3426142;-1.2165422;0.9801498;1.0800686;-2.2577589;1.6005791;0.088366546;-0.7810323;2.3859088;0.7446349;2.429073;-2.0858915;0.48993707;-2.1630049;-0.7891402;0.11171647;0.6856119;0.48814026;0.6578808;-1.0315212;-0.011534248;-3.0032926;-5.4054084;-0.63935375;-0.6069783;-0.04072963;-0.48436388;-2.9371164;-0.10077199;-1.50103;1.7310247;1.0741171;-0.09610583;-1.0795413;-0.24261847;2.6765313;-1.5142232;1.0953269;-1.666559;-1.8561202;2.3082333;0.5004397;-0.60277754;-1.4076425;0.9611704;-1.9519567;2.9215846;0.028416434;-0.3439437;1.2015785;0.83594435;-0.3363965;-2.9991598;1.0683701;3.9058316;2.0106235;-0.9969365;0.21380791;-0.49753368;0.7225845;0.08399581;0.9917988;-0.4864143;0.57420987;0.938521;1.7569054;1.3537002;0.42870855;0.5706817;1.1994259;2.3040788;-1.8826671;1.1014246;-1.647832;1.6393373;2.8860204;-0.12701808;0.5632278;1.290384;0.17418458;-3.2538753;-2.5299985;0.080960706;0.57208484;0.8884868;0.7161896;-0.62841946;3.2261086;-0.6498183;-1.0291526;-2.0792305;-1.6091243;-0.43678093;0.85033345;1.1552185;-4.1438413;-0.92462516;3.7199926;-1.6303215;-1.1530828;0.29137063;0.26635522;1.0819945;-3.5321257;0.75726885;-0.9910474;0.6506781;2.6455483;-2.4852448;0.3723606;-0.6575573;-4.131596;0.39073327;3.2494135;-1.2905836;0.68797827;3.2575839;-1.1269485;1.1297171;1.0191269;0.36391383;-0.39742947;1.198104;-1.0998936;-1.41588;-0.48165464;-2.957845;-0.43060416;2.1538818;0.36485785;0.042648386;1.2640948;1.6706991;-1.1028666;-2.978404;0.22515815;2.787003;0.21223244;2.397661;-0.27583155;0.8895809;0.14448273;2.321617;0.32132587;0.4195844;2.675322;1.860791;0.3474727;1.0917847;2.745739;-5.5988007;-6.633553;-1.5609213;2.0547962;0.3456933;1.3891132;-4.2510023;4.2965817;-1.3852645;0.52458483;0.18341403;2.2838936;-1.5117943;-1.4896634;0.5214414;3.249334;-0.087913215;0.83739173;-0.7891357;0.08997887;0.0030568584;-2.816291;1.0955886;-0.5415868;1.9229239;-0.94611484;-2.0553799;2.7583706;-2.7182627;-0.24687503;-2.5964143;0.12061894;1.4404373;-0.18400058;0.039121695;1.1922764;0.38006786;2.3387144;0.8920859;1.1093872;1.6473166;1.4215778;-0.9942112;1.1562662;-0.38061565;-0.114842564;1.7614797;-1.3354796;0.11559481;-0.9637764;3.67894;-2.76569;1.0091456;0.9656508;0.19494787;-0.9132721;-0.14690833;1.275934;-3.1351082;1.5913805;-0.23433715;-2.5573823;1.6559676;-2.2165437;2.6755958;1.800419;0.88135254;-1.8935801;1.4615531;-1.8237401;-0.35476464;-5.442188;-1.5933505;-0.044222437;2.3731518;0.96227664;3.2383323;-0.43552586;0.5774957;1.752403;1.5378299;3.8250568;0.2830595;1.655397;1.838456;-0.60432243;0.12879463;1.23028;0.99404764;-1.6055156;1.9776113;-0.57029206;-1.5869491;-2.8105714;1.7219337;1.3010069;0.19160292;-0.58888155;0.9719763;0.7604414;-0.039382484;-1.8806347;-2.079469;-3.3646643;0.27402505;1.6267776;3.687509;-0.14548436;-0.09569973;0.4134658;0.46970573;0.873587;-1.3580146;-3.9118407;-0.20278968;0.8250647;0.056479845;-1.2887169;-0.529266;2.8147058;1.6636945;0.4648138;-1.2190005;2.5100112;1.3189149;-3.235672;1.0177656;-0.9804992;0.953387;-4.2461815;1.0161927;2.0143688;0.6996704;-1.0602956;1.562487;2.163105;2.3916538;-1.8925868;-3.0329695;-0.7583872;0.9898671;-2.2617235;2.2511947;1.9844843;1.1335994;-1.2662385;-0.24447276;-1.9015996;0.14829767;-2.3074675;-2.222844;-4.713161;-0.8576718;-1.0860538;2.0479813;-0.14390744;1.4105933;-0.71464694;1.9035178;0.43516305;-1.9126003;0.28479487;0.16469403;0.62516075;0.36162925;-1.8393419;0.49149528;0.34985608;1.1168793;-1.6046839;-0.84190947;1.9654214;1.7523135;-1.7026362;-0.5507797;-2.0765123;3.4861038;-1.2745512;-3.605778;0.64720416;-2.4993467;3.3596826;-0.08877769;-0.42256218;-0.03385989;-0.9783207;-0.57023;0.58107525;0.16430993;-1.1294528;-1.5950445;-0.3819401;-0.21602526;-4.6264505;-0.0276446;-2.5884314;1.3322871;0.3361292;-2.4609425;0.3356884;-1.8857033;0.39459765;-0.12637112;2.8301558;-1.5154525;1.9359598;2.016666;-1.7053281;-0.83701026;-1.1203004;1.939166;4.8364234;0.7511598;-3.6241798;-1.2423755;4.2029495;-1.8072573;-0.08468503;-0.38782007;1.023175;1.1568779;-0.37936023;0.48079953;1.2559677;0.46162233;-1.3269212;-0.7212369;1.3343866;2.836811;-0.7962237;-2.5875835;1.4696184;-6.4729977;0.22587125;-0.34430617;-1.2257833;-0.16469158;1.1411694;0.2838753;-4.59008;1.6378958;-2.6113515;0.58449787;-0.14148599
2.0760212;0.7517178;-0.32473835;-3.510079;0.11510575;0.6248757;2.649982;0.94560415;2.2975292;0.07112937;-0.57940215;0.221209;1.1250336;-0.9580423;-0.8612665;1.1940535;-0.1853162;1.8170171;-0.2783521;-2.4534023;0.28378618;0.45745307;-1.2884583;-0.46613032;-1.8177614;0.4565335;1.1772872;-1.7310419;-0.2721084;0.23797108;-2.2023208;0.08576782;-1.2098938;0.88756245;1.0217249;-0.6949517;1.4196382;-0.6156285;0.637026;-0.84124464;1.0549825;-0.15539776;-2.0250034;-0.34427825;-2.2408159;-1.2973351;0.16041411;-0.08622113;2.9583802;-0.1642065;0.16721232;-1.4442452;1.5746793;-1.0523795;0.46462637;-3.4077542;-0.44744584;1.7702277;-0.2504483;-0.04818283;0.8026062;-1.7967898;-1.1181871;-0.017333154;1.1630483;-0.885758;1.1877273;1.0029299;-2.5770404;0.033050377;-1.4355057;-0.038494073;-1.2499357;0.61630654;-5.5997767;0.18595824;-0.37301898;2.8161116;3.6075532;0.6250179;0.21286137;1.3578819;-1.5461068;-0.57751685;1.2264186;3.2866752;0.364952;-4.327573;1.12163;0.67162246;1.1472217;3.0887928;-2.2965624;-0.005994039;-3.8217952;-2.6054173;0.57049644;0.4913996;3.1946619;1.385634;0.93097574;0.28891042;-0.23948137;0.54817486;1.0113602;0.33748752;0.67465585;-0.11042431;-1.4179528;2.0439491;1.1001481;-0.28120553;-0.59874874;0.059350453;-0.54724437;-1.0012908;-0.8393113;2.648944;2.4176195;0.35587078;4.136943;0.103333;1.4804703;-3.4603572;0.44150326;-0.78674126;0.14837234;-3.8982606;-1.9984714;0.72871864;0.047340937;-1.6483339;-0.35423392;1.9146726;-0.8714045;-0.78501916;-2.189861;2.309812;1.1459911;-3.0328965;1.0809975;2.076423;-1.0921102;-0.36845198;0.91424423;3.1065657;-1.181659;-0.5245819;-0.11323857;0.95817745;-2.110246;-0.6855959;-1.9857092;2.4291785;0.7514824;0.3839555;-1.1306908;0.5542733;1.8078197;-1.3857455;-2.5921893;-0.8099567;0.80877435;1.295887;-2.049899;0.4205895;-1.196362;1.2584709;-1.054055;-1.0185391;-0.56651014;-1.0370562;-1.1709185;0.75627226;-0.080048576;-1.8365333;0.82319844;0.2520658;1.0108849;0.9198843;0.21260795;-5.1460023;0.22966166;0.11420138;0.34836233;1.6088926;-1.1007789;-1.0653908;-0.7035836;2.3482087;1.1917957;0.5258798;-1.7373314;-3.1419675;0.18077794;-2.803391;2.4990542;-1.4864404;-1.5127795;-0.3110798;0.4499495;0.74652964;1.047695;-1.2372317;0.03246906;-1.4364873;0.24431878;1.684526;-1.0310686;1.0063257;1.9128815;-1.49494;0.7418645;2.5773034;0.19609447;2.0528445;-0.17740361;1.7455453;-1.4416571;-1.6838993;-1.9808683;-0.9273698;-0.3281237;0.6541382;-0.46189708;-1.3783324;-0.03156602;-0.9891186;1.3152436;1.8967023;-3.5690937;-1.2195712;-0.5355591;-0.38660103;0.80364066;0.4148052;0.70750594;-1.6118873;-2.573335;0.29775542;-1.2406719;0.16180092;1.0090523;0.4714206;-1.8073033;0.17740138;-0.103321984;0.8543927;1.6893214;1.6244694;0.7856628;-3.1298168;-0.591133;-1.029293;1.778066;0.47340247;0.6832349;0.95673996;-0.12404595;0.9278575;-0.058437854;0.25271043;-0.94643575;-0.20423415;0.012300423;-0.27615386;-0.019875878;-0.47328752;-0.7265031;0.8948694;-1.78126;0.24673268;-1.3360114;0.92106307;1.1084174;4.8307705;0.4902067;0.027368;-1.7564691;2.3469765;-1.9781184;-4.6836047;0.58325225;0.96565187;1.6523473;-1.0330362;0.41466364;0.72786623;0.9551229;-1.5529455;-2.7741137;-0.687536;2.329158;-1.1547244;0.8295401;0.46147576;-1.2989962;-3.514123;2.0926971;-1.647868;0.62346655;0.07904007;-0.15022944;-1.2625002;-0.5115213;2.828628;-0.4034927;-0.50987405;-0.28914785;-0.41096735;-3.5264885;1.3936149;0.07990168;-1.4812716;0.06657383;-1.0803053;1.2266418;-1.6846921;-1.5003619;2.5430126;0.8455806;-0.9910082;-2.16287;1.3201994;-1.7267379;-1.8696926;0.8202014;-2.7357645;-2.2968023;0.5604676;-0.58242977;1.7575691;-1.7214615;-1.4864805;-1.4552196;2.480764;-2.8376493;2.060095;0.36746985;2.679961;0.17038608;-0.078920946;1.6093138;-0.40252236;0.39394847;-1.2258772;1.3423623;1.0460387;-0.18824378;0.5166374;-0.077805355;-0.33441335;0.75450176;-0.016545225;0.17803255;-3.7069168;-0.47511938;0.42394403;-1.1294727;-1.5200981;-0.52143615;-0.13236871;-0.044861704;0.09617802;0.6139415;-0.9134856;0.57487464;1.0410311;-1.302786;1.2119392;1.8300247;0.5317862;0.7877306;0.9479327;-2.1908684;-0.46723598;-0.37542287;0.22610885;0.083242156;0.80537057;0.69397;1.5578772;1.9747943;-1.906743;0.08140064;0.16176936;-3.8740187;1.7722639;0.31479323;-0.28116125;0.27957273;1.3313375;-0.33814463;-0.72441953;-0.9957671;1.5114689;-1.3089168;0.7784705;-0.34202927;-1.109174;2.6301088;0.5482687;-0.5717076;-6.707485;0.437708;1.1590353;0.9029564;0.6438399;-0.96062714;-3.639349;-0.3414192;0.36567363;-0.14580481;-0.66264635;-1.8309203;1.3520601;-0.20127845;-3.1831975;0.52796054;-1.1617343;-0.35004932;1.6275549;-4.8549805;1.3364218;-2.039074;-1.4215202;0.55281097;2.9682863;-0.41434756;-0.6269712;-0.34763235;0.52278465;-1.1437669;1.6459289;-1.1027038;-0.724147;1.3375435;0.6254334;0.096188754;1.2082435;-0.011397313;-0.27932534;2.9260256;1.0941561;-1.3195314;-0.68218017;-0.465756;1.3813211;-0.28337598;1.3921266;0.204045;2.4431288;1.008485;1.8521205;-2.2784426;0.80235964;1.9315816;0.8458934;-0.7469209;-0.61075604;0.052504625;1.1695272;-0.14126343;2.341446;0.020129165;2.646084;-0.18988343;-1.9306748;2.9244437;0.43212822;2.2882912;-1.4477898;1.3894722;-2.1590176;-1.0869122;-1.0259792;-1.2031438;0.87449753;1.0093141;-2.9202285;2.4333045;-2.7998624;-1.0039839;0.49513492;-1.3155762;-0.32947454;-0.67299396;-2.0735948;0.19100498;-1.9964466;-0.062502466;-1.7865202;-3.0266225;0.040644255;-0.59938145;-4.1963024;0.41445157;1.426218;0.017945271;-1.0620499;-1.5392777;-1.931883;-0.028719787;0.63949066;1.0541776;1.8943489;1.5024648;3.988732;0.09542141;-1.5107999;-1.0635138;1.1882141;-0.6261632;1.9470143;0.60139555;1.4974874;-1.612724;-0.6125939;1.6285912;-0.35960165;-2.390769;-3.2191174;0.5208591;0.051832836;-2.220836;-2.5230622;2.2994013;-1.5814885;-2.7517724;-2.9858947;-0.30489483;1.2916725;-0.07917768;0.52704334;-0.05394564;2.0012789;1.2840312;-0.7645279;-0.9527016;-0.5674118;0.45091838;2.8456483;-1.3609153;5.042345;-1.32252;0.8563036;0.3327259;2.854188;-0.63567156;0.36764303;0.8499181;0.76044697;0.026589412;0.25302836;-0.26131293;1.3856595;-0.43575048;2.3962498;-0.9924039;2.056263;1.2399588;-2.7690935;-1.4158266;-0.81065434;0.72991294;1.2956382;-1.0977379;-2.9964275;0.6119691;0.027591694;-0.11922512;-0.68676835;0.2949241;-3.3585672;-0.11616505;-2.7272222
-2.6597385;-0.94281656;1.5169548;-4.417909;0.1673104;0.7592449;2.0972784;0.8692121;-0.25902125;0.9049852;-1.0005766;2.0274239;0.92351985;-2.1362379;-0.2931937;0.2780767;1.2480428;-1.0056489;0.09680715;1.7522299;0.9663685;-2.1156986;-0.92578256;-0.85427713;0.13992986;1.1789808;1.2895333;0.9725512;1.6437137;-0.41053298;-0.5110485;-2.181338;-0.53953326;0.8581703;-2.7367928;1.1103994;1.1706856;-1.9771898;2.1332054;-1.109872;1.5085182;-0.7696691;-0.38443956;-2.8107002;0.09577233;-0.4237468;-1.660964;1.3211508;-0.36236724;0.8152847;-2.3504753;0.9049289;1.3695369;0.07442097;-2.1239712;1.5913041;-1.5894781;-1.5001452;0.09565046;0.7329559;-0.49471283;-0.41695327;0.40486133;0.3560728;-0.7832477;0.32953027;0.7939958;-1.6139226;-2.2584188;0.91334236;-0.10013675;0.49034283;0.907111;5.635421;-3.1491075;2.376802;0.56239456;2.1616714;1.8198655;-2.760329;-3.9850433;2.1429203;-1.4605731;-2.5368154;1.8700076;0.29751608;-1.7858292;-3.2215974;1.7567652;1.5714072;-0.61368287;2.553012;0.801254;0.113407135;-1.7655336;0.0015996065;-0.7879698;1.5506563;0.24746862;2.5646417;-0.42700142;2.597083;-1.9726195;1.2071826;-1.8818337;0.4919359;3.9313104;-1.3016199;-0.37159115;1.2064853;-0.10123644;-0.008008686;-0.5911834;-0.25778508;1.5171783;-0.6631066;1.9921583;1.3997834;1.8383551;1.2246382;0.5162077;0.07181354;0.7239055;-1.1494088;-1.5899532;-0.27841154;2.072814;-2.2928386;-0.66780406;-1.7357194;-3.8098326;-1.4870478;-0.5519739;1.2802362;3.4250178;0.18248494;1.2004825;-0.2388439;-1.0029202;-0.31496608;-0.8548466;2.8158937;-1.5508571;-0.32631433;1.9897596;1.710142;0.65733194;0.78259;-0.9567883;1.3962239;0.7621951;-0.014566035;0.29169652;0.12175937;-1.6575446;1.5165839;-2.0780053;-0.6064321;1.9354032;-2.3952975;-0.85858375;-1.9170804;0.22867066;0.7896795;2.283056;-0.5222938;-1.5210308;0.6043799;-0.17916979;-1.4905314;-1.4483643;1.5671397;-0.05004509;0.56258136;-0.015945323;-0.23082896;-0.35097033;0.49644384;0.58389616;-1.0611488;0.48414028;-2.9676085;-0.6032197;-0.5783263;1.7981399;-0.028777251;-1.3268777;0.50888556;-0.07909814;-1.9842538;-0.8923773;-0.45132032;1.5443368;-1.8875077;0.28890735;-3.4138083;0.6244114;-0.5513839;0.3493352;3.6074984;1.4186935;-0.7294887;-3.1771128;-2.3697233;1.2453408;-2.645548;2.0249176;1.8385065;4.0430107;-1.0754147;-0.94412124;-0.91323906;-1.43598;1.6638045;0.24139526;-1.4229914;2.2678452;0.42459068;0.22439438;2.3925645;0.988148;-1.9407533;-3.0746303;-0.844604;-1.5864967;-0.5551291;0.7459062;0.9483423;1.1603229;-0.37824494;-3.654038;-0.2710357;0.53784275;-0.6947329;-0.06975666;-1.3747345;1.2956766;0.25378773;1.2024647;1.3335601;-0.92775214;0.24165724;0.77502847;0.879118;0.7412918;-0.5789823;-0.027212055;0.5358682;1.100492;-1.1299866;1.2928188;0.48526755;0.65981877;-3.1697888;1.0542512;-2.1472344;0.20008305;3.520132;-2.8711271;-0.42007697;1.0797993;-0.26059422;-1.568167;1.4856256;-0.113366716;0.45813912;0.4037938;0.10506632;0.068195865;2.2703316;1.7313817;-2.3277302;-0.09687713;1.2215422;-1.082539;3.6487525;1.4013902;-0.70697564;-0.4889053;0.9801232;-1.1185124;-2.2736762;1.3848358;2.4811563;1.2853934;-3.2943933;-0.7881712;0.9255965;0.06435927;0.089282565;4.6144753;0.2333041;1.1679294;-1.3197318;1.1084956;-1.9885888;-0.9394649;1.5846494;1.0446359;-1.3294512;0.21961907;0.28667623;1.4853693;-0.76420265;2.7147107;0.609804;-1.4660865;0.5325328;-1.621995;-0.02760294;-2.7952373;1.3492235;2.2438805;1.067752;0.4773052;-0.14786923;0.26642823;-0.8970653;0.011757029;2.112794;-0.6036432;-2.255389;2.697834;0.7657723;1.7151929;-1.2505467;0.7125917;-0.08639577;-1.1419213;-0.34296423;1.2536461;1.3840969;-3.1842566;-1.8640636;-4.454189;-1.7437488;-1.1031331;-0.587873;0.87893784;4.0885935;-0.049914055;-1.1637526;-0.30760708;1.543999;3.3879554;-1.3557459;-0.21054162;4.1127405;-0.062011644;0.25674492;0.4762656;0.2661201;1.3451965;-2.1733825;0.06147632;0.78547364;-1.2979056;0.80319047;1.3491825;-0.14570759;-0.50359297;0.07722448;0.75028175;0.20087811;-0.61967355;2.6014042;-3.3896096;0.81986296;0.4283344;-0.92556924;0.47891742;1.3564333;1.3696452;1.1351576;0.0826859;-1.9272496;-4.7923303;1.3827146;2.0691977;-2.441849;0.27284595;-2.0307696;2.181584;-0.065105215;1.1824342;0.44572684;1.1221272;3.94374;0.64231414;0.6692813;-0.27153406;-1.7103566;-0.46834543;-0.41432253;-1.8168119;-0.6549655;-0.27094364;0.2589927;0.11601948;0.5830938;0.82655;2.054995;0.70752496;-6.328953;0.8906954;2.2631338;2.7964988;0.06503658;0.4239898;0.97238743;-4.6835017;0.6819073;3.2996159;0.5455339;-1.3543764;-2.7314906;1.4716783;0.8193536;1.7195089;0.09497709;0.8631519;2.032455;-0.41601235;-0.2568766;0.054187033;-4.1334;-3.0134814;-0.6433928;-3.1959023;-0.72607917;1.0485994;1.7404646;-0.32214558;-1.7191641;-1.7711369;-1.4431458;-1.0762454;0.027895268;0.8586769;0.74425197;-0.05561867;2.1094563;1.7012256;-0.8695253;-1.945384;1.644821;-1.2009954;0.30494556;0.5422009;0.37088278;0.03703173;3.6187112;0.81459796;1.2604047;-1.2574565;-1.5026466;2.3248327;-0.9939617;0.9341859;-0.6397225;0.22543597;-1.0157129;1.5949464;2.6528463;-1.701566;-0.54151064;-0.1166893;-0.7872748;4.1029315;-3.106885;0.4013305;-1.9825498;1.7058874;-1.6169775;1.7171016;3.5379434;-1.0972047;-3.8584929;-1.0610311;-2.4881008;2.0543163;-3.8275995;-2.3475075;-0.47950718;-1.9891057;-3.10048;-1.3239013;0.42178163;2.2371716;-1.8554604;1.683123;-1.1615225;-0.95715356;0.6615004;-0.41892862;-3.2810705;2.431357;-0.0063381596;0.43940637;-0.57941043;-0.95803344;-2.4809062;0.27838042;1.8863118;0.39543462;0.53334486;0.33011973;-1.7767769;-1.0429823;1.7672358;-0.78236043;0.109719135;-1.3596616;1.1135995;-0.43427834;-0.959118;-0.06861036;-1.8357294;-0.46200335;-1.5376503;0.07018539;-0.47069335;0.4071323;0.44024256;-0.7038467;-1.5112064;-1.3347993;1.7370625;3.1346557;-2.2741513;-1.4363892;-2.1546996;-0.061298747;2.2188272;-1.9241238;3.4319062;-0.99025184;2.0434082;2.3555508;-1.5339605;1.4223479;2.4512365;0.054845408;3.2661119;-0.38574713;-5.0142775;-1.6248249;2.2341135;-1.1240039;-0.591572;0.54935163;0.84269524;0.31482333;2.5750356;0.04980825;2.2888777;-0.63454777;0.88009584;2.5805676;1.2093353;1.2058841;-1.2415295;0.021942098;-0.011276438;-2.145794;1.149719;-0.8512767;1.081669;-3.3286202;-1.2278187;-1.3052666;-3.868808;0.3313113;2.2240283;-0.8748631;-0.15550238
-4.5481005;1.7491367;1.2767438;-2.5258775;-3.0320387;-0.25409135;2.6146972;2.1688874;-3.9945624;1.0334915;1.7619572;-0.8456806;2.6860883;-6.008745;-1.3683186;0.6594598;0.499604;0.5672249;-3.2811358;0.8034304;0.8611185;-1.0020266;1.0960238;-0.22567381;-1.0458646;1.3330668;0.3812354;-1.6768805;-0.17777678;0.062945604;-1.46313;0.2926645;-2.5772436;-0.7222405;0.67338586;2.4595525;-0.28832808;-1.5124011;3.0753024;0.52382874;1.0824418;-1.080397;-0.015642323;-0.17381619;-3.5745375;2.5666254;-0.9792837;0.09516461;0.07216504;-0.013926556;0.54789394;0.43196046;1.070647;-0.25037825;-0.76699793;3.3160653;0.9051662;-2.7317002;1.7682389;0.32766324;-3.0159917;-1.5783279;2.074763;0.64555705;-0.5202542;0.71516585;2.051292;0.3917092;-0.08013622;2.1953614;4.2606497;-1.9218131;0.8798514;0.94073427;-1.7464216;1.4354255;0.16159694;0.98306507;3.247397;-0.90840507;0.73302174;0.1389086;-0.4124443;0.7261697;2.7774186;0.9481493;0.16530868;-6.1928096;0.8454365;1.3093369;-0.6145216;0.24394129;1.4823757;-0.92004997;-2.114038;-0.492487;0.10566918;-1.2003498;1.8679608;2.5660472;-1.9399292;-1.060729;-0.5316324;0.07062922;-0.17389052;-1.2788434;1.9882598;0.6863584;0.97623104;-1.9968238;-1.0569278;-0.4658744;-1.6812197;-0.17989254;1.0513363;-1.3144771;-0.8043932;2.0838432;1.1798613;-0.834658;2.4533374;-1.9528552;-0.13799341;-0.7582017;1.438572;-0.8377616;2.6470907;-0.51311815;-1.3437345;-1.2759737;-1.0505793;0.27902985;-1.3889118;2.6243203;1.7824367;-2.128146;-1.6274637;1.3139151;0.3188501;-0.6559278;-1.6849071;1.3542213;0.6036319;-3.6915383;2.6307669;2.4812913;-0.35507143;0.7074224;1.2827954;1.1508273;2.260347;-1.188683;0.71625817;1.5502987;-1.9588531;-1.6571544;1.7921916;-1.0852127;-1.9585959;1.0707287;-1.4037086;-0.21479894;-0.6106222;0.22399613;-2.4880173;0.86329013;-2.0175633;1.056085;0.6288588;-1.0028048;0.97084975;2.46531;-2.334145;-0.20305665;0.45118976;1.8258909;1.9228988;-0.5797029;0.5768003;-0.77044946;0.58748156;0.8455951;2.0110984;0.29704976;0.2462708;0.7549421;-0.041110978;1.1601636;1.0016639;-0.55164474;-1.189155;-1.3980536;-1.3927224;-1.6553639;0.2919434;-0.5538352;1.1280655;-0.16747078;1.7687473;-0.21966909;0.45990834;0.8414374;-0.6541428;0.336258;0.10692128;-2.1093643;1.9271833;0.43470553;2.454933;1.0482186;2.0017197;-1.2633495;0.38764873;1.4053496;0.427387;0.47240728;2.236607;-0.094610184;1.8993375;1.5504249;-1.7019564;-0.1493845;-3.5556097;-2.098181;1.6718895;-3.9396057;-3.2721117;0.07169138;1.0437438;-0.277431;2.5531042;-0.79729784;-1.1923543;-0.31544504;0.09159246;-0.42830855;1.577501;-1.3299897;-1.4465606;-1.0663621;-2.7962096;-1.7186483;1.2540531;-0.80062646;0.44524977;-1.2308644;3.5662572;-0.3943126;-1.2335262;-2.3403919;-1.8946198;-2.8196037;-0.8712048;-0.78015596;3.066253;-1.0565629;0.24735548;1.6514382;0.47499943;-0.5487119;-1.4234977;-1.3422284;-0.4978717;-0.20087098;-0.29520476;0.12382978;0.055312444;0.81166553;-2.1422856;0.12580547;-0.12904106;-0.17292355;0.40932444;0.7944628;-2.3976574;5.009084;0.34847677;-2.8719757;-1.2975957;0.99661034;-0.62386185;-0.9137698;1.6687821;2.0636547;0.2704879;1.3935014;2.1785033;0.94155645;0.43566445;0.41452003;-1.617111;0.24262491;0.31593525;1.984565;1.3908594;1.1314989;1.2911032;1.6049283;0.71646255;-0.122745365;0.100141965;1.1588801;-0.7908416;0.109003015;2.0498874;1.9752901;0.7673969;1.0881203;-1.6179135;-0.23811066;-1.9345967;3.382065;-0.29068863;-0.21173808;-0.45090508;-1.8554072;-0.41277143;-2.6707113;0.94511527;2.039721;-1.2687359;2.6166356;-0.20556638;-1.8273907;-0.55907005;2.8501422;0.6850052;-2.7827203;-1.8906016;1.733114;-0.2731419;-0.29685003;-0.4162662;-3.6922145;-2.3434634;0.5586063;-0.86205024;-1.2218418;2.1487672;3.2802224;0.45837876;1.3544979;2.2598736;1.6436236;3.944828;-0.05122467;0.44422537;-0.053277936;0.11496012;-0.5293421;-1.443837;-0.097741626;1.6043688;-1.3819312;0.21532457;-0.6823382;-0.16933942;1.8701867;0.24938716;1.9988937;1.4771892;-1.3083471;-1.0892309;-0.84385496;-0.1794889;-0.1083977;-0.87644744;-1.1139351;0.14601286;-1.1042125;0.75673175;0.6158112;1.6123427;2.2333105;-0.15101674;-1.1761109;0.828651;-1.7348455;1.3846409;-4.0718684;-1.381254;1.6667337;2.1797383;2.6392295;-0.20092897;-0.40053317;-1.3324125;-1.1816909;0.09747533;-0.27581784;-0.0047471556;1.6103671;-0.60701364;1.2383974;4.1836586;0.018772801;0.40492913;1.8453476;-0.30784518;1.8083645;0.48235077;0.76708996;0.69730073;-6.696126;-0.20383143;1.9485719;1.0710347;-0.17204753;0.7659539;-0.24293354;-0.5262031;1.8748147;4.620411;0.106230244;0.18785013;-1.0378749;-0.7983386;0.5910063;-0.81513464;-0.12756056;1.7325896;3.1613162;1.4882153;0.8586631;0.26619485;0.20314547;-0.08644718;1.2018895;0.3607871;0.043971058;1.0203015;0.58867085;-1.3858452;0.73373413;0.09856044;-0.8436614;-0.94927967;1.2178633;-0.49469012;0.344509;0.22239953;1.3734338;1.8343691;0.25149316;1.4655519;-0.3000438;0.3634798;2.7017193;-0.8290289;0.38650078;1.26749;-0.84446985;-0.79150367;-0.22460695;-0.40345502;0.9667169;0.17873016;0.5687582;1.4302247;1.1069696;0.9016259;-1.1217736;1.6952734;-0.1756488;-0.3510722;0.34130695;-1.4046123;0.38873237;2.459956;0.7573946;-2.2691426;-1.2375972;-0.07695727;-2.0907514;0.92366076;-0.483607;-1.2294414;0.0030275546;0.10097726;-1.059448;-1.3921441;-2.1206636;-2.2225852;1.892417;-1.068597;-0.4037916;-0.32041728;1.399306;0.55605906;-0.27555496;-2.1842773;-1.8882977;-1.6073462;-1.8333026;-0.17301857;2.9250906;1.8854082;3.7296844;0.72820526;1.0289357;-1.5788822;-0.7558457;0.8553541;0.03343871;1.4628859;1.9133902;-0.8289652;1.0135905;-1.9567623;-1.4419638;-2.320743;-0.2292182;2.3554819;2.408795;0.781883;0.7934015;-3.2534454;-0.6667754;-3.393786;-1.9027243;-2.960906;-0.19504204;-0.1354164;-2.6639159;2.1746607;-2.2141054;0.06974715;-0.575422;-1.4834758;-1.7188469;0.6339691;-2.3324118;2.2108026;-1.8778641;2.7801118;-0.21182336;-0.5519966;1.9457538;0.09440588;1.7034756;-0.3779349;0.13167666;-1.4106886;0.17986073;0.4152381;0.8032603;-0.22752178;-1.5614184;-1.2731692;0.7589725;1.000702;2.5705035;-1.321953;0.26024708;-0.08989816;2.4236395;-0.23828068;-4.2254214;1.4788685;0.4594114;1.5835967;-2.1719854;1.9587537;1.7627599;-3.2106302;0.55510736;-0.72998756;0.51534826;1.600031;-1.5158546;-0.5355349;-0.6633081;0.27102792;-0.6678516;0.507472;-0.4169324
-4.0850725;0.7247771;-0.64796674;-4.507508;-0.2640537;0.3956025;-1.4631252;1.0889175;2.719248;0.7885456;0.056003526;1.219428;0.12545817;0.015975947;0.40943584;1.5951605;1.131751;1.2009695;-0.55970293;0.6393871;1.5999775;-4.4944463;-1.8180072;1.6793495;-1.112498;1.943103;-1.0570997;-0.94486475;0.068724975;0.23016284;-0.5909458;1.4675379;-2.0270233;1.0518628;2.0012665;0.5479666;2.887116;-0.048692446;3.9279037;-0.9324616;-1.5583347;-2.5250256;-0.95458865;-0.33866224;0.73822856;0.11197489;-1.1665987;-0.5774738;1.9429574;-2.6591926;1.5595784;-0.06388161;0.11093101;0.9933851;-0.5771084;1.2299031;0.07941563;-0.7113226;2.8703055;-0.93024534;1.2953222;-1.9418482;1.846089;0.26175985;1.1922362;0.2669068;1.3463124;-1.5857538;-0.270547;0.2892033;0.22206452;-0.4938836;0.083347596;1.3572363;-3.9985466;0.7264804;0.35489905;0.85579693;3.2521656;-0.2309243;-0.08093175;0.0717149;0.30648637;0.7280072;2.1598558;-0.7908688;-1.1528296;-4.505537;-0.21319357;0.17058471;-0.65582365;0.7986494;0.66780436;0.035090037;0.52388185;-2.0006568;-0.77098596;-0.9754635;-0.29563653;0.43457168;-0.9099508;-3.3450108;-1.7817736;0.06619102;0.85492384;4.163572;3.0032368;-0.5525442;-0.09004544;1.3825798;-1.7181178;1.598035;0.81282187;0.119466014;1.7611549;-0.79464954;1.0472091;1.422491;0.055942606;-5.5186925;0.9240052;-1.6100653;2.1289372;2.6829479;1.5969263;-1.565282;-0.34482637;-1.7283481;-0.40861556;1.430323;1.9685922;-0.4266543;0.5391546;1.5509493;0.5725471;2.1338434;-0.7996334;-0.7354646;0.48658323;-0.4069432;-0.6115986;2.870713;0.16394798;-0.19760881;0.8299592;-0.19269505;-0.21160448;-1.2417209;-2.8030815;0.65982145;-1.7793143;-1.3882551;-0.042443976;1.7198734;-0.3067045;-0.18951152;-0.6447126;0.75445503;-0.59544396;2.1244655;1.7963399;2.1106124;-0.6464717;0.20678648;-5.6835637;0.25408295;1.8160764;0.84946716;-0.10171787;-1.3347167;2.1963546;-0.94890726;3.020644;2.7534616;1.6981034;-1.2409596;-0.6124806;-1.0550004;0.12784323;2.5496976;0.65318155;0.7115068;1.9891219;-0.5941132;1.1636436;-0.7620191;0.5476922;-2.0824046;0.7405074;-1.9161154;-0.4507377;0.8356416;-2.0070307;-0.24205306;1.5254781;-1.3411711;-0.48085654;-1.2990348;0.49179065;-1.426332;2.0717645;0.06239734;0.48477504;1.2802569;0.39488575;-0.24011563;0.21795473;0.6380553;2.6552649;2.2917726;0.9979467;-0.26177898;0.07004896;0.99082845;0.04681942;0.2732047;3.1487706;-0.6364705;1.5626262;0.19816302;-2.316447;0.051046506;-2.4415019;-1.9648281;2.2042937;0.49976397;-1.320133;1.9603226;1.5789702;-1.0491974;-0.8061028;-0.49722865;1.1591437;-0.27532881;-0.78670675;-1.7876574;-0.22609049;-0.0442147;1.9043233;-0.25552732;-0.8782921;-3.2069569;2.6630137;-0.05240162;-1.826524;-2.1464508;2.2122607;0.48497897;-0.8710845;-0.6798285;1.8702599;0.17726974;-2.0938253;0.3265457;3.276591;-4.137377;0.19570875;0.7541388;0.27714276;0.8842255;-0.3323218;0.79608536;-1.6213511;-1.187463;0.0119849285;-0.16665795;0.581823;0.18213922;-1.8014547;1.3876579;0.06399746;-0.97413695;-1.0705415;0.6207931;-0.37323588;1.5185959;-1.3919021;-0.7550907;-0.47489038;0.77674365;1.8401512;1.1905683;1.7596809;-2.5065434;0.11783719;1.7209992;-0.45999652;1.177411;0.23285066;0.4362331;2.4332845;0.853793;-0.002297427;-0.23781982;0.485945;0.4326401;1.7045236;1.048889;0.8998201;0.44060242;-0.9218637;0.9075374;-0.11397496;-0.5828903;2.9350708;2.6982422;-2.5450597;1.611811;-1.6600903;1.0273346;2.2110615;0.24259402;0.7585713;3.2175453;-0.8948189;0.103397764;-2.4210877;-1.8944956;2.844677;-0.29551655;0.4340607;0.43653938;-2.9833941;1.3382939;-1.4486039;1.5516151;-0.7726807;1.2477732;-3.023733;0.3227987;1.567508;-0.027219271;0.5436478;-0.4774568;0.24691924;-0.002623636;0.060807176;0.94813454;1.0923955;-0.041188043;1.595585;2.2137928;-0.37367836;2.9512885;2.3266478;-0.49277404;-0.1268521;0.0070911134;0.064959146;0.115460426;-0.48321947;1.4034;0.32028627;-2.1955771;1.5382825;-0.16607468;-0.5143563;0.7509799;1.3928483;2.2399502;1.5573043;-0.010739269;1.2084354;0.97827125;1.013951;-0.2671884;-3.7121687;-1.3549634;-1.9184728;-0.19396204;-0.5870602;0.8527532;0.7994158;2.099505;0.8472487;0.18236606;-2.7417512;-1.9082278;2.640504;-1.2385458;0.5002211;0.7827298;-1.2589424;-2.7394674;0.27012336;-1.2656263;1.728513;-1.0091841;1.6581253;-0.49149916;2.592124;1.6506448;-0.518189;0.5249796;-0.39268464;-1.4273895;1.2941986;-0.6456834;0.68425953;0.49519497;-1.1196487;-2.2358577;0.90107656;-8.170556;1.8374522;1.6005362;1.1971867;2.0262036;-0.87252545;2.3681266;0.765561;1.7959358;2.150273;1.2768917;2.6595852;1.1534387;1.9178396;-0.8628778;-0.37504402;0.21250504;-1.0536729;1.3132056;0.87564534;-0.7089799;-1.4093643;1.1301448;0.88314223;2.8678026;0.6746107;-0.1723608;2.2435477;2.0556464;0.21633174;0.7512812;-1.4082799;-1.9234582;0.7827255;1.7994393;0.16458413;0.09361642;-0.09440096;-2.2169507;0.5030103;0.084618516;-1.6260548;-2.4248888;1.4678783;0.6171202;-3.869404;-0.9093578;-0.9559167;0.71451825;-1.6269292;2.6467636;1.2526654;3.9335458;0.76740634;0.6339641;-0.20918828;0.28022122;-0.33434469;-1.9973571;1.7768214;0.3028893;-0.82312906;0.16105418;0.86137575;4.347679;1.9302055;-0.48808086;-0.85004586;-4.641449;0.09729992;-2.1699243;1.4081383;0.4419537;0.26112992;0.78773224;-0.91384083;-2.8478427;-1.2846903;-2.3403687;-2.5623443;-4.329847;-2.7378492;0.6232576;2.6804914;-0.29049918;1.0560187;-0.53385514;1.4508497;-3.6609685;-0.58579993;-3.182243;0.53521216;2.826433;1.8635296;-1.5456452;1.4180726;-0.35512114;-0.027595457;-4.4053497;-1.8468044;0.3315398;1.8526003;1.3770596;-3.1178796;-0.78856987;-1.8363079;-2.1703925;-2.107967;-1.0169029;0.4925014;-0.27038643;0.015876118;1.1967114;-2.644339;-0.9775237;0.998715;0.87331676;-2.4623632;-0.8626344;1.9516145;-0.6782379;1.031405;0.26844397;-1.4496546;0.6268303;1.6012485;1.142687;-1.843984;-1.8939456;-0.91674656;-1.4858965;2.4976246;3.7278821;-1.4355781;1.4670497;0.819423;0.80960673;-0.6280649;-0.2344235;0.48499072;-1.7368706;-2.1638207;-3.7933202;-0.57055974;-0.44058707;1.1855854;0.42366543;-0.37722155;1.6550636;0.04942057;-0.79788136;1.2914137;1.5475689;-0.94632673;-0.4344452;-1.3748094;0.6976635;0.8591223;-1.0229021;-1.4079136;0.8169101;-3.9165854;2.022928;-1.0503867;-0.8439156;2.0286212;-1.2645049;-0.22354753;-1.1325724;0.88702464;2.268463;1.5319461;-1.1382205
-1.9989959;1.6406846;-0.15379229;-5.211562;-0.06983632;-0.09535514;-2.766776;1.9056737;0.15637542;-0.06574508;-1.0889502;-0.50179005;1.4207696;-2.4366066;1.2390678;-1.6564263;-3.0170043;0.30651975;1.1423228;-0.96880966;-1.6507612;3.1295907;-0.59642434;-1.8347664;0.8997549;-0.4764026;-1.8927469;1.7924464;0.40447012;-0.4540329;-3.0137498;-1.7131387;-0.18260473;-4.4097414;-1.1921662;1.7990484;2.2932396;-0.9705096;0.5420085;0.4866194;-3.837501;-2.7162216;0.96950525;-0.5307009;0.7555837;-1.450079;1.9171151;-3.7093906;-0.17810918;-4.8960767;2.6943784;-0.17507468;0.62001497;0.72887105;-1.1737369;1.569049;0.7033667;-0.5253614;1.0455532;-0.35687834;-1.0282314;1.0502864;4.009544;-0.852405;1.7857709;-0.2452358;1.5363276;-1.2194574;-1.4760344;0.17238034;1.7070323;1.2861595;0.42248023;0.21280675;-3.1906006;0.33047345;0.26168978;3.7528703;1.6862767;1.1784155;3.2042067;-0.7576813;0.43326247;-2.0213661;0.49411663;-0.95346177;0.124548286;-3.547934;-0.17722484;-1.0790247;-0.5456355;-2.574533;3.206118;0.10296651;1.3081325;1.0035496;-0.32270715;-1.5223013;2.5908992;1.1250885;1.8194578;-0.09262663;1.2396675;-2.4953585;3.323555;0.7069014;-1.0093206;1.3640888;-0.5530257;-2.7646601;-0.80675155;-0.22547118;-0.23130679;0.39900202;1.2959921;-3.3725746;1.0944223;0.6635944;-0.81804484;-1.6108567;0.4481216;-0.2188578;-0.07981716;2.3378441;0.66452765;0.5826544;1.0653343;0.81151944;-0.1171057;-0.34403965;1.1706469;-2.3202462;0.24586032;-2.2228553;4.9792824;-0.19814126;1.1446198;-0.45426816;2.4799874;0.69207597;-2.1164854;-0.77621037;0.7721384;-0.79138863;1.5432879;-1.3218433;-2.5556557;3.003987;2.4561746;-0.23034638;-0.2223567;1.5571032;-0.118873805;2.2046702;-1.3320022;0.5828376;-2.6367092;0.17597543;-1.5500437;1.9927489;0.12331449;0.815878;2.131232;0.6693285;-1.73305;0.5258754;-2.881966;0.5904636;-0.49987662;-0.5760278;2.1391134;-1.210307;-0.13731691;-0.34707117;0.064964995;0.011056094;2.2533112;3.7683828;0.76891243;-0.88065153;-0.22816698;2.0954807;0.40155438;0.15277271;-0.7715399;1.2590744;1.1286249;-2.6700737;1.0527029;-3.8323789;0.15820414;-1.4220722;1.4014087;-0.49798617;-2.5799975;-1.2019871;-1.9802579;-0.15375061;-0.10069478;-0.99205244;1.7057068;1.2776191;2.114947;-2.8708823;1.7189934;-0.21918254;0.24973038;1.2483971;-2.1164153;2.5575383;0.8263097;0.6086774;0.8705857;-0.8632347;1.7710967;0.8178315;0.79618824;-2.4762347;-1.6130347;1.4380497;2.0210092;-0.16833188;-2.560308;2.5060413;1.0265538;0.4809905;-1.6448138;-1.4311837;-0.59863704;-0.24579145;1.1151019;-1.3962063;-0.66709214;-0.999914;0.9910663;0.46051666;2.2203631;0.093692265;2.5920787;0.93644655;0.13985884;-5.884256;2.537951;0.58406496;4.727872;1.898503;1.8066064;-1.0222661;-0.076069;0.9375286;-4.3267045;1.0153248;-1.0148418;-0.8291114;0.42218098;1.4919553;1.7226727;-0.65762484;0.13545631;0.7230891;-0.90492934;-0.7432111;-2.3596182;1.0743246;0.11257688;0.012021752;0.024745882;-0.34374225;-0.89407134;-0.042472776;0.04719607;-1.5209194;-0.6082299;1.0895958;1.5127735;3.3221757;-0.20228948;0.06496819;2.1456497;0.4724079;-1.1667525;-3.826504;0.60442656;0.36053914;0.41814747;-0.18879251;-0.6155217;2.0069854;0.34253916;-0.0092179915;-0.060999826;0.7726148;-0.9393531;0.5577445;0.21638833;-0.019531893;-0.19646293;-2.0280795;1.2267272;0.8575844;2.641572;3.8666074;-3.0896237;0.39370292;1.3699142;2.0526526;2.0314493;1.4576006;-2.7818744;0.42268336;-2.0865746;-2.0138493;2.0920963;-3.2101858;-3.091573;0.14364384;-1.3268105;0.11604965;-2.4841785;3.332941;-0.23458585;1.2138745;-0.4872692;-2.6022074;0.5923035;1.9676107;-0.40858325;0.6220096;0.5755312;0.44601265;0.31768668;0.49949002;-0.17967713;-0.7459785;0.54402363;-0.60565305;0.16030158;-0.121263824;-5.2136445;0.35852373;-1.5799;1.8109518;4.226816;3.996658;1.1321883;-1.5723218;-0.8006066;-0.5128887;-0.27566782;0.86229056;1.1981258;-0.31622276;-0.6080458;1.3232981;2.207202;-1.1302285;0.9830457;0.3190075;2.0857472;0.6206626;1.7142762;-1.9934971;1.0768299;0.36697185;1.3795589;-3.125932;-0.814258;0.9547146;-0.78993285;1.6997757;-0.01883397;1.8014593;2.1475286;3.2672305;0.60031253;0.10916269;-0.5216822;0.22265404;-2.8924572;3.3694642;-3.1295025;3.9520018;0.99897903;-1.0976584;1.0153056;-2.6949816;2.1723928;-1.1180944;0.38150623;-0.1863949;2.8115785;0.07599594;0.3914;-0.61939895;-2.0485861;0.42795706;-0.85843104;0.044410475;1.7374593;-0.2435576;0.84109324;1.9272622;-0.6175238;-4.842211;2.5480816;3.3004172;5.01181;1.1596285;-1.0337521;-0.11578995;0.050887424;2.3296416;2.3545003;2.2200708;-1.271098;-3.084619;3.54094;-0.5525493;1.0073359;1.3556969;-1.235579;1.7921765;-1.406896;-0.098082006;-1.0099295;0.7855232;0.038647924;-0.07712572;-2.9501662;-0.88397545;-0.4786303;0.49162155;3.3833287;-0.47004008;-0.50627226;-0.44220927;-0.6324302;-0.094941154;-2.1207614;0.050224073;0.3161217;0.46975234;-0.42620826;0.35149372;-1.0998533;0.057040393;-1.4097575;2.5567183;-0.90294856;0.41646972;0.5489203;0.4400149;-1.6667863;1.6594449;-2.1444166;1.9009833;1.867955;-2.404789;1.7283111;-0.29439998;-0.4566268;1.6258692;-0.16983649;-1.9329085;-0.70085067;-0.06475004;0.6194598;2.9934618;1.9245232;2.1749406;-0.64134675;-1.293253;0.963599;-0.965282;2.6804492;-0.8009681;-0.9956435;2.6432319;1.0578111;-4.467061;-0.979418;-5.488553;-1.2403011;-0.91987956;-2.221651;-3.4092712;-0.70059705;1.4104165;0.1877634;1.3722376;-0.9353411;-1.5125737;0.74274373;-1.1955385;1.1325442;2.3021815;0.55968773;0.56525326;-0.36069745;-0.60998076;0.23296355;-4.9519916;1.2039497;0.88880545;0.061982013;-0.07345191;0.51009494;4.092206;-3.3359697;-4.3052382;-4.9612184;0.14296642;0.5844023;0.4050699;-1.3925059;-0.12018665;-2.31485;-0.5480417;-0.5814656;-2.6204062;-2.006023;-1.8478374;2.0196705;-0.87188286;-0.46922645;-2.013444;-1.295946;1.2051524;-2.000619;-0.92250997;-0.33143458;-0.15418412;-3.3731177;2.5682614;3.3512828;1.1981014;2.179993;-1.6879874;-0.69303304;-1.0465996;0.7089685;1.1081461;0.5893028;-1.6335384;-0.8871381;2.4432795;1.7172908;0.38894922;-1.0331012;-1.2530465;-0.16513255;0.09402443;2.572757;1.8115151;-0.4403594;2.285747;2.1340322;-0.093836986;2.7227545;-0.9904656;-0.8811996;0.9757817;-0.79103005;1.1537051;-2.4953501;0.18384826;0.5361239;1.1495696;1.2762613;0.24712686;-2.5429254;0.8096491;-0.7341844;1.9506316;-0.41835296;0.12730743
0.0385715;-2.038815;-1.7869399;-3.2760775;1.8124517;1.1324345;-3.4720638;2.0580401;0.17426434;-1.3757343;0.78563553;0.8844896;-0.37123394;-1.3378477;-1.1819946;-0.18204434;-4.3682094;0.7715403;1.2328062;0.10838975;0.48173022;-2.6176689;1.250526;1.5247581;-0.12662439;-0.20826387;0.6914253;0.32270396;1.4375063;-0.9990784;-1.2833353;-1.5142705;1.4039619;-0.10300394;1.7999576;1.0735437;-2.3646882;0.64069223;3.4546757;-1.0568358;-3.518261;-0.031956583;-1.5402273;-1.1022197;-0.9430054;0.4495301;1.0594554;-0.41429177;1.8902106;-3.3843474;-0.84920317;1.2534008;1.4732838;-0.8150072;-0.32015812;0.56199914;0.22993158;-1.9843811;2.6074822;-1.4145573;2.315294;0.8220095;3.3120685;-1.4801782;1.597693;-1.2139535;1.755552;1.3223904;-0.14427845;1.3373288;-0.4302468;0.50360703;-0.15868808;0.20149384;-2.987838;0.039417226;-0.07410915;0.44086346;-0.5043991;-1.9388963;-1.8577224;-0.36395007;-0.9667352;-0.8537613;-2.1688263;-0.32320008;1.488018;-4.6807227;-0.23562594;-0.52963454;-0.7353442;2.7881453;0.14625733;0.077314414;0.48565382;1.1507297;2.6889386;2.427174;0.7875657;0.6766246;1.7485043;2.4395823;2.0906377;-0.8064845;-0.6723402;0.10338359;-1.5054194;-0.08282837;0.833801;0.09833921;-0.781308;0.09195555;-0.12132926;-0.5850559;-0.24040678;-5.2058334;-2.0956335;2.5999117;-0.71156317;-3.838962;3.2836385;-0.01888944;0.061149906;-4.998378;-0.70053005;-0.045832966;-2.4183338;-0.31790224;0.18896964;4.277026;0.41032133;-2.3474998;0.22051524;-1.6372868;-4.7043557;1.3315511;-3.3609648;-0.38395765;-1.0714827;0.7393837;-0.16162957;-0.22908695;1.4083431;-2.3005676;3.8306284;0.98175323;-1.6719047;0.92627054;-1.272519;0.33776408;-0.5857306;-2.1161087;0.40271214;-0.37312916;-1.4707035;-1.2653519;0.69933534;-0.53503096;2.633359;1.4152886;0.50501156;-0.069734424;-0.39920402;-0.7437503;-3.747401;-1.6801543;-0.65077657;0.5972574;-1.7311412;-0.15291633;0.5668717;1.0045996;-1.6275933;2.0455415;-0.4995384;1.5844971;1.3676375;3.3482249;1.9253559;0.7536353;0.89444214;1.1205845;1.6719697;0.9423848;-0.8849095;-0.00013995178;-4.8154683;0.9179781;-2.575448;-4.0685744;1.9974741;-3.892155;1.4840951;-1.7354807;-0.8977588;2.6612992;-1.4636867;-2.402857;-0.1296075;1.0665482;0.5484811;1.1369139;1.980289;-2.6425014;1.383333;1.4344072;0.09386879;2.011075;-0.95972216;-4.179397;0.38833106;-1.0508417;0.93119097;2.657417;0.117358975;-1.3574795;0.599136;-4.6760335;-2.8340757;0.16400976;-0.8594277;-1.6440601;-1.2042888;-0.8357539;2.8153813;-0.34006938;-1.1820383;0.99920833;0.49126917;-0.9263377;-0.1305599;-0.8781857;0.726198;-0.41693327;0.24265273;-0.36381522;1.5718666;0.8266328;-2.624399;-1.4381052;1.7778867;-1.0744488;-1.8846674;0.26423287;2.4878936;-2.871465;-2.251467;-1.3389735;-1.9983402;0.08244017;-2.2145672;-2.3733494;1.9998089;0.4867815;2.6859753;0.4199924;-0.017294062;-4.6605725;-3.0458295;1.4760484;0.578957;-2.9597843;0.25745654;0.7905611;-0.31756747;-1.6172948;-1.4649798;-0.21526285;-0.33817267;-2.352477;-0.75700885;-1.2525401;-0.56415784;3.933103;0.2174819;3.2695572;1.0911055;0.7230539;0.04965003;-0.64002264;-2.8361192;-1.3260081;1.5327691;0.8775947;-0.2837247;-2.47726;-0.61483324;0.10353998;-0.51077753;-2.1902103;2.805814;-0.19691283;-0.6644957;-3.5582576;-1.6990539;-0.26787636;0.54741025;3.87668;0.94580424;0.9104717;-2.0470042;0.37810352;1.8524594;-1.0823976;1.5113134;0.5575976;0.91622746;1.2351277;-4.460543;1.2760448;-1.5249608;0.7072854;1.2747729;-1.9377494;-0.9162125;-0.05568735;-1.66838;1.0356898;1.2922132;-3.5190048;1.9410791;-1.1571594;1.9271476;-2.9577262;-0.4877921;-3.7772036;0.2869767;0.6079473;2.7754807;-0.53902084;1.0323951;0.7521106;-1.1196373;0.47955456;-2.2678916;0.5966732;-0.5993227;-0.57250273;-1.7656447;0.031547993;-0.7443557;0.008512162;1.6234144;-0.3356984;1.6096456;0.85507655;-1.7003126;-1.8022047;-0.2986978;3.055701;-0.9248416;-1.6876022;0.77290595;-1.9868016;0.58010143;-0.299219;1.0103978;-0.20880917;1.5332117;1.4701577;-1.2520368;-1.8882685;-5.0440445;-0.08071206;0.7463027;-1.9462836;-0.6821558;-0.19210903;2.2476377;0.4361508;-0.5298366;1.2418983;2.1562304;-0.32714558;-0.79276294;0.4687925;1.1815156;0.772137;2.5342436;1.0395228;0.67914677;-0.24533886;0.2884303;-0.05642656;0.8086116;0.25497568;0.14818844;0.629007;1.2874109;3.2010758;-0.9553679;-0.6280653;-0.58685845;-3.4531713;-1.8487946;-0.37414414;0.24602082;-0.76380986;1.84508;0.88406736;-1.13253;0.93764305;1.313486;-1.7410213;0.7990413;1.9406035;0.12764212;-0.20825946;0.23896888;2.0930898;-0.6091455;4.3438582;2.3815956;1.0682918;1.3561274;-0.44189414;0.113232546;1.1291786;-0.44408938;2.2154582;-1.8269796;-0.59501195;1.5421798;-0.9029585;-1.1443639;-2.943264;0.12657236;0.11427025;0.5818623;0.033973537;-0.047958944;-0.094275154;-1.7133745;-0.22341332;-0.010701893;-1.193913;0.9503629;2.7153697;0.33538362;-0.8224673;0.33440912;1.8311608;0.63879335;0.062255863;-4.7882447;-0.27414793;-2.869284;0.11181135;-0.13949402;-1.3671675;-0.6101548;0.48439527;-0.008732499;0.61250126;-1.5737035;0.38284543;-3.0619392;0.63544685;1.9401959;-0.14904757;1.062033;0.014654849;-2.8990498;2.6382418;0.54428023;0.25527877;1.4942186;2.8564236;-0.66689223;-0.6486643;0.33263448;-0.71494496;-0.62707;-0.17841518;2.47778;1.134512;-0.3483052;0.42967132;1.6577278;-3.2248943;-2.1029232;-2.4069602;-0.19358237;0.510105;0.0944319;-1.9739249;-0.0021555445;-3.288367;-0.041406512;0.1788787;1.455008;-1.1157429;-2.1388845;-0.9895346;0.16371009;2.61682;0.43061873;0.38295382;-0.9383583;-0.122880965;-0.90067774;-5.349439;2.3081522;0.42116177;0.59554684;0.26828954;2.2092624;1.8588306;-5.1573906;-2.9053996;-0.4734152;-0.5475338;0.9175261;-0.9801411;-0.75359184;0.97219056;-0.04463525;-0.12409653;3.2705336;0.768966;0.4526423;-0.2986486;-0.40730342;-1.3006114;0.8104558;-1.5218298;-0.7693451;-0.4395261;0.582543;-0.6769732;2.3602927;0.8421306;0.03876034;-1.5242674;-1.0219809;3.0398242;1.7777588;-0.10152094;-0.7609036;-1.1748408;-2.4121559;0.5043946;-2.443447;-0.23897606;-2.369623;-2.2124434;-0.46832976;2.574831;-1.0144699;1.7595071;-0.73270595;-1.0527412;-0.47590223;1.3387086;0.7433365;2.1619606;0.22054428;0.6333373;-0.6432603;-1.7099533;-0.47442183;-0.8118505;-3.3463426;0.33218342;-2.5423603;-1.4201347;1.19885;1.6206211;2.6270328;0.39333662;-1.1796081;-1.4639744;-0.24062364;-0.8364814;0.14616702;-0.28987676
-3.7606325;3.1062918;-4.2516804;-2.652825;-1.2756704;0.2023609;-0.09050102;0.87151897;0.5085325;0.5429454;0.26198378;-0.535185;1.8424866;-0.57217586;-1.9282209;2.6225483;-5.7883525;-1.1405832;1.1959989;0.90750605;-0.7300396;-1.2732515;1.7044684;1.3680202;0.121172406;-1.248098;0.7237404;1.0240697;-1.4731902;0.6895337;-1.1293509;-1.2905602;0.18942219;-3.3867304;-1.403947;0.0015243983;0.36793622;1.3434508;-0.16470788;-0.033209633;-1.7244656;-1.0634934;-1.3300233;-0.53172094;-0.097785406;1.157587;0.37413073;0.9674738;-0.117199436;-2.6166;0.66418844;-0.7979923;1.081392;-3.3969612;-0.3114607;0.5507237;0.34491563;-1.3712705;0.45148957;-5.5288043;1.9037794;-0.99849224;1.966582;-0.39675248;2.346257;-0.92999;1.6558411;0.074470155;1.6685444;0.7298163;1.024802;0.39782625;0.23140171;-0.89742976;-1.8280426;1.7861028;0.22294046;0.7264056;-0.5813582;-3.342631;1.3434445;0.6150011;-0.15208948;2.3077297;-0.20512411;0.6464629;1.7258753;-3.403944;-0.2803306;0.06895381;-1.1167818;-0.22234926;0.061967876;-0.5440464;-1.289519;2.270139;0.51553756;0.22787559;1.8439358;0.30382183;0.82999796;1.9324849;-0.18098024;0.81829405;-2.143173;0.079158306;0.9087832;-0.19841184;1.2102219;-1.2387304;-2.2712193;-0.18937199;-1.2913946;-0.14600384;0.09997432;-3.8142233;-1.0629654;2.3800626;0.15412676;0.2960872;-1.7234684;-1.1338556;-2.8005295;-1.6344674;-1.4975636;-2.2033982;-2.19507;1.754185;-0.22922646;2.0755162;2.1465912;1.3220428;2.2476072;0.67273027;-2.7488089;-2.0225277;1.7570286;-2.3551252;-1.5496967;1.3680923;0.63138497;0.84291565;1.2877586;-0.3374981;0.5862109;0.5154356;-0.56395197;-0.007454117;0.7584185;1.655703;2.2360938;-0.48384812;-0.40847176;0.9612302;0.19692685;-0.3927186;-3.4387698;0.016921254;-0.07291133;2.9295914;-3.6259375;3.5623496;1.3921778;2.0300384;-2.771467;-0.18498886;-2.7213283;0.19883844;-0.44419858;1.8359296;2.7613797;0.6808373;-2.2212844;3.2110953;1.6676002;1.9150271;1.5283592;3.7839622;-0.98773515;1.1696274;0.34313548;0.14154135;-0.25651395;0.62504315;-1.7646006;-0.022393512;-2.0598464;-0.4326657;-0.63219595;-3.3540301;0.46540844;-1.6389614;2.8934283;-0.2488187;0.106910765;1.8206589;-1.6003385;-1.240305;-0.38463926;1.39273;-0.30459335;2.3007002;2.6216266;-0.29422712;-0.47794798;2.5510972;1.0200797;-0.21327825;1.435259;-1.8313413;1.0405474;0.76838917;0.83782375;2.93026;-1.5494915;-1.2176585;1.4630827;-4.274748;-2.1874602;0.64043933;-1.6170307;-1.4286501;0.089573786;0.38520625;2.4402683;0.14367552;1.0776227;1.0166607;-1.821327;-2.0837622;1.0521743;-0.31920192;2.4436762;0.34356996;0.43036404;0.12264653;0.9740543;0.05526908;2.930196;0.9437215;-1.4599761;-1.7422681;1.5400114;-0.073381834;3.0322404;1.8455076;3.0055487;-1.8950429;-0.4305808;-1.850912;-0.23768598;-0.3612973;-1.7071099;0.1245596;3.335245;-0.31611484;-1.3910744;-1.6402923;0.60300523;0.24763583;0.6997632;-1.9151138;-1.398678;1.4082133;0.14140758;-0.83548474;-1.458047;-0.814816;-0.90404487;-0.8784676;-1.3492836;-2.5793538;-1.1742932;1.09127;1.7568009;3.7829742;1.349943;0.16783719;-0.8325743;-0.7556415;-0.1429578;1.58577;2.58871;1.2714093;0.3114663;1.1159045;0.5320058;-0.8842204;1.268262;0.090476006;4.956517;1.0705173;0.5517745;-1.0159957;-0.29153407;0.87457585;2.8788095;2.5852869;1.2055262;-0.9848199;-0.763619;0.7522835;-2.5116696;0.43245888;2.6886244;-0.46849597;0.7016226;1.5552089;-1.7153778;-0.18761976;-0.9905126;-1.6018867;1.8027741;0.42056432;-0.74087524;-0.5149798;-2.337205;0.030278647;-1.1722741;-4.427998;-1.4132451;0.6191766;0.9522394;-3.7961009;-0.21557409;2.3670423;-0.103310965;-0.16009495;0.7811413;1.1942497;3.5935838;-1.0429282;-0.785579;-0.13078047;-3.1369612;0.94712114;2.3953972;-1.0166417;-2.812209;-3.4551327;0.41520184;0.5602129;-0.23965459;0.96651286;1.416668;3.3921504;2.4428935;2.7298138;0.107446834;1.3501337;-2.2183988;-0.52912563;1.0830039;-3.117845;-0.73307997;-1.0152388;0.16814044;0.8618799;3.128834;2.097713;-0.38633305;-1.4499613;-1.3870308;-0.56817806;-0.58690655;-1.4395533;-0.45960346;-1.2153316;1.800716;0.31300375;-0.22935268;0.20570268;1.0785116;3.1876788;-1.142371;-0.55176926;-0.8652285;-0.75258845;0.38497338;1.3043641;-1.3524776;-0.9517375;1.1528816;1.5107172;0.8326094;-3.0606735;-0.6577389;1.225499;0.4274672;1.1504489;0.57456803;-0.02932217;-1.1066586;-0.39532024;2.3259456;1.6202371;2.2703626;0.588925;0.6329302;1.8372712;2.2956474;-4.3866415;-0.095227666;-0.44734934;-0.42623982;1.8900864;0.7705872;-1.1582092;0.8653928;-1.2625668;-1.0493014;1.0085083;1.5775163;0.4624342;2.7754395;1.5896965;0.71613455;-1.6873255;-0.4989916;0.96423596;-1.0618525;2.094444;1.1675596;-0.40749523;-2.5910625;1.0897454;1.0586859;3.361706;2.4959407;0.26297083;0.73115206;1.4592078;-0.36298606;-2.6952848;-0.939115;-0.9425147;0.92352307;1.0945225;1.3710504;-0.117758736;-0.23437867;-0.5245896;-1.1631591;0.61348814;-2.1333776;-1.4658803;-3.8840423;-1.1712859;1.1647292;0.7780102;-0.23708262;-0.7792114;-1.1309254;0.8571528;0.14513339;-1.5577677;0.20985517;-1.6151524;2.4063373;1.7908659;1.5742289;-0.3466091;1.1349741;1.402811;-1.7694919;0.4375373;2.1632857;0.66846925;0.5989675;-0.4252926;-2.297312;0.7349619;1.0228983;-1.6066293;2.136198;-1.5053434;1.5514734;3.5903041;-0.39114717;0.17776121;-0.6877591;-1.4803647;2.1748753;-3.0157597;-1.4937767;-2.1713428;-0.98495024;-6.8163815;2.621551;1.201528;-0.55463475;0.4284557;0.64453703;-1.4544297;0.74535954;2.0257509;1.0559016;2.7114356;-2.3445253;-1.2285835;-0.16165753;-5.4426823;-0.67620534;2.3167846;-1.8870885;-0.25491938;-0.82574207;-0.5049576;-2.8716362;1.332028;2.106325;-0.47683766;1.9239913;0.53337735;0.7466063;0.47403064;0.15730973;-0.7196748;1.5301429;-2.3322613;1.853691;0.01958969;1.2182796;-2.7559016;-0.71093017;-1.8405682;-0.62665445;-0.6558065;1.2970122;-0.0059348387;-2.651011;-2.372438;-2.1395326;0.9625772;-3.082263;2.124887;-0.95298994;-1.2696755;1.7952497;1.0231115;-0.5611851;-1.7866238;-1.4439678;2.2227008;2.1403155;0.39174098;-0.35324156;2.999553;0.8281002;-1.6581982;2.0106032;-3.2076905;1.1555839;1.1167954;-0.33438393;1.6333145;-0.6026297;1.4333118;1.177482;1.2157768;0.28055015;-1.5770015;-2.7420378;1.6840848;-2.1486914;1.0381687;2.2486186;2.804536;-0.023769677;-2.3491142;0.6109687;-3.3841734;-0.37690863;-0.42576596;0.05482443;-0.116338365
-4.4365716;0.46081772;-2.6959662;-4.0151315;-5.3947725;-0.1275972;-0.4625317;-0.21909818;3.5914516;0.37035826;0.908922;-1.5782869;-0.8321181;-1.8766124;-0.86958295;1.695198;-1.8802258;-0.16503997;-0.04088571;-1.9771588;0.5528052;-2.2217999;0.89328706;-0.35190874;-0.03607974;-0.3693544;-2.7160943;0.25067797;0.5251487;-1.5677273;-0.1112458;1.1862383;-0.41537482;-0.37897804;-0.3244988;-0.72754025;2.0800931;-0.56631136;0.3483043;0.9300138;1.611069;-1.4856875;-0.33081457;-0.26756465;-1.5925475;1.2307124;1.2049296;-0.61357766;-0.5395092;-0.45276403;0.24623673;-2.0947998;-0.029043598;-0.26828638;-2.341623;0.6930753;-3.5094414;0.2856395;0.70793784;0.98755234;0.8649568;-2.2986584;1.1954517;-1.399692;1.744242;-1.7737173;0.8651361;-0.4995089;-0.9560217;0.6344001;-0.7248484;1.043001;0.063934006;-3.6791573;0.020449571;1.1851959;1.8241593;2.228851;0.6678197;-2.3763292;-1.9030281;-0.32742396;-1.4557583;0.42097554;1.4036919;-0.12477719;-0.2947596;-4.657383;-1.9446772;1.1395379;-1.4477789;0.35512125;1.9715686;0.26518694;-1.509014;1.2084373;0.33113816;0.82245815;1.7159595;-0.5938469;0.01342924;3.6652248;-0.64268744;-0.99159;1.2055695;-0.17260996;0.05494954;-0.4511908;2.990175;-0.2172304;0.41367653;0.12029474;-0.9411709;-0.21867241;1.8787768;-2.4242058;-2.0537221;1.6224331;0.22117782;1.1147352;-0.38372794;1.6279454;-0.77804303;-0.4816672;0.2113784;0.34159672;2.3048248;0.69382036;-1.0417904;0.6203483;-2.1915536;2.0497909;-1.5235387;1.6420639;0.77712166;-4.8131166;-4.0892954;0.12993354;0.08910232;-0.59572226;1.9493767;-1.2722366;-0.28547186;1.1459011;-0.88514066;-0.5712976;-0.98071283;1.3821934;-2.3926396;2.0371583;1.2584645;0.7678818;0.56578314;1.3126268;0.5048871;0.54147714;1.4697331;-0.1757148;0.89674175;0.14644207;-4.4308715;2.0550349;0.41541803;3.9407363;0.64540607;0.4503131;-2.284084;0.82022244;0.7667999;-0.4607365;1.6739169;-0.83387035;-0.98776895;-0.75316906;0.84250534;-0.33075735;-1.2070168;2.387692;0.025929132;-1.4369376;1.423635;-4.6023526;-2.128036;-0.10274975;0.42974594;0.20755804;-5.302734;-0.76825553;-0.36594445;1.4074252;-1.5190045;-0.71682507;2.6876173;-0.81433237;-0.17226739;2.5419846;-1.540569;0.47552004;-2.2620811;0.45022503;-2.4292135;0.93708825;0.42509001;0.8479131;3.8201995;2.566503;0.22318503;0.88409793;0.49436498;-1.1217366;-0.62365454;2.5571454;-0.25412142;-0.46592924;-0.21954182;-0.46591908;-0.27528462;-2.6289604;-1.4719247;1.1055647;-1.5112646;-0.6290426;0.3295288;1.441358;0.16120513;-2.0524805;-0.09759043;0.5029303;2.1257977;-1.827543;0.17437546;0.8536051;-0.008645603;-0.1482046;1.0507538;-1.676739;-2.4096065;-0.57924306;-1.9164642;0.86511314;-1.2636371;1.1284122;-1.1519401;-0.1108844;-0.1926728;0.31825477;1.191535;-0.24559417;0.28938207;0.0039832816;1.2877417;2.9631495;0.77798754;-4.5093274;-0.83970416;-0.47118172;-0.48014063;-0.30981082;0.9214139;-1.5442741;-0.38433957;-0.6305561;-1.3510014;1.3363374;-0.1309775;3.2563658;-1.5317727;-1.4482892;-0.20324674;1.3319339;0.08877246;-1.5827304;3.3541152;-0.2430125;0.088423386;2.1693377;0.67583394;1.3753737;0.6898769;0.17958386;0.9967375;1.2767378;-0.7227441;0.8302057;0.5339356;0.2195099;1.0298098;0.210724;2.2058215;-2.1686819;-0.085197404;-0.6253342;1.2905674;-1.4198695;-1.6472921;1.3063806;1.8814597;0.73835105;1.5195138;-0.52738506;0.7630975;-2.7051167;2.121874;-0.8639965;1.4839711;-4.107181;1.4585102;0.828074;-0.7099887;0.76268995;-0.57697874;-1.3008673;-1.632808;-0.5266215;-2.0139112;-1.8823394;-1.8071312;0.19855747;0.42904636;-0.49983925;0.52657294;-1.7478502;0.03524851;-0.6069773;-2.3595479;1.6181426;0.053054024;0.52429664;1.7705324;-0.35923582;-2.8897464;-0.059913233;-0.09152143;0.84975743;-3.7716281;-2.361426;-0.33576852;0.80484354;-3.2313762;-0.8569838;1.7725996;2.7942438;-3.3601003;1.0811524;-2.1860983;-1.0265752;1.4977261;2.6619015;-0.076138645;0.027425947;0.031014184;0.9006518;2.1427405;-1.5842646;-0.5674671;0.14241327;-0.1146267;1.2723835;-1.8626583;2.0733893;1.8303992;1.1784029;-1.5691237;0.15017988;0.71287286;0.5077708;2.7408402;0.5339883;2.0319092;-0.7211905;-2.5774524;0.47505352;0.33737442;-0.9924697;-1.0616164;-1.1831117;0.55205315;0.19189824;-0.28537422;-0.2627261;-0.3447411;-1.6791927;0.9163627;-0.6099711;-0.2321869;1.2060363;0.49423814;-2.8930583;1.1455482;1.401291;1.9311234;0.40367863;-0.06198263;-0.881365;-1.5354345;0.6473862;1.3599099;2.565715;-0.8948866;2.1810665;-0.7522967;-0.54698694;-2.3266876;-4.788189;0.49361652;2.766724;1.6704954;-0.43741626;0.1414539;0.5625936;1.159238;-2.6051948;-1.1015848;3.2009177;1.6707658;-1.1816254;1.6692325;0.59323734;0.69680077;2.8850179;-1.4162669;0.7913163;-2.9676733;-1.0448548;1.0613612;-0.8115316;0.81199217;-1.7686468;1.8497801;0.347836;2.118294;0.20915256;0.9055864;0.23503348;-0.15223445;-0.75533617;0.3745358;-2.1515083;0.549483;-1.2321125;0.45824504;1.6361797;-2.9101539;0.472606;-2.6535072;1.2944165;-5.110143;2.6257463;2.934869;1.1121653;-2.6084907;0.30457303;-2.386277;2.2404451;0.28659195;-0.31203762;0.8981552;3.7289848;0.89804715;-1.5540277;1.1420778;-2.5833285;0.054736402;2.1769412;-0.3053168;0.39417657;1.5017855;-2.81929;1.3259515;-1.7199805;-3.4406397;0.34200144;0.655125;-1.5190355;0.3493457;0.84202385;0.89730567;-0.10728745;-0.8887943;1.5423303;-1.5841813;-2.1020856;-0.20773026;0.16436945;2.0269353;-4.8079715;0.08428651;-6.7892776;-0.6522512;-0.3573401;-0.78780043;-1.3849058;-0.074583955;-2.5362723;0.7435146;2.4447088;-0.5238764;1.1869224;1.3114797;3.3366404;1.1764685;-1.4989645;1.2788146;3.5267105;-0.70896477;0.64171976;-1.0860975;1.5901068;-0.2951427;-2.153978;-0.5303483;0.02395472;1.9991398;-1.0272487;0.95978975;-1.6185943;-2.4261885;-1.3290387;-0.45231262;1.1143186;4.1738253;0.30688313;0.4933179;-2.686444;0.7648869;0.13482602;-0.5721921;0.9731241;-2.269775;-0.75848454;-4.527749;-0.5133268;-2.6054473;-2.5643175;-0.9113968;2.2455938;-0.97170484;-1.1992375;0.16327205;1.9795121;-0.20429912;1.6302426;-2.6374397;0.10210036;-0.31829688;-2.7326632;-0.1104076;2.4203484;-1.5277318;-0.09502897;-0.7427585;-3.56712;1.5968989;0.35424566;0.34736252;2.9687524;0.49923635;0.8186694;-1.0701995;-0.45999524;0.04463477;-0.17103525;1.567902;2.4272976;-3.2845306;0.39253446;3.9265451;1.9228606;0.77597463;-1.1707858;0.8922774;-2.0614884;-1.9506564;-1.873466;-0.8739723;-0.23032771
4.1769524;-0.7300801;-0.3350832;1.2005517;-2.5036678;-1.5389799;-0.716886;0.100054376;2.8843834;-0.0076722726;2.3956046;-1.1294382;-1.1327358;0.92069036;0.10456035;-0.1742936;-1.1331955;2.0381553;-1.330019;0.55998063;1.7488159;-3.107835;2.677563;-0.9288321;0.20873411;-0.1476509;-0.4202339;0.5852333;0.07310163;-1.28047;-0.19234712;-1.5202783;-0.34788;-3.8727806;-0.048590023;-1.1553018;1.8285575;-4.0008826;-1.286782;0.998464;-0.23009673;-0.48893604;-1.2663057;0.9116914;-2.965736;0.6677166;0.39486897;-1.7258027;-3.867375;-5.0402784;-2.9720929;0.6304966;1.756848;0.47023192;-4.3019276;0.78313214;-2.178336;-1.3138642;2.288445;-0.8767514;-2.6973872;-0.6804241;0.7907844;-3.801692;1.337587;1.3416448;-0.94871914;3.2463655;1.6116207;1.359314;-1.4576663;1.2500716;0.9085715;3.8312125;1.5102408;0.60593426;1.0041349;0.9360379;-0.08930369;2.2320704;-0.8824123;1.3795682;-0.5825339;1.3684559;-1.6232489;0.926416;1.8568685;-2.2216852;0.18811788;-0.8755924;-1.3062769;2.2186878;0.12734066;-0.6068098;-3.3413994;0.6211476;1.0242945;0.8783842;0.09405083;-0.28224346;-0.04110796;1.8546731;-1.5722853;1.029336;2.3993294;0.3348398;3.740738;-0.31126022;-0.971506;0.59857833;-3.2224174;0.34458005;0.16866745;-0.14120856;1.7029994;-0.30856183;1.0725484;0.79970807;3.1561515;-0.34381726;-0.26939;0.7872082;-0.73949873;-3.2834997;-0.91753906;0.5759159;1.548097;1.9462911;-0.18007119;-0.13744652;-0.7174064;-0.48575166;-1.7092063;1.6332664;1.7152661;-0.62025726;-3.4688745;0.031875093;3.0300398;-0.3692356;0.61676264;1.2914474;3.2109737;2.2083344;1.2262073;0.013494175;0.5325162;-1.9867011;-0.04860914;0.9726213;1.8310161;-0.9729989;0.9667157;-0.52477324;-2.9127817;-0.64271766;-0.10123292;1.4747195;1.4070174;0.24332178;-2.7191677;1.5088619;2.0563898;4.1244345;2.3157563;0.70997095;-1.5373297;-0.17241395;-2.77277;0.121840924;-0.9530612;0.58358747;-1.7154146;-2.7644486;1.6597495;0.02795025;-1.0226163;2.9638042;-0.71456754;-1.3103493;1.1538179;-1.7774223;1.0816754;1.4029216;-0.17014419;-0.56949425;-5.6860647;2.7054994;-1.5091814;-3.5795653;1.6648537;-2.4262435;1.3915018;0.6725871;0.2296158;-3.0116122;-0.26309553;1.0096501;0.69114333;1.601062;-3.2385993;0.31129813;0.826752;0.9774844;-0.3734919;3.1855202;-0.46957204;2.7499766;0.26021126;0.4078494;-0.30717212;0.5849348;-0.856773;2.0665956;0.22799747;0.71244437;-1.2678957;-1.077677;-0.13051325;0.66661406;-2.1113017;0.026982617;1.0809551;-0.03825312;-2.5594187;-2.1201398;-1.8629686;0.7859913;1.7239345;-1.3752031;-0.49102825;-0.41437888;-0.14400458;-0.5338673;-1.3493044;-0.16980673;-2.5204139;0.21423323;-0.06297963;1.2428182;-0.69941413;0.7785573;-1.5276438;0.53578883;0.5820392;-0.13366333;0.76567423;1.5478009;-2.3724067;-0.5427689;-0.34867758;0.85460407;1.4204503;-2.0527976;-3.8279324;-1.1035731;-0.5229271;-0.44235453;1.397573;-0.71780574;-0.18555817;-1.4814175;0.22807077;-0.23797652;0.012838192;0.9382377;2.733396;0.6138936;-2.585543;1.6986114;0.69752693;-1.0180306;0.6134975;2.2008345;2.8101907;3.8363817;1.0736493;0.48435396;0.6443942;-4.1934595;-2.4227793;1.1449336;1.6134046;1.3007944;0.37951693;0.7124856;-0.5810913;-0.8582996;1.4678892;-1.4753368;-2.332967;-0.7308291;0.47163424;-0.81459373;1.8866507;2.516956;1.5105783;-1.087641;2.7799165;0.41081318;2.9586837;0.44439462;-1.5160443;1.1537752;1.3763741;-1.3653711;0.4350515;1.3489037;-5.3243313;-0.28191572;-0.604717;1.2592407;-0.23600371;1.4743191;-0.4702913;-1.7018021;2.0683458;-0.098848194;-1.4382305;1.2154782;1.3835108;0.9619123;-0.8855191;2.5733683;4.0002227;5.105632;1.3801512;1.2350539;3.1969492;-0.65960777;-1.7037765;-0.64884406;2.5115447;-0.32237065;-6.651467;-0.4494483;-0.4558654;-0.12959251;-4.7257066;-1.1697134;1.6992335;-1.0136968;-0.35334852;0.5345725;2.6201353;-3.925703;0.33304927;-1.3766146;0.045371342;0.20256633;-0.8836426;1.6089166;0.48016852;-2.403777;-1.0631367;0.57615775;1.08211;2.7011566;-2.1355808;-0.87922645;1.3831558;0.8978018;-2.2492437;2.7378259;-1.3211095;0.107469715;-0.43182698;-2.0415945;1.9298878;-0.27900013;0.078132674;-1.0960823;1.7443306;0.985272;0.2831302;-2.7875488;-0.0056925006;-1.5671948;-0.52745914;-0.096116945;-1.9451734;1.1793299;1.2823104;1.1468902;0.56645805;-0.9192462;-1.9131651;-2.5722585;1.2792704;-3.6152732;2.2834277;0.51570195;-0.6218949;0.37572727;0.21112697;0.9706342;0.70814776;3.4421625;-0.17651813;-1.4916861;0.120230235;-1.113504;-2.256452;2.2605987;-1.885527;2.8446286;1.5156347;-1.7134348;1.3344386;1.3043294;0.12672445;-0.31459072;-1.0811121;1.2650372;1.6708406;-3.9063184;-1.6227485;-1.988227;-0.46964094;-0.7486594;0.30850044;-1.5659946;1.8489448;1.4701871;2.6256568;-2.9898226;-4.6621766;-1.0454593;0.8821167;0.626568;-0.7257313;0.39473495;0.71787286;3.1795793;-2.568489;1.0081103;0.81535614;-0.057985883;0.14346585;-0.5198586;0.2048731;-1.2835791;0.48194924;-2.2046177;-3.5260274;-0.62193036;-2.305986;1.8640101;0.8396673;1.0067004;-1.5501229;-1.0295521;-1.8867561;1.2628669;0.46599054;-0.5902884;-0.4307534;2.8526142;2.1871476;-0.20781006;0.7060746;0.54339296;-2.4528897;-1.8295815;0.29701114;-0.690544;-1.7768853;1.534152;2.0144584;-1.7326417;1.2617472;1.9741732;1.1953906;-0.7221164;1.5425509;-0.21106476;1.6792554;1.1006992;1.0373265;2.2406406;-2.3189044;-1.5894527;-1.3556737;1.0132302;-0.067839;-3.4262116;-0.79867834;-4.1042175;2.2986302;-0.36278507;-2.2370043;0.18413918;-1.5853884;-0.2127265;0.6946509;0.34711152;0.33038825;-2.5274255;1.0640693;-1.2470239;-0.5835566;-2.8624456;0.56386817;-1.6499169;-0.48877436;-1.0996807;0.79986024;1.150621;-3.350468;-0.10703931;0.052800454;-0.26698947;-0.66295034;-0.45871168;1.854579;0.34565154;2.4348166;-2.3867133;0.44113958;-1.0612497;1.2553257;-0.047853928;-0.8175329;-0.16037989;-0.6144941;-0.51724315;-0.10829428;3.746401;0.78372407;-0.63177586;-4.5404572;-0.8820007;-0.74619716;-0.8573388;1.2922544;0.5147239;-1.2709901;-0.9194499;-2.645893;-2.1499777;0.33044344;0.121530116;-2.742601;-0.47099793;-0.20064494;-1.8095728;0.34970528;1.9864647;-0.6107714;0.7515235;-1.0930676;0.82338345;0.08794807;-1.0625211;0.72134167;0.58067423;-1.6088533;3.1618383;-1.0054841;-1.2797295;0.56481904;-1.5038598;1.6635656;0.015913926;-2.6552951;0.32721567;3.861009;2.5179117;0.80416566;-2.6444101;-0.7172535;-0.74967563;-2.4653466;-3.2470849;0.39258936;-0.55099756
-1.2512412;-2.4191742;0.6279734;-1.8117082;0.12536204;1.0032741;2.967937;-1.9392095;0.774926;-1.7780368;0.82823765;0.3641338;0.53375745;-2.6834009;1.7696303;0.8065214;-2.952981;0.3171553;0.948431;0.51008874;2.1414323;-1.2107544;1.166224;0.18723105;-0.78038514;-0.37818608;-0.4447356;-0.43266642;0.32910448;1.8370246;0.21176733;0.6128286;0.32603928;-0.62122285;0.497686;-1.1424876;2.4453228;-3.9742923;0.13347459;0.8059071;-1.5250865;0.67980444;-0.7289286;-1.5709232;0.68494886;-0.676041;-2.4999454;0.8090437;-0.6681059;-2.502986;-1.2182047;-3.0364118;1.4927574;0.5118504;-1.0745739;-3.8788922;-2.4515722;-1.6078949;1.0721045;3.5465927;-2.0388064;1.1801348;1.0025368;-1.9171304;0.009764308;3.561337;-1.7936083;1.0336883;-0.25577414;-0.54840004;-0.111552484;-0.16218622;0.7692107;0.52020603;3.624701;-1.9128991;-0.67591757;1.2992932;-0.7799892;-0.60800874;-0.09138064;0.44477996;-1.1579258;0.896335;-0.5770434;0.5958509;-0.054224413;-5.1846113;0.12105471;1.2794362;0.57845473;0.5029009;-1.0379258;0.8301253;-2.2487655;0.835149;0.053758875;-1.340712;1.4360055;-0.6790405;1.4866495;1.4659668;-0.56527036;-0.2646796;0.5871567;-0.641477;1.8536615;-1.0035683;-2.5641847;-1.27933;-1.4137563;0.7525852;0.1608162;0.010634506;0.15578692;0.52358246;-0.9453628;0.4562626;0.6378486;-0.18144497;-1.7630038;-1.0804027;-0.018517954;-1.42404;0.6173053;0.5211144;0.8713455;-0.5510338;0.22098619;-0.98084086;-1.7115252;0.11829579;-0.6064874;1.859762;0.41706577;-1.4127108;-3.5817902;1.2111297;-0.23982622;-0.08906085;1.1866188;0.048526153;0.24353729;0.22795773;0.0072644074;0.0054933545;0.8227592;1.1305195;2.5695903;1.0159987;3.602354;-0.6700068;0.9232989;-0.9110586;0.716082;0.9995027;-0.54841626;0.20790334;0.35569936;0.70409596;-7.266974;0.9276598;1.3531767;2.0486164;0.39097273;0.4996574;-0.48920065;-0.5790198;-3.0207703;0.33012384;-0.7895783;-0.06053827;-1.0426141;-2.1516192;1.1457176;0.3255492;0.019069666;-0.17230715;-2.5890605;-2.0374584;0.7054186;-3.9401615;2.3888698;1.0175242;3.3726945;2.1265752;-2.2692096;2.4422357;-2.7305589;-2.1940722;0.9095298;-0.46995664;-0.3748724;0.05383812;0.67950046;-2.4102354;0.7341014;-0.2091182;-1.4073685;-0.23414779;-5.329337;0.9756865;0.16964109;0.24090838;0.87086344;4.1302347;-1.3132701;1.09422;1.5677547;0.49081802;-0.047320057;-1.5092554;0.14865087;0.8448116;2.1642158;0.20256072;-0.73762846;0.31951565;-3.4397213;-0.2864165;-3.024844;0.6806989;-0.5527557;1.5431688;-0.9141691;0.514453;-0.13631289;1.2391453;1.534636;1.6431919;-1.0264461;0.5482475;-0.58791685;-0.63231355;-0.3398203;-1.8659118;1.0721747;-0.5128332;0.22664912;-1.1275182;-0.5444372;-0.12787893;-0.6544515;0.21696141;-1.069859;-0.76413584;3.0801601;-0.2723024;-3.153131;0.54460543;-0.36226133;0.1417239;0.48963872;-1.3368988;1.0506127;-0.42869973;-1.287625;-1.1471813;-2.1828446;-1.36695;0.08965931;0.6165591;0.665614;1.3472189;0.33813283;0.6066108;1.9498636;-0.21598157;-0.24938314;3.1829662;0.5775367;0.35627985;0.2938749;1.4946638;-0.8725757;2.264288;-3.053187;0.67642087;2.9849896;-2.206915;1.2496961;1.5079097;-0.38109973;1.3942218;0.6128635;0.9588238;0.12619008;-1.163463;-0.20038155;-0.58853066;-0.016365457;-0.9063437;-0.94965005;1.3133112;0.9320043;-0.26709494;-0.28660434;1.5713739;1.9749207;-0.59571105;0.8175944;1.6757255;3.1112401;0.5264903;3.031875;-0.9509239;-2.0235505;-0.9527741;-1.8013412;0.43843675;-0.62377626;-2.7694619;0.5902489;0.6032456;-0.10652977;0.4976496;-0.84786916;0.62482893;-1.8995347;0.17167689;2.1240342;-2.6547441;-1.2667328;1.7390311;0.3995134;4.9962883;0.6237105;0.87909514;0.99135625;-1.1685344;-0.9118732;0.96700495;1.5460975;-2.4117277;-2.789245;0.37292022;-1.8649026;3.211436;-2.4055612;0.90494657;2.7004235;-0.6246904;0.21735838;1.0941759;-0.63211375;-1.3279054;0.32067302;-2.7728527;0.059820317;0.5346851;-0.16428018;0.68663794;-0.676117;-1.8037771;0.65869325;1.4353397;4.7565713;2.171104;-2.0420868;-0.8355712;1.7425094;1.1227912;-1.5834688;1.289744;0.32436833;-2.0445929;1.4090123;2.8788838;1.1705853;-1.5490532;-0.4077608;-0.02511977;-0.87403154;-0.3881717;-1.1364285;-0.986794;-0.5482713;-0.45344475;1.6908052;0.4052387;2.5310888;-1.2217329;0.91840184;0.664931;0.022479612;2.9328969;0.24560122;-0.79213494;-0.15499309;-0.53363335;2.215317;-1.5376389;-0.35313833;-1.2644486;-0.05411777;-1.1985474;1.0000635;2.4938147;0.29091907;-0.80160433;0.07815911;3.9484305;-0.14281034;-0.818854;0.4691711;3.1343913;-0.8575175;-1.264896;2.122256;4.160023;1.1864017;-0.13333935;0.88687533;3.884516;-0.4770223;-0.349887;0.16303763;-2.6250663;1.6938114;-0.48214504;0.43658215;0.6946765;-0.9933451;-0.45017126;-0.193466;-2.2894673;-1.1623689;-1.2598238;2.918273;-0.60072464;0.80895394;-0.8302074;0.9770735;1.3181235;-1.1930525;0.26927164;0.3225556;1.416036;0.48697954;0.34310266;0.05488941;1.7423792;0.10431291;0.3446936;-6.6022243;0.9893909;0.8863329;0.6979011;-1.3432535;1.1051863;-0.8349396;-0.18150395;-1.3722595;2.285059;-0.38570297;-1.4508405;1.3653214;0.45062017;-0.9975154;-0.5229055;0.70152885;-0.8542816;-2.6085625;2.2035697;-0.28482884;-1.9402546;-0.4292426;-0.0706978;-0.9811923;-1.5584958;-2.0067108;2.936994;0.5470337;0.22812301;-0.29045415;-0.16643341;1.2624756;-0.46539128;1.6786678;1.4857028;-0.44489408;-3.554634;1.0424298;0.21724348;-0.17885984;-1.8475217;-1.8518867;-3.69223;1.6271957;-0.0122935595;-2.3638082;-2.7703564;0.091045715;-0.3068954;-0.8889879;-2.822932;-3.091993;-1.145743;2.0452678;-1.5578612;0.8528798;1.4131231;0.48738217;-2.0606523;0.95002466;0.777958;0.29558054;2.1574845;-3.2947757;-0.08915747;-2.952431;0.3652889;0.49011728;-1.3227881;1.6254637;-0.44885507;-0.2968797;-0.5615755;-3.6164994;0.19918348;-1.2704557;0.16533148;0.49841747;-3.3289702;-1.8047304;0.5172245;-1.8910347;0.06263787;1.5626099;-0.31524804;-1.0186783;2.2772248;0.3872548;-3.2028039;1.1067048;-2.6686714;0.26930523;-2.6111805;-2.4914353;0.2507558;-0.116511665;-1.3137826;-1.0382818;-1.3342681;-0.6512008;-1.7686194;1.4080564;0.7982324;-0.5854331;-0.007958203;-1.1154242;0.49629837;0.41598588;-3.715045;2.5808117;-0.7639386;-0.24451666;-1.0377496;1.6129271;2.3060374;0.25592664;-0.6545436;1.1484218;1.3139131;0.30940107;-0.7796337;2.109274;-2.5338392;1.7231487;1.7421153;-1.7252713;0.77619106;-0.80198246;-2.6842353;0.33038664;0.19850764
0.961259;0.8814739;0.029529857;-0.8057299;-3.3035417;2.8009858;1.6043941;-0.6088035;2.7934294;-1.3728917;1.5946267;0.74842614;3.917126;2.0474305;-0.07994236;-2.4297614;1.8958035;1.5627904;0.413741;-0.2577155;1.9214811;-4.0471334;4.4877667;0.6679221;1.2006718;-0.25985312;-0.3249817;-1.0631357;-1.624225;0.23599593;-1.9828421;-1.0275366;-0.5641875;-1.1692264;0.523769;-1.8786888;1.639936;-3.7472584;-0.14436515;1.4771966;1.356704;0.38597915;-0.99750525;-1.2494394;2.3364568;1.5411192;0.90027696;0.28916857;-0.44063637;1.4906158;1.1350248;-1.9650975;1.0282489;0.6266801;-2.1477945;0.5304602;-1.2768254;-2.3979623;0.7745966;3.213683;-1.8068134;0.71224797;1.7464967;0.31564718;0.47517338;0.95779645;-0.1525832;4.3419566;-0.53823227;4.640191;-1.2669096;0.49082682;-1.5303477;2.290051;-0.82060134;2.2154932;0.3186945;-0.8839874;-1.266206;1.469308;-1.5207477;-2.2665975;1.366681;-1.2529196;-0.9445612;0.10693978;0.81381065;-4.820634;-0.03322564;-0.50572693;2.616809;2.083422;-0.36033297;-0.68955976;-3.8614957;-1.5807993;3.510603;0.2499942;0.5287149;-0.1528974;1.8018087;0.9431583;0.73243594;-1.0603378;-1.9786894;1.3484852;1.6770358;-1.488019;2.8395107;2.5567718;-3.6128993;1.7341338;-0.6148402;-1.1792486;-0.6255466;-1.311474;1.098245;-1.4835995;0.89702165;-0.32893237;-3.3901832;1.0668012;-1.5766537;0.41238108;2.4272544;-0.6371239;-2.4345152;-0.76499945;-1.0644524;-1.1866322;-0.80473715;-0.74304086;-1.3524717;-0.36551636;0.6913707;-1.9316895;-2.0363243;0.5531071;-0.0049596773;-1.0681516;2.187707;-1.1860403;-0.20431052;-0.4879025;-0.47536632;-3.6661758;-0.6015265;-2.5581882;0.352941;-2.4108741;-1.0195202;-2.0424693;0.94344777;2.6877127;-1.5997558;-1.0532933;-2.3370512;-1.129025;3.2529511;-0.7956385;1.4529078;2.1159046;0.23990503;1.0003146;-3.5994604;1.7173992;0.68331254;-0.3838088;-1.6892927;-0.006095385;1.0720372;-2.0196028;-1.0395607;-0.4192312;1.8543422;1.0317323;0.2895564;1.1726129;0.0034155203;1.434775;1.1057534;1.7925428;2.070398;0.87298644;-0.7755833;-0.73335814;0.5143798;1.1215739;-2.5166497;0.8441889;1.5954221;-2.3362436;-0.28108707;0.82076186;0.8499366;-0.614334;-3.1975617;-6.9279747;-2.0354736;2.5668983;-1.515172;1.5786474;0.9203388;-1.2879045;-1.3472215;5.5316978;-2.2066133;-1.3811419;-1.3606704;0.20124477;0.22832938;2.6336367;0.4117914;-2.368567;1.2763201;3.0764277;-2.1488733;-0.4766607;1.6918501;2.0231729;-0.1150523;0.48036098;1.655153;-1.8974516;0.11631065;-0.65128493;-1.0160786;-0.3893499;2.3896594;-1.3204103;1.3484244;1.2024776;1.1232744;-0.15338698;-1.1224833;1.406493;0.44556186;2.531631;0.37209758;-1.0150973;-0.46887383;-0.55062413;-2.6481504;0.2339865;0.46776307;-0.2527981;0.9648266;-1.0359203;-3.0156078;0.98819095;0.55832607;0.42699897;-0.20519039;-0.7318295;1.3713598;2.0783253;-0.5474017;-1.1500609;0.072232686;-2.4267488;-0.9812371;-1.3708438;1.7173325;-0.38671958;0.15337756;0.42753077;3.4949164;-0.921986;3.0796633;0.4537075;-0.6662297;1.4435327;-1.7976552;-2.4833126;-1.3593025;2.673796;0.3960432;-0.5655564;0.7887674;-3.1829634;0.20392412;0.10190743;-0.6578293;1.0570558;1.7209628;-0.10705982;-1.9841716;-1.6102229;1.3559986;1.0160851;0.5356876;-0.81851363;1.2417595;0.15536621;3.4242773;-0.75953346;-0.18801041;1.8296151;2.0425494;2.6228492;0.31535202;-2.1172166;0.49361503;-0.54841805;3.0304472;3.362085;4.077365;-0.05166066;-0.029549988;-0.23783311;-1.0565557;-0.7777727;0.6494575;-0.2445631;-3.887557;1.4785658;-2.3488224;-0.6198429;-0.5197282;-2.0188873;1.0491493;1.8239925;1.1160786;-0.89549845;4.362712;1.8167543;0.41416788;4.967666;1.5102566;0.68978584;0.5551832;3.71659;1.1588634;-2.9676178;-0.41550574;0.18773994;0.7239928;-0.58640355;-5.3711867;-1.7995285;2.1915655;-1.8632903;1.2371248;-5.1020923;1.6251824;-2.6436493;0.29760784;1.0009804;0.07892073;0.7595812;-0.74290866;1.6772487;-0.5846588;-0.13067567;2.8530989;2.3286636;1.9232628;2.7903872;0.54203355;1.3413665;1.0131179;-0.12884982;-1.785315;-0.7534896;-0.24095614;-1.6880443;-1.5685809;-1.511629;-1.2073615;2.9814343;-1.0594087;0.1993257;0.544522;-0.86431295;-1.2309655;1.1840397;2.4509218;-0.44579336;0.6458093;-0.28451097;0.31240848;0.51881367;0.33397755;-0.07160605;2.035969;-0.7233242;-3.2348568;-2.4133904;1.1200478;-2.720114;0.84459704;-1.7836281;-0.7205644;-1.6205647;-0.5863712;-0.1912651;-3.0394046;3.6542068;-0.44554847;0.7498688;4.29215;2.2416103;0.025924461;-0.68022096;0.44901434;2.0064213;-0.69152313;-2.0379522;-0.583293;2.3938558;1.8904704;1.0382893;0.43335056;-1.294956;-1.1089722;0.95772135;0.32183644;-1.9036046;0.045621704;-1.077334;1.3850638;0.6052878;0.582916;0.63300276;-2.1925828;1.105834;-1.0541776;-3.3443747;0.28356096;-0.35771513;-1.7339745;-0.03485895;2.3793573;1.7765393;-0.9453705;-0.1238098;0.9291535;1.8344787;0.73874176;0.72129834;0.17439419;2.0899882;-0.82490444;-1.0747191;-10.199592;-1.8638947;-1.0637894;0.11659224;-1.584961;1.3984098;0.033933282;0.65948534;-3.5083795;0.024304226;2.1340804;-1.0642619;0.49177662;-1.4006914;0.70919645;1.6241338;1.8582755;1.1652215;-1.840111;1.3668163;-0.820747;0.05594319;-1.0361568;3.196419;-1.2153949;-1.9412571;1.0658464;0.8201883;3.3706267;0.17554115;-1.1765366;-0.9101864;2.6677325;0.73604023;0.07366664;-0.31071332;1.2629755;-4.9546285;2.3634064;0.6671771;-1.254447;-2.8515255;0.7325661;-1.4965277;2.9612575;0.8411729;-1.5442765;0.6454386;2.0769362;-0.669019;-0.20300283;0.03353669;-0.17055014;-1.4493039;1.837965;2.1028025;-1.6619949;1.0145975;-1.0279837;-1.8009901;-0.126746;-2.9863472;1.3912147;3.954548;-0.12722768;2.6872532;-2.8472867;-0.8616741;-2.032626;-1.7974689;0.72826815;0.43606612;0.6905385;1.8259958;-0.31033152;1.1085405;1.7504616;-0.528191;3.2392874;-1.2041303;-3.0896058;0.04622078;-0.4242173;0.37896836;-0.34017006;-0.25682053;-2.7697034;-2.2011392;1.086748;-1.4681013;1.4110589;-2.602653;0.50156707;-3.2100365;-1.1139914;1.9446615;0.7279269;1.3332072;2.471478;1.0754749;0.65317005;-0.011587201;-0.4355617;2.2915971;-0.95925343;2.5091455;0.189034;-3.5672348;2.5501077;-0.34272107;2.0218527;-1.0870843;-0.43511775;-0.27135938;3.480704;2.1065538;-0.039042696;0.8593659;-0.68189454;-1.3027658;2.15566;-0.8044174;1.7347633;-1.5365229;2.550075;3.5303168;1.3712643;2.700098;-0.9189477;-4.2984285;0.74379385;-0.32825422
3.4481761;-2.3263612;2.89662;-4.3919845;-3.000429;-0.5846824;0.30615914;0.09070267;-2.298776;-0.21346352;2.3667288;1.4563572;2.7726521;0.8584912;-0.25677913;1.3868207;2.4421973;0.11001745;0.0030431696;-0.7646636;1.6645334;-2.1691256;-0.28255707;1.5298316;2.113071;0.7192048;2.6946084;0.8017916;1.2451732;1.5029268;-0.16799244;0.5787152;-0.38509083;2.3244264;-1.369539;-0.8244394;3.6159616;-1.9122094;0.6725761;-0.52845776;0.3787267;-0.18260056;-1.0357991;-0.8361774;1.0048264;-0.9780757;0.2261224;-0.37584308;-0.3037818;-0.39449084;-3.140507;-2.850945;0.03816339;-0.6029435;-0.047856294;1.7396463;-1.1643368;-1.5132442;-0.9593521;-0.6093882;-1.3393397;2.7306283;-0.8614141;-0.4979599;-0.581495;0.57035655;-0.31393468;-1.68686;0.37463823;2.9419465;1.1895623;-1.0050402;0.87630844;1.9921855;-1.5612684;0.08642789;-1.3856612;1.2993022;2.0803082;1.7549751;-2.798988;-0.5718856;-0.9387679;-0.4656099;-1.3454452;0.51542205;-3.0237417;-2.2508836;-0.9268056;-0.42350367;1.6408833;0.630106;-2.988707;0.7103173;-3.3179038;3.2956736;-0.5263769;0.8387423;-1.9834783;0.4861686;0.9163034;0.19725461;-2.1204271;0.021933649;2.7368934;-0.28894886;1.4311051;0.03720813;1.6238651;-1.2781929;-1.4923867;2.0095649;0.023021372;-1.1058971;-2.2516582;-0.45399496;-2.5468419;-1.5317006;-3.7273877;-3.5677884;-0.38948935;1.1166847;0.012559727;-2.576785;-1.696835;-0.63812363;0.008488606;-0.7810661;0.5090964;0.15396279;-0.7697478;-1.18944;-0.53771484;4.0305767;-1.8738697;-1.5080062;-1.482462;-1.7352468;0.7454612;0.7973855;1.0231498;-2.4951744;2.1194537;1.6740998;-1.316263;1.4894427;1.0013906;0.18155022;1.5523808;-2.6832557;-2.1128256;-0.56562215;-3.0134149;-0.567274;-0.9197681;-0.49979708;0.7796586;-0.33571368;0.014848554;-1.1710109;-1.0490832;1.0253844;-1.5358626;0.9239485;-1.0658624;-1.1345187;-0.74441195;-0.78946316;-3.3762681;0.25459978;1.2433761;0.81900567;0.8479642;-2.8659194;0.39819658;-0.16461004;1.2334211;0.1318037;-1.4300282;1.5805755;1.1772629;-0.74079776;2.173114;0.99017227;-1.9510604;-0.96397483;1.1584755;3.2262316;1.7755216;0.9701218;-1.2142807;-1.7078776;1.1437562;-0.39922613;0.6459964;0.5161704;1.1256951;2.66544;2.6824281;0.862006;0.80874604;-0.29899362;0.7465612;0.17357017;-0.42006975;-0.26977125;0.09700918;1.4874885;0.7886588;-2.2748454;0.16184393;1.3048979;0.22710986;-1.8828634;1.7775027;0.24135381;-0.76514935;0.85554665;0.77138287;-1.2778541;1.3326014;-1.513291;0.61476684;-0.0062975744;-1.5351318;0.08260786;0.5989409;3.8471804;-0.45803446;0.18337114;-1.7838811;0.5327208;-0.30565897;-1.3199362;0.27581328;-2.4652843;1.3437947;0.3341498;1.140959;-1.5752951;0.5682499;2.0889776;1.9970798;0.53209275;-0.3104236;-2.0117774;3.558291;1.5587276;1.7924232;0.6038976;1.2955784;-0.02461272;2.2794793;-1.7909175;-2.175334;-3.4453375;0.18455228;-0.08503011;0.71779025;1.1566441;1.6623065;-1.4505717;0.14013855;-0.29077926;0.19843917;0.79462;0.4400727;0.35964492;1.1700639;-0.60637116;0.51833326;2.586478;1.3373189;0.9465255;0.04188652;-0.6100708;-2.8263888;-2.5239582;1.7448021;-0.84453547;0.8203486;0.8820782;-0.8260435;-0.7608229;0.13757186;-0.9075458;-0.17485769;1.6370131;0.29715672;0.3119825;-2.8290408;0.5249088;-0.032669075;-0.08655634;-0.3180901;1.5296214;0.23560765;1.0446057;1.4110054;0.88280356;1.3931698;2.126606;0.025845585;-0.6193497;0.9107185;-2.025212;-3.3707817;-0.92426825;-5.111256;1.3210341;-2.3515108;-2.2071197;-0.5883849;1.5250928;1.8114079;0.44404355;0.89210856;-0.12578516;1.7288165;0.6398454;-0.8747241;-2.539387;2.2449126;-0.7916096;0.24123058;-1.2715274;-0.51801753;-0.9872169;-0.60542583;-1.0274855;-0.18894929;-1.1072756;-2.2387009;-2.766897;-2.6025846;2.4275804;-0.016243277;-1.8474479;-4.093585;0.5366079;0.117421135;0.6227539;0.18260923;-3.549284;1.8089498;-3.5710025;-0.18810068;1.2172937;0.027285626;0.6218596;-0.18634608;-0.70034117;-1.5782372;-2.0506282;-0.6616141;1.0299022;0.0075974823;-0.5129651;0.2206589;1.0394034;1.7314372;0.7421118;-2.096807;1.3468952;0.7629135;1.0968643;0.35362926;-0.26670435;0.83588046;-1.9035265;1.1713841;0.7036122;0.62641436;0.55901414;-2.129211;-0.9795648;-1.539524;0.11667447;-1.9373878;0.39346027;-0.84551466;-1.7069062;-1.814878;0.5047433;-0.7237273;2.1356103;-0.77284086;4.1108003;1.5810915;0.7075908;-2.3154118;-1.2272294;-0.23273523;-0.6101529;0.33977067;0.56302315;2.1172898;0.30608636;-0.7369421;-0.17796133;1.7936995;-1.8350981;1.7688198;3.3495257;-0.71859646;-0.6449152;-0.38233402;-2.044786;2.7231925;2.1305513;1.7814217;0.36457294;1.8762919;0.4047259;-0.17300206;-1.1605805;1.7147839;2.7163785;1.1155392;-0.12825046;-1.2711363;0.78319895;1.3060806;1.084901;-0.9431259;-0.45672017;1.3543932;-0.29018694;-0.29812717;-1.5878667;-0.27051085;0.10629598;-2.7918317;-0.25674024;-1.4555506;0.54812306;0.2275894;0.12342342;0.14500627;-0.21945725;0.38284162;-0.31622052;-0.51331073;-1.4538735;-8.036252;-0.55801463;0.5973742;-2.480761;-0.11274104;-0.46821773;0.67807627;-0.38716516;-3.0753686;1.2591887;0.9726143;-4.5568185;1.9149352;-1.2258648;0.53096426;-1.3602934;0.020345695;-3.8770313;1.9246469;0.8597656;0.3893593;0.25418967;-1.5150656;2.7668738;-1.3581976;0.8181946;2.8172548;-1.8393817;-1.3310905;0.54110277;-1.7567384;2.4759936;-0.012162045;0.20072082;-0.36404243;-0.85849726;-1.3191028;0.14326604;0.6936243;1.5676697;2.1223428;0.6873196;1.1285902;-3.0589216;1.6886183;-0.9165481;-0.7795358;-0.7661201;0.20736738;0.15635279;-0.051150415;-0.25951317;-1.2638298;-4.1229897;-1.1958959;-2.93438;-1.2032235;-0.19382934;-1.780446;-0.12589923;-1.280846;3.385182;2.834366;0.05895453;2.003048;-2.7562797;-0.82726;-2.326472;0.15620415;-1.4555155;-0.8453911;-2.767055;0.14756928;1.8640158;0.6321267;1.6965886;1.3897303;-1.3118966;3.0326262;-3.158928;2.7258785;-1.8409766;0.20757222;-1.1086067;2.3048985;-0.4411969;-2.2635925;-4.206516;2.348486;-1.5544467;0.43386284;2.6100123;0.42791706;-2.718613;1.4696759;1.5902753;-3.0556693;-3.8462057;0.4988062;3.3771791;1.6220548;-1.143899;-3.812314;0.4655939;-2.9830182;3.4950812;-0.42872262;1.222497;-0.1862369;-4.5908656;-0.18532348;-0.55508316;0.2647965;-2.6537912;-2.507977;1.5818479;-0.7640101;2.3376334;-2.150179;0.5701606;-0.4299133;-0.45181563;2.172827;1.3981562;0.13234194;0.84012717;-1.8064493;-1.844523;0.23835336;-1.9595504;-0.18049191;-0.52246475
0.65329194;-0.9937714;2.7544656;-1.0534378;3.157614;0.27284005;-1.7171713;-0.35883287;-3.635953;0.2980464;1.0803473;1.4013401;-0.41219023;-1.189296;-0.37427917;-1.2207758;-1.3313366;0.41880342;0.3491077;-1.302556;-0.26580465;-0.13133968;1.0829809;1.7072283;1.328629;-1.1169112;-1.6367348;0.39059108;0.92521024;-0.92902106;-0.074690044;-2.2034848;-2.0117862;-0.7875521;0.27081513;1.0847018;-2.34313;-0.15278225;0.15368322;0.5046743;2.5303211;-0.15906365;-2.2703729;-2.476405;-2.395776;-0.2759645;-2.0511007;1.6062587;-2.339912;0.51477784;-0.05075064;-1.5715606;-1.1968534;0.04715787;-0.98128235;-0.03153256;1.9397882;-0.6236357;1.0527061;1.3496642;0.09551694;1.0143262;-0.4282237;1.3464549;-1.4690324;-0.005466209;0.6363072;0.07848838;-1.1370656;0.923197;-0.93376964;-2.4256225;0.024425453;2.4724295;0.24653111;2.1173503;0.22206509;-0.47056267;-2.375331;1.5110376;-1.2065519;-0.8318303;-3.5093622;3.0937562;-0.56498724;-0.09691415;2.2517486;-1.5662844;-1.2062249;-0.22189951;2.1413653;1.8458834;-1.4570141;-0.6359909;-3.0967937;1.3025788;1.0801625;0.48601532;4.9036384;-1.312149;0.014510105;0.053307373;-0.032570258;0.001570777;-0.58094543;1.1988219;0.41014656;1.1513064;1.87489;-2.2658365;-4.389368;2.3218157;-0.50129217;-1.412665;0.022984238;-2.1345534;0.14276022;-3.2078717;-1.0681877;-2.4086244;-2.7230806;-0.8590322;2.0110204;-1.8161755;-2.1114728;-1.4118;-0.6783706;0.7878799;-1.0549821;-0.16964495;0.8836168;1.7420679;-1.2164075;-1.4439125;-2.5280733;1.550696;1.5399722;-1.7394385;0.41341057;-0.3048232;3.5862322;0.45270422;0.38956022;-0.33695433;-2.6393702;0.64956397;-0.34985685;-1.0120157;-3.3743703;1.9794937;1.7995795;-0.7310543;-1.4227477;0.99738145;-1.564911;-1.5621806;0.65608466;-2.2309144;-0.51738936;3.1893218;-1.1093948;1.106467;-0.926151;1.0012357;-1.5843024;1.598859;-1.5006549;0.0221839;-1.7642893;-0.70659894;2.120282;0.13819478;2.2149227;-0.74911475;-1.4995651;-1.375467;-0.29390144;-1.4997467;-1.1593816;-2.7648294;0.27539155;1.6127888;-0.7195499;0.49650234;-0.2027991;-0.51672745;-1.3389312;2.305824;-1.0031265;-0.010034342;1.6832818;-2.7416525;1.2477052;-0.6859573;0.8003446;-0.45595014;-3.4038138;2.3467655;2.3063242;-1.657006;1.0993475;-0.6675851;-0.9778126;0.43978092;0.29132336;-3.232035;-2.1739721;0.73399264;2.645644;-0.4026815;-0.63188523;2.001067;0.06271711;2.580595;1.9168876;-0.8624629;-0.33292052;-1.8760383;-0.9279093;1.4972239;-1.7977005;-2.557682;0.22641827;-2.015479;-0.25715998;-1.6811005;-0.25686514;-2.1412835;-2.0202558;-0.32258973;-3.5697844;2.780191;-0.7442468;-0.563679;0.95941836;-1.7686225;-0.14354318;0.63558424;1.1095387;-0.1950258;0.10611906;-1.1589321;2.1686263;0.19384247;-0.41168272;-1.483949;-1.0806224;1.4863291;0.8184231;-1.6187625;1.9884754;0.114222854;1.9285823;1.480157;1.3528901;1.0740619;-0.39226398;-1.6861492;-1.756268;0.8555936;-0.09414585;-3.2032676;1.2686516;-1.2916075;-0.6481384;1.5755353;0.58051085;0.41454855;1.9000214;-1.0307264;-0.14428818;1.55939;-2.6262991;0.4463039;-3.9510276;1.9705511;1.4479688;0.90312296;-0.3980663;-1.28288;-1.1191385;0.11355708;0.47057626;-1.86407;-0.45813873;-2.5080485;-1.2090385;-0.20238057;-0.37958434;0.7185172;1.4738935;-0.22857465;0.14966731;0.23169118;2.3548808;0.3289802;-0.04540386;-1.4068147;0.6862529;0.071077555;1.7307717;1.8780212;2.3260899;-0.60815823;-0.099274985;1.6797397;-3.824666;0.5840191;-2.8400695;1.0164272;-1.326885;0.85039693;-0.7787917;-0.43991107;2.161974;-0.11058504;2.3410754;-1.428808;0.8155901;-0.5348544;0.17008148;-0.24549532;1.2073011;0.90714496;1.5858321;-2.301856;-0.091578916;-0.3553553;0.481677;0.3545129;-2.412849;-0.036395583;-1.7329708;0.905973;1.2129439;0.66348296;0.9928662;-0.0030618394;-1.5263475;0.73652744;1.8405969;-1.9896274;-2.476075;0.23324847;1.7080951;-2.3809586;-0.48884922;-1.6313398;-0.17564519;-0.55305517;-0.4239313;-1.8555954;0.9907068;-1.5743674;-1.283262;2.0092309;-3.0748065;1.0174958;2.8121605;-2.3045685;-0.18921666;0.6104272;-1.7456342;-0.13074492;0.382319;-1.0470449;-0.42146388;2.102167;3.2339606;0.33347747;1.8924334;-0.8452408;-1.6371496;0.025890097;-1.4810596;-2.5986354;0.18293612;0.19019836;0.17862833;1.4805404;1.3546249;-2.5178525;0.34690595;2.91343;0.75502324;-1.3483464;0.4547673;3.0106077;1.9334494;0.13210484;-2.805443;-0.4630314;-0.6979085;-1.5667834;1.4631621;1.4745886;3.6132638;-2.1763206;-1.2299926;1.28518;1.5196065;0.36172575;0.16148508;-0.293213;0.7476079;-1.8716358;1.5082501;-0.36365595;-0.08582744;2.7725444;1.553399;-1.3410013;2.6911554;-1.8825245;0.9103084;-2.285213;-0.08673044;1.1908706;0.30419278;0.0030631418;-0.067630626;-0.6445195;3.0676343;0.7755495;-0.67306066;-0.852922;-1.4540997;1.0575349;0.71557426;-0.36857828;0.7208064;-0.3882924;0.48173285;1.1083837;0.64631253;0.83638823;-1.0105436;1.3319117;1.2346454;1.1134923;0.08532772;1.2259583;-0.037582032;-0.91189265;-6.228828;-1.2208183;1.6524938;1.101631;-1.6853662;-0.9972203;0.7052002;1.5422958;-1.0528661;-0.52769744;-0.2824051;-0.64974064;-1.624825;-0.5551076;-0.4658671;-0.12474049;1.7633023;-5.4799037;-0.40882757;2.505471;-0.092428535;-1.5214804;0.8249408;1.6121682;-2.0101175;0.9163018;-2.0080795;-0.6182642;-0.77593696;1.0509373;1.3896003;1.942195;-2.2954679;3.129827;1.0929793;0.6340302;-0.73206675;-2.9263043;0.49077857;0.77979505;-2.6636665;0.56271785;1.792555;-6.6532154;1.5464627;-0.8266286;-0.6722602;-1.1431447;0.34368914;-0.40126008;0.75771356;-0.28954786;-0.33386192;-1.4702138;0.80633307;0.85161227;0.76020294;1.234836;-0.3864611;1.110405;-1.0601504;-0.99122256;1.913344;-1.6460154;0.16162252;-0.47322005;-0.21277213;-3.307097;2.216998;-1.117646;0.8191125;-4.2027807;1.2092899;1.6960516;-1.2806019;-1.4437662;1.4081131;-1.7093452;-0.5662044;-1.0712687;1.2246519;-1.1920421;1.0991973;2.735076;0.60318494;-0.14538647;2.7157822;-1.0193199;1.1356422;1.9338253;-1.6395824;2.1670017;0.81633633;-4.0923557;-0.22150639;-0.81109786;-1.384537;1.3258414;0.50050956;0.8014012;0.30852237;-3.379432;-0.44940892;2.1679993;-0.6791883;1.847936;-0.61958444;0.7210287;0.4783329;-1.2990255;1.1560619;-0.18827647;0.527929;-1.0246038;-1.806813;0.7703425;0.9895503;2.0787923;-2.3632672;-0.12561397;3.082201;-1.7682719;-0.85910845;0.43766403;0.6427825;1.3924053;1.6590275;-0.44254294;1.4580666;-0.6676406;1.1128923;-0.45915434
-0.43325323;1.8540881;1.3025401;3.0159163;0.85986125;-5.453102;1.002023;0.45882896;1.9093585;-0.8354406;1.9545844;-2.319599;-1.2281715;1.2184169;0.4818731;0.9486902;-1.7879831;0.2145162;2.5768905;-0.46152967;0.027974546;2.0341253;4.6324944;0.9403849;1.6020055;-1.4213547;1.0834687;0.6955492;0.33362153;1.7381421;0.99184614;-0.0593139;-1.1802155;-3.6551528;-0.14554255;-0.05386029;-0.040591337;-0.38203123;-1.7471493;0.14506674;0.40617523;1.964968;-1.4700742;-2.7545078;1.3267572;1.8816905;-1.1097993;3.266645;-7.0468507;1.2460331;0.3607147;-3.8154778;-1.927685;-0.13345417;0.37554878;0.9021454;3.4826882;1.8436211;-0.2107966;-3.568975;-1.4639802;2.5238173;0.38747007;-2.0247529;0.2665386;1.8615474;1.1233429;-0.61952376;1.1496793;-2.5138507;3.325619;-0.4193177;-0.7726878;-4.001478;0.23871025;2.237088;-0.21167298;-0.6287998;3.819582;-0.8946396;0.25047418;2.0784059;0.10192706;0.11875595;-0.65501064;0.7091133;-2.4411209;-2.862501;-2.2175224;-1.9733143;0.9270932;2.571751;-2.6451533;0.40714806;-0.8062039;1.4466062;-0.22276945;3.8934052;1.9718984;-1.6371806;0.58684707;1.3355739;-0.109169364;-1.1125778;-1.6767709;2.4609644;-1.0740724;1.8930988;0.24310835;-0.05963983;-6.8904476;1.6624781;-0.4894218;-0.75392383;-0.22416878;-3.3066294;1.4594505;0.7713006;-1.325137;-4.1972013;2.1029472;1.6018568;-0.5670024;-0.45495835;-1.6710992;-0.6615039;-2.8786237;0.8661089;-0.9504599;-0.59226793;0.3866995;-1.0228488;1.853575;0.527912;0.5710664;3.3275182;-1.1930523;-1.2142016;-0.5162396;-0.8802686;0.7862448;-2.3272195;-0.23596077;0.72297794;1.3272026;-0.9385772;1.3983371;0.31100172;-0.25708374;0.36420354;0.88358885;0.064002894;-1.6358799;0.6254593;-2.2535305;-0.39332575;2.496998;-2.3405952;0.0351992;0.9467438;1.9816984;1.2364868;-1.6817883;0.48910105;-2.123328;-0.23836407;-0.7983163;0.86348206;0.23946331;-0.50631166;0.8592543;1.1064932;2.91983;-1.5079821;0.80736804;1.5283885;1.9589983;-1.1487697;-1.1555717;1.0377398;-0.63784975;-1.0903113;-0.789443;0.7242709;1.3875755;-0.47988144;2.3883228;1.9652586;0.6660751;2.0679712;2.6065943;-2.045793;-1.6631389;-1.4259956;1.3247395;3.7484665;-1.2011793;-0.9375582;-0.3645741;0.49030513;1.1816177;-2.7671475;0.32119447;1.1042595;-0.9303274;-1.3773159;-0.002223139;0.52536964;-0.79120576;-3.3820987;-2.7191224;0.18771555;-1.1595867;1.4492238;1.5577718;-0.19428425;1.0067422;-3.833746;-1.2328941;0.024569858;-0.11577844;-0.58036107;2.945824;-0.59066033;0.90966564;-3.0179977;0.11629436;-0.24961218;-0.38452688;-2.4277692;-0.31609604;0.4537954;1.838011;-0.18698254;-0.3033816;-2.9604833;2.962961;-0.03157745;-0.31012642;-0.57596195;0.66657436;1.9294412;0.86038744;-1.9645199;0.76251894;-1.9119596;2.961543;-0.48703676;-0.59865093;-1.8737985;-0.509266;0.493163;-0.40366387;-0.57752734;-1.0944861;2.4596045;0.08987727;-4.6023035;-1.6647459;-1.1664243;-0.5122951;-3.3184958;0.42003813;-0.4906243;-0.08548135;-1.6758877;0.07501728;0.19334918;0.57074106;-2.1712952;0.22319432;0.6834158;2.6309237;-1.1760594;-0.8933785;-0.13150439;2.6775286;0.92914206;1.0133641;-2.3353806;0.7009539;0.48632586;0.48930895;-0.21054175;-0.6357061;-0.5551299;-1.647441;0.31237638;-1.3133521;-2.0228524;-0.123625524;-3.1269913;0.27954462;-0.681394;1.6370866;1.4502159;0.20806216;1.6255457;2.6282659;-1.9037486;1.3326899;-1.5450147;0.054452498;-1.6969522;3.4589977;-2.5561388;1.4514881;0.6715652;-3.8540835;-1.0407223;2.2576196;2.912316;-1.9086703;0.5676312;-0.7777883;0.13575423;1.4323863;0.42926988;1.6094898;-1.9637297;-2.0433018;0.16839832;0.29818285;0.5743488;0.5765767;0.18040918;1.2018064;1.5177077;2.3890429;1.8213629;-3.6702461;-0.12701407;-0.13563776;-1.6093843;-0.8754509;1.51417;0.004096341;-0.5286065;0.0651756;-2.2612567;-0.44658005;0.47401643;-3.1375542;0.8470011;0.9735062;-2.0064857;-1.5174301;2.6944165;-0.10501393;-0.45680395;-0.03611005;-0.663802;-1.9645798;0.19795117;-2.1671195;0.49302322;-2.682987;0.19748332;1.7811557;-1.0952518;1.714152;-1.2831125;-1.4441398;1.0138681;0.2639394;1.5411772;1.526484;0.7055567;3.8672826;-2.5558476;1.9970107;0.123221025;0.52437633;-1.3564394;0.020529391;-0.542953;2.7579508;0.38685292;0.08298258;-0.23701125;1.4531916;-2.933074;-1.8001716;-1.9947783;-0.084391005;0.14886087;-1.1771661;0.1924624;0.84572774;0.16472375;0.012195056;-0.6013956;0.2056345;0.59709203;0.9756958;2.2216341;-0.10142429;0.40349504;0.71875507;-1.529491;3.7085323;-2.448637;0.06548622;1.7093967;3.067794;3.0509975;-0.36314833;-3.8901563;0.28281933;2.2890432;1.4594231;1.865013;0.87042475;-1.4781959;0.93206316;-1.0055046;1.9803166;-0.40695676;-0.8433853;-0.34564313;0.73568195;-0.44750914;3.4696465;-0.08038018;-2.746247;-0.91342413;1.0461223;0.90957564;0.95909435;-0.20827572;0.3857932;1.326114;-2.2334266;-1.496614;-0.27377716;1.2762918;-0.52937335;-1.0795627;0.18550256;0.77310437;-0.06343978;0.21632147;-0.22643344;-2.3006315;-5.1348166;-0.76284724;-2.0328906;-0.039692547;0.26118353;1.2288184;2.89612;0.7129533;-0.36697003;-0.16423413;-0.07284209;2.878168;0.4098627;3.1220748;1.370818;-0.87835884;1.5572594;-0.108605675;-0.22243783;3.6649692;1.2859955;-0.40336263;-1.6059752;-0.36612466;-2.4358857;0.2779849;-4.590921;1.8769472;2.1980767;-0.7120685;0.13621695;1.4912363;0.28017706;3.8448102;2.728673;-1.0106872;1.6938006;-3.0297387;1.4656821;2.7951756;-0.3017778;1.1269408;0.9877582;0.20424497;0.320169;-1.7577733;1.233554;0.5021422;-0.67530364;-0.7516755;1.8897678;1.8741022;-1.36764;-1.8955119;-2.0559978;-3.9712093;0.8784322;-0.93045557;-0.23981674;3.7900925;-1.2363452;1.4966381;1.0351171;-0.24216518;-0.881694;-2.134676;-1.282953;-2.737337;1.01617;-1.9106785;1.0792241;-0.2837685;-0.34251902;0.70272225;1.4130877;-1.6849693;2.0280476;-0.20948468;0.5726828;-0.9179049;0.84032464;-0.6413082;-0.10619057;-0.80303794;2.995385;-0.72648954;1.7266062;-1.748076;-0.30502447;-3.280354;-1.7252023;3.0840328;0.76811594;-3.1290529;-3.5469897;1.2933047;-2.3749757;-3.7631426;1.1237507;-0.42974123;1.2732414;-0.9299501;0.43878856;-0.8431018;-3.7782834;-2.2132132;0.27060512;-0.9470438;-1.6205871;-1.3184375;0.4794552;-0.46508127;1.8525485;0.99523073;0.029947024;0.14140089;-0.38190857;1.5472865;-0.30383584;0.29483938;3.4440782;-2.4060345;-2.1202545;-0.7084142;3.8427641;2.3220994;3.1473272;3.9454534;-3.3891416;-0.5418996;-1.1948751;0.3332027
-2.1120148;-1.214056;2.6734657;-1.6612352;-2.1738794;-2.1127675;0.06876575;-0.8066503;3.13106;-0.97626317;-0.34747395;0.81758285;0.93311626;-2.1255646;1.3755105;-0.3782639;2.5940573;1.0359946;-0.31092325;-0.7077953;-0.72807366;-2.0427377;0.43726125;1.1803237;0.049656987;0.6835753;0.34479567;-0.33490634;1.1860304;-0.15087211;2.3926566;1.1768987;-1.3609529;-1.2001237;-1.3003807;-1.6149012;-2.24202;-0.4300409;-1.5798087;-0.7479906;0.09541048;0.011179847;-1.700994;1.9231726;0.4041373;-0.96334684;0.3830977;-2.222938;-3.6368942;1.8142942;-0.45583382;-2.6457102;-1.6157845;-0.60322887;2.896542;-0.5108255;0.011048297;0.48944828;0.511469;2.067628;1.8248048;-0.9076294;-2.4476247;-0.55045044;-1.2233684;2.000067;0.51653254;-0.46636155;-0.32230705;-0.053438723;-2.819416;-0.5979663;0.5586892;1.9733214;-0.90626997;2.7360928;-0.9893837;-3.042335;0.950645;-0.8516548;-1.5065109;0.26020095;-0.033179138;0.29575652;1.4373505;-2.5584679;-0.19421355;-2.6780763;-0.62918764;-0.81253415;0.8114967;1.1533296;-1.8619086;0.33123493;-3.7730947;-0.15778969;2.150783;3.6016178;-3.774905;-0.42460212;0.16547523;0.4316729;-0.751705;0.72754824;-1.4740139;-0.09702025;0.417706;0.8415078;0.24969138;2.000827;-3.1823351;-2.4619472;-0.22984764;-0.2149934;0.004767202;-2.6134698;-2.251923;0.6258034;-0.7800538;-2.0161183;-0.8343396;-0.28425413;0.6133486;0.48850498;-4.0297227;-0.37268814;-1.5925095;1.5562778;-1.1125193;-2.894713;-0.75367904;0.3403699;0.5715821;-3.9047039;-0.6349939;1.7534984;-2.60905;-0.88351864;-2.251966;1.9476004;-1.6530633;-1.5774294;-1.3196553;0.4597839;-1.1356816;2.7363777;1.2287079;3.315534;1.3293738;-0.42409533;1.9277608;-0.5638368;0.64890087;-1.875457;-2.8081589;0.5489346;-0.14679329;-1.0406181;1.5138787;0.2946058;0.3493844;1.5252894;1.9208262;1.8516171;0.20342126;1.9127916;-1.5341423;0.04376607;-1.825947;0.61638;0.42675006;-1.5439332;-0.89573413;-1.1366357;-0.3063221;0.4619205;-0.392857;-1.0574409;-0.98344773;-0.42384022;0.2698267;1.9504596;-1.1961089;0.5678341;-0.45580435;0.26290628;5.0027714;0.6356132;1.0953124;0.44930235;2.3865585;-1.9053782;-1.6690105;0.2437325;0.577077;2.4975152;-0.2703883;-2.8547885;0.5342022;2.2556481;-0.75444335;1.4950686;-1.0112205;-1.2772406;1.0276656;1.1727967;0.63177955;-2.639385;-0.66796136;-2.6072128;0.6491283;-0.35723212;0.2659493;1.0659088;1.9753247;-0.10724797;1.1002889;-2.890184;-0.7631828;-0.537384;-0.42350328;0.44628775;1.226603;0.8203502;0.27222368;-4.7636914;-2.1969318;2.128604;2.8054752;-0.26767874;0.8188261;0.50143313;-2.473025;-0.5841213;0.13053253;-0.9485122;-0.13624525;-1.6929796;-0.06201632;-2.51672;1.75677;-0.3640338;-0.07899195;0.64413184;1.061331;0.39513507;2.115182;-0.009277255;-2.9686313;-0.9484244;1.1959134;-0.43369794;-2.906823;0.6895906;0.77706975;-0.91454875;0.617825;-0.37011385;-5.291898;2.2408085;-0.015787404;-3.4543583;1.1775037;0.3051838;0.11222326;0.75127804;1.0548545;1.2464892;-0.969245;2.1213803;-0.27450985;1.5795655;0.60449576;-0.6307617;-2.7336507;-1.3978171;2.1572433;-0.1257737;1.5313357;0.054341227;3.0797222;2.146727;3.6196208;-1.1880314;1.2804554;-0.14865369;1.931371;-2.0236418;0.68089306;1.0835197;-1.8295542;-2.1174686;0.04013101;0.7076121;1.2652886;-0.4753859;-1.3132272;-0.724691;1.1783196;0.82597494;0.7486825;-1.0580776;1.4049779;-0.42553943;3.0128086;0.7951042;1.6009762;0.18820652;-2.4036882;-0.13502882;0.06767112;1.3745296;-2.3798676;-0.4702118;-0.48850566;0.93890107;-0.07842261;-0.70188975;-0.7159794;-2.5032482;-1.4959524;-0.44425303;2.149519;-1.2447579;0.27282557;-2.368444;-0.18768214;0.78092486;-2.7207317;0.13830489;1.0838282;1.0249689;-0.69270897;-0.55705965;3.7588682;1.3260957;-1.6514169;-0.015397857;0.6676993;-1.0717281;-0.8142757;1.4115865;1.1408294;-1.5597798;0.2422039;0.61976635;0.3812152;-0.35518053;-0.03542306;-0.6428198;0.05529619;0.60860616;-1.1161504;0.8155086;1.6063893;0.35345048;-0.14031628;0.67480266;-0.057830673;-0.14840968;-0.42871073;0.94018096;-1.2403218;1.7779535;0.7962406;-0.5725531;1.3903451;1.2789843;0.25555977;2.3623917;0.0010475762;0.12979673;0.5351132;-1.8163993;0.034094796;-3.0975401;1.1927526;1.9035673;1.2106485;0.8864102;-1.2477779;-2.938056;-3.0198934;-0.34961846;-1.7502143;-0.83257234;-1.7896066;0.24719141;1.2237712;-1.2094762;-1.7823553;-1.3821268;-0.3685893;1.8095326;0.90301704;-0.9236655;0.5064156;1.7119886;-0.996119;0.00043811908;-1.1130948;1.0114818;-1.6092567;1.2324888;-0.28649732;3.5607407;-1.4977443;-1.2989237;1.0597091;1.8713281;2.0959878;-0.1969568;-1.2676148;-0.8378638;-2.419147;2.1894922;3.412001;0.11484456;-0.6301103;-3.065494;-0.7281161;-0.7553755;-0.50026524;1.1570611;-0.70291203;1.8112242;-3.1519003;0.4613491;-1.6532167;-0.88617045;1.2685194;-0.49870867;-1.5487107;-4.220407;-0.59628946;0.032589845;-1.3771716;0.5506962;-2.2850614;1.0798736;0.06316631;-1.6122218;0.24510309;-3.7181292;-8.479994;-0.08358181;-3.0846343;0.469982;0.7143523;0.82287234;0.5452992;0.548262;-1.8676456;-0.14780313;-1.4931372;1.685976;0.51809907;-0.6916412;0.33896765;0.015751129;0.8069624;0.13671196;0.36451507;2.7174182;1.432759;-1.3980888;-3.4554284;-2.5575576;-2.1563163;1.0067626;-3.896448;-0.79607165;-0.9859526;-1.4209304;-0.58261645;-0.29076782;2.904289;2.076703;-1.2694967;-2.3369558;-1.8544989;-3.0264874;0.9050148;4.00698;-0.33633575;0.77490795;0.06539981;1.7996274;-1.0611341;-0.7839933;2.7782571;0.3723185;-0.12831862;1.2943487;1.1253506;0.28137434;-1.7554576;1.1368815;-2.039614;3.5397367;0.27493966;2.3824039;-0.3812264;0.8401211;2.8357525;1.3731848;1.8061081;1.5681151;-1.0949737;1.3574613;0.019751126;-0.5021459;2.2047641;-2.0005608;0.10805563;-1.2824157;-2.670633;1.950937;-3.8220515;1.52038;0.4392142;0.9130377;0.46013808;-1.9449463;1.0130026;-2.608388;-1.4029588;-0.5261147;-0.091651075;-0.25209656;-1.1384606;-5.3948183;-0.672021;1.1907402;-0.853198;3.3775737;-1.2333955;1.0406226;-0.1270925;2.1020167;-0.46872684;2.4206827;-0.32277903;2.073371;0.68474615;-2.1386755;-2.7217348;2.3192606;-1.1338145;-0.60734946;0.3323838;1.3982574;0.7517704;0.6811176;1.6617028;0.9733779;-1.3112859;-2.4044583;0.27262813;-1.6206161;0.22863254;-0.89481324;1.5757964;0.07450127;-0.014957117;0.7931921;1.0648657;-0.08732284;-1.5576493;1.8776472;0.27931097;-2.1205473;0.5121014;-0.3937702;0.35826528;-0.029882798
1.9106653;-0.6981816;3.8598313;-2.3426378;-1.2527506;-1.1077154;0.17952614;1.2463573;1.5424923;-1.707237;-0.08697494;1.1779956;2.058579;1.4411073;-0.013980551;-0.31667197;-0.6557654;0.32270482;1.7372544;-1.753035;1.7820073;2.350422;-1.3626156;-1.4923697;1.4738603;0.50699574;-0.27294198;0.45018065;1.0587785;-0.21306656;0.0990986;-1.1291748;-2.5202723;-1.4786968;2.385961;0.9844383;3.243644;0.2928791;1.4669904;3.0080862;-1.1795993;1.8097442;-1.9888;-2.4859214;-1.285641;1.0000513;1.4962001;-5.8353305;-2.2003639;-0.9347374;0.391312;-1.1371723;-0.15287028;0.28646705;0.120859295;0.057123635;2.2385664;1.842468;1.7392479;0.9502912;-1.5534798;2.9092348;-0.1516882;-0.8674551;-0.88699955;-0.1468266;-0.5780231;-0.80849314;2.472057;2.3282986;1.4602722;-1.0964779;0.8022498;-1.8201666;-0.9603803;3.183588;1.5354052;-0.8974958;-2.2205129;1.2900574;3.2170498;0.12957971;-2.0735643;-6.2388477;1.2342383;-2.4075599;-1.5259651;-1.3085198;-0.4872338;-2.0219526;2.656051;0.29651698;1.1168952;0.22843403;-0.08508369;1.4154326;0.90442556;1.1037557;-1.3621047;-2.1165385;0.54853153;-0.49469262;-0.46429166;-0.5190798;1.4887843;-1.8546355;2.1275325;0.18081616;-0.2734463;-1.8115858;-2.290028;0.6179854;-0.23532899;-0.33487535;0.9013871;-0.8614449;0.1774292;0.6918986;-0.4386794;-2.9353967;-1.380712;-3.6190808;-0.35939485;-3.6423376;-3.7688425;-0.5845938;-2.8706806;-0.11618568;-1.1779125;1.8720472;0.052406836;1.0427223;0.516108;3.40369;-0.46372256;-0.92106473;-1.8280497;2.2907631;-0.5453676;-2.5168169;-0.2886588;1.6141512;1.1000774;1.4718591;0.88653994;0.41329637;1.4314415;0.035826325;3.1713512;-0.74926203;3.0229754;0.12359568;-0.68187666;-2.0652728;-4.46022;-0.106824055;0.6077596;-1.0985018;0.31269956;0.4515112;0.57980144;0.82459754;-0.5962328;0.828721;1.0733607;-0.316763;0.51004475;-1.1138107;0.23605351;-0.35528418;-0.070075095;1.7833853;-1.0062158;-5.408838;-0.20695901;0.2871838;1.1880722;-0.5758946;0.8921532;3.0923471;-0.3347588;0.514249;1.0836899;-0.9006694;0.11977906;-0.1602152;-0.02607103;0.50096536;-0.38267908;0.39924046;1.1892821;0.70395327;-6.0542593;-0.76970893;1.6259433;1.0246196;-0.19357502;-0.776656;0.7652938;1.3045093;-1.6457967;-0.047227353;0.17371863;1.098423;0.15674841;0.8383507;-0.8453576;-2.3288;-0.30323234;-3.6765306;1.1661112;-0.16737539;-0.25589925;0.9889063;-0.32846817;0.5737963;0.82417876;0.055147316;2.064744;1.2786933;0.005331824;0.35927647;0.4155443;1.4540141;0.6165734;-2.731344;-0.9105306;-0.47570616;-0.37593138;1.0752981;-3.4008608;-0.006049865;-1.2013443;-0.3207333;-0.5396079;-1.4931036;-0.85677177;-0.16024533;0.32602876;-2.5336893;-1.0095546;-5.109937;2.2514563;0.5338895;0.17292756;2.0605793;0.98734325;0.15925021;1.8198054;-0.5006727;-2.0645125;-0.6795751;-0.35455403;1.9612355;0.35839486;1.8558192;1.1111003;-0.57483524;-0.7817684;-0.7540145;-1.4862099;-0.42051545;1.3189723;-0.39168763;-0.10983221;1.6565243;1.411709;2.0228014;0.95390886;-0.7937272;0.8725916;1.0389771;-1.825775;-0.8172067;1.4022408;1.116928;-1.9168619;-3.202589;-0.086378574;-0.47720996;1.3578233;1.9451157;2.1603813;0.35503724;-1.4166474;1.1142776;0.4380318;-0.38069636;0.11901121;0.32134017;-0.014951218;-1.0168682;0.552851;1.1828731;1.4829084;3.221149;0.5161186;-0.2167666;0.2899623;-0.73280054;-0.1703804;0.7262289;0.599593;-1.0494798;1.1094033;-0.11216399;-1.5265499;2.3221316;0.0073031797;-0.124735855;-2.7143679;-0.4275892;1.6454827;-1.7067229;-0.9551031;0.27988088;-0.068487905;-1.4609764;0.79349506;-2.3614123;1.1212181;-0.5574294;-0.78786397;-0.23012905;1.9605485;1.1415877;-0.15953767;-3.2657466;0.02006794;-0.740042;1.9062543;0.90798134;-0.61936;1.4413028;0.70177597;2.6383643;-2.2369735;-0.88383603;-2.2624187;3.762021;0.5018797;1.700144;2.0843978;3.46092;1.1833209;0.46095988;0.016658721;-2.1370971;-0.25255623;-1.28725;0.03959693;-0.546432;-2.9406319;1.8351383;-1.0192322;3.1314323;-0.29583502;1.3476226;-1.6018668;-1.833132;-0.43847477;-1.6454012;-0.8634564;0.5204517;-1.1244497;0.26656726;1.2555385;-5.0915956;2.5724432;4.6271186;-0.91057545;0.2546707;-0.27672002;-4.33696;-0.12553218;-2.0871446;1.0126636;1.2424089;0.2546042;-2.950649;-0.26446813;0.33411142;-3.4692125;-0.4815679;-0.11756253;0.3351151;1.2930273;2.335584;1.8709365;-2.9867804;-1.177131;0.020350957;0.10373381;-0.30317545;-2.812855;-0.4456163;-2.7087526;-0.030650051;0.8316963;1.219854;-0.0016762582;2.4987564;-0.5161657;-0.29078168;3.7192345;1.0761294;-0.072421424;-0.7872724;1.9407326;3.1833131;2.5767472;0.51218915;0.7120528;0.49960053;-0.12952413;0.98295325;0.3684023;-0.012967326;0.15804076;-0.5693002;-0.7392985;0.42394656;-4.61497;2.0451584;0.07513657;0.41952735;-2.5176172;-0.847056;-1.7623445;-0.33181033;-0.92559105;0.4351623;0.36093336;-1.2268323;3.355902;0.1770945;-0.5049041;-1.8537743;1.4926429;-1.5173335;0.16407277;0.8922316;0.4528287;-2.959458;-4.5030603;-2.284119;-2.1526742;-0.20076898;0.184852;1.4267819;1.2059954;-2.8587873;-2.8310707;1.8927907;-0.4353689;2.2841785;2.2433636;-1.7798432;-0.034989927;-1.8323752;1.3059257;0.47844458;2.4316113;0.87917715;1.2624924;0.048391283;-0.121937834;1.8699762;-3.5796766;1.2589684;-0.006738678;2.2237587;-0.5663371;-0.0010923552;-0.15457739;-0.98248476;-0.31000882;-2.5752232;-1.2649153;-2.3481982;-2.7503877;-2.122356;-2.1076264;2.0412984;2.5979712;-1.5446446;1.8984061;-3.519692;-1.1745389;0.7406051;0.6463617;-0.3709922;0.8723302;-0.21336524;0.7400858;-0.25607127;-0.9625382;1.2436973;-3.2432525;-0.6342522;0.025800923;1.7602966;-2.9677966;-1.1466382;-0.6835316;-2.8182411;-3.5731986;1.5786152;0.35487193;-0.15735883;0.1460022;-1.7683148;-1.6880829;1.1233611;2.5643673;-2.4045193;-1.4656266;2.6693037;-0.52511984;-0.46489975;-1.445895;0.19472268;-0.3838729;0.58739376;-0.1287423;-1.878631;0.5169427;0.7903206;-1.5478777;-0.013216316;-1.3322849;-3.2991009;1.1138511;2.497648;-1.6382167;1.662256;-1.3960986;-2.5521314;-1.9334843;-1.4640597;-0.26762864;0.59256536;0.6400533;2.746136;1.1110119;0.8968622;0.41906762;1.064223;-0.12823945;2.8237543;-0.80726534;1.5756342;-0.30458605;1.4518414;2.0051105;-0.8343526;-1.8329682;-1.2311428;1.14043;-0.21823643;-0.25517157;-0.8743108;-0.4183474;0.39274836;-0.51430976;-1.7900859;-0.37778506;-0.0026814633;0.026860626;2.0493398;-0.41948032;-6.261115;-0.21250981;-3.421575;2.168483;-0.071111314
-0.41789654;0.19481166;3.0543406;2.2770855;-6.163392;2.1636655;0.93640053;1.8281839;1.1750535;0.8133417;2.0341802;0.6371923;0.24661031;2.157115;1.7411662;0.87944144;0.9931711;0.23287134;1.3425683;0.5915729;2.4055169;-0.5958251;-0.37544024;-1.0740408;0.78729296;-2.0293016;-1.5350002;-0.89025307;-0.7691955;-3.2364318;0.78132606;-2.8243873;-0.60273665;-0.7587526;-0.9229326;0.5079623;-1.2971672;-0.49231344;-0.97115064;1.0006452;-1.449187;-2.6176083;-1.8636812;3.4614592;-3.0480423;-0.56966776;-0.09522196;-0.7672046;-2.7298672;0.4641133;-2.0706325;-1.1075231;2.2415762;-1.2678643;-1.8941791;-0.4001844;-3.8998408;-2.0796323;0.738405;-1.0321378;2.5544121;3.1029797;-2.2831867;-1.7781407;-0.5942148;1.1343462;0.80476207;-0.25163728;0.77578574;0.54228824;-0.89248925;-1.2179956;1.4212822;1.268659;-0.34992507;0.44858262;-1.2063662;-1.4319577;-1.6421311;0.16342968;3.1022942;-1.7675515;0.2513105;-2.2447093;-0.22023347;-2.2734883;2.206712;-4.5328083;0.8822021;0.5788472;0.28654492;-1.0976118;-0.6151688;-0.35387135;1.5987976;1.5707362;2.301372;0.09032102;-0.0988149;1.5950769;-0.8089357;0.09342652;-2.0191188;1.3532815;2.9668374;2.7318373;-0.9179607;-0.85583824;-1.8648059;1.1175424;-5.2875066;-5.1880536;-0.06967593;5.6199727;-0.85073906;-1.2071174;1.1647996;-0.7689973;1.005865;-0.5073592;-1.6244572;-0.1718659;-6.285607;0.30081558;-2.1443715;-1.5804452;1.0175914;1.6065888;-0.5596894;1.0256307;-2.180503;0.48149586;1.0662783;-3.6813207;-3.11138;-1.7626039;2.8023562;2.664197;-1.4293419;-0.17679358;-5.839607;-2.5065255;2.3460832;0.21708931;3.1074893;-0.39299425;-0.077114694;-3.4211018;1.3017738;0.22799626;1.5204169;-1.2221884;-0.41064444;-0.5327423;-3.5803244;-0.36325762;-3.496117;1.5700302;-1.7682915;-1.1888888;-3.6154706;0.6551941;-0.33525413;1.7462702;-1.8670965;3.2241821;-2.0015345;0.7546702;-0.6588459;-0.25716642;-1.9698396;2.891145;0.8672224;1.2549736;2.742352;-0.1722804;-0.9327681;-1.8766752;-2.2183444;-0.71548074;-0.59416664;-1.7566193;0.39672157;-0.4192073;1.2782656;2.9574068;4.6306443;1.7037565;3.0480826;-1.967824;-1.160084;-0.77123195;-4.9486475;0.24011801;0.9813261;1.7534868;1.0381981;-1.9420229;0.77632153;-0.4183872;-1.7427692;1.5722893;-1.6781604;-0.27752012;0.5457056;2.2676227;-1.1691499;-0.58024836;1.7319133;-1.8947827;0.9058494;-2.5708592;-0.702705;0.61196107;0.09721251;-2.1205168;0.56142086;-1.1148525;-0.77545905;0.92714983;-0.8078905;-2.0183008;2.539774;-2.075094;-0.25972068;-2.168559;2.3109837;2.9477417;-0.17188606;1.036289;2.0417414;-1.3249308;-1.5947723;0.066467926;-0.63609886;-3.3753364;1.2525301;0.79063797;0.16700129;-2.4034693;1.47178;-1.9084152;-0.3544004;1.9852514;-0.29303214;-1.0288501;-0.39584538;0.55146104;1.6950555;1.402347;-0.59866244;0.13172701;-0.24217997;1.414051;4.4454656;-2.730467;-2.0753284;-0.3147258;-2.424042;0.95822704;-1.3159066;-0.014075862;1.7560254;-0.9871227;0.33682734;1.2532147;-0.3979036;0.29834926;0.04723184;-2.3119042;-1.139618;-1.50434;-1.4255505;2.1712954;-2.9212012;-1.1905469;-0.9139169;1.7233771;2.66922;-0.21265346;0.47201106;1.3693477;-0.3610009;-1.4436905;2.6169326;2.407134;0.093330145;1.1863664;3.3005323;-0.27843958;-0.65736884;-1.5003314;-0.9003965;1.0630108;1.2610236;3.782031;0.04476812;-0.5688141;-2.8210795;1.9160348;3.8098078;-0.05038359;0.8272143;1.3422625;0.7396481;2.1660671;-1.8549687;1.7318641;1.5759568;-2.0391045;-0.03341506;-0.8051809;0.10892729;1.3302722;-2.414689;-0.17667308;0.5338796;-0.18640502;-0.91277915;0.4946892;-2.2882955;0.96136147;3.4670103;1.044768;0.8176065;2.4052083;-0.96706736;-0.037893347;-0.4757522;-1.2167344;3.204573;1.2392819;0.8789478;0.9299657;-0.794443;-0.5976125;-1.9920977;4.0661745;0.1980493;0.09408464;-0.93382776;-0.23522338;1.8716135;2.2805545;-0.05720379;-0.22197737;0.9946932;0.2674513;0.4148223;-1.016415;-0.70742166;0.84225905;-1.12876;1.3293872;3.5029094;3.6592712;-3.1525404;0.96336466;-0.33758378;-1.155414;-1.910653;-0.97587115;-1.1155072;1.8628832;-1.5584697;2.8709488;-2.8047416;-1.1216215;-2.0862117;-1.6218196;-2.6790807;-0.10114242;-1.0209478;-0.34086895;1.9899714;-1.9240199;0.77714497;0.12909895;-2.4185987;0.9020319;-0.5989163;0.75244886;3.1158793;0.46068147;1.7547585;1.0843441;-1.4738454;-0.4485992;-0.5311335;-1.4362044;-0.54914266;1.9909458;2.9822972;-0.78475934;1.6201913;-0.047078665;-1.5847623;2.787094;-1.1433542;0.16858163;-0.5099279;0.58408576;-0.32724994;-0.12019057;1.4975843;3.4679277;-1.0233715;-1.8066006;-5.6129246;2.201763;0.88485694;0.80058795;-2.0157537;-1.387509;-0.6202981;0.43670002;2.229368;1.1647636;0.81672734;-0.69429475;-0.4073568;3.313413;-1.1338105;1.5603485;-1.0203465;3.2910757;-1.5020969;3.2625184;-3.3121526;0.27656278;-0.00575786;-2.8285723;1.1705987;-0.5346677;-0.81392694;-0.30491856;-0.88046896;-1.217828;1.7225189;2.090767;-0.11098106;-2.039877;-0.8510034;0.95429957;0.46924114;-0.9203879;-3.5135813;-0.98134536;0.8369614;1.3016957;1.6831036;-0.8036721;-6.286202;2.5871477;-1.0516764;-2.2080944;2.7021186;-2.74825;-1.4163622;0.038366858;1.4029413;-1.8863126;0.6150148;1.6891997;-3.0032942;-2.0714643;0.46561787;-3.1496928;-2.9358232;-0.3562284;0.3512792;-0.2761323;0.045973986;1.2443832;-0.47454295;-2.485268;0.74473697;-2.2420883;0.70638627;0.05881573;-4.190894;-1.6510549;-3.376144;0.83579814;-2.1834571;-0.72695583;-0.31947294;-4.4715257;1.4629574;1.3102144;-1.5587844;-2.1177378;3.7915194;0.048884906;1.0123031;-0.9010047;0.69026893;1.1577189;-0.40924457;1.8891878;-0.85117936;-0.8088919;1.2572746;1.4818552;1.524372;0.09528304;2.8152776;0.33751407;-4.7738547;-2.50947;-1.9946054;-0.32415104;-5.334534;0.65493697;0.68172085;-0.111966096;0.098219275;-0.19976433;2.5136912;2.3843637;-2.6796014;-0.386928;-1.1955727;0.99775565;-3.1179388;-1.6350272;-0.38007522;4.7996855;-2.891271;-1.5158592;-3.9291744;-1.6722146;-0.53311616;3.9206102;1.59357;1.6966769;-2.9424818;-0.56429255;-3.3516824;1.8341048;0.4780088;-2.8136642;0.120720565;1.8661655;-0.03710225;2.067521;1.5303707;-0.59053135;0.2069149;-0.05112751;0.29793715;2.2597036;-1.9380991;0.4864291;0.6276533;-2.3907359;-1.4774152;1.9135232;-2.074475;-5.1301613;0.12027649;0.9709941;-2.3941526;-0.5829213;0.82348883;0.44175616;0.08348706;-3.019562;0.29549906;0.032285944;-0.45638302;-4.28718;-0.2348051;-4.260328;0.97965825;0.62636167
0.5725861;2.4252536;-1.2723341;1.2883219;-4.3159957;3.369407;1.7518678;-0.7816849;0.33277944;0.54865247;-0.3928994;0.75116897;0.729893;3.0308588;2.4177213;-0.8522251;-2.8206406;0.7684549;-1.6951458;-0.55615526;5.107659;1.2072783;-1.1232481;0.0716054;0.9546204;0.14818694;-0.06762628;0.3249488;-0.040595513;2.7329817;0.6636849;-2.2855556;0.1352502;0.58451694;1.3465549;1.2235581;4.2514687;0.55230373;-0.8647505;-0.1552612;-0.2193894;-0.98076624;-1.3874587;1.147706;-2.984896;1.7501205;2.3448753;-3.1475291;-2.066081;1.3541183;-0.122520484;-2.626839;-2.939306;-2.1636522;0.19227405;2.9682379;2.025186;-2.327775;0.13754018;-2.273825;1.774165;0.32922637;-1.9781014;-0.6761054;-0.9330658;0.9487097;0.03661463;-0.29313722;0.11881365;0.60620797;-1.3933048;1.0937054;-0.67733985;1.20091;-1.154659;0.67668426;0.23620273;-0.38386855;1.6926733;-1.9582099;-1.7949796;0.037548788;1.5799093;0.3597329;0.75970495;-0.22152553;-0.47715175;-4.083217;-1.6669285;0.27235782;-1.630723;0.89976436;-1.6558511;-0.25563455;-3.4289296;1.6972626;1.8147454;1.7170177;1.8118296;2.1428099;1.6313735;-2.4674997;0.67793715;-0.54562855;0.11354344;1.1678588;-1.6519144;-0.10119484;0.35694224;-0.92303294;-2.2766502;0.6907235;-0.39137217;2.8252807;0.46529484;-1.7603611;-2.443579;0.86523396;0.7755161;1.0773783;0.6624137;-2.0669196;0.8402539;-1.4041096;-1.6022602;-1.8911246;-1.2156032;0.23221074;-0.65622437;0.5076232;-0.98687583;3.4419866;-2.2222161;1.5563973;-3.7069414;0.9663906;0.29580393;-1.9492869;-1.4471166;-1.3965319;0.43263537;3.2851045;0.7803048;0.77863294;0.7045683;0.58584607;0.48924366;-1.170327;1.8764442;0.38883886;1.6811135;-1.9360279;-2.6450331;0.32909933;-0.14697108;-1.0516508;2.6446326;-2.5886407;0.8608379;-0.10830803;-2.6515405;0.42659363;1.766539;3.3522735;-2.4511414;-1.0538671;-2.1229353;0.51176864;0.51607484;-0.6779535;2.1456401;0.9846425;0.17745914;0.24369371;-1.3231896;-0.29501343;1.1234546;0.32850766;0.10286602;-1.8707653;-0.46340373;-0.7908411;0.38592866;-0.7223991;-2.3548048;2.0071077;-1.229264;-3.2528079;-1.0442411;0.5924951;-0.65966004;-1.4810804;-1.0034392;-2.7963793;0.050695665;0.5219894;-0.675526;1.85251;2.0171676;-0.84851795;-0.8661736;-0.38547534;-0.23852235;-0.1795626;-0.38257185;-1.6261102;-0.08167483;-0.621542;-0.06157168;0.98697644;-0.08022981;0.42412543;0.5783572;-2.1881192;1.3868983;-1.3701946;-0.7679867;-1.4515488;-1.155642;0.51221377;-1.0064954;-4.753301;-1.202693;1.7295927;-1.9680097;0.12550768;-1.4177822;-1.3633355;2.2614279;0.0023603376;-0.431408;0.20850989;1.7795179;-0.11818792;-0.14772107;-0.57525533;-1.3776767;1.0018576;0.37345898;2.6212943;-1.7321758;-0.8276244;2.518261;0.8240029;-0.27894112;-0.690492;2.1589794;0.728947;0.68571556;1.0640482;1.4244047;-1.7597373;-2.2663457;-1.5401745;-1.1507449;1.1261041;-0.8302134;-2.9240663;-4.175796;0.8005601;-0.8814928;-0.96743035;0.1601311;2.2147925;-0.211019;0.87570107;0.6028969;0.6058493;0.5119886;0.7784197;0.4788866;-1.3876036;-0.30156022;1.9640757;0.037585694;-1.3613808;0.29387447;1.8533392;1.1494819;0.4151288;-2.2513387;0.736235;1.0498565;-4.05573;-0.26710927;-1.6571836;-0.9777392;2.8636055;0.02721695;-1.1697788;-3.6415994;0.6149562;-1.1036261;-1.750149;2.0354605;2.1216056;-1.0509008;-0.4607677;-7.675424;0.18707852;1.5026962;4.0906854;-2.0190775;0.009406811;-1.4538829;-2.1861517;-3.6938944;0.7608078;0.8455598;-0.8485614;-4.510025;0.87254304;-0.2065882;-0.7423201;-5.94573;-2.4793024;1.1057541;0.7617216;-0.7693795;-0.71210563;-3.7368321;1.7986052;-1.8428322;0.92712075;1.7551823;0.55040675;-1.1841997;-1.2047375;3.611959;-0.17080426;-0.8716667;-0.07368273;1.7598253;2.8353899;1.3007665;0.082843885;-2.212361;-1.0269046;3.6565628;-0.84844244;-0.6380952;1.4751852;-2.8668742;5.5592537;-1.3379303;-3.1936367;0.4130321;-0.77407366;0.100962736;-0.7829818;-0.2553398;-1.4364727;-1.222554;0.16278036;3.1930616;1.2815902;-4.09532;1.0016755;-0.8298438;-0.11448741;-1.1612675;0.20458175;-0.6009462;-1.4492334;-1.4493197;1.6379097;0.20274268;1.4409428;-0.53993106;-2.675424;0.20562096;0.23736951;0.20967618;-0.5536213;-0.5157718;-0.765675;3.576532;-0.75330865;1.3469441;0.087618895;-0.08807664;3.4637077;-3.304623;1.2941781;0.64719784;-1.4873776;3.3386064;0.92416537;0.36553097;-0.23490302;0.12934718;1.7934979;-2.0315154;-0.98765284;-2.8679144;2.415933;-2.0080771;2.2763472;-0.10978727;1.1837252;-1.3728782;-0.4096904;1.6071433;-1.0205458;-1.5061762;-0.20343237;-0.97103703;-1.1006253;0.76580447;-1.4343802;2.0753944;5.061375;1.4274468;-1.8026737;1.7250439;-2.7681072;-0.13371752;2.3710465;0.7356901;0.20565085;-1.685188;1.864531;-0.9896619;-1.1567478;3.38483;-1.1937003;-0.49586663;-1.189141;-1.1649091;0.18049845;-0.42106467;-1.6150341;-3.3608027;-0.58352154;-2.4014885;-0.73914206;0.054513067;-0.721416;1.6571325;1.1654042;0.103610195;1.1824952;2.3799393;0.601065;-0.18145521;0.7313202;1.4932058;1.3104275;1.0920123;-1.1380975;0.73784745;-0.45628178;-4.0808406;1.0220606;0.7561611;3.470472;-0.02292556;-2.0018253;-1.5650122;0.41797647;0.7058719;-1.3735499;1.4718074;0.69826597;0.48528397;-1.6088337;-0.8871443;1.2916108;2.5597668;2.7604961;2.3579545;-1.4600667;1.3985057;0.6511651;3.7640867;0.016619774;0.13740546;-5.2970605;1.5443739;-0.65326655;-0.9755385;-4.228916;1.2398574;0.22736694;-0.7658865;-1.1467836;-1.4690306;-3.029413;0.34183297;-1.7711747;0.52801704;-3.567499;-1.6092283;-0.65469956;0.8502576;-0.14267172;3.3208687;-1.2200378;0.0156050995;0.57722145;-0.5299944;-0.5781827;-0.84540814;-0.6762555;0.022974074;-0.7033117;-0.2054422;-0.10281064;-0.9710184;-0.9240393;1.1042323;-0.64649016;-0.07205982;1.4958451;-0.6078587;-0.7185637;-2.3046753;1.0789503;-1.6153668;-0.5457777;-1.3805327;-1.7255834;-0.5515156;0.4234147;-0.41701502;0.54869485;1.7770174;0.27568513;1.4053462;-2.918749;1.5360451;-2.3297133;1.0271394;-2.989647;1.5034485;-0.34942162;-0.62983006;-1.279988;0.6022081;0.13008845;-1.5987861;0.57721204;1.970099;3.6323113;-0.88136023;-0.6447391;-0.2640374;-0.5070035;0.51816815;0.75006324;-0.7515468;0.40674138;-0.0010668436;1.7280142;0.68888706;0.82191354;-0.683478;-1.3895347;-2.1710138;-0.48941684;-0.4868471;0.707744;1.4740666;0.58404845;0.93318766;1.0280472;-0.44845384;-1.6109908;0.29781982;0.9241199;-0.18088625;0.94492674;0.16719279;-2.9344368;-0.48978323;0.036387585
-0.61897194;-1.4798932;1.5173503;-2.0562353;1.732473;0.7086503;4.6270165;-0.33850524;0.7437002;1.2586914;1.5719311;2.730044;4.610249;0.30220446;1.5988138;2.0342355;0.7488001;-1.4317933;-1.6775175;4.575563;3.7380702;0.27555823;0.5617604;1.40779;1.945947;-1.172799;-0.36533946;0.005766824;0.5105074;0.021187074;1.145627;-2.9862432;0.17782475;2.143318;5.2491846;1.1668502;2.8721333;-1.0142443;-2.1817832;-1.6853025;0.63221866;-0.1039037;-0.75699186;1.344995;-2.1153767;2.9295838;1.1070851;-5.1217647;-1.9471489;-1.5449196;0.9453933;-4.4886074;1.4258134;-0.05289183;-0.10728654;-1.9859487;-0.24645549;-3.4764595;1.9935924;-0.023003822;1.7005587;2.387556;-0.6802704;-1.0752449;-2.917842;-0.7621754;-1.4187485;0.79887456;-0.36723477;1.7958537;-0.1656594;-0.040280823;-0.6530583;4.4314003;-1.8147953;0.1518045;-0.16146904;-1.062612;0.79403675;-0.22685033;0.53168106;1.5163112;-1.5606878;0.45051757;-3.023625;1.8130071;1.8743424;-0.8204821;0.63574994;-0.11014376;-2.4063454;1.9323847;-1.8558105;-0.4013026;1.0066096;-3.1250112;1.5456518;1.9148407;1.3956196;1.7620386;-0.7939636;-0.9637802;-0.87662846;-2.0981379;2.029254;0.6109431;-1.4958544;-1.8287432;-2.3754375;-2.1920297;-3.5439353;-3.3794749;-1.253619;1.7483013;1.2084408;-3.1936855;-1.3763552;-0.0036418352;1.9352529;-3.1240861;-1.0081902;-0.53465575;-0.007863084;2.9134552;-0.14104927;-1.5612162;-0.6402865;-0.34335855;-0.75604343;-0.7843363;-1.3330479;-3.7590008;-0.7058967;1.1983974;-2.5313044;0.81841433;1.6084889;0.09771282;-2.4337091;-0.9659612;-5.094817;2.9789984;0.6717466;1.2063701;0.031793073;-0.03207498;-1.6244689;-0.10019753;-1.8882009;-0.52272594;3.3903844;-0.8641257;-1.2051486;-1.1848912;-0.10945863;-0.12894458;-1.8173224;1.2401799;2.3673167;0.2859242;0.6131041;2.0688562;-0.74482954;-0.37984976;-3.4153538;1.8336732;-0.66655153;-0.55636895;-1.839047;-0.8303034;1.0029836;0.12347349;4.304634;-1.363648;-1.0779654;0.7518726;-1.3351524;-0.95236856;-2.1891334;1.116271;-0.95643485;-2.00222;-0.63439333;0.6494592;-3.1545641;1.8509448;-0.45339638;2.574551;-1.9555032;-3.206836;0.426707;-4.1303105;-0.32098043;-1.2238789;-1.0778632;-0.83699965;1.0311216;0.71721786;0.5626166;1.2467793;-3.5495732;0.041875385;-1.4833115;-0.38233763;1.0462298;-4.017726;0.3889851;-1.7618128;0.8384391;1.8104737;0.7156391;-1.0024228;-0.12542255;-1.1663828;1.153081;0.34822136;2.3662932;-3.2217317;-2.1579266;-0.3047696;-2.1423461;0.36142114;0.2685963;0.26163805;-0.52721936;0.16972709;-0.7332617;0.8448081;1.117939;0.38956487;-1.471324;-1.8547828;1.9143054;0.558154;1.3475946;-1.9325159;-0.6613416;1.1217167;-0.5828049;-4.945962;-0.110530496;-0.6163575;1.8877667;1.8640718;-0.17027058;-0.40310612;-2.5481062;1.2050294;-0.8435314;0.34583497;-1.5109609;-1.3379968;-0.48151675;-0.1192077;-1.3794417;-1.0310166;0.99015826;-4.724712;-5.241761;-1.6445354;-0.5411148;-3.5821233;0.97837895;0.19122244;0.123506874;-0.30569682;2.0075052;0.5672475;1.353433;3.4871502;0.4073205;-1.6952912;-0.8217315;-1.9513086;1.0954317;-0.20624883;0.5907716;1.7506393;1.0410823;-0.18837759;-4.3100586;-0.33036658;-0.012782981;-0.719041;0.55403024;2.2636096;-1.0583198;0.59631443;0.9944264;-1.4754498;2.4025426;-1.5849643;1.098787;2.2911491;2.8947823;1.2492586;-2.2176113;0.023089314;-5.1557956;-2.1873562;0.87342435;0.9043943;-2.6089075;0.005341862;0.62360907;-1.7383294;0.26862025;1.0836887;1.5048985;-1.7338017;-1.681492;0.5594718;1.6643615;-2.8587353;-3.309894;0.5803922;-0.37872237;0.35642552;1.6847903;-1.1737107;-1.5461521;2.2047017;1.9292347;-0.53154165;0.4064943;1.413729;-0.7329212;2.0313497;1.0029957;-0.47596812;2.167211;1.6629244;0.34774727;1.9748766;2.8378384;1.641699;-1.1265057;-2.4917524;2.0405788;0.49466613;-1.6837937;0.612197;0.13064727;-2.0872955;-0.98372555;-0.57196474;-1.3801597;0.52036893;-0.01994906;-0.25753698;-1.4367754;-0.6738302;-0.47454304;0.5790015;-1.8030275;0.2755091;-2.0301042;-0.5848521;-1.0388564;1.2265191;0.8196418;-0.4927171;-2.896305;-1.461545;-1.8676195;0.13211921;-0.90075886;-2.4172864;-0.8062241;-1.2323567;-1.7778815;1.713826;-0.5698212;1.0224434;-0.04201514;-0.31364253;0.57024664;0.6361903;2.9733276;1.151392;-1.7265251;2.3509328;-0.7280045;-2.7705703;0.6181758;0.64693344;0.059369475;-0.017330077;-0.17387968;-4.9061604;-3.2276335;0.33878052;-0.23126057;1.0778835;-1.9287678;3.7199228;-0.50987494;0.030043127;0.4429007;0.43687162;0.89435667;-1.4581395;-2.529232;-1.4281422;0.9968834;-0.3332628;-0.7011687;-2.4029968;3.026926;0.6860857;5.611154;0.8072357;-1.437633;0.8857464;-1.0112854;1.6143609;0.5893183;-3.179219;1.222541;-0.8515379;-0.21998766;3.6936302;0.39350373;2.0332854;1.4777044;-0.20505221;-0.95959944;-5.072858;2.6342328;0.08245108;-2.287445;-0.065638445;1.9683331;-2.066466;-1.671868;-0.5930216;0.83046794;0.13777266;2.8432622;0.26502505;-0.29487282;-0.47217065;-1.0845642;-0.85588205;0.6906638;-0.19498253;1.0503598;3.33991;2.1954224;1.4668871;0.30039114;-0.6167536;-1.0731927;-0.18896699;-1.2954162;2.0414004;0.6306979;-0.26847965;-1.8481305;-0.7190623;1.0550908;0.13938525;-1.5023293;-2.376992;1.4635789;1.8159459;-1.7007474;-1.9181885;0.1719252;-1.2545999;2.609274;-1.0627313;1.0519472;-0.71875197;2.5611827;1.2035592;3.1491482;-3.0816932;1.306486;-2.845267;-3.9607344;-4.244309;3.6144211;-3.3946366;1.4851965;-4.3272295;0.0061386367;-3.522694;0.9526522;0.65978956;-1.1507268;-1.1857274;-0.41945162;-0.88165927;0.86100805;-0.36688417;1.0702888;-1.8964615;-0.14001055;1.2499495;-2.38105;-3.5780418;-1.3767636;-0.8712073;2.2558186;1.1412491;-0.066761754;-0.36709684;-2.6845844;-0.9959999;-0.7731647;-1.644405;-2.4047813;-2.056186;-0.7548509;2.0728412;2.6506922;0.09397978;-1.2845982;1.25185;-1.3864268;-0.2603234;0.25528318;2.3433113;1.1984483;2.0133238;1.4701071;-0.20815027;-5.386454;-3.7746937;1.7046772;-1.1104217;-1.0428846;-1.8295248;-1.6347456;0.49208212;-1.8690115;0.4297762;-0.3335874;-0.7413195;0.326717;1.7349948;2.2228076;1.2602501;-0.9683891;-1.1031009;0.62533605;0.55496335;1.0788791;0.35972807;-0.22556056;-0.29580775;-0.6636236;-2.3487322;0.2916279;-0.026060162;0.17307667;1.8016363;0.97513396;-1.0041353;-0.5539067;-2.2532635;3.063025;-0.7921114;2.8242812;0.68779814;-0.82506067;-1.5083783;0.032556657;3.4713798;1.7255323;1.4952691;1.7133251;-0.91746217;-0.19665253;0.80855566
-2.3726313;0.3442046;-0.055715267;2.0599928;-2.1842675;-1.3748977;1.417973;-0.07085919;-0.70800555;0.10939509;-0.045827214;-0.33644944;2.1714041;-2.0334337;-1.5802445;3.387892;1.7298075;-0.5361462;-0.3313701;1.7003018;1.1883193;1.2226561;0.6767096;-1.0698792;1.3134315;-0.7680992;1.4311488;0.2188404;0.67361337;0.41433293;-0.333858;-3.535041;-0.7765387;-1.1116403;3.0318682;0.806431;-1.840707;0.53039336;0.45363933;0.22027333;1.2979276;0.6936264;-0.56697005;-1.46721;-0.85814756;1.3801888;-2.186873;-0.78360677;-0.592888;0.043069225;-0.11692182;-0.17881237;1.1917955;-1.5876759;-1.1379524;-4.599517;3.1226835;-0.46594518;1.5831262;-1.4939486;0.64549917;0.99625015;-0.6649925;0.08324064;0.24321191;-0.08275087;-0.60710156;-0.6129541;1.443837;-0.05462821;-2.7365448;-0.58383596;-0.81224453;1.9148437;1.2483743;1.7033026;2.0513134;0.018045578;1.1504405;-0.42443916;-0.6818649;1.2909328;0.8722728;-0.6110295;1.0602963;-0.74961585;-1.975071;0.14774068;0.274479;-0.55768454;-0.27700323;0.5210218;-3.1139998;-1.0153673;-0.71123004;-1.2381952;1.1319932;1.2144328;1.1715838;0.09377728;-0.4031894;0.52386916;-2.8338542;-1.4176197;-2.3460603;-0.52097034;0.9759501;-0.9054397;-0.07839558;0.021656346;-1.1485192;-0.45768237;-1.0429546;1.4383801;1.6703452;1.4072096;1.5572791;1.4336516;0.60580313;0.725165;-2.3910954;-1.2909472;0.26433766;0.31140852;1.0449066;-4.168163;-1.963127;1.0358459;-0.5108295;-0.34287143;0.12028174;1.2099005;-1.6340419;1.4706988;-4.204338;1.9970893;0.22508925;1.4640881;0.5479267;-2.2424116;2.1737523;-0.34729198;-0.44573522;-1.2563971;-4.6512423;1.3669525;0.7777649;2.3043592;-0.73656327;3.43813;-0.19173186;-1.1146736;1.7310892;2.0676682;1.0389644;-0.97048116;-2.1149318;-1.2551821;1.5657271;-0.9060439;-6.0748844;0.7495059;0.82919675;1.3779374;1.9948446;0.6088256;1.0714353;-1.4746342;-0.69073015;-1.2271184;0.6684836;-0.24611942;1.3424493;0.5749817;-3.6804554;2.0484774;-0.2803048;1.6406547;-2.3085423;2.6707318;-0.97477585;-0.2264822;-0.33095682;1.3515174;-1.0391032;-1.2196518;0.3248679;2.2960815;-0.5551255;-3.9236283;0.6752351;-0.123431966;-1.8021529;0.5057282;0.65016675;-1.4648715;0.92655355;-0.2541267;-0.1466224;-1.7268033;-0.3145149;0.47931057;0.07111398;2.497721;1.355065;3.1835182;1.6861072;0.43000272;-0.12437296;-0.032755643;1.4994366;-1.881226;0.00088353484;1.4172531;1.5708846;-2.3215697;2.827236;-0.5558479;-0.38131225;4.9634504;-1.1892587;-0.070606306;-5.5889726;-0.9757073;-0.6309738;1.1544335;-1.9989648;-1.0590787;-1.2106905;-1.6003087;0.054147303;-1.3112518;2.0659022;-0.26838008;1.7102686;0.3492045;-2.308154;-0.99395955;1.5728406;-1.1660724;-4.051596;0.96952707;1.9762431;0.2448405;-2.3797152;-2.3638818;-0.7442306;0.3135412;-2.7376056;-0.41623864;-0.80719966;0.4176813;-0.99765486;1.7273473;1.8077328;1.1671642;1.3000305;-0.4170013;0.7466135;-1.3066782;-0.6578399;-0.7242209;0.27988335;0.09716487;-0.11425897;-0.06144128;-0.43229154;1.2827609;-0.6730181;1.8309069;-1.1420346;-3.0262299;-1.944082;1.6481032;0.10333385;0.84319204;-2.6433768;-1.8816046;-0.54680866;0.76001024;-3.7399821;-1.2569152;-0.17708567;0.2814112;-1.0418222;2.2392046;2.2532394;-0.6328407;-0.30696872;1.2345747;1.4616814;-0.8580923;-1.970652;0.7630001;-0.17173061;-6.5428443;-0.21226439;1.0612798;-0.7658127;-2.7983775;-2.8952212;0.47590187;-1.6596277;-0.14296421;1.4104259;0.21658339;0.79325974;1.3892084;0.50526315;-0.92923754;-0.4133106;-3.2310007;0.99926805;0.41924492;-0.14001244;-0.8245801;1.4884377;-0.52075195;-1.9756138;-0.3522686;-2.4855309;0.990666;0.5987465;1.4052706;-0.10359864;0.99278575;-1.4453456;2.3418517;-2.2490382;-0.6783939;-0.20653564;3.146438;-0.6127551;3.1359177;0.64429456;0.18890701;-1.1920508;2.722928;3.212386;0.3419771;-0.17694588;0.10019056;-0.40783206;0.5812899;2.6053;-1.2906353;0.0057999184;-2.3333511;0.12659748;-1.2406116;-1.0422103;-2.6613784;0.29912472;-1.5146132;0.98989713;-0.6775244;-0.6674801;0.12165669;0.68491966;2.1093898;-0.38195223;-1.7674428;0.23565815;-1.159466;0.10751844;1.123037;-0.285821;-0.21230201;-1.8376443;-0.2639897;1.530216;1.7345676;0.4198577;-1.0034883;0.993098;0.8245926;0.07681416;0.7406618;0.7343406;1.936067;-1.9883676;-3.433853;-0.121021986;1.2998744;-1.0100672;-0.65744823;-0.9130615;0.27059132;-0.5153241;-1.1455612;0.26224285;-4.3365116;0.90232223;1.262921;1.0659722;0.82892764;2.5599828;0.39737108;-1.2924688;1.5606521;-3.223843;0.7718004;-2.480128;-3.054619;-2.9247565;5.015421;-6.139341;0.048152015;-0.9726307;-0.3962385;2.4331145;0.92985547;1.9563787;1.2481285;-0.9021883;0.060861226;-0.17295408;-0.75035197;1.6847043;-1.225875;0.5861272;2.4167023;-1.0894065;0.059163418;3.3644555;-0.43134573;-1.0437214;-2.4610972;-0.37589052;-0.1729265;-1.1744647;0.30897754;-0.6046646;2.0858595;1.2428128;0.9095075;0.071188964;2.5734708;1.2405612;0.20884828;-0.22636065;1.1938598;2.0946572;-1.0219349;-0.862119;3.0792916;-0.5071781;-2.4714909;0.9514187;2.354807;1.7894675;0.714509;1.9119309;-1.6030396;-0.38049763;1.233799;0.05332134;-0.9960735;2.0367079;0.19865856;1.8222405;-2.445752;-0.049251415;-1.932608;-0.24454586;-1.9984598;-0.32280442;2.2757843;1.1431156;0.48640814;-0.8364634;0.32392898;1.3421146;-4.4835625;1.8495228;-3.7916062;1.4214522;0.53013235;-3.347721;1.4013275;-2.78622;1.1109102;0.03508738;0.8784101;-0.98520803;-1.369188;0.23647158;-0.12294164;2.3588736;-0.5331708;0.50796723;0.021877265;-0.7595743;-0.45953357;0.39384356;-1.4540167;2.2842782;-2.5083282;0.69946116;0.7223513;-0.9852492;-1.7548865;1.4013579;-0.9427263;-1.7421677;-1.1286882;-0.90828794;1.722935;-2.0571823;-0.04460284;0.09248104;-1.4487779;0.2979149;-1.6402774;0.424446;2.343929;0.34183955;-0.021913541;2.0608606;-2.801963;1.5296347;-0.5973774;5.64179;1.168624;0.7683569;-1.6735812;1.8745418;0.99370474;-2.444597;-1.339074;-0.95487434;0.38621646;-2.4355702;-0.636226;-2.0126526;-0.9331743;-0.039540764;1.11853;-0.22078718;-0.55602056;0.42773482;1.2638733;-1.6175544;1.2856721;0.80508703;0.9230085;-1.7659963;0.42844176;0.094365515;-2.6454117;-0.540145;-0.028734261;0.17640229;-0.6692366;-1.650238;-1.8586102;-1.9129719;1.7378283;-1.1636606;-0.6125783;0.2915747;-2.338128;1.7848126;0.4191735;1.9187979;0.3759059;-3.2938566;-2.1451066;-0.121925116;1.1617618;1.3735149;0.9434963;-0.3530339;-0.83165735;0.022795262;0.086525224
-1.3869951;1.9930111;1.1806817;-4.761763;1.1063172;-1.0538205;3.675128;0.49057245;-0.70763934;0.4036698;1.8103514;1.4681486;0.3801254;3.0736609;-2.665365;1.0106164;2.0307682;0.41595492;-0.25913304;-0.8365697;-1.8460783;0.7052212;-0.4350854;0.91062033;-0.21293706;-0.9807002;-0.52545804;-0.24529299;0.2922236;1.5543612;0.01672997;1.7561855;-0.11040127;1.1614597;-0.9733546;-0.115444064;-2.2530723;0.6723077;-0.21419486;1.111414;-0.069640346;1.585733;-0.7648914;0.23161687;-3.8388014;-1.2398287;-0.43268174;1.9368281;0.7829905;1.8776104;-0.47843957;-1.99882;-1.4372076;-4.024097;-0.51143885;0.82828933;-3.8470466;-2.7774138;0.5516959;0.76250637;0.86757547;0.9588203;-1.2401713;-0.13529013;-0.35362306;1.1318129;1.463838;0.15260705;-0.779478;2.2833028;-0.6390717;0.24525604;1.6231757;2.796432;-0.9216064;1.0238576;2.2893958;-1.8959271;-0.20853823;2.3262522;2.1963553;-0.2557731;0.45377982;0.99701285;0.60659564;1.3186897;-0.47970316;-0.00992247;0.4604937;-2.0807774;-1.8439516;-0.60688335;-3.1777468;0.9963771;-0.51913655;-1.0756326;1.7224975;-0.3327292;0.8609014;-0.33583578;-0.3540546;-1.5645939;-0.9436762;0.17375718;0.3113457;0.6135567;1.3550509;-0.43691516;-2.5423446;1.9946772;-1.7840824;-2.0003867;-1.3603643;1.4345341;1.9339734;-0.5192976;1.332714;-1.0527358;0.09425144;2.0880065;-1.7061228;-2.2232852;1.4219867;-2.3123903;0.54231805;-1.1347268;2.4522069;0.23908651;0.67806464;-0.015692217;2.5627918;-3.4769778;-0.79876333;-1.620925;0.38274312;-4.4518843;1.8829049;1.86021;0.03768975;-0.442561;0.28936213;1.572392;-2.1466336;-1.0380899;1.0048343;-2.4455793;-1.0531716;-0.66180634;3.894995;3.7383451;-2.502848;-1.0243076;-0.7235391;-2.861754;-1.5298322;-0.38864207;-0.83645445;-1.4848038;-4.8941417;0.6935304;-1.7731262;0.7007357;0.6991932;1.072004;4.168112;2.07215;1.14451;0.5064946;1.9278101;-0.47399026;1.6606627;-0.4191237;0.38203412;2.843719;1.9602871;-0.3462978;0.37636033;-1.1974311;0.76433897;1.8045354;0.40500927;0.40370473;0.4463468;0.048943266;1.1173161;-1.4003607;1.4673393;-0.94615;-0.0023259434;-1.7093054;1.87472;0.42534536;-2.0197468;-0.8906008;-1.6013056;-3.2810876;0.4998492;-0.1183742;3.238598;-2.2311769;2.0192113;-0.6973619;-0.21442892;-0.24543372;2.0924487;-0.72690153;-0.26545322;2.205334;0.44873217;-1.2114079;-0.08564261;0.21358746;-0.91412187;0.8227234;1.9809079;0.3705487;1.0108929;-0.79153425;-0.81748414;-2.9389007;1.9587108;-0.17046441;-0.20298134;-3.0428267;1.6307225;-1.5925124;-0.3239368;0.41814256;-2.4319725;-1.4924692;0.038069528;-0.15956461;-0.74340713;0.5183891;-0.76810145;0.551021;0.8158654;0.16613789;3.014988;0.17905308;-4.336017;-1.9545052;2.8570175;0.4234446;2.2133102;-1.8976308;2.0719693;1.602368;-2.3297255;-0.6654803;-0.1634772;-0.38181943;0.043911383;-0.7931403;-1.4800836;1.0593431;1.6889141;-0.32007924;-0.07308239;2.5540252;-1.3536055;-1.2009082;0.96309006;-3.0205832;-0.09947748;-0.41570318;0.35421163;0.15324828;-0.11352574;-2.2372613;-0.08952867;-0.31545395;-1.1780223;2.1833146;1.484712;1.1535225;-1.6312913;-2.6900568;-1.0155175;0.32216814;-4.4674706;0.84415954;-2.1249914;0.9312704;-0.033696514;0.051597185;0.2301361;0.38409874;0.34077218;0.90735275;0.2780231;-0.6170759;1.786412;0.9706641;-0.3042868;0.32073545;0.59881645;-1.4206035;-7.6047564;-4.3147707;-0.14862193;3.4972649;-1.8192828;-0.093847096;0.9034643;0.52582633;-2.979232;-0.1765561;-3.1802158;1.5368245;-0.5420661;-0.71716046;-1.5131603;-1.3590642;-4.2284384;0.100568414;2.3048522;0.18492652;0.6970764;0.4436392;-2.2926035;0.44197133;2.01417;0.39340416;-1.0697608;1.2630658;-1.6143936;-2.9543936;-1.3808912;-1.3794819;-1.8604703;-0.17886037;0.121842645;2.8515828;-2.1666138;0.56868154;0.4264171;3.3162847;1.5344743;-1.6850115;2.3004932;1.4369422;-1.8627253;0.52408004;1.8758742;1.0105282;-0.71869636;-0.974073;-0.52993625;-0.80541193;0.07961947;-0.3726556;-0.19419621;-1.2270039;-4.937812;2.7700486;-2.0707877;0.56644803;0.13653961;3.4753346;0.11588183;-0.9232962;-0.9686483;0.9683652;-0.12143521;2.7083552;0.047525626;-1.374749;-2.8353531;2.8258681;0.79287046;1.6796664;-1.6581169;-0.768258;3.862226;0.25189772;-0.038340595;1.3838273;2.3411498;-3.7153125;-0.7850199;1.7823881;0.6297617;1.3741802;0.34922597;-2.149492;-1.9392309;-0.23731738;0.29665413;-0.6358999;-0.34446222;-0.5586628;0.7432306;0.20069575;0.4747525;3.7264202;0.74578345;-0.057152115;-1.5767713;-2.3658493;1.9280456;-2.7169356;0.18122362;0.55361205;0.19587852;0.11265799;-0.53796417;-1.0997825;3.466728;2.4681346;-1.2311801;1.6839063;0.09146502;0.70834845;-0.34995458;-0.14098819;-2.9825778;-1.8341961;1.1305138;-3.2327762;-2.5974777;2.1837986;-1.1506325;-0.17826194;1.6512859;-0.14671645;0.7904101;1.103698;1.402941;1.0548689;1.6645064;2.1919112;0.0020958695;1.5969273;-0.102861956;-0.57510644;-0.5102827;1.3910263;-0.12032814;0.15813014;-0.034967326;-0.4896206;-0.6010773;-1.2791122;2.2211313;-2.1973512;-0.6905628;-0.7768698;-1.9468205;1.8757755;2.592257;-2.0859947;2.41317;-0.3981281;0.7507159;-3.6746716;1.1262779;0.75991154;-0.042498782;-0.19501571;1.5253979;-1.4747056;-1.8175884;-1.6580954;0.8778697;0.17876245;2.224992;-0.80295324;-0.20206405;2.444316;3.4743433;1.7653271;1.4505894;-0.55386895;-0.7432663;-0.38975418;2.42692;-1.1644439;-1.5440447;0.78014714;-0.6003467;-3.0567017;-1.7111045;1.3351802;1.0409116;-2.6947575;1.5627347;-1.9097481;1.0921199;-0.7729413;-1.193232;-0.36107945;-0.212545;0.81866086;0.5385498;-0.24427705;1.2808259;-0.47653994;1.3701146;3.2089176;0.9080207;0.22784083;-1.1638217;-4.0614643;0.30079243;3.6130064;-2.533122;-1.3779467;-3.1119404;0.10091548;0.7848959;-1.6087596;2.0329127;0.30448884;1.169532;-0.23769388;0.25475088;-0.7704634;1.6951873;0.20572045;-1.8954582;-0.8482302;0.07151489;2.2775412;3.2235615;-0.10533567;1.558408;3.536506;-0.32200265;-1.546804;-1.2353202;-2.7151453;2.009684;0.02655804;-1.2918422;-0.33922285;1.3786159;-0.98134536;-0.6985905;-2.008651;-0.34790093;2.1541102;0.31047422;1.2574689;-1.4663821;-2.9515574;-0.30524883;0.6221924;0.9264637;0.06963641;-0.50846004;-1.4217942;1.584901;-0.99652356;1.9888246;-2.31291;-1.7499113;1.6600909;-6.0171075;-1.8796405;-1.2405348;1.2759453;0.58598256;0.3664637;2.3569973;1.0946308;-1.7218772;-1.017097;0.3015768;0.35872507;2.2177026;-1.0432583;-0.5557169;-1.2573197;-0.02474438;2.0091667
1.0112337;3.0168104;1.814873;-3.8344848;1.8558675;1.3087215;-0.4564171;0.85480046;-0.20312415;-0.041049145;1.3572556;1.5682753;-1.7404286;-1.7181327;-0.5774408;0.8742348;-0.16583677;-1.3991803;0.062077608;2.155716;2.1617248;3.5915666;-1.6385838;-1.506843;0.18028945;-1.5074764;1.0287092;0.13047278;-0.29105267;1.4091735;0.6408745;-4.880449;0.7463504;0.02204953;-2.9683182;1.6452246;-5.609414;-0.30103117;1.244915;-1.8553215;-1.5799042;1.1209161;2.386263;3.7205298;1.0286155;-2.5742784;-2.463419;-0.8436499;0.40105936;-0.48190886;-0.57408005;-2.3869562;1.7656854;1.5919348;-0.9877069;0.3030147;-1.3374403;-2.6286974;-2.7157617;0.14722356;-0.3438009;-0.47959352;1.2384672;0.35128412;-3.7692165;1.8233743;-0.63041353;-0.31052923;0.58123875;0.75133026;-3.0574508;0.95909375;-0.12974355;-0.09092958;0.043416012;-0.6506706;0.16231494;0.0031111157;-0.5370117;2.068283;1.1155161;0.1305301;-0.49941668;7.037836;0.26878968;0.45345646;-0.25693414;-0.99580604;0.5391155;-0.9852685;-2.872205;-0.93903345;-2.0014074;-0.6750296;-3.6124244;-0.5104404;1.2865051;-0.22964603;-1.7218237;0.6882118;-0.18881229;-0.86569947;-0.1850389;-0.80329466;-0.19453841;-1.8926378;-1.2948481;0.8912711;-3.4085598;-0.8503091;-1.1746007;-1.6948328;-0.57269424;-0.2629602;0.48155198;-0.68569887;-0.54628366;-1.1126602;-1.3814877;1.6538653;-0.8712384;-4.2053127;1.6005188;3.7555912;2.1898944;-1.0445166;-0.24167486;-2.1055582;0.90655196;0.70857584;-1.6057148;0.63956386;-0.11265094;-1.740527;2.1393578;-2.5969298;0.74256694;-0.76358795;2.1076596;-0.20140082;-0.596511;1.6859363;-1.2288475;-0.09450572;1.7607118;-0.3845384;0.56570166;1.7049189;0.48619154;-0.49575078;-1.2341768;0.27753118;2.61134;3.79889;-1.1770946;-1.801442;-2.2575831;0.1926902;-4.705424;-1.4074925;-0.06996416;1.3190179;-0.69993263;-0.7536455;-0.056876563;1.0650458;-0.46924585;1.1287072;0.33283266;-0.37473753;1.5136138;-0.7003215;-2.2866638;-0.5421024;-0.5520814;1.6392915;0.9013347;-1.7613031;-1.1098126;0.8027947;-1.8648616;1.132649;-1.1642277;-0.5664234;-2.0487;-0.45350948;-0.21360129;-1.8003075;-0.2327988;-1.7526875;0.61126596;-0.95996624;3.053399;-0.27529067;-1.0836306;-1.4069214;-0.36516568;0.27227885;0.8673098;-2.0186357;0.61957717;-0.71305615;-0.60943955;-2.1262825;0.5918512;1.8146857;1.383197;1.0218985;1.4459;-3.3278036;-0.038773593;0.19264361;-0.7130261;0.3073459;2.0130265;1.9360472;-0.061448492;0.9503348;0.07834339;1.7811251;1.8961033;0.644253;0.830262;-2.7653625;-1.862672;-2.8505876;-2.3634796;-1.0314792;0.06847474;-1.3272139;-0.7278265;-0.9825126;2.3259134;-0.28809002;0.58802605;0.39458466;1.4586631;0.16232051;-1.314231;1.8456973;-1.19067;-2.183927;-0.6807874;0.7432542;1.0647783;-1.7367687;2.0623531;1.5956279;-1.3496884;1.1629417;1.448036;0.32425952;-1.9596171;0.34468052;-1.5358577;-0.013684531;1.986075;-1.4185933;1.4717954;-1.1352136;-0.35298374;-1.061787;-0.18707784;-2.006314;0.12106525;-0.43308812;-0.66986775;0.38133115;0.4242144;-2.8169627;-1.7657225;-0.4538653;-0.40809605;2.952289;2.265574;-2.7529938;-1.6617601;-0.29514283;0.9111788;-0.5826695;-1.70197;-0.5209112;-1.8329141;-2.5791647;-0.24973993;-0.6237692;-4.1290884;1.6116186;-0.8206624;0.0037603567;1.6070079;-1.310005;-0.22058155;0.83332556;-0.20952609;1.5013574;1.1201438;-1.2152271;-0.052213077;0.9454537;0.319202;2.6466563;-1.9161456;1.3817825;-1.480798;2.2680817;-4.024593;0.20493917;1.9519589;1.2850553;-2.24249;-0.5231153;0.76852113;-2.106197;1.093242;1.081618;-0.5998335;1.4382881;-0.44495448;-0.32219806;-2.5028727;1.1169517;2.4899943;2.494975;-1.1852221;0.009149049;-1.5020226;-1.3638562;-0.21988833;-0.43771154;-0.9093787;5.013357;-1.2238482;-0.10665844;-0.97539765;-3.6759164;0.12857041;5.018303;0.7200738;0.49180707;0.9715343;-0.24913992;-2.5535908;-4.3972774;4.600466;3.1742475;-0.24660785;-1.723881;0.59496117;0.4625597;-0.55700785;-0.33094192;0.8048774;-0.85273737;-0.13289824;0.5494881;-0.35465103;0.5682815;2.7834733;-0.08330064;2.5658977;-1.0939153;-0.7972694;-0.5213188;-0.7299301;-0.7028485;-0.16480428;-0.15416571;-4.042314;-1.5913097;-0.10863398;0.9772792;-1.4639062;-1.8008628;0.031902757;1.2339507;-1.5512747;0.07977802;1.0093871;0.0874654;-0.7175059;5.8077955;-1.5033445;2.733135;-0.3049229;-3.0521193;0.3019249;2.968672;-2.3554127;-3.9944186;0.59509325;-1.2067908;0.2178341;-0.6115186;2.6279607;0.32497945;1.0124083;0.21064025;0.27187827;0.15647343;-2.1132743;1.6507246;-0.785483;-0.6626224;-0.33975676;0.26219103;3.1053865;-1.9627632;1.004227;-0.18840982;1.8051742;0.91774035;0.74245465;-0.13767974;-1.1993624;-1.8044304;0.19291125;-0.63804096;2.5313246;-1.2778455;-3.6478388;1.2830449;-0.119477876;1.1971205;2.221089;-3.0379937;-1.7456326;1.7508729;-0.6939204;0.48657307;-0.74223316;-0.15309104;0.029009273;-1.8550708;0.08079638;-0.45588285;0.52296716;1.6722991;2.3030853;-0.35341078;-0.19385894;1.28373;0.39694938;1.1627305;0.18586938;-0.7925926;0.7756826;-3.987777;-0.7553315;-1.4271468;3.1905553;-1.1983964;-3.2338884;0.72049767;0.39552808;-0.45476374;0.56349736;0.15889333;0.64942575;-1.1183103;-0.0878584;-1.6761314;-3.3809;0.6872588;0.19531624;0.44815394;0.0032488864;2.979591;1.4748341;-2.119158;2.4665346;0.42990148;1.0018089;-1.4609681;-0.28455597;1.3563375;1.2733165;4.9581943;-0.84596705;-1.5067569;-0.5792175;0.3725675;-0.39639023;1.8830929;-3.798884;-0.44356135;-0.82799315;-0.79393977;1.8869344;-1.9799753;-0.2756555;0.44083574;-1.9479125;-1.0260792;0.46605942;-0.06853007;2.58397;0.23226461;-0.24342631;2.8885136;-1.1339983;1.8646555;-3.7551992;-1.9570498;-0.24879998;-1.7665865;-0.6091508;-2.3255692;-0.16162837;-2.090633;0.053495325;-0.9685137;3.9875486;1.783086;0.519337;2.3713489;2.278079;-0.33934462;1.064009;-1.6478652;0.028761085;0.78752476;-2.0325718;1.6964946;-0.22113186;-0.078931935;-0.23658237;1.0620599;1.435782;-2.7885349;0.47985154;-0.2163283;1.0114899;0.21341284;0.99231386;-0.3127513;-1.2320571;1.6788069;-0.85919315;-1.9596494;1.1014795;1.8994554;1.0270146;-1.7484499;1.141943;-0.32904738;-1.3494473;0.055493783;0.91531014;0.033771094;-0.5005334;3.0049963;0.49965575;0.15350811;-0.01779533;-0.14908752;-1.784231;-3.222076;-0.45651397;-4.4637117;-1.4991335;-0.030695489;1.6081388;0.2057446;0.59405744;0.51569855;-1.2903268;-0.14230564;0.4572527;1.029894;-1.7877427;-1.0125574;0.5166952;-1.5814126;-2.2187884;-1.3346286
0.4340644;-1.0642463;1.7848991;-2.7948864;3.8266222;-1.0017905;1.4746416;0.14182957;2.0124056;-1.4507998;-0.13216983;2.4358046;-1.0923066;0.25357854;2.2139301;0.4092386;-0.6870303;1.3464156;1.7054082;-0.39745453;2.3394542;0.043738395;-0.28501144;2.0055761;-0.45632362;-1.2777755;1.5193394;-0.39428896;1.148654;2.2371104;-0.55288535;-1.423416;-0.62943214;0.12152898;3.8354802;2.5164347;0.31961346;-0.41367435;0.18371363;-0.44741118;-1.4413786;2.1978805;-0.0894531;1.1731819;-0.1336385;1.1911433;-0.11583751;4.8828516;0.62577784;0.8240635;-1.0744767;-0.60478497;0.66685015;-1.381888;3.4685566;-1.0986779;-4.515162;-2.2845364;3.5764205;0.27153152;-2.1810434;-0.7803418;2.3327959;-0.8786951;-1.1706358;-0.24643415;-0.08530514;-1.0303648;-1.7577984;-0.22259127;-1.2944995;2.451481;0.38232613;-1.7754081;-0.84805655;-2.6585963;0.2706493;0.14581883;-3.9975464;2.3379712;-0.40764266;0.26686594;0.7372202;1.6890501;-1.634376;0.06586382;1.3279574;-1.5049672;-0.19344078;-1.9272581;-1.9743813;-2.8729835;-1.1660345;0.49287337;-2.8324335;-0.05835833;0.064420275;0.99402916;-1.460858;-0.86870134;2.1134434;3.3045883;-1.2232424;-1.0105861;0.49626514;-0.07806314;-1.9392083;-2.0112746;-1.2341648;0.029182518;-2.4316163;-1.7311572;-0.54668355;-2.2033272;1.792655;-1.3387439;1.3205847;0.72803056;0.5739314;0.19383161;0.31423995;0.13714162;-2.1300054;-2.3635278;1.5012178;0.13430727;1.6917974;-0.9312189;-1.1071166;3.0889063;1.512327;-0.5353705;-1.5580254;-2.3156056;-1.091658;-2.0379522;0.3397655;-3.4421408;-0.44872296;-1.0147802;-5.0854683;-1.3167357;-0.4915559;-0.61896086;0.81278145;0.10008049;-2.0058105;3.3103223;0.81745833;-0.998727;1.1114304;0.10565006;1.2888637;0.4018935;-0.47422916;0.5988245;-1.1847514;1.3851488;0.608823;0.39703083;-0.7754189;0.5084055;-1.11679;-2.7567942;0.85406375;0.43465984;1.0810391;1.4703981;-1.4263896;-1.0168054;-2.1767554;-0.23729402;-1.2826575;-0.8690436;2.0440311;1.6979828;2.7435915;-0.2058618;0.10589798;-2.564263;0.21185571;-0.8775141;-1.9690326;-0.043066274;-2.9398103;0.83868283;1.5655799;-2.1075306;0.18882774;1.1623842;0.016811749;-1.6852827;1.0855435;0.24289821;-1.1157287;0.92286634;0.15592903;-1.0744066;-1.2313552;-1.4572598;-0.19236717;-2.1928406;1.9526994;1.6458005;0.49318913;0.65688634;-1.4364345;-1.09805;1.6119481;1.2247914;0.8113293;-0.8618739;-1.2768631;-4.2301126;-1.0511785;0.49104244;0.55510604;0.122271985;1.5515387;1.9195908;1.5874963;-0.17067719;-2.091488;1.4455898;1.9559455;-2.0023687;-0.20886044;0.14138518;1.9105289;-0.6370192;1.0920625;-0.49993342;-0.6691894;-0.8320255;2.8277447;-1.8328431;-0.69207823;-1.0103322;2.6296136;-1.0038465;0.28525493;0.011374512;0.22136979;-0.3510656;1.5240171;-0.22365811;-1.0536155;1.1906438;-0.104719535;-2.1508105;2.7398455;0.2927034;-0.29439533;0.12678686;-0.8332743;-2.25327;0.94042194;-4.950087;-1.164501;1.5263917;-0.7991904;-1.327221;-0.26670223;-1.5097924;-0.08848138;-0.81947947;-1.6398594;2.191566;-0.0174964;3.518207;0.4587;1.4929147;-3.720141;2.7185264;1.0074487;-1.0166385;-1.0276151;1.0561844;2.2021523;1.0561844;0.13187982;-1.3926294;-0.14724138;-1.0864464;0.27434877;-0.008401642;-5.077046;-0.7856667;0.9260412;-1.8310158;1.7230713;-1.2212563;-0.55044085;0.60382944;-2.269644;-0.76791507;0.69890267;-2.2251446;0.29974586;0.75884795;-0.33327895;-1.8293477;-4.4462957;-1.1789051;-0.68279856;-1.98619;-3.241234;-0.12860024;-0.26954702;-1.3463396;-0.10945818;3.3006668;-0.7339798;0.33703378;-0.091156796;-0.34846252;2.2556887;0.65794384;-0.1189191;1.157647;-0.5280906;-1.5554742;3.126385;-0.8271472;1.6112775;2.1411216;-0.58564156;-1.3656617;1.2194479;-2.1034017;-0.24173845;1.4859282;0.07049726;0.35160914;3.552479;-1.9194521;-1.1759193;1.2112159;-1.1523097;-0.6891158;1.0387853;-1.0940139;-1.7301649;-1.13629;0.94424814;2.385589;-1.2810153;1.1208806;-0.096384384;0.348371;0.54433584;-1.6644143;0.22958577;1.7926021;-1.1304938;-4.591678;-0.4806569;-0.034785774;-0.14718705;4.5890226;1.8798448;-0.3887584;2.3165946;0.7152357;0.019186238;-1.0464274;-0.98406804;-2.600994;0.15133514;3.4889376;-1.6440328;2.6523666;-0.713367;-0.04627768;-0.48002464;-0.31033215;-2.7457724;0.31444415;0.08761176;-0.08762609;2.133747;1.5515586;0.047777813;0.93251497;-0.4018359;-0.29786378;0.013738256;-0.37027904;2.7267823;-2.0338023;-0.6817902;-0.4824476;0.49218428;0.57106686;-0.21052635;1.7077919;0.6353465;0.33538944;0.76980376;-0.70097953;-2.271994;-0.31612584;1.3524379;-2.247849;-1.3920668;3.3332644;-0.91769904;1.3509121;2.0639644;0.82933563;0.27644464;2.6563852;-0.35815272;-0.4903523;-3.0607467;-0.0036402112;0.50193465;-2.2326477;2.919141;-0.29977536;-0.5120664;0.655989;0.38712943;0.10425021;3.6179717;-1.1635345;-1.1355078;0.0071993293;0.60307676;-0.59852725;0.40167058;1.2366533;1.7495887;-1.1228168;1.1965737;-1.1947458;-0.5972982;-1.0776638;-2.6317413;0.73542064;0.062874936;-0.6299159;-0.35444283;-0.6111649;2.1755757;-2.0009644;3.0236447;1.1884531;1.2125765;0.48172072;0.54129905;-2.6236694;-6.1626124;0.6824212;1.5768316;0.5592239;1.387493;1.6321585;0.20826527;-1.2678944;-0.2704432;-1.6184492;-0.20553783;1.53117;1.652545;-0.76943165;-0.16526018;-3.991703;1.6413774;-1.1976676;1.2662716;0.071423575;-1.0682789;-1.3376472;-4.1599193;-1.4341779;1.4981805;1.3856226;-1.5483863;2.6683102;-1.2707182;-2.1646645;0.5896732;1.2572812;0.16807252;-3.055156;-1.6600764;0.5725551;-2.5341043;0.8792575;1.3035148;0.8306705;-1.0102258;-1.6864314;0.6672088;2.7783318;0.7564854;-1.4632988;-1.0671387;1.5776739;0.9204186;2.553528;-1.2978206;-0.5411263;-0.61644924;-0.6380164;-0.21570942;1.3313389;0.22180049;1.8188635;-0.7838313;-0.88873327;-1.7908778;-0.49915692;-1.2237686;2.9331524;-0.1519832;-1.0934232;1.8274624;0.7220851;3.8236337;0.029337345;-0.94771487;-2.3877256;1.1131862;0.16673894;1.2471037;2.9407432;2.33723;-3.5660472;-4.023501;2.2342792;0.3288805;0.13968663;-2.2875152;1.2268078;2.1731744;-0.52064574;3.69199;0.23159353;1.7222399;3.030818;-2.8869314;-0.99476814;-0.69380957;3.1836615;2.0776823;4.1168737;1.2293855;-0.83042824;-1.858725;-0.30203032;0.038515598;1.2141466;-0.32411173;-0.35099837;0.082992025;-1.8552802;1.676853;-1.2288748;-0.71790373;0.85071516;2.362699;-0.37993935;2.8426638;-1.3364586;-1.772622;-2.06054;0.24382858;1.6437216;-0.23716836;3.382597;-0.30416816;-2.4773648;-1.3535746;0.6521354
0.8874358;-0.09808823;-0.07088117;-0.5820772;1.8579233;0.4591555;-0.96258765;-0.43834838;-1.1642065;-1.7048978;1.597838;0.60949165;-0.08709132;0.64053875;0.07626347;-1.7078384;1.363374;1.740899;0.65463805;-0.8417907;2.9365497;-0.8221284;-0.5345611;-0.8421099;-0.017796379;-0.2758708;-2.526502;0.06479558;0.9755429;1.2009932;0.36614224;-2.441869;0.14665636;-1.9768972;1.5039598;1.1606822;2.224812;-0.17177914;-1.2673917;-0.57574457;0.31260845;-0.09149483;-1.3035519;0.947481;-0.36238176;-3.2777636;-2.0761387;0.11624166;-2.1702173;-1.8606687;-0.8479882;1.2956196;1.2860376;-0.0055360314;1.2937902;0.71892124;-4.681952;-4.119929;-2.0323648;2.1420722;0.8389227;0.24687223;-2.1696272;-0.6202478;-0.015584691;-0.2563385;-0.97868323;-1.9460698;-1.8121896;0.063198626;1.5449076;0.36920634;1.4103421;-0.0892943;-0.5626556;-1.1819512;0.020532798;-0.5595751;-0.48279887;0.8223208;-0.56322855;-2.2715888;-2.4534075;1.9892403;0.65704167;1.3311566;-2.9421873;-1.3839852;0.008552772;0.13671537;-4.016762;-1.5109785;0.30629233;0.7551275;-0.19180992;0.6674482;-0.8435177;-1.3806714;-2.2938056;0.008036817;0.0146637615;2.2466402;-0.22531097;0.119785085;-0.12493493;-0.870033;-1.8889977;0.3443461;0.23056978;-1.1061479;-1.8878533;-1.7117912;0.7092507;1.0612994;-0.12892668;-1.0573608;-5.354384;-2.3194153;-1.3048893;0.97726923;-1.0550865;1.5970643;-0.07698739;-1.1896162;-2.947727;-0.23401898;-2.8321187;-1.957158;0.07050475;0.3304471;-1.5695477;0.0198828;-1.1817664;1.3901644;-0.6004655;-3.9326026;2.8370075;-1.7371991;1.2450428;0.28356344;-2.1553626;1.1927706;-0.29340926;-2.4529321;3.713496;0.5462236;-0.24133675;2.9812415;1.0456967;-2.7305093;1.3303347;0.23029113;1.147039;0.88199294;-2.2609272;0.31699827;0.83694476;1.1412663;-1.0029887;-0.8594926;-3.5081308;1.5006307;0.09053454;1.301214;0.098461896;-1.714284;1.2705188;1.5125318;0.0666378;-0.46336612;0.7999121;-1.5143372;0.14955063;-1.7315019;0.49451;-0.81508005;1.8770787;-1.7567748;1.236656;-4.392425;1.0104032;-0.5010453;1.9264237;-1.7983785;-0.17303552;2.7953882;1.6214939;-1.5039805;2.709723;3.9098015;-0.05149799;-1.1447723;-0.5224712;0.6504106;0.21005249;-2.9081283;-0.54135424;1.3875359;-3.188766;-1.2705432;2.710334;-1.4645094;-0.010472523;-2.0295913;-2.134717;-3.3441708;-0.7244357;0.62219125;0.9213783;0.4920657;-2.9235628;0.74004805;0.08671125;1.4474019;-1.1002277;-0.2732321;-1.660856;-1.2554579;-1.0152518;-0.7810806;-0.5452965;-0.79349136;1.1903735;1.349494;-0.7949293;1.7791286;0.5800491;2.818924;0.41199183;-1.403672;0.6914709;0.49372745;-0.17182137;-1.1526296;0.33473107;1.706823;1.3039541;-0.5681258;-2.1390538;-0.15899834;0.5286482;0.37850586;-0.1635826;-0.056475278;1.9694415;-1.3208756;1.447284;1.2498014;-2.064342;3.1634107;0.22533263;0.97685945;0.03413994;0.9674637;-2.4937932;0.31548998;0.5785163;-4.954654;0.46119305;-1.0178684;-0.18177234;-2.0210953;0.7178192;-0.80479395;0.91268146;-0.98857844;1.0909399;0.5521661;0.46365526;1.2177081;1.5301025;-1.6560768;-1.7953188;1.6250767;-0.0065088514;2.2882133;-0.23731786;-1.6644711;1.7151158;0.840539;-0.17567128;1.2036321;-1.4972469;-0.92067134;-1.1296833;1.9995605;-1.0818554;1.0393807;0.73728895;-0.32908103;0.6820491;-3.3116348;1.4565672;1.7406719;0.7393835;-1.1784004;0.81567955;0.8965129;1.5900464;0.67921376;0.45496747;-1.3511441;-0.7273142;0.38444197;3.9177866;1.4066898;-0.01562802;0.47827193;-1.6483991;-1.9347554;1.2506893;2.130513;1.0405968;1.2865206;-4.1913404;0.6165781;-0.8207817;0.89808905;-4.302303;-0.5354037;1.4574664;-1.9567884;1.4036605;-0.3926288;3.2635338;1.124191;-2.0599558;-0.77880406;-0.69735765;-1.3210526;0.2742538;4.180063;-3.775078;-1.0479603;-3.4501014;-2.218822;-0.5544381;1.6747749;0.16384704;-2.0810509;-1.3621364;-0.31927517;-2.4623926;-1.4657506;1.5817382;-3.3300257;-0.2403012;0.36256126;0.071331024;0.49056438;0.72258747;1.3271141;-1.0885592;-2.7583616;-2.129777;0.40396777;-3.7475064;0.49566165;1.5300015;1.4925326;0.11792498;0.1822102;2.9123478;0.6391123;1.0931998;1.3866897;-1.5069394;0.9993124;1.0555363;0.17264225;-2.2430613;1.132922;-0.72963136;2.815236;1.790469;-1.0687577;-1.086526;-0.7308139;-5.73742;-1.1743245;0.009482727;0.6400662;0.73615587;-0.38258344;-0.38531566;0.6067872;0.64912903;0.35205707;1.5110315;-0.17222603;-1.9017665;-0.71549386;0.17948802;0.42355928;1.4450355;-0.39309016;-0.32467282;0.50373524;0.5859374;0.83667517;-1.3006889;3.6222622;-0.1620293;-0.9731526;-0.37660387;0.30371746;-2.3044915;0.18784006;-1.994065;-1.5564929;2.223093;2.8762941;2.4549315;-0.36782378;0.20071484;-4.437289;-0.7170861;1.5096577;1.4072983;0.59990764;0.5914582;-0.75521815;-0.4190219;-0.023549149;0.5754296;-3.0891786;0.19343925;-1.353331;2.7486567;-1.43574;2.7786014;1.6171992;-2.208083;-0.35111415;-0.69451314;-0.47438803;0.6251362;-1.325689;-1.4900948;-0.7933458;0.37153476;-2.2178514;-0.66444296;-0.9574858;1.163016;-2.8331788;2.1932938;0.9250093;-0.50701207;-1.3778892;-1.7787803;-1.3120687;-2.0642416;-1.6532445;1.2687645;2.7919617;-0.68293035;-4.8352566;-4.0682244;-0.5952274;-0.53956324;0.71587527;-0.52768517;-0.5952171;1.828337;2.6936517;2.099077;-2.2053237;2.583909;0.25443226;0.3723172;2.3674352;-0.006802356;-1.6724293;1.6360489;-1.5389537;1.5762962;1.6843752;-1.4982691;0.47590587;0.6067811;-4.6970396;-1.4668754;-1.8865374;-3.0272758;-2.9660158;-0.7749816;-1.5779175;1.7582549;0.08130076;-2.7410595;0.5244232;0.36786893;-0.7166065;-0.7617677;0.69402295;2.4477332;0.9130631;0.70786476;0.875032;-1.1124609;-0.69778895;-0.020154057;-2.3690841;-1.8664638;-1.401998;1.1047931;1.5722586;3.3841164;0.30212268;1.4817917;-1.1116216;-0.8522133;0.6660197;-3.6578472;-0.38947397;-1.2806264;0.18939815;-1.4712067;2.80245;1.6977358;-1.3063412;-4.6996613;-0.7931307;1.380086;-2.6698048;-1.3203311;3.22935;-0.5252955;-1.3865438;-1.5391834;1.4995053;-1.2517037;3.419663;2.376554;-0.3396139;-0.47528458;-1.3785942;-1.7478522;0.49479893;2.4701903;1.7064205;-1.4682162;-1.8514842;0.34231085;2.3507667;2.7684207;0.39323145;-0.88958377;2.8475115;-0.6428301;1.0492929;0.37566635;1.6729883;-0.048501085;1.3504674;0.8588776;-1.3423687;-0.7923585;2.9418268;-0.246089;3.76234;-4.628264;1.0837033;-2.0777078;-0.3871799;1.2475582;3.0089746;0.75939316;-1.3321626;-0.33759245;1.0956125;-0.9855653;-3.4292254;-0.21253817;0.342198
Bias from input to hidden layer.
0.05308409;0.027344393;0.085462205;0.13931753;0.1025151;-0.25904116;-0.25624576;0.061874248;0.046251547;0.114561565;0.10867236;-0.11567597;0.0060099172;0.19404955;-0.13759182;-0.1295602;0.05301626;0.18199636;-0.19796184;0.1256215;0.24175087;0.07849591;-0.018412204;0.0062776473;-0.024388058;-0.013754254;-0.05807893;-0.041924722;0.09982547;0.05772566;-0.038356286;0.14953111;-0.14581716;0.10077786;0.03616878;0.07865019;0.19126406;0.03802565;0.10520815;-0.08704394;0.031232597;0.059191503;0.047102172;0.12487629;0.089429654;-0.12907666;0.28629428;0.06469812;-0.15733348;0.27609342;-0.107597545;0.097870715;-0.11343541;-0.098060355;0.07129405;0.037642505;-0.030302472;0.14504285;-0.10133589;-0.045722954;0.07429383;0.4545049;0.035617154;-0.03434113;0.025185408;0.05401569;-0.033736605;0.010586672;-0.0038603588;-0.087194905;-0.066510186;0.12714128;0.03546334;-0.061478317;-0.30466697;-0.1606342;-0.13767385;-0.065262266;-0.08291451;0.0009492171;-0.17534776;-0.18483183;-0.022344213;-0.10337148;0.09515471;0.110288;0.0231494;-0.11010149;-0.15177944;-0.008483441;0.123052165;0.24562596;-0.09189022;-0.0031326013;0.118856765;-0.015912235;0.10237971;-0.069089785;-0.038059007;-0.12186981;-0.07982692;-0.11035141;-0.011688249;0.080108784;0.030497331;0.20696066;-0.24815968;0.16259055;0.24170369;-0.23602058;-0.14008407;0.13324754;-0.100639306;0.118930504;0.08515643;-0.040343635;0.018587707;-0.16758803;-0.0043567014;0.02967758;0.009903497;0.017733546;0.031905342;-0.046275333;-0.02768934;-0.025926996;0.23310357;-0.058139987;0.20088792;0.06512897;0.10508388;-0.22534475;-0.042345043;-0.06906471;0.17848167;-0.094351254;-0.031037249;0.045003463;0.084990166;0.024741497;-0.14064929;0.121890515;0.086831674;0.16584557;-0.029863438;-0.030923514;-0.10760258;0.05215455;-0.16979489;-0.138682;-0.0050328304;0.072617255;0.15402345;-0.08609509;0.19408214;0.057857417;0.07001909;0.03204543;0.04748486;-0.007594786;0.09575367;0.28305402;-0.10799195;-0.07216333;-0.07241023;0.12446916;0.080715366;0.11191155;0.15573514;-0.029056529;0.053018905;0.1946292;0.08441835;0.014001076;-0.032054655;0.10055135;-0.059366427;0.10655424;0.10468074;-0.017193837;0.01936458;-0.18040344;0.022604132;-0.10877461;-0.10210192;-0.026732644;-0.052028593;0.109647356;-0.024697963;0.12124165;-0.25270405;-0.29396564;0.12631924;-0.037479624;-0.025445608;0.09426549;0.1491641;-0.043475296;0.09998392;-0.33951747;-0.113973536;0.029584408;0.026808081;-0.1319226;-0.1731356;0.17675029;-0.11817515;-0.019833019;-0.036414813;0.19835916;0.057649184;-0.05736849;-0.25257602;-0.16634305;0.08324272;-0.14143433;0.010829156;0.35151944;-0.07456695;-0.17487417;-0.096733645;-0.0825309;0.2891624;0.113880746;0.3381269;-0.1606495;0.122719705;0.26951733;-0.15631299;-0.0436073;0.0069874376;0.042991042;0.08715303;0.03423394;-0.039900832;0.09254634;0.021019414;-0.074944414;-0.022955347;0.19069062;-0.08558435;0.15866733;-0.099670686;-0.0818418;-0.062013447;-0.16131045;-0.0031335154;-0.20908439;-0.06766312;0.09915114;-0.18994623;0.2691602;-0.021154102;0.3118746;0.14331596;-0.2227148;-0.050086796;-0.11577414;0.19788226;-0.10372985;0.07808958;-0.0014746259;0.028338319;0.060595185;-0.13347228;0.14572677;-0.068420045;-0.014574546;0.0057013226;0.03789073;0.06646507;0.052997965;-0.05510972;0.13188829;-0.065703124;-0.04507339;0.08387881;0.17336527;-0.24244201;-0.05368833;-0.0076882113;-0.014051128;-0.11689315;0.16914959;-0.01977908;0.016451083;0.07422755;0.20995882;-0.01163886;-0.02461073;0.05359444;-0.0010217894;0.20817107;-0.22690766;-0.086543396;0.21212883;0.17473367;0.07965826;-0.15180983;-0.11264377;0.037486695;0.03526658;-0.2832372;-0.2661264;0.089753956;-0.11537321;0.060063187;-0.019681409;-0.01592255;0.12406389;-0.20071477;0.107080124;0.08707827;0.2576983;0.053831566;-0.07603293;0.035495684;-0.04392217;0.24229333;-0.0014551923;-0.10403975;-0.059802752;-0.053330544;0.092252254;0.13550246;0.095103666;0.08191074;-0.124330506;0.042855214;-0.026044382;0.003110392;-0.12939438;0.16904134;0.29576653;0.06476755;-0.045766912;-0.19618192;0.18186933;0.099617325;-0.007552323;0.08060983;0.3306482;-0.18724978;0.12464979;0.26558962;-0.24380404;0.15744838;0.048387337;-0.025828984;-0.050247174;-0.05242551;0.041956082;-0.24087295;-0.09070333;0.017565798;0.13678011;0.008832164;-0.19606236;-0.1399224;-0.0027933628;0.07125463;-0.015021897;-0.025726937;-0.07996343;0.014641233;0.09105734;0.10922258;0.010072513;0.10268243;0.123542316;0.06791346;0.047430594;0.049353626;-0.047368027;0.085565835;0.10287494;0.007809957;0.112598926;-0.06848343;-0.0006528557;-0.09731952;-0.049140986;0.029711971;0.06674179;-0.050344937;-0.10646459;-0.105736755;0.06270977;0.082156956;-0.25267535;0.023475874;-0.036664773;0.032655936;0.12945305;0.09953879;-0.09693526;0.34376112;-0.005916806;0.049609512;0.047520872;0.11408866;-0.11772466;-0.080187954;0.012075293;-0.06285445;-0.103355944;0.19567017;-0.1022153;-0.032826968;-0.062738135;0.030897139;0.22012469;0.023558611;-0.08444198;0.11090626;-0.20193279;0.29415515;-0.07703778;0.009514561;0.064320296;0.123171166;0.11830309;0.06477151;0.045198288;0.07400687;0.002841788;-0.08093951;0.062429413;-0.069457084;-0.021710401;-0.0067018;0.03522832;-0.24570937;0.013214861;0.055456396;0.009098986;-0.055060416;0.11710069;-0.10532287;-0.051304232;-0.013514396;-0.04669984;-0.06967547;-0.19240668;0.031871222;-0.20902616;0.015794694;0.01034103;-0.22453445;0.06030516;0.08348903;-0.023355579;0.1725119;0.10167352;0.106433965;-0.084976;0.24435192;-0.1268402;-0.073127896;0.015147731;0.026084663;-0.019070433;0.13444048;0.074133076;0.1646255;0.06373718;0.028343998;0.08324273;-0.08953009;0.13648172;-0.1792117;0.114569165;0.18508947;0.14477001;0.093445845;-0.0016559466;0.00019021012;0.113745734;0.2279251;-0.10915759;-0.004119717;0.15921976;0.011234744;0.13063571;0.19821814;0.06123237;0.0570049;-0.034767143;0.088684246;-0.009777409;0.12424363;-0.28006005;0.000944191;0.14301191;0.06201258;-0.14752856;-0.07389026;-0.14821021;-0.007404147;-0.09953839;0.12852368;0.12102715;0.14338394;0.1178258;0.2211991;0.08213308;-0.005380318;0.121005066;0.09905472;0.09931214;0.02901617;0.06752026;0.17019628;0.01731977;0.23600186;-0.008695755;0.10727526;0.3034345;0.35825616;0.036062177;-0.017291075;-0.07474157;-0.066168256;-0.004046865;0.014821171;0.23299487;-0.25908253;-0.05844871;-0.17421521;0.077646114;0.040760543;0.091485284;-0.07118279;0.06983127;0.049747553;0.17597604;0.088115394;-0.1539239;0.088357136;-0.29174164;0.055294108;-0.11469307;-0.045832988;0.24291834;-0.02165418;0.08339588;0.21274291;0.39936915;-0.03642851;-0.16402763;-0.00064155663;-0.06229744;0.09069105;0.034612466;-0.056173567;-0.06013023;-0.025099443;0.2022406;0.08096179;0.09286214;-0.021064881;0.16033863;-0.05795532;-0.14086449;-0.017828822;0.0037579425;-0.045855988;0.034321878;0.20482454;-0.123957284;0.07905403;-0.048724387;-0.16544574;-0.18858829;-0.19203484;0.061619177
Weights from hidden to output layer.
0.64067906;2.392336;-0.26719972;-7.9020853
0.30475608;0.9168129;-0.45213714;-0.7114764
-1.13065;-0.6543381;0.5194408;1.4245219
1.2127906;1.2292974;-2.5975573;-2.4159732
-0.0015714322;-1.2008344;-1.6366388;3.44781
1.5185354;-1.1561042;-2.3340456;1.9352309
2.1067502;1.2698468;-5.6122704;-1.2207506
0.24162926;-0.21345027;-0.2202028;-0.037405476
0.46075556;-2.3906264;-0.013947716;2.7672198
1.6524798;-1.0696974;0.6628965;-2.913111
-0.80712473;0.42962664;-1.2661301;1.6486568
-1.4172996;-0.25557232;1.824587;0.5143167
-0.39285836;-1.4395157;0.7039538;2.2744267
2.216769;0.32300743;-5.7916465;0.85054874
-0.5018024;1.662448;-1.1110423;-1.0935723
1.3939662;-2.88152;1.940383;-0.10727868
0.8575744;1.0501969;-9.3174715;5.320021
-0.5983703;0.97091407;-1.5008265;0.9985109
1.7656332;-5.1504784;2.8120828;3.7021558
-0.9828692;1.0712633;0.6562979;-0.61708766
-1.299773;0.9775485;3.4198406;-3.0385244
1.096697;0.25416476;-3.0544398;1.1816646
-0.5472813;-0.8505105;-0.42581895;2.17596
1.4077321;0.011160431;-2.3036306;-0.1717222
0.41227648;0.101726815;0.40130442;-1.1386887
-0.02058205;0.027395424;-0.6979854;0.6302361
-0.111736044;-1.0850434;1.1298599;1.4746175
-0.57296455;0.7488827;1.2177919;-1.693628
0.10214662;0.13218169;-0.14950627;-0.002496648
-0.25084195;-0.6868361;3.3079243;-1.4461892
-0.44257465;-0.0083591975;0.1598429;0.60792226
1.2712517;-1.4870263;0.5364512;-0.031902954
-0.21338828;0.25180382;0.027413305;-0.07384832
0.65684813;-1.9545851;1.8952247;-0.1295759
-0.2864851;-1.5228707;1.3235362;1.7268335
4.7375655;-3.8491278;-1.8357525;-0.5716355
0.16765685;-0.35289285;2.208168;-2.2160404
0.6551737;-1.2840534;0.105036214;0.79567003
0.7658249;0.65506446;-1.9893595;-0.6870311
0.68662804;-1.0028883;-0.24567787;0.7020654
0.18436563;-0.41435575;-0.90598506;1.3329302
2.3994122;-2.8402662;-0.6429794;1.1980774
-0.47079778;0.0701498;1.104201;-0.6530141
0.027839934;2.9794705;-3.2082126;-1.6402429
1.2614383;-3.618251;1.6607206;2.6668425
-0.6694503;-1.2144313;1.6618605;1.647828
-0.023619868;1.6764857;0.98146546;-3.9356952
0.92567015;0.25475067;2.5948718;-5.89268
0.6536947;-0.9593076;1.3791282;-0.81723106
1.7653525;-2.9706314;2.190081;-0.44155055
-0.03213687;0.25896192;0.92553014;-1.6787821
1.1730232;0.72476363;-1.1573812;-1.294932
1.4675543;-0.5120088;-0.7301562;-1.331302
-0.014503005;0.15377218;-1.0576733;0.8461128
-1.0158646;-1.8786371;4.791943;0.8881861
-0.37998232;0.5229455;5.23215;-5.939407
0.72199637;-1.168155;-2.2378056;2.6927426
-1.3556602;-0.13799985;1.5620182;0.69529945
-1.9301559;1.5789416;-1.1758907;1.6694182
0.41300982;-1.3249358;0.26651692;0.65536964
1.530374;0.41858658;1.6237018;-5.504464
2.2123013;-0.6122909;-2.38402;-0.4313706
-2.3148918;2.562548;-2.4551616;1.7771332
-0.26021984;-0.2888918;0.0011401528;0.5033
0.5441877;-0.79991615;1.7463949;-1.5012513
-0.9681413;1.2714716;-0.9529481;0.45855066
0.21953177;-0.14981605;-0.16641055;-0.004661459
0.76930654;-1.4894136;0.69064754;0.61139244
0.08536773;-0.42278278;-1.0633088;1.423683
-0.14067023;-0.4208133;-0.6619504;1.862149
-0.4843328;3.1316962;-3.0905192;-1.9085392
-2.1157453;2.4802802;-1.2430459;0.376259
-0.037854455;-0.0672527;-0.271773;0.31260434
0.29312617;-0.8441651;2.5894208;-1.6160821
2.2085721;-1.3492668;0.073629364;-2.2488167
0.68489146;-0.5317493;0.50486356;-0.9091497
0.7027954;-0.5506885;-0.24112497;-0.0024987715
-2.0618896;1.7274284;-1.4983841;2.188783
-1.0491726;-0.7430225;2.0247848;0.7173826
1.5727105;-2.6078444;3.9041443;-1.8486698
0.8130032;1.0585109;-4.036597;1.3028544
2.9868395;-2.5408225;-0.826039;-0.041067027
-0.7337203;0.10552289;2.969699;-2.399507
0.9110863;0.71202147;1.2550904;-6.0343924
3.262992;-0.53754914;-1.3557272;-4.2570553
-0.19106941;-0.27810535;-0.4237726;1.6898637
-0.21217774;-0.813906;0.3081459;0.9873322
1.7827749;-0.52881247;1.0007728;-3.2665343
-0.7046527;0.029681154;0.8516785;0.19234088
1.588429;-1.7226388;-0.80429935;0.7620617
-1.0504694;0.60107386;0.47152814;0.1367774
2.0079703;0.24362576;0.61554635;-6.6483226
-1.8877896;-0.12071712;4.5806136;0.36575377
-0.2953593;0.8427693;-0.48991337;-0.54044366
0.3997964;-0.41255775;2.5073078;-2.3790617
-1.3015034;2.0215337;-0.48034278;-0.4578091
0.70440906;-2.2253106;1.7794156;1.8206857
-2.1635094;1.9471744;1.6760293;-1.5479078
-0.32707605;0.07098401;-3.7716863;4.3084145
-1.5412273;0.11044143;1.160626;1.0361378
0.13265818;-0.008726379;0.8775985;-1.6501257
0.8055314;-1.5228777;0.9217253;-0.033072084
-0.14573836;0.54328907;0.89313316;-2.0508022
-0.17506912;-0.23461203;-0.11534492;0.6933894
1.4197679;-4.5817127;4.683951;1.2402102
3.0159023;-3.1215305;0.78714424;-0.5802596
-1.4532216;0.41839817;2.573449;-1.1923767
-0.33124742;0.78173214;-0.59337676;-0.065370806
-1.2324344;-0.37351567;2.4143314;0.95790374
-1.1376574;2.4343886;-2.9260626;0.573365
1.8740264;0.03679337;-4.507933;1.014953
0.4788542;-0.5875003;-1.7533838;1.8119098
-0.08586795;0.07839797;0.0018213497;0.08756836
-0.49016264;0.11008526;1.4305842;-0.84826094
1.3585443;0.034338165;-0.9178899;-0.916665
-0.8711784;-0.094436035;0.7081742;0.32578042
-0.94185895;2.134108;-2.6408637;0.5198028
-0.21269089;3.0371826;-3.5140867;-1.0067229
-0.20467785;-1.1306762;0.6964628;1.4402691
1.4532489;0.0916373;-2.359009;-0.019690022
0.18257314;-1.650211;1.2243775;1.0468274
0.309863;1.1566199;-0.45475236;-2.842449
0.8174278;-0.14088342;-2.523302;1.5422255
-0.001938215;-0.2562006;2.6187658;-2.107988
0.16169292;-0.11455231;1.4300236;-2.038547
0.47212473;0.46548438;-1.5381483;-0.13200174
0.115222484;-0.32855242;2.8262315;-2.6273284
-2.3907313;1.0154997;1.8935248;-0.058474705
-0.28862512;0.25979587;0.9156295;-1.2868258
2.724474;-4.6276054;3.2742975;-0.17167383
0.8977973;-2.5064125;1.66754;0.46908957
-0.41408345;-2.2761612;4.938838;-0.40500507
-0.15397844;2.2572792;-2.7829614;-0.61541176
1.4940763;-1.4275033;3.3441901;-4.34944
-0.9347728;0.028728105;3.9388049;-3.1601956
1.5202172;0.83491856;-2.8269987;-1.3914455
1.0778369;-2.714006;3.04811;-0.257135
-0.017979609;3.18742;-2.6660273;-3.9613647
0.0944602;0.2656906;-0.8497269;0.3553705
-0.04619621;2.0374012;-3.5640595;0.094381034
1.3578165;1.2409416;-5.909904;1.3625301
-0.36953914;2.361873;-2.4270856;-1.4153101
-1.1237171;0.70921946;1.3593191;-0.5042596
-0.3638021;-0.13142169;-0.24586152;1.1109558
-1.0883269;-0.47574654;-1.933984;4.6775575
0.27267113;-0.35355997;-1.795055;1.9879733
-0.39456797;-0.23484932;-0.19172953;1.3016255
0.43907073;-2.4396093;-0.080619946;2.8724756
-0.20556276;-3.0780222;-0.26573625;5.325769
0.6882359;0.30636808;-3.1753576;1.3205109
0.38161772;-3.3377428;2.7257578;2.2676888
-0.011973797;0.1804173;0.4005616;-0.5018728
-0.5316123;0.5390071;2.8963869;-3.6497033
0.97481614;-0.5700641;1.0007783;-3.254951
2.3904366;-1.7031933;-0.5492074;-0.2417402
-0.22878733;0.4197413;-0.47220615;0.039705787
0.28090653;0.47514164;-0.6686249;-0.34035268
1.109258;-0.031935014;-1.15587;-0.67592126
0.13298286;-1.3253024;3.544936;-1.9453037
-1.6772999;0.75751436;1.6384029;-0.31164294
0.49697775;0.058911614;-3.3707817;3.4204931
2.5801852;-2.147275;-0.7258053;0.15590525
3.6353695;-3.982594;-2.563268;3.0115218
2.4406323;-0.47568288;-2.5194454;-0.11901675
1.7653041;0.20081083;0.22574481;-3.4432974
0.03347762;-0.71624386;0.33676767;0.48668334
0.67839026;-0.63177764;-4.0089054;3.430901
0.2748903;-0.10204727;-0.331426;0.063175134
1.1698081;-0.22347897;-0.7018801;-0.62204546
-0.16151243;0.008817956;0.13199052;0.27120942
2.6629112;-1.1498085;-2.3392015;0.3367901
0.090623565;-0.18474802;-0.45643803;0.85791373
-0.9826766;1.7209538;0.31375167;-1.4914749
-0.18082781;1.722489;-0.0349209;-1.8809882
-0.15899588;-0.16262323;-1.1420102;2.3144226
0.39154252;-0.14378254;1.4585326;-2.8679585
0.19667368;-0.11236138;1.0387291;-1.3143857
-2.395765;-0.24645245;2.4167633;2.4401271
-0.85636306;1.2029297;-0.36850533;0.0042050635
-1.1025825;-0.5191275;2.3640056;0.08989459
0.07669125;0.0056237634;-0.3630678;0.1424172
-1.6668423;-1.3005111;3.5395296;1.7894899
3.9904294;-4.20549;-0.28036845;0.25401625
-1.7524321;0.6033587;2.463931;0.4640946
1.0382591;1.0413086;-2.6150103;-0.98189956
0.26701963;1.1001695;-1.476442;-0.9106568
-0.31681737;-2.5446055;3.7034793;1.4537761
-2.5802581;3.0692346;3.1087475;-4.5772953
-0.5682027;0.2977555;2.527775;-1.848863
-0.38402623;-1.6201913;1.7446864;1.3468721
0.98439044;-0.9547971;-0.403057;0.45893198
-0.7712509;0.36999008;0.5209531;0.02424937
1.6146239;1.310826;-5.2962494;0.19995281
-0.6871148;-0.05323428;1.0420493;0.71296585
-0.031255923;-0.10958354;-1.2910467;1.579117
-0.65469944;-0.64020383;1.9552251;0.14785568
1.8636271;-0.11005594;-1.023902;-2.9679646
0.20121351;0.8974975;2.2019026;-3.9676275
1.7918516;0.982974;-2.6289008;-2.0422683
2.2752693;-0.10864226;1.4429023;-6.4243174
-1.8055171;-0.68948424;2.5560074;1.7500257
0.61161214;-1.2770188;0.7792857;-0.073575884
0.120296866;-0.27396998;1.3886412;-1.5965294
-1.6452488;-0.17410247;0.9985473;3.8787768
-1.3516095;1.1073115;-2.5315745;3.2946885
-0.46946627;-1.7540319;1.503716;2.049154
-0.864594;-0.18910372;1.3138828;0.4554482
-1.5202097;-0.04908963;3.2228546;-0.6363083
1.0828255;-0.4329695;1.5509967;-3.6317348
3.0094852;-4.0321593;-4.137283;5.8437
-1.3537709;3.401713;-2.7167652;-0.47480947
2.1932318;-1.0036422;-3.820634;1.841659
-1.0091947;0.5492201;0.7308885;0.17061226
0.44839516;-2.7926831;2.7053828;0.34909254
-2.1266124;1.1082672;2.1665652;-0.76484436
-0.24861978;0.68701935;2.4789286;-4.125119
-0.81820416;3.5116923;-2.0499556;-4.8487306
-1.6585714;0.4830554;0.72033566;0.7431362
0.372913;0.786641;1.4265788;-2.7221038
1.0671927;-0.79953665;-4.526076;3.8436167
-0.82828295;-1.9406867;1.7501477;4.6913013
-0.5694504;-0.08460964;0.8113799;0.25550067
2.159107;-0.067953266;-2.5639882;-0.8604931
0.64843994;1.3115197;-2.3085546;-0.7576377
1.1154023;-0.8103256;1.8344861;-2.4393337
0.30107972;2.4037752;-5.0519404;-0.4653067
0.19518314;0.90095454;0.3678824;-2.2433555
-0.047258794;1.8507549;0.5274254;-3.5889473
1.0170188;-2.4125986;3.858357;-1.7205981
0.6869305;0.03416892;-0.1738477;-1.7320755
-0.48466453;-0.16185507;1.957914;-0.87995815
-1.1125926;-0.10330803;0.6554953;1.2766936
-0.922465;1.1752794;1.9310949;-2.0243063
0.21669073;-0.16786201;0.57369316;-1.0246899
0.27550647;-0.1759943;0.8189922;-1.0528725
-0.05932181;-0.9097603;0.60535604;0.55553025
0.2016979;-0.7128282;-2.2368362;3.6131642
0.25519964;-0.6190035;0.54287535;-0.1000402
-0.92993623;2.703208;-2.9791484;0.16153696
-0.52516;2.4506052;-4.2514434;1.0165852
1.3024405;0.27869996;-1.5168555;-1.8282068
3.5553718;-0.7043103;-1.9158223;-3.320052
-0.9468808;1.855221;2.7729814;-5.607228
-0.45534378;0.09453793;0.44229123;0.041140344
0.62250406;0.5956616;-3.8875916;1.8891666
-0.13348125;1.7404852;-4.599311;1.7082515
-0.52972025;1.9273673;-3.9189863;1.6152014
-2.7523823;2.1023526;1.867522;-0.38628918
-1.1764629;-2.1240244;3.2480397;3.161047
0.93842053;0.23401986;-0.96770114;-1.8841451
1.0585328;-0.9196336;-2.0649178;1.949712
-0.770039;-0.35612342;0.5191703;2.536813
-1.2103314;3.470917;-0.44319648;-4.347733
-0.6530181;0.44356713;3.5367582;-3.2104425
-0.14027299;2.237891;-3.1209393;-0.13408321
0.9021693;-0.4268966;-2.9577265;1.8358814
0.040805552;0.111189745;0.10189471;-0.52804
1.253647;0.4591384;0.689549;-3.4303365
1.8536968;-1.6855382;2.1059155;-2.4655466
0.15615983;-0.53473794;-1.2351645;2.452219
-0.17440677;0.012779712;-0.32823673;0.6704114
-1.0954719;0.548039;0.14313331;0.29008347
0.5202735;-0.6267748;-0.13881946;0.30211034
0.24380188;1.3062412;1.1527464;-4.814252
-0.5459674;0.0719224;0.56714165;0.4275682
0.47305313;-0.67388546;-0.53363895;0.75173
0.28464955;-0.4023566;0.44489476;-0.05743069
-0.43943805;-1.0690858;2.185144;2.1249356
-0.87514085;0.36268744;-0.222892;0.988302
-1.8136144;-0.2769765;3.4487636;-0.16141604
0.025708893;0.15056449;-0.39974958;0.22468635
1.0727503;0.8292949;2.0052783;-6.2436543
-0.29869485;-1.3333642;2.1121767;0.5768544
-0.41751668;-0.49576315;2.9414287;-1.6267754
-0.14518228;2.8918242;-3.4192288;-0.9701262
-1.815622;-1.3749956;3.4526677;1.0406792
-0.13437568;1.5972192;-1.9559172;-0.28079277
4.1517477;-2.4207706;-2.603105;-0.7548972
-0.14429206;1.0640852;-0.07485463;-1.74728
-3.6264095;2.4872003;1.1276358;1.8077893
0.82901835;1.097701;-4.875765;1.6171354
-0.3448745;-0.25078744;-1.1510788;2.6154675
2.0357215;-0.44768423;2.8364875;-6.094628
-1.2516774;-0.28815457;3.4263184;-0.76707214
-0.00027380022;-0.12068586;-0.23075235;0.7690193
-0.06925552;2.9820166;-5.1885242;-0.07362056
1.5179406;-1.7403646;1.5192989;-0.82620305
1.5519693;-0.32790476;-1.2821091;-0.73692083
0.038380682;-0.3364536;-0.31128255;0.91040957
-0.53506994;-0.5645226;0.7707225;0.6071719
0.38467672;1.3796744;-1.5394135;-1.2189431
-0.046971414;-0.083762355;0.032330696;0.35886064
-0.0014632533;-0.31429175;-0.65202606;1.1119382
-0.53019476;1.0578212;1.2765069;-3.7293165
-0.110986166;-0.54695535;0.81433535;0.2280044
-1.0837197;2.6039705;-3.3004005;0.74435407
-0.5120133;-0.49712434;0.43644303;1.9751449
1.0078107;-2.2457373;2.7597537;-1.0374539
1.6701514;-0.35013738;-2.659836;0.258555
0.40898672;1.4725114;-0.51040965;-2.9591565
-1.5318248;1.7476645;-2.4232635;2.124237
1.0668659;-1.6520079;-0.76790637;1.670699
-0.009521383;2.4501321;-4.2162914;-0.115264446
-0.5082477;0.20896327;0.22299755;-0.084544614
-2.8172867;0.69393003;3.1884782;0.35107514
-0.20363142;2.5268483;-2.5374925;-1.1604583
-0.3958456;-0.4038306;3.1359046;-3.0307572
0.3228253;-0.3324612;0.32396156;-0.41771024
0.61631954;-0.7543398;-2.7958465;2.5725021
-0.9029797;-0.5416055;1.2572745;0.79412615
-0.5546032;0.805008;3.6777272;-4.1388855
0.27816465;0.0048565483;-1.1216433;0.44977257
-1.3946326;3.0511558;1.6023098;-4.8031507
-0.34894708;1.6383438;0.37614667;-3.7470329
0.28685632;-2.0013661;1.6417397;0.593663
-1.0191025;0.38774663;-0.008980277;1.0568202
0.39491576;0.046821658;1.9036484;-2.8339279
-0.23074482;0.21856551;0.0040011355;-0.11746893
0.31145346;-0.064606994;-1.3328074;1.4711477
0.4432193;-0.60445744;2.2602882;-2.675971
0.47852695;0.56839556;-0.30518875;-2.216349
0.550387;-0.21309927;0.91058195;-1.7546862
0.77480525;-1.3907453;-2.1190178;3.7820194
0.67997694;1.5686852;-0.3438207;-3.5358713
0.24596043;-2.4727325;3.4886603;-0.0024521865
0.07630765;-2.0370114;-1.447586;4.272832
-0.73155385;0.7037399;-0.20601016;0.2141535
1.1233684;-1.3367469;3.3194292;-3.7581217
-0.76859367;3.3221462;-2.6121643;-2.1459155
-0.6186026;-0.10830817;1.206893;-0.004830687
1.3329427;-0.23679522;-4.077951;2.080334
-0.21499276;0.11944579;-2.538955;2.6672091
-0.399192;-0.47925687;0.52450055;1.1916963
2.449119;-0.18896253;-1.4492216;-1.3282367
0.6972796;0.48030764;2.1633165;-4.5347624
-1.2178916;1.067502;1.754448;-1.2114065
-1.8940763;-0.19997676;1.3552477;1.8893771
0.52734625;0.77659875;-4.941291;3.4562688
1.3348957;1.1948552;-2.919982;-1.5475305
0.07800372;-2.1421795;1.4265777;1.9581584
-1.6669775;0.01880233;1.6071551;2.3856022
-1.1675969;3.897376;-4.287719;-1.2092516
0.15833439;-0.84154314;-3.0372276;3.8030968
1.1759341;1.0279733;-6.0788693;1.6058251
2.3554714;0.22965011;-4.468617;0.11874425
-1.8501844;-1.697879;4.7091355;2.9141505
-0.18049587;-0.334399;0.16067752;0.9382596
0.037919044;0.42904982;-2.735662;2.4855537
-0.027203944;-0.027194643;-0.026812486;-0.027236268
-0.404288;0.066713184;0.24887106;0.23061244
-0.0059441198;0.7060689;-0.6597223;-1.0679452
-0.16870506;-0.005734243;-0.15188459;0.634352
-2.4864929;2.8920712;0.49200812;-1.0234226
-0.44365746;0.75365686;0.8158929;-1.2584066
0.73724616;-0.08241593;2.1198213;-4.899752
1.7178277;0.72870207;0.04512036;-4.313514
1.108587;-3.5560844;0.18969683;4.124566
0.24341506;-0.44780877;0.017473359;0.19278832
0.09190194;0.79253024;-0.34782016;-1.18515
-1.4865296;-0.07039175;0.80170095;2.7530754
1.7224259;-1.192494;-1.2009475;0.4565642
0.020855306;0.043401517;-0.15645683;0.15240748
0.8170033;-2.4867456;3.7572048;-1.3321061
-0.2450713;1.1610913;-0.6957154;-1.1631925
0.21971624;0.32181332;-0.3178883;-0.566101
2.6325188;-0.92578113;-3.4815283;0.8723851
-0.118848845;1.481292;-1.2845578;-0.32952052
2.4892519;-3.2156749;2.0123203;-0.7011143
-1.3744084;-1.3665733;4.034905;0.24523488
0.04633908;3.497325;-2.3175263;-4.651079
-0.28165707;-0.6537983;0.58877647;1.5851234
0.19041741;0.12657873;-0.10744389;-0.20991352
-0.7295534;0.57404596;-1.4590496;2.1724064
-2.6063232;-0.026880011;2.8888345;1.0153376
0.24658057;-0.8596278;1.9096799;-1.0813316
-1.3354865;0.5339454;-0.30799127;2.694379
0.8736796;-0.47914773;-3.1059444;2.6818812
0.30877906;0.17081347;-1.0757666;0.08248564
-0.21458416;-0.33447227;0.8372365;-0.1606472
0.23230782;2.55564;-4.751532;-0.3711369
0.46443477;0.689718;-2.455655;0.87140876
0.8296923;1.8459638;-4.351897;0.13049017
-0.36543676;2.044337;1.9084088;-5.095058
0.22100991;1.7569536;-3.7610772;0.010616381
0.2120274;-0.5211045;0.42982498;0.020701531
1.5879619;3.4624577;-6.2621956;-4.7976866
0.8070572;1.0544672;-3.667976;-0.016793773
-0.20936048;-1.2228532;4.1619167;-2.6389604
0.29756573;0.15845323;-0.8486649;-0.15781708
2.0441718;-2.8583832;0.4443557;1.1195533
-0.53761834;-0.3205658;0.9160785;0.6732648
-1.6550997;0.5728264;-2.1332197;3.7840657
0.03994952;0.4299455;0.8008926;-1.7554687
-2.2322881;0.31106544;2.090932;0.63341594
0.05509961;2.517143;-2.3079102;-1.4980872
0.59718156;-0.38288948;1.0380608;-0.8790813
0.6507772;2.9064224;-4.6166167;-1.8086282
0.1191578;-1.7522292;-1.656078;4.12894
0.26786116;0.47274798;-0.730038;-0.25885266
-3.0506954;0.4402689;2.3984742;1.7263108
0.23484607;0.7127258;-2.1752436;0.5904718
0.8651834;-2.5967388;1.5949905;0.95063853
1.8962908;-2.6641707;2.3045352;-0.7969514
4.2371693;-1.2715126;-3.4228892;-2.6576095
0.45091268;1.5416554;-1.4116248;-1.6744229
-1.7841849;0.17242359;-0.8203206;3.8007522
1.6227481;-1.7737508;2.9554174;-3.1433537
-2.4901345;1.0303347;0.95525676;2.294069
-0.0756152;-1.9944305;1.5746675;1.3362231
-0.9961539;-0.8969507;0.2490294;2.0276356
-2.590498;1.6437056;3.216863;-1.4340191
-2.9662156;0.37362465;3.085445;1.3111386
-1.2269467;-0.7130101;-0.019641934;2.6721876
-0.9071639;-2.130727;3.191871;1.4890076
0.08144689;-0.7278587;-0.21728267;2.0982323
-1.0059831;-0.4140034;3.047825;-0.79081756
1.7416356;-3.0167558;0.4278914;1.6511623
-0.70563227;-3.066121;4.3400207;1.8877912
1.3610122;0.31294358;-1.6595659;-1.4098985
0.09785775;0.21620326;-0.17130248;-0.8189696
1.683804;-0.41377696;-4.26122;1.3920852
2.6353805;0.0072431173;-2.7692146;-1.6935637
1.4130273;0.38050953;-3.5940547;0.6036475
0.21955892;0.15559669;-0.20845407;0.052835394
0.43222985;1.6698898;-4.838014;1.3084952
-0.5764951;-1.6918273;1.693959;1.201884
0.049070153;-1.046817;2.2683554;-0.6672206
-0.5845968;1.9439305;-0.38474822;-1.7487602
1.513264;-4.038215;1.7593265;3.3659232
0.4059727;-0.20530866;0.7395414;-1.1034507
0.065017544;1.775005;-2.1394975;-0.898931
-1.1058002;2.2112947;-0.71378464;-0.6593921
2.5360093;-4.303668;6.051882;-3.372976
0.35364485;-0.23575538;1.6532506;-2.9333475
-0.31775713;-0.36188954;1.7270699;-0.3582418
-0.41370255;0.23930225;0.87731594;-0.4370452
-0.35332885;-0.17478518;0.34441146;0.47406536
-1.1893771;2.8232331;-1.6585433;-0.7785133
0.090908274;-0.81625235;1.0335035;0.0040217508
0.05976401;-0.14648241;-0.064326316;0.2876873
0.031722054;0.031792898;0.03111021;0.03160813
0.29539558;0.33825412;0.10907184;-1.3980561
-0.38963792;-0.60410374;-0.5863366;2.6464078
-1.0924935;0.488244;0.7489109;0.3216595
2.6805766;-2.0569756;-0.16526616;-0.9845177
0.09608112;-1.5779926;-1.8035716;4.3280163
2.3031402;-0.50728345;-3.7258956;0.30451226
1.5798253;-0.124431975;-3.633583;1.1706115
-1.9301991;-0.41511405;2.185911;1.8623859
-0.12205755;-0.34064597;0.307875;0.51849043
1.4686255;-0.055530734;-1.6943953;-0.63632476
-1.1910748;-2.843784;3.2005491;3.4530861
1.6949804;-0.7432135;0.41261888;-2.3287559
-2.6898158;3.068029;-0.6459003;-0.24698992
-0.7830267;-0.6314357;1.1503912;1.3800106
0.7110882;1.6426408;-0.7090778;-3.953641
2.9831154;-3.39217;-0.037528608;0.59334433
0.98468435;1.4467924;-3.4334564;-0.5561609
4.0839186;-1.1103274;-4.040331;-2.6827886
0.0043655387;-0.20337144;0.27305788;0.3735003
0.5586712;-0.7750364;0.53924114;-0.11512666
0.73038775;-1.1059875;-2.1817632;2.5827818
2.0847354;0.47395626;2.2957954;-7.2090254
1.221753;-1.4994444;3.1057172;-3.2607372
-0.1559982;0.6130349;-0.1899683;-0.4190308
0.18361108;-0.21101536;-0.400432;1.0650232
0.58827674;1.0750808;-2.7438812;0.3199397
-0.20750636;-2.139089;2.1051018;1.7204063
-2.1073706;0.9003482;1.6472347;0.25112802
0.74345696;-2.4295685;1.7299204;0.8551818
1.6754216;-1.7649615;-3.5719965;3.8015208
0.3739829;-1.8834496;3.4525752;-1.5677599
0.10585241;-0.8225697;0.81478894;0.15801385
-1.0735874;1.374652;-2.3325908;2.7351365
0.98386645;0.07993414;1.5729698;-4.7274737
0.77592933;0.5503062;-2.1981187;0.17189081
0.8566508;-0.6908044;2.9695776;-4.27557
2.004845;1.6701137;-5.2752404;-1.1674459
-1.3050154;2.0015347;-0.6822774;-0.1595529
0.9190462;1.450787;-0.90798527;-4.1771135
-0.24678461;-2.4418793;1.0802971;4.5513487
0.49288097;-0.47692883;2.4846435;-2.8852081
-0.91755784;-0.79152673;1.3621557;1.0094795
-1.0541241;3.9420722;-2.0147014;-3.164298
0.77833563;1.6360629;-1.3876739;-2.6577256
1.1411327;-0.65723556;0.8174683;-1.6513063
-0.40976802;-0.45943454;-0.5638759;2.3374372
2.315255;-2.6420448;-1.3965273;1.7049675
2.0103452;-0.62969047;-0.10521105;-2.534395
0.29243222;-0.85622156;0.46182603;0.4000315
-0.500766;0.2408484;-1.5892266;2.6626427
2.5074964;-1.3577181;-0.6928639;-1.9138333
-0.067704506;0.95127;-3.6402733;2.06939
-2.6697514;0.63750553;2.4000516;1.0932391
-2.600583;2.7429547;0.38296717;-0.62738335
4.1539674;-2.775262;-3.9654677;1.0624077
-0.7067421;2.5071306;-1.4608805;-1.1160092
-0.09250604;1.1175636;2.2122695;-3.9027245
-1.215289;0.08852913;1.893823;0.013319392
0.19931039;-0.88737714;-1.6003476;2.7153661
0.0142203765;1.8809199;-2.7827194;-0.72233
0.725531;0.8892969;1.6700406;-5.176457
0.37282422;0.58686423;0.05261103;-2.5205398
0.7119092;-2.092344;1.2911876;1.5858836
-1.0235755;0.013673174;1.6186444;-0.25257707
0.52079296;-3.1469939;6.12155;-1.7374798
1.2191626;2.9115427;-4.7066574;-5.295777
0.06302917;0.48698184;1.804846;-4.642829
-0.48675686;-1.9834317;1.754099;2.6624305
-0.29365718;5.141828;-4.168741;-5.6960287
0.23284261;-0.9942521;-0.28695157;2.1044555
-0.22076368;0.03025473;-0.09660422;0.79737216
-1.4626702;1.8928238;4.1764483;-6.0258713
-0.50480396;1.4529545;-0.17848201;-0.81868076
1.2348535;-0.79756314;-0.73606354;0.18640344
-0.88332546;0.56566536;4.329403;-4.8900676
0.6663361;2.715726;-4.5932245;-1.7270457
0.6201974;-1.0616715;-0.33107746;1.0700489
0.8455076;3.1250067;-4.5304284;-2.5491953
1.0693715;0.4808485;-2.730353;-0.18965633
0.4400072;-1.4985526;1.6811299;-0.11209387
-1.5717524;0.32554233;1.534436;0.91013366
-0.428984;0.4573395;-3.2828546;3.5818753
-0.042105846;1.0437428;-3.2605646;1.3070682
0.5661232;-1.2291119;1.1720915;-0.13260359
-0.6245219;-0.09530841;0.465115;1.1798532
-0.8104348;-0.16665328;0.98616505;1.2608254
-1.2035836;-2.704916;4.7566223;2.5650733
0.25325033;-2.3224456;4.2807984;-1.0188158
0.11870055;-0.07226361;1.1516869;-1.6940265
-1.3435884;-2.6979349;1.1302602;6.0272126
0.4987448;0.17400809;0.29682332;-2.7346845
-1.3325366;3.0113196;0.7398719;-4.587208
-0.9919126;1.9041063;0.048860364;-1.7853111
0.0063720495;1.591021;-2.9566882;0.42619458
1.2838573;-0.3199437;0.84890175;-1.8610799
0.11474843;0.08066071;1.2836876;-1.7506527
4.163033;-2.7061503;-2.8244336;-0.1209862
-1.2269391;-0.20244353;-1.5303919;4.0808444
-0.5209231;1.4029957;-3.6190493;2.074278
0.34915435;1.0105906;-0.3313388;-2.79085
0.3038327;-1.052163;-1.1029367;2.1229985
-0.19627899;-0.49244615;0.910755;-0.061382014
-1.1522632;-0.88637394;2.1086435;0.56394804
-0.88191116;0.076832265;1.786891;-0.64581037
0.18213992;-0.10550359;1.2186642;-1.7645706
0.87322414;-0.066553526;0.99100417;-3.8732014
0.79476917;0.9006063;0.8250381;-5.2870297
-1.96775;1.2911968;0.5841412;0.32067108
0.24256654;1.429763;-2.0303113;-2.0563715
-0.24555907;-0.18682006;0.32299298;0.43143293
3.719669;-3.5425346;-2.530864;1.5190345
-0.05417464;3.1221893;-3.650804;-1.8687131
0.23115735;0.70903224;-3.8090608;2.1366487
0.26591522;-0.47348964;0.1821905;-0.07503007
1.3634528;-1.139707;-0.8319381;0.53179574
-0.40413257;0.65632737;0.67005897;-1.4238997
0.2883296;0.11637773;-2.7178702;2.0317593
-0.04901162;1.9978944;-5.5242825;1.4636451
-0.943978;0.6243666;1.8217524;-1.3975075
0.032559037;-0.17610785;-0.19212398;0.5201721
-1.9383347;0.57409805;1.6168001;1.0161195
0.3239055;-0.8642432;-2.1999297;2.7302308
0.23252983;0.3602023;-0.9017349;0.098734416
-0.21343152;-1.6652277;-0.21345143;3.0092304
0.044809736;-0.40662155;-0.06319719;1.3981234
1.538825;-2.0823915;0.122844845;0.66730535
1.0364861;-2.2546356;3.3726566;-1.3086218
-0.9781265;-0.17587316;-0.67759037;2.4912028
0.41368043;0.41388166;-0.08337233;-2.4409842
-0.15016493;-0.6886174;0.2970375;0.6957567
0.451138;1.4921396;-2.977182;-0.03528242
-0.8892734;-0.4958784;1.8377979;0.16334775
2.2425592;-4.1295056;1.995072;0.722473
3.362229;-2.4035187;0.8825569;-2.7469015
-0.21270573;0.0050742193;0.9315151;-0.76567847
Bias from hidden to output layer.
0.08789028;0.0017283817;-0.10058198;-0.011794541
